0.533910 0.340216 0.254895 -0.261865 0.956895 -0.976177 -0.051631 -0.178825 0.242754 -0.137597 0.090859 -0.842959 0.222412 0.291696 0.586109 0.038830 -0.025961 0.793558 0.813750 0.985632 0.169716 -0.713220 -0.672641 0.701224 -0.295285 -0.602143 0.927239 0.425232 -0.314641 0.164802 0.080033 -0.780731 -0.494982 -0.665071 -0.042596 -0.538086 -0.641249 0.905772 0.283089 0.601505 -0.231825 -0.626053 0.758546 0.990587 0.665643 0.344656 0.029417 -0.360318 0.138213 -0.156833 -0.374687 -0.692071 0.129947 -0.047327 -0.990847 0.834663 0.350530 0.936392 0.259895 -0.964111 0.101194 -0.660072 -0.744842 0.606212 -0.325143 0.212561 -0.931874 0.033608 0.118333 0.351214 -0.364887 0.886508 0.725161 -0.606341 0.877096 0.390804 0.738315 -0.093487 -0.969514 -0.123472 0.749680 -0.344201 0.184457 -0.120372 0.608472 0.193610 -0.285709 -0.040998 0.130002 0.974186 -0.005109 -0.768804 -0.685886 0.250049 0.837408 -0.011029 -0.537390 0.905534 -0.977422 0.580943 0.256748 -0.342309 0.467452 -0.018090 0.051350 0.344547 -0.627286 -0.210335 -0.748940 -0.596800 0.666193 -0.999259 0.058999 -0.149350 -0.119632 -0.332529 -0.955740 0.594659 0.626473 0.174262 0.568845 -0.378636 0.405458 0.882958 0.871413 0.242866 -0.128071 -0.665977 0.148401 -0.105493 0.914966 -0.594851 0.552199 0.382417 0.387058 -0.396451 -0.273036 0.759772 0.393214 -0.021976 -0.837028 0.059407 -0.021235 0.221972 0.910057 0.859133 0.889443 0.954317 0.453792 0.515916 0.128579 0.022637 -0.862719 -0.465963 -0.094405 -0.991307 0.776903 0.777524 -0.657284 -0.074696 -0.327968 -0.742319 0.330453 -0.775770 0.640099 -0.282489 -0.172220 -0.632937 -0.522717 -0.779006 0.345088 -0.359744 0.280401 -0.676147 0.862227 0.190458 -0.817014 0.751671 0.144774 0.636778 0.267587 -0.726647 -0.340585 0.404868 -0.192610 0.565011 0.413561 -0.415707 0.342535 0.756276 0.509596 -0.985433 -0.986042 -0.159951 -0.761203 0.654057 0.557560 0.066577 -0.978880 -0.965157 0.287571 0.366208 -0.324901 -0.432029 0.690060 -0.462673 0.758429 0.873046 -0.711003 -0.096797 0.509825 0.556584 0.176556 -0.830760 -0.038548 0.983946 0.734251 -0.624988 -0.431762 0.076786 -0.868711 -0.922165 0.091353 -0.854753 -0.082116 0.330151 0.799304 -0.524556 -0.603273 0.820423 -0.489713 0.684298 0.186631 0.185386 -0.747731 -0.123309 0.722713 -0.989302 -0.250262 -0.988290 -0.086098 -0.740438 0.568294 -0.909542 -0.571197 -0.470254 -0.925597 -0.836946 -0.095241 -0.357358 0.239840 0.036048 -0.279523 -0.668807 0.181294 0.638360 0.661344 -0.019402 -0.886196 -0.941929 -0.198979 -0.375909 0.742369 0.987652 0.809478 0.994639 -0.135656 0.532191 -0.994663 0.614081 0.543901 -0.080761 0.873644 0.112195 0.009696 -0.697553 0.641941 0.084100 -0.534500 -0.453300 0.726742 0.705341 0.582748 -0.552782 -0.963466 -0.235958 -0.914421 0.697878 0.744640 -0.800617 0.755949 -0.454339 -0.176526 0.498318 -0.466686 -0.367048 0.492957 0.397657 -0.834857 0.498294 0.011739 0.709044 -0.582467 -0.114617 -0.178761 0.427229 0.187829 -0.536820 -0.488671 0.653330 0.009880 -0.761929 0.358670 -0.407372 -0.314711 0.395204 0.356670 -0.229132 0.093082 0.101310 -0.029749 -0.150969 0.646971 0.793725 -0.652651 -0.819715 -0.573323 0.840306 0.577942 -0.408180 0.338600 -0.410319 -0.699137 0.756132 0.475064 0.122102 0.183361 -0.337107 0.585283 0.694690 -0.683777 -0.404837 0.932761 0.674893 0.187791 -0.381950 0.070097 -0.455539 0.388918 -0.836821 0.645771 -0.640831 0.012210 0.292742 -0.847106 0.359559 0.473027 -0.420429 0.199865 0.050969 0.171390 -0.461535 0.640650 0.472254 -0.705403 0.115714 -0.405644 0.477959 0.778607 -0.820362 0.172649 -0.905170 -0.225199 0.105410 0.769723 0.962592 0.723460 -0.160179 -0.492947 0.112378 0.003000 -0.847176 0.471547 -0.984790 0.445566 0.624441 0.374769 -0.081407 -0.795988 -0.425366 0.969562 0.375402 0.113099 0.610213 -0.152344 0.407696 -0.274073 0.442011 -0.114345 -0.495466 0.621650 -0.941696 -0.400635 -0.603549 0.163714 -0.630912 -0.640957 -0.112825 0.208908 -0.133903 0.999553 -0.788092 0.018921 0.471100 -0.772882 -0.535513 0.095541 0.601887 0.383081 0.299553 -0.823479 0.352643 -0.325044 0.289620 -0.037145 0.522611 -0.302684 0.688782 -0.035377 0.582971 -0.806683 -0.413727 0.641276 -0.207319 -0.017276 -0.195010 0.161769 0.341767 0.692165 -0.629322 -0.792136 0.691718 -0.417414 0.226785 0.162818 -0.190296 0.691273 -0.741641 -0.588409 0.074353 0.557912 -0.411888 -0.573004 -0.767132 0.877732 0.389851 0.755479 -0.424952 0.078634 -0.279898 -0.841981 0.271950 0.306375 0.799295 -0.935369 -0.710902 -0.395715 0.226401 0.630865 -0.703550 0.597078 0.838729 0.988167 -0.820336 0.065515 0.150985 -0.010632 -0.243213 0.409344 0.400958 0.831141 -0.032744 0.989070 -0.741863 0.200124 0.866801 0.647988 -0.044397 -0.558151 -0.273378 0.675706 -0.400131 0.998572 -0.017920 -0.600836 -0.936796 0.271178 0.003449 0.289604 -0.097957 0.299898 -0.113318 -0.259227 0.288065 0.066346 0.806287 -0.560950 -0.944286 -0.436925 0.848394 0.456672 -0.605785 -0.184350 0.445742 -0.347648 -0.984225 0.312543 -0.699660 -0.028622 0.754393 0.026962 -0.352916 -0.645739 0.025534 0.629164 -0.246575 0.088738 -0.099658 0.756874 -0.621658 0.802385 0.056773 0.265024 -0.456842 -0.655162 -0.668630 -0.650554 -0.216112 -0.612916 -0.087480 -0.367718 0.843756 0.306736 0.447933 0.289498 0.959088 0.463707 -0.397959 -0.740572 -0.564915 -0.643567 0.286390 0.082169 -0.289305 -0.688076 -0.288667 0.464120 0.400661 0.611674 0.220994 0.779003 0.414060 -0.722233 0.044027 0.957218 -0.377395 0.375397 -0.693336 0.406493 0.762481 0.219184 -0.961224 0.606237 -0.474081 0.486709 -0.104266 -0.514993 -0.049584 0.497775 -0.255565 0.385501 0.854209 -0.969176 -0.532330 -0.435097 -0.657252 0.179003 -0.970977 0.743410 -0.209323 0.250018 0.522413 -0.795263 0.527784 -0.433560 -0.838045 -0.849611 0.941838 -0.531381 0.556883 0.704319 0.687803 0.595659 0.310556 -0.786277 0.082367 -0.793710 -0.301270 -0.967217 0.704066 0.443164 0.418284 0.558274 0.473989 0.885954 -0.876823 0.816737 0.064957 -0.847799 0.560147 0.855634 0.402218 0.082560 -0.939629 -0.069997 0.649000 -0.777673 0.080392 0.590838 -0.309054 -0.362725 0.295157 -0.621251 -0.767067 -0.394287 -0.407529 0.315300 -0.187997 0.291201 0.348083 -0.483931 -0.265635 -0.233632 -0.925657 -0.791646 -0.347678 -0.802480 -0.974909 0.717279 -0.650279 0.585238 0.572913 0.751939 -0.332202 0.633284 -0.318059 -0.683201 0.855611 0.762333 0.907637 -0.453444 -0.600392 0.202794 -0.074695 -0.367459 0.808506 0.517776 0.947841 -0.379490 -0.191023 0.295925 0.136578 0.543342 -0.937708 0.210921 0.751696 -0.285386 0.408441 0.776787 -0.568107 0.758162 0.362026 -0.995194 0.510101 -0.970176 0.638090 -0.807958 -0.653377 0.493701 0.954375 -0.745741 -0.959743 -0.646017 0.457053 -0.034438 -0.013476 0.265559 -0.516662 -0.065634 0.886069 0.292314 -0.769710 0.022647 -0.164344 -0.707417 -0.766432 -0.412648 0.007197 0.642009 -0.635860 0.439090 0.400171 0.726166 0.443896 -0.089729 0.755990 0.081986 0.102313 -0.897388 -0.424314 0.056689 -0.643129 -0.384057 0.410672 0.813924 0.581504 -0.602804 0.079484 -0.935158 0.331562 -0.034448 0.357156 0.561852 0.988199 -0.807188 0.854435 -0.778233 -0.219835 -0.138369 0.863777 0.144305 -0.699279 0.263947 -0.129530 0.744617 -0.825781 -0.373540 -0.173398 0.276532 -0.270928 0.402288 -0.666779 0.085944 -0.981769 0.743893 -0.100132 0.599735 -0.858911 0.979352 0.664577 0.472650 -0.055096 0.021733 0.034503 -0.066897 0.214546 -0.111063 0.154871 0.994711 0.750569 0.018647 0.139015 -0.948710 -0.717406 -0.990514 0.795907 -0.543187 -0.364054 -0.377491 0.733346 0.365018 -0.975202 -0.933434 -0.549038 -0.956971 0.810459 0.350830 0.642765 0.951548 0.330181 0.307342 0.424198 -0.724915 -0.670925 -0.541299 0.208188 0.543621 0.347638 -0.636941 0.538331 0.098207 0.381706 -0.322653 0.149497 0.664300 -0.313168 -0.054596 -0.878887 0.322778 0.567913 0.854459 -0.312204 0.592711 0.921025 0.138758 0.635740 0.731484 -0.510413 0.278504 0.683032 0.819768 -0.414154 0.107231 -0.905147 -0.085079 0.565932 0.303042 -0.541458 -0.086430 0.666100 0.996873 -0.988223 0.047806 -0.325780 0.161273 -0.287894 0.361052 -0.893323 -0.166780 -0.316170 0.674590 -0.312322 0.371626 0.267301 -0.391296 -0.489616 -0.096960 -0.659812 -0.000029 -0.818455 -0.976780 -0.180261 -0.232609 0.130451 -0.085408 0.682312 -0.303617 -0.782366 -0.859147 0.609952 0.883734 -0.862273 0.621729 -0.068460 -0.188054 -0.216998 0.643647 -0.827001 -0.110321 -0.523134 -0.143171 -0.435731 0.164545 -0.771545 0.831570 0.773248 -0.261162 -0.265390 -0.886564 0.738809 -0.083845 -0.863343 -0.441452 0.683545 0.267108 0.473141 0.365857 0.963490 0.690775 0.506710 0.573443 0.574509 0.644437 0.195172 -0.493950 -0.543617 0.978174 -0.850304 -0.370618 -0.132146 -0.373437 0.486210 0.432123 0.791107 0.714665 0.263693 0.564355 -0.546496 0.998303 0.677792 -0.807687 -0.085542 0.814448 -0.249139 -0.401997 0.081556 -0.775998 0.963860 0.045047 0.914776 0.470571 -0.381510 0.489285 0.115008 0.813661 0.995335 0.571391 0.791836 -0.854969 -0.799227 -0.340311 -0.228406 0.686983 -0.908188 -0.437299 0.401648 0.355505 -0.872944 0.855152 0.353808 0.804848 -0.952535 -0.731734 0.619296 -0.201675 -0.133730 -0.299147 0.022327 -0.169870 0.745899 -0.062897 -0.699299 -0.635611 -0.573611 0.415708 -0.821950 -0.578276 -0.012901 0.969886 -0.433245 0.187872 -0.370425 0.338349 -0.125145 -0.278613 0.901050 -0.723497 -0.923107 -0.971893 -0.868345 0.430701 0.832955 -0.820880 0.698967 0.452252 -0.022555 -0.434763 -0.846896 0.999772 0.395366 0.899004 -0.063125 0.696067 -0.736608 0.363264 0.111775 -0.558558 0.784988 -0.901126 -0.588672 -0.648256 0.286746 0.040904 0.690093 -0.838400 0.762291 0.591143 -0.561897 0.839184 0.619250 -0.430242 0.269884 0.452205 -0.251122 -0.031149 -0.095543 0.726323 0.534088 0.057561 0.726095 -0.070546 -0.043435 -0.337030 -0.374479 0.219957 -0.973765 0.737296 0.661400 0.811223 0.836170 -0.927272 -0.837034 0.122916 0.113631 0.853059 0.284516 -0.124078 0.444203 0.722620 -0.284894 0.063453 -0.707622 0.984990 -0.484342 0.041256 -0.046159 0.420115 -0.232421 -0.512071 -0.522323 -0.506326 0.417383 0.434242 0.156644 -0.957095 -0.345801 0.182879 0.780201 -0.684402 -0.005898 0.616371 -0.611674 0.157068 -0.260713 0.501958 0.010127 -0.976196 -0.622120 -0.545670 0.746424 0.092986 0.517782 -0.961199 0.077976 -0.966559 0.080057 -0.968182 0.453556 0.847636 -0.480253 0.931233 -0.658690 0.937131 0.365474 0.497954 0.980035 -0.980327 -0.319167 0.760236 -0.664728 0.674934 0.376607 -0.276402 -0.167998 -0.884105 -0.774444 0.842129 -0.860301 -0.396564 -0.703541 0.886122 0.696422 0.814241 0.924924 -0.225601 0.847682 0.004981 -0.193783 0.301238 -0.147383 0.325964 0.232471 0.193927 0.263094 -0.402055 -0.308120 0.243129 -0.382382 0.372713 0.003366 -0.047110 0.047647 -0.620027 0.676488 0.879649 -0.504132 0.902044 0.721778 -0.364433 -0.494519 -0.981763 -0.478311 -0.798097 0.832478 -0.553387 -0.023698 0.680160 0.451594 0.782519 -0.018602 -0.695789 0.108483 -0.786132 0.498138 -0.628423 -0.188187 -0.809982 0.614706 0.429432 0.562730 -0.381928 -0.617678 -0.389623 -0.001955 -0.941189 -0.509974 0.493913 0.960855 -0.788196 -0.870520 -0.533664 -0.769959 -0.348831 -0.331761 -0.937481 0.097782 0.644541 0.742679 -0.450624 0.427060 -0.275924 -0.146413 -0.464458 -0.062055 -0.648276 -0.092881 0.749758 -0.458258 -0.478175 0.179190 -0.895527 0.139897 0.561512 -0.285150 -0.862058 0.620323 0.204876 0.631855 0.581178 0.416680 0.761335 -0.952486 0.646721 -0.587497 -0.284247 0.709240 0.510285 -0.639706 0.451919 -0.940339 0.787354 -0.824005 -0.086752 -0.677104 0.113940 0.264972 0.230015 -0.136302 0.806715 0.751840 -0.957111 0.911187 -0.108262 0.604401 -0.373962 0.029680 0.224724 0.830914 -0.338465 -0.194098 0.247594 -0.577130 -0.146583 -0.105684 -0.164627 0.569170 -0.396444 -0.654342 0.929464 -0.944525 -0.594681 0.716818 -0.768530 0.318567 -0.960286 0.345410 -0.416460 0.269728 -0.790891 -0.609746 0.021569 -0.748003 -0.698558 0.913307 0.856398 -0.072521 -0.057014 0.081122 -0.241607 0.604521 0.887025 -0.994013 -0.972609 -0.259559 -0.099697 -0.137236 -0.690389 0.503859 0.208422 -0.760925 0.559334 0.613742 0.955893 0.790804 -0.067691 0.995606 0.136214 0.515849 0.265334 0.345323 0.906103 -0.713097 0.597320 -0.792455 -0.799790 0.453719 0.135024 0.143196 -0.465159 0.893417 -0.252282 -0.578134 0.899404 -0.224891 0.162307 -0.200293 0.637873 0.471918 -0.696434 -0.153705 0.710993 0.862899 -0.539963 0.666886 0.653703 0.392346 0.662492 -0.210083 -0.091805 -0.072174 -0.864760 -0.185702 0.214730 0.732560 0.021843 0.414939 0.186279 -0.843133 -0.441864 0.721120 -0.949715 0.305853 -0.857014 0.949689 -0.919038 0.305293 -0.250604 0.718835 -0.222789 0.052962 -0.434870 -0.511796 -0.084139 0.025167 -0.844910 -0.430436 -0.582486 0.817582 0.359481 0.325709 -0.254592 0.494721 -0.859993 0.960138 0.227282 0.161850 0.375077 -0.586439 0.318718 0.933213 -0.865320 0.369002 0.239066 -0.722334 0.318691 0.320028 0.582959 -0.931913 0.038863 -0.639830 0.121049 0.603993 -0.151626 -0.963090 -0.370839 0.003465 -0.393526 0.046675 -0.178953 0.965955 -0.627616 0.566455 0.460677 -0.487609 0.526593 -0.312042 0.674241 -0.098329 0.101519 -0.007042 -0.165116 0.236199 -0.638039 -0.926050 0.513865 0.680651 0.393979 0.096824 0.748738 -0.567158 0.456994 -0.130213 -0.963165 -0.694632 -0.093303 -0.334004 0.308833 0.513171 0.712671 -0.870120 0.479126 -0.914946 0.696335 -0.060197 -0.402555 0.222929 0.627761 -0.728314 -0.875400 -0.270720 0.264644 -0.040516 0.965479 0.626605 0.033434 0.479345 0.307256 -0.572588 -0.423831 0.055995 -0.139746 -0.966838 0.925782 -0.102911 -0.661469 -0.167521 0.563085 0.647364 -0.654350 0.275756 0.777244 0.824776 0.360811 0.473579 -0.235421 0.958256 -0.303492 -0.607660 -0.770059 -0.178892 0.121620 0.494586 0.780591 0.087099 0.121190 -0.185975 -0.433556 -0.571553 0.241438 0.142613 0.484442 -0.898308 0.175775 0.410224 -0.001219 0.514306 -0.757297 -0.438133 0.161670 -0.411648 0.837623 -0.061087 -0.586872 0.198434 -0.587508 0.177707 0.156689 0.109000 0.570047 0.386630 0.930108 -0.308333 -0.118784 0.710700 0.778766 -0.997593 -0.475275 -0.654790 -0.569147 0.766163 0.487823 0.915295 0.867854 -0.336402 0.325519 -0.133365 -0.822096 0.568221 0.428502 0.339573 -0.843426 0.266125 -0.721513 -0.430298 -0.535441 -0.309021 0.747409 0.621248 0.799980 0.317455 0.007878 0.730088 -0.990878 0.889094 0.440787 0.787888 0.891501 0.965512 -0.866902 -0.677646 0.731675 0.620921 -0.762351 0.599529 -0.715481 0.563168 -0.533835 -0.537577 0.131389 0.894667 0.801996 0.287963 0.160792 -0.919517 0.857664 0.625350 -0.228538 0.605073 0.246598 -0.428558 -0.077472 -0.745524 -0.698470 -0.068350 -0.856430 0.742317 -0.280462 -0.964929 0.707829 -0.147363 -0.642575 0.439504 -0.526442 -0.404925 0.039033 -0.241923 -0.841758 0.505198 0.220500 0.289631 0.399864 0.022497 -0.422406 -0.439344 0.102980 -0.564742 -0.813994 0.874442 -0.959669 0.432604 -0.554116 -0.037141 0.687081 -0.252587 0.894509 0.830651 -0.510270 -0.385952 0.865722 -0.802440 0.466684 -0.776852 0.637064 0.940242 -0.181778 -0.323903 -0.301681 -0.023535 -0.818705 0.918819 -0.733904 0.581159 -0.058684 -0.156310 -0.858185 -0.955705 0.278948 -0.672179 0.918737 0.319279 0.760426 -0.635379 -0.717861 0.447507 0.112034 -0.823352 0.278158 0.601765 -0.209305 0.143880 0.799325 -0.742620 0.367028 0.436389 -0.802378 -0.814749 -0.887514 -0.104059 0.161715 -0.706219 -0.185240 0.427812 0.874940 0.756076 -0.728498 -0.983245 0.800372 0.550450 -0.655423 0.719109 -0.130271 -0.894998 -0.916270 0.151868 0.552509 0.195764 0.328516 -0.169333 -0.202471 -0.880789 0.974547 -0.403146 -0.623409 0.341576 -0.966757 -0.425787 0.526826 -0.854271 0.470154 -0.311458 -0.560490 -0.715086 -0.883646 -0.685551 -0.959010 -0.612145 -0.668795 0.841362 0.938305 -0.324219 0.560470 -0.191966 -0.219216 0.644200 0.959902 -0.666707 -0.160035 0.288418 0.163960 0.637494 0.407629 0.138507 -0.765652 0.784219 -0.519917 -0.732409 -0.641568 -0.993091 -0.586681 0.828586 -0.304549 -0.147171 -0.886501 -0.188195 0.167278 -0.845511 0.199660 0.498483 0.995851 0.137965 -0.825736 0.556321 0.945999 -0.044952 0.200521 0.905901 0.288340 -0.959514 0.194319 -0.547700 0.677980 -0.398053 0.590807 0.912328 -0.613833 -0.929110 -0.820082 -0.255402 -0.922201 -0.406762 -0.426816 -0.226750 0.446066 -0.313317 0.585054 -0.386655 -0.158827 -0.215286 -0.888172 -0.162977 0.922679 -0.713908 -0.606656 0.868678 0.241139 0.593866 0.774579 -0.470520 0.634352 -0.031103 -0.018221 0.312332 0.570844 -0.427414 0.224659 0.957011 -0.356524 0.404577 -0.298391 -0.278725 0.997815 0.274793 0.494525 0.443881 0.961477 0.079579 -0.942774 -0.197351 0.864293 -0.830946 0.639672 0.786972 -0.544854 -0.966983 0.655650 0.696285 0.626883 0.430229 -0.774235 0.261234 -0.600874 0.207544 -0.426434 0.969971 0.780131 0.798225 0.926982 -0.576393 0.202802 -0.371409 0.144882 0.200617 0.903384 -0.360594 -0.355502 0.864861 0.718986 -0.298276 -0.332490 0.583279 -0.129222 -0.692818 0.370251 0.325924 -0.659801 0.025902 0.022210 0.967082 -0.543869 0.247974 0.228316 -0.144743 -0.544481 0.801882 -0.174773 -0.764351 0.600107 -0.247791 -0.340744 -0.197090 0.380800 0.804138 -0.996473 0.284184 -0.556456 -0.351975 0.149045 -0.837470 0.349750 0.816554 0.745809 -0.779472 -0.876263 0.116060 0.546452 -0.536065 -0.858038 -0.431338 -0.568983 -0.401908 0.816636 0.659333 0.453349 -0.727845 0.461215 -0.721424 -0.492195 0.061322 0.030785 0.167061 0.864232 -0.588415 -0.028802 0.867759 0.695769 0.414742 -0.484216 -0.155187 0.577272 0.865534 -0.338632 0.323081 -0.913938 -0.214896 -0.560859 0.632515 0.249040 -0.418897 -0.798823 0.680057 0.179195 -0.982187 0.339390 -0.367456 -0.710032 -0.199395 -0.088880 -0.202227 0.861927 0.941905 0.964834 0.726159 -0.646510 -0.063968 0.593918 -0.950742 -0.649225 -0.890297 -0.105929 0.928047 0.975237 0.555439 0.251128 -0.938701 -0.659457 0.690269 0.693814 0.589583 -0.728629 0.894991 0.269639 0.450566 0.912804 -0.390971 -0.916890 -0.797228 0.409633 -0.005770 0.000545 0.271561 -0.063865 -0.034622 -0.002280 0.289624 0.901410 -0.408362 0.338882 -0.747815 -0.298659 -0.767046 -0.819768 -0.323423 0.788393 0.431359 -0.262124 -0.871065 0.121628 -0.568310 0.718518 0.392999 -0.673320 -0.011843 -0.156435 -0.760516 0.597186 -0.073325 -0.557744 0.006819 0.920905 0.442801 -0.721620 -0.142960 -0.591821 0.276100 -0.853336 -0.690410 0.867738 0.485546 -0.438226 -0.430922 0.718500 -0.257994 0.245656 0.506892 -0.826635 0.983532 0.635828 0.294993 -0.584778 0.354346 -0.312008 -0.258098 -0.657497 0.531557 -0.018614 0.939689 -0.541768 0.423642 -0.053492 -0.620863 -0.133557 0.224887 0.236177 0.274622 -0.499013 0.382841 0.584212 -0.631275 -0.131613 -0.854014 -0.062197 -0.413113 -0.112008 -0.816542 -0.906221 0.061358 -0.833010 0.729607 -0.643649 -0.417788 0.083952 0.044343 0.324114 0.426455 -0.424100 -0.694499 0.366144 0.034133 0.729143 -0.687349 0.413270 -0.404414 0.537539 -0.350553 0.870209 -0.961474 -0.967713 0.454421 -0.592750 -0.099326 0.600407 0.345053 0.487561 -0.511601 0.528511 0.581340 0.549757 0.695502 0.310946 0.906108 -0.722286 -0.605101 -0.049549 0.601828 0.821354 0.526351 0.907329 0.187498 -0.439516 0.636472 0.500149 0.973754 -0.767942 0.037688 -0.376799 -0.897733 0.076214 -0.344512 0.556687 0.483464 0.556162 0.157094 -0.171483 0.043723 0.645493 -0.642972 -0.374937 0.195250 -0.947470 0.936009 0.101358 -0.669757 -0.669092 -0.948191 0.932071 -0.847739 0.578160 0.839400 0.339759 -0.861356 0.475872 -0.160091 -0.887603 0.707930 0.877597 -0.264402 0.810196 -0.046189 0.391086 0.366884 -0.562726 -0.052751 -0.476022 0.265791 0.990972 -0.830529 0.622819 -0.383966 0.364722 0.675349 -0.447957 -0.533920 -0.994408 -0.117049 -0.482111 0.937664 0.035212 -0.903952 0.777064 -0.625028 -0.765308 0.252935 0.214880 -0.652911 -0.039135 0.092477 0.082688 -0.228939 -0.953712 -0.526226 -0.862055 -0.516438 0.421023 -0.338077 0.749353 0.411994 -0.168606 0.372173 -0.971971 -0.803884 0.047522 -0.419928 -0.337805 0.053114 0.463023 0.180084 -0.009222 -0.501765 0.276132 -0.232158 -0.126794 0.510824 -0.979223 -0.911914 0.857914 -0.018358 0.180563 -0.059399 0.752703 0.226851 0.414375 0.890648 0.710413 -0.164602 -0.447429 0.459766 -0.752608 0.383965 -0.168061 -0.724579 0.580081 0.879460 -0.144507 -0.757724 -0.067425 -0.681484 0.422360 0.923353 -0.183250 -0.301508 -0.308806 0.689957 -0.790684 -0.288029 0.778043 -0.932770 0.693613 -0.041394 0.007831 0.446316 -0.814543 -0.577794 0.336964 0.895870 0.257604 0.889535 0.355636 0.504996 0.273500 -0.812425 0.780417 -0.146419 -0.932965 -0.364090 0.095857 -0.000390 -0.045574 -0.481783 -0.077037 0.771176 0.216709 0.614157 0.461133 0.426026 -0.673872 0.239176 0.493255 -0.980259 -0.802218 -0.498914 0.466057 -0.616761 -0.076707 -0.196979 -0.720890 -0.819104 -0.307444 0.634746 0.685893 0.966056 0.822321 0.466310 -0.180363 0.889357 -0.897780 0.915494 -0.111033 0.056646 -0.566288 0.811930 -0.172178 0.650421 0.426087 -0.711046 0.076446 0.752215 0.528130 -0.430298 0.771955 0.725912 0.070788 0.238012 -0.890849 0.994081 -0.958967 -0.611739 -0.825023 -0.266411 -0.976993 0.860870 -0.300355 0.845328 0.327180 0.519283 0.734685 0.429400 0.434777 -0.376349 -0.513954 0.868489 -0.564419 0.313868 0.518909 0.861667 0.602822 -0.404644 0.613882 0.130952 0.165058 0.385838 -0.143136 -0.764154 -0.376150 -0.033984 -0.770073 -0.335117 0.354277 -0.595096 0.398472 0.377284 -0.734226 -0.901883 0.222612 0.592953 0.617400 -0.042703 0.022353 0.052177 0.580948 0.508399 -0.079334 -0.983471 -0.177734 -0.560425 0.878196 -0.574912 0.034931 0.492078 0.556041 -0.800012 -0.122084 -0.587095 -0.564166 0.501766 0.378920 -0.334239 -0.833351 -0.266803 0.070665 0.565121 -0.889519 0.336439 0.663238 0.333093 -0.070608 0.280638 -0.709611 0.951745 -0.667184 0.871337 0.460144 0.253481 0.887866 -0.717589 0.693057 0.766062 -0.292501 -0.272013 0.258141 -0.736460 -0.072024 -0.863943 -0.323555 0.363810 0.637823 -0.944635 -0.970429 0.804472 -0.211438 0.100236 0.369592 -0.100957 -0.563326 0.032831 -0.767864 0.366066 -0.686531 -0.477474 0.317812 -0.353715 -0.606137 -0.222044 0.899766 -0.718271 0.060366 0.592823 -0.952208 0.767865 -0.679190 0.305933 -0.968595 0.248786 0.441990 -0.292151 -0.387404 0.079812 -0.236786 -0.357833 -0.115716 0.551777 0.742403 -0.746124 -0.549180 -0.820923 0.286707 -0.317044 0.545143 0.600176 0.205482 -0.137045 -0.753539 0.599345 0.640911 -0.853773 0.881074 -0.298723 0.739050 0.928866 -0.530858 -0.940139 0.234799 -0.499453 0.308647 -0.323212 0.208396 0.921243 0.756601 0.971611 -0.436590 -0.359115 0.523387 -0.694187 -0.105239 0.974207 -0.515110 -0.818532 -0.342837 -0.969966 0.781644 0.862645 -0.107012 -0.971894 0.461990 -0.466101 -0.825667 0.343064 0.235176 0.913383 0.271930 0.704318 0.973244 -0.493271 -0.795135 0.281891 0.183518 0.413261 0.203133 -0.059882 0.384872 0.766544 0.581003 -0.091741 -0.927644 -0.524236 -0.117534 -0.442753 -0.342768 0.539629 -0.412720 -0.561123 0.402275 0.480269 -0.533018 -0.135735 -0.985832 -0.358685 -0.792671 0.249343 -0.445301 0.479259 -0.046339 -0.472057 0.985988 0.158526 0.809833 0.169506 -0.428213 0.012967 -0.890375 0.956658 -0.220490 0.690628 -0.135083 -0.148133 -0.833608 0.747383 0.409113 -0.176376 0.287013 0.996393 0.262501 -0.310713 0.476662 0.729483 0.553552 0.490829 -0.629201 0.760881 -0.259827 -0.074503 0.240140 0.693834 0.453440 0.226128 -0.147640 0.263273 -0.604365 0.424146 -0.723760 -0.494741 0.380805 0.055750 -0.804113 -0.754278 0.907617 -0.637721 0.993105 0.316730 0.185903 0.280118 0.313123 -0.551596 0.969405 -0.210215 -0.822113 0.522957 -0.719386 -0.451314 0.283838 0.020786 0.474183 -0.476022 -0.285380 -0.072377 0.750106 0.566980 -0.809104 -0.854259 -0.008874 -0.532864 -0.349000 -0.628069 0.522886 -0.153113 -0.382347 0.430503 0.209166 -0.389242 -0.252767 -0.604931 0.890876 -0.939644 -0.156527 0.860281 -0.149859 0.021360 0.383238 0.130754 0.570045 -0.332924 -0.848459 0.044228 0.191054 -0.133839 0.971851 -0.058840 -0.566859 -0.837253 0.086901 0.424267 -0.370116 0.737901 0.796198 -0.847230 -0.415212 -0.586149 0.583273 0.793954 0.024609 -0.669494 -0.810977 -0.084515 -0.609138 0.032496 -0.224234 0.241003 -0.946145 -0.840996 -0.628242 0.623901 -0.173920 
-0.476702 -0.331871 -0.982866 0.389459 -0.360020 -0.041706 0.822600 -0.197273 -0.954805 0.246868 0.432611 0.783096 0.043066 0.585381 -0.632116 0.456918 0.168654 -0.838162 -0.518473 0.499161 -0.649139 0.397012 0.890023 0.383357 -0.827221 0.131026 0.437212 -0.668217 0.502784 0.061113 0.157863 -0.973918 0.729242 0.174997 0.415542 -0.630778 -0.866709 0.238142 0.171949 -0.821515 -0.514990 -0.395439 0.961581 0.528076 -0.810058 -0.670535 -0.015006 0.358596 -0.508697 0.466521 -0.142243 -0.157836 -0.136467 -0.252220 -0.774479 0.036312 0.878807 0.662733 0.368095 0.381590 -0.276154 -0.474042 0.407673 -0.546912 0.700955 -0.176786 -0.177690 0.834245 -0.938644 0.994260 -0.987269 -0.453634 -0.401180 0.974311 -0.925557 -0.211238 -0.696224 0.059437 -0.852641 -0.204921 -0.474043 0.005116 0.637243 0.389491 0.752896 0.862764 -0.574197 0.631703 0.525498 0.793898 0.013293 -0.750656 -0.680144 -0.579034 -0.297567 -0.979189 0.244180 0.524743 0.855056 0.305537 0.519003 0.867787 0.851903 -0.882177 0.842098 0.926346 -0.093414 -0.854126 -0.014218 0.053944 -0.059046 0.511740 -0.940940 -0.421803 -0.098769 0.811956 -0.559038 0.327033 0.443659 0.966460 0.120931 -0.543048 -0.784196 0.440787 -0.122082 -0.081764 0.461597 -0.877902 -0.557021 0.316653 0.427635 0.961982 0.184440 0.279538 -0.920195 0.026538 0.205884 -0.013609 0.172412 -0.808334 -0.959665 -0.886634 0.703406 -0.900605 -0.308437 -0.395364 0.911351 0.132525 0.931669 0.355010 0.098985 0.052600 0.811962 0.314788 -0.506613 -0.310121 -0.766975 0.954985 -0.188023 -0.323996 0.271638 -0.760388 -0.362014 -0.543922 0.519149 -0.282208 0.482616 -0.274967 0.704183 -0.344972 -0.083301 0.744518 -0.231606 -0.379896 0.843913 0.459958 0.224741 0.755264 -0.407517 0.156410 0.110274 0.691467 -0.790989 -0.077764 0.006256 -0.297602 0.612115 0.239280 -0.342617 -0.575908 0.915284 0.929021 -0.336296 -0.446730 -0.614901 -0.817147 0.271062 0.867715 -0.092114 -0.024755 -0.477257 0.824585 -0.280238 0.291138 -0.555310 -0.436325 -0.248904 0.669430 -0.681060 0.343578 -0.174160 0.429214 0.035046 0.034851 -0.648551 -0.958698 0.737249 0.963564 0.280582 -0.605368 -0.612344 0.195866 -0.676348 0.051360 0.749137 -0.291249 0.234213 0.020199 -0.423534 -0.857901 0.995444 0.099209 0.966684 -0.284794 -0.609653 -0.588626 0.278882 0.141443 -0.919196 0.597821 -0.514979 -0.093355 0.027035 0.520067 0.941496 0.378484 0.561369 0.678745 0.342048 -0.158049 -0.926624 0.729704 -0.962183 -0.602971 -0.218936 0.786954 0.105780 -0.984723 -0.192847 0.682246 -0.842623 -0.197403 -0.218545 -0.875939 0.517803 0.171803 -0.464565 -0.203315 -0.686755 -0.383760 -0.605494 -0.201733 0.522884 0.421540 -0.681666 0.464380 -0.199976 0.879702 0.143124 -0.857928 -0.278347 0.216501 0.871777 -0.240530 0.613529 -0.347159 -0.453575 -0.280691 -0.331882 0.353578 -0.598445 -0.174505 -0.843825 0.183011 -0.050444 0.673978 -0.645187 0.484992 -0.529338 -0.331942 -0.898769 -0.134832 0.466325 0.624115 -0.713292 0.784658 0.088495 0.086733 0.664361 -0.768380 0.228805 -0.613986 0.448120 0.100582 0.145484 0.061650 0.753423 0.691909 0.780959 -0.578459 0.045487 -0.817486 0.247036 0.201661 0.365524 -0.803407 -0.124361 0.720337 0.681584 0.346302 -0.611604 0.782815 -0.788530 0.854721 0.406931 -0.501822 0.639379 -0.504574 0.584911 0.303740 -0.272955 -0.186284 0.689754 -0.824835 0.914298 -0.164762 0.236815 0.667722 -0.472854 0.017774 -0.910737 0.572633 0.200287 0.336300 -0.225706 -0.434188 0.532892 0.649933 -0.713851 0.214477 -0.003765 -0.325455 -0.002708 0.207704 -0.470735 -0.595777 0.705882 -0.831356 -0.100352 0.290793 0.472384 0.626693 -0.895490 0.162138 0.801859 -0.981192 0.997375 0.038674 0.686530 -0.475479 -0.943552 0.775793 -0.902846 0.256735 0.112092 -0.128551 0.822547 -0.355015 -0.478618 -0.891304 0.859461 0.517617 -0.216760 -0.143247 -0.274679 0.312506 0.260976 -0.568796 0.481150 -0.839376 0.721997 -0.046466 0.787318 0.826507 -0.884328 0.589177 0.845315 -0.886953 -0.372149 0.531845 -0.362432 -0.315702 0.307638 -0.265277 0.941033 -0.580270 0.606171 0.763579 0.064715 -0.872447 0.872275 -0.075823 0.645170 -0.344485 0.780930 -0.629509 0.968021 0.041906 -0.198305 0.449171 0.202530 -0.476307 -0.597295 -0.010152 -0.649800 -0.481624 -0.420976 -0.804485 -0.368577 0.206875 0.727360 0.268991 0.891173 0.034998 -0.996286 0.832206 0.454728 0.609885 0.595785 -0.480557 0.737438 0.468060 0.443620 0.382608 -0.876425 0.224550 0.753099 -0.908404 -0.733545 -0.445205 0.540766 0.468985 0.078488 0.943471 -0.541167 0.428687 -0.538153 0.037857 0.624202 0.093270 -0.755268 0.351562 -0.637739 -0.864096 -0.613440 -0.634025 0.968110 0.841288 0.975860 0.563895 -0.639269 0.713298 0.031955 0.804351 0.095906 0.155530 0.028901 -0.150995 0.247126 0.295356 0.403800 -0.212108 -0.235658 -0.517712 -0.268637 0.223175 0.910975 0.193210 -0.738968 0.535177 -0.713519 -0.494237 -0.113261 -0.351258 -0.358332 0.273299 0.014717 -0.390223 0.114587 -0.009423 -0.826328 0.475318 -0.296125 0.205627 0.279670 0.799781 -0.638843 -0.691429 -0.351213 0.608283 0.603927 -0.947413 -0.603825 -0.631731 -0.465126 0.127538 0.591444 -0.554151 -0.679251 0.852476 0.981026 -0.392771 -0.641761 -0.132235 0.255971 -0.000093 -0.858936 -0.729311 0.609684 0.255651 0.261266 0.783356 -0.269030 0.965141 -0.011017 -0.989361 0.764922 0.350140 -0.680790 -0.586291 -0.041577 0.923137 -0.533704 0.354597 -0.708594 0.001170 -0.517865 0.882850 0.447019 -0.197116 0.735326 0.428045 0.410113 -0.906435 -0.704189 -0.333916 0.093471 -0.563125 -0.063227 -0.296844 0.692526 -0.801961 -0.513488 -0.576504 -0.836820 0.475495 -0.565865 0.928102 -0.174365 -0.246655 -0.658189 0.784058 -0.323517 -0.191893 0.138655 -0.032111 0.809277 0.620791 -0.149261 0.256296 -0.576325 -0.413935 -0.315659 0.833788 -0.320371 -0.019848 -0.500128 0.773101 0.417027 0.436645 -0.523744 0.109553 0.634683 -0.037232 0.533049 0.797863 -0.561736 0.967184 0.725965 0.263899 -0.279471 -0.932224 0.047957 0.397012 -0.124117 -0.813388 -0.635099 -0.314840 0.807403 0.215640 0.941455 -0.768922 0.801704 -0.374203 -0.935135 -0.518666 0.605949 -0.435263 -0.745565 0.022976 -0.998618 -0.269309 -0.867471 0.636065 0.693459 0.665578 0.433929 -0.868277 0.632762 0.159894 0.395622 -0.646709 0.227670 -0.556421 0.750303 -0.896447 -0.369809 -0.884797 -0.211288 -0.562406 0.330843 -0.269832 -0.331328 0.132547 0.355965 -0.266462 0.613881 -0.038086 0.298275 0.868315 0.984890 0.299657 -0.400994 -0.882582 -0.064277 -0.707535 0.782996 -0.630349 -0.575812 0.415758 0.529545 0.819809 0.769049 -0.242785 -0.736612 0.519351 -0.139232 -0.106421 0.634555 0.649480 0.331173 -0.034603 -0.620352 0.999846 -0.902056 0.735613 -0.266617 0.711825 -0.302474 -0.968342 0.580141 -0.317584 0.331315 -0.820853 -0.200166 -0.732962 -0.528388 -0.417169 -0.363311 -0.104200 0.998589 -0.833766 -0.284391 0.767637 -0.076551 -0.021002 0.286989 0.784216 0.872577 -0.078457 0.433697 0.203750 0.886941 0.813345 0.203596 0.984885 0.548957 0.936979 0.696711 -0.753516 0.968637 0.276851 -0.071101 0.299953 0.455998 0.728734 0.566991 0.927610 -0.688436 -0.796320 -0.176590 -0.689847 -0.630086 0.539019 -0.922210 0.293363 -0.481983 0.364779 0.077579 -0.609406 -0.713678 -0.488724 0.594344 -0.826737 -0.675380 -0.202061 -0.841852 0.873577 -0.265082 0.854859 -0.879939 -0.296444 0.131710 0.048960 -0.996492 -0.412292 -0.222306 0.570499 -0.484682 0.089258 0.774178 0.338728 0.399411 -0.855908 -0.122253 0.477201 0.437455 0.395764 -0.158020 -0.484966 0.786357 0.128302 0.026309 0.380701 0.301564 0.350929 -0.821359 0.459713 0.224507 -0.086441 0.314571 0.344567 0.617114 -0.553719 -0.606472 0.620623 0.033989 0.171221 0.191121 0.549307 -0.739521 -0.034700 -0.111965 0.659890 0.109392 0.765782 0.137091 -0.453153 0.161546 0.979070 0.061880 -0.052097 0.107372 -0.911810 -0.671395 -0.591063 0.439119 -0.492755 0.868649 -0.336374 0.420804 0.183221 -0.991807 0.037918 0.629502 -0.598279 -0.341459 -0.336509 0.572942 0.849663 -0.787201 0.833422 -0.185038 0.100834 0.493312 0.924354 -0.133384 -0.369597 -0.528799 -0.971838 -0.390527 0.533082 -0.023935 0.716845 0.621272 0.304670 -0.874219 0.060391 0.811915 0.994431 0.724016 0.232719 0.177651 0.732210 -0.729363 -0.192847 -0.866070 -0.070822 0.470644 0.706873 -0.221159 0.683443 0.540294 0.593803 -0.215723 0.033606 0.518158 0.650892 0.664008 0.989359 0.679054 -0.726519 0.522441 -0.344881 0.990326 0.143712 0.959789 -0.883893 -0.795897 0.771703 -0.889462 0.928119 0.004422 0.288189 0.660329 0.275059 -0.904658 0.794259 -0.795763 0.565986 0.501132 -0.016922 0.249429 0.041426 -0.423119 -0.966294 -0.924969 -0.904962 0.684598 0.739040 -0.915603 0.363652 -0.987479 0.606838 -0.981229 -0.997153 -0.249450 0.978560 -0.881046 -0.045347 0.750264 -0.770508 -0.117228 -0.245314 0.517681 -0.456899 -0.970255 0.613023 -0.662640 -0.766018 0.179009 0.838492 0.217060 -0.571562 -0.120082 0.793940 -0.537856 -0.045051 0.888979 -0.853257 -0.306011 0.973376 0.510395 -0.293491 0.580214 0.529166 -0.290644 -0.669236 0.507727 -0.171690 0.285417 0.257990 0.057801 -0.831811 -0.987324 -0.424518 -0.288710 -0.957579 -0.811495 0.048650 -0.723597 0.367514 -0.112858 0.493462 0.795952 0.767060 0.287403 -0.741903 -0.277991 0.176381 -0.595161 0.415997 0.149757 0.915234 -0.877493 -0.270029 0.444401 -0.168137 0.060735 -0.047873 0.660172 -0.653849 -0.789882 -0.282026 -0.485660 -0.777206 0.293456 0.225630 -0.734785 0.481961 -0.725720 -0.458383 -0.150526 0.161422 -0.964920 -0.354573 -0.071518 0.322482 -0.096477 0.650490 -0.501137 0.308362 0.066488 0.648621 0.223597 0.188995 -0.621409 -0.332003 -0.979143 0.439326 0.620125 0.681030 0.785478 0.830242 -0.600996 -0.700182 -0.946964 0.692459 0.525448 -0.681749 0.174420 0.799728 -0.140132 -0.976106 -0.038850 -0.105052 -0.330679 0.889632 -0.782570 0.572844 0.540122 -0.283707 -0.118793 -0.393390 -0.635086 -0.895197 0.795604 -0.256495 -0.227200 0.816462 -0.817168 -0.607075 0.497491 0.968309 -0.776833 0.896495 -0.731873 -0.723796 0.588954 0.793575 -0.405546 -0.236626 0.593303 0.454323 -0.212731 -0.445547 -0.650729 0.456590 -0.555915 -0.433299 0.029434 0.984206 0.282994 0.910641 -0.409184 0.647908 -0.984556 -0.613579 -0.608586 -0.211756 -0.797117 -0.425755 0.181169 0.700374 -0.457445 0.404337 0.596869 -0.189318 0.680540 0.185823 -0.395743 -0.725005 0.949198 -0.802440 0.729317 -0.263534 -0.247987 -0.921412 -0.806944 0.196097 -0.354711 0.222490 0.180304 0.928283 0.133131 0.771120 0.576191 0.148575 -0.842459 0.967604 0.936819 -0.639576 -0.458150 0.117989 -0.939202 0.084404 -0.477674 0.657667 0.895086 -0.797134 -0.156510 -0.500657 -0.522140 -0.207312 -0.303097 -0.792822 0.529154 0.448916 -0.714234 0.722211 -0.354987 -0.068946 -0.055299 0.825317 -0.140663 -0.922168 0.596437 -0.564472 0.226407 0.753979 -0.596868 0.163227 -0.885598 -0.055018 -0.718784 -0.824800 -0.970614 -0.196459 0.832867 0.924472 0.006407 -0.323643 -0.576185 0.484267 0.469045 0.120718 0.691445 -0.001801 -0.430366 0.977211 -0.279590 0.214647 -0.091735 0.665111 0.039964 0.767602 0.742943 -0.363599 -0.796870 -0.030649 -0.609620 -0.393737 -0.867422 -0.495218 0.551245 -0.586207 -0.320018 0.580631 0.217334 -0.487150 0.505103 -0.776259 0.189207 0.928918 0.708009 -0.341748 0.049636 0.399454 0.656451 0.619270 0.376665 -0.623139 -0.166083 -0.715070 -0.958028 0.873881 -0.947467 0.784916 -0.489718 -0.744337 -0.245733 -0.099338 -0.138074 -0.113156 0.405444 -0.586830 0.300638 -0.914573 0.993801 -0.482028 -0.401724 0.498904 -0.258286 0.787483 0.427823 -0.550278 -0.554265 -0.522541 0.849177 -0.897814 -0.903271 0.225842 -0.520952 -0.069354 0.510772 -0.478980 -0.195473 0.563305 -0.694064 0.314809 0.818968 0.060203 -0.784529 -0.319107 0.947047 0.620916 0.094063 0.247685 0.706342 0.087864 0.765657 -0.695381 -0.413231 -0.492629 -0.907898 -0.985409 -0.042907 -0.462163 -0.507950 -0.193730 -0.359977 -0.411221 -0.967888 0.119071 0.519426 0.542884 0.640091 -0.676047 0.106188 0.946027 0.638762 -0.074844 0.006230 0.854233 0.606049 -0.046723 0.475149 -0.299887 -0.799038 0.181492 0.787977 0.966620 0.486110 -0.625254 -0.526009 0.578212 -0.610663 0.431084 -0.883951 -0.118613 -0.762646 -0.243927 0.470166 -0.730534 0.875144 -0.010408 0.812349 0.515235 0.313545 -0.081463 0.461262 -0.047693 0.843693 -0.532508 -0.193460 0.449742 0.420770 -0.718311 -0.850145 0.621732 0.463181 0.937832 0.588352 -0.050709 -0.687422 -0.937657 -0.472497 -0.298086 0.493427 -0.356447 0.583301 0.730781 0.399625 0.053468 -0.999754 0.274769 -0.956940 0.812595 -0.209996 0.356604 -0.268868 -0.748734 -0.691089 -0.425175 -0.281242 0.115451 -0.975432 -0.860472 0.397140 -0.825577 0.761260 -0.139679 -0.887745 0.349612 0.809612 -0.575168 0.411955 -0.662885 0.126747 -0.094619 -0.019332 -0.289952 -0.363838 -0.619706 0.763516 -0.363592 0.655063 0.806575 -0.550997 -0.554933 0.163180 0.180135 -0.303667 0.472091 0.754961 0.415092 -0.412458 0.779528 0.554620 0.984682 0.953951 0.315880 -0.154997 -0.933794 -0.334508 -0.345385 -0.508961 -0.922553 -0.008269 0.617785 -0.017172 0.972399 -0.672167 0.618990 -0.647308 -0.908651 -0.744603 -0.992245 0.897924 -0.295600 -0.547178 0.061104 0.884535 0.149156 -0.466805 0.639496 -0.435752 0.120736 0.419024 -0.881132 0.105418 0.372976 0.434748 0.950422 0.439182 -0.899760 -0.394963 0.930220 -0.822313 0.596768 0.548005 0.160515 0.569167 0.875839 -0.220496 0.921859 0.967188 0.034902 0.929614 0.865112 0.739302 -0.617563 -0.073784 0.623837 0.531593 0.459410 0.263333 -0.904160 -0.419853 -0.317643 -0.785292 0.685565 -0.944667 0.649455 0.635987 0.494514 0.749695 -0.758976 0.424734 0.927382 0.837791 -0.027260 0.087897 0.406958 -0.151421 0.867401 0.328817 -0.184234 -0.097697 0.258431 -0.319122 -0.358396 0.640868 0.607094 -0.734558 0.172461 0.066505 0.528774 0.268301 0.646651 -0.788868 0.483009 0.332216 -0.733536 0.132464 -0.031797 0.760979 -0.117841 0.209227 0.185713 -0.190458 0.047018 -0.841547 0.897438 -0.546024 0.007032 0.764839 0.782793 0.822798 -0.332858 0.041225 -0.496324 0.308746 -0.317907 -0.889230 0.574188 0.854554 0.177275 0.102962 0.122855 -0.176074 0.314094 -0.394137 -0.843857 0.580558 0.738328 0.124346 0.341537 -0.379513 -0.666427 -0.472750 0.430029 0.380591 -0.314297 0.327467 0.834567 0.692734 0.092306 0.617360 0.515532 0.759448 -0.341415 -0.980792 0.068194 0.340678 -0.870021 -0.357618 0.195232 0.307254 0.745345 -0.681913 -0.868820 0.059438 -0.076050 -0.712677 -0.360003 -0.337722 0.411668 0.981533 0.282765 0.745241 -0.491217 -0.287207 0.125832 0.194485 -0.959740 -0.039601 -0.112780 0.132566 -0.422240 -0.597249 -0.107986 0.236345 -0.578040 0.960209 -0.422977 -0.448062 -0.397409 0.772255 0.859192 -0.652064 -0.909658 0.990372 0.407374 0.014292 -0.722306 -0.952629 0.676569 0.689363 -0.971096 -0.040666 0.434604 -0.462313 0.672127 -0.439564 0.732172 0.712388 0.520835 -0.380608 -0.155046 -0.901405 0.022143 0.736968 0.334940 0.444103 0.697177 0.911963 0.996041 -0.700232 0.684218 0.855233 -0.352296 0.774560 0.845605 -0.944922 -0.211149 -0.876701 -0.897552 -0.534579 0.812662 -0.868648 0.424755 0.247266 -0.330961 0.096882 0.807702 -0.598789 -0.190730 0.328537 0.020603 0.654224 0.427132 -0.957253 0.391192 -0.237928 0.486849 0.088369 -0.325965 0.482891 0.388137 -0.641747 0.338124 -0.964160 -0.867187 0.183729 -0.909082 -0.078336 0.307028 -0.806634 0.387085 0.119690 -0.675282 -0.188161 -0.633044 -0.006242 0.908721 -0.825343 0.394969 -0.282009 0.503194 -0.584428 -0.627785 -0.069674 -0.541681 0.763406 0.692398 0.945168 -0.148225 -0.633567 0.428059 -0.760088 -0.275314 -0.233817 -0.724248 -0.142502 0.949912 -0.633330 0.779162 0.256940 -0.439964 0.166247 -0.623370 -0.115245 0.978086 -0.256414 0.878512 0.886807 -0.081757 0.273481 -0.395202 -0.578563 0.689053 -0.022987 0.351763 -0.852628 -0.259581 0.044161 -0.907460 0.592195 0.410593 0.520599 0.832107 -0.864721 -0.713218 -0.892141 -0.007223 -0.763306 -0.525471 -0.228060 0.493634 0.034565 0.938187 0.870263 0.919320 0.916273 -0.386151 0.797832 0.803080 0.532092 0.071313 -0.592122 0.953529 -0.239634 0.384891 0.305292 -0.092261 -0.874689 -0.650548 0.000279 0.717505 0.760046 -0.479122 0.549612 0.895325 -0.192340 0.657470 -0.111898 0.044354 -0.868001 0.660042 -0.462013 0.166564 0.598229 -0.591749 0.085884 0.514501 0.022099 -0.116284 0.317581 -0.445809 0.955029 0.725460 -0.492280 -0.284604 0.110351 0.813012 0.623134 0.235661 -0.837536 -0.376587 -0.046834 0.922510 0.144291 -0.497222 0.817835 0.951951 -0.839751 -0.294063 -0.003695 -0.707752 -0.634021 0.534292 0.458812 0.964208 0.942543 -0.455303 0.478709 -0.035358 0.428413 -0.203710 0.518834 0.383442 -0.478250 -0.973446 -0.901162 0.632101 0.839565 0.721973 -0.132238 -0.997970 -0.654614 0.820928 0.924540 0.489677 -0.676294 0.742374 0.441628 -0.516045 -0.551689 -0.562067 -0.223797 -0.185709 0.972225 -0.764985 -0.221502 0.914768 -0.220288 -0.742792 -0.120590 -0.791876 0.053498 -0.601756 0.591567 0.575248 -0.575203 0.690405 0.207348 -0.735637 0.412377 -0.924890 -0.733607 0.757763 0.896039 -0.809068 0.247440 -0.780255 0.933306 -0.310932 -0.296300 -0.618382 0.127001 0.479903 0.195909 0.099227 0.714918 0.974407 0.013995 -0.505370 -0.768385 0.893405 -0.297246 0.285112 -0.708351 -0.705679 -0.139640 -0.283554 0.984726 -0.932292 -0.019191 0.397103 -0.857181 0.247202 0.154866 -0.961143 0.438134 -0.597694 -0.741398 0.371440 0.091374 -0.037698 0.753058 -0.781624 -0.557795 -0.051033 0.317603 -0.842877 -0.076626 -0.668403 -0.348247 0.154988 -0.774998 0.354507 -0.559899 -0.483349 0.648828 0.300461 0.233098 0.633554 0.368169 -0.786093 0.030657 0.510988 0.461109 -0.814477 0.549845 -0.100757 -0.412171 0.808447 -0.729317 0.679203 -0.229250 -0.976259 0.897579 0.212955 -0.027292 0.215181 0.370079 0.896082 0.546779 -0.978168 0.051070 0.771781 0.376339 0.491171 -0.711568 0.025167 -0.208368 0.521530 -0.341279 -0.840199 0.735437 0.689377 0.670789 0.196545 0.874900 0.220634 -0.904212 -0.537271 0.029082 -0.633529 -0.858068 0.799832 -0.609787 -0.960489 0.012787 0.362921 0.254692 -0.617135 0.259003 -0.198529 -0.595303 -0.689927 -0.426748 0.781036 0.801244 -0.138316 -0.193797 -0.407124 -0.616786 0.464924 -0.247323 -0.881349 0.154301 -0.576534 0.315196 0.029201 0.644101 0.410984 0.491930 -0.326818 0.777456 0.633862 -0.526986 -0.832331 0.673372 0.485801 0.530590 -0.071936 0.868666 -0.210407 0.729535 -0.726637 0.099667 -0.697213 -0.945601 -0.099089 0.164471 -0.139398 0.493787 0.547685 -0.674474 -0.753535 0.666335 0.479827 -0.330069 -0.018468 -0.490972 -0.685968 -0.607484 -0.999042 -0.012786 -0.830028 0.634819 0.460228 -0.662360 0.308191 -0.053972 0.868230 -0.763744 -0.185306 -0.342177 0.965791 0.088057 0.757490 -0.731423 0.142456 -0.341599 0.433048 -0.996942 -0.847812 -0.019267 -0.671417 -0.601347 -0.352931 0.808410 0.068584 0.628600 -0.682562 0.382615 -0.978884 -0.681605 -0.630171 -0.808913 0.953214 0.830057 -0.471272 0.261405 -0.223915 -0.603042 0.497661 0.590779 0.054781 0.463452 -0.321163 -0.187730 0.732029 0.821292 0.470671 0.165077 0.824350 0.622859 -0.854190 -0.847067 -0.978489 -0.207121 0.961343 0.090095 -0.578521 -0.721219 -0.527290 -0.557405 -0.402824 -0.157460 -0.366318 -0.449610 -0.327404 0.162410 0.811795 0.448682 0.559368 0.309456 0.039461 -0.385851 -0.227092 0.718298 0.426419 -0.495063 0.539590 -0.102910 0.670015 0.363940 -0.480052 0.815825 0.516874 -0.458540 -0.391296 0.478217 0.631555 0.030183 0.756997 -0.895735 0.472778 -0.645827 -0.053196 -0.893540 -0.095437 0.619401 0.268870 -0.283642 0.068083 -0.171762 -0.974185 -0.892456 0.442387 -0.201277 0.825842 -0.131194 0.303660 0.365432 0.765896 -0.026325 -0.270628 -0.714156 -0.210500 -0.753754 -0.172696 0.398204 0.724462 -0.541142 -0.571613 0.481460 -0.436877 0.901165 0.835633 0.509928 -0.992375 -0.259804 0.129328 0.276495 0.456554 -0.802589 -0.895266 0.482369 -0.695045 0.547121 -0.718908 -0.869204 -0.584074 0.584752 0.496228 -0.818178 -0.441573 -0.774400 -0.532334 0.347927 -0.528154 0.294970 -0.253870 -0.803692 0.753828 0.174517 0.677767 -0.683049 0.075681 0.513400 0.826878 0.083306 -0.746404 -0.043793 -0.640199 0.710150 0.153618 -0.535465 0.192520 0.458573 -0.988344 0.473612 0.589369 -0.572418 0.058364 0.085597 -0.390596 0.616791 0.311197 0.077070 -0.035282 0.783043 -0.627961 0.710848 0.979351 -0.874133 -0.114635 0.657118 -0.557182 0.961046 0.170518 -0.730304 0.044353 0.424114 0.225903 0.404154 0.134265 -0.620479 0.868689 -0.673215 0.838094 0.880345 0.800397 0.427463 -0.692074 -0.141239 -0.486940 -0.082670 -0.524448 0.824258 0.994400 0.440270 0.607301 -0.633561 0.151118 0.586651 -0.507694 -0.963517 0.243769 -0.064876 0.997530 -0.585712 0.204820 0.041882 0.838402 -0.569276 -0.553964 -0.027333 -0.189755 -0.685275 0.299451 -0.351662 -0.804930 0.099848 -0.924199 -0.497004 0.958609 -0.411138 0.420326 -0.565839 -0.586880 0.414726 0.874431 -0.979580 0.781166 0.025549 0.607071 -0.726528 0.062033 -0.149159 0.208596 0.059562 0.265128 -0.586583 -0.898556 0.103530 -0.155860 -0.452519 -0.923803 0.654385 -0.137794 0.375648 -0.697277 0.057276 -0.524504 -0.621475 0.560272 -0.565895 -0.032614 -0.019402 -0.131734 0.380506 -0.604676 -0.257303 0.400926 -0.823510 0.768247 0.007997 -0.550038 -0.169721 0.858838 0.658558 0.889841 0.123966 -0.928026 0.991286 -0.772504 -0.083885 -0.461234 -0.696307 -0.429501 0.400972 0.679341 -0.126778 -0.541752 -0.845163 0.251747 -0.981481 -0.411058 -0.780867 -0.000883 0.457208 0.599639 0.394442 -0.800095 0.000565 0.570932 0.968152 -0.991437 -0.979106 -0.201569 0.867401 0.679451 -0.311727 -0.008633 0.751426 -0.320441 0.218863 -0.332460 0.218325 0.522555 0.238040 -0.380702 0.201896 -0.888738 0.077545 0.356733 0.363009 0.096065 0.945675 0.582143 -0.904818 0.402883 0.181782 0.489624 0.602789 -0.817653 0.060556 0.570941 -0.809090 0.081449 -0.630628 -0.941690 -0.239099 0.057645 0.049677 -0.487673 0.737204 -0.731460 0.179867 -0.044471 0.791095 -0.582093 0.574827 -0.007009 -0.470831 -0.347628 -0.650275 0.892178 0.748437 -0.704600 0.474321 0.843620 0.698283 -0.343897 0.333244 0.301072 -0.161551 -0.606201 -0.127987 0.029359 0.475249 0.241385 0.087669 -0.763850 -0.700970 -0.862654 -0.251524 -0.963766 -0.594114 0.928343 -0.008237 -0.803019 -0.653750 -0.433410 0.189972 -0.124581 0.218963 0.539697 -0.232403 -0.032600 0.835097 -0.758082 -0.188981 0.533380 -0.101980 -0.855737 -0.165548 0.736470 -0.461938 0.706464 -0.234171 -0.986689 -0.052151 0.853498 -0.750539 0.246879 0.990844 -0.002063 0.283113 -0.603270 -0.073720 -0.725124 -0.406289 0.272530 -0.158533 0.783684 -0.852051 -0.939571 0.323381 -0.084454 0.027829 0.158477 0.157464 0.838848 -0.308143 -0.944516 0.983111 0.526309 0.791954 -0.478826 0.232773 -0.442217 -0.465515 -0.819378 -0.588719 -0.216054 0.427501 -0.597874 0.781883 -0.289386 -0.201144 -0.291837 -0.014510 0.392567 0.980693 0.826957 0.176251 -0.871358 0.887386 -0.500369 0.044188 -0.084785 0.658108 -0.798348 -0.245936 -0.650034 -0.742864 -0.262825 0.876274 -0.950910 0.258349 0.109047 -0.393127 0.792834 0.289669 0.018155 -0.423220 -0.282830 0.420280 -0.641337 0.427783 -0.780864 0.066826 -0.586726 0.611704 0.047518 -0.759770 -0.212046 0.176160 -0.872384 0.287586 -0.779652 0.042832 -0.054306 -0.578000 0.796895 0.295660 -0.320864 -0.465930 0.171934 -0.271773 0.792419 -0.719019 0.335100 0.585253 0.570650 -0.646745 -0.837968 -0.712181 0.773535 -0.479305 0.715603 0.992672 0.587520 -0.871124 0.604375 -0.364961 -0.630894 -0.607670 0.811199 -0.503277 0.679915 -0.968453 0.539554 -0.374391 -0.546452 0.336449 0.921269 0.132684 0.870519 0.093202 0.860910 0.662938 0.374183 0.196010 0.248191 -0.055167 0.549265 0.410223 0.232652 0.322800 0.930918 -0.051746 0.315472 0.518438 0.077131 -0.080153 -0.846523 0.446237 0.312176 0.964676 0.942960 -0.007908 0.996224 0.482514 0.617701 -0.550228 -0.181036 0.538969 0.582455 -0.310517 -0.367828 0.443366 -0.647579 -0.993645 -0.360624 0.600612 -0.048813 -0.811359 0.010835 -0.816161 0.511441 -0.058247 0.132094 -0.173087 -0.539809 -0.790776 0.746760 -0.386332 0.655461 0.058936 -0.421655 0.598421 -0.948972 -0.425431 0.080935 0.668728 0.024340 0.899899 0.207698 -0.393204 -0.410618 0.839869 -0.949838 -0.058197 0.846224 -0.310462 -0.457586 -0.202589 -0.121821 0.553249 -0.018750 -0.610380 -0.504998 -0.886656 
0.216533 -0.044807 -0.677432 -0.036707 0.568862 0.978029 -0.977771 -0.852793 0.576450 -0.926744 -0.278224 -0.342615 0.741985 0.746116 -0.442716 -0.050318 -0.647088 0.146665 -0.210448 -0.596926 -0.911532 -0.364224 0.092611 -0.369118 0.433187 0.970790 -0.815868 -0.585563 -0.639590 -0.320866 -0.472219 0.576943 0.634327 -0.149651 -0.459764 0.203189 -0.171622 -0.437536 0.350396 -0.595172 -0.364279 -0.927828 0.062213 -0.622295 0.818288 0.619497 0.327388 -0.828800 -0.233838 -0.883061 -0.425726 -0.145370 -0.247285 0.666885 0.485512 -0.814098 0.637675 0.669644 -0.399661 0.998085 -0.651222 0.128120 0.575028 0.983105 0.978470 -0.884737 0.186295 -0.193152 -0.322272 -0.463309 0.211676 0.313448 -0.391137 -0.726110 0.691154 -0.572849 0.893387 0.018541 -0.401649 -0.340451 0.135481 0.172624 0.514179 0.888196 -0.160491 -0.000308 -0.925902 -0.522816 -0.330664 -0.325563 -0.524731 0.018114 0.802557 -0.949703 0.001219 0.781027 -0.834440 -0.812486 -0.412125 -0.156712 -0.275795 0.799551 -0.843264 0.333068 -0.926559 0.847890 0.760219 0.966827 -0.133569 -0.641430 -0.373624 -0.998088 0.531194 -0.859444 0.890108 -0.629297 0.140247 0.964206 -0.152113 0.809583 -0.361357 0.323156 -0.172303 -0.558799 0.373452 0.828916 -0.777772 0.539013 -0.983569 -0.189897 -0.617700 -0.259364 -0.390346 -0.460964 -0.926296 -0.316906 -0.613074 0.833923 -0.350078 0.253357 -0.807508 0.276298 0.255270 0.723686 0.416854 0.145378 -0.905611 -0.442899 0.109584 -0.057725 -0.633316 0.748227 -0.734569 0.194381 -0.810572 0.638884 0.023298 -0.588344 0.177896 0.039728 0.221759 0.560197 0.780364 0.831412 -0.900767 0.854068 -0.485493 -0.513841 0.687990 0.164428 0.739516 0.880482 -0.559274 -0.005214 0.604168 0.857580 -0.859836 0.698557 -0.585319 0.249748 -0.359168 -0.218635 -0.002025 -0.093737 0.975746 0.187403 -0.454853 -0.000956 0.599059 0.723043 -0.961228 -0.179183 0.283239 0.819137 -0.347771 0.382472 0.673205 0.166736 0.868631 0.361195 -0.668836 0.608148 0.241678 -0.228109 -0.397066 -0.154154 -0.370529 -0.256903 -0.455597 0.044152 0.992845 0.185235 0.825517 -0.009180 -0.908502 0.801264 -0.821777 -0.363355 -0.199692 0.777281 -0.640312 -0.160920 -0.401902 0.642927 -0.341783 0.250328 0.025399 -0.668579 -0.582936 -0.105969 0.692617 -0.251772 -0.497822 -0.065706 0.520119 0.105112 0.780140 -0.850410 0.848209 -0.675457 0.193743 0.841054 0.509778 0.019260 -0.168126 0.601276 -0.179476 0.010097 -0.762080 0.620832 -0.212622 -0.402392 -0.540088 0.385477 -0.759465 0.118129 -0.364195 0.265934 0.449550 0.052869 -0.840035 0.142167 0.801097 -0.337857 -0.923539 0.321216 0.767255 0.856601 0.470807 0.615464 -0.818856 -0.335451 0.456519 0.690922 0.683809 -0.711607 0.292197 -0.495667 0.298490 0.530117 -0.874835 -0.914132 -0.872275 -0.414923 0.471344 -0.631740 0.703205 -0.892851 0.634194 0.152755 0.160017 0.794158 -0.705078 -0.038886 -0.543699 -0.628617 -0.717669 -0.776444 -0.772016 0.753137 0.839020 -0.590871 -0.582313 0.295539 -0.899950 -0.898504 0.583932 0.392247 -0.394171 -0.117578 -0.077636 -0.269006 -0.031711 0.050089 0.316071 -0.560366 0.418349 0.019276 -0.453217 0.052543 -0.827969 0.706800 -0.153299 -0.533047 -0.332086 0.303002 -0.161664 -0.049755 0.526558 0.066321 -0.296618 0.365578 0.475449 0.121069 -0.338883 0.575499 0.222565 -0.754951 -0.032253 0.828395 0.127471 0.890111 -0.440611 -0.904240 -0.059799 0.875460 -0.464606 -0.641450 -0.105264 0.082176 0.411092 0.066767 -0.211024 -0.742207 0.533720 0.456891 0.560795 -0.627943 -0.592864 0.087353 0.438377 0.110518 -0.547069 -0.086173 -0.768412 0.114048 -0.510674 0.454153 0.359097 0.457073 0.282548 -0.513432 0.347184 0.841937 -0.417672 -0.712615 0.717397 0.117721 -0.354066 -0.387867 -0.800102 -0.942973 0.678900 -0.011126 -0.685180 0.212620 -0.554235 0.875615 0.584677 -0.147099 -0.037032 0.023054 0.963419 0.415899 0.936881 -0.804993 -0.470053 -0.573793 0.649160 0.889044 0.883280 -0.068292 -0.624388 0.230464 -0.226355 -0.042061 0.517849 -0.508958 -0.924339 -0.836217 0.103175 -0.724441 -0.779190 -0.217925 0.264433 -0.464370 0.994696 0.710198 -0.588755 0.579372 -0.436901 0.374213 -0.397573 -0.473482 -0.209888 -0.460692 -0.278475 0.320059 -0.034485 -0.629315 0.209103 -0.151204 0.302392 0.584715 -0.920740 -0.923963 -0.457345 0.597109 -0.432920 -0.381685 0.760892 0.670255 -0.106126 0.981702 -0.547670 -0.841693 -0.482668 -0.552974 0.868505 -0.071424 -0.973602 -0.568397 -0.697210 -0.371175 -0.041879 0.092902 0.168133 0.679646 -0.587039 -0.866352 -0.949669 0.622064 -0.017556 0.352723 0.206780 0.061704 0.428761 0.749434 -0.341187 0.995840 -0.632250 -0.580295 0.666095 0.261624 -0.598593 -0.881575 0.419931 -0.081261 -0.434550 0.288435 0.847315 -0.408152 0.720038 -0.849895 0.220673 -0.321840 0.243006 -0.611194 -0.642195 0.655967 -0.477546 -0.591864 0.278032 0.504899 0.760859 -0.515188 -0.433397 0.189620 -0.765754 0.225416 0.185460 -0.398004 0.645122 -0.148445 0.863620 -0.953471 -0.030020 0.283550 -0.034733 0.535430 -0.428015 -0.187417 -0.872721 -0.707977 -0.037313 0.347952 -0.029817 -0.794306 0.736758 0.327989 0.861661 -0.740788 0.736125 0.139693 0.764111 0.496984 0.624505 -0.669286 -0.313396 0.858751 0.556130 0.872063 -0.539254 0.201252 -0.276382 -0.675634 0.247781 0.693598 0.607916 -0.786952 0.229028 -0.820099 0.025631 0.356307 -0.528076 0.988318 -0.295741 0.442107 -0.805988 -0.558984 -0.229904 -0.944327 -0.299771 -0.493779 0.195366 -0.535660 -0.996796 -0.180130 -0.204946 -0.310192 -0.321379 -0.648816 -0.438129 0.139367 0.552436 0.285490 0.463733 -0.199783 -0.020912 0.071649 0.013265 -0.791884 0.251550 -0.961105 0.564422 0.723474 -0.972787 -0.731319 0.165582 -0.778775 -0.290303 0.935678 -0.723102 0.409926 -0.558102 0.472263 0.874266 -0.554898 -0.707866 -0.330680 0.134910 -0.029245 0.020504 0.696782 -0.889878 -0.427060 -0.017729 0.573855 0.373157 0.961359 -0.354496 -0.613578 -0.830526 0.897054 -0.574683 0.733897 0.620528 -0.547470 -0.997422 -0.213890 -0.326245 -0.287725 -0.278213 -0.049348 -0.877799 0.163685 -0.577084 0.996467 0.608788 -0.284950 -0.334213 -0.256302 0.685805 0.686291 -0.559520 0.795927 -0.740768 0.422751 0.369782 0.632389 0.384110 -0.984714 -0.981190 0.553584 0.912340 -0.555873 0.287481 0.532869 -0.103343 0.290059 -0.681022 0.570412 -0.997667 0.040766 -0.478936 -0.875466 -0.795549 -0.056020 -0.878999 0.813239 0.659030 -0.213212 -0.443063 0.344834 -0.526920 -0.002583 0.140761 -0.267688 -0.579832 -0.489457 -0.635300 0.804278 -0.474171 -0.616489 0.357863 -0.561830 -0.172362 -0.354656 0.971038 0.724295 0.935402 -0.709983 0.294707 0.937735 0.330783 0.815771 -0.937730 0.535234 -0.240248 -0.816729 0.348473 -0.581219 -0.029940 0.905410 0.763616 0.443139 -0.097172 -0.095623 -0.824549 0.322996 0.414920 -0.459849 0.127274 0.940749 -0.076338 -0.514863 -0.621081 0.751300 0.130480 -0.650042 0.475595 0.065882 -0.360026 -0.229698 0.003618 0.970757 -0.413927 0.065887 0.505991 0.345825 0.249159 -0.145536 0.764606 -0.780782 -0.240126 0.528222 0.662357 0.662702 -0.567402 0.837808 -0.014303 0.847518 -0.622040 -0.887028 0.788268 0.301621 -0.401892 -0.832813 0.052921 0.728589 -0.482856 -0.471484 -0.205529 0.157119 0.298817 0.798089 0.127876 0.884890 -0.136024 -0.366134 0.230715 -0.886865 0.488330 -0.004679 -0.667647 -0.751796 -0.476458 0.994710 0.910906 -0.043859 0.832519 -0.103397 -0.196341 -0.789522 0.009575 -0.408073 0.512100 0.607683 -0.240887 -0.434979 0.336272 0.276258 0.093537 -0.869257 -0.566624 -0.607646 0.928832 0.561252 -0.722756 -0.207192 -0.804882 0.507959 -0.094057 0.683448 -0.496720 0.238296 0.931652 0.026823 0.233006 0.842558 0.982963 0.065525 -0.260839 -0.213378 0.276003 0.748736 0.378549 -0.211897 0.356419 -0.862338 0.353124 -0.307309 0.413920 -0.553339 -0.176566 0.847296 -0.160985 -0.247734 0.408548 0.116259 0.545074 0.603666 -0.375781 -0.548983 0.287114 0.127499 0.689313 0.218767 -0.845679 -0.077681 0.061325 -0.862715 0.987844 0.800486 -0.076093 0.263847 0.549223 -0.697544 -0.948049 -0.094358 -0.559882 0.405075 0.598333 0.854038 0.851735 -0.578233 0.701334 -0.309250 0.174033 0.109882 0.807009 -0.280893 -0.286452 -0.568772 0.170124 -0.999337 0.558727 -0.140564 0.219430 0.713048 0.781755 -0.719245 0.850333 0.769599 -0.918759 -0.225760 0.033447 0.630463 0.076696 0.085397 -0.463895 0.516815 -0.509528 -0.865562 0.370853 -0.657793 -0.443794 0.072187 0.032957 0.730238 -0.817930 -0.160033 -0.550655 -0.104382 0.271194 0.619469 -0.103719 -0.170079 -0.521095 -0.884290 -0.457031 -0.739340 -0.603535 -0.606698 -0.969740 -0.522294 0.167542 0.063706 -0.891831 -0.755762 -0.850896 -0.355725 0.761053 -0.360424 -0.221287 0.131906 -0.018217 0.334919 -0.795907 -0.985259 0.065157 -0.613838 -0.145293 0.514502 0.281780 -0.874098 0.133971 -0.821939 -0.044177 0.612876 -0.706228 0.498792 0.873537 -0.309763 0.892094 0.903796 0.167943 0.059636 -0.032497 0.276112 0.303874 0.116606 0.920387 0.064926 0.756182 -0.300900 -0.803168 -0.262035 -0.965981 -0.599075 -0.247294 0.099176 -0.212913 0.607413 -0.386322 -0.931132 0.733314 0.747649 -0.753071 -0.310863 0.360525 -0.459299 -0.812071 0.234062 0.230938 -0.919978 0.137858 -0.601120 0.139658 -0.894639 0.674992 -0.556469 0.221967 0.595379 0.508458 -0.021851 -0.705521 0.705290 0.716115 -0.671502 -0.893785 -0.531180 0.427673 -0.106698 -0.923767 -0.958649 -0.037830 0.809548 0.789000 0.209099 -0.501315 0.149525 0.749800 -0.313387 -0.616413 -0.019262 -0.233365 0.521445 0.379618 0.906293 0.626806 0.054610 -0.650176 -0.151227 -0.350011 0.858282 0.826922 -0.055532 0.563572 0.543037 0.272966 0.669787 -0.988143 -0.299360 -0.436911 -0.911910 -0.258009 0.525259 0.897638 -0.469009 -0.265641 -0.603678 0.680517 -0.515841 0.082935 -0.935896 0.464897 0.849571 0.585549 -0.155485 0.755864 0.212355 0.899125 -0.894312 -0.938873 -0.450886 0.963971 0.888050 0.493583 0.527543 0.431086 -0.233451 0.197330 0.442943 0.467188 0.760419 0.531033 -0.790821 0.285679 0.428671 -0.259830 -0.979963 0.824993 -0.579313 -0.495804 -0.092072 -0.515209 0.969093 -0.242501 -0.929660 -0.186392 -0.486637 0.282694 -0.287267 -0.380949 0.343822 0.261847 -0.416978 0.231871 -0.244570 -0.889435 -0.337043 0.521978 0.307895 -0.894099 -0.010833 0.068314 0.636934 0.198346 -0.646007 0.065605 0.938516 -0.625970 -0.109403 -0.640797 -0.121773 0.798526 -0.156006 -0.152680 -0.443975 -0.085666 0.660927 0.069388 -0.802972 -0.626340 0.688440 0.540849 0.635507 -0.728538 -0.227280 -0.609063 -0.617973 0.435678 0.912915 0.689922 0.541578 -0.097918 -0.241764 0.178512 -0.899572 0.112228 -0.755884 -0.961056 0.486258 0.134714 -0.601852 -0.635515 -0.066760 0.242142 0.211804 0.489265 -0.843525 -0.127268 -0.441347 -0.646497 0.246392 -0.752907 0.894352 -0.118102 -0.481445 -0.332928 0.272835 -0.099418 -0.897250 0.185750 -0.409496 0.644328 -0.912168 0.348739 -0.177160 -0.811740 -0.539033 0.066956 -0.772796 0.947226 -0.798330 -0.374648 -0.688290 0.134910 0.867494 0.523515 -0.375825 -0.976031 -0.603754 0.182829 -0.622528 0.642638 0.429922 -0.728176 -0.475464 0.948477 -0.061104 0.797371 -0.150940 0.041646 -0.016879 0.439563 -0.314026 0.070953 -0.211698 0.508814 0.259213 0.249270 -0.424229 0.486418 0.196495 -0.222559 -0.888230 0.508206 0.912351 0.979264 0.031721 -0.463473 -0.996767 0.427967 0.719355 -0.619295 0.070605 0.149278 -0.347471 0.595142 0.097755 0.591425 0.392513 0.946815 -0.366929 -0.624366 0.386378 0.319046 0.446588 -0.825320 -0.172140 -0.294199 0.423950 0.403631 -0.807781 -0.379555 -0.818928 -0.696011 -0.871349 -0.906577 -0.716748 0.160372 -0.370050 -0.713515 -0.411661 -0.650695 -0.332811 0.658944 0.498583 0.319718 0.254086 -0.403662 -0.088857 -0.353401 -0.456848 0.544214 0.022233 0.929530 -0.136740 -0.531179 -0.895790 0.691119 0.174622 0.528160 0.094750 0.366841 -0.851394 0.275822 0.670829 -0.722743 0.369245 0.954081 0.437629 0.999195 -0.759434 -0.974032 -0.651499 -0.092245 0.684912 0.847083 -0.772527 -0.061002 -0.556579 0.138616 0.585597 -0.013427 -0.317170 -0.392170 -0.083896 0.546090 0.076651 0.020314 0.237209 -0.748727 -0.451526 -0.668040 0.618113 -0.302920 0.607782 0.288943 -0.025663 -0.022973 0.243024 -0.588034 -0.023778 0.483590 -0.562066 0.324723 -0.608654 -0.877154 0.171806 -0.381181 0.061844 0.615227 0.757435 -0.352559 -0.398199 -0.559734 0.255271 0.517904 0.986356 -0.668079 -0.461782 0.223565 -0.416806 0.086692 0.555525 -0.798693 0.783772 0.163306 0.490250 -0.241891 -0.859667 -0.266726 0.170075 0.116556 -0.783135 0.608009 -0.558722 -0.391790 0.730855 0.613084 0.227030 -0.207301 0.228312 -0.015535 0.440140 0.830112 0.424731 -0.304589 0.348017 0.411087 0.027333 0.886235 -0.365348 0.610527 -0.027073 -0.809824 0.811834 -0.243301 0.353483 0.302085 0.514808 0.493816 -0.964641 -0.315118 -0.389628 -0.747776 -0.707109 0.051650 -0.139566 -0.976254 -0.335266 -0.912536 -0.183555 0.893046 0.071929 -0.743415 0.723158 -0.503340 -0.048003 0.071175 0.907746 0.979329 -0.042591 -0.457602 0.589856 0.930336 -0.267426 0.401691 -0.312965 -0.913943 -0.296225 -0.798158 0.579873 -0.260866 -0.113276 -0.809755 -0.008642 0.179615 0.241895 0.851792 0.203361 0.906629 0.939255 -0.980194 0.799675 0.011184 -0.723609 0.522833 0.507844 0.228388 -0.405993 0.415590 0.207718 0.551416 0.957987 -0.202426 0.481752 -0.309438 -0.800735 -0.831213 -0.223381 -0.096960 -0.629371 -0.643508 0.642174 0.257353 -0.453263 -0.366468 -0.563031 0.788631 -0.514677 0.640329 0.695260 -0.575421 0.660135 0.494935 0.435763 0.936527 0.017768 -0.056394 0.164915 0.611775 -0.640804 -0.627367 0.163191 -0.682816 0.170207 -0.355057 0.007745 0.369472 -0.186270 0.784364 -0.727489 0.184359 -0.859144 0.914685 -0.558287 -0.312407 -0.451783 -0.121319 -0.523776 0.033540 -0.480989 -0.828515 0.458119 -0.820854 0.666420 -0.106119 -0.884327 -0.315813 0.837488 0.280588 -0.704038 -0.803316 0.653221 0.459153 -0.486132 -0.176572 -0.895903 0.521613 -0.807101 -0.082173 0.305977 -0.534589 -0.897814 0.446833 -0.619904 -0.456101 -0.865574 -0.071687 0.422580 -0.389350 0.961853 0.941591 -0.217865 0.419971 -0.879263 -0.551445 -0.686147 -0.763590 0.132742 -0.848659 0.516998 0.428704 -0.651975 0.170219 -0.112143 -0.138108 0.993647 -0.008046 -0.616495 -0.813454 0.909781 0.689482 -0.348043 -0.988033 0.136315 0.032053 -0.444134 0.270741 0.960365 0.978446 0.881391 0.922218 0.920036 -0.336474 0.342189 -0.959227 0.112081 0.656042 -0.722817 -0.755177 0.807383 0.794181 0.673526 -0.844593 -0.035600 -0.438617 0.017300 -0.041953 0.553337 0.400805 0.144594 0.463118 0.090287 0.796551 0.475084 -0.773398 -0.171396 -0.969050 0.497343 -0.211031 -0.990604 0.378734 -0.288813 0.929432 -0.957739 -0.946623 0.970205 0.154341 0.709419 -0.752611 0.399164 0.516802 -0.958430 0.072690 0.672209 0.005970 0.634074 -0.310491 0.964017 0.187411 -0.909687 0.108611 -0.349472 0.180600 -0.094838 -0.874387 0.407202 0.733765 -0.843437 -0.095455 -0.477265 -0.834041 -0.716720 0.233922 -0.904609 -0.674460 0.287298 -0.934404 0.479882 -0.003283 -0.687016 -0.120954 -0.486481 -0.645446 0.951736 -0.814272 0.360524 0.585810 -0.124764 0.324542 -0.226779 -0.034450 -0.566847 0.423749 -0.853850 0.338315 0.549362 0.553352 0.072080 0.705925 -0.542103 0.594815 0.871883 -0.258823 -0.171263 0.967274 0.066717 -0.883965 -0.967130 -0.453401 0.112752 -0.654146 0.425644 0.626271 -0.299591 0.377380 0.811999 -0.939067 -0.036810 -0.312765 0.385475 0.736411 0.652785 0.818628 0.160160 0.798935 0.156943 -0.290478 0.352287 -0.770977 -0.584554 0.810185 0.823838 -0.712670 -0.448638 -0.347425 -0.745396 0.618079 -0.231390 -0.712526 -0.835322 0.881362 -0.366672 0.590323 0.507633 0.333737 -0.032297 0.319632 0.394670 0.930893 -0.993133 -0.219855 0.667304 0.659652 -0.401227 -0.172537 0.458587 0.755716 0.536985 -0.189125 0.984739 0.952432 -0.378940 0.808577 -0.760239 0.172422 -0.538848 -0.505635 -0.209499 0.229762 -0.218161 -0.044821 0.111125 0.415167 -0.454498 -0.381242 -0.251096 0.513205 0.938391 -0.856426 0.444098 0.945258 -0.076281 0.111401 0.604910 0.522492 0.938865 0.063497 0.278208 0.475850 0.874372 0.262947 0.428281 -0.504568 0.071524 0.668043 0.667854 0.532676 -0.837592 -0.541645 -0.237561 -0.055753 0.413534 0.873564 -0.640586 0.959035 -0.507678 0.108318 0.472240 -0.569287 0.251893 -0.083663 -0.624030 -0.824388 -0.972261 0.980881 0.698103 0.966604 0.044378 -0.023689 0.442453 -0.081250 -0.760742 -0.129265 0.414182 0.310782 -0.461223 0.082036 -0.156542 -0.298815 0.540390 0.605897 0.645432 -0.046076 0.479461 -0.995154 -0.087041 0.971783 0.113165 -0.614801 -0.597505 -0.634943 0.301537 -0.221534 -0.459331 0.329275 -0.240653 -0.761228 0.295879 0.803725 0.215084 -0.261668 -0.277525 0.454341 0.609067 -0.863343 -0.234877 -0.852156 0.218693 0.608581 -0.150971 -0.240917 0.214478 -0.505539 0.713007 -0.306061 -0.500692 -0.374033 -0.334278 0.612472 0.011166 0.068217 0.977530 -0.687298 0.846683 -0.481802 0.641977 -0.393971 -0.243029 -0.062144 -0.590246 0.972054 0.676188 0.132229 0.426396 0.285255 0.268886 -0.808481 0.433099 -0.512421 0.800100 -0.717872 0.246663 0.014579 -0.223411 -0.040330 0.708518 0.275897 0.585637 -0.625761 -0.111631 -0.403198 0.442456 -0.134101 -0.090495 0.289139 0.384097 -0.448518 0.895168 -0.858932 0.489338 -0.695078 -0.886878 0.165527 0.437151 0.539518 -0.549218 -0.293963 0.731037 0.883880 0.193616 0.531137 -0.833992 -0.559721 -0.454284 -0.057403 0.399949 -0.745766 -0.781506 -0.014414 -0.371527 0.106863 0.582388 -0.929071 0.972762 -0.508107 0.360068 0.356859 0.043375 0.255236 0.497927 -0.467287 0.560159 0.611049 0.698240 -0.002690 0.150567 -0.850979 0.703347 -0.118396 -0.967098 -0.103036 -0.587258 -0.801090 0.337243 -0.041542 0.141507 -0.262808 0.212691 0.360001 0.722778 0.841164 -0.533136 0.305166 0.912093 -0.560374 0.797058 0.272161 0.796485 -0.159567 -0.472603 0.294412 0.373146 -0.912444 -0.094539 0.071385 0.084866 -0.943971 0.220407 -0.211787 -0.062367 0.253308 0.685177 0.350375 0.452218 0.022420 -0.691168 -0.406275 0.759612 0.521524 0.953726 0.482389 0.362688 -0.579409 -0.212445 0.274781 -0.139783 -0.415387 -0.453059 -0.343298 0.425046 0.074338 0.951114 -0.201809 0.161894 -0.143425 0.869577 -0.753240 -0.087396 0.089983 0.034973 0.850237 -0.656708 -0.279851 0.200611 0.795510 0.742569 0.509444 -0.610765 0.502181 0.030967 -0.657039 -0.015429 -0.606345 -0.236448 0.772125 0.668436 0.623768 -0.643261 -0.784623 -0.719530 0.781784 0.289716 -0.768416 -0.420024 -0.548391 0.088159 -0.550447 -0.301631 -0.999237 0.539536 0.733342 0.851000 0.882827 -0.546509 0.051611 0.678337 -0.803940 -0.438945 -0.932428 0.698241 0.592022 -0.589467 -0.317188 0.985678 0.174084 -0.545063 0.654113 -0.202148 -0.188324 0.869491 0.078322 -0.406540 0.159206 0.309906 0.173436 0.610816 -0.601935 0.622989 -0.690815 -0.601172 0.162525 -0.957474 -0.750172 0.045352 -0.503983 0.301439 -0.276311 -0.307922 0.862494 -0.208739 -0.609681 0.454516 0.201793 0.073131 0.440194 -0.624122 0.528068 0.094307 0.173730 -0.660255 -0.036202 -0.747948 -0.066795 -0.876996 0.561958 -0.893359 0.733819 0.960023 0.729630 -0.956996 -0.641149 -0.107845 -0.914470 -0.391321 0.937507 -0.418453 0.910118 -0.338804 0.273625 0.772611 0.452457 0.663944 0.227128 -0.345750 -0.262925 -0.332679 0.030128 -0.734856 0.761629 -0.796142 -0.395112 -0.274574 -0.544090 0.538093 -0.151570 -0.982132 0.644734 -0.417750 0.977892 0.374364 -0.374746 -0.663258 -0.733481 -0.289216 -0.054579 -0.795974 0.292331 -0.144461 -0.134779 -0.434044 -0.371850 -0.682322 -0.770100 0.855277 -0.028072 -0.033025 -0.477401 -0.997944 0.232119 -0.715773 -0.794086 0.837007 0.009653 -0.338176 0.375100 0.858084 -0.320307 0.019834 -0.559667 -0.342416 -0.605802 0.065587 -0.005674 -0.339283 0.776370 0.939747 -0.135257 0.068702 -0.204714 0.729964 0.634658 0.423436 -0.952358 0.864558 0.278713 0.019570 -0.168466 0.801312 0.021626 -0.936348 -0.914461 0.227540 0.900659 0.095193 0.889365 0.275759 -0.046724 -0.430943 -0.704406 0.393609 0.226641 -0.310208 -0.540804 -0.779032 0.350509 -0.764433 -0.839285 -0.784748 0.304268 -0.043999 0.945216 -0.061074 -0.620563 0.992858 -0.196516 0.658150 0.012428 0.635018 0.459462 -0.965945 0.698670 0.545001 0.261595 0.599330 -0.359806 0.150960 -0.124911 0.593470 0.720017 0.170683 -0.012921 -0.053342 0.860475 0.446275 0.167626 0.210984 0.681842 0.328341 0.426236 -0.013890 -0.715658 0.371452 0.925036 -0.336222 0.364310 -0.271479 -0.678072 -0.623262 -0.636461 0.781390 -0.589207 -0.937791 0.326392 0.672389 0.661539 0.966585 -0.176652 -0.463372 0.560055 -0.456635 0.707311 -0.452865 0.490023 0.567786 0.993410 -0.342351 -0.221230 0.675252 0.985990 -0.794995 -0.338638 -0.729669 0.576457 -0.413601 -0.065891 -0.059233 0.314919 0.256038 0.317505 0.678458 0.037428 0.728299 0.740667 -0.636180 0.400687 0.402206 -0.669595 -0.775964 0.938833 0.890460 -0.232599 0.646144 -0.562405 -0.742576 0.213930 -0.568995 -0.084927 0.992699 -0.893743 -0.098937 -0.802295 -0.232380 0.171394 0.774162 0.354018 -0.894496 -0.285071 -0.331062 0.361541 -0.967566 -0.652604 -0.601030 0.760733 -0.911937 -0.237211 0.161420 0.490269 0.093194 0.385456 0.429102 -0.016345 -0.847143 0.075246 0.421250 -0.589719 -0.710824 0.852255 0.325355 -0.718125 0.958512 -0.773582 -0.520420 -0.273868 0.397812 -0.746259 -0.919850 0.503316 -0.031330 -0.250912 -0.135143 0.001105 0.096484 0.263827 -0.238162 0.184547 -0.973384 0.923258 -0.325184 0.119810 0.308714 -0.896082 -0.896535 0.461570 0.179164 0.524715 0.871852 0.468340 0.376970 0.197206 0.750215 0.335482 0.423624 -0.770206 -0.938386 -0.178564 -0.516464 -0.858236 -0.675248 0.452206 -0.109148 0.189609 -0.546689 0.987336 -0.546564 0.215149 0.171883 -0.519948 0.138406 0.846698 0.599862 -0.552880 0.950616 0.703327 0.908690 0.129780 0.228042 0.780542 -0.401881 -0.394989 -0.022251 -0.651666 0.940493 -0.598627 -0.421872 -0.997893 0.222809 0.061664 -0.856129 0.547561 -0.486130 0.034723 -0.262830 -0.032819 0.022058 0.190606 -0.817670 -0.806059 0.670657 0.320736 -0.959360 0.270519 0.767856 0.991256 -0.026154 0.676547 0.121036 -0.798112 0.457089 0.719155 -0.193101 -0.565162 -0.932511 -0.252608 -0.163789 -0.354382 -0.250502 -0.940980 0.707282 -0.106631 0.606581 -0.778848 0.928091 -0.656249 0.188334 -0.049850 0.534357 0.370663 0.144091 0.205014 -0.308601 0.184731 -0.524466 -0.540745 0.175987 0.449380 -0.864198 -0.702978 0.651268 0.592891 -0.983823 -0.541834 -0.972272 -0.916333 0.205558 -0.136061 -0.270716 0.955056 -0.077041 -0.563434 -0.151575 -0.470460 -0.342281 -0.223484 -0.126709 0.846052 0.726666 -0.592352 0.216715 -0.129243 0.612662 0.908115 -0.944512 -0.911804 -0.632630 0.231475 0.537576 -0.496828 0.528497 0.188844 -0.903937 0.544674 0.647010 -0.876209 0.628341 -0.147432 -0.012270 -0.642375 -0.192376 0.910689 -0.205809 0.656050 -0.559771 0.451910 -0.567434 0.313520 0.297962 -0.840768 0.721168 -0.485323 0.029989 0.333831 -0.577208 0.085477 0.422027 -0.209838 -0.683048 -0.040397 0.293334 0.845449 -0.851553 0.389397 0.390124 0.795457 0.513188 0.018465 -0.351975 -0.499081 0.376090 0.455650 -0.588392 -0.829719 0.111699 -0.148163 0.622191 0.544265 -0.834643 -0.079847 0.703497 0.886526 0.434831 -0.266513 0.220357 0.857622 0.818964 -0.357616 -0.352216 -0.864084 0.601987 0.941118 0.981366 0.750434 0.330515 0.371489 0.545892 -0.156297 -0.610046 -0.806083 0.344622 0.766044 0.649567 0.756230 0.936325 -0.238734 -0.391933 0.558516 -0.694468 -0.226576 -0.521330 -0.990971 -0.340050 0.913500 -0.257484 0.880307 0.771123 -0.438520 -0.477309 -0.581093 -0.302604 -0.875322 -0.639975 -0.321238 0.875112 0.690540 -0.949749 0.421004 -0.465756 -0.559796 0.614921 0.878866 -0.793752 0.264488 0.635096 -0.857427 -0.974246 -0.756837 0.701089 -0.668714 0.016587 -0.820241 -0.659685 0.676537 -0.906741 0.082830 0.556844 0.864382 0.644310 -0.920465 -0.716712 -0.658294 -0.795787 -0.356686 0.020468 -0.920675 -0.666146 0.070718 0.500329 -0.131902 0.510923 0.115250 -0.253037 0.717171 -0.620262 -0.617941 0.859743 -0.594508 -0.374778 0.560833 -0.263223 0.641809 0.740591 0.077092 0.318347 0.833850 -0.840078 -0.124809 0.698232 0.804232 -0.045274 0.981520 -0.854062 0.158939 -0.375166 0.166406 0.238264 -0.041312 -0.762876 -0.261407 0.826785 0.748047 0.853843 -0.426251 0.465217 -0.766419 -0.044192 0.324961 -0.360927 0.581030 -0.114207 0.375850 0.222840 -0.373615 -0.547058 -0.458814 -0.539765 -0.387136 
0.416377 -0.841533 -0.582904 -0.628897 -0.860012 -0.436965 0.530042 -0.235178 0.729440 -0.231694 0.723509 0.966565 0.506899 0.550295 0.714612 0.360742 -0.875956 0.179829 0.594323 0.079852 -0.495210 -0.766604 -0.339118 0.390583 0.609246 0.883722 -0.983032 -0.937811 -0.575092 -0.522797 -0.324947 0.841286 -0.364330 0.092149 -0.787611 -0.224342 0.655183 0.742430 0.540479 0.384624 -0.489264 0.263989 0.351189 -0.982365 -0.185717 0.065800 0.378377 -0.061673 -0.754371 -0.027300 -0.981821 -0.249581 0.206096 -0.320939 -0.858998 -0.184657 -0.437217 -0.842030 -0.122469 -0.012309 -0.364827 0.552584 -0.171023 0.270843 -0.355267 0.041366 -0.953500 -0.700084 -0.216204 0.586979 0.684540 0.294531 -0.149032 0.035729 0.312166 0.665251 -0.898471 -0.309457 -0.396422 -0.652842 0.663243 -0.378243 0.097577 -0.130661 0.300818 0.238579 0.684682 0.863602 0.396549 -0.437786 -0.148707 -0.968279 -0.885202 0.680270 0.302564 -0.240469 -0.278364 0.349064 0.059447 0.505431 -0.063956 -0.256013 -0.200037 0.787011 0.779716 -0.887871 0.452263 0.881245 -0.197328 -0.944159 -0.771597 -0.534085 -0.322402 0.325979 0.335254 0.978417 -0.435442 0.019937 0.842018 0.961107 0.582151 -0.306689 0.992828 0.696949 -0.626419 0.295392 -0.543521 0.095217 -0.355544 0.515927 -0.399352 0.580500 -0.740086 0.400611 0.367511 -0.960370 0.512740 -0.180226 0.920874 -0.684588 -0.124385 -0.850723 -0.218673 0.553213 0.475256 -0.883419 0.531630 -0.960185 0.136518 0.373648 -0.999079 -0.281331 -0.933041 0.993749 -0.584383 -0.559460 0.289141 -0.127903 0.535757 0.933598 -0.611976 -0.863594 0.514097 -0.352063 0.537017 -0.118391 -0.312433 0.049757 0.701383 -0.391559 0.365169 -0.423003 -0.242282 -0.853504 -0.869790 -0.767025 -0.736922 0.661840 -0.727211 0.399596 0.035487 -0.726290 -0.881736 0.102446 -0.732540 -0.466118 0.542986 0.556601 0.405979 0.078743 0.490199 0.794003 0.215149 0.004296 -0.558060 -0.247834 0.885905 0.129507 0.801923 0.587287 0.737948 0.167092 -0.835715 -0.504333 0.313589 -0.705505 -0.271359 0.576666 0.956334 0.001431 -0.023738 -0.008178 0.275141 0.094526 -0.905732 0.542601 0.628408 0.637254 0.099202 0.034387 -0.284003 -0.410599 -0.171610 0.931146 0.593697 0.270330 -0.316689 0.479602 -0.600163 -0.514766 0.066889 -0.862215 0.652327 0.231174 -0.366548 -0.034085 0.525668 0.362094 -0.457419 0.482003 -0.636476 0.518843 -0.526176 0.638665 -0.386630 -0.431908 0.181266 -0.758222 -0.794655 -0.719532 0.276165 -0.078658 -0.130131 -0.895445 -0.147512 -0.536434 0.374885 0.535800 0.943168 0.774722 -0.978966 0.010057 0.912507 0.673361 -0.758769 -0.454041 -0.360724 0.766899 0.908052 0.181857 0.248901 -0.728423 -0.299299 0.722726 0.910242 0.314070 -0.709183 0.091508 0.555848 -0.503837 0.371977 -0.167987 0.417505 -0.758154 -0.063432 -0.730007 -0.294588 -0.688547 0.805793 -0.351420 -0.913826 0.826827 0.658637 0.998681 0.500188 0.899867 -0.455360 -0.860537 0.666766 -0.547308 0.321321 -0.084332 -0.275731 -0.977979 -0.361607 -0.365489 0.336092 -0.070789 0.726019 -0.108060 0.425373 0.097996 0.723953 -0.157121 0.339841 -0.339479 0.112872 -0.954747 -0.028026 -0.081335 -0.306167 0.058148 -0.254508 -0.647530 0.056829 -0.754321 -0.747662 0.601469 -0.614858 0.919104 -0.945839 0.706463 -0.165228 -0.221570 0.728485 0.473165 0.412941 0.064576 -0.597624 0.138960 0.956516 0.827749 -0.763044 0.680468 -0.329372 0.576797 -0.659011 0.783500 0.622051 0.312963 -0.297835 -0.684116 -0.628889 0.447656 -0.331646 0.427940 0.693335 -0.079308 0.029408 -0.921522 -0.160204 0.083570 0.784941 0.674567 0.862000 0.513425 0.147732 0.274941 -0.421999 0.550108 -0.586099 -0.465483 0.377857 -0.349144 -0.785015 -0.951515 -0.772346 -0.444025 0.831985 0.849704 0.868937 -0.465851 -0.834412 -0.759952 0.981806 -0.166058 0.667988 0.675141 0.754634 -0.302604 0.753618 -0.405570 0.780966 0.538559 -0.731003 0.642965 0.051984 0.416729 -0.082094 0.629986 -0.033163 0.331806 -0.835497 -0.655306 0.982663 -0.620512 -0.606821 -0.789683 -0.064537 -0.774836 -0.939979 -0.195600 -0.240686 -0.774391 0.044448 -0.258881 0.059552 -0.287564 -0.583740 -0.185814 0.409832 -0.830122 0.408616 0.190797 0.708437 0.677612 -0.166237 -0.239579 0.094341 0.751668 -0.609593 -0.938822 0.083475 -0.445090 -0.594127 0.066138 -0.065602 -0.200948 0.276454 0.869860 0.024217 0.336475 -0.325740 0.783530 0.562085 0.718708 -0.475350 -0.378363 -0.568856 -0.059090 0.435823 0.840975 0.110788 -0.155562 0.031773 -0.180775 -0.477949 0.865535 0.579647 0.616392 0.617204 0.970053 0.677570 -0.299322 -0.475037 -0.916557 0.766816 0.459361 -0.117505 0.043270 0.329221 0.906712 -0.620255 -0.996519 0.690242 0.941830 0.722189 -0.785108 -0.436533 -0.846667 0.155802 0.999289 0.994308 -0.733410 -0.156272 0.026081 0.085815 0.365778 -0.108384 -0.334538 -0.017830 -0.491180 -0.364485 -0.340259 0.209498 0.160478 -0.256816 -0.023686 -0.380161 0.625679 -0.980416 0.949060 0.532390 -0.600670 0.952541 0.222632 -0.658840 0.674730 0.437524 -0.095373 0.828062 -0.406674 -0.096084 0.822370 -0.140084 0.747644 -0.151549 0.945731 0.113422 0.740068 -0.388807 -0.904407 -0.751113 0.246709 -0.244667 0.458385 -0.592813 0.498517 -0.565300 0.027026 0.124196 -0.545716 -0.023914 -0.343414 -0.146386 -0.071374 0.879218 0.194774 -0.396644 0.316742 -0.900600 -0.568582 0.910068 0.003317 -0.746211 -0.230016 -0.249040 0.102240 -0.284284 0.864383 -0.157692 0.326909 0.959976 0.091195 -0.426382 -0.284691 -0.450419 -0.019195 -0.786174 -0.015720 -0.992169 0.338022 0.438564 -0.016083 0.994608 -0.707822 0.912543 0.873826 0.486951 -0.484101 0.190568 0.586351 -0.052683 0.100636 -0.410332 0.201106 0.870620 0.340628 -0.696654 -0.413664 0.205011 0.145654 0.913245 0.164987 -0.763151 -0.513137 0.880296 -0.213571 0.467668 -0.905878 0.770710 0.475500 0.432144 0.209274 -0.540583 0.426752 0.501451 -0.628040 0.300578 -0.011598 -0.112141 -0.508854 -0.425246 0.835177 0.591782 0.164422 0.036283 0.462403 -0.494950 0.339629 -0.951261 0.710061 -0.514717 0.961984 -0.124952 -0.277868 -0.551153 -0.244656 0.508561 0.916516 -0.150533 0.279271 0.392015 -0.718389 -0.511455 0.851432 0.708363 0.989996 -0.776608 0.008940 -0.021602 0.111252 0.500086 0.553152 -0.053572 0.091869 -0.282426 0.982711 -0.445729 0.222624 0.322340 -0.396990 -0.067315 0.807623 -0.435006 0.807734 -0.470245 0.013842 -0.436922 -0.961684 -0.069642 0.412545 0.317587 -0.677627 0.694155 0.806132 -0.826195 0.402518 0.796128 -0.602803 -0.588542 -0.225474 0.508449 0.911545 -0.672322 -0.545123 0.003413 0.045251 -0.562412 0.557685 -0.732125 0.759929 -0.839305 0.200561 0.567552 -0.274311 0.008294 -0.902693 0.739531 0.571372 -0.864377 -0.330111 -0.016083 0.453211 -0.007738 -0.321928 0.259342 0.166067 -0.919410 0.055470 0.563264 -0.507951 0.829996 0.071713 -0.596407 -0.842327 0.526590 0.407007 0.202925 0.964178 -0.035309 0.470800 0.724107 0.125386 -0.328639 0.291659 0.851076 0.679655 0.388966 0.590607 0.251027 0.524589 -0.739504 -0.765055 -0.022200 0.252758 -0.086983 -0.762858 -0.581176 -0.006393 0.292612 0.982089 0.485656 0.122608 0.053801 0.889249 0.280281 -0.419609 0.296256 -0.516794 -0.455431 -0.739053 0.954006 -0.731324 0.386333 -0.374633 0.560335 0.237409 -0.694978 -0.050700 -0.171984 0.556049 -0.526110 0.088511 0.790994 0.451689 -0.658731 -0.295989 0.688831 -0.239907 0.697618 -0.018557 -0.257818 0.183274 -0.895949 0.795983 0.072523 0.384332 -0.623626 -0.631221 0.867538 -0.079057 -0.370274 0.821544 0.189619 -0.983941 -0.553089 -0.250046 0.253468 -0.248067 0.699254 -0.918516 -0.692018 -0.826856 0.169995 -0.901025 0.624833 0.511264 -0.197014 0.313664 -0.728643 -0.499396 -0.704893 0.013539 0.683877 -0.600842 -0.190477 -0.243600 0.783490 0.185897 0.125179 0.651028 -0.893160 0.754904 0.472572 0.296459 0.770964 0.919483 -0.953587 0.024432 -0.328584 0.745667 0.105915 -0.020602 0.918811 -0.724090 0.078373 0.543644 0.787174 0.881359 -0.142692 -0.941468 -0.618038 0.152415 0.072071 -0.934161 0.551573 0.881594 -0.177761 0.335063 0.067491 0.947418 -0.013909 0.174331 0.702322 -0.541336 -0.529209 0.473286 -0.621853 -0.482796 -0.502283 0.049563 -0.737129 0.603633 -0.971039 -0.818318 0.879543 0.107333 0.725325 0.666718 -0.011308 -0.417367 0.725250 0.370654 0.735048 -0.202679 0.436493 0.286621 -0.321085 -0.741268 -0.378316 0.746406 -0.793850 0.607775 -0.079263 0.908472 -0.933562 0.391528 0.381758 -0.555415 0.908731 0.879476 0.494148 -0.828398 0.483108 0.523109 -0.646716 0.362652 -0.369558 -0.921391 0.029369 0.619134 -0.338758 -0.245381 -0.010212 -0.603710 0.551940 -0.573719 0.682910 -0.769145 -0.314986 -0.695406 0.977261 -0.108836 0.912369 -0.102002 -0.200364 0.978807 -0.710474 -0.818606 -0.576607 -0.801743 -0.939130 0.917541 -0.630141 0.543978 0.440650 -0.276857 -0.093370 -0.928908 -0.198248 0.936000 0.690226 0.462994 -0.309381 -0.319985 0.859283 -0.757441 0.106296 0.542194 -0.526587 0.791310 0.846788 -0.549326 -0.317527 0.759156 0.348672 0.482109 0.737963 0.638198 0.663504 -0.838644 0.836455 0.724374 -0.921103 -0.793686 0.268352 0.519547 -0.070543 -0.825018 0.590639 0.731208 -0.889018 0.280865 0.194202 -0.198399 0.960880 0.053485 0.044159 0.067176 -0.404321 0.517573 -0.141514 -0.557534 0.968247 0.540959 -0.798377 0.316919 0.023068 0.939586 -0.044883 -0.313428 -0.899058 -0.208428 -0.589054 -0.820161 -0.002114 0.679298 0.699385 0.927343 0.854281 0.290024 0.658551 0.965263 -0.429110 -0.147247 -0.233136 -0.468230 0.906239 0.811023 0.598946 -0.498082 0.328596 -0.542569 -0.055616 0.296843 0.998390 0.146007 -0.386238 0.021459 0.085593 0.568880 0.708031 0.186535 -0.639548 -0.881023 0.366374 0.358339 0.798276 0.065759 0.285682 0.652556 -0.644217 -0.055767 0.617819 -0.073327 0.796987 -0.615317 0.458443 0.703225 -0.804294 0.057389 -0.794857 0.524302 0.514820 0.149527 -0.178855 0.513210 -0.704466 0.434907 -0.465331 0.381127 0.003787 -0.757300 -0.432339 0.364240 -0.638323 0.934035 -0.277421 -0.840047 -0.000206 -0.991739 0.812509 0.355577 -0.047506 0.430328 -0.717750 -0.250519 0.815011 0.740693 -0.547294 -0.989283 -0.201918 -0.342151 0.535019 -0.687099 0.807376 -0.643836 0.826112 -0.897090 0.791071 -0.639219 0.484036 -0.205141 -0.396519 -0.948302 -0.840902 -0.034842 0.985732 -0.118323 0.125111 -0.014474 -0.110063 -0.062379 -0.658897 0.842431 -0.632051 -0.376647 -0.408088 -0.817040 -0.635954 0.044618 -0.806323 0.162128 0.702467 0.728696 0.475030 0.509843 -0.915140 0.301141 0.612753 0.875932 0.661922 0.096790 -0.329210 -0.734597 0.148487 -0.170112 0.230562 0.134220 0.711565 -0.644327 -0.880254 -0.398497 0.293293 -0.539151 -0.556066 0.661242 0.084203 0.035846 0.844203 0.448249 -0.919536 -0.962120 -0.389623 0.782931 0.766576 -0.914593 0.292775 0.851437 0.386548 -0.094472 0.727368 0.048470 -0.997682 -0.601842 0.313874 0.150805 0.228046 -0.455565 -0.714975 -0.060388 -0.099892 -0.595229 0.541114 -0.806598 -0.134379 0.985048 0.854644 0.949823 0.020894 0.698846 0.398073 0.101358 0.736726 -0.991550 -0.115711 0.503303 -0.906143 -0.822936 0.354739 0.480405 0.082592 0.082107 -0.471125 0.084910 0.480265 0.842749 -0.764285 -0.291688 -0.612816 -0.479260 0.647923 0.287292 -0.074489 0.189037 0.480694 0.791132 0.174085 0.335338 0.740955 -0.805021 0.034184 0.139028 0.296336 -0.229090 0.147478 -0.819375 -0.725787 0.241335 -0.642311 0.628952 -0.278260 0.440280 -0.288941 0.250615 -0.474810 -0.808675 0.093364 -0.239095 -0.100364 0.480548 0.281645 -0.452440 -0.232160 -0.792844 0.736597 -0.751466 0.998288 -0.089318 0.583871 0.739243 0.105661 -0.381945 -0.121729 -0.598003 0.388965 -0.974251 -0.417377 0.663178 0.267084 -0.059689 0.292130 0.988824 -0.619408 -0.996810 0.239439 -0.094219 -0.805486 -0.667197 0.666686 0.094151 0.813351 -0.051669 0.641710 -0.418809 0.155487 0.378308 -0.170275 0.153775 -0.711010 -0.586404 -0.106982 0.394651 0.031652 0.771289 0.796649 -0.579383 0.797038 -0.620729 -0.916205 0.064122 0.319582 0.375926 0.052945 0.700174 0.379115 -0.707616 -0.394045 0.573629 -0.374813 -0.727358 -0.332220 -0.561462 0.220973 -0.690510 0.019729 -0.623540 0.687798 0.849454 0.530235 0.976788 -0.736950 -0.576747 0.371439 0.294702 -0.805458 0.168088 0.715319 0.991580 0.547359 0.799114 0.055702 -0.133059 0.175040 -0.891353 -0.432885 -0.445845 -0.598969 0.173071 -0.872216 0.026218 0.445712 -0.204436 0.464755 -0.333315 0.105055 -0.515516 0.043145 -0.207147 -0.666062 -0.426620 -0.230359 -0.403012 -0.003367 -0.858920 0.891690 0.191175 0.309168 0.607008 0.182755 -0.143473 0.406123 -0.761543 0.723469 -0.418837 -0.652896 -0.709416 0.135318 -0.251864 0.463655 0.263102 0.774353 -0.090633 -0.941334 0.239109 0.576052 0.163721 0.723593 -0.380803 0.956574 -0.942469 0.192577 -0.273785 -0.345482 -0.810790 -0.132705 -0.453792 0.380385 -0.823536 -0.846784 -0.436859 0.032991 0.559339 -0.198402 -0.243540 -0.859498 0.148702 0.047044 0.275820 0.896838 -0.489301 -0.461078 0.671191 0.420066 -0.402412 -0.089700 -0.003882 0.761309 -0.366107 0.615316 0.717883 -0.308577 -0.192107 -0.555901 0.345942 -0.002897 0.311394 0.892150 -0.622511 0.487858 -0.954634 -0.059371 -0.479152 0.604705 0.742227 0.277308 0.745207 -0.109070 -0.675648 0.021027 -0.212232 -0.164949 0.559948 -0.541041 -0.744883 -0.842463 0.369259 0.251236 0.918846 -0.996848 -0.133449 0.636729 -0.305425 0.674444 -0.919172 -0.959483 -0.328452 0.392222 0.932667 0.049036 -0.119921 0.978033 0.989666 0.400928 0.582738 0.731893 -0.321764 0.327945 -0.377177 0.002588 -0.651028 0.410590 0.837640 0.908920 0.869549 -0.907243 -0.933543 0.238808 0.343992 0.985303 0.241960 -0.789456 0.622032 0.936535 0.884988 0.702860 0.977053 -0.443464 0.095082 0.909719 0.605572 0.975161 0.887752 0.595238 0.376089 0.470491 0.327131 -0.945675 -0.201564 0.949954 0.056914 0.147408 0.360544 -0.105447 0.056328 0.230093 -0.012690 0.122785 -0.531098 -0.668697 0.108088 0.710862 -0.458154 -0.269880 0.647397 -0.573165 -0.567020 0.624450 -0.016629 0.528062 0.534169 -0.411057 0.503224 0.421922 -0.815819 -0.120687 -0.107587 0.511312 -0.066362 0.690849 0.461266 0.990552 -0.161743 -0.178190 -0.114895 0.894585 -0.948097 0.872415 0.017371 -0.479195 -0.796282 -0.874541 -0.768333 -0.254436 -0.144421 0.879064 0.172399 0.288559 0.503514 -0.844230 -0.183379 0.037683 -0.255287 -0.680155 -0.540395 -0.071106 0.199158 0.352018 -0.559794 -0.867204 0.042867 0.901472 -0.876652 0.881124 -0.276719 0.008453 0.775710 -0.224816 -0.119132 -0.206920 0.295989 0.084586 -0.081461 0.527655 0.830150 0.774118 0.406719 0.002549 0.062677 -0.089767 0.158319 0.879299 0.947917 0.903032 -0.800856 -0.592478 -0.168074 0.398301 0.759540 0.272132 0.531097 -0.197592 0.173604 0.654445 -0.316468 0.896885 -0.337103 -0.540759 -0.327931 0.543765 0.252322 0.968058 -0.371649 -0.829139 0.495713 -0.541499 0.944979 -0.097567 0.461049 0.007656 0.812666 -0.380632 -0.113045 0.760582 -0.477600 0.086099 -0.831895 0.354325 -0.515600 0.927645 -0.373543 -0.984503 -0.269947 0.800061 0.669942 0.413584 0.696946 -0.667160 0.872826 -0.630985 0.876605 0.125147 -0.662927 -0.495044 0.296008 0.832787 -0.036543 0.240987 -0.264781 -0.575494 -0.751357 -0.452115 0.043874 0.135598 -0.691533 0.566274 -0.778303 -0.523428 -0.079401 -0.293903 -0.595783 0.547057 -0.278405 0.134270 0.347118 -0.608463 -0.452146 0.044064 -0.275623 -0.579320 0.413079 -0.399018 0.545827 0.750152 0.105938 -0.158165 0.582939 -0.930606 -0.917178 -0.681842 -0.506099 -0.668535 -0.133957 0.537775 0.467063 0.174511 0.104049 0.688760 0.651083 -0.975352 -0.605142 -0.944700 0.571705 0.116453 0.189570 -0.081177 0.507989 0.737424 0.962886 -0.767634 -0.841897 0.375966 -0.166652 0.703930 0.126118 0.939285 -0.454235 -0.290943 -0.991320 -0.371413 0.027216 -0.497420 -0.039948 0.893259 -0.959645 -0.572885 0.067770 0.144404 -0.884124 -0.281147 0.169052 -0.489266 -0.225847 -0.259243 0.627186 0.963723 0.659580 0.135175 0.701147 0.622466 0.367541 0.859250 -0.001568 -0.799111 0.563180 -0.875450 -0.859826 -0.891055 -0.166393 -0.851146 -0.262468 0.860823 -0.348566 0.697584 0.754082 -0.308211 -0.875301 -0.178148 0.836193 -0.759425 0.540704 0.005245 -0.248691 -0.685143 0.746002 -0.621505 -0.721420 0.405582 0.513670 0.979727 0.028048 -0.118788 0.838977 -0.973521 0.082101 0.402157 -0.848971 0.222275 0.511102 -0.015364 0.371129 -0.751366 -0.154541 -0.977437 0.946218 -0.400459 -0.285648 -0.929083 0.421392 -0.449456 -0.688507 -0.037903 0.555789 0.062801 0.276954 0.301791 0.441296 0.555534 -0.292627 -0.045034 0.535260 0.735420 0.836178 0.374237 0.761900 -0.081721 -0.223606 0.912929 -0.859446 -0.712505 -0.102435 0.511683 -0.463871 0.743024 0.534246 -0.517653 -0.657435 -0.751402 -0.446735 0.763958 -0.200858 -0.135243 -0.273946 -0.645069 0.927558 -0.996992 0.656722 0.368854 0.558542 -0.635905 -0.676179 0.093802 -0.900485 -0.840001 -0.531961 0.861415 0.078278 0.244433 0.774344 0.218832 0.531928 -0.328091 -0.269484 -0.931942 -0.585066 -0.735238 -0.449595 -0.242501 -0.486641 0.103670 -0.478544 0.312501 0.968427 0.247511 0.667432 0.895985 0.250519 0.324155 0.264840 -0.190940 0.688249 0.588661 0.902863 0.787764 0.748660 -0.629098 0.649179 -0.173062 0.615334 0.423523 -0.954230 0.147263 -0.904568 -0.223714 0.215320 -0.489634 0.041048 0.765725 0.267865 0.554407 -0.130605 0.789322 -0.133092 -0.162178 0.036832 -0.465659 -0.266193 -0.712649 0.858495 0.998647 0.096411 0.546745 0.587307 -0.000726 0.334509 0.335967 0.370176 -0.016312 -0.837095 -0.014490 -0.592788 -0.791325 -0.867227 -0.497356 -0.015039 0.348093 0.013010 -0.973991 0.113818 -0.719124 0.580416 0.983213 -0.929803 -0.552676 -0.178965 0.107029 -0.018335 0.554842 0.394380 -0.159840 0.553489 -0.509209 -0.613095 0.140796 0.490065 0.721414 -0.523237 -0.139759 -0.294897 -0.360332 0.845751 0.112314 -0.151657 0.978523 0.614958 0.833304 0.326616 -0.372032 0.859313 -0.559565 -0.091156 0.439729 -0.576352 -0.020959 0.887053 0.244683 -0.913929 -0.131282 -0.200475 0.480451 0.708878 -0.646986 0.971242 -0.904217 0.493811 0.461307 0.817197 0.970574 -0.678452 -0.477700 -0.389758 -0.832702 0.634614 0.458586 -0.854178 0.249572 0.291890 0.472438 0.877541 0.151203 0.912873 -0.213615 -0.409068 -0.663480 0.765426 -0.522016 0.581203 0.851496 0.346702 -0.619271 0.331947 0.055580 -0.266257 0.303189 0.151362 -0.772447 -0.235504 -0.031441 -0.801872 0.086044 0.490859 -0.191630 0.253342 0.125473 -0.733044 0.399164 -0.624955 0.558846 -0.128398 -0.747414 -0.289951 -0.215525 0.038970 0.300980 0.120995 -0.195604 0.778965 -0.297802 -0.344108 0.125666 0.082927 0.987839 -0.818754 0.816670 0.291028 0.332608 -0.955777 -0.944476 -0.698832 -0.757649 0.141568 0.792027 0.050721 -0.605090 -0.082500 0.317677 0.794074 0.292545 -0.123477 -0.334324 0.545130 0.586571 0.450150 -0.415900 -0.112448 -0.428855 0.388496 -0.333484 0.273344 -0.955612 0.792183 -0.643729 -0.967773 0.973428 -0.827059 0.323255 0.306037 -0.782836 0.378780 0.607204 -0.540485 -0.479653 0.399231 0.510236 -0.084743 -0.683269 -0.172087 -0.290669 0.609276 0.704435 0.375007 0.154406 0.291007 -0.174843 0.738507 -0.821442 0.396303 0.127003 -0.154925 -0.330353 0.171391 -0.362742 0.025918 0.203619 -0.389314 0.198858 -0.473126 0.916723 0.416022 0.905654 0.523927 0.875537 -0.573999 -0.076842 0.385773 0.341258 0.239889 -0.786314 -0.949411 -0.150835 0.918121 0.425596 -0.996429 0.209128 -0.749246 0.742078 0.387686 0.647056 -0.130919 -0.767239 -0.683297 -0.959528 -0.129981 0.342620 0.244091 0.480705 -0.458521 0.770965 0.397427 0.957501 0.676618 -0.078646 0.833038 -0.897381 0.844513 0.218811 0.443877 0.084402 0.432497 0.494467 0.933567 0.350618 -0.079937 0.937138 -0.440255 0.170816 0.679217 0.947432 -0.182127 -0.451703 -0.819807 0.134575 -0.411230 0.050211 -0.522804 0.832860 -0.469084 0.018674 0.603825 0.928343 -0.023825 0.280443 -0.150302 -0.190787 0.383063 -0.305790 -0.971976 -0.173060 0.778612 0.460521 -0.678593 0.712180 -0.188861 0.241470 0.649318 0.370884 -0.587714 0.328535 0.318316 0.230159 0.876832 0.498509 -0.635266 -0.534398 -0.451280 -0.158070 -0.701538 0.079636 0.860604 0.902287 0.007979 -0.163221 0.182731 0.857676 0.645992 -0.434207 -0.448113 0.674016 0.392733 -0.669501 0.134537 0.714140 -0.957321 0.945676 -0.044390 0.691997 0.316560 0.367896 0.020532 -0.365124 -0.401946 -0.102636 -0.866616 -0.037212 0.362966 -0.317896 0.804718 0.661428 0.761740 0.665322 0.563715 -0.230282 -0.497899 -0.253555 -0.372605 -0.851906 0.312239 0.179281 0.822110 -0.295028 0.509781 -0.043353 -0.580888 0.552460 -0.097677 0.374721 0.244457 -0.781117 -0.257383 -0.735011 -0.146241 0.340671 0.162353 -0.012857 -0.696541 -0.474682 0.669248 -0.891823 -0.813254 0.430987 0.773500 0.750461 -0.799294 -0.724399 -0.503094 -0.171900 -0.576305 0.809145 -0.992619 -0.754195 -0.485883 0.517162 0.202452 -0.066771 0.069622 -0.895225 -0.692050 -0.685922 -0.676342 0.050567 -0.420933 0.177417 -0.608761 0.741419 -0.835440 -0.305302 -0.733262 0.833808 -0.197125 -0.546517 0.264795 -0.423625 -0.796056 0.465500 -0.148024 -0.299150 -0.706399 0.275671 -0.490005 -0.699018 0.521475 0.024112 0.818144 -0.276073 0.957341 -0.112234 -0.171298 -0.734709 0.201844 0.152360 0.315858 0.780911 -0.670224 0.707097 0.522331 -0.505664 -0.598205 0.789068 -0.671856 0.204670 -0.757448 0.592939 0.781045 -0.553504 0.058440 -0.366979 0.147346 0.352040 0.908692 0.657341 0.653022 0.430168 -0.318548 0.471167 -0.845905 -0.361207 -0.641068 -0.017204 -0.095916 0.560777 -0.864844 -0.780057 0.341688 -0.535068 0.927040 -0.135982 -0.040731 -0.671165 -0.346914 0.287413 0.533505 -0.104362 -0.119648 0.314550 0.342134 0.938792 0.947572 -0.510521 0.290832 0.856264 -0.853180 -0.056146 0.286432 -0.171728 -0.584979 0.440526 0.467065 -0.226047 -0.576677 -0.628850 -0.665271 -0.441521 -0.408908 0.676417 0.023411 -0.481868 -0.459565 0.982679 -0.153033 0.193522 0.270092 -0.619528 -0.910840 -0.849556 0.695022 0.431293 -0.910764 0.642594 0.920772 0.380067 0.498857 -0.932408 -0.676079 -0.214711 -0.104136 -0.261058 -0.774185 -0.637070 0.512895 -0.350862 -0.265921 0.847624 0.207616 0.325172 0.524042 -0.768973 0.843304 -0.935523 -0.786293 -0.309729 0.257999 0.483799 0.070742 0.347159 0.634243 -0.234236 -0.221548 0.723478 -0.591642 -0.300776 0.103546 0.907215 -0.233184 0.427467 -0.307496 0.662681 -0.833591 -0.081680 -0.974389 0.679304 0.567457 -0.240310 0.526928 -0.224926 -0.915138 0.050970 0.006101 0.928166 0.115447 0.219808 -0.381563 -0.626554 -0.296394 0.689179 0.720604 -0.662151 -0.545057 -0.500944 -0.938672 -0.136699 0.198280 0.164874 -0.229483 0.965097 -0.407659 0.463021 0.627778 -0.241250 -0.618659 0.653389 -0.561946 0.948798 -0.586921 0.964982 -0.276128 -0.502059 0.015952 0.729973 -0.573893 -0.868601 -0.050219 0.044544 -0.495155 0.653387 -0.266277 -0.774551 0.991236 0.188666 -0.275494 -0.947436 -0.948032 0.922786 0.217438 -0.177516 0.887883 0.809778 -0.714495 0.515661 -0.431472 -0.333154 0.169049 0.006582 -0.384356 0.582128 -0.028436 0.339516 -0.919931 0.987516 0.069489 -0.493824 -0.881085 -0.980731 0.550719 -0.376240 0.672656 -0.715558 -0.150791 0.663893 0.473109 0.573715 0.716457 0.525076 0.496501 -0.066105 -0.652440 0.384384 -0.256327 -0.366935 -0.099955 0.312201 0.299911 -0.930906 -0.681217 0.915555 0.651222 0.290347 0.255071 0.731291 0.277863 -0.675441 -0.762533 0.396778 -0.656172 0.788187 -0.979462 -0.983515 -0.927371 -0.130252 0.680377 0.545738 -0.556538 0.396834 0.070814 0.939963 -0.669271 0.418374 0.324347 0.074402 -0.948561 -0.775608 -0.613397 0.351351 -0.706514 -0.294614 0.266905 0.944709 0.995733 -0.478024 0.676000 0.273596 -0.153465 0.913468 -0.329626 0.190364 0.701654 -0.309088 0.206848 0.774283 0.560659 -0.112774 0.320021 -0.995878 -0.715940 -0.609166 0.944085 -0.385211 0.809208 0.268432 0.689191 0.860648 0.492825 -0.924206 0.211998 0.786311 -0.218820 -0.521096 0.731020 -0.223087 0.000880 0.407020 -0.949492 0.847415 0.320488 -0.279118 0.037779 0.022142 0.411794 -0.755373 -0.203575 -0.027547 0.131853 -0.883554 -0.023425 0.415913 -0.492719 -0.079340 -0.969298 -0.683511 -0.810908 0.719893 -0.822863 0.681917 0.795687 0.389135 0.468228 -0.423133 0.868038 0.199248 0.353780 -0.131082 -0.393732 0.404288 -0.283667 0.926755 -0.874830 0.754112 -0.051103 0.536963 0.998739 0.745323 -0.490584 0.130591 0.861769 0.485991 -0.453496 -0.630950 -0.593349 -0.422794 -0.314461 -0.404256 
-0.702901 -0.137325 -0.722339 -0.907214 -0.748190 0.745889 -0.330346 -0.880151 -0.054864 -0.976567 -0.011233 0.551404 0.427721 0.705100 0.478159 0.552891 0.459211 -0.572943 0.089854 0.457950 -0.827620 0.599270 -0.411459 -0.965851 0.085261 0.135046 -0.596801 0.491913 0.712252 0.088738 -0.912344 -0.990649 0.951413 -0.634683 -0.897862 -0.796777 -0.888795 -0.228209 -0.676928 0.056342 -0.204775 0.311839 -0.392254 -0.777054 0.016938 -0.914095 0.775836 -0.523850 -0.487038 -0.134310 0.934100 -0.314658 -0.535039 -0.477359 -0.280509 0.550222 0.657686 0.122690 0.042135 0.369938 -0.788573 0.129791 0.379290 -0.837160 0.495108 0.481427 -0.633936 0.606313 -0.746781 -0.310865 -0.337345 0.048443 -0.999026 0.270400 0.271389 0.017912 0.356306 0.047225 0.494062 0.869268 0.912915 0.428162 -0.445390 -0.622124 0.950802 0.274100 0.928098 0.608489 -0.603210 -0.029767 -0.021573 -0.391783 -0.899977 -0.642283 -0.228943 0.595131 0.839144 0.137121 0.201444 -0.907637 0.826257 0.864099 0.140806 0.827231 0.134499 -0.587805 -0.154857 -0.509195 0.459420 -0.660795 -0.639927 0.372335 0.767366 -0.085318 0.750211 0.718168 -0.811217 0.678308 0.326657 -0.414427 -0.351459 -0.694916 0.193790 -0.251435 -0.337199 0.964847 -0.656304 -0.498055 0.101968 0.545140 -0.405693 -0.071775 0.409239 0.735113 -0.244545 -0.456262 -0.852692 0.600598 0.034544 0.606727 0.939803 0.394616 -0.020938 0.707169 -0.690701 -0.270727 0.425337 -0.501919 -0.592419 -0.248005 0.083654 0.056122 0.057079 -0.722556 0.804687 0.719880 -0.757709 -0.851618 -0.778176 0.344259 0.693522 -0.183868 -0.727516 0.102761 -0.448755 0.027940 0.646500 -0.301448 -0.371462 -0.318957 -0.694720 -0.431660 -0.924340 0.284342 -0.724491 -0.615042 -0.986386 0.700847 -0.116960 -0.578805 -0.547158 0.966694 0.477317 0.509920 -0.755863 0.282004 0.229800 -0.513572 0.430387 0.451624 0.830688 0.123909 -0.732244 -0.896828 -0.773329 -0.180999 0.131111 0.873170 0.517553 0.759649 -0.445786 0.822832 -0.672011 -0.370126 0.107174 -0.396501 0.014832 0.120788 -0.695654 0.897872 0.541984 -0.242813 0.864566 0.019301 -0.732892 -0.891297 -0.698695 0.496908 -0.404869 0.731692 -0.051468 -0.574181 -0.144399 0.216288 -0.471009 0.082271 -0.964712 0.660102 -0.044558 0.552841 0.419752 0.509655 0.375674 0.747741 -0.860471 -0.517152 -0.648760 0.154361 0.603636 -0.344415 0.052233 0.145620 0.412773 -0.083201 -0.835079 0.679880 0.025502 -0.533774 0.176788 0.620633 -0.802082 -0.874680 -0.953548 0.053518 0.341607 -0.424557 -0.864210 0.376896 -0.764454 0.091231 -0.070263 0.655297 -0.399113 -0.694589 0.403038 -0.259584 -0.211742 0.754278 0.894777 -0.608106 -0.590136 -0.052990 0.537514 0.822636 0.863809 0.702435 0.502516 -0.110689 -0.831340 -0.320696 -0.490056 -0.633422 -0.195376 -0.443604 0.420096 -0.853769 0.131839 0.555886 0.523127 0.367385 -0.352883 -0.547136 0.022682 0.248004 -0.241725 -0.574280 0.988420 0.546533 -0.820002 0.883197 0.938427 -0.410138 -0.169793 0.475941 -0.587502 -0.305984 0.178376 0.915014 0.583327 0.347036 -0.405682 -0.906730 0.713614 0.398942 -0.350334 0.133710 0.545174 0.781505 -0.310404 0.068301 0.148890 0.336713 0.521165 -0.828428 -0.415283 -0.720561 -0.402708 -0.426863 0.825972 -0.222710 -0.543666 0.764399 0.367151 0.286541 0.240341 0.779649 0.980558 -0.581284 0.694663 0.563884 0.765752 -0.711019 0.657155 0.479366 0.687923 -0.693179 -0.386923 0.233097 -0.911674 0.302673 -0.698602 0.237216 -0.360614 0.822562 0.408787 0.224103 -0.897999 -0.993921 0.797240 0.927974 -0.216631 -0.746426 0.692373 -0.849480 0.540115 -0.067287 0.930169 0.520672 0.351430 0.624832 0.084557 0.117182 0.913813 -0.258289 -0.403452 0.601736 0.048532 0.209625 -0.165167 0.136858 -0.487702 0.136231 -0.625926 0.151683 -0.041207 0.782862 -0.624214 0.060794 0.788940 -0.826975 -0.011232 -0.427691 -0.573401 -0.318859 -0.277171 0.966714 0.613854 -0.347003 0.487386 -0.034717 -0.722171 -0.428057 -0.917535 -0.808358 0.313654 -0.320986 0.793378 -0.637814 0.888639 -0.371789 0.499045 -0.599064 0.764441 0.873119 0.552620 -0.276766 0.655981 0.928405 0.784029 0.444921 -0.898569 -0.227204 -0.982770 -0.471970 0.453937 -0.259941 -0.505256 0.067791 0.393056 0.982130 -0.966926 0.670885 -0.445927 -0.884460 0.862527 0.867727 -0.205446 0.655905 -0.770087 -0.316807 -0.715885 0.728958 0.084129 -0.951443 0.602077 -0.363251 -0.228209 0.258058 -0.434846 -0.444180 -0.297020 -0.333415 0.328616 -0.279790 0.194615 -0.217447 0.460269 0.689359 0.850344 -0.146675 0.671489 0.883419 -0.475790 -0.774439 0.998959 -0.613263 -0.906712 -0.206487 -0.957358 -0.676798 0.476705 -0.673243 -0.947840 -0.439166 -0.624686 0.654237 0.197583 0.147105 -0.087704 0.762737 0.702925 0.615275 -0.570678 0.031541 -0.664515 0.623937 0.814095 0.795754 0.313295 0.664439 -0.350921 -0.015216 0.547858 0.173289 0.210345 0.546817 0.560026 0.303634 -0.659671 0.602668 0.626836 0.817035 0.929425 0.678996 -0.622131 -0.695261 0.333233 0.575452 0.451844 -0.754471 0.338189 0.154769 0.860804 0.767510 -0.813689 -0.803711 0.391447 -0.999594 0.992043 -0.295258 0.664845 -0.358878 0.689526 0.212703 0.814411 -0.100128 -0.240480 0.374437 -0.796495 0.099849 -0.022895 0.830341 -0.083116 -0.093470 0.509337 0.294753 0.211269 -0.157430 -0.129795 -0.336887 0.088099 -0.791606 0.817883 -0.051097 0.975904 -0.995807 0.145192 0.367351 -0.995401 0.137234 -0.927907 0.669444 0.778356 0.761619 -0.117853 0.592767 -0.338509 0.641666 -0.032796 -0.135004 -0.258485 0.944309 -0.304663 0.658399 -0.149160 -0.795326 -0.046848 -0.937891 0.047244 0.823357 -0.274778 -0.864657 -0.968249 -0.456895 0.084245 -0.992345 -0.452702 -0.770563 0.375006 -0.448103 0.366671 0.447100 -0.778659 0.145027 0.208719 0.103488 -0.262206 0.870210 -0.254846 0.704998 -0.264794 0.486669 0.649307 0.430544 0.145068 -0.499853 0.635218 -0.901779 -0.437744 -0.317538 0.921578 0.287479 -0.182195 0.953329 0.830584 0.902050 0.960984 -0.622118 -0.868513 0.335991 -0.070221 0.498158 -0.216910 0.151121 -0.356815 0.991809 -0.745392 0.380978 0.862019 -0.000238 0.085976 -0.402775 -0.513569 -0.264716 -0.972231 0.631499 0.235431 0.662987 0.729720 0.797687 -0.654551 0.651298 0.085165 0.163254 0.604627 -0.084251 0.065304 0.565611 0.293631 0.196791 -0.098398 -0.776589 -0.305052 0.684692 0.374531 0.338133 0.676501 0.629139 -0.280889 0.538520 -0.371099 0.805088 -0.864255 0.115332 -0.459628 -0.836486 -0.253168 0.775802 0.826501 -0.523448 0.573489 -0.828050 -0.872150 -0.341345 0.335204 0.732477 0.574404 -0.599493 0.298088 -0.131965 0.597298 -0.800311 0.091446 -0.707754 0.884381 -0.534023 0.630379 0.560882 -0.904884 -0.650509 0.099401 -0.275982 -0.845422 0.235146 0.839350 -0.305050 0.398660 -0.413818 -0.529248 0.225160 0.062734 -0.955758 0.397110 0.190584 -0.297103 -0.267686 -0.076940 -0.722700 0.132821 -0.778852 0.145335 -0.269881 -0.579163 -0.763219 0.022365 -0.694782 -0.297242 -0.347255 0.866100 -0.202126 0.002235 -0.034499 0.521892 0.156814 -0.799353 0.361242 0.851764 0.599306 0.947424 -0.677484 -0.175533 0.010158 -0.633242 -0.778423 -0.799258 0.069655 -0.046109 0.123802 0.346955 -0.913288 0.344950 -0.507710 -0.183168 0.765787 -0.270928 0.839197 -0.928995 0.431830 -0.508058 0.937105 -0.770296 0.494177 -0.097394 0.751596 -0.349009 0.103253 0.112838 -0.497245 -0.297441 0.060262 -0.174729 0.527026 -0.929580 0.192029 0.748603 -0.728838 -0.738317 -0.297506 0.394964 0.608638 -0.210794 -0.260086 -0.899071 0.606038 -0.494299 -0.170000 0.445235 -0.423293 -0.738170 0.937177 -0.486188 -0.508466 0.431354 0.416418 -0.756870 -0.917655 -0.480329 0.355968 -0.414900 0.222229 -0.583769 0.410371 -0.250745 -0.513349 -0.397600 -0.502142 -0.242187 -0.135917 0.200352 -0.847223 -0.527279 0.989558 -0.107309 -0.426350 0.595596 0.398393 0.403650 0.040831 0.975100 0.665480 -0.021992 -0.511088 -0.842986 -0.590637 0.905330 -0.599856 -0.508292 -0.575000 0.756112 0.076808 0.647230 -0.827657 -0.512821 -0.603515 -0.341006 0.089579 -0.105657 0.416807 0.953662 -0.905305 0.569585 -0.573617 -0.915747 -0.537724 0.000033 0.679849 0.860669 -0.596317 -0.279320 0.835769 -0.930837 0.698688 -0.675319 -0.773823 -0.891949 -0.769989 -0.373679 -0.400241 -0.344989 -0.617566 0.676567 -0.697759 -0.445223 -0.836254 -0.301274 0.213771 0.253325 0.593069 -0.369422 0.206987 0.687763 -0.799837 0.633370 0.772016 -0.337561 -0.366598 0.451864 -0.476892 0.037085 -0.827456 -0.641123 0.106248 0.871233 -0.316443 0.332426 0.979284 -0.086432 0.958747 -0.420956 0.568579 -0.658819 -0.744389 0.870820 -0.104043 -0.580643 -0.430454 -0.890272 0.672683 -0.837385 -0.259694 -0.120331 0.850378 -0.059531 -0.486961 0.622394 0.602908 0.146441 0.074258 -0.873985 -0.816474 0.246802 -0.515108 0.289775 0.118035 0.168449 -0.377800 0.097319 -0.917983 -0.419053 0.676363 0.650597 -0.077872 0.931974 0.521417 0.818085 -0.648669 -0.909037 0.927813 -0.975986 -0.746423 -0.331881 -0.096317 -0.896045 0.608588 0.416722 0.726349 0.211496 -0.436837 -0.199393 0.337511 -0.253311 -0.952591 0.822403 -0.963537 0.165445 -0.009147 -0.341337 -0.737236 0.072870 0.239610 0.939127 -0.276533 -0.838262 0.871101 -0.755116 0.979823 -0.777568 -0.664154 0.907636 -0.753554 -0.410577 -0.424244 0.150129 -0.306621 -0.815656 -0.433150 -0.580273 0.395840 0.130013 0.220334 -0.266649 0.876702 0.267743 -0.444245 0.913165 -0.566812 0.546608 -0.428172 -0.304048 -0.380522 0.811439 -0.364921 0.342945 0.973177 -0.493821 0.587828 0.953000 -0.271389 0.923675 0.860636 -0.024943 -0.486902 -0.563608 -0.874815 0.206476 -0.379264 -0.307964 0.626204 -0.983424 0.822049 -0.153462 -0.250073 0.698750 -0.885719 0.305682 0.611915 -0.452531 -0.147711 -0.816256 0.243421 0.471767 0.995183 0.878500 -0.185288 0.968359 -0.615321 -0.597459 0.921359 0.113290 -0.673785 0.781996 -0.911654 -0.160687 -0.781612 -0.786468 -0.954211 -0.160876 -0.094433 0.671993 -0.144301 -0.272384 -0.481469 0.605626 -0.573634 -0.367188 -0.088692 -0.961719 0.180281 0.763598 -0.777975 -0.576298 0.235365 -0.782792 -0.697798 -0.949923 -0.814433 -0.313119 -0.547382 -0.893073 0.800170 -0.221167 0.888922 0.888516 0.618145 -0.892690 -0.897952 0.663935 -0.053567 0.007615 0.335928 0.802133 0.735231 0.854459 0.407759 -0.838403 -0.512729 -0.680933 -0.800122 0.667552 -0.917335 -0.578097 -0.908745 0.318030 -0.360889 -0.606543 0.368107 -0.175322 0.080337 0.820724 -0.068395 -0.119493 -0.400443 -0.179473 -0.230976 -0.782298 -0.072163 -0.128928 0.881637 0.874270 0.878687 0.217565 0.676403 0.613918 0.072024 0.084162 0.775515 0.559295 0.403229 0.975393 0.226847 0.485894 -0.602703 0.318102 -0.196077 0.036408 0.711559 -0.827970 0.861086 -0.208104 0.992754 -0.207309 0.672404 -0.407689 0.613217 -0.558572 -0.189987 -0.458946 0.312500 -0.308350 -0.584676 0.191187 0.909215 -0.908273 -0.194895 -0.018761 0.175888 -0.419380 -0.459466 -0.420883 -0.443987 0.767381 -0.934989 -0.046690 0.085484 -0.131065 0.989717 -0.202957 0.040965 0.850803 0.588939 0.033719 -0.356506 0.261342 0.626030 -0.743288 0.702770 -0.563957 -0.202234 0.015269 0.127694 0.213090 -0.793544 0.036909 0.304817 0.011561 -0.981852 -0.519295 0.592180 -0.441318 0.059823 -0.851807 -0.673936 0.124834 0.101503 0.411547 0.993768 0.091220 -0.791410 0.034733 -0.057976 0.797529 -0.931548 0.585518 0.058871 0.694482 0.842229 -0.238359 -0.869475 -0.360005 0.776910 0.258219 0.853085 0.983367 -0.704872 0.157902 -0.005073 -0.686724 0.638607 -0.412893 -0.128041 -0.301571 -0.264700 0.198023 0.823263 0.836803 -0.390430 0.817031 -0.071977 -0.181840 -0.148236 0.870047 -0.384311 -0.079784 0.455564 0.674560 -0.385302 0.297794 -0.563799 -0.254777 0.937789 -0.786889 -0.996558 0.790874 -0.803522 -0.701430 -0.051225 0.191405 -0.388153 -0.412618 0.778512 0.483806 0.285812 -0.486188 -0.318172 0.109075 -0.649385 0.291398 -0.073894 0.278639 -0.890442 0.777870 0.148685 -0.274753 -0.301914 -0.395750 -0.600194 0.312784 0.902043 -0.163993 -0.941993 0.839832 0.049118 -0.938551 0.630706 0.245596 -0.639980 -0.420519 -0.563000 -0.028134 0.166864 -0.784488 -0.544328 -0.547325 -0.270675 0.137500 0.561750 0.079940 -0.571101 -0.512144 -0.641421 -0.461543 -0.734274 0.507264 0.263704 -0.036188 -0.888486 0.663510 -0.723404 -0.986443 -0.500483 -0.665397 0.853389 0.548635 -0.603948 0.484094 -0.205769 -0.243929 -0.936425 0.231231 0.727938 0.230439 0.446744 -0.816390 0.683114 -0.823931 0.321110 0.244864 0.256009 0.750009 0.732721 0.614588 -0.711534 0.998447 0.121852 0.552169 -0.037741 0.233365 0.215680 0.238855 0.246922 0.715197 0.573458 0.100311 0.263832 0.969510 -0.415595 -0.941937 -0.274419 -0.352020 0.289294 -0.546481 0.878419 -0.263962 -0.362871 0.561533 -0.087894 0.958239 -0.193602 -0.831885 0.708248 -0.460882 0.782703 0.996714 -0.462434 -0.095445 0.548884 0.499825 -0.862079 -0.235437 -0.261320 0.384843 -0.520240 -0.687862 -0.514846 0.743592 -0.718352 0.069559 0.801655 0.007230 0.717539 0.090949 0.460749 0.595958 0.826987 -0.902122 0.157491 -0.260907 -0.943883 0.963889 -0.092791 0.764366 -0.496992 -0.310088 0.761080 0.040573 0.594467 0.309964 -0.459602 0.732388 -0.925473 0.279079 0.117230 -0.445713 0.591217 0.602384 -0.702121 0.872865 -0.328057 -0.900467 -0.119905 -0.610519 0.190482 -0.659156 0.985440 0.017469 -0.561278 0.142931 0.756562 -0.505161 0.106820 -0.336229 -0.740795 0.609828 0.353683 -0.979715 -0.349599 -0.051850 0.330249 0.190799 -0.319463 0.404776 -0.530122 0.797768 0.959062 -0.938905 0.400152 -0.743059 0.933960 -0.927906 -0.643526 -0.185945 -0.538424 0.546956 0.154899 -0.552985 -0.435574 0.593620 0.589946 -0.679012 -0.911541 -0.303234 -0.015241 -0.652336 -0.693406 -0.661558 -0.632051 -0.043005 0.286592 0.698198 -0.852205 0.967129 0.102974 -0.382327 0.764897 0.062036 -0.321233 0.165049 0.318977 -0.387272 0.237143 0.675451 0.426783 0.698719 0.222407 -0.418319 -0.854266 0.786833 -0.824699 0.735680 -0.892179 -0.736240 -0.567553 0.092580 -0.388575 -0.260959 0.431022 -0.020626 0.696036 -0.282386 -0.322428 0.843831 -0.315257 0.780546 -0.538497 -0.550360 -0.157419 0.140271 0.614689 -0.838442 0.752998 -0.148168 0.837009 0.179781 -0.449450 0.059416 0.761462 -0.303716 -0.153751 0.936763 -0.568035 -0.045930 -0.799476 -0.135589 -0.953350 -0.188052 0.603452 0.477672 0.791322 0.299489 -0.804714 -0.531106 0.143319 -0.119971 -0.750560 0.604823 0.329669 0.092022 -0.254906 -0.055642 0.253580 -0.501908 0.796189 0.090589 0.677873 -0.653261 -0.849995 0.439335 0.043024 -0.003746 0.376098 0.474989 0.950324 0.576622 -0.660600 0.996975 -0.611430 0.942852 0.474647 -0.820108 0.242341 0.669933 -0.351213 -0.614340 -0.450038 -0.101773 0.990483 0.879631 0.990248 -0.264423 -0.176011 0.243828 0.233669 -0.379822 -0.665584 -0.088459 -0.033083 -0.515579 -0.649124 -0.990059 0.480675 0.726974 0.484930 0.431000 0.303595 0.824330 0.427975 0.692165 0.767182 -0.097378 0.872057 0.009523 -0.427445 -0.479156 0.395184 0.122518 0.419071 0.385667 0.002149 0.409319 -0.878756 0.826138 -0.346854 0.354912 -0.553684 -0.012437 -0.733546 0.413234 0.471984 -0.382670 0.423175 -0.047341 -0.655697 -0.091895 -0.616341 0.647899 -0.267565 0.811634 0.340064 -0.500383 -0.285744 0.212121 0.509141 0.286811 0.732965 -0.095675 -0.590671 0.152036 -0.710008 0.411478 -0.438645 -0.588765 0.237616 0.214501 0.766148 0.683932 -0.797936 -0.967399 0.097166 0.674048 -0.350069 -0.479659 -0.373293 -0.005766 0.428446 0.010366 -0.357867 -0.839120 -0.178000 0.982197 -0.339502 0.536256 0.194318 -0.830362 -0.176933 -0.072716 0.073963 0.232396 -0.920680 0.363955 -0.356126 -0.359326 0.775190 0.881491 0.855175 0.541338 0.565423 -0.942761 0.573939 -0.337411 0.731287 -0.776130 0.182930 -0.642006 0.218105 -0.388625 0.368360 0.860238 -0.227744 -0.809640 0.842435 0.432754 0.726616 0.036753 0.602392 -0.450317 0.964037 -0.323645 0.782079 -0.956643 -0.959690 -0.574046 -0.315968 0.815500 -0.692556 -0.460793 0.356838 0.872867 -0.403554 -0.069223 -0.464544 -0.672267 0.154648 0.718386 -0.314274 -0.627248 -0.670239 -0.945914 -0.767010 0.102017 -0.755554 -0.924575 -0.465229 0.971062 0.112178 -0.862837 -0.479255 0.076216 -0.186482 -0.697176 0.119573 -0.146173 -0.271222 0.803604 -0.330673 0.036222 -0.657189 -0.973835 -0.090911 -0.060743 -0.043058 0.444545 0.266990 -0.888410 0.162931 0.952716 -0.515658 0.492693 -0.993198 -0.282668 -0.405290 -0.748751 -0.207243 0.129481 -0.777689 0.904935 0.266644 -0.256944 -0.018849 -0.919838 0.045880 -0.899276 -0.066011 0.774658 0.904328 0.603316 -0.189120 -0.752861 0.629481 0.719969 0.186397 -0.413577 0.164515 -0.546613 -0.301987 -0.672554 -0.593897 0.182355 0.820139 -0.587094 0.899686 -0.585151 -0.335846 -0.307557 0.544331 -0.113535 -0.402621 -0.189026 0.629520 0.578529 -0.108864 -0.324600 0.679253 0.825125 -0.549942 0.583581 0.428441 0.260938 0.830721 0.057922 -0.019092 0.017118 0.644345 -0.854577 0.470504 -0.657642 -0.527131 0.876608 0.524712 -0.706992 -0.710487 0.424399 -0.292142 -0.046333 -0.883158 -0.747812 0.840132 -0.285779 0.063163 0.469652 -0.707250 0.954299 -0.854948 0.972003 0.779424 -0.404889 0.555585 0.207865 0.856049 0.386306 -0.734213 -0.163043 -0.596577 0.910132 -0.017620 0.873928 -0.747510 0.455249 0.750535 0.777203 0.748257 -0.959952 0.201602 -0.543886 -0.006285 0.318444 -0.291698 -0.166153 -0.967336 0.771465 -0.696501 -0.674586 0.725764 -0.551448 -0.702582 0.505188 0.043663 0.853003 -0.286947 -0.100288 0.239308 -0.021160 0.736669 0.642731 -0.111028 -0.280951 0.516659 0.141462 -0.825703 0.267194 -0.081335 0.922554 0.307243 -0.879733 -0.621332 -0.699042 0.438710 0.086970 0.134805 0.471375 -0.141565 0.438305 0.796789 -0.415801 0.886857 -0.905793 -0.910613 -0.069481 0.947210 -0.197560 0.830231 0.186518 0.781280 0.566900 -0.170751 -0.329748 -0.714051 -0.654092 0.811714 -0.539754 0.613103 -0.269620 -0.617201 -0.079654 -0.149354 -0.238533 0.221304 -0.710643 0.848438 -0.643891 0.760731 -0.293127 0.794414 0.557521 0.291073 0.681271 0.651728 0.380460 -0.388210 0.598937 -0.817100 -0.557978 -0.214545 0.964179 -0.991078 0.614704 -0.365569 -0.705129 0.960612 -0.553854 -0.244884 0.573715 0.176525 0.137916 -0.505939 -0.972828 0.899383 0.715365 -0.683471 0.747821 -0.928526 -0.922740 -0.545306 0.865888 0.634781 0.745767 0.547159 0.286508 0.126227 -0.841051 -0.114555 0.309126 -0.399029 0.670900 0.273306 -0.390108 0.285604 0.907737 -0.095237 0.246216 -0.646117 0.659879 -0.180069 0.530408 -0.202205 0.313992 0.557580 -0.302822 0.029357 0.874109 -0.555001 0.100830 0.951369 -0.100307 -0.033282 0.586150 -0.354540 -0.486123 -0.127342 0.771687 -0.327174 0.758103 0.080813 0.273797 0.429003 -0.645881 0.883689 -0.285393 -0.738144 -0.211548 0.960824 -0.384261 -0.551668 -0.219245 -0.853853 0.246127 -0.905253 0.703728 0.943305 0.124104 0.577837 -0.611696 -0.775066 0.529206 0.287997 0.191652 0.115355 0.933457 0.705530 0.988013 0.705144 -0.621644 0.746117 -0.214043 0.652153 0.175120 0.140076 0.535842 0.889727 0.401932 -0.675706 0.850551 -0.982329 -0.227374 -0.368694 -0.836182 -0.981248 -0.273947 0.867545 0.962057 0.850157 0.445382 -0.649639 -0.924909 -0.025413 0.638359 0.266743 -0.910057 0.571816 -0.027727 -0.922044 0.276960 0.350629 0.824073 -0.937083 0.002781 -0.000807 0.202993 -0.461377 -0.111080 -0.395075 -0.137083 -0.260529 -0.377405 0.635543 0.370777 -0.213587 0.654296 -0.903171 -0.346042 0.616353 0.946986 -0.900660 0.966714 -0.977923 0.073928 0.605073 0.288820 0.163870 0.176889 -0.738907 0.241827 -0.546150 0.611722 0.065899 -0.483233 -0.385497 -0.934908 0.719760 0.153126 -0.045988 -0.675315 -0.983957 0.693482 -0.052719 0.651586 0.064259 0.733694 0.305882 0.161088 -0.612347 -0.077765 0.108075 -0.513007 -0.111051 0.130152 0.560921 -0.505977 -0.581028 -0.275209 0.670912 -0.319935 0.966618 -0.875238 -0.708213 0.032517 -0.358471 -0.093710 0.097609 -0.638710 -0.940584 -0.948379 -0.314025 -0.924541 0.745103 0.633256 0.727045 -0.190638 0.366950 0.032928 0.970450 0.754603 0.955163 0.078525 -0.758404 -0.155888 -0.791323 0.802516 0.338135 -0.372352 -0.472692 0.009047 0.307713 -0.506075 0.133809 0.599500 0.526442 0.775338 -0.494210 -0.375949 -0.863373 -0.434795 -0.324328 -0.177398 -0.359336 -0.579225 -0.544142 -0.632290 0.230137 0.822808 0.400637 0.200588 0.577411 0.355800 -0.720887 0.819007 -0.800088 -0.512211 0.621523 0.538047 0.115437 -0.851169 -0.452906 -0.576849 -0.357244 0.680902 -0.977349 -0.830802 0.456240 -0.471559 -0.206750 0.592867 0.093646 0.468922 -0.584530 0.734311 0.889697 -0.128672 -0.897980 0.119834 -0.305864 0.502658 -0.679578 -0.728453 -0.141542 -0.400466 -0.909446 0.058370 0.087323 0.712077 -0.403583 -0.797239 0.860908 0.143510 -0.374088 -0.496336 -0.175587 -0.351437 -0.327137 -0.719347 0.177003 0.466113 0.873520 -0.729350 -0.064966 -0.711010 -0.995040 -0.175269 0.160318 -0.893019 0.944565 0.854454 0.609638 -0.735013 -0.873998 -0.531904 -0.135479 -0.783444 0.526466 0.951845 0.928633 -0.877117 -0.845395 0.789541 0.266393 -0.219483 -0.706794 -0.909194 0.429080 -0.033931 -0.628541 -0.393917 -0.567819 -0.755021 -0.123267 0.367215 -0.466031 -0.118307 -0.808053 0.694287 -0.011326 -0.863488 0.548741 -0.401688 -0.598501 0.674743 0.066408 0.266020 0.891299 -0.407125 0.217865 0.819932 -0.284242 0.372470 0.609474 0.982151 -0.847013 0.902680 -0.927043 0.582067 -0.131252 -0.555584 -0.811849 0.300929 -0.310604 0.064884 -0.331856 0.223365 0.946577 -0.139909 -0.082348 -0.064750 -0.003397 -0.533606 0.533562 0.398102 -0.858863 -0.400029 -0.335878 -0.967564 0.192845 0.881986 0.852368 0.908603 0.254457 0.461842 0.890754 0.407444 0.364521 0.963711 -0.010489 -0.766731 -0.591873 0.177662 0.534199 0.097523 -0.757455 -0.797657 -0.679112 -0.810878 0.062434 0.238540 0.124372 -0.940963 0.704934 -0.342065 0.457138 0.846071 0.257905 -0.878740 0.878506 -0.549249 -0.996753 0.730875 -0.640647 0.257703 0.192716 -0.749893 -0.334853 -0.442762 -0.786182 0.654658 -0.209493 -0.378055 -0.167680 -0.675294 0.719468 0.074866 -0.472951 -0.959644 0.263988 0.589483 0.278897 -0.611640 0.648519 -0.016169 0.046295 0.105658 -0.170099 -0.695799 0.226918 -0.291592 -0.245049 0.230165 -0.560718 0.114304 -0.512132 0.631999 0.364411 0.153015 -0.810763 0.578229 -0.192326 -0.020256 -0.799825 0.639994 0.304450 0.919643 -0.285140 0.831498 0.959999 0.978848 0.420981 0.238896 -0.632792 0.069500 -0.777273 0.413504 -0.824842 0.052628 0.717704 0.402076 0.761036 -0.527345 -0.367759 -0.799682 0.586960 0.120109 0.832317 -0.048629 -0.726876 -0.978446 -0.470400 0.080797 0.001297 -0.270225 -0.279208 -0.694253 -0.350582 0.435652 -0.862755 -0.390583 0.414499 0.558226 0.848313 0.781708 -0.372273 -0.928961 0.195211 -0.197115 0.123667 -0.087084 -0.795039 -0.115297 0.385571 -0.162798 0.085021 -0.027469 0.957310 -0.082662 0.923902 -0.769566 -0.061108 -0.546498 0.311232 0.940189 0.183277 -0.967977 -0.754063 0.832695 0.467675 -0.616818 -0.557888 -0.117826 0.941408 -0.709575 -0.336118 -0.430865 -0.638535 0.859093 0.372020 0.485132 -0.227991 0.576981 -0.630165 -0.842420 -0.585818 0.454857 0.130111 -0.628508 -0.627805 0.054013 -0.398074 0.311087 0.507515 0.913158 0.251277 -0.309207 0.945181 0.497213 -0.476512 0.412856 0.880395 -0.034400 -0.704970 0.821803 0.256025 -0.041088 -0.609062 0.617490 -0.181995 0.762958 0.102623 0.590014 0.339938 0.472458 0.747594 0.754121 -0.072685 -0.122295 -0.874387 0.299510 0.931718 -0.272461 -0.389403 0.439233 -0.359303 0.861873 -0.869974 -0.414122 0.359086 -0.346486 0.998734 0.239481 0.619114 -0.706236 0.061285 -0.124861 0.252676 0.452223 -0.507370 -0.929319 0.215181 0.595252 0.660695 -0.444881 0.067710 0.408290 -0.690760 0.995025 -0.714005 -0.565147 0.294534 -0.782287 0.162392 0.905131 0.656946 0.803089 0.767004 0.786972 -0.611032 0.126090 -0.559515 -0.612298 -0.634428 -0.940401 -0.318534 0.426856 -0.065262 0.934141 -0.120921 0.427368 -0.995178 -0.905740 0.022620 0.665517 -0.350621 -0.909670 0.073807 -0.041382 -0.914646 0.359802 0.393471 0.379889 0.577515 -0.444137 0.285019 0.234461 -0.641048 0.052023 0.021433 -0.252080 -0.821886 0.461918 0.135622 -0.456315 0.521517 0.817088 0.970542 -0.543744 0.751230 -0.150379 0.883623 0.756052 -0.056119 -0.093757 0.421569 0.593259 -0.003427 -0.504624 -0.448122 0.081928 0.855178 0.945349 -0.538184 0.432693 -0.498788 0.746835 -0.332847 -0.139836 -0.201141 0.688586 0.608084 -0.023028 0.150504 -0.256293 0.520658 -0.327978 -0.439205 0.491199 0.128277 -0.687975 
-0.659180 0.011901 -0.931923 0.284701 0.918144 0.489646 -0.122040 -0.085283 0.985022 0.429838 0.996645 0.840200 0.375186 -0.541539 0.272892 0.876398 -0.794704 0.940046 -0.263438 0.004155 0.628632 -0.655353 0.981128 -0.220863 0.088353 0.501785 0.451158 0.649148 -0.007016 -0.420564 0.961173 0.333805 0.591336 -0.970751 -0.381495 0.509480 0.518895 0.496465 -0.575802 0.503917 -0.073697 -0.579158 0.344117 -0.698511 -0.120697 -0.382991 -0.822113 0.084600 -0.442945 -0.085551 -0.911245 -0.814312 0.259096 -0.930118 -0.035176 -0.652551 0.571667 -0.584018 0.996598 -0.435348 -0.004582 0.957770 0.898456 -0.413246 0.987020 -0.483038 -0.903765 0.505915 -0.986573 -0.479568 0.009832 -0.060270 -0.058725 -0.646051 0.241219 0.820578 -0.029041 0.419106 -0.094822 0.528014 -0.666444 -0.006067 0.713701 0.592652 0.063815 -0.321474 0.940101 -0.364517 0.094508 0.936698 0.200134 -0.910074 0.894469 0.098591 -0.323320 0.881488 0.615553 -0.227085 0.387403 0.628979 0.293347 -0.602765 -0.431291 -0.765378 -0.248816 0.809928 -0.944800 0.722143 0.229034 -0.039622 0.250157 0.562589 0.954311 -0.036142 0.155241 0.018126 0.642384 0.095342 0.653609 -0.263108 0.032040 -0.146257 -0.173183 -0.073491 0.952334 0.503498 -0.192003 0.567887 -0.723588 -0.804599 0.196866 0.569759 -0.407364 0.765575 0.804382 0.343820 0.575502 0.859582 0.065963 -0.195464 -0.180040 -0.683880 -0.632874 -0.225729 0.279978 0.522366 0.792398 -0.077638 -0.382292 0.446006 0.659253 0.649748 -0.700251 -0.513929 -0.423743 -0.747916 0.989568 0.384255 0.819970 -0.734019 0.579656 0.016836 0.835740 -0.827708 -0.217589 0.640122 0.516112 -0.642087 0.499704 -0.417925 0.162449 -0.680336 -0.101806 0.529575 0.093935 -0.821828 0.051941 -0.113667 0.100534 0.669650 -0.667661 -0.240213 0.319398 -0.367911 0.245858 0.895656 -0.115828 0.235427 0.279910 -0.295857 0.501407 -0.140434 0.720979 0.337148 0.031857 -0.496611 -0.022731 -0.452031 -0.138697 -0.523027 0.130044 -0.976248 -0.203363 -0.971762 0.553327 0.890572 -0.793589 -0.394731 -0.223095 0.306945 -0.725082 0.109245 -0.933268 0.594316 0.741333 0.312590 0.489972 -0.374494 -0.451983 -0.230118 0.329648 -0.950576 0.629448 0.050627 0.386572 -0.338694 0.554016 -0.636159 0.209275 -0.584681 -0.159186 -0.660681 -0.560929 0.637451 -0.632443 0.992398 0.528024 -0.426032 -0.402333 -0.695071 0.880912 -0.127415 0.414174 0.947644 -0.533098 0.155507 0.260235 0.956874 0.781013 0.808251 -0.273244 0.110661 0.857675 -0.643796 -0.838712 0.244247 0.017510 0.715304 0.608088 -0.773216 -0.869377 -0.551098 -0.433897 -0.430305 -0.913647 -0.066340 -0.437907 0.614377 0.507627 0.159760 0.919306 0.388540 -0.967655 0.333480 0.336184 -0.500753 -0.511013 -0.403581 -0.543879 -0.730000 -0.595330 0.182876 0.380661 -0.737655 0.539081 0.541949 0.506592 -0.443410 0.257253 0.114680 -0.216625 0.387877 0.563582 0.349478 0.957571 0.649935 -0.716862 -0.480336 0.264312 0.790765 0.679424 0.183618 0.179305 0.711770 -0.482902 -0.484511 -0.788983 0.006085 0.111907 -0.332863 0.276084 0.516577 0.850014 -0.343255 0.778922 0.389094 -0.801306 0.285514 0.945684 0.455947 -0.599805 -0.270941 -0.156176 0.963777 -0.921463 -0.198605 0.613712 -0.638326 0.321059 -0.121976 -0.847561 0.000483 -0.938357 0.331744 -0.287747 -0.421259 0.847233 -0.076731 0.584825 -0.040860 0.590406 -0.139090 -0.524283 0.440420 0.517655 -0.745360 -0.170486 0.716349 0.540154 -0.224801 0.172296 0.940349 0.504258 -0.983881 0.904126 0.582795 -0.182486 0.517838 0.944469 -0.861427 -0.604138 -0.903092 0.139056 -0.542495 0.428653 0.851309 0.036245 0.275885 -0.225422 -0.378929 -0.764974 -0.635015 0.481980 -0.289257 0.805405 -0.000365 -0.034617 -0.365081 -0.284017 -0.494463 0.410118 0.888279 -0.554114 -0.085624 0.904398 -0.649989 -0.502829 -0.278087 0.867849 -0.558360 -0.139514 -0.736289 -0.461452 0.999542 -0.278784 0.967201 0.850851 0.757461 0.243086 -0.374571 -0.621468 0.478112 -0.009586 0.860512 -0.811145 -0.204181 -0.139854 0.154238 0.430738 0.576130 0.659775 -0.159144 0.464409 -0.894339 0.755232 0.368807 -0.544327 -0.747598 -0.909280 -0.676478 -0.305958 -0.048795 -0.412767 0.232590 -0.049253 0.308449 0.199791 -0.198402 0.065910 -0.557123 0.427027 0.444441 0.920989 -0.582559 0.304953 -0.890156 0.213260 -0.834900 0.264082 -0.356002 0.741229 -0.076143 0.484854 0.205638 0.029518 0.240085 -0.425555 0.485190 0.492488 -0.334835 0.808712 -0.813470 0.616370 -0.604055 0.419120 -0.432883 0.704393 -0.381089 0.368715 -0.229697 0.061789 -0.204257 -0.785255 -0.017222 0.213184 0.519698 0.092621 -0.573556 0.684798 -0.643297 0.070442 0.426027 0.280560 -0.444705 -0.368335 -0.689922 0.795381 0.206110 0.795268 0.287868 0.871275 0.603980 0.474398 0.487645 0.999925 -0.106481 -0.945238 0.704319 0.512430 0.423477 -0.525378 -0.425781 -0.780780 -0.310633 0.556996 0.432403 -0.790936 -0.350382 0.858847 0.893862 0.006321 -0.070711 0.319889 -0.713119 0.484584 0.951554 -0.403041 0.279964 0.157663 -0.607772 -0.432167 0.028938 0.996208 -0.957769 -0.483417 0.996133 -0.064250 -0.428656 0.700452 -0.551819 0.994821 -0.824926 0.022400 -0.785959 -0.135560 -0.420604 0.646444 0.073505 0.229014 0.505292 -0.032633 -0.764665 -0.565420 -0.712745 -0.477784 0.919164 -0.761191 0.119175 0.199129 0.396472 0.511403 0.766961 -0.574589 0.507611 0.809193 -0.058007 0.503744 -0.255057 0.513338 0.204196 0.193124 0.508159 0.379270 -0.784477 0.722200 -0.756289 -0.205081 0.368644 0.317215 -0.976067 -0.126064 -0.715418 -0.740732 0.308516 -0.428163 -0.218516 0.227681 -0.189354 0.900660 -0.573191 -0.792881 0.412063 -0.806229 -0.367471 -0.080326 -0.997037 0.574522 -0.576582 -0.252094 0.087860 0.627615 0.941030 -0.403981 0.006885 -0.843447 -0.681781 0.250596 -0.048528 0.686863 -0.432189 -0.024595 -0.439201 -0.147607 0.234673 0.869316 0.424230 -0.983843 0.096996 -0.765123 0.916817 0.523805 -0.558005 0.328879 0.717576 0.074525 -0.751447 0.720539 -0.350953 -0.328029 -0.531555 0.736907 -0.700414 -0.590525 -0.667074 0.306471 -0.433972 -0.348855 -0.442933 0.517500 -0.661991 0.124878 -0.507095 -0.101192 0.977271 0.727578 -0.231877 0.401501 0.743735 0.865120 0.636377 0.660552 0.388925 -0.921627 -0.010569 0.106501 0.152898 0.237984 -0.172960 0.801945 0.909956 0.295485 0.538852 -0.790458 0.704960 0.871778 0.516013 -0.729012 -0.477077 -0.926920 0.788488 -0.139068 0.197958 -0.718607 0.759740 0.175228 -0.991029 -0.472137 -0.423271 0.752706 -0.607017 -0.786894 0.413257 0.781908 -0.708521 -0.597312 -0.111592 0.444377 0.640673 0.715448 0.246322 0.550628 0.010933 -0.214826 0.760170 -0.284107 -0.343048 0.276183 -0.013119 0.179875 0.349263 -0.224631 -0.959193 -0.452780 0.056761 0.800547 0.722449 0.065732 -0.671590 -0.700822 -0.181562 -0.278607 -0.487716 -0.768305 -0.496699 -0.196237 -0.365616 0.391709 -0.751860 -0.724944 0.107157 0.494462 0.825684 -0.881910 -0.720365 0.585854 -0.166017 -0.063413 -0.137962 0.820863 -0.883537 -0.788700 -0.403768 -0.842730 -0.241479 0.652993 0.957817 -0.519031 -0.281274 -0.713772 -0.219853 0.537163 0.007621 0.292431 0.768859 0.510922 -0.903806 -0.596758 -0.097369 -0.655665 -0.321701 -0.990212 0.838796 -0.496017 -0.872122 -0.881568 -0.910163 -0.038140 0.055019 -0.048125 -0.217277 0.171482 0.163175 0.378955 0.328752 0.921696 0.031949 0.286569 -0.597334 0.750674 0.572797 0.182813 0.287838 -0.419582 -0.524756 0.056697 -0.908661 -0.428562 0.459939 -0.006030 -0.084227 -0.861762 0.003758 -0.245431 -0.357779 0.131636 -0.126999 -0.267942 -0.906504 0.928020 0.683933 -0.123781 0.099502 -0.152892 -0.744825 -0.571746 -0.231196 0.287123 0.714823 0.171470 0.037798 0.287620 -0.645717 -0.674364 0.868037 -0.170474 0.382333 0.959377 0.400964 -0.157728 -0.046653 -0.683263 -0.019491 0.957105 0.071307 0.622730 0.088740 0.944308 -0.645212 0.182236 0.872328 -0.961279 -0.941545 -0.028170 -0.114171 -0.686370 0.400084 0.654634 0.600754 0.114907 -0.173896 -0.361449 -0.597473 0.180387 -0.035813 -0.729436 -0.990087 -0.653480 -0.770059 0.410877 0.188792 0.183288 0.727615 -0.830699 0.140393 -0.201079 0.792031 -0.770867 -0.256771 -0.853181 0.411369 -0.384443 -0.814460 0.469825 0.587387 0.071370 0.783455 -0.012529 -0.273996 0.384208 -0.897622 0.552108 -0.977240 -0.495095 -0.267506 -0.013053 -0.224531 -0.257593 0.333467 0.005410 -0.846716 -0.477741 -0.811302 0.880899 -0.308440 0.329090 -0.320180 -0.516409 0.558223 0.423049 -0.369589 -0.030408 -0.961394 -0.184049 -0.560583 0.625992 0.887321 -0.777128 -0.386537 -0.386675 0.607080 -0.284159 -0.834567 0.629840 0.220746 -0.102073 -0.383213 0.996215 0.640334 0.950254 0.001625 0.793618 -0.527487 0.190322 0.674517 0.164073 -0.480588 -0.645662 0.647664 -0.922365 0.777387 -0.721925 0.047228 0.815992 0.094026 0.486645 0.441985 -0.018652 0.709517 -0.944552 0.594672 0.316597 -0.228711 0.760105 -0.053563 0.992035 -0.341968 0.563224 0.988250 -0.701634 0.513479 -0.010126 -0.908016 0.985992 -0.819804 0.766501 0.150065 -0.300391 -0.879161 -0.202271 -0.222756 0.898225 0.075804 0.824472 0.714218 -0.830169 0.311117 0.156202 0.151178 0.020634 0.211650 -0.254149 -0.662769 0.982939 -0.494044 0.283668 0.974974 0.163987 -0.153107 0.963224 0.462353 -0.639629 -0.046902 0.554337 -0.653637 0.133294 0.320838 0.496428 0.832903 0.441677 -0.705843 -0.389853 0.339902 0.369961 -0.565381 0.054120 0.539792 0.745737 -0.789678 -0.309029 -0.233630 0.421973 0.436821 0.103602 0.404912 0.942777 -0.612730 0.379886 0.106765 0.234163 0.343110 -0.430883 0.594534 -0.703793 -0.876546 0.940896 0.429502 0.444292 0.437324 0.262405 -0.114031 0.731481 0.872552 -0.774128 0.101442 -0.692828 0.279992 -0.358766 -0.947092 0.490314 0.332205 -0.180721 -0.087713 -0.230974 0.922880 -0.682801 -0.288196 -0.689850 0.697085 0.818568 0.544313 0.040194 -0.612314 0.138846 0.336402 -0.488860 0.079743 -0.234096 0.955432 -0.482933 -0.971691 -0.158599 -0.751452 0.900861 0.067273 0.349990 -0.791968 -0.652735 0.991224 -0.739060 0.837579 0.323429 0.080219 -0.250134 -0.907544 0.003099 0.067064 -0.195741 0.313249 -0.235851 -0.377173 -0.142438 0.804344 0.010513 0.996408 0.140746 0.521653 0.076151 0.906649 0.477085 0.593217 0.934958 -0.681514 0.841765 0.835818 0.385759 0.191755 -0.956149 0.733024 0.182979 -0.695209 0.570603 -0.493591 0.385010 -0.679532 -0.401136 -0.611891 0.387533 0.403124 0.701358 -0.848318 -0.974049 -0.441080 0.956026 0.036464 -0.444672 0.096771 -0.441883 0.631479 0.003421 -0.964798 0.224696 -0.061622 -0.646312 0.066461 -0.225803 0.739448 -0.741784 -0.181952 0.472472 0.441195 0.122839 0.043075 0.947604 -0.492151 0.363543 -0.453532 -0.104042 -0.248924 0.949592 -0.402684 -0.097242 0.975543 0.156236 -0.141217 0.012007 0.711565 0.955554 0.570124 0.343044 -0.041025 0.605326 -0.432260 0.897354 0.959015 0.634201 -0.328449 0.698463 0.892418 0.489598 0.170935 0.333613 -0.387563 -0.785991 0.281217 0.120286 0.577552 0.827685 -0.983756 -0.671372 0.777277 -0.386440 0.231386 0.752821 0.769796 -0.909831 -0.235172 0.481361 -0.954277 -0.665047 -0.175595 0.004698 0.940279 0.392145 -0.097948 0.899294 0.026346 0.573603 0.597757 -0.081236 0.063201 -0.231309 -0.747623 0.675638 -0.017299 0.533594 -0.204076 -0.439747 0.361279 -0.187833 -0.111119 0.138556 0.425727 -0.879733 -0.108623 0.195524 -0.789565 0.656205 -0.323115 -0.743841 0.991158 0.501289 0.260857 0.931437 -0.106566 -0.837091 0.830730 0.919780 0.736512 0.428487 -0.161457 -0.200287 -0.802822 0.090920 -0.524650 0.179879 -0.375486 0.271274 0.740132 0.985793 -0.916559 -0.370987 0.124349 0.509168 -0.250720 -0.984274 -0.295308 -0.040285 0.671931 0.381577 0.215874 0.663088 -0.117134 -0.523269 0.594525 0.776300 -0.360360 0.425255 0.696080 -0.623848 -0.146258 -0.465377 0.175864 0.050921 0.625543 0.651214 -0.769200 -0.749943 -0.077512 0.970932 -0.764150 0.005930 -0.400055 0.360199 -0.484902 0.349225 0.375924 0.219790 -0.691060 0.047855 -0.398633 0.524814 -0.289057 0.484233 -0.998455 -0.694532 0.260533 -0.358815 0.730724 -0.043387 0.017336 -0.415534 0.491236 -0.806800 0.635387 0.116779 0.844415 0.866187 0.366836 -0.233097 0.837119 0.602686 0.772832 -0.562936 -0.037115 -0.712070 0.786290 -0.661191 0.507720 -0.904770 0.386664 -0.890913 0.620044 -0.902392 0.593320 0.621589 -0.596924 -0.146148 -0.737227 -0.866200 0.810465 0.280109 -0.281734 0.301701 0.473310 -0.646347 -0.581520 0.317724 -0.780161 0.785317 -0.915373 -0.943042 0.388003 0.857459 -0.505977 -0.649113 -0.854610 -0.719687 -0.310304 0.653110 -0.624457 -0.923639 0.762197 0.995587 -0.826032 0.355517 0.617175 -0.422956 -0.790630 0.879949 -0.289156 -0.980165 0.160058 0.429110 0.321535 -0.366632 0.782762 0.740016 0.951092 -0.997398 0.525332 -0.964281 -0.940440 -0.086665 0.893178 -0.446417 0.264222 -0.961432 -0.166104 0.953919 0.691678 0.209438 -0.969721 0.453876 0.205025 -0.795752 -0.190607 -0.177800 -0.218708 0.018763 -0.297851 0.492136 0.038597 0.862207 -0.078754 -0.639867 -0.504426 -0.295992 -0.899852 -0.553334 -0.293390 0.625481 -0.517616 -0.233830 -0.461185 -0.624437 0.319753 0.803038 -0.585869 -0.846351 0.756957 -0.894191 0.363087 0.787236 0.559685 -0.431888 0.991484 -0.630922 0.390312 -0.227224 0.387841 -0.907539 -0.735088 -0.573562 0.954667 0.186158 -0.213429 -0.549759 0.890166 -0.113280 -0.103093 -0.403224 -0.487800 0.379292 0.362946 0.051016 0.754854 -0.317301 -0.145946 -0.831015 -0.163652 -0.388990 -0.725206 -0.800564 -0.601754 0.834479 -0.232452 -0.610270 -0.796444 -0.842140 0.162506 0.591397 -0.749680 0.427418 -0.982165 -0.795013 -0.386424 -0.195593 -0.344771 -0.496257 0.691126 0.552136 0.100519 -0.796673 -0.068572 -0.536535 0.254342 -0.313718 0.146164 -0.891604 -0.144733 0.982513 -0.280594 0.130061 -0.818052 0.117652 -0.035461 -0.050504 0.507382 0.168096 0.107355 -0.330112 -0.240507 0.357675 -0.902694 -0.222671 0.562663 -0.289117 0.581735 -0.782108 0.214625 0.272862 0.770028 -0.684856 0.476188 -0.298544 -0.221391 -0.269469 0.387738 0.924774 -0.161073 -0.756995 0.907286 0.558333 0.373066 -0.910766 -0.324015 -0.662395 0.038730 -0.816633 0.505701 -0.853914 -0.146744 -0.734806 0.503761 -0.049438 0.042523 0.066424 0.661445 -0.375742 0.284316 -0.123929 0.897120 0.054344 0.191215 0.373308 0.755800 0.969824 -0.896162 0.143538 0.894598 -0.057235 0.386543 0.801884 -0.498902 -0.240391 0.891118 0.177083 0.097214 -0.070152 0.360451 -0.397084 0.075934 -0.786294 -0.131890 -0.420305 0.164269 0.910632 0.646119 -0.174286 -0.465110 -0.069565 0.701784 -0.567990 0.984779 -0.107001 0.805318 0.740579 -0.137177 0.909156 -0.115883 -0.242579 -0.148079 -0.729340 -0.440696 0.353019 0.030269 -0.549577 -0.469898 -0.872517 0.380271 0.890553 -0.269601 -0.543795 -0.895741 0.598509 0.035900 0.268528 0.509141 -0.317981 -0.905758 -0.955968 0.612454 0.796026 -0.523958 0.597233 -0.310975 -0.718641 0.337811 0.551848 -0.809484 -0.778072 -0.690731 0.042437 -0.507413 -0.131427 -0.604544 0.522856 0.318996 -0.074442 0.650340 -0.300733 -0.183889 -0.619261 0.155472 -0.079629 0.979247 -0.808628 -0.811101 0.488389 -0.126609 -0.716859 0.532420 -0.514155 -0.920833 -0.991538 -0.916922 -0.231808 -0.710179 0.420889 -0.679959 -0.519663 0.642817 -0.370690 0.522774 -0.864596 0.497883 0.918229 0.658260 -0.183121 -0.156212 0.308600 0.516146 0.659899 0.689339 -0.328382 -0.419731 0.668586 -0.137010 -0.230832 0.156975 0.736381 0.052309 -0.310605 -0.777773 0.131476 -0.302143 -0.694696 0.899669 -0.012321 0.726193 -0.780291 0.468015 0.369010 -0.150981 -0.009211 0.504414 -0.653098 -0.090982 0.162674 0.163781 0.752806 -0.528725 -0.320073 0.412705 -0.839386 0.351545 0.992974 0.829200 -0.785465 -0.237858 -0.013825 0.950916 0.814452 0.675570 -0.826857 -0.054072 -0.626572 -0.521553 -0.154404 0.361106 -0.795359 0.065305 -0.170878 0.573651 0.914324 0.819911 0.078065 -0.738774 -0.271071 -0.759261 0.425007 -0.518265 -0.287986 -0.895066 0.894440 -0.127372 0.456479 0.887414 -0.298173 0.671014 -0.350444 0.688003 0.621931 -0.535992 0.363573 0.795074 0.409935 0.737001 -0.726479 -0.744468 0.098107 -0.521838 0.320837 0.927229 -0.948187 0.235161 0.747140 0.129878 0.496388 -0.523931 0.370617 -0.078605 -0.042196 -0.917369 0.026329 -0.147756 -0.044742 -0.517192 -0.260343 0.657086 -0.846178 0.389214 0.345089 0.775753 0.853221 -0.291338 0.570827 0.263157 -0.554338 0.844348 0.518688 0.543770 -0.677490 -0.160475 0.470999 -0.625678 -0.925313 0.218138 0.504200 0.571075 0.694207 -0.125183 -0.507530 -0.347989 -0.042552 0.518799 0.504255 0.912706 -0.998392 -0.756087 0.569792 -0.844570 0.633126 -0.085119 0.931183 0.486347 0.623542 0.502009 -0.250496 -0.930795 0.346357 -0.731807 0.612974 0.668867 0.107718 0.083973 -0.956811 0.182405 -0.697889 0.547389 -0.246520 0.996319 -0.577794 0.245949 -0.351670 0.379654 -0.235251 -0.847415 0.292360 -0.233644 -0.603502 -0.137848 -0.078214 -0.970376 0.777033 -0.147031 0.515971 0.400576 -0.645021 -0.734524 0.469780 0.701336 -0.466332 0.082755 0.370202 0.641386 -0.833273 0.413391 -0.176209 -0.531161 -0.039220 0.577270 -0.534843 0.382986 -0.176780 0.113488 -0.237361 0.587968 0.266073 -0.945001 -0.645676 0.662571 -0.082848 0.276111 0.692195 -0.305815 -0.870920 0.208166 -0.905239 -0.515942 0.473642 0.564541 -0.814606 -0.992690 -0.352705 0.555596 0.648696 -0.185977 -0.031013 -0.527514 0.282861 0.929767 -0.950243 0.748019 0.312753 -0.127024 -0.138493 -0.924608 -0.539055 -0.872420 -0.869608 -0.184731 0.790150 0.047544 -0.908620 0.482345 0.741729 -0.779541 -0.309489 0.836489 -0.295483 -0.835847 0.401030 -0.110089 -0.828537 -0.951675 -0.554493 0.820158 -0.137652 0.414494 -0.707356 -0.854790 0.344261 -0.657599 0.893229 -0.342986 0.215377 -0.245265 -0.267593 0.676322 -0.117685 -0.137201 -0.508409 -0.327535 0.910342 -0.417030 -0.845189 0.652071 -0.196570 -0.154678 0.488560 0.507947 0.009475 -0.110410 -0.602142 0.180938 -0.062084 -0.156635 0.001096 0.800264 -0.742140 0.293740 0.945474 0.602121 0.636141 0.838703 -0.740865 -0.148482 -0.406562 -0.008458 -0.472160 0.475753 0.854341 0.019431 -0.851782 0.764683 0.602402 -0.696971 0.416754 -0.594169 0.148351 -0.094686 0.913778 -0.842174 0.794905 -0.688364 0.338764 -0.267180 0.155001 -0.660141 -0.466916 0.412861 0.633599 -0.521442 0.014982 0.269741 -0.682739 0.274117 -0.878741 -0.089301 -0.734341 -0.350901 -0.613548 -0.880000 0.668530 -0.465330 0.884683 0.270932 -0.162301 0.301437 0.676763 0.986051 -0.793248 0.590541 -0.856123 -0.998344 0.902177 0.482640 -0.265523 0.057178 0.822500 0.267561 -0.529961 0.456099 0.746119 0.485021 -0.274160 -0.936620 -0.240862 -0.152901 -0.025921 0.024797 0.496198 0.360531 0.144797 0.164728 0.895201 0.029481 -0.564340 -0.267099 -0.669082 -0.887577 -0.281049 -0.462331 0.702964 -0.137172 -0.460674 0.605141 -0.654532 0.273802 -0.337680 -0.832032 -0.458637 0.132358 0.624067 -0.712517 -0.382621 -0.650093 -0.649137 0.376517 0.197006 0.324942 -0.598686 -0.306796 -0.314527 0.546111 0.857932 -0.419326 -0.424408 -0.706408 0.313575 -0.093491 -0.593984 -0.967474 0.444179 -0.891020 -0.104646 0.983505 0.714122 0.240823 0.257307 -0.623559 0.408791 0.798670 0.508799 0.032858 -0.913847 -0.873822 0.382766 -0.562984 0.502695 -0.420229 0.761958 0.904009 0.272975 -0.552569 0.450120 0.130907 0.028105 -0.974288 0.424500 -0.658320 -0.067779 0.830516 -0.625794 -0.623600 0.939496 0.269560 -0.640095 0.653617 -0.489617 0.617212 -0.969942 0.919174 0.415882 0.538858 -0.047968 0.502034 0.665036 -0.665202 0.939050 0.167731 -0.085431 0.701008 0.071740 -0.812456 -0.851561 -0.478140 0.318452 0.176544 -0.452428 -0.257048 0.518224 0.479793 -0.426533 0.892430 0.856193 -0.487037 0.161991 -0.783902 -0.833420 0.672374 0.833309 -0.803362 0.591547 0.249191 0.735496 -0.456420 -0.248775 0.400532 -0.121623 -0.309725 -0.431737 0.792946 -0.608717 0.640003 0.980491 -0.460278 -0.838136 0.298943 0.716265 -0.290565 -0.958106 0.234489 -0.810772 -0.384639 0.126919 -0.954578 0.128324 -0.711090 -0.738481 0.294905 0.961284 -0.905172 0.491543 0.552831 0.344019 0.227039 -0.903589 -0.904756 -0.372429 -0.025212 -0.214480 0.195834 -0.232266 0.176803 -0.164162 -0.251775 0.716524 -0.002299 -0.952832 0.432790 0.707137 -0.910938 -0.332721 0.896365 -0.295576 0.794198 0.941787 0.832748 -0.916891 -0.796694 0.127653 -0.955608 -0.701866 -0.380805 0.597223 0.642154 0.846234 0.693634 0.737398 -0.526195 -0.331578 -0.477082 0.669640 0.436157 0.699721 -0.494523 -0.815618 0.416245 0.503178 -0.768450 -0.150966 0.210315 -0.679388 0.516313 0.106680 0.025036 0.310512 0.048467 -0.142216 0.393620 0.251773 0.985436 0.438013 0.549908 -0.395368 0.035236 0.192061 -0.549134 -0.271130 -0.070541 -0.075329 0.397292 0.452377 -0.405689 -0.166551 0.152098 0.099788 0.017831 -0.431657 -0.397033 0.249380 0.417377 0.813282 0.569992 -0.066310 -0.080038 -0.404972 -0.755798 0.968429 0.452811 0.637823 0.220203 0.438247 0.075835 -0.229890 -0.957121 -0.888929 0.962171 -0.506255 -0.160059 -0.108369 0.418416 -0.762766 -0.655992 -0.987273 0.070683 0.496106 0.112516 -0.911487 -0.935551 0.715483 0.337894 0.481826 0.528764 -0.092114 -0.584484 -0.551273 0.502914 -0.340282 -0.582844 -0.044275 -0.702459 0.637359 -0.606027 0.373376 -0.592531 -0.563148 0.484447 -0.630360 -0.069403 -0.675611 0.261271 -0.650987 -0.438378 0.605279 -0.638259 0.632305 0.101385 0.474256 0.720818 0.165833 0.189739 0.058712 -0.352341 -0.281497 0.966598 0.063175 0.167230 0.469512 0.722893 0.584386 -0.574763 -0.979566 0.221745 -0.180790 0.393810 0.629214 0.256062 -0.121742 0.998854 -0.813341 0.202646 0.260125 -0.464328 0.764269 -0.134596 -0.102587 0.396574 0.966789 -0.628331 0.117392 0.132622 0.561408 -0.823896 0.780281 -0.720088 -0.857298 -0.156544 0.447142 0.612214 -0.433651 0.031528 -0.962548 -0.413217 -0.746727 -0.143338 0.980594 0.882487 -0.887276 -0.141149 0.881341 -0.700617 -0.938502 0.141466 -0.164944 0.825767 -0.993130 0.732468 0.222341 0.973658 -0.895862 -0.660267 0.106281 0.665546 -0.484163 -0.113438 0.945458 -0.341461 0.730018 0.392599 -0.729246 -0.703633 -0.575873 -0.691794 -0.116849 -0.322599 0.164868 -0.136256 -0.440112 0.277592 0.722596 -0.558771 0.576976 0.784093 0.582694 -0.587969 0.609860 0.589564 -0.855500 -0.167799 0.563223 -0.751363 0.171934 -0.330497 0.914183 0.687771 0.556065 0.859641 -0.653690 0.286083 0.252240 -0.382936 0.582450 0.676368 -0.074730 -0.534399 -0.646232 -0.909862 0.329345 -0.086344 0.367730 0.051941 0.354884 -0.055295 -0.163966 -0.062421 0.356737 -0.554106 -0.472857 0.501236 0.278095 -0.909634 0.749874 -0.549972 -0.240131 0.664057 -0.862201 -0.684066 0.523698 -0.515891 0.602017 -0.224061 0.101173 0.184467 -0.547694 -0.973557 0.650068 -0.193925 -0.883419 -0.020587 0.719730 0.484311 -0.968647 0.074615 -0.570984 -0.132613 -0.987806 0.785753 0.313282 -0.460663 0.286989 -0.408624 -0.370298 0.036863 0.041405 0.389571 -0.299080 0.179204 0.705505 -0.775382 0.663314 0.307521 0.000557 -0.235513 -0.508012 0.452864 -0.209070 -0.857945 -0.741062 -0.092489 0.121468 0.978669 -0.608178 0.152821 0.053284 -0.179162 -0.979791 0.065477 -0.393409 0.333490 0.604814 0.893580 0.924866 -0.765484 -0.069557 -0.033729 0.624087 0.631363 -0.854525 0.329592 0.855982 0.808789 -0.362887 -0.143461 -0.426724 0.129101 -0.690597 0.364206 0.271157 -0.431659 -0.728283 -0.607375 -0.452991 -0.336461 0.545446 0.600293 0.484378 0.565655 -0.334230 -0.909031 -0.100855 -0.729415 0.984549 -0.175989 -0.494899 -0.085007 0.790283 -0.870812 -0.453644 0.935758 0.458780 -0.597662 0.744547 -0.904107 0.258877 -0.682177 0.224994 0.568279 0.682029 -0.503849 -0.863380 0.953747 -0.111224 -0.316370 -0.382714 -0.565778 -0.716077 -0.898336 0.999876 -0.050307 -0.807367 -0.100979 0.220278 -0.822818 0.723032 0.725379 0.092175 0.513315 0.854567 0.638531 0.449073 0.313347 -0.959131 0.193620 0.409240 0.299745 0.511443 -0.365766 -0.131975 0.193472 0.130385 0.004645 0.147219 -0.980839 0.688275 0.764505 -0.546618 0.972197 0.866169 -0.546741 -0.078110 -0.941198 0.352280 -0.857832 -0.764015 0.075312 0.867547 0.328159 -0.411373 0.722114 -0.033310 -0.962300 0.035461 0.007559 0.231320 -0.555299 -0.692696 -0.257236 0.078935 0.175329 0.936236 -0.790679 -0.820026 0.083455 -0.771518 0.868249 -0.152040 -0.318136 0.840446 -0.285870 0.135123 -0.237664 -0.227068 -0.512598 -0.095496 0.008917 0.562714 -0.227949 -0.662924 -0.848659 -0.505835 0.303766 -0.810959 0.529625 -0.688675 0.420362 0.974326 -0.381371 -0.836875 
0.053261 0.793958 -0.900639 0.262582 0.973932 0.182816 0.491063 0.842181 -0.969223 -0.827073 0.682627 -0.255093 0.308050 -0.555037 0.517839 0.795452 0.349467 -0.473245 0.358166 -0.878482 -0.136169 0.509508 -0.384318 -0.832402 0.698549 -0.854692 -0.521077 0.118911 -0.880367 0.097552 0.282036 0.172895 -0.108490 0.381397 -0.564524 -0.134558 -0.435787 0.926539 -0.292377 -0.405010 -0.900533 -0.609751 0.339896 0.407517 -0.164788 -0.142265 0.202969 -0.815321 0.384490 -0.438865 -0.693803 -0.751678 -0.929357 -0.078121 -0.584081 0.769192 0.067187 -0.105158 -0.111898 0.186821 0.992394 -0.829862 -0.640285 -0.116096 0.551535 -0.204809 0.749346 -0.884252 -0.278269 -0.543031 -0.289262 -0.178803 -0.152782 -0.949366 -0.771286 0.682430 -0.091631 0.431683 0.867109 -0.707141 0.992818 -0.826694 -0.458819 -0.936539 0.095186 -0.042900 0.832653 -0.837627 0.851942 -0.279245 0.349193 0.844336 -0.109107 0.708908 -0.271760 -0.557572 -0.495900 -0.522415 -0.441824 0.225830 -0.065446 0.268914 -0.952972 0.781772 0.319548 -0.724258 0.464203 -0.772083 0.707424 0.331312 -0.479224 0.700242 0.504618 0.061957 0.763703 -0.400196 -0.980942 0.596355 -0.237823 0.871000 -0.682890 -0.888630 0.715336 0.208003 0.820278 -0.556425 0.650431 -0.675622 -0.078840 -0.791393 0.550208 0.855715 0.477521 0.597236 0.637487 -0.202931 0.872977 0.101690 0.024986 0.580402 -0.566998 0.545762 0.280644 0.937620 -0.392280 0.044347 -0.462576 -0.373223 -0.359298 0.299601 -0.502223 -0.042187 0.410971 -0.786888 -0.834184 0.231249 -0.343312 0.816247 0.555627 0.577848 -0.975146 0.105835 0.433563 0.502375 -0.296930 0.071050 -0.700556 -0.423952 -0.827260 0.324430 -0.843550 -0.394258 -0.129808 0.437094 -0.456638 0.477912 -0.518560 0.080787 -0.895311 0.122143 -0.619612 -0.397534 -0.920045 0.791359 -0.184422 -0.754229 0.022607 0.472266 -0.937982 -0.421766 0.050114 -0.913128 0.684068 -0.516323 0.589247 -0.612861 0.554726 0.888691 -0.036813 0.727466 0.213121 0.119637 -0.666792 -0.916687 -0.443270 -0.123429 0.561224 0.038171 0.957358 0.665913 -0.839687 -0.662255 -0.731621 -0.759731 -0.870896 0.083957 -0.513960 0.151711 -0.443777 -0.451943 0.729945 0.606337 -0.365071 0.414013 -0.909987 -0.775824 0.801152 0.644740 -0.887133 -0.235661 0.372206 0.325988 0.883976 0.705415 0.409300 -0.559294 -0.418014 -0.029475 0.478877 -0.460657 -0.363562 0.639190 -0.122911 -0.095183 0.879458 0.006193 0.988774 -0.634502 -0.842096 -0.455003 -0.086445 0.887849 -0.848666 0.548485 0.301863 -0.758653 0.772661 0.103015 0.886087 0.885529 0.867354 0.258294 0.211517 0.751330 -0.036292 -0.379183 -0.807965 0.545694 0.591341 0.670912 -0.914963 -0.772221 0.310102 -0.037874 0.132596 0.189561 0.968319 0.121370 0.555059 -0.873777 0.666367 -0.531386 -0.985928 0.817701 -0.982901 0.315934 -0.940952 0.789760 -0.581051 0.945136 0.675289 -0.713697 0.203430 -0.113194 -0.962367 -0.832862 0.507622 -0.770332 0.712832 0.098964 0.900580 0.797869 0.326743 0.210682 -0.240005 -0.540661 -0.599757 -0.271686 0.580709 0.955301 -0.145464 0.247076 -0.576085 -0.131392 0.064777 -0.558986 -0.815458 0.123825 -0.769225 -0.396509 0.068961 0.906064 -0.110206 -0.727609 -0.207131 -0.072573 -0.560471 -0.699508 0.157095 -0.847639 0.399456 0.057675 0.950231 -0.273801 -0.731642 -0.289774 0.185537 -0.331400 0.438540 -0.233754 -0.376098 -0.706924 -0.986678 0.047817 0.161684 0.078098 0.488832 0.346227 -0.798076 0.719606 0.949718 0.270885 0.625670 -0.160488 0.543276 -0.581461 0.766939 0.982805 -0.280969 -0.075965 -0.864834 -0.881513 0.981710 -0.914604 -0.155315 -0.749933 -0.204378 -0.969778 -0.081332 -0.765838 -0.203532 0.542569 -0.472762 -0.190210 -0.409613 0.688922 0.887889 -0.920782 0.035149 -0.910188 0.798824 -0.015133 0.360697 0.424494 0.824380 -0.096028 0.843034 0.591319 -0.113223 -0.437935 -0.484646 0.021943 -0.319449 -0.502937 0.107339 0.525236 -0.252869 0.902961 0.555459 0.665798 -0.862877 -0.648073 0.208368 -0.335639 0.161717 0.798755 -0.646717 0.049606 0.877973 0.388432 0.139418 0.676797 -0.626701 -0.499885 0.101292 -0.802321 0.404088 -0.055675 0.788998 -0.709135 0.506390 -0.695649 0.312807 -0.813058 -0.198585 -0.579854 0.712178 0.548545 -0.676893 0.267637 0.214344 -0.539770 0.619564 -0.577288 0.124590 -0.218719 -0.778534 0.477873 0.830887 -0.900561 -0.133695 -0.029695 0.776236 0.239605 0.470421 -0.122472 0.437283 -0.125492 0.821853 0.226281 0.165373 0.328244 0.530632 -0.521820 0.515185 -0.667953 -0.101673 0.227363 0.880593 0.221434 -0.505001 0.094936 0.681664 -0.885437 0.517648 -0.193746 -0.104156 0.739114 -0.715872 -0.273269 0.838553 0.150433 0.697037 0.614789 -0.609962 0.167458 -0.507683 0.827321 -0.958034 -0.685829 0.053602 0.207339 0.642414 -0.415766 0.685519 0.157599 -0.083718 -0.416154 -0.615038 -0.203126 0.805280 -0.120038 0.891810 0.486944 -0.005475 0.409458 -0.706802 0.890369 0.148572 -0.422675 -0.382899 -0.012875 0.727758 -0.685863 -0.398086 -0.882204 0.481595 0.094232 0.945117 0.523561 0.408402 -0.001281 -0.269100 0.050817 0.582953 -0.583581 -0.791584 -0.500765 0.000265 -0.406622 0.296109 -0.194455 0.473340 0.187919 -0.707511 -0.532135 -0.402622 -0.414314 -0.641766 0.745950 0.163012 -0.024665 -0.266925 -0.109230 0.289472 0.334990 0.008566 -0.228933 -0.570779 -0.046318 -0.705372 0.837623 0.952401 0.025528 -0.111560 0.535354 0.441947 0.096856 -0.965411 -0.557788 0.690234 0.330698 0.247757 0.163574 -0.481382 0.540246 0.631439 0.115995 -0.874068 0.989673 -0.138055 0.288944 -0.034992 0.595020 -0.820287 -0.745520 -0.069991 0.188279 0.025548 0.359231 -0.858039 0.320176 0.196854 -0.905637 -0.654296 -0.914706 0.629717 0.787651 0.182150 0.664306 -0.770137 -0.127616 -0.004995 0.477620 -0.964041 0.513622 0.017866 0.667398 -0.370383 0.143798 0.657071 0.491562 -0.567258 -0.377920 0.086582 -0.387545 -0.123440 -0.983409 0.800734 0.902108 0.375822 0.942696 0.222284 -0.427324 -0.962942 0.567988 -0.342030 0.666776 0.355638 0.840120 0.331082 0.585502 -0.287496 -0.673914 0.063122 -0.251537 0.839709 -0.919012 -0.584139 -0.530674 0.224787 -0.927068 0.960888 0.657529 -0.304988 0.047470 -0.730016 0.571572 0.064061 -0.929281 0.473680 -0.560117 -0.986586 -0.304037 0.012558 -0.949527 -0.736049 0.670528 0.717248 0.619589 0.510648 0.048330 0.205091 -0.776848 0.374417 -0.731787 -0.028385 0.214125 -0.650799 0.387475 0.683451 0.573988 0.460407 0.644339 0.231517 -0.844581 -0.308192 0.501501 0.726991 0.755869 0.572219 0.200670 -0.804248 0.585634 0.896634 0.208310 0.636106 -0.839416 -0.121162 0.353355 0.780173 -0.610514 -0.598315 -0.014736 -0.387362 0.776102 0.253477 0.584253 -0.009773 0.602678 -0.028272 -0.326322 0.176666 -0.567865 -0.681983 -0.591817 -0.412446 0.009825 0.909684 -0.685455 -0.234306 0.481903 0.515215 -0.038554 0.067537 0.411849 -0.830244 -0.296357 0.572433 0.048594 -0.943002 0.352607 0.438080 -0.541317 -0.662129 -0.949282 -0.765215 0.591348 0.634970 0.225012 0.194026 -0.393302 0.898690 -0.629307 0.038834 -0.783293 -0.221124 0.626388 0.226532 -0.311441 0.940933 0.992226 -0.829538 0.456148 -0.046329 0.237999 -0.132003 0.123427 0.941642 -0.559570 -0.827979 0.998641 0.793037 0.610100 -0.542676 -0.869093 0.660818 -0.307891 0.722255 0.295788 0.917121 -0.083718 0.902486 0.815811 0.286974 -0.058680 -0.967482 -0.934150 -0.432293 0.259050 -0.245591 -0.491360 0.251276 -0.075128 0.964788 -0.795053 -0.837129 -0.167215 0.328374 -0.895486 0.273215 0.500395 -0.896846 0.066252 0.110495 -0.439522 0.197159 -0.228687 0.252587 -0.080585 -0.932899 0.169708 0.835696 0.969587 -0.014481 0.122671 -0.089094 0.018037 0.188521 0.478614 -0.722913 0.942930 0.987254 0.528363 -0.132198 0.952042 0.733311 0.030673 -0.215172 0.061685 0.135187 -0.941957 -0.437920 0.238341 0.124295 0.672575 0.798819 -0.678546 -0.556112 0.051406 0.240868 -0.489012 -0.778886 0.076565 -0.519425 0.206633 -0.800765 0.391481 -0.775330 0.387756 -0.129905 -0.498243 0.330687 -0.142651 -0.969880 -0.801511 -0.190609 0.763431 0.229163 0.594218 -0.174884 -0.635650 0.652261 0.387196 0.602691 -0.223444 0.059771 0.401510 0.098010 0.503658 -0.547084 -0.661122 -0.985353 -0.325971 0.415443 -0.504779 0.880662 0.614678 0.886702 -0.894668 0.002435 -0.243203 -0.392911 -0.666878 0.614146 -0.362791 -0.468389 -0.576464 -0.599360 0.760774 -0.982245 0.225756 -0.874877 0.670016 -0.387049 0.727814 -0.553428 0.672722 0.129324 0.544582 0.176380 0.582240 0.883460 0.191027 -0.743731 0.298903 0.686248 -0.863069 -0.086419 0.572951 -0.757737 0.916015 -0.670252 -0.150648 -0.750863 0.943893 0.486561 -0.219252 -0.632570 0.887201 -0.458479 -0.614815 0.112956 -0.333355 -0.944799 0.725908 -0.605541 -0.498227 0.398630 0.523783 -0.953645 -0.424990 0.106023 0.929815 0.766037 0.362292 0.228717 0.452286 0.499223 -0.857702 0.025236 0.741486 -0.941686 0.354984 -0.409163 -0.692549 0.298878 -0.922602 0.088198 0.666307 0.964599 0.629720 -0.948508 0.077555 -0.703636 -0.893307 -0.196537 -0.309177 -0.391534 -0.797908 -0.785394 -0.345179 -0.222897 0.320629 -0.415364 -0.456860 -0.317079 0.813354 0.995426 -0.817856 0.955652 0.020662 0.923630 -0.986035 -0.624354 -0.485533 -0.678584 0.674524 -0.408135 0.409614 0.340831 -0.443536 0.039334 0.392323 0.634019 0.335699 0.499016 -0.562518 -0.973478 -0.892517 -0.360426 -0.758871 -0.237696 0.416677 0.561758 0.346940 0.959817 -0.755321 0.160294 0.955243 -0.573177 0.115945 -0.024095 -0.649547 0.129911 0.351551 -0.135080 0.451327 0.026074 0.456786 -0.139059 -0.633094 -0.986750 0.900275 0.759229 0.647269 0.235974 0.258245 -0.915249 0.262496 0.365728 -0.275675 0.503625 -0.871968 -0.858998 0.065382 0.474973 -0.899181 0.310061 -0.364734 -0.943938 0.736884 0.751212 0.031966 -0.912663 -0.118877 -0.616483 -0.047743 -0.667551 0.409591 -0.590958 0.193390 0.776497 -0.577708 0.093666 0.535725 -0.930439 -0.670360 -0.206029 -0.845688 0.592136 -0.840301 -0.121363 0.095761 -0.712269 0.019639 -0.838857 0.762704 0.120458 0.471204 -0.602030 0.176519 0.208088 -0.850818 -0.791515 0.295425 0.030304 -0.407998 -0.752318 0.362753 -0.998407 -0.343276 -0.443856 0.778089 0.079017 0.649809 0.313815 0.148578 0.979449 -0.892215 0.302889 0.571585 -0.732516 -0.818474 -0.332654 -0.444785 0.201164 -0.171511 -0.682081 -0.678378 -0.700307 -0.284111 0.498141 0.507781 -0.134930 0.706626 -0.196794 0.895374 -0.701372 0.050888 0.258127 -0.699779 0.707613 0.814271 -0.921690 -0.213371 0.464080 0.392125 0.935207 0.443530 0.499910 0.238096 0.015115 0.767395 0.419622 0.682460 -0.677390 -0.379214 -0.489051 -0.359471 -0.057592 -0.189358 0.356417 -0.559451 -0.681577 -0.778513 -0.852825 0.121629 -0.883139 -0.554197 -0.827483 0.374989 -0.253977 0.880129 0.189260 -0.175666 -0.333241 -0.346660 -0.783541 -0.398035 -0.903130 0.716369 0.840061 0.111984 0.483764 0.259683 -0.205555 0.806373 0.880469 0.305394 -0.553098 -0.177123 -0.883965 0.803319 0.263426 -0.565542 -0.975194 0.410601 0.556087 -0.858332 0.856404 0.728604 0.516657 -0.397573 0.608733 -0.294083 0.426761 -0.724508 0.359257 0.643220 -0.122543 0.456127 0.359589 -0.282482 -0.431888 -0.156648 0.977201 0.362556 -0.350274 0.857670 -0.332050 0.096628 -0.319452 -0.216015 -0.100053 0.943974 0.218443 -0.075247 0.354575 -0.225470 0.066421 0.210979 -0.496867 -0.416923 0.813406 -0.888133 0.288994 0.240167 -0.612642 -0.351749 -0.116613 0.264815 -0.895622 -0.757025 0.982334 -0.327510 0.086328 0.959535 -0.964954 0.736053 0.817206 -0.297004 -0.167319 -0.502247 0.486981 0.732627 -0.558273 -0.294576 -0.342620 0.796302 0.479953 0.723801 0.007281 0.983087 -0.693121 -0.179312 -0.905047 0.595873 -0.939145 -0.517689 -0.755876 -0.055758 0.747127 -0.651498 0.187217 0.729461 0.020992 -0.726455 0.688996 0.056038 -0.990402 0.506201 0.759034 -0.157722 -0.996046 0.246014 -0.425094 -0.554318 0.951438 0.232286 -0.758016 0.431391 -0.043912 0.249265 0.414478 0.262966 -0.930048 0.509431 -0.141161 -0.869193 0.991742 0.102963 0.075049 0.738869 0.451465 -0.737734 0.468330 -0.527543 -0.464189 0.157325 0.528495 -0.454592 -0.336474 0.287528 0.387687 -0.332519 -0.466457 0.962592 0.113162 -0.515020 0.194879 0.355146 0.916371 -0.849034 -0.395589 0.330849 0.413933 -0.325637 -0.159720 -0.727228 -0.194829 -0.167978 0.375735 0.880219 -0.429108 -0.172800 -0.857515 -0.960779 0.299656 -0.321704 0.196546 -0.171849 0.223704 0.860073 -0.884321 -0.388609 -0.472447 -0.350778 -0.426017 0.640716 0.134202 0.768862 -0.004138 0.050574 0.919828 0.600273 -0.618577 0.333761 -0.725364 0.221703 0.606533 0.079806 -0.946275 -0.017733 -0.039974 -0.375383 0.809466 0.102511 -0.336162 0.109123 0.780807 0.860384 0.937274 0.004512 0.720457 -0.947047 0.615903 -0.751990 -0.297825 -0.810114 0.888726 0.836377 0.958748 -0.115412 -0.113050 0.878576 -0.515140 0.268373 0.212337 -0.240504 -0.509924 -0.181130 0.839302 -0.456199 0.801137 -0.200672 0.168418 0.610603 0.901839 0.832256 -0.280274 0.682647 0.692640 -0.343000 -0.312841 0.413097 -0.290047 -0.696939 0.661108 0.412127 -0.507053 0.549834 0.248504 -0.548305 -0.565579 -0.864545 -0.669729 -0.080718 0.403828 0.542608 0.678778 0.893904 -0.638522 0.518080 -0.562295 -0.837385 -0.682592 0.606123 0.773218 -0.780752 0.438379 -0.507056 0.901894 0.131019 0.149944 -0.410947 -0.455884 0.859896 -0.107886 -0.794776 0.272024 0.385061 0.755057 -0.479472 0.836756 -0.810521 -0.344017 -0.832972 0.108760 -0.940190 0.709636 -0.212462 0.953714 -0.928886 -0.694382 -0.608581 -0.766271 -0.376974 0.997542 -0.993053 -0.157727 0.435921 -0.500109 -0.255832 -0.433060 0.649834 0.333221 0.111056 0.509731 -0.774665 0.316280 -0.218245 0.610396 0.071337 0.302283 0.447152 0.260816 0.958265 0.614180 -0.630424 -0.981924 0.323816 0.157114 0.971790 0.394930 0.462731 -0.636791 0.628659 -0.914243 -0.639249 0.635606 -0.071970 0.796672 -0.864503 0.672198 -0.636388 0.785332 0.005419 0.474667 0.295062 0.230754 -0.209053 -0.923183 -0.158850 0.862284 0.379100 -0.711697 0.123100 0.337365 0.902483 0.492675 0.355441 0.226299 -0.350211 0.327230 -0.378771 -0.887480 0.690439 -0.750111 -0.801723 -0.948810 0.885495 0.126308 0.847862 -0.979008 -0.201494 -0.788527 0.806324 0.803925 0.686141 0.101386 0.034679 -0.522912 0.178203 0.875829 -0.660628 -0.442697 -0.835868 0.462472 0.894668 -0.933386 -0.044853 0.250108 0.292913 0.604936 -0.422662 0.914143 0.717456 -0.732222 -0.835968 0.915734 -0.681032 -0.950473 0.042041 -0.833170 -0.929480 0.840547 -0.621697 0.876844 0.644472 -0.935556 -0.021770 -0.320849 -0.458468 -0.843567 -0.445020 -0.119096 -0.286264 -0.280889 -0.656625 -0.391597 -0.214274 0.298522 0.858511 -0.921361 -0.096542 -0.564150 0.992782 -0.379085 -0.296373 -0.843186 -0.463352 0.022595 -0.793659 0.578690 0.189425 -0.723140 0.419237 0.567728 -0.846296 0.063709 0.632171 0.131934 0.742859 -0.826297 0.288367 -0.702161 0.054606 -0.997898 0.016950 0.397982 -0.389494 0.802675 -0.303496 -0.530983 0.881314 0.599962 -0.095133 0.874096 -0.779123 0.608494 -0.969090 -0.242475 -0.368911 -0.762749 -0.663785 0.820514 -0.485889 0.755451 0.388241 -0.332185 -0.180840 0.020412 0.799749 -0.437981 0.194115 0.088116 -0.140142 -0.751278 0.090218 0.876808 0.646703 0.700724 0.679483 -0.656793 -0.830259 0.560798 0.943170 0.074608 0.434894 -0.835954 -0.316898 0.465804 -0.078428 0.314191 0.703055 0.257786 0.134705 -0.782834 0.013238 -0.477054 -0.115018 0.832398 0.543358 -0.315269 -0.605583 -0.262526 0.772847 0.254275 -0.013804 -0.136935 0.131083 -0.367101 -0.436211 -0.189434 -0.023894 -0.266470 -0.628636 -0.080724 0.808138 0.806258 0.083322 -0.508760 0.272062 -0.995106 0.805431 -0.024883 0.262680 -0.059865 0.192283 -0.724082 0.463081 -0.922735 -0.891684 0.006440 -0.238004 -0.497267 0.743913 -0.465157 0.757007 -0.269891 0.397908 -0.111910 0.363008 0.961697 0.698656 -0.660886 -0.304773 -0.929981 0.258390 -0.496635 0.876277 -0.658287 -0.005396 0.148339 -0.653393 -0.199965 -0.876544 0.609287 0.740170 0.315739 0.885205 0.203251 0.393004 0.993521 -0.790309 -0.845000 -0.503746 0.953605 -0.310157 -0.746739 -0.316286 -0.912250 0.141351 -0.953278 -0.950553 -0.159993 -0.614164 -0.255326 -0.089974 0.644227 0.248038 -0.213696 0.985940 -0.757358 0.934643 -0.667454 0.042677 -0.941901 0.941833 -0.217153 0.373838 0.827039 0.986099 -0.233158 0.820560 -0.804210 -0.078157 -0.683186 -0.850605 0.611686 -0.429925 -0.166892 0.699436 0.711426 -0.120170 0.748883 -0.448567 0.265667 -0.506443 0.461460 -0.090107 0.741595 -0.752237 -0.104167 0.984237 -0.817594 0.228379 0.026914 -0.759495 0.170212 0.809762 0.614343 -0.002749 0.795861 -0.618815 -0.182189 0.991651 0.303028 0.134625 -0.858955 -0.085287 0.704700 -0.025846 -0.385851 0.416126 0.853984 -0.636968 0.967559 0.119650 -0.143411 0.429019 -0.970457 -0.401816 0.676782 -0.074624 -0.417579 0.859188 -0.846245 0.609336 -0.900307 0.323968 0.419097 0.714035 -0.678781 0.214958 -0.904779 0.139030 0.206609 0.398248 -0.726345 0.347654 -0.687038 0.978355 -0.678192 -0.072889 0.394481 -0.824209 0.290143 0.362041 0.295441 -0.853268 -0.208940 0.324985 -0.255084 -0.532158 -0.749639 0.327337 -0.672970 -0.595884 -0.063328 -0.573277 0.728084 -0.644230 -0.859242 -0.950697 0.570728 -0.764021 0.188333 -0.222663 0.634227 0.461988 -0.875009 0.947189 0.440344 -0.553202 -0.125701 -0.165175 -0.377410 -0.835558 -0.803134 0.918031 -0.688826 -0.012075 0.243016 0.056090 0.455768 0.493377 -0.616573 0.782798 0.897493 0.320099 -0.790479 0.625577 0.675869 -0.649721 0.674880 0.246597 -0.413742 -0.136786 -0.976066 -0.779515 -0.674798 -0.851076 -0.832326 0.765546 -0.404277 0.041973 -0.399629 0.218312 0.206416 -0.202764 0.136343 0.517590 0.785162 -0.620641 -0.426320 0.240929 0.872736 -0.042893 0.023727 0.770229 -0.722794 0.233248 0.395806 0.953075 0.583527 0.070687 0.199672 -0.830215 0.933900 0.223605 -0.609730 -0.740897 0.372530 -0.442056 -0.975352 0.968252 0.599917 -0.374981 0.186565 -0.193667 0.422256 -0.677092 -0.676077 0.207418 -0.297733 -0.102397 -0.551653 -0.424997 0.854710 0.472074 -0.654768 -0.868084 -0.294678 0.741038 -0.915009 -0.711151 -0.188276 0.284662 -0.541366 -0.254375 -0.491733 -0.151096 0.004728 0.880797 0.406848 0.029376 0.849049 0.006766 0.654395 0.035614 0.813099 0.076651 0.358522 -0.862978 -0.715932 -0.939211 0.034626 -0.267585 -0.364208 -0.110664 -0.795511 -0.018977 0.021252 -0.090189 -0.277939 0.106242 0.198660 0.533785 -0.609095 0.657295 -0.720590 -0.100828 -0.493801 0.284138 -0.220031 0.913047 -0.686486 -0.370982 -0.080187 0.967909 0.664632 -0.267088 0.044560 0.023154 -0.130065 0.328628 0.083943 0.904560 -0.938957 0.719734 -0.206104 -0.734467 -0.299243 0.815148 0.175344 0.422818 -0.078610 -0.625995 -0.043396 0.312295 -0.968701 0.236014 -0.788533 -0.462502 -0.479848 -0.008564 -0.549454 -0.166334 0.620455 0.370359 -0.198425 0.285087 -0.896729 0.846135 -0.691759 -0.026794 0.174763 0.392183 -0.122233 0.235806 0.111917 0.671663 0.501339 0.812675 0.486811 -0.323317 0.235493 -0.591799 0.050688 -0.807903 0.720496 0.081988 0.428111 0.931963 0.619486 0.948263 -0.076600 -0.929968 -0.218071 -0.456146 0.440391 0.583504 0.828941 0.543662 0.429638 -0.862818 -0.483131 -0.395599 0.529365 0.394635 0.840208 -0.358717 0.066298 0.341547 -0.546042 -0.446891 -0.981770 0.689451 -0.038691 0.068919 0.881548 -0.318195 -0.849094 0.309659 -0.386231 0.770392 0.257922 0.537168 0.840424 -0.960150 -0.918977 0.280815 0.623354 0.909964 -0.175523 0.052992 -0.952854 0.341346 0.657393 0.576512 -0.264019 0.497601 -0.782205 0.802279 -0.160852 -0.328247 -0.644612 -0.142622 -0.638797 0.316697 0.926297 -0.757249 0.998502 -0.922797 0.552410 -0.387729 0.847595 -0.189668 -0.850560 0.688019 -0.149818 -0.769538 -0.031166 -0.526464 -0.859573 0.793311 0.526528 -0.812427 0.134657 0.183921 0.764085 0.870638 -0.318478 0.981880 0.672917 0.520670 -0.346368 -0.971695 -0.621952 0.014836 0.345002 -0.695655 0.257587 0.343504 -0.618452 -0.190003 0.955775 -0.770857 0.620329 -0.894786 0.917162 -0.529490 -0.664323 -0.114003 -0.055954 -0.523896 -0.320692 -0.529426 -0.336323 0.813965 0.654496 -0.572238 0.684603 -0.663982 -0.590358 0.357520 0.856688 0.063274 0.385825 -0.765263 -0.921890 -0.269173 -0.460918 0.335697 -0.925669 -0.079370 -0.854306 -0.969895 0.149773 0.766023 -0.864680 0.066936 -0.763467 -0.529003 0.952932 0.180579 -0.052899 -0.367760 0.651154 0.610777 -0.553795 0.305650 -0.961461 -0.869191 0.641668 -0.551819 0.488329 0.498356 0.511455 -0.125846 0.733093 0.589565 0.604981 -0.727825 -0.074738 0.679311 0.192805 0.070956 0.709417 -0.657421 -0.163021 0.844737 0.409515 0.073512 -0.684266 0.362447 -0.745909 0.262834 0.994687 0.905245 -0.126389 -0.559107 0.210894 -0.087849 -0.428298 -0.147438 0.360332 -0.939969 -0.649082 -0.128213 -0.065815 -0.915988 -0.538648 -0.460834 -0.643813 0.386614 -0.781523 0.548992 -0.542430 0.927894 0.891571 0.294548 0.772631 0.301085 -0.631940 -0.911636 -0.336468 -0.377849 0.351198 -0.341780 -0.472604 -0.775190 0.099113 0.738290 0.136960 0.670815 -0.409147 -0.502708 0.730845 -0.058229 0.369078 -0.334970 0.025782 0.830430 0.204196 0.381969 0.217043 0.422673 -0.069039 0.674613 0.350567 -0.177468 -0.030839 0.123198 -0.876382 0.337221 0.211562 -0.212850 0.959372 -0.437240 0.445370 -0.513232 -0.212430 -0.455517 -0.774941 0.924530 -0.784702 -0.184089 -0.578178 0.946143 0.757682 0.790900 -0.388827 -0.216535 0.621330 0.815369 -0.834566 -0.161627 0.238043 0.096395 -0.487014 -0.411390 0.918927 0.482147 0.711808 -0.957455 -0.180632 -0.076631 -0.170305 -0.221259 0.486129 -0.724935 0.265509 -0.726301 -0.180452 0.490568 -0.801771 0.034845 -0.693521 -0.379950 -0.019012 -0.935839 -0.589050 0.592161 -0.152374 -0.967720 0.407531 0.013059 -0.129347 -0.354426 -0.890545 0.383639 0.234184 -0.971618 -0.134214 -0.054009 -0.929073 0.685154 0.869361 -0.099379 -0.536105 0.355490 0.175686 0.729404 0.629189 0.995234 0.219971 0.827418 0.030079 0.526450 -0.552531 -0.988933 0.590611 -0.141581 0.603228 -0.561763 -0.109301 0.010759 0.451296 0.761352 0.656333 0.560751 0.144991 -0.109484 0.589132 -0.989223 0.836507 0.660059 0.695932 0.705868 -0.439320 -0.840173 0.061358 0.736367 0.889230 -0.309453 0.731600 0.109202 -0.482035 -0.238321 -0.364348 -0.034566 -0.227254 -0.773737 0.823853 -0.624026 -0.335500 -0.285448 0.386733 -0.884204 -0.524096 0.043066 0.676546 0.620895 0.933582 0.265679 0.631672 0.770089 -0.074262 0.327604 0.475957 0.486418 0.487430 -0.462685 0.222785 0.376661 0.227863 -0.045615 -0.514137 0.745828 0.716064 0.121515 -0.288739 -0.511190 0.347778 -0.464886 -0.135216 -0.987723 0.249666 -0.748483 -0.871927 0.725569 0.294583 0.804620 0.346464 0.228165 0.070298 -0.021864 -0.001745 0.996036 -0.694261 -0.525788 0.482455 0.793170 0.011528 -0.294760 0.169830 -0.760610 0.659625 0.655693 0.985218 0.375689 -0.222792 -0.303520 0.864499 -0.875015 0.231594 -0.270717 -0.862737 -0.518741 -0.019199 -0.734664 -0.793172 -0.724616 -0.930044 0.553292 0.503549 0.140254 -0.468572 -0.498196 0.136290 -0.162833 -0.023984 -0.381255 -0.369663 0.987544 0.323985 0.800167 -0.773066 -0.016391 0.455860 -0.787847 -0.640702 -0.766932 -0.091368 -0.776203 -0.641947 -0.859774 -0.046919 -0.504684 -0.378515 0.933881 -0.239348 -0.171687 -0.790735 -0.169392 -0.618395 0.712815 0.970862 -0.086967 -0.785381 0.107152 0.750200 0.190635 0.725897 -0.619463 0.178179 0.049882 -0.819296 0.405114 -0.966509 0.636564 0.617266 -0.607210 0.869632 -0.474102 -0.383413 -0.772314 -0.333876 0.569668 -0.276998 0.287609 0.503549 0.483654 -0.884078 0.712814 -0.685738 -0.502473 0.425629 -0.714876 0.410560 0.640247 0.392276 0.160760 -0.169117 0.118173 0.541296 -0.990938 -0.831945 0.722000 0.414175 -0.798454 0.358564 0.031442 -0.405664 0.228196 0.557340 0.210923 0.455882 -0.776536 -0.219410 -0.821116 0.511073 -0.715861 0.662538 0.626995 0.996953 0.976800 -0.875478 0.422582 -0.738076 0.535081 0.062829 0.654200 -0.304159 0.893712 -0.227627 -0.762863 0.902774 -0.059572 0.959137 0.316949 0.141975 0.317701 -0.651609 0.736311 -0.454103 0.905730 -0.052767 -0.998221 -0.870806 0.727824 -0.819337 0.640267 -0.988037 0.843201 0.267262 -0.991083 0.820001 0.391783 0.431499 -0.918075 -0.073136 -0.505672 0.736125 0.622705 -0.611960 -0.491502 0.859842 -0.709187 0.448926 0.818979 0.607762 -0.409100 0.136680 0.956153 -0.672789 0.682577 0.861883 0.274444 0.684356 0.991078 0.002268 0.865019 0.631344 0.014232 0.708220 -0.101394 0.023148 
0.528221 -0.709611 -0.545353 0.610146 0.217253 -0.051025 0.346271 -0.160042 0.337014 0.854768 -0.300200 0.627828 0.303694 -0.481221 0.235590 0.894594 0.655459 0.191743 -0.778195 0.338037 0.053626 0.496250 0.022393 0.044704 -0.501482 -0.112588 -0.323952 0.512750 -0.404367 0.574654 -0.464102 -0.876146 0.865044 -0.009456 0.734000 0.082297 0.939519 0.080271 0.922255 0.276533 -0.064961 -0.377944 -0.095639 -0.761267 0.140835 -0.860049 -0.866673 -0.203706 0.331694 -0.644867 -0.865669 -0.614679 0.851382 0.156724 0.430025 -0.650100 -0.955864 -0.893927 0.862650 -0.360231 0.680728 -0.601452 -0.236377 0.545771 0.389092 -0.502377 -0.371932 0.328611 0.577894 -0.449677 -0.394855 -0.487067 0.172379 0.509506 -0.248334 -0.686786 0.649457 -0.115007 0.109508 -0.018849 0.240126 0.243838 0.366472 0.091508 -0.599438 -0.203503 0.441408 -0.555302 -0.097430 0.304059 0.084467 -0.416702 0.702607 0.848091 -0.870931 0.091699 -0.654286 -0.242863 -0.579690 0.923608 0.307460 0.025455 -0.563460 -0.520161 -0.465040 0.188206 -0.206947 -0.815583 -0.926801 0.902560 0.165568 0.313324 0.146399 -0.467960 -0.595168 0.546961 0.328537 0.846241 0.991660 -0.768893 0.150299 0.076127 -0.185596 -0.147094 -0.075782 -0.056527 0.944605 0.269931 0.700610 -0.635085 0.193539 0.008071 0.390370 0.630079 0.487910 0.925330 -0.181715 -0.719038 -0.890253 -0.108516 -0.816477 0.275315 -0.795192 0.329922 0.807355 -0.390359 -0.123117 0.135892 -0.544118 -0.131458 0.366999 0.606181 0.944669 -0.818597 -0.540913 -0.131113 0.124877 -0.596308 -0.861182 -0.174513 -0.231393 0.332357 0.833558 -0.841023 -0.037563 0.321467 -0.915693 0.780722 0.602430 -0.805946 -0.327794 0.785953 0.469369 -0.122985 0.115874 0.276725 0.486655 0.992757 -0.587383 0.942537 -0.138701 0.779616 0.548718 -0.194031 0.961019 -0.992195 0.674856 0.085896 -0.588503 0.813674 0.911383 0.180104 0.146032 0.744940 0.339080 -0.891531 0.066408 0.423387 0.889191 -0.331163 0.617441 -0.438603 -0.545210 0.086810 0.438412 0.570664 -0.636465 -0.074933 0.563421 -0.223849 -0.132396 -0.575279 -0.444233 -0.583678 0.230690 -0.483214 -0.575874 -0.094454 0.602682 -0.164377 -0.280780 0.514064 -0.984273 0.865252 0.259005 0.354807 0.973721 -0.674588 -0.221806 0.862911 -0.005750 -0.604365 -0.575692 0.449040 0.482445 0.862720 0.019704 0.845979 -0.212213 -0.416875 -0.377870 0.655390 0.007846 0.177897 -0.928288 -0.761464 0.694683 -0.504162 0.144082 0.297365 0.331461 0.863302 -0.188571 0.347188 0.728554 -0.929566 -0.298005 0.702274 -0.604154 0.480189 0.565186 0.390096 0.875823 0.989494 -0.160864 0.358268 0.852214 0.858840 0.204247 -0.360000 -0.558035 0.826377 -0.704609 0.449811 0.004275 -0.632897 0.688347 -0.301042 -0.137059 -0.167571 0.996323 -0.805598 -0.304269 -0.192248 0.541590 -0.575716 -0.121814 -0.756415 -0.873441 0.274033 0.723774 0.691744 -0.335871 0.599598 0.681238 0.503264 -0.042134 0.533452 0.362104 -0.837887 -0.826548 0.804070 0.988490 -0.531158 0.253881 -0.007235 -0.164055 -0.057772 0.691723 0.698886 0.774657 0.688046 0.893288 -0.529612 -0.504201 0.434879 -0.105328 0.373985 0.678464 0.021231 -0.351983 0.402238 -0.287025 0.312146 0.001836 -0.605787 -0.184590 0.959702 0.927664 -0.822485 -0.878186 -0.898884 0.981584 -0.889696 -0.430041 0.235465 0.103069 0.405904 -0.822307 -0.205208 0.104790 0.952351 -0.517162 -0.001922 -0.577261 -0.021363 -0.567043 0.317411 -0.647378 -0.888579 -0.661358 0.000639 0.513659 0.051617 -0.687215 -0.484504 0.445829 0.128195 -0.524803 0.373494 0.305710 -0.402988 0.474610 0.287295 -0.292684 -0.955431 -0.477240 0.810385 0.450473 -0.299547 -0.394823 -0.444738 -0.347196 0.088015 0.553340 0.075543 -0.933348 0.986297 -0.607046 -0.580727 -0.902282 -0.268405 0.419912 0.611378 0.783212 0.732697 -0.873127 0.229041 -0.139107 -0.397929 -0.397465 -0.833397 0.199082 -0.922855 0.453898 0.906398 -0.878286 0.976657 0.716783 0.572187 -0.322889 -0.678040 -0.872551 0.329915 0.409975 0.680790 -0.594543 0.476627 0.667087 -0.201589 0.895901 0.764805 0.530006 0.315813 0.376183 0.313218 0.048510 0.503056 -0.457741 0.909403 -0.894874 0.144794 -0.923994 0.304209 0.221939 0.529904 0.210607 0.343653 0.506561 -0.072611 -0.084160 -0.816329 0.249349 0.043289 0.513586 -0.340675 -0.275922 0.919043 -0.864048 -0.608835 -0.282546 -0.968148 -0.844030 -0.752540 0.347665 0.532153 0.560678 -0.603825 0.035208 -0.897063 -0.694422 0.140335 0.247731 -0.618416 -0.555457 -0.530330 0.911488 0.655150 0.813323 0.418049 -0.417461 -0.270837 0.601720 0.831889 0.772452 0.115306 -0.508786 -0.503470 0.034349 -0.372835 -0.112305 0.751803 -0.340982 0.043665 0.999264 -0.993317 -0.424182 0.559941 -0.597142 0.611027 0.662879 -0.291563 -0.248639 -0.089391 0.090021 0.195905 0.380279 0.001509 -0.148945 0.193603 -0.580442 0.433594 0.922765 -0.978722 0.265483 0.695217 0.136585 0.756697 -0.808252 -0.829066 -0.616138 0.079443 0.922738 0.042879 -0.876891 0.922001 0.049562 -0.301073 0.481943 0.452420 -0.690047 0.144821 -0.839143 0.061314 -0.944570 0.250878 -0.742781 0.435710 -0.747612 0.108274 -0.370687 -0.328054 -0.458132 -0.447922 -0.306776 0.807351 -0.752705 0.829809 0.564048 -0.560957 -0.999257 0.947909 0.518486 0.923481 -0.009211 0.641594 0.845482 -0.959649 -0.659479 0.327424 0.492772 -0.349526 -0.527755 0.653629 0.711789 -0.472324 -0.095493 0.969008 0.963386 0.156895 0.077282 -0.407302 0.828841 0.619150 0.144776 -0.477935 0.426501 0.392071 -0.648126 -0.009452 0.831114 -0.647383 -0.061542 0.349600 -0.723902 0.929247 -0.008805 -0.878421 0.969598 0.331716 0.449003 0.462369 0.982190 0.921248 0.115998 0.693979 -0.551076 -0.979495 0.662986 -0.587691 0.177400 -0.259732 0.005008 0.006241 -0.640582 -0.850216 0.528306 0.785919 0.541855 0.880180 -0.223533 0.372969 -0.767203 0.714925 -0.277430 -0.491106 0.644171 0.713765 -0.369527 0.613769 0.045481 -0.920524 0.076138 0.027671 -0.999275 -0.807864 -0.278351 -0.550351 -0.787358 -0.615364 -0.138042 0.390042 0.124904 0.866966 -0.603718 0.484322 -0.983251 0.924588 0.270240 0.558604 0.804768 -0.953293 -0.068426 -0.962435 0.761632 0.654144 -0.453541 0.405803 0.367908 0.176932 0.019572 -0.586611 0.256409 -0.904289 0.441060 0.257133 -0.712153 -0.837291 0.706782 -0.499512 -0.452656 -0.431260 0.890530 0.672248 -0.564294 -0.713188 0.156570 -0.547545 -0.788599 -0.573190 -0.988940 -0.983832 -0.526483 -0.057366 -0.946267 -0.764851 -0.403223 -0.399808 0.640952 0.964686 0.777124 -0.339475 -0.621925 0.033533 -0.243765 0.819135 -0.709334 0.044082 0.981843 0.997448 0.544571 -0.470812 -0.433812 0.435101 -0.798564 0.001894 0.721913 0.358006 0.454350 0.933314 0.784816 0.465409 0.949482 -0.741667 -0.591957 -0.996785 -0.506518 0.004821 -0.396593 -0.865566 -0.030493 -0.619469 -0.205042 0.347581 0.414063 0.551194 0.166716 0.704729 -0.404724 0.148559 0.702177 -0.860154 0.677747 -0.731634 0.574947 0.879183 0.270260 0.296860 0.237189 -0.275391 0.230174 0.022004 -0.809981 0.179656 0.280337 -0.401938 0.182871 0.773819 0.602882 0.786278 0.908252 -0.427611 -0.833191 -0.296789 0.919970 0.580872 -0.745596 0.086686 0.285602 -0.150320 -0.764754 -0.012221 -0.010474 0.912993 0.256144 -0.435526 0.792176 -0.473596 0.861334 0.029364 0.251014 0.091508 -0.948632 0.441032 -0.728836 0.331705 -0.960906 0.454035 0.105524 0.641976 0.240313 0.013776 -0.785635 0.407122 0.716987 -0.865664 -0.012006 0.971391 0.221022 -0.726404 -0.178929 0.456268 0.261375 0.810598 0.369260 -0.482481 -0.624929 0.161436 0.043923 -0.763595 -0.809200 -0.705063 0.327913 -0.757832 0.735969 0.599076 0.573873 0.775063 0.053111 -0.320603 0.417040 -0.706576 0.693173 0.631405 0.700545 0.410160 0.765741 -0.311461 0.381552 -0.013237 -0.037865 -0.797377 -0.556969 -0.776490 -0.986779 0.812291 -0.258971 -0.611708 -0.026273 0.784952 -0.375302 0.164527 -0.920111 0.952610 0.406695 0.815858 0.551687 -0.019431 0.590921 -0.395203 0.659966 0.007960 -0.101779 0.353139 -0.360635 -0.401234 -0.236700 -0.594894 0.287305 -0.855149 0.391869 -0.750560 -0.652526 0.834900 -0.527050 -0.639305 0.647191 0.213978 -0.251012 -0.379082 -0.001070 0.373685 0.785445 0.078819 0.326296 0.192140 -0.105323 -0.122018 -0.827291 -0.514402 0.482780 0.832675 0.493558 -0.618999 0.185815 -0.867077 -0.020233 0.949114 -0.461970 -0.732928 -0.906034 0.929899 -0.483488 -0.558560 0.764798 -0.010538 -0.197865 0.411989 -0.796560 0.551123 -0.967093 0.202371 -0.075192 0.818352 -0.718810 -0.748896 0.010492 0.175867 0.129086 0.183202 0.661464 -0.388134 0.015877 0.155022 -0.007134 -0.798309 0.287946 0.972633 -0.849194 0.825975 -0.760295 -0.755229 0.755874 -0.243783 -0.313789 0.520672 0.745679 0.488346 -0.067338 0.949119 0.039469 -0.034431 0.151490 0.964277 -0.216079 0.432679 -0.784619 0.794413 -0.391454 0.344467 -0.022385 -0.729990 0.956333 0.993492 0.425032 -0.050801 -0.804817 -0.287022 -0.078168 -0.654011 -0.461047 0.161536 -0.409240 -0.705173 0.917753 0.276971 0.815500 0.663432 -0.234683 -0.251839 0.612551 0.804786 0.713730 -0.235960 0.769063 -0.502349 -0.803280 0.984445 -0.707935 -0.194734 0.328912 0.269680 0.075276 0.285245 0.263172 -0.499692 -0.765557 0.458355 0.213286 0.156275 0.804343 0.752240 -0.682189 -0.604897 -0.952933 -0.764436 0.672073 0.862567 0.898996 -0.562610 -0.389272 0.511546 -0.757824 -0.675541 -0.724413 -0.988760 -0.177890 -0.527694 0.995684 0.114175 0.277572 0.324596 -0.616145 -0.647152 -0.390159 0.647026 -0.146844 -0.155716 0.105381 -0.933558 -0.999441 -0.090276 0.818682 -0.681630 0.304826 0.865749 -0.446065 -0.023100 0.728316 -0.547070 0.414290 -0.660956 0.964477 0.656466 -0.336497 -0.759936 0.667706 0.485613 -0.287630 0.663390 -0.400212 0.989942 -0.012014 -0.016357 -0.657210 0.597826 -0.369331 0.195946 -0.557889 0.736050 0.262388 -0.557330 -0.354227 0.081070 -0.238960 0.950600 -0.053181 0.314975 -0.072500 -0.324865 0.767905 -0.658210 0.014179 0.732382 0.998256 0.677682 0.972445 0.665961 0.163295 -0.315185 0.329351 0.763083 -0.325242 -0.682663 -0.253274 0.017547 0.915163 0.377395 -0.786507 -0.642726 0.113444 0.475881 -0.200057 0.759218 -0.443049 0.560983 0.709818 0.503770 -0.124042 -0.362683 -0.821095 -0.356137 -0.020893 0.193084 -0.623755 -0.022638 -0.129234 -0.651310 -0.356676 -0.965939 0.033506 0.972675 0.797144 0.708263 -0.709989 -0.456130 -0.274190 -0.794825 0.921265 -0.060696 -0.437552 0.034709 -0.584815 0.362392 -0.206073 -0.027864 -0.076625 -0.496255 -0.524094 0.799333 0.141062 -0.345189 -0.556804 -0.879831 0.847895 -0.180559 0.097532 -0.281339 0.168132 0.740855 -0.247278 -0.798363 0.713530 -0.450134 0.909900 -0.996459 0.093736 -0.364289 -0.791284 0.015001 0.575014 -0.228835 -0.950289 0.990199 -0.866444 -0.156362 -0.037665 0.056932 0.347383 0.438241 -0.143735 -0.511555 -0.906948 0.299462 -0.391386 0.940947 -0.881097 0.706145 -0.340393 0.287035 0.447000 0.412329 0.488672 0.160530 0.962195 0.398572 0.164072 0.055931 -0.965717 0.372788 -0.929067 0.609297 -0.856048 -0.879357 0.599496 -0.722491 -0.035719 -0.438169 0.334441 -0.688337 -0.999927 -0.809294 -0.199892 -0.906875 0.490168 0.408722 -0.965929 0.609071 0.114867 -0.306322 -0.103895 -0.438133 -0.893993 -0.615223 0.722398 -0.931798 0.783349 -0.113531 0.124133 0.817632 -0.740743 0.195066 0.426929 -0.596790 0.315709 0.026425 -0.319281 -0.720010 0.588256 -0.984841 -0.408347 0.588329 -0.794134 0.391761 0.681454 0.696033 -0.199518 0.715524 0.305104 0.915349 -0.590797 -0.798790 -0.522784 -0.484790 -0.414013 -0.800386 -0.416589 -0.630664 0.086084 0.707545 -0.813032 0.345341 -0.097390 0.613896 0.748550 -0.781681 -0.359679 -0.570731 -0.501691 -0.771422 -0.555571 0.089961 0.816907 -0.349706 -0.518278 0.498360 -0.653673 0.282204 0.213885 0.651432 0.197554 0.623087 0.852641 0.674770 -0.861703 -0.561372 0.874384 -0.278292 -0.192036 -0.039532 -0.570747 -0.005068 -0.694192 0.331863 -0.391172 -0.945641 0.550183 0.249149 -0.516372 -0.951509 0.477727 -0.071943 0.138453 0.294634 0.578351 0.620175 -0.207006 0.924678 -0.097621 -0.993121 0.576109 -0.900067 0.629966 0.428751 0.774703 0.768263 0.867379 0.649087 -0.510029 -0.324657 -0.390445 -0.080776 0.670275 -0.084637 -0.748913 -0.720897 -0.030278 0.801270 0.528252 0.453350 0.849761 0.005979 -0.618593 -0.011786 -0.699387 0.959757 -0.391611 0.093606 0.884435 0.510768 0.100485 0.460544 0.610701 -0.269549 -0.110705 0.385404 -0.501287 -0.243326 0.034491 -0.011316 0.432017 0.644046 0.907908 0.102291 -0.440591 -0.841005 0.381394 0.529131 0.960264 -0.090354 -0.017519 0.810025 0.915625 0.363887 -0.201761 -0.783763 0.323644 0.406627 0.309844 0.208079 -0.082605 -0.589672 -0.331376 -0.471904 0.140779 0.557918 0.913500 0.639492 -0.685408 -0.052010 -0.371824 0.746609 -0.407964 -0.463916 -0.151100 0.151445 -0.304921 -0.769706 -0.319425 -0.344657 0.139940 0.663056 -0.534631 0.055564 0.026943 0.263607 0.271801 -0.649412 -0.329765 -0.418355 0.558667 0.587630 -0.008027 -0.772710 -0.884274 -0.867248 0.785209 -0.970775 0.772245 -0.900199 -0.022784 -0.599579 0.846410 0.569252 -0.063495 -0.304690 -0.279303 0.631584 -0.074396 0.401272 -0.713072 -0.934456 0.064328 -0.247704 0.121108 -0.908728 -0.984097 -0.607090 -0.558141 -0.313862 -0.025446 -0.999474 -0.726232 0.966528 -0.772184 -0.610506 -0.900720 -0.986975 -0.581281 0.871525 -0.887174 0.395935 -0.728054 0.959236 -0.034813 0.208451 -0.345454 0.685884 -0.159964 0.580151 0.087156 0.126963 0.645695 -0.848516 0.879259 -0.233197 -0.757244 0.895163 0.159712 -0.315385 -0.418699 -0.865733 -0.314859 -0.144931 -0.899205 -0.087043 0.244562 -0.799925 -0.074018 0.663281 -0.928400 0.038808 0.059217 -0.656454 -0.001956 -0.975596 0.551997 0.652590 0.710287 -0.607967 0.232741 -0.202557 0.518996 -0.121564 -0.051073 0.398255 0.645239 0.191683 0.293418 -0.195049 0.876298 0.874718 -0.060782 -0.438562 -0.270213 0.040013 0.474395 0.974349 0.240087 -0.599624 0.637631 0.311687 0.439184 -0.303153 0.655233 -0.562772 -0.278749 0.207229 -0.910182 -0.568462 0.599262 0.322560 0.228982 0.118258 -0.799005 -0.822091 -0.483487 0.846234 0.369592 0.809931 -0.348814 0.245889 0.684649 0.590404 0.807328 -0.585564 -0.369583 0.281722 -0.611215 0.870504 0.682099 -0.973584 0.182191 0.121283 -0.276737 -0.162577 0.558511 0.444514 -0.955347 0.648329 0.876052 0.643915 -0.029111 0.105034 -0.237827 0.171884 0.282943 0.278686 0.018118 -0.347465 0.088616 0.669304 0.898424 -0.226735 0.259708 0.705751 0.187701 0.890124 -0.012526 0.576487 0.760628 -0.330428 0.602903 -0.057181 0.790855 -0.673834 0.780242 0.349366 0.770680 0.824895 -0.002305 0.646732 0.468810 0.968583 -0.248234 -0.769017 0.140467 -0.965291 0.509669 -0.841415 -0.312756 -0.401715 0.827889 -0.414332 0.371550 0.087597 -0.708581 -0.440749 -0.022279 0.278893 -0.864262 -0.261651 0.948465 0.738640 0.681168 0.739320 -0.935194 0.461410 0.088686 0.835486 0.286305 -0.913619 0.482219 -0.244884 -0.945036 -0.766015 -0.013901 0.195431 -0.731306 -0.504233 0.354017 -0.044062 0.094052 0.181906 0.541606 -0.534398 -0.730497 0.833025 0.024853 0.247224 0.111918 0.160591 0.985572 0.060383 -0.100769 0.666740 -0.200297 -0.035963 0.128150 0.888389 -0.200476 -0.585545 0.974770 -0.718257 0.169571 -0.970266 -0.484272 -0.844330 0.225165 -0.215578 -0.348563 -0.420818 0.740360 0.745488 0.761088 0.281966 -0.788910 -0.969409 0.114991 0.235943 0.277815 -0.773092 -0.603466 0.263387 0.287291 0.295765 -0.069873 -0.913005 -0.740198 -0.941723 0.975384 0.059326 -0.527267 0.950154 0.341069 0.642304 0.979888 0.856797 0.797973 0.205053 -0.358781 -0.550590 0.784236 -0.618421 -0.805102 0.545324 0.663544 -0.594012 0.575915 -0.221465 0.641931 -0.146271 0.005443 -0.961535 -0.882884 -0.707265 0.334230 0.047243 -0.620271 0.594032 0.105520 -0.644887 -0.346642 0.578253 -0.694732 0.994427 0.220556 -0.714844 0.851223 0.018529 0.490209 -0.507558 0.467939 0.274445 -0.125980 0.662837 -0.180232 -0.462435 -0.931175 -0.604317 0.316099 0.710757 0.249412 -0.678457 0.749222 0.366528 -0.385723 0.083451 -0.586229 -0.005994 -0.322517 0.519291 0.349120 0.330841 0.097544 0.654387 0.325268 -0.681900 0.939543 0.176491 0.336629 0.429752 0.668933 -0.195432 -0.295803 -0.457046 -0.532595 0.523965 0.080518 -0.463770 0.919649 -0.603382 -0.753013 0.169061 -0.281840 0.996208 -0.464411 0.332438 0.079660 -0.050640 -0.673556 0.757143 -0.531349 0.675564 0.087985 0.566195 0.329951 -0.586747 0.884295 0.269494 0.589744 0.220925 -0.300754 0.258677 -0.974507 0.403443 0.801631 -0.507102 -0.072591 -0.117851 0.029128 -0.152942 0.278767 0.276115 -0.983882 0.996928 0.272324 -0.448293 0.329365 -0.648017 0.501068 0.655809 -0.890873 0.969719 0.331373 0.197111 0.535914 -0.338676 0.610364 0.420210 0.930818 0.200108 -0.358866 -0.369935 -0.541215 -0.333373 -0.966492 -0.739584 0.159525 -0.039083 0.142565 -0.811347 0.807975 -0.578668 0.464768 0.824093 -0.581741 -0.262908 -0.624200 0.747624 0.089075 0.876868 0.403434 0.198202 0.846587 -0.265193 -0.604687 0.382501 0.396131 -0.994323 -0.197289 0.326949 0.205785 0.443845 0.957014 0.664569 -0.889528 0.990522 0.924985 0.269997 -0.048561 0.067550 0.458650 -0.240586 0.488881 -0.076582 -0.416493 0.907141 0.660510 -0.040693 0.654765 -0.250415 -0.163825 0.058199 0.947787 -0.317238 0.793005 -0.656900 -0.934736 0.189136 -0.651223 -0.132025 -0.483915 0.554562 -0.688180 -0.526901 0.219131 -0.577708 -0.536379 0.144116 0.692288 0.415060 -0.788334 0.150938 -0.825526 0.700547 -0.925644 -0.242019 0.607688 0.734866 0.717288 0.262453 -0.515549 -0.446537 -0.679348 -0.567762 0.236226 -0.886343 -0.224661 0.301489 0.302793 0.124116 -0.830536 0.818878 -0.321323 -0.518717 -0.708023 0.897808 -0.096425 -0.244403 0.041924 -0.404137 -0.829343 0.253590 0.746802 -0.654869 -0.045863 0.821158 0.103112 -0.438175 0.556024 -0.179600 0.824277 -0.959525 0.373863 -0.855071 -0.527286 -0.389912 -0.741414 0.248052 0.911578 0.561379 -0.627832 -0.918959 0.380257 0.050845 -0.437676 0.672233 -0.051346 0.465899 -0.572169 0.990578 -0.938237 -0.401512 0.244168 0.808564 -0.056382 -0.801695 0.629722 -0.953270 -0.239871 0.185746 -0.132870 -0.415593 0.226222 -0.759007 -0.270664 0.698936 -0.148919 -0.012078 -0.053012 -0.237341 -0.450699 0.319156 -0.156300 0.929558 -0.629999 0.406024 0.601791 0.318655 -0.128076 -0.970379 0.309233 -0.066314 -0.371891 -0.446599 -0.257749 0.571727 -0.248294 -0.628027 0.618457 0.511835 0.557720 -0.514413 -0.903758 -0.216059 -0.273420 -0.174422 -0.517123 0.577661 0.813500 0.429865 -0.659681 -0.637199 -0.250979 0.184019 -0.707642 0.119022 -0.409957 0.894149 -0.562323 0.461967 0.923771 0.746911 -0.604347 -0.448120 -0.699688 0.137904 -0.876393 0.052018 0.509877 0.742065 -0.436146 0.067597 -0.772348 -0.339904 0.851538 -0.045769 0.485673 -0.665585 -0.468108 0.299173 0.764279 -0.127788 0.661974 -0.486700 -0.943769 0.954332 0.632322 -0.353726 0.848481 -0.930001 -0.891759 0.772252 0.816910 -0.496106 -0.675868 -0.882778 0.641798 -0.552261 0.169240 0.151675 -0.810197 0.733094 -0.780728 -0.582545 -0.606811 -0.929190 0.371686 0.878863 -0.594776 0.903578 0.178036 -0.830496 -0.224210 -0.159990 -0.317197 -0.167980 -0.205658 -0.684875 0.478294 -0.357177 -0.614875 0.586535 -0.584925 -0.797965 -0.909570 -0.260793 -0.680743 0.732228 0.186945 0.488497 -0.116097 0.376748 0.221590 0.103174 0.794203 0.614780 0.173984 0.165889 0.493642 0.579208 0.069467 -0.328322 0.748712 0.845257 0.511688 -0.568485 -0.322723 -0.693970 -0.253360 -0.844428 -0.051147 0.131765 0.742107 0.363928 0.333800 0.832537 -0.896865 0.653056 0.564764 0.290080 0.141553 -0.551333 -0.333172 -0.636857 0.551841 -0.538969 0.977923 -0.274175 0.626920 0.471565 -0.694966 -0.303612 -0.856757 -0.946255 -0.458355 0.654931 -0.514740 0.218922 0.960961 0.231901 0.374494 -0.090186 -0.636334 0.116601 -0.726258 0.697465 -0.050863 -0.623123 0.350522 -0.486099 0.666957 -0.507925 -0.037432 -0.666215 -0.144782 -0.485590 -0.205183 -0.166859 0.240235 -0.578263 -0.695294 0.545269 0.118125 -0.552051 0.599014 0.659769 -0.897119 -0.915726 -0.121309 -0.936158 0.316175 -0.746815 -0.026343 0.679841 0.369786 0.247399 0.377306 -0.681077 0.624276 -0.272172 -0.167176 0.291233 0.219903 0.795392 0.625018 -0.924879 -0.690198 -0.580165 -0.091739 0.550037 -0.158428 0.212967 0.095306 0.959697 0.660917 -0.305681 0.619466 0.763798 -0.221406 -0.501843 0.827640 -0.905231 -0.248658 -0.198703 0.774609 -0.878872 -0.951304 0.151916 -0.559950 0.672972 0.879744 0.272875 -0.035795 0.099646 0.068267 -0.410776 0.174767 0.378069 0.009059 -0.916972 -0.071894 0.850630 0.295996 -0.976589 0.810327 -0.043087 -0.282269 0.429793 -0.279289 0.496324 0.927950 -0.451649 0.591093 -0.320707 0.349648 0.365702 -0.199580 0.398343 -0.482382 0.240471 0.071316 -0.602638 -0.486655 -0.964479 0.497008 0.581612 -0.375255 -0.328225 -0.040319 0.633803 -0.245196 0.887787 0.484434 -0.949200 0.911198 0.294761 0.007712 -0.371071 -0.275446 0.728423 -0.874747 -0.347496 -0.723226 0.716346 0.331797 0.626422 0.082048 -0.867783 0.024765 0.599666 0.372688 -0.903919 0.997028 0.886034 -0.868398 0.494036 0.467646 -0.243654 -0.834189 -0.572673 -0.609851 -0.079386 -0.684887 0.874583 -0.028586 -0.773689 0.169343 0.979127 -0.144760 0.893897 0.707550 -0.019507 -0.453599 0.984324 -0.303162 0.878197 0.610745 0.778886 -0.989586 -0.364490 0.378552 0.383102 -0.268409 0.375580 0.269136 -0.136808 -0.130385 -0.263218 0.619538 0.035426 0.164108 -0.990312 0.956041 0.479222 0.884270 -0.072545 0.705533 0.053614 -0.093419 -0.439227 -0.052490 -0.385869 0.541266 0.493911 -0.401545 -0.761895 0.372108 -0.790800 -0.983009 0.382523 -0.155290 0.395543 -0.234375 0.576301 -0.228877 -0.965239 -0.560507 0.640738 -0.228457 -0.940968 -0.323835 0.935651 -0.931281 -0.367795 0.414873 0.952990 0.559660 0.120407 0.006603 -0.533759 0.681180 0.954114 0.080372 0.222447 0.448025 0.678827 0.460551 -0.179867 0.888027 0.477543 -0.797344 -0.267263 -0.126914 -0.031719 -0.690962 0.644209 0.003042 -0.251469 0.284947 0.774585 -0.192437 0.961112 0.710237 -0.123718 -0.406683 0.125110 -0.170728 -0.847023 -0.754483 0.835875 -0.380782 0.926697 0.789989 0.699591 0.149144 0.238013 0.378418 -0.390305 -0.941854 0.266444 -0.912762 -0.739198 0.999181 -0.039676 0.229083 -0.691782 -0.395468 -0.767875 0.056749 0.889480 -0.993289 0.864312 0.850591 0.716947 -0.259406 -0.556092 -0.157943 0.569866 -0.403114 0.087574 0.405741 0.216104 0.014271 0.195730 -0.084305 -0.836585 -0.566257 -0.705888 -0.226890 -0.508111 0.560556 -0.139652 -0.247308 0.559737 0.820672 0.981775 0.867956 -0.574796 -0.786100 -0.075295 -0.685316 -0.779389 -0.210983 -0.834725 0.937558 0.529611 -0.390816 -0.220385 0.099476 0.206069 0.867189 -0.494783 -0.577827 -0.118540 0.700947 0.337868 0.044875 -0.865310 0.631980 0.817986 -0.373421 0.192537 -0.321666 0.379271 -0.247726 -0.500994 0.361045 -0.379771 -0.075790 0.574946 0.544934 0.238894 0.795556 -0.666049 0.404169 0.733114 0.863561 -0.986647 -0.487270 -0.036962 0.219422 -0.620081 0.468255 0.641596 0.261379 0.169201 -0.020536 -0.693745 0.303891 -0.388556 -0.875760 0.930470 0.803981 -0.197426 0.309740 -0.443745 0.301580 -0.329214 0.176485 -0.774210 -0.754269 -0.278581 0.464684 -0.958712 0.055370 -0.131147 0.774402 -0.081069 -0.117794 -0.712868 0.881968 -0.898371 -0.332950 0.350223 0.743225 0.928430 -0.480576 -0.277312 -0.765316 0.823315 0.334132 -0.641075 0.753785 0.138113 0.161499 0.063526 0.694368 -0.536921 0.734312 -0.129147 -0.311131 0.980043 0.592272 -0.846447 -0.978669 -0.352359 0.022407 0.795733 0.566572 0.904613 -0.917136 0.448540 -0.993758 -0.250085 -0.201237 0.749467 -0.321655 0.318188 -0.527845 -0.086971 0.141503 0.806287 0.271954 -0.104711 -0.055599 -0.566547 0.958814 -0.361231 -0.103468 0.693126 0.509622 0.585402 0.673169 0.101894 0.738955 0.694499 0.749535 -0.238638 0.490232 0.316107 -0.334025 0.573096 -0.235352 -0.327783 -0.676989 0.563411 -0.578316 0.001356 -0.118401 -0.106161 0.914385 -0.976898 -0.299874 0.186338 -0.081609 0.644527 0.619792 -0.122795 -0.716704 -0.483676 -0.429669 0.792918 -0.898275 -0.756500 -0.105188 0.840680 0.937999 -0.355652 -0.397958 0.428231 0.960455 0.268017 0.001327 -0.274897 0.940234 0.324338 -0.711486 -0.638082 -0.674306 0.170114 0.255756 -0.759922 0.193216 0.955882 0.426417 -0.888393 0.600409 0.046208 -0.011188 0.883705 0.562532 0.559143 0.676623 0.664258 0.802643 -0.428564 0.504938 0.740642 0.215784 
-0.893020 0.168873 0.176239 0.374997 -0.829799 0.901342 0.315232 0.494539 -0.810143 0.677150 0.820233 0.359970 -0.067094 -0.939689 -0.446814 -0.111212 0.486728 -0.335207 -0.510803 -0.467064 0.653606 -0.627098 -0.904531 0.212749 -0.950474 0.759726 0.015392 -0.379038 0.264664 -0.243965 0.836746 0.371644 0.924908 0.012985 -0.253358 -0.904891 -0.085673 -0.938127 0.589648 0.104183 0.739023 0.409881 -0.535846 -0.328071 0.470192 0.017340 0.560717 -0.043080 0.682133 -0.950085 0.489857 0.335739 -0.577183 0.585325 -0.451512 -0.527657 0.345051 0.563881 0.093305 -0.390285 -0.680085 -0.069950 0.981360 -0.755176 0.943035 -0.271999 -0.660067 -0.142638 -0.210125 0.929581 0.961545 -0.471102 0.339462 -0.574301 0.200826 -0.190346 0.443038 -0.238456 0.766575 0.125171 -0.188542 0.256431 -0.539090 0.234276 -0.158244 0.009398 0.706618 -0.813193 -0.426721 -0.200077 -0.203477 -0.106806 0.729973 -0.222118 0.138018 0.673008 0.505884 0.477951 -0.469630 -0.704242 0.407532 -0.508085 -0.175344 -0.253006 -0.082386 -0.974518 0.556648 -0.639348 -0.212974 0.323223 0.485823 0.598485 -0.420346 0.946734 -0.167240 0.421410 -0.043868 -0.460621 0.608218 0.529411 0.339302 -0.595260 -0.577395 0.069275 0.182623 0.560623 -0.257716 -0.311493 0.038574 0.272654 -0.015735 -0.553894 0.764569 0.808921 0.193100 -0.317817 0.834404 -0.250252 0.042835 -0.378570 -0.927029 -0.471342 -0.780085 -0.347375 -0.524608 0.052675 -0.925965 0.431524 0.592053 0.682252 -0.039066 -0.068645 -0.913007 0.383539 -0.999369 0.269616 -0.055838 -0.257086 0.958122 0.982736 -0.984432 -0.057613 -0.571158 0.780137 -0.248692 0.621942 -0.537680 -0.414288 -0.628310 0.505154 0.207142 -0.555339 -0.966188 0.427056 0.097285 -0.490796 -0.520269 0.171320 0.940728 -0.928215 -0.146428 -0.098338 0.003140 -0.059435 -0.714799 0.003770 -0.789819 0.229364 0.746685 -0.831697 0.212100 0.762253 0.110690 0.640942 0.542390 0.861998 0.262884 -0.995290 -0.552290 0.634574 0.509865 0.654852 -0.920765 0.543677 0.081908 0.176520 -0.947119 0.561640 -0.652160 0.993609 0.633424 0.201412 -0.104729 -0.363436 -0.858023 0.180472 0.640334 -0.647842 -0.590165 0.387019 -0.479539 0.621935 0.149272 0.631151 0.262877 -0.308337 0.493149 -0.474239 -0.303627 0.940859 -0.839665 -0.793762 0.595711 -0.760430 0.749915 -0.322380 0.416090 0.802796 -0.760740 0.763930 0.796405 0.872684 -0.034658 -0.308324 -0.490752 0.107320 0.872147 -0.850418 0.459478 -0.718017 0.536601 0.979938 0.903918 -0.314127 0.611089 0.166795 0.377536 0.104238 0.692556 -0.926092 0.045098 0.852891 -0.719854 -0.359191 -0.907539 -0.969939 0.318429 0.508550 0.832857 0.557689 0.272480 0.629262 0.430372 -0.762178 -0.679062 0.939620 0.345142 -0.806915 -0.910798 -0.195381 -0.524932 0.625802 -0.215442 -0.621015 -0.688325 -0.604353 0.545780 0.689211 0.499885 0.238336 0.763119 -0.455017 0.091227 -0.956735 0.185792 0.183688 -0.926674 -0.495779 -0.307762 0.906184 -0.938090 0.964718 0.535446 0.492282 -0.797460 0.856384 0.431902 0.547682 -0.950531 0.521103 -0.647699 -0.475464 0.146906 0.136859 -0.096478 0.458581 0.532506 -0.550698 0.147792 0.032392 0.687638 -0.089088 0.577375 -0.221135 -0.045823 -0.236833 0.962553 0.027504 0.267388 -0.345209 -0.066313 0.329298 -0.380492 -0.530867 -0.178420 -0.177952 -0.674484 -0.746518 -0.630271 -0.625015 0.774585 -0.277970 -0.100479 -0.078509 0.858889 0.803043 -0.619928 0.391395 -0.747655 0.527864 -0.576213 0.939984 -0.561224 -0.998838 -0.281151 0.392953 -0.235672 -0.318598 -0.579543 -0.968284 0.336193 0.354144 0.361014 0.955701 0.823277 -0.817406 -0.222251 -0.851207 -0.563924 0.147478 -0.476222 -0.789339 0.869509 0.423300 0.132152 0.728398 0.226343 0.512224 0.119794 0.478688 0.040088 0.543581 0.418672 0.478864 0.544742 -0.862479 -0.128182 -0.690930 -0.181077 0.292274 -0.659213 -0.844884 -0.353582 0.701801 -0.889183 -0.530305 0.884395 -0.111434 -0.381512 -0.679529 -0.963956 0.142267 -0.468868 0.905553 -0.434434 0.663283 0.633951 0.791909 0.175507 -0.246256 0.270598 -0.784405 -0.702675 -0.310730 0.694459 0.842067 -0.173209 -0.433723 -0.848863 0.645714 0.858551 -0.508076 0.800830 -0.495030 -0.806275 0.911647 -0.025335 -0.921880 -0.199787 0.593153 -0.601409 -0.163743 -0.264580 -0.070277 -0.258191 0.300986 -0.406994 -0.624240 0.092896 0.768513 0.129505 -0.636507 0.984108 0.426829 0.052763 0.678567 0.268896 0.879554 -0.755156 0.420034 0.525268 -0.896605 0.911958 0.326099 -0.391636 -0.894317 0.237746 0.583029 -0.816197 -0.962042 0.176182 -0.417606 -0.125785 0.911602 0.512117 0.616024 0.212589 -0.894878 0.991784 -0.694515 0.873635 0.121289 -0.331022 0.857743 -0.451882 0.721741 0.536310 0.817015 0.601295 0.781154 0.237049 0.126564 0.884548 0.149007 -0.547338 -0.507087 0.254690 0.690408 -0.924058 0.438493 0.728366 0.252124 -0.979113 -0.397419 0.163727 0.533004 -0.781394 -0.623684 0.638126 -0.789610 -0.318200 0.511761 0.331679 0.350778 0.369504 0.879797 0.072519 -0.094186 0.696812 -0.326186 -0.313033 -0.066139 0.800378 -0.428484 -0.917132 -0.746960 0.064429 0.337557 0.943448 0.140371 -0.223950 0.671815 -0.607505 -0.203063 -0.725604 0.556222 -0.670060 -0.506998 0.932538 0.968067 -0.296608 -0.385662 0.479828 -0.964929 0.965116 -0.150668 0.914868 0.037635 0.755146 0.611681 0.711450 -0.557887 -0.454458 0.511827 0.013629 -0.371591 0.764868 -0.921942 0.965966 0.708316 0.218429 -0.257984 0.380130 0.610924 0.538953 0.654526 0.167146 0.868894 -0.852472 0.099683 0.836960 -0.149081 0.714021 0.316788 -0.114010 0.679137 -0.833880 -0.199141 -0.283228 0.921266 -0.587461 -0.571778 -0.636621 -0.041919 0.940049 0.377008 0.586490 0.704917 0.455066 0.552456 0.413232 -0.326506 -0.705527 -0.206637 -0.715582 0.833426 -0.552111 0.451564 0.702320 -0.404584 -0.448753 0.539280 0.446336 -0.734732 -0.143931 -0.667674 0.944405 0.022188 0.133185 -0.338823 -0.056546 0.545724 0.089399 0.306833 -0.496195 0.029448 -0.316159 -0.909705 -0.265635 -0.861094 0.642751 -0.852402 -0.187599 0.937223 -0.059040 0.096819 0.770649 0.388849 -0.451618 0.472969 0.984265 0.099629 0.012250 0.430601 0.364897 0.868318 0.762927 0.309303 -0.109493 -0.103888 0.970480 0.833961 -0.558164 0.059879 0.140794 -0.054360 -0.910672 0.824634 0.035935 -0.176307 0.963541 -0.321314 -0.028709 -0.224059 -0.384091 0.912251 0.872760 -0.613442 0.301099 -0.578857 0.859528 0.285364 0.520772 -0.128223 -0.284035 -0.114331 -0.259904 -0.521108 -0.805028 0.630603 0.375004 -0.834548 0.464564 0.816839 0.225331 -0.394643 -0.237520 0.314659 -0.570008 0.798414 -0.861648 -0.606467 -0.522900 0.109643 0.169474 0.093009 0.021894 0.042234 0.479567 -0.677007 0.463377 0.339095 0.608358 -0.015851 -0.789128 -0.675677 0.869818 -0.049032 -0.196785 -0.935210 -0.418429 -0.821781 -0.769758 -0.953866 0.995058 0.455574 -0.348508 -0.242462 -0.229767 0.081484 -0.444048 -0.091415 0.475016 0.033052 -0.981772 -0.355510 -0.873939 0.040122 0.686724 0.605628 0.363115 0.150101 -0.055278 -0.028528 -0.865750 0.155595 0.295795 -0.995932 -0.893437 -0.900990 -0.931141 -0.311866 -0.722771 -0.700899 -0.265732 -0.727713 0.754675 0.385760 0.029824 -0.475092 -0.532757 0.585776 0.433493 0.942260 -0.381172 0.451721 -0.413250 -0.255111 -0.508157 -0.726526 -0.649483 0.854958 0.423575 0.295239 -0.173570 0.557825 -0.549166 -0.877775 0.561894 -0.442603 -0.778765 0.630753 0.245530 -0.501536 0.929854 0.979798 -0.229249 0.684529 0.365558 0.800575 -0.790564 0.832802 0.386351 0.642929 0.775061 -0.994820 0.094651 -0.638189 -0.249931 0.586493 -0.364715 0.100585 0.441451 -0.941140 -0.604176 -0.732119 0.616686 -0.153342 -0.609894 0.178579 0.404055 -0.388659 -0.190668 -0.350415 0.109804 -0.260815 -0.370617 0.880555 -0.576286 0.994942 0.681130 -0.366849 0.827743 0.067481 -0.723920 0.602805 0.072661 0.370731 0.964616 0.822730 -0.042776 -0.400100 -0.076685 -0.601325 -0.341239 0.319139 -0.333445 -0.724554 -0.834202 0.056661 0.454025 0.569853 0.668001 -0.736643 -0.780562 -0.222194 0.002543 -0.151179 -0.341639 0.426257 -0.156237 -0.660510 -0.940593 -0.328494 0.406972 -0.664513 -0.725689 -0.520367 0.706218 -0.761074 -0.697638 -0.336558 -0.161173 0.225677 0.062117 0.497588 -0.455183 0.728672 0.773034 -0.289386 -0.214667 0.227059 -0.719533 -0.546666 0.490416 -0.500095 0.231139 -0.507041 0.348726 0.889500 0.919216 -0.807511 -0.771010 0.978623 -0.136005 0.635962 -0.685889 0.138306 -0.884405 -0.979671 0.377232 -0.582043 -0.316229 -0.783941 0.643635 0.745887 0.713646 -0.811549 0.474559 0.486680 -0.100934 -0.740108 -0.286261 0.179533 -0.286775 -0.795845 0.679437 0.944365 -0.302886 0.028163 0.833865 -0.383670 0.220652 -0.937145 -0.405047 -0.915353 0.698817 -0.090937 0.222952 0.814412 -0.070608 -0.399816 -0.767631 0.613163 -0.183757 0.876004 0.359050 -0.470111 -0.935545 -0.166391 -0.983431 -0.036479 0.093500 -0.269692 -0.856946 0.806726 -0.065537 0.822491 0.751091 0.631577 -0.149346 0.584955 -0.752093 -0.928694 0.647810 -0.157140 -0.844047 0.346628 0.751923 0.378905 0.161040 -0.318685 0.979089 0.393409 -0.705523 -0.204668 0.269413 0.653527 0.325221 0.333868 -0.512864 0.341791 -0.702611 0.580636 -0.927901 -0.559557 0.387362 0.006562 -0.737066 0.138452 -0.361860 0.113588 -0.276592 -0.113953 0.184894 -0.628782 0.728906 0.340847 0.717846 0.480829 -0.280248 -0.121115 -0.837856 -0.301158 -0.727706 -0.543379 0.494174 0.541707 -0.889852 -0.180605 -0.124425 -0.402716 -0.838814 0.172964 -0.822080 -0.766715 0.613407 0.565282 0.239847 0.876341 -0.296266 0.877987 -0.010071 0.427142 -0.235966 -0.825176 0.798360 -0.507060 0.515671 0.516206 0.973769 -0.764577 -0.604909 -0.864087 -0.065735 -0.332615 -0.407466 -0.571562 -0.790907 -0.297318 0.247834 0.084668 0.299966 0.409020 -0.742368 0.477886 0.642304 0.871039 0.043168 -0.117848 0.747380 0.746902 -0.239861 -0.262691 0.174044 0.524172 -0.087868 -0.027596 -0.982888 -0.572197 -0.511391 0.990882 -0.336773 -0.116299 -0.873205 0.597491 0.551086 -0.280671 -0.974070 0.760179 0.422012 0.273763 -0.155153 -0.278022 -0.317217 0.102478 -0.800136 -0.674913 -0.026483 0.243032 0.207239 -0.279103 -0.010066 0.967377 0.458206 -0.836022 0.491549 -0.629662 0.136382 0.508662 -0.201858 0.624992 0.499543 0.461368 -0.491308 0.626338 0.058859 -0.940222 -0.654333 0.084789 0.819957 0.767679 -0.641448 -0.335196 -0.510343 0.041335 0.767282 -0.310479 0.366422 -0.259201 0.932554 -0.426339 0.461696 -0.077512 -0.458962 -0.080098 0.086466 -0.967413 0.290240 -0.777152 0.541249 -0.911618 0.847840 0.040792 0.549750 -0.643468 -0.332870 -0.391391 -0.583690 0.012797 0.693398 -0.763732 -0.219524 -0.948050 -0.098929 0.270133 0.093285 -0.331647 0.959655 -0.540293 0.409153 0.892208 0.033367 -0.129151 -0.185304 0.574405 0.790751 0.901163 0.606992 0.080991 -0.875989 0.148241 0.169373 0.971851 -0.810967 -0.280877 -0.671617 -0.143837 0.327732 -0.255307 0.868960 0.021130 -0.019039 -0.350563 0.073080 0.882032 0.919570 -0.833635 -0.449615 0.879225 -0.373928 0.959538 0.771434 0.659439 -0.169613 -0.413870 0.233844 -0.378862 -0.512707 -0.159163 0.702129 -0.388696 0.989078 -0.128498 -0.416845 -0.821889 0.590624 -0.088462 0.034274 -0.081644 0.656231 -0.096766 0.939486 -0.362808 0.552671 0.012566 -0.480776 0.472241 0.178930 0.069610 0.351467 0.805002 0.029148 0.122900 0.464441 0.859535 0.709031 -0.301714 -0.519328 -0.803677 0.539122 -0.817199 -0.192373 0.528200 0.054303 0.390782 0.706311 -0.355073 -0.697680 -0.259416 0.563284 0.958551 0.643819 0.502769 -0.404257 0.196490 -0.484665 0.114968 -0.331269 0.694265 -0.815422 -0.979802 0.499267 0.213725 0.143098 -0.036291 0.073260 -0.147871 0.661994 0.553933 0.048452 0.201116 0.736734 0.856080 -0.270684 -0.208963 0.246862 -0.564373 0.435965 0.549181 0.176211 -0.000752 0.507733 -0.179970 -0.497983 -0.896524 -0.983480 0.017352 0.218444 -0.314749 -0.288382 0.403022 -0.294551 -0.789115 -0.383253 0.848548 0.174594 0.690007 -0.299323 -0.163412 0.243940 0.749129 -0.962296 -0.019326 0.605209 -0.232980 0.771711 -0.147930 0.202647 0.207675 -0.598748 -0.621142 -0.793077 0.908984 0.198888 -0.291059 -0.987540 0.215408 0.726293 0.230904 0.900659 -0.562089 -0.366074 -0.393892 -0.351204 0.250673 -0.545344 0.823389 -0.059320 0.155332 -0.340023 -0.815380 -0.095539 -0.302319 0.165293 -0.490330 0.464701 -0.062996 0.361740 -0.332652 -0.855321 0.762992 0.046206 -0.648397 0.671976 -0.754906 0.060544 0.684437 0.460502 -0.213163 -0.084659 0.361161 0.224747 0.549266 0.967269 0.873543 -0.200061 -0.578075 0.696932 0.740619 0.577257 -0.643090 0.925238 -0.518282 0.054591 0.090532 -0.008612 -0.480708 -0.972464 -0.646872 0.186640 -0.827785 -0.883880 -0.767154 -0.476182 0.788096 -0.522059 0.584361 0.472533 0.938443 -0.628802 -0.612126 0.299604 0.595945 0.937140 0.266873 0.469489 -0.262921 0.688797 0.166421 -0.522302 0.266054 0.523331 -0.597064 0.747772 -0.422079 0.493468 -0.260840 0.097213 0.521003 0.092289 -0.716147 0.693218 0.208409 -0.483301 -0.782964 -0.003495 -0.005360 0.801397 -0.530962 -0.066918 -0.827405 -0.143088 -0.767314 0.768540 -0.205948 0.499559 0.238029 0.531131 0.188356 -0.595550 -0.991172 -0.545590 0.927780 -0.588236 -0.797818 -0.494298 0.905232 -0.058658 0.602915 0.426235 -0.966369 0.886768 0.119453 0.242040 -0.596533 0.336489 -0.761455 0.398107 0.137886 -0.292417 -0.668811 0.310481 0.564495 -0.436125 0.079021 -0.641454 -0.936566 -0.682950 0.889677 0.251789 -0.278500 0.898505 0.706199 -0.350720 -0.689731 0.908381 0.154982 -0.784499 -0.150276 -0.242104 0.641736 -0.116645 -0.355336 -0.238811 -0.874606 0.048131 -0.902322 -0.636061 -0.553762 0.235563 0.071522 -0.222573 -0.453956 -0.363984 0.341302 0.625065 -0.005438 0.404736 0.942115 -0.115761 -0.343475 -0.336385 -0.217256 -0.637276 0.312895 0.093013 -0.728894 -0.532123 0.308514 0.120829 0.225773 -0.049750 -0.995816 0.870437 0.711439 -0.870422 -0.081432 0.809117 -0.506483 0.364805 0.044681 0.565038 -0.857768 0.590725 -0.798945 0.483534 0.215790 0.195617 -0.111731 0.157905 -0.920144 0.544794 0.821519 -0.137400 0.907519 0.134414 0.955614 -0.821376 0.602290 0.264128 0.299453 -0.171937 -0.785622 0.303637 -0.301500 0.925818 0.433215 0.617068 0.734935 0.926732 -0.018127 -0.220384 0.491770 0.124105 -0.629659 0.692825 -0.392361 0.586130 -0.111558 0.495908 -0.255965 -0.031702 0.040703 -0.434446 0.830898 -0.051778 0.699968 0.786512 0.126846 0.302258 0.050640 -0.573701 -0.869678 0.265018 0.729936 -0.171178 0.190836 0.163151 -0.554110 -0.074229 0.089882 0.427763 0.705387 -0.418348 -0.448131 -0.924272 -0.725523 0.159508 0.661858 0.162919 -0.344584 -0.594107 -0.868784 0.696119 -0.028553 0.962115 -0.355659 -0.328585 0.748626 0.771187 0.973674 -0.200734 -0.802514 -0.896005 -0.935716 0.927422 -0.067183 0.255120 0.090573 0.378708 -0.819108 -0.819545 -0.193529 0.886279 -0.237893 0.358340 0.962006 0.036584 -0.482152 0.623864 -0.800497 0.173264 -0.970243 -0.669281 -0.130616 0.001205 -0.707166 0.513725 0.672620 -0.958540 0.284911 0.646293 -0.159273 0.482397 0.750289 -0.094989 0.409818 -0.316894 -0.839869 -0.499609 -0.938186 -0.658977 -0.319154 -0.131715 -0.772699 0.442953 -0.773375 -0.810692 -0.520463 -0.255527 0.813172 -0.320960 0.917737 0.842929 0.009760 -0.212879 -0.155866 0.302594 -0.699154 -0.483246 0.344054 0.585757 -0.836953 -0.815220 0.068153 0.913336 0.089791 -0.522028 -0.403558 0.249922 -0.021637 -0.341744 0.590945 0.659209 0.526541 0.818247 0.102162 0.753166 -0.992446 0.581699 -0.502361 0.820727 -0.739261 -0.584624 0.663656 0.270499 0.202497 -0.492210 -0.426908 0.503343 0.024544 0.917146 0.089099 0.187591 -0.898073 -0.842747 0.100927 0.191718 -0.364776 0.697369 -0.558360 0.613587 -0.644375 -0.967414 0.272795 0.882166 0.850832 -0.625043 0.635332 0.858387 0.956656 -0.867029 0.679113 -0.782605 -0.451652 0.342769 0.487894 0.750845 0.850559 -0.939014 0.254187 -0.124897 0.978133 -0.656713 -0.937306 -0.919941 -0.499461 0.163621 0.271777 0.135764 -0.139010 0.713417 -0.250649 0.216616 0.746003 -0.977854 0.098782 0.596835 -0.602897 -0.265885 0.455222 -0.646240 -0.132914 0.134335 -0.428845 0.415434 -0.522896 -0.940951 0.166278 -0.672336 -0.879964 -0.579534 0.202767 -0.901832 -0.236247 0.265461 -0.821773 0.264292 -0.570918 0.450004 -0.599944 0.290073 0.163421 0.149407 -0.493312 -0.090576 0.171553 0.605471 -0.493740 0.568656 -0.660415 0.961481 0.922416 0.206671 0.095817 -0.506429 -0.377895 0.572921 -0.447380 0.788383 0.900584 -0.327345 -0.791151 0.103351 -0.229176 -0.027399 -0.631188 -0.050949 -0.763106 -0.202106 -0.600945 -0.363051 -0.912033 0.562476 0.786356 -0.405345 -0.528099 -0.042091 -0.799874 -0.021840 -0.473435 -0.460289 -0.060358 -0.551019 0.746382 -0.964542 -0.057448 -0.631514 0.608379 0.495172 -0.843131 0.508964 -0.832172 -0.634282 -0.387685 -0.061349 0.338320 -0.018873 0.887702 0.575213 0.779021 -0.713243 -0.787837 0.866988 0.849233 0.998519 -0.538357 -0.678866 -0.043572 -0.338231 0.299294 0.482993 0.201480 -0.761064 0.931974 -0.052138 -0.725606 -0.125474 0.316348 0.882773 -0.630302 0.473218 0.391737 -0.462474 0.838936 -0.995948 0.476177 0.177255 -0.014821 0.363879 -0.247531 -0.235800 0.650636 -0.035369 -0.368812 0.499869 -0.036850 0.092831 0.821003 0.919578 0.754600 0.120297 0.402571 -0.043920 0.359233 0.334545 0.903942 0.633627 -0.790929 0.220290 0.516401 -0.421231 -0.306492 -0.091862 0.116295 -0.467557 -0.087810 -0.407528 0.709699 0.897368 0.956351 -0.537833 -0.338432 0.606987 0.426798 0.292755 0.106856 -0.610052 -0.614414 -0.072141 -0.690474 -0.859814 -0.951844 0.712096 0.096266 0.407389 0.046641 0.000207 0.041017 0.255712 -0.779503 -0.442583 0.834482 -0.085995 0.465555 -0.049223 0.446448 -0.622255 0.543249 0.156147 -0.724887 0.499600 0.618314 -0.063319 0.106587 0.045112 -0.770564 -0.786557 0.435060 -0.384978 0.141302 0.744586 -0.244792 0.189458 0.456683 0.851473 -0.403153 -0.496676 -0.148319 0.637863 0.759036 0.072178 -0.804719 0.593518 0.986183 0.660836 -0.455706 0.432631 -0.961419 -0.912457 -0.411223 -0.686307 0.587143 -0.792909 0.250374 -0.306270 0.252203 0.479810 -0.092827 -0.312736 -0.905168 -0.951525 -0.568150 -0.149961 0.237932 0.888532 -0.298488 0.834779 -0.608144 0.553193 0.472643 -0.849108 -0.374629 0.667923 0.744410 -0.388446 0.328759 -0.711296 -0.955816 0.367340 -0.623753 -0.367038 0.681033 0.963390 -0.159947 -0.068593 -0.342879 -0.907744 -0.588783 0.564294 -0.220480 -0.493951 0.612768 0.211369 0.356088 -0.149300 0.099902 -0.942400 -0.314520 0.491758 0.610793 -0.841878 0.642650 -0.763836 0.826045 0.387060 -0.152283 0.154805 0.675764 -0.108098 -0.477856 -0.947989 0.524863 -0.796822 -0.984599 -0.635084 0.134585 -0.327478 -0.542828 0.545802 -0.763185 0.236692 -0.948149 0.849584 -0.551938 0.407938 -0.299716 0.547963 0.465538 0.385764 0.039721 0.076331 0.543886 -0.317629 0.312495 0.369931 -0.930569 -0.839788 -0.475264 0.745194 0.052114 0.046880 0.797205 -0.423023 0.250058 0.812606 -0.058106 -0.615357 -0.514872 0.399066 0.930445 -0.278057 -0.364242 0.982296 -0.428473 0.083820 0.390235 0.271811 -0.368217 -0.144227 -0.342426 0.671504 0.932104 -0.798540 -0.646125 0.244599 0.571391 -0.576694 0.404812 -0.903873 -0.831499 -0.543074 0.143007 0.965706 0.033903 -0.606935 0.778312 0.975797 -0.222292 -0.736560 0.374863 -0.291846 -0.014616 -0.989379 -0.309550 0.556910 0.094441 -0.919316 -0.171279 0.726224 -0.063543 0.486296 0.397728 -0.131438 0.687756 0.751603 -0.886839 0.259147 -0.825090 0.517973 0.355274 -0.656590 0.974899 -0.501719 -0.690884 0.008802 -0.108654 -0.912571 -0.015401 0.669055 -0.649131 -0.640538 -0.622792 0.336252 -0.629917 0.067658 -0.106837 0.464524 0.148343 0.721884 0.190747 -0.915200 0.208180 -0.411525 -0.046638 -0.104065 -0.659921 0.066523 -0.844918 -0.485012 -0.415504 0.510356 -0.141602 -0.440605 -0.991362 0.167515 0.568198 -0.100016 0.254943 -0.447203 -0.430961 0.605812 -0.087741 -0.053753 -0.057935 0.282342 -0.986094 0.835227 -0.253135 0.162248 0.557111 0.937613 0.247048 -0.234709 -0.473912 -0.799590 0.661227 -0.133834 0.266934 0.816309 0.381155 0.851430 0.326666 -0.760447 -0.589174 0.335303 0.407068 0.979023 -0.764713 -0.337989 -0.468180 -0.195674 -0.732177 0.444078 0.750574 0.209888 -0.273580 0.764479 0.045115 0.473285 -0.073273 -0.397774 0.410898 -0.826224 0.367518 0.936986 -0.625814 0.028744 -0.196848 0.641120 -0.154947 -0.815693 0.492550 -0.828281 -0.576140 0.903376 0.507022 0.830927 0.882399 0.742310 -0.507062 -0.585781 -0.453364 -0.239239 0.858297 -0.702791 0.970649 -0.415283 -0.938311 0.015764 -0.941998 -0.011584 0.617990 0.468900 0.162192 -0.014492 0.405886 0.536378 -0.985748 -0.790961 0.177498 -0.140695 -0.606654 -0.329952 0.031024 -0.182795 -0.426576 -0.461954 -0.351867 -0.544177 -0.719644 0.141071 -0.129958 -0.173009 0.901832 -0.271661 0.124201 0.872481 0.313056 0.185889 -0.111755 0.371058 -0.825695 -0.493765 -0.160041 0.336497 0.491743 -0.754155 -0.127124 0.505995 -0.545116 -0.949626 -0.634700 -0.151771 -0.279578 0.396324 0.665434 0.293846 0.934371 -0.686433 0.749669 -0.785274 0.454638 -0.380289 0.041718 0.356471 0.348050 -0.834082 0.228952 -0.338894 0.351808 -0.882803 -0.967836 0.526113 -0.376568 -0.127877 -0.137389 -0.884825 0.117968 0.735486 0.621171 0.572852 0.785860 0.986471 -0.578919 -0.493718 0.382795 -0.913485 0.800129 0.317166 -0.599918 0.549798 0.531892 0.854721 -0.830491 -0.426390 0.211191 0.517559 -0.260472 -0.559857 -0.821336 -0.908664 -0.442660 -0.789171 0.617450 0.180773 0.082952 -0.519940 0.295948 -0.799080 -0.784453 -0.082881 0.773771 -0.998593 -0.096411 -0.805148 -0.492310 -0.713615 -0.718633 -0.692182 0.603551 -0.318551 0.857616 0.135443 -0.463830 -0.972875 0.709053 0.747361 0.544683 -0.551419 -0.812495 0.723348 -0.460083 -0.255155 0.934176 -0.842633 0.925618 0.017128 -0.362573 0.221566 0.218047 -0.147026 -0.861316 -0.008182 -0.145619 0.042274 0.186670 0.362070 0.328659 0.468037 0.669889 -0.067791 -0.850514 0.527505 -0.932348 -0.314344 0.554630 0.776705 -0.566983 0.099313 -0.774714 -0.379478 -0.177339 -0.234797 0.365367 -0.243163 -0.077430 0.290985 0.773965 0.559997 -0.487449 -0.007988 -0.587029 -0.348765 0.983830 0.267352 0.693509 0.170500 -0.370578 0.022168 -0.361463 -0.700689 0.954377 -0.211977 0.826816 -0.977971 0.473679 0.381445 0.798734 0.906696 -0.519242 -0.975980 -0.472782 0.303419 -0.210777 0.892585 -0.939744 0.711792 0.183571 0.834221 0.271789 0.696122 -0.173767 0.684760 -0.652643 -0.189937 -0.047888 -0.959134 0.980563 0.581535 0.063034 -0.380900 0.880845 0.017411 0.407123 0.707661 0.039440 -0.119198 0.089107 -0.161826 -0.212502 0.569865 -0.137807 0.314717 -0.126716 0.651416 0.207302 -0.066460 0.363208 -0.609127 -0.232239 -0.365002 -0.913006 0.593994 -0.680242 -0.565649 -0.595943 0.271870 -0.524782 -0.615380 -0.146596 0.538252 0.003721 -0.265750 -0.444337 -0.589156 -0.558089 0.595102 0.291647 0.531018 -0.566724 -0.920855 0.100883 0.295469 0.393862 0.974167 -0.053115 -0.398836 -0.092293 -0.689907 -0.007963 0.675468 -0.054909 0.079031 0.269462 0.264849 0.513382 0.673519 -0.463281 0.988600 -0.941860 0.390123 0.526852 0.061861 -0.875627 -0.917486 0.472705 -0.433716 0.677617 -0.235648 -0.902698 -0.889107 -0.156503 0.198185 0.406362 -0.762642 0.172352 -0.646753 -0.161478 -0.919941 -0.336659 0.830559 0.755527 0.608431 -0.090410 0.024990 -0.126720 -0.577028 -0.301491 0.409998 -0.588428 -0.243351 -0.199878 0.938423 0.818509 -0.075505 -0.979062 0.291214 0.490779 0.698554 -0.944434 0.588081 0.809447 -0.100937 -0.213734 0.215809 0.136421 0.958617 0.569057 0.974943 -0.961324 -0.767603 0.805502 0.794204 0.840829 -0.284908 -0.180807 -0.285892 0.138064 0.517702 -0.875893 0.549636 -0.725649 -0.075772 0.488059 -0.907140 0.848723 0.508997 0.384075 0.339502 0.207551 0.439641 -0.072418 0.016998 -0.661296 0.713848 -0.767193 0.475125 0.672466 0.801864 0.450068 0.711142 -0.965739 0.255570 0.505346 0.875090 0.970662 -0.675461 -0.410802 0.108725 0.842241 -0.286695 -0.341639 -0.883408 0.637533 -0.853580 -0.790547 0.486256 0.655417 0.593528 -0.174242 -0.137033 0.033169 0.753341 0.879965 0.371872 0.467189 -0.887227 -0.153003 0.139654 0.914636 -0.702935 -0.149204 0.948898 0.552635 -0.643858 0.823987 0.523297 -0.319319 -0.586815 -0.367978 -0.477078 0.126490 0.290383 -0.360486 -0.235976 0.436803 -0.151034 -0.749720 0.092220 -0.557506 0.076038 0.955187 0.475663 -0.170621 0.835153 -0.152465 -0.703433 0.947925 0.694532 
0.436221 0.862562 0.991598 -0.712983 0.811459 0.544233 -0.356841 0.635446 0.067530 0.323840 -0.951368 0.699552 0.846761 0.175122 -0.010065 -0.513725 0.939146 -0.573262 0.335242 -0.810574 0.518958 0.777736 0.265464 0.474145 0.253399 -0.905158 0.309298 -0.899066 -0.608590 0.257223 0.795466 0.827631 0.119784 0.787064 -0.885351 -0.068756 0.331297 -0.242192 -0.433310 -0.601173 -0.918353 -0.384679 -0.901621 0.928409 0.790443 0.088314 -0.585316 0.729589 0.515052 0.749926 0.919014 0.034010 0.527662 0.184478 -0.491845 -0.218939 0.279321 0.817453 -0.118006 0.670730 0.074676 -0.322539 0.498361 -0.805540 -0.535476 0.613010 0.125703 0.795821 -0.629182 0.692393 -0.805352 -0.547535 -0.692285 -0.706973 -0.619126 -0.901842 0.381341 -0.204442 0.827747 -0.103607 -0.454516 0.746761 0.930403 -0.926854 -0.068760 -0.561441 -0.145793 -0.789440 -0.743989 0.736201 0.881290 0.330687 -0.586338 0.379652 0.525147 -0.121814 -0.007338 -0.349150 -0.325993 0.363479 -0.656756 -0.131345 0.815944 -0.349042 0.161682 -0.803182 -0.250884 -0.456977 -0.007623 -0.423137 0.439416 0.537861 -0.676375 0.369819 0.611007 0.254864 0.808377 -0.534786 0.465424 -0.935611 -0.798585 0.346715 0.395076 -0.384923 -0.273633 -0.079778 0.493264 0.719028 0.571073 -0.832729 0.082508 0.914316 0.035926 -0.101548 -0.434726 -0.802392 0.095271 0.314391 -0.259369 -0.912353 0.891254 -0.819953 0.625508 -0.785121 0.549866 0.236515 0.469743 0.358243 0.701730 -0.064833 0.422632 0.903145 -0.718118 -0.182293 -0.481778 0.008249 0.737930 -0.988514 -0.272723 0.309003 -0.821243 0.809785 0.223319 0.214683 -0.291763 0.788593 0.412291 0.803508 0.102984 -0.847078 0.891155 -0.005762 -0.667031 0.516664 0.209117 0.882834 -0.246821 -0.321140 0.241077 -0.545091 0.614027 -0.336291 -0.641946 0.895909 0.481416 -0.123724 -0.095842 0.219346 -0.112238 0.631435 -0.471651 0.066519 0.441220 0.751668 -0.718798 -0.850543 0.540261 0.693493 0.952965 -0.356755 0.846415 0.844121 0.637483 -0.820616 0.360784 -0.153400 -0.937782 -0.886037 0.525460 0.303295 -0.431128 0.139487 0.967004 -0.073074 0.035396 0.448420 0.803202 0.939554 -0.332233 -0.309036 0.570989 0.196116 0.757482 0.012209 -0.052217 -0.961316 0.161666 -0.511956 0.732177 0.114631 0.131289 0.578592 -0.041248 -0.231228 0.757976 -0.680464 0.615372 0.820193 -0.566500 0.140831 0.123488 0.002372 -0.719682 0.090492 0.929298 0.315714 -0.461087 0.732500 0.255268 0.206680 -0.576536 -0.173744 -0.597205 -0.819054 0.838465 0.350578 -0.780370 0.000131 0.838622 0.951807 -0.885237 -0.030089 0.530399 0.073515 0.738683 0.288375 0.393051 0.354054 0.108568 0.826551 -0.505115 -0.767944 -0.171077 -0.224797 0.322549 -0.241779 -0.909083 0.861462 -0.509279 0.346185 0.068141 -0.085816 -0.827559 0.470936 0.095130 -0.989093 -0.178485 0.314761 0.011038 -0.339863 0.266568 0.125801 0.630048 -0.203033 -0.800685 0.368731 -0.914659 0.592367 -0.277215 0.193909 0.418918 0.217670 0.425966 -0.752159 0.992874 -0.251485 0.006062 -0.916209 -0.390023 0.496783 0.429976 0.678118 -0.589032 0.602418 0.149054 0.506098 0.613324 0.970569 -0.179141 -0.375638 -0.369294 -0.912574 0.750163 -0.739246 -0.115607 0.949478 0.629485 -0.030265 0.541845 -0.647730 -0.836356 -0.039237 0.569940 0.589610 0.208604 0.562814 -0.661875 -0.785334 0.646605 -0.051899 0.711449 0.076581 -0.373781 -0.877583 -0.321002 0.775273 0.628515 -0.707677 0.745842 -0.550626 -0.083315 -0.623452 -0.463200 -0.333152 -0.362697 0.421193 -0.383674 -0.733212 -0.609072 -0.841829 -0.380942 -0.445428 0.118934 -0.811002 -0.855819 -0.672462 0.751812 -0.517694 -0.457796 0.398417 0.430407 -0.746347 -0.525002 -0.943374 -0.623930 0.153996 0.831899 -0.995415 0.446319 0.577742 -0.546041 -0.636996 0.954290 -0.009241 0.029851 -0.408407 -0.588048 0.646177 -0.141619 -0.197121 0.804348 0.477439 0.357451 -0.076718 0.666437 0.501632 0.250820 0.418248 0.983938 0.793024 -0.183335 0.414346 -0.953322 0.291663 0.470972 -0.577252 -0.554341 0.302871 -0.572667 0.891978 -0.119387 -0.118708 -0.745019 -0.165097 0.872051 0.284833 0.426496 -0.715998 -0.068990 -0.715123 0.086882 -0.264642 0.762315 -0.555668 0.658641 0.428752 0.945965 -0.090539 -0.153000 0.929903 -0.297515 0.663665 0.344249 -0.250837 -0.044672 -0.184779 0.171911 0.400987 -0.881908 0.599244 0.292965 -0.001295 -0.519464 0.547947 0.833608 -0.647414 -0.167221 0.260104 -0.363412 0.763789 0.544981 0.723470 -0.500853 0.307297 -0.832197 -0.842212 -0.263952 -0.886233 0.067249 0.583049 -0.956329 0.769734 0.246714 0.387919 -0.481104 -0.797957 -0.796860 0.690807 0.603030 -0.678768 0.290051 -0.104005 0.319938 0.770586 -0.556058 0.153546 -0.876828 0.276721 -0.586350 -0.240239 0.040510 0.958631 -0.516769 0.539657 0.265928 -0.348967 0.697445 -0.998024 -0.235199 -0.235306 0.585025 -0.191529 -0.465572 -0.168261 -0.803609 0.053324 0.033782 -0.600469 -0.255869 -0.363188 -0.279236 -0.965819 0.532807 -0.959299 0.804767 0.976748 0.194247 0.927940 0.253469 0.607897 -0.312299 -0.706021 0.566529 0.170931 0.833637 -0.167543 0.821965 0.531082 -0.165567 -0.413234 -0.704224 -0.580542 0.395237 -0.169796 0.251197 0.591628 0.883527 -0.715021 0.991159 -0.372342 -0.078209 -0.288077 -0.338161 -0.545402 -0.247376 -0.533393 -0.568654 0.946871 -0.605454 0.684815 0.554768 0.082247 0.978795 0.121297 -0.746822 0.812431 0.953754 -0.924857 0.343514 -0.211813 -0.338091 0.639290 0.207645 -0.942854 -0.530506 -0.541157 0.648774 -0.646979 -0.256178 0.639934 -0.019321 0.665613 -0.648144 0.642518 -0.879790 0.104480 -0.890875 -0.448444 0.051351 -0.496329 -0.763628 -0.393881 0.585918 -0.784834 0.727417 0.839097 -0.972402 0.681170 0.914240 0.371111 -0.530643 -0.423851 0.010401 0.677002 -0.366704 0.479895 -0.864155 -0.717930 0.832916 -0.120333 0.922004 -0.186405 -0.454721 -0.726140 -0.543887 -0.334510 0.378340 -0.434762 0.217046 -0.570309 0.068910 0.453418 0.035811 -0.345172 0.668584 -0.236773 -0.506076 0.696182 -0.555602 -0.591835 0.067293 -0.086245 -0.015686 -0.922306 -0.409243 0.617609 0.557589 -0.273398 0.899679 0.390505 0.606269 0.821683 -0.795900 -0.848451 -0.904457 -0.339787 -0.182962 0.473883 0.225452 -0.965916 0.903575 -0.705639 0.487502 -0.060615 -0.050811 0.156086 0.702613 0.443114 -0.147732 -0.852989 0.851278 0.919562 0.060766 -0.164408 0.997256 0.651523 -0.546799 0.554845 -0.621875 -0.647119 -0.054650 0.984395 -0.825436 0.149450 -0.864057 -0.729893 0.809664 -0.047019 0.743990 0.035115 -0.012934 0.647564 0.329477 -0.525432 -0.413050 -0.721334 0.630655 -0.710438 0.721779 -0.517077 -0.563427 0.573057 -0.597516 0.497339 -0.591351 -0.600260 0.148862 -0.138150 0.954586 0.526987 0.214731 -0.100064 0.511381 0.389294 -0.950614 0.647325 0.659401 0.859050 -0.399694 0.403391 -0.105834 0.587372 0.050955 -0.776358 -0.938060 0.637905 -0.497692 0.692595 0.927467 -0.775913 -0.824482 -0.635960 0.797144 -0.421998 0.861379 -0.794206 -0.022257 0.010240 0.067644 -0.067672 -0.462773 -0.717625 0.832264 -0.951391 0.671669 0.881650 0.695933 0.331070 0.740700 -0.703761 -0.265539 -0.365134 0.883612 0.785416 -0.141492 0.945552 0.423321 0.360816 0.638147 0.350788 0.584903 0.813665 0.714828 0.382048 -0.608333 0.576207 0.587841 0.369409 -0.413553 -0.344515 -0.698263 0.123674 -0.062140 -0.865999 0.172283 -0.390471 -0.984348 -0.131784 0.940599 0.756352 0.164456 -0.324940 -0.608782 0.048067 -0.539523 0.249726 -0.006381 0.883797 -0.389458 -0.368234 0.234585 -0.804554 -0.554569 -0.050587 0.577493 -0.162903 -0.474380 0.165335 -0.793493 0.112067 0.820820 -0.491756 -0.764258 -0.241320 -0.357755 0.408025 0.368209 -0.342103 -0.723758 0.308808 -0.585751 0.440697 0.983869 -0.194532 -0.511235 -0.555655 -0.944806 0.482384 -0.671857 -0.334264 -0.885850 0.562728 -0.138818 -0.440419 -0.487859 -0.561325 0.396678 0.037761 0.604010 0.603185 -0.850171 0.424830 -0.888571 -0.614429 -0.816490 -0.246325 0.793596 0.551718 0.411572 -0.930163 -0.139473 0.825821 0.510535 -0.155604 -0.368711 0.999300 0.288741 -0.313517 0.481684 0.616883 0.352219 0.595834 0.179611 -0.786599 -0.844585 0.691752 -0.347924 0.552094 -0.270487 -0.743914 0.155279 -0.120658 0.680916 0.266708 0.264913 0.864426 -0.979617 0.058508 0.416144 0.431954 0.128345 -0.723329 0.257776 -0.361120 0.121067 0.889064 -0.361820 -0.590192 -0.424453 -0.880136 -0.973309 0.927766 0.715698 0.206302 -0.858833 0.871113 -0.101946 -0.206757 0.423207 0.627567 0.049329 -0.421514 -0.493090 -0.269755 0.845194 0.771822 -0.405329 0.865577 -0.169670 -0.989185 0.297531 0.958676 -0.712514 -0.444693 -0.402444 0.408552 -0.555629 0.235736 0.818360 0.019918 0.355599 0.845051 -0.052316 0.071297 0.051353 0.088851 -0.057589 0.949407 0.882093 -0.634382 0.576975 -0.068578 -0.055896 -0.916116 0.661668 -0.210702 0.855706 -0.743662 -0.345126 -0.313963 -0.732847 0.952405 -0.355288 -0.445361 -0.492288 0.242268 0.963192 -0.047917 -0.521996 0.781552 0.972001 0.833603 0.626602 -0.080315 -0.095099 -0.322045 -0.991464 0.847311 -0.372638 0.890629 -0.787071 -0.795663 -0.177948 0.157033 -0.711779 -0.516281 0.946330 -0.856073 -0.259942 -0.398796 -0.170036 0.007211 -0.446390 0.474676 0.561850 0.061322 -0.283056 0.525042 -0.986595 0.194948 0.306593 0.985407 0.028552 -0.066805 -0.094908 0.933452 0.611151 -0.086372 0.780763 -0.761487 -0.195742 0.993692 -0.557150 0.626310 0.150725 -0.268929 -0.889971 0.097055 -0.125002 -0.149913 0.698260 0.704961 0.857298 -0.748131 0.179638 0.419148 0.313191 0.896582 -0.055811 0.326597 0.091530 -0.749218 0.312003 -0.879918 0.183978 -0.782905 -0.946466 -0.204872 0.130724 0.834298 0.033641 0.934981 0.827990 0.476491 0.561291 -0.021285 -0.792438 0.671320 -0.924230 0.082560 -0.478594 0.774030 -0.212479 -0.621296 -0.974101 0.967159 0.797851 0.339091 0.863741 -0.257960 -0.334313 -0.044729 -0.007177 0.977691 0.075354 -0.823200 -0.805214 0.128888 -0.028071 0.325510 -0.036814 -0.994430 0.260491 -0.208824 0.482062 -0.178218 0.769891 0.689624 -0.506899 0.845661 -0.227816 0.014507 0.619691 0.559705 0.393211 0.645590 0.526864 0.191063 -0.015319 0.390605 0.933103 0.650368 -0.654124 -0.074074 0.628059 0.421230 0.102726 0.822845 -0.449882 -0.925345 0.148354 0.513303 -0.919775 -0.591155 -0.695521 0.562287 0.230627 -0.925630 0.251910 0.723728 0.920030 -0.975906 -0.261765 0.539721 0.583799 -0.868554 0.185311 0.110663 0.322509 -0.830008 -0.498733 0.255612 0.820360 -0.152856 -0.818462 0.448419 -0.731627 0.284264 0.271263 -0.181509 0.358918 -0.580382 -0.668206 0.439144 -0.171537 -0.363727 0.001430 -0.940911 -0.289358 -0.746660 0.782817 -0.369327 -0.722566 -0.478947 -0.829606 0.861233 -0.347501 0.355705 -0.028104 0.975008 0.525697 0.473163 0.230620 0.346057 -0.679693 0.412158 -0.205525 -0.411320 -0.303578 -0.934261 0.407171 -0.944660 -0.514644 0.738965 0.494484 0.313819 -0.624762 -0.504086 0.372909 0.085880 -0.250746 0.155726 0.716553 0.026689 0.676778 0.886947 -0.112078 -0.670722 0.242652 0.859818 -0.695714 -0.231651 0.332981 0.534906 -0.885594 0.653288 -0.052936 -0.091118 -0.758032 0.643485 -0.025380 0.649139 0.698825 0.459977 0.388104 0.193309 -0.226204 0.763342 0.689223 -0.853296 -0.150777 -0.561523 0.302430 -0.434224 0.465165 -0.020791 -0.547277 -0.646913 0.308486 0.695375 -0.787095 0.612772 -0.536276 0.545886 0.147678 -0.421870 0.199173 -0.905258 0.487012 0.441141 0.738227 -0.538368 0.090280 0.437053 0.921609 -0.521615 -0.369638 -0.304595 -0.758273 -0.680415 -0.157891 0.090949 -0.241938 -0.855461 0.656725 -0.776773 0.123748 -0.890552 -0.423686 -0.567766 0.804823 -0.210781 -0.954993 -0.731453 -0.664895 0.192685 -0.153323 0.534278 0.287427 -0.666310 -0.024581 0.025654 -0.204678 -0.934301 -0.537293 -0.283069 -0.455916 0.093069 0.412336 -0.214189 0.412654 -0.745555 0.876760 -0.829285 -0.601015 0.533485 -0.606058 0.522733 0.642932 -0.029743 0.954967 0.447755 0.759475 0.999974 0.716302 -0.905420 0.192658 -0.437020 0.628858 -0.519915 -0.103331 -0.395723 0.505739 0.691991 -0.330024 0.968447 -0.591078 0.214060 0.061516 0.821258 0.999871 -0.525830 -0.924297 0.876631 -0.355115 -0.525312 0.410116 0.038828 0.997421 0.053048 -0.990916 0.952388 -0.499197 0.768560 0.952362 -0.782895 0.863140 0.145020 -0.219915 0.491997 0.625105 0.676754 -0.903726 0.130845 0.368745 -0.233750 0.099291 0.777668 0.980311 -0.839193 0.598926 0.980182 -0.365023 0.674629 0.856813 0.279862 -0.850683 0.266928 -0.681310 -0.853262 -0.680024 -0.672226 -0.900874 -0.179221 -0.903667 -0.948513 0.037885 0.959473 0.196507 0.817970 0.451470 -0.178388 0.494724 0.547744 0.952457 -0.136530 -0.686005 0.051748 -0.358863 -0.705695 0.212555 -0.759937 -0.725513 0.847532 0.914693 -0.868700 0.127394 -0.935990 0.398228 0.446084 -0.789252 0.718204 0.773857 -0.690126 -0.461016 0.870191 -0.638639 0.576868 0.829663 0.557868 0.394838 0.281133 -0.620519 -0.110438 -0.171122 -0.668062 0.753032 0.142872 0.383686 -0.605831 0.437178 -0.403759 -0.365768 0.711665 -0.556227 -0.451075 0.842965 0.571167 -0.387065 0.241193 0.017251 -0.176317 -0.040603 -0.208892 0.133557 0.498381 -0.338701 0.494918 0.075249 -0.509038 0.052786 -0.529913 0.772096 0.432267 0.359650 -0.399027 0.764205 0.112682 0.743846 0.147891 0.506851 0.181024 0.744132 -0.858917 -0.107311 -0.812095 -0.309992 -0.264346 0.759073 0.302944 0.976846 -0.223676 -0.873373 -0.063757 0.567432 0.260183 -0.565376 -0.771269 -0.244899 0.509873 -0.280307 0.807887 0.979960 -0.508211 0.240154 0.339610 0.092762 0.004358 -0.547708 -0.163392 -0.847751 0.959143 -0.982368 0.896381 -0.899774 -0.089680 -0.915714 -0.209766 0.645974 0.843359 -0.906822 0.622820 -0.380318 -0.780196 -0.440937 -0.812886 0.479988 -0.006313 -0.584155 -0.764911 -0.496440 0.135538 -0.957025 -0.516479 0.627327 0.283129 0.823131 -0.279911 -0.712512 -0.724577 0.556697 -0.560264 -0.765435 0.574328 -0.663883 -0.665209 -0.515352 -0.579596 0.125025 -0.869378 -0.736238 0.218203 0.753442 -0.116555 0.438007 -0.687494 0.070559 -0.082005 0.306193 0.486404 0.153084 0.809754 -0.378058 0.196059 -0.706726 -0.750731 -0.520812 -0.883595 -0.030643 -0.233324 -0.608172 -0.473946 0.206412 -0.373607 -0.899618 0.542530 -0.038816 -0.414970 0.962933 -0.913791 -0.284347 -0.773304 0.304412 -0.530905 0.110141 -0.257581 -0.218399 -0.819300 0.660414 -0.912206 0.667104 -0.186502 0.897548 -0.710954 -0.990443 -0.809178 -0.461685 -0.511255 -0.692772 0.507672 0.255421 -0.300945 -0.966274 -0.538167 0.325448 -0.865892 -0.995638 -0.713368 -0.280862 0.967296 -0.627159 0.434791 -0.806009 0.677253 0.903886 0.304132 -0.580328 -0.314513 0.484831 -0.919914 -0.226719 0.151935 -0.106416 -0.329171 0.440981 -0.096859 -0.138349 0.979296 0.391886 0.168878 0.486968 -0.352693 0.867934 0.520694 0.109139 0.193382 0.654801 0.113502 0.480014 -0.626061 0.080797 0.852854 0.808730 0.274789 0.530107 0.712616 -0.421080 0.949779 -0.601897 -0.936248 -0.970134 0.171383 0.215687 -0.076550 0.842212 -0.343332 0.826591 -0.296137 -0.364036 0.218477 0.872741 -0.877068 0.865784 0.740675 0.643625 -0.025077 -0.065943 0.298427 -0.911575 -0.585929 0.672366 0.169222 -0.733075 0.481096 -0.555989 0.797032 0.193712 0.022931 0.746811 0.591815 0.086683 0.776677 -0.236801 -0.697630 -0.299873 -0.394589 -0.040961 -0.473282 0.309274 0.595003 0.745195 0.182015 0.717935 0.610978 -0.077310 0.361560 -0.414099 0.856747 -0.340013 -0.325674 -0.729183 -0.667647 0.843548 -0.462258 0.813450 -0.712441 -0.665226 0.007162 0.310490 -0.918414 -0.401023 -0.602827 0.858263 0.362176 -0.300457 -0.441610 0.967587 0.658582 0.085107 0.276860 0.253585 -0.169698 -0.541125 -0.028480 -0.558719 0.381565 -0.666920 0.027182 0.238311 -0.006933 0.701508 0.509129 0.325420 0.545056 -0.953129 0.138870 0.832615 -0.618355 -0.853968 0.143105 -0.536769 -0.254990 0.540278 -0.678506 -0.892815 -0.760179 -0.120117 -0.925228 0.898403 0.964991 0.351632 0.151988 -0.204707 0.810507 -0.876493 0.236574 0.192072 -0.543413 -0.736244 -0.569617 0.449654 0.965264 0.939512 -0.224926 0.510320 0.986382 0.913944 0.342935 -0.631972 -0.940023 -0.513960 -0.168742 -0.195014 -0.973682 0.152752 -0.087828 -0.733861 -0.967365 -0.013056 -0.835458 0.997626 -0.661424 0.316530 -0.207081 -0.850918 0.440037 -0.970507 0.341154 0.896624 -0.706751 0.771537 0.346278 -0.741487 0.711049 -0.878648 0.768833 0.697431 -0.964703 0.111767 -0.934541 -0.904726 0.597807 -0.103283 -0.099740 0.624125 -0.950531 0.812432 0.890264 -0.917895 -0.200625 -0.945194 -0.920269 0.137951 0.371335 -0.127350 0.287033 -0.188628 -0.097856 -0.371812 -0.292004 0.195392 -0.600275 -0.945726 0.453905 -0.889227 -0.824373 0.222738 0.808204 -0.789076 -0.665495 0.873663 -0.693803 0.932312 -0.229620 0.206457 0.556437 -0.180151 0.018889 0.446701 -0.098046 0.818265 0.501507 -0.018315 -0.043784 -0.127158 0.854335 -0.756751 0.684215 -0.243522 -0.128563 -0.607789 0.951871 0.271161 -0.553515 0.405776 0.381934 -0.377888 -0.371486 0.190139 -0.166964 -0.036981 0.063801 0.139233 -0.104669 0.834181 -0.654309 -0.548232 -0.345970 0.364580 0.898469 0.555984 0.182845 0.399976 -0.462332 -0.860940 -0.727182 -0.607997 -0.617691 0.957033 0.148482 0.253746 -0.650756 0.100353 -0.475093 -0.204271 -0.493871 0.906841 0.417841 0.134642 0.096980 -0.749123 -0.902339 -0.839219 0.390110 -0.007008 0.994962 0.735801 0.444760 -0.351007 0.100381 0.343230 -0.795024 -0.716775 -0.256794 -0.257355 -0.577714 0.016024 0.134648 -0.195405 -0.026943 -0.716870 -0.941659 0.322301 0.383482 -0.416752 -0.881970 0.889611 -0.509911 0.535872 0.024254 0.587069 0.786749 0.121915 0.747851 0.176859 -0.885093 0.742813 -0.087340 0.559667 -0.608194 -0.986959 -0.097103 -0.403218 -0.703734 0.646102 0.339426 -0.281448 -0.337873 -0.525926 0.523147 0.635184 -0.242796 0.581487 -0.042515 -0.859314 -0.835265 0.075516 -0.969703 -0.345176 -0.388613 0.054551 -0.758107 -0.601864 -0.823535 0.989744 0.574995 -0.708628 0.732557 -0.512345 0.851039 -0.875638 -0.499304 -0.246064 -0.278856 -0.203038 -0.599961 -0.939430 0.515514 0.062165 -0.465356 0.038661 -0.302651 0.291848 -0.379852 0.654834 0.432534 -0.215117 -0.269650 0.462832 0.439707 0.341738 -0.482617 0.681600 0.739874 -0.306152 0.671344 0.314869 -0.014780 0.403900 0.802524 -0.163741 0.528262 -0.696780 0.590196 -0.750594 0.100182 0.990234 -0.690023 -0.384303 0.052399 -0.155379 0.654358 0.749748 -0.863531 -0.725494 0.404583 0.569004 0.059389 -0.865067 0.031835 -0.500904 0.476670 0.549218 -0.819304 0.216544 -0.756934 0.852039 -0.468587 0.228286 0.255940 -0.666063 -0.935455 -0.215798 -0.362843 0.654741 0.033608 0.737339 0.644975 0.343585 -0.646964 -0.302626 -0.811795 -0.992606 -0.552877 -0.675325 -0.718100 0.851705 0.893678 0.341289 0.986638 -0.074486 0.840385 0.463309 -0.525268 -0.978919 -0.320147 -0.282202 0.873120 0.211266 0.946084 0.129059 0.545202 -0.989371 0.913261 -0.817641 0.665370 -0.053131 0.919698 0.310345 -0.709546 -0.727266 -0.992280 -0.521341 -0.719873 -0.545158 -0.196666 -0.437973 -0.693452 -0.302987 0.903315 -0.706814 0.622526 0.743700 0.756495 -0.902742 0.764781 -0.563652 -0.184944 0.637901 0.647613 -0.238860 -0.233040 0.192816 -0.228231 -0.319779 0.375174 -0.562861 0.627091 0.294872 0.747484 0.917545 0.567606 0.755204 -0.603796 0.847733 -0.789954 0.199538 -0.590241 -0.483406 0.896551 -0.686925 -0.190220 0.519077 -0.943225 -0.433725 0.616335 0.821556 0.002622 -0.568609 0.459456 -0.349764 0.192531 -0.773583 0.843051 0.964300 -0.093362 0.218225 -0.598561 -0.466271 -0.486902 -0.851076 -0.548726 -0.919297 0.904127 -0.152523 0.928436 -0.885827 -0.952985 -0.661805 -0.369233 0.943566 -0.348730 0.440547 0.462643 -0.291955 -0.993178 0.078978 -0.470399 0.009444 0.510369 0.989057 0.659680 -0.297099 -0.784526 0.502731 -0.332799 0.122112 -0.279044 0.068640 0.655841 0.234054 0.217563 -0.892886 0.314757 0.121691 -0.045408 0.243193 0.235864 0.001607 0.581388 0.866631 -0.054827 -0.767342 0.307178 -0.592184 -0.059297 0.314000 0.486794 0.470304 -0.676556 -0.002836 0.459361 0.983123 0.700064 0.674835 0.485854 -0.632735 -0.203053 -0.793190 0.435904 -0.547212 0.440864 -0.346532 -0.440097 -0.244379 0.775158 0.514494 0.998814 0.011023 -0.483898 0.580202 -0.122346 0.461275 0.812860 -0.815168 0.869091 -0.246437 0.498832 0.355885 -0.776133 0.822276 -0.646952 0.683229 0.805399 -0.946888 0.358064 0.291253 -0.579623 -0.844989 0.498064 0.856282 -0.392200 -0.061073 -0.490251 0.167702 0.694548 -0.715092 -0.317803 0.693362 0.295930 0.198298 0.273564 -0.826416 -0.340427 0.086423 -0.641583 -0.471337 0.839987 0.857249 0.884548 -0.936146 0.679525 -0.762404 0.747082 0.484924 -0.709291 0.105146 -0.223823 -0.288914 0.260158 -0.725759 -0.432633 0.867957 0.213168 0.077117 0.035660 -0.092283 0.362025 0.717856 -0.398921 -0.342045 -0.083846 0.874642 -0.168461 0.575727 -0.038934 0.189956 -0.895610 -0.198948 0.047205 0.988938 -0.135094 -0.273270 -0.773466 -0.388012 -0.788346 -0.482757 0.717135 -0.012169 0.228329 -0.022707 0.262072 0.795696 -0.154750 -0.524759 -0.127187 0.880910 0.382958 -0.765162 0.598766 0.984037 -0.107207 -0.485080 0.858679 0.724332 -0.909353 -0.180255 -0.085712 -0.804963 0.620797 0.961493 -0.816025 -0.514297 -0.311777 -0.589490 0.097692 -0.100123 -0.072247 -0.185173 0.887709 -0.843919 0.792119 0.149781 0.951778 -0.362631 0.625022 -0.175409 -0.481721 0.007979 0.059428 -0.882956 -0.007984 0.952221 -0.368036 -0.149305 0.676553 -0.277389 0.670440 -0.409158 -0.082352 0.291237 -0.447665 0.101624 0.776941 0.240558 0.512133 -0.125368 -0.859565 -0.560114 0.689459 -0.971856 -0.404033 0.481578 0.177925 -0.452255 -0.881053 -0.197053 0.372335 -0.362774 0.810926 -0.568236 -0.245730 -0.197058 -0.616015 0.386234 0.653637 -0.939462 -0.891155 0.324077 -0.348621 0.026494 -0.384686 0.203714 -0.871883 -0.607745 -0.555728 0.640251 0.266887 -0.415292 -0.919864 -0.043654 -0.387148 -0.323896 -0.562076 0.790777 0.223848 -0.443129 -0.406277 -0.403816 0.194097 -0.595351 0.027947 0.948367 0.207591 0.411932 0.334601 -0.138771 0.472469 0.443446 -0.814695 -0.876151 -0.530060 -0.199380 0.327563 -0.401942 0.192874 0.771835 -0.761692 -0.540239 -0.643457 -0.681555 0.416108 -0.030605 -0.005452 0.854032 -0.239829 -0.781604 -0.589097 0.353895 -0.185420 0.605000 0.758544 0.842527 0.553367 -0.033865 0.254459 -0.112032 0.827364 -0.273072 -0.668586 -0.987331 -0.149223 -0.198646 -0.186711 -0.821660 0.399411 -0.993837 0.950176 0.637720 -0.534075 -0.693281 0.956164 0.882032 0.276114 -0.049288 0.736064 -0.963715 0.169109 -0.853033 0.390180 0.983689 0.751967 0.148724 0.826216 0.305334 -0.885141 0.080674 -0.806699 0.942223 0.807603 -0.475285 0.954892 -0.341620 0.326069 -0.231819 -0.163280 -0.274520 -0.225655 -0.213105 -0.636800 0.240269 0.093614 -0.680636 0.122301 -0.630272 0.270076 -0.141635 -0.593987 -0.560815 0.005333 0.796192 -0.577127 -0.242700 -0.055084 -0.750911 -0.937367 0.059775 0.329763 -0.744066 0.001998 0.137366 -0.219351 -0.043110 0.795746 -0.893282 0.725072 -0.367534 -0.167801 -0.500584 0.419362 0.195398 0.739685 -0.487024 0.514762 -0.138013 -0.117296 -0.215161 0.720352 0.288716 0.224023 -0.274315 0.084908 0.646897 0.482984 -0.970176 0.895985 0.545617 0.089599 0.225749 0.801552 -0.908403 -0.636885 -0.417799 0.048487 -0.841139 -0.311080 -0.226441 -0.208673 0.521118 0.272975 -0.789311 -0.283483 0.012660 -0.276335 -0.768721 0.874647 0.606368 0.016117 0.594999 -0.104916 -0.759859 -0.679316 0.979993 0.887037 0.803668 -0.990183 0.783023 0.349285 0.099417 0.008772 0.150837 0.191014 0.371887 0.733038 -0.760499 0.530748 -0.578042 0.013060 -0.677925 0.943076 -0.713965 -0.467236 -0.340407 0.298695 0.256429 -0.109128 0.173342 -0.137203 0.906989 -0.231659 0.757881 -0.852870 0.089025 0.737874 -0.965833 -0.107307 0.747692 0.817190 -0.758022 -0.152892 -0.174039 0.392816 -0.961878 -0.802152 0.125854 -0.722377 0.728596 0.547812 0.290683 -0.949329 0.490888 0.576718 -0.416565 -0.849519 -0.124587 0.839864 0.041352 -0.951245 -0.297339 -0.051659 -0.182903 -0.539458 0.095471 0.906122 -0.801583 0.129638 -0.201185 0.946108 -0.053172 0.040794 -0.206784 0.772789 -0.566391 -0.168662 0.970637 0.559463 0.108961 0.699233 0.107275 -0.600356 0.749904 -0.401837 0.976361 -0.666661 -0.251356 -0.148226 -0.826798 0.789995 -0.099470 -0.124137 -0.261663 0.717626 0.336406 0.833807 0.623749 0.534822 -0.036555 -0.577436 0.480930 0.910273 0.463357 -0.725853 0.683062 0.896967 0.105485 0.653699 0.456430 -0.785554 0.352931 -0.436295 -0.385911 
0.102835 0.161868 -0.409549 0.436174 0.910512 0.442225 0.609376 0.700507 -0.657245 -0.514761 -0.561156 -0.939619 0.821645 -0.727349 0.684130 0.356467 0.236096 -0.893307 -0.162603 0.146369 0.570051 0.111544 -0.170570 0.467018 -0.782971 -0.516871 -0.076552 -0.568525 0.836060 0.487153 0.045565 -0.061105 -0.350979 0.636015 -0.624931 -0.440467 0.078240 0.984445 -0.739960 0.420995 -0.530316 -0.301117 0.481376 -0.708671 -0.028466 0.165506 0.647796 -0.792370 0.272199 -0.514807 0.353999 -0.157750 0.596738 -0.816571 -0.690732 0.813767 -0.333442 0.232715 -0.754758 -0.497382 -0.280132 0.290807 0.441513 0.368889 -0.073178 0.816581 0.928421 -0.994937 0.801026 -0.811539 0.426058 -0.729290 -0.112655 -0.092566 -0.437961 0.858879 -0.927061 -0.790165 -0.933491 0.345138 -0.304972 0.420508 -0.812612 -0.708234 0.603937 -0.503344 -0.894467 -0.729505 0.729371 -0.649225 -0.226888 -0.550761 0.641582 -0.785375 0.818128 -0.431596 -0.968794 0.746549 -0.426533 0.832232 0.935011 0.999525 -0.897058 -0.177645 -0.093042 -0.335019 -0.318766 -0.020102 -0.125184 -0.252257 -0.674964 0.569844 -0.831749 -0.487575 0.861610 0.772188 0.009081 0.967143 -0.957318 -0.261548 -0.682081 -0.184206 0.187691 0.959501 0.030419 0.005819 -0.472095 0.061626 -0.247632 0.101372 -0.106142 -0.312621 0.100897 -0.003199 0.509734 -0.992145 0.661782 -0.809032 -0.012247 -0.463402 -0.061289 0.312789 -0.893557 0.106962 0.825213 0.968053 -0.120851 -0.165706 0.935197 -0.078168 0.572746 -0.746885 0.737626 -0.239563 -0.787384 -0.231954 0.766256 -0.259479 0.829671 -0.481376 0.841893 -0.276470 0.206003 -0.057210 0.720330 -0.284263 -0.049356 0.382112 -0.093295 0.938397 0.918710 0.845416 0.251186 -0.974847 -0.047622 0.076399 0.993206 0.831528 0.910693 0.928403 -0.246641 0.483439 -0.818482 -0.509015 -0.756124 -0.605866 0.259031 -0.989869 0.134655 0.088702 -0.471245 -0.023452 0.812232 0.734758 0.919338 0.532562 -0.549505 -0.130018 -0.085326 0.357201 -0.191621 -0.166615 0.202617 -0.940435 -0.141462 -0.845005 0.135964 -0.148256 0.986523 0.046657 -0.219853 -0.260118 -0.469904 -0.038335 0.230867 -0.226028 0.355799 -0.510102 -0.215897 -0.509546 0.578600 0.312858 0.467002 0.390832 0.047616 0.386340 -0.076606 0.498112 -0.743678 0.838068 -0.144687 0.064701 -0.328548 -0.942070 0.124266 0.529990 -0.787075 -0.739770 -0.618266 -0.800552 0.306887 0.161881 -0.060670 0.836983 -0.876455 -0.829802 -0.389045 0.479344 -0.339905 0.395058 0.969798 -0.761304 -0.292084 0.436800 0.629527 0.755533 -0.176860 -0.447079 0.253644 0.079462 -0.609011 -0.891043 -0.855838 0.062441 -0.833113 0.268428 -0.407569 -0.620187 0.528658 -0.025835 -0.420739 -0.164455 -0.863954 0.518591 -0.327472 -0.740408 0.688789 0.283483 0.738936 -0.651116 -0.321459 0.708734 -0.412420 0.386457 0.145534 -0.782893 0.141990 0.968673 -0.229972 -0.604366 0.048135 0.161016 -0.495408 0.192297 -0.776543 -0.328521 -0.539274 -0.184112 0.051292 0.989384 0.790054 0.630552 -0.175071 0.926100 0.149144 0.497458 -0.814309 -0.162068 -0.219059 0.924627 0.186817 0.459482 0.633361 0.774396 -0.154060 -0.221106 0.991503 0.987930 -0.252432 -0.238469 -0.616436 0.795703 0.922547 -0.111844 -0.012000 -0.853996 0.559634 0.448726 -0.038107 -0.389074 0.438109 -0.248054 -0.758522 -0.736961 -0.321954 0.390622 0.760496 -0.136262 -0.771446 -0.458563 -0.211635 0.415371 -0.999080 -0.578274 0.189767 -0.153141 0.200620 0.181270 -0.165211 0.948188 0.942801 0.218353 0.743890 0.865348 -0.893492 -0.268110 -0.988648 0.666143 -0.819384 -0.026755 -0.722931 0.618725 0.725191 -0.481453 0.881764 -0.596762 0.909169 0.642260 0.266975 -0.862276 -0.816302 -0.944660 0.553094 -0.815383 -0.522935 -0.257138 0.031477 0.677685 0.924132 0.866266 0.625873 0.866933 0.084618 0.369763 0.732281 0.191127 -0.898347 0.743634 -0.142730 -0.717731 -0.283121 0.134338 0.900994 -0.557930 0.652885 0.782758 -0.154693 0.562055 0.425018 -0.887717 0.699778 0.608716 -0.832377 0.252873 0.793333 -0.355312 0.995734 -0.175190 -0.677627 0.919866 -0.308925 0.948246 0.786800 0.775694 0.318010 0.519081 -0.033180 0.419663 0.262715 0.824090 0.701932 0.979593 -0.041572 0.602927 -0.578337 -0.388686 0.385685 0.266970 -0.826631 -0.189297 0.379253 0.873147 -0.580581 0.546876 0.126019 -0.787248 -0.808436 0.121754 0.037562 -0.486063 0.041620 0.728637 -0.537816 -0.171580 0.504331 0.780194 -0.652499 -0.528848 0.199857 0.610215 -0.704758 -0.098211 0.589808 0.253670 -0.495284 -0.988529 0.864984 0.890401 0.278442 -0.961648 -0.298896 -0.342305 0.911499 0.120523 -0.795429 0.037519 0.333276 -0.603865 -0.840728 -0.629162 -0.089928 0.200893 -0.900525 0.372256 -0.970688 0.603806 0.152449 -0.623187 -0.925042 -0.647694 0.987029 -0.629800 0.254095 0.576837 0.623870 0.758811 0.588308 0.488853 0.649212 -0.133250 0.527206 -0.649684 0.524445 0.438705 0.470839 0.729016 -0.523776 -0.195885 -0.874849 -0.364504 0.174953 0.035223 0.836388 0.274428 -0.592521 0.865701 -0.121765 0.559928 -0.757486 -0.046807 0.912234 -0.770457 0.323392 0.166329 0.806380 -0.052738 -0.074860 0.394688 -0.563884 -0.425648 -0.738562 0.963321 -0.075332 0.785883 0.402026 -0.604493 0.514899 0.878250 0.199622 0.640050 -0.486254 -0.625425 -0.324728 -0.649866 0.649003 0.082751 -0.784165 -0.472762 -0.357321 -0.541651 0.480430 -0.445087 -0.312108 -0.196177 0.721242 -0.505729 0.751085 -0.353618 0.888959 -0.812800 0.220733 -0.849603 -0.849478 -0.854599 0.936280 0.552548 -0.459092 0.451179 0.430798 0.740530 0.091229 0.944543 -0.884894 0.766501 -0.705323 0.764109 -0.150748 -0.489487 -0.708654 0.491931 -0.031138 0.771777 -0.953156 0.656753 -0.424401 0.768085 -0.848975 -0.673316 -0.585533 -0.960016 -0.486116 0.635200 -0.809619 -0.335594 0.780601 -0.873339 -0.783046 -0.678490 0.577841 0.647751 -0.937960 -0.330930 0.592295 -0.822854 -0.564429 0.886972 0.941254 0.284823 -0.602515 -0.767399 -0.223246 0.366346 -0.995622 -0.176402 0.023100 -0.420023 -0.408317 0.174124 -0.093339 0.006150 0.214108 0.420546 -0.358650 0.404489 -0.915049 -0.578049 0.531150 -0.698095 -0.256539 0.108991 0.949656 -0.194499 0.778061 0.541951 -0.017354 -0.786368 0.428923 -0.076100 0.498455 0.826408 0.156501 -0.724791 0.192754 0.160879 0.098807 -0.784146 0.740856 0.690490 0.389978 -0.352483 -0.303360 -0.395914 -0.931937 0.337989 -0.991425 -0.846986 0.759940 0.539726 -0.545081 -0.496599 -0.351283 -0.595424 0.308901 -0.573223 0.946527 -0.708452 -0.359591 0.375450 0.215448 -0.861136 0.201858 -0.628051 -0.585927 -0.605388 0.532828 0.512880 -0.389534 0.273684 0.203370 -0.999556 0.921201 0.900009 -0.395470 0.989264 0.237999 -0.386894 -0.857722 -0.002061 -0.847169 -0.402803 0.501340 -0.198452 0.001773 -0.189759 0.228325 -0.051701 0.101789 0.868734 -0.676251 -0.682763 -0.992402 0.525607 -0.310814 -0.578329 0.920219 -0.777986 0.934551 -0.469315 0.495698 0.137921 -0.468871 0.416898 0.037930 0.135660 0.406162 -0.724071 0.748765 0.548440 0.273868 0.901596 -0.854363 -0.224793 -0.296856 0.147410 0.585449 0.931469 -0.904291 -0.312762 0.800203 -0.580541 0.004474 0.807801 0.945066 0.693660 -0.770529 0.865285 0.915674 -0.835978 -0.604029 0.411372 0.301943 -0.072900 -0.171730 -0.660127 -0.937241 -0.765568 -0.384199 0.811525 0.782872 0.889669 0.713121 0.928509 -0.335124 -0.583735 0.075919 -0.749675 -0.652266 0.171629 -0.062437 -0.852063 0.591088 0.942037 0.955738 0.536154 0.635697 -0.814791 0.401439 0.551371 -0.650769 0.797410 -0.037257 0.651174 -0.275491 0.791013 0.991047 -0.212731 -0.974555 -0.393152 -0.401207 0.808318 -0.503484 -0.688085 0.736827 0.161393 -0.271820 -0.187253 0.411718 0.075914 0.984375 -0.650720 0.223851 0.575463 -0.708683 0.179589 0.111617 0.927015 0.364799 -0.486944 0.478386 0.714030 -0.689534 -0.558871 0.365204 0.034975 -0.767858 0.356251 0.822244 -0.742412 0.963098 -0.578963 -0.934094 -0.540385 -0.267048 0.802733 0.621007 0.461132 -0.384521 0.032725 -0.462954 -0.400145 0.382005 0.760897 -0.824682 0.673323 -0.059514 0.286935 0.600338 -0.694715 0.799991 0.078724 -0.980685 -0.889544 0.519853 0.384519 0.145431 0.751996 -0.259230 -0.032325 -0.990417 -0.296132 0.388712 -0.924511 0.163483 -0.878336 0.878221 -0.215510 0.582796 -0.506299 0.817215 -0.880159 0.093556 0.199221 0.880738 0.268874 -0.127457 -0.178775 -0.444192 -0.527119 0.126510 -0.644201 0.551605 0.145825 -0.533744 0.071458 -0.469656 0.611687 -0.176546 0.271114 -0.420638 -0.166963 0.974982 0.968075 -0.091474 0.138465 -0.910261 -0.213253 0.922955 0.672535 0.280448 0.740170 0.792376 -0.625997 -0.060609 0.673114 0.642877 0.811934 -0.505661 -0.801314 -0.715185 0.620849 -0.445515 0.836420 -0.233327 0.020741 -0.092122 0.297017 -0.367572 0.731332 -0.431869 0.211790 -0.435631 -0.456887 0.179865 0.472894 0.681577 0.269604 -0.740358 0.604532 -0.057861 0.540089 0.344702 -0.265485 0.914093 -0.715907 -0.592371 0.556970 -0.903973 -0.098032 0.755656 -0.619158 -0.477183 -0.689860 -0.782738 0.289490 0.330881 0.125141 -0.413492 0.963309 -0.143528 0.154639 0.175100 0.420841 0.697752 -0.645035 -0.106264 0.379329 0.624569 0.153377 -0.016139 -0.433292 -0.306533 -0.671437 0.301223 -0.392441 -0.387344 0.708852 -0.835470 -0.291317 -0.389180 0.920185 0.089525 0.133637 -0.769674 0.306788 -0.576872 0.561207 -0.568072 0.009635 0.524516 0.288401 -0.835726 -0.300384 -0.290758 0.862026 0.054581 0.602978 0.241355 -0.320850 -0.243645 -0.774783 0.245857 0.449821 -0.446220 -0.452920 -0.942619 0.166436 -0.744068 -0.778090 0.875119 -0.133247 -0.857905 -0.035356 -0.999610 -0.627579 -0.728568 -0.576482 0.933628 -0.296640 0.433153 0.458144 0.991761 0.597428 -0.842241 -0.298997 0.459454 0.212340 -0.696019 -0.299191 0.891489 0.060335 -0.073974 0.137347 -0.489843 0.479806 0.684427 -0.432463 -0.353758 0.940360 -0.210553 -0.478639 -0.192888 -0.068457 0.486005 -0.192498 0.303963 0.757437 0.231020 0.237591 -0.539202 -0.335827 -0.304265 -0.547441 -0.738399 -0.146506 0.153562 0.721055 -0.934166 0.457543 -0.578136 0.957324 -0.482121 0.347890 0.094671 0.028035 -0.172305 -0.220902 0.595573 0.473937 -0.280543 -0.614980 0.995298 0.526570 0.316563 0.481303 -0.665928 -0.379474 0.238741 0.565092 0.858117 0.699539 -0.770735 -0.446148 -0.847902 -0.509134 0.407346 0.305660 -0.788079 0.473180 -0.236797 -0.366215 0.430504 0.281082 0.981675 -0.474825 -0.690883 -0.190630 0.304272 0.904690 -0.716693 -0.976270 -0.710290 -0.721395 0.550299 0.606273 0.759909 0.884371 -0.773201 -0.001350 0.449463 -0.915084 -0.301812 0.678729 -0.361232 -0.149714 -0.830405 -0.953886 -0.844054 -0.618484 0.519295 -0.080850 0.015301 -0.050201 -0.799769 -0.003024 0.474974 -0.490652 0.806346 -0.220754 -0.585962 -0.910347 -0.197024 -0.296252 -0.631742 -0.646725 -0.689980 -0.871833 -0.762354 -0.463181 0.126816 0.687109 -0.378265 0.825005 0.365838 0.260503 -0.324709 0.535433 0.306617 -0.168763 0.916950 -0.174088 0.750387 -0.067749 0.775711 0.950618 0.929226 0.250685 -0.540033 0.735572 -0.970069 -0.125995 0.825225 -0.167094 0.577753 -0.806517 0.186181 0.887773 -0.678350 0.423827 -0.575408 0.448466 0.110936 0.046327 0.273471 -0.523226 -0.693170 0.948762 -0.987792 0.613448 -0.220001 0.929157 -0.560640 -0.469614 -0.138592 -0.784929 -0.518996 -0.209366 0.465756 -0.059029 -0.473794 0.495687 0.814975 -0.648569 -0.671407 0.392728 -0.455086 0.514774 0.280501 -0.133436 -0.061399 0.705093 -0.684970 -0.950463 -0.248580 0.588501 -0.473689 0.058251 0.537263 -0.461481 -0.328301 -0.682739 -0.532324 0.111059 -0.152353 0.329084 0.326130 0.328651 -0.880282 -0.208114 -0.730378 -0.354075 -0.712427 -0.915403 -0.002644 -0.383834 0.477325 0.542270 -0.869061 -0.242174 -0.591165 0.069540 -0.537081 -0.276135 0.119077 0.214340 -0.687634 0.645388 -0.727410 0.849628 -0.816093 -0.055711 -0.833110 -0.348417 -0.944652 0.014537 0.980667 0.381478 -0.656812 -0.899615 -0.826636 -0.387190 -0.253691 -0.539063 -0.302593 0.743665 0.077102 -0.825268 0.285936 0.208042 -0.067442 0.694771 -0.722419 0.395478 -0.581365 0.396658 -0.390183 -0.268999 0.042046 -0.117593 -0.419370 0.225952 0.826696 -0.252480 0.877535 0.882044 0.762057 0.858202 0.263522 -0.894755 0.958586 0.436886 -0.281945 -0.295104 0.897823 0.415462 -0.551439 -0.025075 0.590194 0.734497 -0.817033 -0.477248 0.429267 -0.539452 0.918230 0.847903 0.857206 -0.471953 -0.421096 -0.100748 0.410454 0.159534 -0.874796 0.237150 0.907053 -0.997261 0.119194 0.669110 0.860941 -0.617284 0.774355 0.819527 0.819602 -0.507590 -0.475577 0.717425 0.907872 -0.027016 -0.307650 0.498066 -0.292519 -0.124684 -0.979182 -0.863252 0.335864 0.939048 0.984651 0.193070 -0.532906 -0.436445 -0.907678 0.877549 0.723089 -0.782474 0.114699 0.630142 -0.779735 -0.766106 0.299253 -0.918794 -0.383390 0.073607 0.900733 -0.563788 0.566017 -0.574844 -0.846364 0.473889 0.398139 -0.154014 -0.028046 -0.894380 0.721302 -0.007228 -0.757632 0.057166 -0.068180 -0.772981 -0.749764 0.398914 -0.209426 -0.657442 0.276463 -0.486337 -0.439916 -0.608838 -0.856194 -0.219651 -0.374944 0.443058 -0.138445 0.241666 -0.483334 -0.237712 0.677877 -0.917317 0.187444 0.831514 0.556572 -0.414417 -0.322501 -0.471474 -0.308797 -0.601199 0.521299 -0.066429 0.455967 -0.546881 0.160590 0.706204 0.852033 0.951165 -0.951238 0.128496 -0.535172 -0.391154 0.519658 -0.391366 0.389195 -0.855286 -0.948308 -0.749249 0.386380 -0.431642 0.013039 0.064257 -0.348959 -0.799518 -0.104229 -0.792387 -0.213935 0.573270 -0.263860 0.477269 0.972071 -0.742562 -0.589160 0.428039 -0.289443 0.571430 0.134243 -0.437410 0.522595 0.183004 0.691086 0.987423 0.791851 0.210744 -0.403943 0.181046 0.355458 -0.352250 0.431797 -0.258162 0.216108 -0.555165 0.806096 0.867149 -0.354683 -0.298134 -0.925238 0.431383 -0.724863 -0.189098 -0.091348 -0.752792 0.068340 0.319491 0.675247 0.778897 -0.109078 -0.190511 -0.658513 -0.586483 0.992494 -0.967428 -0.599060 0.784344 0.243317 -0.003002 -0.034610 -0.401225 0.644747 -0.602813 0.340613 -0.139145 -0.157978 0.146709 -0.271996 0.487340 0.848575 -0.197233 -0.081278 -0.876288 0.613669 0.827374 -0.629080 -0.317992 0.146865 -0.953833 -0.539095 -0.962213 -0.144344 -0.197608 -0.548696 -0.151850 -0.165036 -0.147756 -0.367506 -0.921719 0.849242 0.597885 -0.322944 0.493990 0.995071 -0.982331 -0.645155 -0.162906 0.164378 0.082849 -0.675567 0.012953 0.885616 0.243156 0.136665 0.499285 0.070530 0.507584 -0.818707 -0.782605 0.553751 -0.357802 -0.744818 -0.590593 0.444590 -0.293514 0.257556 -0.720446 0.558731 0.890051 -0.642165 0.407973 0.487935 0.034890 -0.098037 0.483007 0.052559 0.256807 -0.679900 -0.783063 -0.660343 -0.355467 0.229889 -0.774727 0.887689 -0.633446 0.724557 -0.041782 0.874138 0.905851 0.175613 0.427889 -0.451951 0.430795 0.837296 0.992639 -0.862719 0.094852 -0.727807 0.696012 -0.015098 -0.369973 0.103985 -0.527162 0.664918 -0.994052 0.955844 -0.282523 0.262755 -0.724056 -0.065587 0.602412 -0.079523 -0.835697 0.827685 -0.191834 -0.469144 0.552242 0.766385 -0.595005 0.458093 -0.058002 0.832883 -0.993859 -0.627207 0.670179 0.998780 -0.489925 -0.234969 -0.729027 -0.793913 0.749934 -0.099000 0.310072 -0.777229 -0.434082 0.316019 -0.821385 0.283394 -0.421226 -0.545441 -0.782192 -0.818814 0.375037 -0.617890 -0.991129 -0.816797 -0.087034 0.561113 0.949588 0.317961 0.019206 -0.108415 0.150844 0.025347 0.264378 -0.178977 0.024127 0.774453 0.586055 0.295100 0.980540 0.335988 -0.803900 0.290611 0.558759 -0.237982 -0.393369 0.737374 -0.954587 0.185405 -0.808066 -0.736780 0.366591 0.566970 -0.354670 0.375461 0.750173 0.558297 -0.063426 0.699761 -0.123742 0.955780 -0.408654 -0.972898 -0.018873 0.855725 -0.151874 -0.994746 0.630178 -0.565820 0.300354 0.610717 0.770168 0.496455 -0.098671 0.328927 -0.741527 0.507959 0.066301 -0.696114 -0.306636 0.258235 -0.432894 -0.940045 -0.174795 0.212436 0.435416 -0.424621 -0.229267 -0.628010 -0.724860 0.646990 -0.672230 -0.133514 0.674092 0.308897 -0.277789 -0.477782 0.314151 -0.647612 -0.043602 -0.385495 0.963106 -0.273434 -0.889041 -0.135565 -0.944507 -0.630568 -0.627606 0.121794 -0.326683 0.065758 -0.619971 0.240423 0.125713 0.205235 -0.547141 -0.438871 0.780613 0.223592 -0.066881 -0.944247 -0.129418 0.260889 -0.077761 -0.455326 -0.430215 0.644449 0.066892 0.883936 0.996838 -0.976710 -0.501560 0.959944 -0.250145 -0.390600 -0.175622 -0.194652 -0.021168 0.196772 0.927143 0.652149 -0.737470 -0.692828 -0.107428 0.388243 0.512407 0.345431 0.949372 0.293020 -0.430977 -0.117509 0.348773 0.439605 -0.856621 -0.728988 0.984279 -0.286835 0.915462 0.051171 -0.402899 0.912299 0.074461 0.095541 0.872243 0.824316 0.704941 -0.303378 -0.370336 -0.316228 0.893394 -0.443193 -0.664079 -0.844076 -0.136021 0.228494 0.544168 -0.623614 -0.426075 0.493540 0.669406 0.142948 -0.623970 0.018179 -0.417447 -0.480590 0.289192 -0.433167 0.232574 0.204653 0.618004 0.829675 0.116953 -0.307536 -0.074784 -0.010804 -0.483220 -0.369843 0.685817 0.146444 0.313929 0.579211 0.703251 0.649850 0.735136 -0.432769 -0.121656 0.279303 -0.056384 0.452269 -0.227157 -0.386977 -0.404782 0.148873 0.631202 0.177771 0.668283 -0.079607 0.744604 -0.099143 -0.874953 0.362607 -0.269468 0.241999 -0.944928 0.655748 -0.768805 -0.428148 -0.714095 0.917012 0.718296 0.599834 0.496224 0.421548 0.249684 0.231359 0.988778 -0.871972 -0.489338 -0.067606 0.580298 0.283505 0.545417 -0.824485 -0.567622 0.176619 0.353286 -0.899339 -0.902988 0.097890 0.001518 -0.777941 -0.539502 0.732050 0.464058 -0.484431 0.387798 0.695253 0.087421 0.673703 0.612265 -0.194283 0.273537 0.108489 -0.772736 -0.476779 -0.660152 -0.783958 -0.348751 -0.149490 0.148437 -0.768453 -0.865984 -0.306146 -0.592938 -0.433606 0.870473 0.760349 -0.332946 0.967485 -0.141761 0.668572 -0.810456 0.318736 0.400622 0.653603 0.834305 -0.211580 0.348856 -0.078274 -0.537877 -0.038879 0.727443 0.735660 -0.930390 0.954708 -0.741119 -0.590542 -0.829250 -0.089870 0.259969 0.319187 0.141677 0.393984 -0.986959 0.548739 0.960378 0.883514 0.309087 -0.372568 0.850999 -0.832674 -0.703995 -0.959456 0.486062 0.696627 0.694147 0.320368 -0.514953 0.043003 -0.757906 -0.052829 -0.995876 0.969537 -0.317169 -0.926266 0.924244 -0.058289 -0.516808 -0.905006 0.851841 0.743161 0.414181 -0.006482 0.137146 0.427222 -0.457744 0.097524 0.310736 0.851343 0.724956 0.161735 -0.981331 -0.979039 0.202279 0.504731 0.717588 -0.103574 -0.174901 -0.797365 0.939428 0.067193 0.149806 0.943552 0.036730 0.832636 -0.982714 -0.039026 -0.225652 -0.499521 0.055968 -0.373811 -0.756360 -0.529851 0.619706 0.380785 0.897371 -0.838038 -0.521691 0.208107 -0.986694 -0.796735 -0.630157 -0.968025 -0.775774 0.572122 0.536706 0.941814 -0.531452 -0.638195 -0.855551 -0.592024 0.428998 0.294255 -0.648472 -0.534273 0.126891 -0.631185 0.426701 0.901239 -0.130707 -0.517331 -0.472573 0.112933 -0.047182 -0.852866 -0.506281 -0.149810 -0.690904 -0.027972 -0.941703 -0.677599 0.175293 -0.571861 -0.645624 0.399519 -0.999739 0.891082 0.341333 -0.531191 -0.747113 0.485782 -0.123215 0.681885 -0.219963 0.228314 -0.852387 0.906928 0.597129 0.574314 0.808167 -0.533578 -0.943017 -0.664406 0.579355 0.009801 -0.517272 -0.926926 0.859991 -0.208176 0.045102 0.918288 0.114225 -0.779604 -0.653573 0.468601 0.619915 -0.653311 0.359683 -0.038752 -0.184502 0.612570 -0.552970 0.692283 0.294455 0.227067 -0.079403 0.442068 0.133995 -0.482275 0.016382 -0.057838 -0.015853 0.073365 0.277756 -0.436497 -0.916834 0.760484 -0.363423 0.943157 -0.447693 0.681679 0.861445 0.666532 0.902075 -0.792128 0.135133 0.521990 -0.445440 -0.505184 -0.516763 0.370058 -0.892614 -0.069733 0.062341 0.401842 -0.842666 0.982937 -0.156090 0.291329 -0.499338 0.860292 -0.766509 0.484810 -0.066344 0.511247 -0.951688 0.016822 0.271731 -0.315111 -0.040021 0.824038 -0.633432 -0.178576 0.490571 -0.731357 0.029295 -0.374296 0.790632 0.583856 0.120520 -0.726130 -0.046086 0.227906 0.204137 -0.983746 -0.370252 0.361471 0.999192 0.473658 -0.347200 -0.500146 0.333949 -0.113709 0.984664 -0.732394 -0.602461 -0.967024 0.284428 0.669270 -0.282135 -0.755593 0.493308 0.084432 0.065830 -0.016121 0.353075 -0.904874 0.609582 0.143707 0.678982 -0.269898 0.417577 -0.367105 0.958008 -0.378286 -0.350850 -0.412244 0.983185 -0.351658 -0.938586 -0.364015 0.148196 0.395363 0.522277 0.132859 0.662969 0.919815 0.165835 -0.052603 0.589085 0.883699 0.191803 0.082393 -0.031868 -0.742366 -0.933729 -0.678793 -0.647241 0.675853 0.464914 -0.968259 -0.594045 -0.117509 -0.335364 -0.636037 0.504205 0.313786 -0.048281 0.487390 0.962128 0.013133 -0.876625 0.110323 -0.591504 0.645652 -0.756818 -0.928535 0.565467 0.409017 0.018862 0.154552 0.292717 -0.789335 -0.763055 -0.739151 -0.531702 -0.696784 -0.417944 -0.178942 0.979069 -0.953030 -0.147201 -0.614975 -0.070539 0.517435 -0.251012 -0.566334 -0.168779 0.700707 0.921056 -0.206651 -0.286160 -0.955569 0.903672 0.122337 0.690082 -0.853146 0.193802 0.255549 0.555872 -0.787337 -0.589899 -0.151411 -0.576672 -0.352954 0.109438 -0.108373 -0.049738 0.691494 0.712684 -0.070669 0.738464 -0.434517 0.314356 -0.332075 -0.917082 -0.936656 0.101591 -0.085861 0.764051 0.022646 0.707488 -0.522109 0.067077 0.611160 0.600228 -0.242840 0.758014 -0.205970 -0.987291 0.313886 0.006693 -0.577190 -0.837525 0.430021 0.069856 0.271913 -0.678352 -0.979882 -0.036594 -0.965668 -0.050551 -0.298130 -0.400184 -0.736195 0.369794 -0.317266 -0.672851 -0.528615 0.596873 -0.908800 0.494032 0.304361 -0.430909 -0.438891 -0.084479 -0.830681 0.318268 -0.326464 -0.036651 0.330977 0.987422 0.970042 0.753788 -0.850103 0.400063 -0.176356 0.421809 0.721711 -0.156238 -0.614785 0.756043 0.793211 0.087085 -0.644141 -0.942984 -0.543121 0.038593 -0.615835 -0.071735 -0.364534 -0.524635 -0.577704 0.939828 0.044456 -0.016595 -0.144651 0.213776 -0.698326 0.528885 -0.822875 0.632651 0.516306 -0.852833 0.386438 0.666203 0.547230 -0.789918 0.088012 0.268941 0.053844 0.473228 0.024984 -0.152945 -0.439687 0.380843 -0.095929 0.017192 -0.580564 0.288236 0.945457 0.054902 0.763601 -0.632247 -0.005270 -0.191942 0.351158 0.850078 -0.978166 0.652832 0.378963 -0.801042 0.285483 -0.104731 -0.653875 -0.328079 -0.438528 0.893355 -0.117996 0.649485 0.162295 0.935848 0.122712 -0.812721 -0.217097 0.683025 0.568122 0.686974 -0.299783 0.987558 -0.024789 -0.354326 0.042460 -0.261188 0.013427 -0.962810 0.546870 -0.635415 0.887268 0.568704 -0.982583 0.266231 0.767662 0.302900 -0.838499 -0.886213 0.974821 -0.277027 -0.992859 -0.143175 -0.627542 0.169436 -0.207327 0.495170 0.356716 0.575575 0.178195 -0.075162 0.262550 0.878412 -0.087604 -0.762240 -0.475914 0.954857 -0.023427 0.537512 0.992046 -0.476557 0.902097 0.879315 -0.907854 0.919514 0.145546 0.859808 0.222414 0.307046 0.973594 0.197236 -0.969981 0.980736 -0.945939 -0.597523 0.150172 -0.153267 0.897647 -0.493112 -0.577691 0.075842 0.431726 0.684858 -0.045746 -0.655878 0.922619 0.478339 -0.701022 -0.100809 0.015852 -0.708975 0.422634 -0.082051 -0.829661 0.514780 -0.162537 0.315885 0.374588 -0.940122 -0.377069 0.348182 0.257113 -0.347050 0.328918 0.311174 0.055427 -0.520910 -0.842093 -0.046926 -0.014023 -0.419784 -0.971084 -0.582297 -0.734926 -0.016831 -0.238175 -0.812308 -0.538491 0.060803 0.086884 0.477360 0.351828 -0.490483 -0.604691 0.522167 -0.975703 0.232773 -0.161948 0.398885 0.292650 0.460984 -0.252933 -0.450237 -0.886066 -0.924015 0.860937 0.169361 -0.444925 -0.981156 -0.877565 0.541052 -0.400940 -0.848650 0.958755 -0.135867 0.134520 -0.279420 0.051826 0.596029 0.781383 -0.861290 0.073389 0.133211 -0.351773 0.468698 -0.344621 -0.327476 -0.298529 0.493431 -0.928591 0.994121 -0.045585 -0.181524 -0.456116 0.068349 -0.105539 -0.595179 -0.762290 0.449536 -0.576335 -0.639856 -0.009412 0.022725 -0.488505 -0.050657 0.886858 0.646015 0.669923 -0.061316 0.242043 0.451306 0.077394 -0.684568 -0.415483 0.725620 0.784130 0.239896 -0.601855 -0.514399 -0.266673 -0.530446 -0.520278 0.687741 0.288030 0.023606 -0.243910 -0.817509 0.428427 -0.006200 0.632027 0.852092 0.353944 -0.377384 -0.125183 0.865439 0.571958 -0.238325 0.511453 0.241881 0.700359 -0.246504 -0.306813 -0.222247 0.068929 0.277704 -0.496627 -0.146941 -0.482400 -0.098482 0.338660 0.250926 0.371071 0.818381 -0.061333 -0.340899 -0.158013 0.694757 -0.158407 -0.729586 -0.311443 -0.526380 -0.877494 -0.957499 0.096236 -0.002677 0.907940 -0.331806 0.758998 0.419393 0.910075 0.459357 -0.827111 -0.396738 -0.762890 
0.241818 0.880966 -0.259517 -0.905123 -0.601434 0.642000 0.433537 0.649492 0.013072 0.251918 -0.411841 0.672173 -0.906095 -0.717083 -0.486234 -0.635681 -0.028526 -0.012614 -0.513174 0.013975 -0.916379 0.484149 -0.078086 -0.248185 0.243147 -0.658693 -0.338109 -0.297496 -0.485804 0.265153 -0.060386 0.756014 0.146119 0.680097 0.850891 0.544685 0.322098 0.284428 0.194177 -0.664831 -0.463654 0.782336 -0.992658 -0.369749 -0.934747 -0.478892 -0.005430 0.036726 0.508493 0.481396 -0.949299 0.592115 -0.034455 -0.027385 -0.656070 -0.791308 0.313922 0.005821 -0.088803 0.828119 -0.729027 0.850811 0.584133 0.417092 0.530908 0.435025 -0.038223 -0.146995 -0.280548 -0.844046 0.188175 0.255798 0.938290 0.195517 0.886049 -0.996458 0.716624 -0.119380 0.040269 0.225118 -0.637984 0.090970 -0.182767 0.327561 -0.936415 0.161163 0.536253 0.377508 -0.833017 -0.552551 0.205627 -0.562043 -0.701740 -0.210240 0.855049 0.829168 -0.775215 -0.183174 -0.317826 -0.055763 -0.027220 0.870348 -0.799964 -0.088930 0.065865 -0.913915 -0.085388 -0.217510 -0.033295 0.954881 -0.992392 0.328720 0.045851 -0.175160 -0.343719 0.109437 0.986003 -0.807466 -0.513055 -0.847014 -0.360017 0.692572 -0.409058 -0.061756 -0.517668 -0.554009 -0.232588 -0.292883 0.262818 0.449586 0.651355 -0.764402 0.319934 0.851390 0.146668 -0.614201 0.937475 -0.938720 0.168289 -0.095820 -0.983839 0.175896 -0.767099 0.062013 -0.999263 -0.110818 -0.828550 0.986739 0.081716 -0.341605 -0.860275 0.721699 -0.649034 -0.269333 -0.340057 -0.166702 0.176658 0.427355 0.540416 -0.560524 -0.123059 0.191770 -0.324926 -0.803125 0.043161 0.821741 -0.417326 -0.019364 0.883021 0.750963 0.884816 0.899183 -0.073141 -0.882283 -0.038805 -0.072404 0.006898 0.132645 -0.085665 -0.911386 0.791039 0.054060 0.810313 -0.857994 0.784727 -0.529744 -0.024696 -0.038615 0.897611 -0.484280 0.400861 -0.225448 0.707490 -0.924065 -0.028574 -0.249350 0.897676 0.554100 0.731286 0.780698 0.305063 0.616102 0.679880 -0.768077 0.733819 -0.358924 0.159519 -0.259283 0.773721 -0.926146 -0.170669 0.564760 0.127914 -0.360355 0.706766 -0.087359 0.109901 -0.317930 0.874026 0.007512 0.197790 0.274887 0.782063 -0.094720 0.350822 -0.246511 0.655930 0.248499 -0.692410 0.387216 0.029196 0.612653 0.003319 -0.290924 0.844576 -0.262862 0.350152 0.004094 0.477855 0.123872 0.077948 -0.692813 -0.311368 -0.794138 -0.053169 -0.604602 0.118502 -0.943268 0.077468 -0.007472 0.064243 -0.724742 -0.732585 -0.153694 0.180537 0.618237 0.599796 -0.163533 -0.133264 0.907385 -0.776316 0.895932 0.520038 0.227003 -0.394991 0.364614 0.964140 0.955161 -0.631292 0.441996 0.079033 0.446657 0.749182 0.767665 0.652518 -0.303987 -0.836937 -0.228979 -0.247255 0.240532 0.763549 0.816988 0.515789 -0.969036 -0.336705 -0.303673 0.649201 -0.736910 0.532794 -0.484063 -0.829524 0.756478 -0.588130 0.690514 -0.016519 0.016878 0.055128 -0.052379 -0.027961 0.423836 -0.610383 -0.948928 -0.129507 -0.861201 0.818737 -0.476989 -0.165188 0.981801 0.294032 0.587558 0.222332 0.057580 0.404546 -0.261879 0.088544 -0.932159 0.434448 -0.262254 -0.669069 -0.032758 0.253683 -0.498594 -0.276280 0.665553 -0.808080 0.707201 -0.317569 0.247048 -0.345178 0.654470 -0.329116 0.044438 0.705542 0.541377 0.183237 0.524279 -0.935612 -0.981950 0.506080 0.358420 0.605608 -0.271588 -0.584000 0.010153 0.466534 0.504544 0.077994 -0.099018 -0.757710 0.408925 0.868224 0.495973 0.910331 -0.408056 0.161526 -0.897749 -0.700855 0.843957 0.349299 -0.046034 0.498427 -0.979817 0.998405 0.203969 0.561560 0.181642 -0.271751 0.625948 0.199692 -0.765671 -0.015632 -0.194700 -0.037259 0.400368 0.815453 -0.570726 -0.095088 -0.106553 0.330256 0.147201 -0.697628 0.198480 -0.356826 -0.787297 0.790424 0.804700 -0.685046 -0.910431 0.648657 0.664254 0.043536 0.147084 0.684437 0.041940 -0.648947 0.245997 -0.776417 0.079302 -0.128055 0.423275 0.313630 0.856313 -0.771426 -0.723629 0.256681 -0.955973 -0.294355 -0.838407 -0.062525 -0.964099 0.308794 0.239847 0.234381 0.951968 0.452550 0.024806 0.756668 0.767504 0.114375 0.405325 0.431758 -0.842090 -0.447591 0.116195 0.199851 -0.096538 -0.637808 0.423434 0.982764 0.234137 -0.153292 0.296394 0.090451 0.075283 0.572765 -0.652868 0.119310 -0.721590 -0.491276 -0.943215 -0.685689 0.817518 0.296631 0.548693 0.769487 -0.250819 -0.426502 0.526155 -0.483315 0.687873 -0.068520 0.948443 0.845784 0.483889 0.064638 0.045635 -0.612649 0.426830 -0.530932 -0.629886 -0.339033 0.315777 0.666508 0.751418 -0.608941 0.239273 -0.901450 0.510369 0.517683 -0.392726 0.567154 0.831994 -0.575208 -0.136215 0.380687 -0.805721 0.612966 0.954185 0.720434 -0.870349 0.642058 -0.348086 -0.921906 0.487842 -0.864197 0.142732 -0.466523 -0.476847 -0.430438 0.002545 -0.106732 0.230529 -0.681679 -0.440224 -0.018053 -0.290619 0.799049 0.080497 -0.780250 0.316731 0.687770 0.786904 0.148725 -0.887438 -0.349311 -0.470588 -0.693159 -0.736345 -0.516403 -0.972725 -0.606694 -0.874345 -0.320811 -0.528600 0.613497 -0.185009 0.614132 -0.853026 0.338144 -0.816307 0.149519 -0.768588 0.414222 0.467840 -0.208812 -0.603831 -0.822779 -0.409763 0.476666 -0.603029 0.906968 0.164436 -0.816125 0.055693 0.276998 -0.165436 0.585105 0.583840 0.098219 -0.931298 0.611114 0.491525 -0.805643 -0.709697 0.962925 0.807854 0.105294 0.577056 0.954827 -0.556562 0.760749 0.104346 -0.325150 0.174971 -0.427814 0.466038 0.571140 -0.250594 -0.943725 0.047806 0.146377 0.963243 -0.787758 0.330252 0.018936 0.489240 -0.835185 -0.395959 0.073080 0.263034 -0.327258 -0.315806 -0.245442 -0.132901 -0.025503 -0.282517 -0.325047 -0.920209 -0.705461 -0.370220 -0.476770 -0.944712 0.734126 0.198080 0.230260 -0.693689 -0.335881 -0.198600 0.055718 -0.279606 0.849206 -0.797905 -0.316364 -0.938552 0.532346 0.702572 0.550688 0.697161 -0.693387 -0.376232 -0.039805 -0.020645 0.307962 0.714754 0.846454 -0.717541 -0.567763 -0.478593 -0.637749 -0.273224 0.151186 -0.114519 -0.217936 -0.114688 -0.916439 -0.987676 0.191623 -0.252320 -0.186276 -0.752659 0.468073 -0.337071 -0.550564 -0.848290 -0.275623 0.981782 0.854282 -0.724935 0.678944 -0.839105 -0.101167 -0.360861 0.140250 -0.793205 -0.646108 -0.013296 -0.510746 -0.213871 0.508110 -0.148495 0.512904 -0.340703 0.736986 -0.705032 0.544609 0.820547 -0.692708 -0.263768 -0.431774 0.121016 -0.016427 -0.963700 0.783945 0.433009 -0.811991 -0.491678 0.414791 -0.957709 -0.216613 0.093735 -0.796815 0.682220 0.732873 0.343435 0.889015 -0.913235 -0.669861 -0.621731 -0.127106 0.838250 0.229775 -0.614202 -0.502454 -0.033240 -0.319233 -0.957845 -0.212693 -0.011941 -0.221613 0.355533 -0.890926 0.761960 0.391833 0.893019 0.194969 0.579842 -0.598659 -0.390239 0.622133 0.184729 0.703495 0.825318 -0.133051 0.436368 0.168753 -0.244036 0.523134 0.498893 0.134233 -0.603972 0.337142 -0.635992 -0.218174 0.834689 0.330768 0.462593 0.876844 -0.881925 -0.549348 -0.344769 0.473608 -0.440274 -0.582809 -0.134559 -0.547254 0.612161 -0.554717 -0.145913 -0.778079 -0.932585 -0.961184 0.925416 0.892733 -0.094235 0.361785 0.061487 0.661729 -0.115081 -0.439621 -0.204038 0.280947 0.897522 0.159970 -0.937227 0.732210 -0.509262 0.525366 0.609054 -0.391187 0.976018 -0.735715 -0.917579 -0.464256 -0.318524 -0.052138 -0.011510 -0.706363 0.393144 0.842577 -0.484442 0.460559 0.881393 -0.559026 0.353293 -0.212843 0.802759 -0.585220 -0.551114 -0.312322 -0.024841 0.244848 0.968624 -0.127319 -0.595183 -0.968603 -0.395109 -0.104445 0.556764 -0.786054 0.504368 0.532782 -0.521769 0.586789 -0.931474 0.159707 -0.465350 0.057016 0.453344 0.927795 -0.100407 0.968902 0.388354 -0.219014 -0.590123 -0.258353 0.568143 -0.787364 0.156426 -0.982971 -0.099686 -0.868415 0.261877 -0.131062 0.004266 0.666695 -0.099664 0.609158 -0.437750 -0.542901 0.823103 -0.933382 0.989881 -0.698666 0.653406 -0.941593 0.461041 -0.811944 0.115423 -0.085615 -0.884149 -0.984983 -0.116713 0.504205 -0.203998 0.293164 -0.754148 -0.635854 0.505800 0.402278 -0.618825 -0.593886 0.533863 0.643052 0.275052 -0.461870 0.309747 -0.824612 -0.852713 0.871996 -0.367513 0.970390 0.938614 -0.377632 -0.728276 0.592020 -0.319225 0.732765 0.780077 0.796199 -0.352850 0.895928 0.811216 0.530437 0.400132 -0.392782 -0.176399 0.645984 -0.028636 -0.670599 0.048262 0.352539 -0.264486 -0.417874 -0.004409 -0.989434 0.120255 -0.694662 -0.814046 0.267543 -0.822666 -0.181560 0.237933 -0.884052 0.440809 0.509657 0.707969 -0.878416 0.242422 0.488045 0.917783 0.889572 0.383973 0.728999 0.420009 -0.215895 -0.663783 -0.756390 -0.569911 0.307580 -0.426989 0.478351 -0.339881 0.308525 -0.939523 0.655710 0.319091 0.180732 0.961048 0.505045 -0.551725 -0.861617 -0.676515 0.686208 -0.745669 0.764294 0.195865 0.962300 0.885878 -0.561713 0.450345 0.803661 -0.672140 -0.165683 0.532660 0.747869 0.618423 0.868876 0.991479 -0.951488 0.176457 -0.435510 0.526863 0.836576 0.873015 0.587340 0.492286 0.192106 -0.231928 0.453335 -0.302849 0.216347 0.591717 0.020636 -0.097446 0.846048 -0.215070 -0.901581 0.808348 -0.329192 -0.463293 0.258692 -0.525532 -0.135434 -0.906990 -0.992872 -0.387565 0.711432 0.876004 -0.396086 0.759944 0.052461 0.168404 0.286807 -0.110963 0.041419 -0.125853 -0.618677 -0.766475 0.642219 0.834658 -0.069324 -0.141435 0.426375 0.951312 0.761120 0.272423 -0.263758 0.859539 0.080771 0.407049 -0.603754 -0.660537 0.881518 0.260812 -0.567527 0.888646 0.873248 -0.856094 0.764650 -0.522838 0.903850 -0.182889 0.645566 0.190657 0.706147 -0.313015 -0.935197 -0.912529 -0.079490 0.707022 0.922128 0.851186 -0.434413 0.348503 0.802499 -0.673293 -0.379074 -0.461260 -0.813754 0.701697 0.945790 -0.417508 -0.958839 0.827308 0.843305 -0.526366 0.715954 0.716552 -0.382461 0.480604 -0.806286 -0.478611 -0.702286 0.839280 0.712046 -0.996138 -0.473735 0.776849 -0.908668 0.446775 0.483871 -0.986539 0.297962 -0.950542 0.361964 0.100460 -0.623835 0.982890 0.639201 -0.437589 0.684588 0.584990 0.144904 0.725748 0.412298 -0.011792 -0.800618 0.128252 -0.295239 -0.183078 -0.391145 -0.101525 0.338311 -0.093431 -0.262245 0.050356 -0.089569 0.264019 -0.172795 0.001763 -0.289205 -0.688924 0.015224 -0.991244 -0.639466 -0.622812 0.109216 -0.263301 -0.639922 -0.251583 0.299111 -0.955334 -0.666593 -0.555986 0.770414 0.745705 0.432223 0.969796 -0.126043 -0.863017 -0.213282 0.482812 0.035458 -0.874971 -0.610619 0.773212 0.175385 0.299813 0.037232 -0.997410 -0.698424 0.748026 -0.686334 0.316800 0.756783 -0.325799 0.693988 -0.134001 0.410900 -0.945933 0.614416 -0.289989 -0.901267 0.947823 0.154025 0.869147 0.693529 -0.413752 0.838943 -0.432514 -0.276769 -0.374339 -0.949702 0.758689 -0.249310 -0.560321 0.531901 0.926075 0.739492 -0.430867 0.928665 -0.958932 -0.682840 -0.757668 0.357868 -0.926057 -0.083468 0.051856 -0.060058 -0.672568 0.105923 -0.445642 0.037443 0.204655 -0.497819 -0.808532 0.073802 -0.804290 -0.222284 -0.087255 -0.236804 0.500947 0.538407 -0.186507 0.259636 -0.710903 0.253172 -0.208462 -0.784828 -0.007336 0.360671 -0.856162 0.033732 0.677831 -0.613831 -0.608400 0.751773 0.302701 0.443456 -0.308285 0.630134 -0.450621 0.246073 -0.332423 0.754034 0.748254 -0.140955 -0.172164 0.943964 0.636761 0.740582 -0.292841 0.137708 0.278988 0.520653 -0.602655 0.568085 -0.226175 0.188883 0.783258 0.766489 -0.450446 0.927095 -0.199779 -0.772615 -0.686736 0.191821 0.979158 0.615966 -0.364723 -0.329127 0.246099 0.184656 0.916946 0.913676 -0.061310 0.665200 -0.227279 0.766526 0.609163 -0.590518 0.507108 -0.683677 0.547190 -0.213903 0.836975 0.944535 -0.645818 -0.389200 0.133418 -0.862560 -0.622711 0.682971 -0.935465 0.177511 0.910356 -0.622201 -0.630668 0.889514 0.993765 0.004609 -0.439613 0.239864 -0.810735 -0.522668 0.153540 0.127955 -0.857468 0.926261 -0.105519 0.751695 -0.664257 -0.598411 -0.931982 0.882933 0.187686 0.904993 0.827468 0.541868 -0.484206 -0.039114 0.679308 -0.106917 -0.356143 0.743843 -0.929406 -0.445787 -0.878358 -0.560075 -0.556273 -0.884593 0.444534 0.004113 0.355272 0.633798 0.481446 -0.491188 -0.238247 0.623977 -0.564927 0.656235 0.375673 -0.229185 -0.942176 0.443691 -0.346252 0.245510 0.348684 -0.518784 -0.212622 0.864477 0.442102 -0.533314 -0.242440 -0.914041 -0.789471 -0.171846 -0.359828 -0.667829 0.268079 0.083898 -0.552421 -0.287387 -0.911988 0.802851 -0.653589 0.569457 -0.688338 0.108164 0.193435 -0.253265 -0.235601 -0.430893 0.517551 -0.177777 -0.987202 -0.828701 -0.932267 0.361481 -0.347485 -0.144889 0.225959 -0.905383 0.321798 0.983519 -0.819424 0.532327 -0.188327 -0.179253 0.864498 -0.920248 0.904646 -0.687923 -0.207635 0.992658 -0.885072 0.138776 0.562115 -0.573410 -0.753059 -0.244451 0.173325 0.011340 0.324657 -0.309124 0.833563 0.337454 -0.137825 0.901296 -0.301064 0.514689 -0.243593 0.924895 0.609306 -0.921795 0.908414 0.789882 0.610532 -0.279913 -0.389371 0.475030 -0.200161 -0.484725 0.787107 0.592205 -0.492068 0.902034 -0.269019 -0.929953 -0.671375 -0.022078 -0.174404 0.501950 0.989262 -0.849747 -0.807174 0.822825 0.487707 0.055000 0.724120 -0.813357 -0.430311 -0.519472 -0.888462 -0.821005 -0.441267 -0.980048 0.968877 -0.830736 -0.259961 -0.420494 0.644294 0.539879 0.094781 0.431401 0.132083 0.602713 0.333435 0.863064 0.672760 0.662060 -0.159014 -0.501643 0.164010 -0.169752 -0.351390 0.356835 -0.346928 -0.863683 -0.588165 -0.622807 -0.677039 -0.018475 -0.142279 -0.565501 0.160520 0.416453 -0.545549 0.129397 0.585718 0.194490 0.708903 0.230012 -0.265632 -0.196316 -0.338587 0.866451 -0.593603 0.994848 0.729515 -0.920843 0.656908 -0.429498 -0.422486 -0.179083 0.400749 0.226124 -0.822247 -0.946178 0.362441 -0.410412 -0.568985 0.685401 0.571113 0.288735 -0.880100 -0.268367 -0.294812 -0.425649 0.861031 -0.709094 0.768840 0.569934 0.520918 -0.496792 -0.626382 -0.817670 -0.630340 -0.219984 -0.822822 -0.900825 -0.140827 0.834086 -0.330323 0.436687 -0.344997 -0.929574 -0.337189 -0.167244 -0.875752 -0.974749 0.422344 -0.444738 0.710653 -0.006543 0.843998 0.830553 0.725090 -0.450814 -0.595097 0.586121 -0.159908 -0.826257 0.156055 -0.638990 -0.323048 0.529673 -0.456660 0.046611 -0.690311 -0.279482 0.145786 0.168862 -0.445397 0.815463 -0.394451 0.209607 0.885889 0.268359 -0.957637 -0.989863 0.293611 0.464707 -0.434600 0.004263 -0.541836 -0.590603 -0.165184 -0.816746 -0.041417 0.239720 0.769375 0.798675 0.413463 -0.074571 -0.840315 -0.909585 -0.544897 -0.296976 0.137026 -0.235209 0.423542 -0.717187 0.933653 0.978145 -0.901724 -0.460798 0.187752 0.984165 0.807561 0.230115 0.994302 0.101171 -0.305178 -0.440298 -0.894565 0.152985 -0.030901 -0.059749 0.336239 0.927683 -0.820030 0.105614 0.726358 0.593433 -0.968957 0.886043 0.683848 -0.513854 -0.410933 -0.179125 0.250937 -0.987391 0.103687 0.184590 0.990755 0.201963 0.723792 0.178507 0.186129 0.531352 -0.591378 0.180431 -0.367476 0.103443 0.740133 -0.262041 -0.743571 -0.290768 0.678209 0.592668 -0.363085 0.858180 -0.301719 -0.636727 0.451613 -0.270676 -0.750684 0.135462 0.215470 -0.161617 0.956336 -0.533593 -0.149008 0.060024 0.650997 -0.158254 -0.738013 0.374789 -0.979747 0.448115 -0.093859 -0.571125 -0.371454 0.538665 0.532318 -0.631320 -0.723376 0.788747 0.077912 0.954833 0.381414 0.714827 0.813013 -0.920304 -0.921900 0.264626 -0.190980 -0.672584 -0.599912 -0.975510 0.165798 -0.643575 -0.509103 -0.983210 0.416448 -0.858106 -0.141464 0.678435 0.516682 -0.121210 0.126551 -0.577177 0.307665 0.755097 0.961488 -0.160017 -0.876223 -0.761888 -0.371270 0.201689 -0.807055 -0.989856 -0.083484 -0.994042 -0.910160 -0.005384 0.270584 -0.101140 0.322032 0.670673 -0.076651 -0.512170 -0.972903 0.414246 -0.495380 0.443546 0.556140 0.363156 0.121981 0.072822 -0.758054 -0.751468 0.495645 0.549610 -0.996370 0.457134 -0.610407 -0.872594 0.695246 0.018323 0.329095 0.888191 0.028467 -0.754389 0.894149 0.118307 0.240228 0.164733 -0.982833 -0.437741 -0.164594 -0.059484 0.050089 -0.137497 -0.645238 0.554708 -0.693951 0.910902 -0.082135 0.428030 -0.016277 0.159810 0.676562 -0.520631 -0.290579 0.680192 0.936502 0.099014 0.807598 0.631748 -0.882663 0.136694 0.519939 0.145805 0.382305 0.414087 -0.735888 -0.377467 -0.421180 -0.718721 0.184792 0.414226 0.221795 -0.765119 -0.723271 0.576557 0.789589 -0.417222 0.487459 -0.292546 -0.989191 -0.528818 0.867264 0.687371 -0.049449 -0.423315 0.367563 -0.112947 0.675699 0.175161 -0.481199 0.793036 -0.688145 -0.961260 -0.061159 0.694160 0.452827 0.202954 -0.683307 -0.968353 0.484233 0.501485 0.445873 -0.293972 0.736366 0.722602 -0.717415 0.525955 -0.694619 0.770044 -0.766591 -0.683811 -0.758774 -0.899327 -0.996440 0.191777 -0.322643 0.371123 -0.921170 -0.646944 -0.453716 -0.402369 -0.853907 -0.141861 -0.363629 0.084934 -0.447700 -0.910802 -0.712112 -0.131007 -0.879155 0.772120 -0.629522 0.566718 -0.521852 -0.893156 0.289320 -0.239267 0.632799 0.594701 -0.469223 0.866208 0.910890 -0.227997 0.966880 0.914450 0.963781 -0.355762 0.285573 -0.957389 -0.002706 0.831858 -0.359757 0.143387 -0.310003 0.276614 -0.771679 0.242297 0.365811 -0.483791 -0.888710 0.486656 -0.711671 -0.518232 0.053374 -0.233523 -0.411388 -0.657306 0.527210 -0.778589 0.937395 -0.942013 -0.912381 0.848285 -0.170009 -0.945501 0.762736 -0.206228 -0.301263 0.048309 -0.163617 0.696031 -0.119833 0.476625 -0.160581 0.570164 -0.246761 0.067740 -0.187539 -0.880950 0.583949 -0.076249 0.605706 0.872278 0.405520 -0.340919 -0.361245 0.994132 0.001775 -0.834035 -0.784457 -0.060830 -0.776047 -0.696838 -0.212545 0.053943 -0.642339 -0.449809 0.847715 0.056398 0.598500 -0.315902 -0.247571 -0.521334 -0.839277 0.591848 -0.951169 -0.086038 -0.340412 -0.138708 0.033012 -0.756464 0.785043 -0.361282 -0.884186 0.190563 0.297799 -0.245431 0.184694 -0.700426 -0.079466 0.400237 0.238744 0.144487 0.703399 -0.973801 -0.801570 -0.938941 -0.423610 -0.953855 0.117457 -0.825111 -0.269757 0.869887 -0.346444 -0.109034 0.461735 -0.297614 0.804928 -0.878678 0.563678 -0.162060 -0.635142 0.348721 0.476658 -0.519327 -0.460716 -0.225543 0.235241 0.723978 0.074031 -0.844225 0.124215 -0.687225 0.300262 -0.172387 -0.661026 0.498692 -0.111327 -0.084637 0.544837 -0.993870 0.090252 -0.724920 0.876017 0.743808 0.166046 0.337751 -0.553805 -0.029026 0.459073 -0.990127 0.808914 0.823932 0.358594 0.285572 -0.695396 0.897877 -0.939971 0.539846 0.621855 0.134060 0.695621 -0.253931 0.446835 -0.004116 0.573683 0.785808 -0.505424 -0.537645 -0.298829 -0.960587 -0.531515 0.791424 -0.685506 -0.655498 0.535232 0.480540 0.682253 0.981427 -0.548486 0.141327 0.991299 -0.739572 -0.034741 0.349893 0.546000 0.269863 0.247770 0.606029 -0.190291 -0.130375 -0.259911 -0.494670 0.615694 -0.813076 0.501214 0.189377 0.972732 0.995790 0.651732 -0.326096 -0.964797 -0.879782 -0.534672 -0.650304 -0.535280 -0.999440 0.830236 -0.853027 0.981986 -0.718250 0.288300 0.973285 -0.457822 -0.746441 0.323178 -0.911822 0.523422 -0.429052 0.694208 -0.666869 0.440573 -0.565703 -0.161539 0.056267 -0.378779 -0.660325 -0.754357 -0.406047 -0.664535 0.897376 0.267857 -0.629332 -0.982407 0.733184 -0.279636 -0.517687 0.733744 -0.449399 -0.370714 0.715730 -0.167649 0.917586 0.689016 0.374529 -0.828855 0.012194 0.462708 0.694567 0.583142 0.156915 -0.972302 0.023715 0.591212 -0.133840 -0.920019 -0.787567 0.205835 -0.674375 -0.193613 0.541300 -0.777000 -0.925756 0.911968 -0.759407 0.807428 -0.367668 -0.277094 0.541172 0.182933 0.352193 0.256902 -0.984716 0.269779 -0.054082 0.389813 0.440924 0.958112 -0.147479 0.135491 0.541254 -0.990564 0.163189 -0.435031 0.600649 -0.970651 -0.355050 0.813082 0.235184 -0.029425 -0.380531 -0.223516 0.193575 -0.306288 -0.311548 0.434168 -0.498860 0.320784 -0.842926 -0.957688 -0.496284 0.509267 0.299214 -0.481000 -0.220954 -0.754868 0.908813 -0.780030 -0.796755 -0.238666 0.355461 0.744499 -0.229229 -0.481350 -0.690532 -0.628580 -0.452001 -0.045582 -0.815498 0.783183 0.924993 -0.196029 -0.440333 0.118568 0.497683 0.248119 -0.447264 0.998823 -0.431097 -0.290190 -0.958865 0.072619 -0.780923 0.340350 0.591619 -0.001877 0.585482 0.500432 0.218093 0.788727 -0.738233 -0.426446 0.533225 0.032538 0.092205 0.842693 0.403957 0.640204 -0.202889 0.588459 0.423387 -0.277896 -0.607570 0.983055 0.840671 0.890113 0.231174 -0.606593 0.888936 0.800076 0.103218 0.930071 -0.127305 0.322295 0.270421 -0.535686 -0.679582 -0.144097 0.964746 0.538511 -0.355370 -0.773487 -0.887935 -0.822145 0.259051 0.204270 -0.979451 -0.336992 -0.155526 -0.182340 -0.748532 -0.732139 0.539763 -0.356102 -0.749084 0.380435 -0.465990 0.482089 0.773842 -0.577054 0.282165 -0.122940 -0.646982 -0.845140 -0.800646 0.623439 -0.380826 -0.480228 -0.520658 -0.416079 -0.941717 0.123972 -0.189566 -0.829652 0.301828 -0.930515 0.374618 0.322376 -0.267507 -0.780908 -0.859964 -0.016039 -0.513047 0.679799 0.627859 -0.262131 0.060234 -0.838131 -0.780042 -0.165924 -0.415185 0.502124 0.711136 -0.062167 0.656984 0.910490 -0.438728 -0.723842 -0.569737 0.040614 -0.139921 -0.511454 -0.835414 0.670513 -0.341105 0.466413 0.739999 -0.966487 -0.211211 -0.527508 -0.747396 -0.071175 0.456453 -0.260443 -0.391376 0.084312 0.477426 0.668859 0.246181 0.697384 -0.497065 0.830996 0.199508 -0.785929 -0.231171 -0.143508 -0.875439 0.330100 0.132650 -0.445176 -0.629286 0.992729 0.043370 -0.464700 0.663243 0.702264 -0.998287 0.403241 0.735777 -0.209497 0.875733 0.988382 0.719328 0.332186 -0.272061 -0.672048 -0.583502 -0.794635 0.996811 0.662678 0.902749 -0.500254 0.493674 0.102256 -0.286184 -0.737497 0.958748 -0.161623 0.592603 0.091398 0.393201 0.963317 0.084127 -0.563429 -0.501383 -0.252630 -0.861165 -0.499670 -0.849389 0.874613 0.290833 -0.973656 0.862994 0.010161 0.358530 -0.409067 0.338113 0.775028 -0.203702 0.334924 0.437707 -0.300953 0.834670 -0.068619 0.801304 -0.451513 0.193884 0.760052 0.386864 -0.213513 -0.148550 -0.219935 -0.250196 0.935577 0.216636 0.248422 -0.317053 0.355472 0.748752 -0.166442 0.230084 0.039585 -0.140098 0.093079 -0.950254 -0.781568 0.684012 0.387860 0.993461 -0.519690 -0.277216 0.431167 0.179357 -0.442546 -0.637452 -0.019339 0.105941 0.556432 -0.259287 -0.507195 -0.657081 0.592162 0.272870 0.092723 0.527739 -0.510494 -0.658855 -0.789314 0.844977 -0.910103 0.044244 0.075062 0.129482 0.904146 -0.831860 0.179228 -0.877422 0.852152 -0.432912 -0.883961 -0.667538 0.289872 0.547206 0.511820 0.847326 0.909754 -0.507519 -0.046734 0.466186 0.233194 0.446071 0.809106 -0.174644 -0.281060 -0.098171 -0.646904 0.208446 0.242974 -0.436219 0.053424 0.332871 0.608025 -0.871515 -0.537647 0.512171 -0.703374 0.641581 0.634749 -0.851222 -0.791331 0.750787 -0.518759 0.498540 0.297993 0.993060 0.345866 0.207748 -0.514459 -0.700868 -0.326066 0.718735 0.745203 -0.516961 -0.455909 -0.535857 0.384868 -0.102813 0.672590 -0.372158 0.460969 -0.273987 0.960713 0.068994 -0.145501 -0.576934 -0.418835 0.151125 -0.935354 -0.784087 0.299903 -0.726685 0.966701 0.781143 0.771855 0.264694 0.774204 0.117721 -0.527558 -0.740255 0.416853 0.146376 0.978480 0.162056 0.629415 -0.477428 0.626200 0.014283 0.419759 0.298789 0.642126 -0.119273 -0.975197 0.602839 0.949721 -0.120698 -0.974096 -0.469114 -0.969574 -0.909450 -0.253201 0.330329 -0.636135 -0.286500 0.111472 -0.864280 0.978194 -0.114324 0.253441 -0.549364 0.145421 -0.329706 0.597011 0.123902 0.832350 0.226426 0.646473 0.458550 -0.759290 0.066232 -0.242661 0.882835 0.946960 -0.217858 0.485674 0.896681 0.661444 0.511578 -0.572434 0.691870 0.602128 0.174366 0.022199 0.965994 0.887865 -0.866328 -0.898286 0.866059 0.019348 0.355155 -0.683305 -0.835231 -0.974550 0.913706 0.288671 0.857800 0.140133 -0.064856 0.316350 0.380842 -0.998624 -0.926311 0.263678 0.948336 -0.144168 -0.250648 0.845017 -0.482725 -0.739071 -0.727417 -0.790854 0.863058 0.446949 0.231345 0.829051 0.334814 0.365017 0.930765 0.200874 -0.615635 0.285920 0.517569 -0.450866 0.311370 0.431275 0.837805 0.169170 -0.428592 -0.227051 -0.514480 0.952250 -0.225674 -0.440791 0.215928 -0.277339 0.415041 0.965280 -0.432322 0.932316 -0.773791 -0.159739 -0.858538 -0.910733 -0.712790 0.372807 0.918318 0.622024 -0.262176 0.849083 -0.177102 0.122189 0.135004 -0.659533 0.671323 -0.553626 0.771742 0.509128 0.615544 -0.656851 -0.717923 -0.898936 -0.704600 0.056402 -0.339727 0.511328 0.779064 -0.924686 0.476607 -0.653258 -0.992370 
0.702816 0.187003 -0.850908 0.792083 0.474213 0.521899 0.710401 0.096238 -0.740277 0.559485 0.919135 0.381912 -0.305511 -0.740398 0.053234 0.140862 -0.968656 -0.437638 -0.243594 -0.625507 -0.155561 -0.142530 -0.330107 0.900841 0.517743 -0.818779 0.679905 0.593057 0.657828 -0.973353 0.600687 0.360645 0.213651 0.749780 0.152728 -0.312136 0.271679 -0.136871 0.784102 0.531402 -0.577386 0.703237 -0.086687 0.117103 0.962839 0.966547 -0.742035 0.994183 -0.471091 0.014371 -0.631324 0.373348 0.871841 0.038569 0.274189 0.389584 0.219789 -0.045905 -0.017359 -0.122382 -0.019258 -0.416671 -0.761738 -0.805608 -0.666892 0.390990 -0.117744 0.604787 -0.745881 -0.333642 0.136189 -0.323266 -0.630405 -0.950498 0.793836 -0.667566 -0.983951 -0.948198 -0.673383 -0.455041 0.066173 -0.304707 0.918307 -0.061985 0.733861 0.192496 -0.672401 -0.046349 -0.853409 0.310240 0.831268 0.127333 0.893569 -0.930470 0.321725 -0.773323 0.460520 -0.796019 0.831464 0.714640 -0.129661 -0.032348 -0.608627 0.239934 0.017154 -0.814790 0.572368 0.033203 -0.762989 0.898985 0.578162 0.303185 -0.405723 0.496469 -0.758801 -0.671861 -0.311035 -0.431202 0.281790 -0.164444 0.879038 0.113058 0.962889 0.772607 0.182588 0.284614 0.999283 -0.356891 0.488595 0.830747 -0.642252 -0.641066 -0.201600 -0.250879 0.598868 0.815554 -0.065669 0.171237 -0.151243 0.171342 0.070222 -0.573081 -0.525473 0.664499 0.923388 -0.284274 0.992638 -0.387647 0.284523 0.274427 0.447909 0.163561 -0.612515 0.410797 -0.063832 0.570074 -0.304589 -0.064549 -0.786818 -0.815994 -0.233801 -0.429070 -0.457060 0.564599 0.320052 -0.858192 0.380153 -0.745618 0.313045 -0.771090 0.425724 -0.616734 -0.344171 0.900251 -0.952235 -0.420783 -0.384024 -0.959597 0.191570 0.900500 0.314831 -0.360521 0.064061 0.702316 -0.949723 -0.999771 0.272390 -0.254313 -0.064320 0.485572 -0.070307 0.701879 -0.943498 0.472633 0.266478 0.376554 0.614441 -0.353369 0.630936 -0.072514 -0.124459 0.056661 0.310753 0.531370 -0.043089 0.358518 -0.889412 0.572888 0.398922 0.302158 0.473388 -0.286248 0.941637 -0.462551 -0.583931 0.991914 -0.462322 0.688458 -0.262399 0.473358 0.174030 0.667294 0.175238 0.230533 0.139927 -0.558284 -0.392913 -0.245631 0.088346 -0.761977 0.681855 0.963887 0.294684 -0.007392 0.495257 -0.748405 -0.648874 0.605845 0.824483 0.750048 -0.091997 0.297870 -0.536199 -0.150360 0.835319 -0.120131 -0.158446 -0.627003 -0.431672 0.579155 0.846356 0.742358 0.246449 0.021593 -0.027109 -0.613623 0.463309 0.579978 0.140746 -0.448345 0.818001 -0.177399 -0.484458 0.112684 0.815209 -0.989200 0.364279 -0.833665 0.616645 0.188762 0.916384 -0.475352 -0.513368 -0.619816 0.374288 -0.678048 0.260054 -0.784158 -0.305051 0.828381 0.794998 -0.458695 0.570739 0.041447 0.562898 -0.456370 0.427824 0.026207 -0.876392 -0.431431 0.577862 0.941609 0.391170 -0.906595 0.054293 0.206379 -0.895796 -0.581427 0.372714 0.720849 0.607335 0.289098 -0.754503 -0.906033 0.669282 0.619785 -0.584081 -0.070664 0.835628 0.110868 -0.242283 0.630625 0.652173 -0.671544 -0.327928 0.215071 -0.127913 -0.900104 -0.758722 -0.004305 -0.331535 0.819140 -0.062696 -0.940365 0.912545 0.991597 0.266014 -0.983251 -0.589830 -0.361272 0.737598 -0.982496 0.927826 0.983095 -0.888529 0.597108 0.602880 -0.472610 -0.473556 0.438508 0.638258 0.284161 0.069134 0.290431 0.612617 0.741206 -0.494498 -0.515297 0.841102 -0.253220 0.480398 -0.490433 -0.434080 -0.582298 -0.430798 -0.521535 -0.590701 0.835216 -0.504786 -0.180532 -0.526056 -0.767188 -0.163028 -0.598230 -0.784093 -0.051557 0.998878 0.818788 0.475833 -0.474678 0.257296 0.114091 0.809482 -0.673570 -0.595478 0.422099 -0.932364 -0.089976 0.906803 0.908737 0.656804 0.387201 -0.581696 -0.777276 0.804902 -0.012494 -0.298810 -0.785799 -0.177278 0.196404 0.033669 0.296666 0.429216 0.870641 0.698436 0.645123 -0.180915 0.697314 0.463911 -0.705082 -0.777364 -0.278793 0.409010 -0.967882 0.047636 0.813532 0.454217 0.115272 -0.276444 0.361020 0.024009 -0.619639 -0.251780 0.442314 -0.396915 -0.446877 -0.570180 0.304275 -0.232677 0.252542 -0.499322 0.800992 -0.450792 0.929894 0.671634 -0.752357 0.575017 -0.509281 0.944957 0.038928 -0.214363 -0.832407 0.760134 -0.805353 -0.800289 -0.192229 -0.991821 0.653928 0.923043 -0.268265 0.014948 -0.052948 0.112096 0.763168 -0.610635 0.715181 -0.683709 -0.180815 0.019456 0.083614 -0.928273 0.520134 -0.115394 -0.379066 0.450028 -0.443760 -0.131422 0.025045 0.046959 -0.186465 -0.936027 0.832596 -0.018873 0.824107 -0.972757 0.180838 -0.368122 -0.964578 -0.165234 -0.445079 -0.232843 0.849714 0.501973 0.879253 0.612882 0.891338 0.594434 0.929173 -0.289477 -0.386110 0.012787 -0.217750 -0.865975 0.897393 0.403185 0.584053 -0.546367 -0.728238 -0.390902 0.500593 0.085297 -0.326929 0.333189 -0.933575 -0.502822 0.360431 0.247263 0.129056 0.395853 -0.917971 0.683977 -0.836990 0.931743 0.185949 -0.957736 0.544625 0.077288 0.636698 0.473798 0.787811 -0.749412 -0.513416 -0.429939 -0.615387 -0.616023 0.973246 0.968666 -0.162389 -0.754992 -0.422236 -0.661797 0.330305 0.250835 0.671392 0.396730 0.748013 0.031823 -0.356008 -0.122930 -0.572323 -0.273979 -0.438953 -0.409313 -0.342236 0.746996 -0.367049 -0.797610 -0.175716 -0.730351 0.676187 -0.387906 -0.479763 -0.837229 0.182155 -0.095150 -0.453251 0.155401 -0.126484 0.384359 0.400409 0.451280 0.722563 -0.269286 -0.297885 0.393955 -0.872557 -0.549872 -0.574222 -0.228564 0.327198 -0.146545 0.497457 0.888244 0.444142 -0.844778 0.635240 -0.922907 -0.642389 -0.540476 -0.653259 -0.966201 0.071618 -0.133022 -0.803430 -0.746227 0.771828 -0.256681 0.409174 -0.354656 -0.872322 -0.190417 -0.903376 0.850241 0.540297 -0.201262 0.244195 0.667740 0.248866 0.669974 -0.560824 -0.423936 -0.476572 0.936634 -0.535692 0.967570 -0.908144 -0.900451 -0.955337 -0.550533 -0.440928 -0.608596 -0.516734 0.630691 0.258382 -0.320164 0.884464 0.030211 0.423154 0.293638 0.675555 0.550832 -0.896778 0.772178 0.401073 0.643518 -0.429083 -0.354732 0.311259 0.819783 -0.684758 0.750435 -0.604153 -0.161330 0.687069 -0.139844 -0.193759 0.778924 -0.040296 -0.149096 -0.771609 0.518777 0.242308 -0.288343 0.149468 -0.499310 0.391492 0.033932 0.530901 -0.185353 -0.672430 0.206456 -0.634521 -0.569208 -0.021366 0.766551 -0.925690 0.549551 -0.588181 0.385569 0.369334 -0.272939 0.136004 0.765181 0.565731 -0.176928 -0.374663 -0.628028 -0.398004 0.585041 0.222875 -0.169612 0.103818 -0.534817 0.542045 -0.746715 -0.034126 -0.066463 0.287217 -0.503225 0.748184 0.614787 0.703230 -0.886338 -0.954421 -0.318136 0.880214 -0.880111 -0.768585 -0.707967 0.505458 0.600748 0.019094 -0.358539 0.365930 -0.415175 0.464533 0.991266 -0.043203 -0.933470 0.576307 -0.820328 -0.103082 -0.319875 -0.355145 -0.561038 -0.066590 0.610729 0.372499 -0.779373 -0.892496 0.120683 0.835414 0.810734 0.234345 0.880993 -0.507402 0.114559 -0.999118 -0.275987 0.406592 0.506340 -0.675238 -0.574314 -0.852199 0.690691 0.010512 0.612334 0.681957 0.967309 0.678864 0.258265 -0.853019 -0.424218 0.938389 -0.208164 0.014744 -0.128200 -0.597435 -0.612757 0.092427 -0.489931 0.507926 -0.072159 -0.679197 -0.257728 -0.191165 -0.186599 0.856831 -0.190284 0.537415 0.263423 -0.683944 0.862176 0.689109 -0.536143 0.552868 -0.300379 -0.923809 0.234825 -0.333070 0.755055 -0.506911 -0.186089 -0.669163 -0.568521 0.605747 0.345580 0.303279 -0.991688 0.732823 -0.604294 -0.481619 0.240750 0.323547 -0.160816 0.983021 -0.867619 0.652586 0.839852 -0.057902 0.190000 0.103275 0.258154 0.052176 -0.207616 0.722011 -0.394956 0.492005 0.798202 0.839869 -0.841065 0.553257 -0.667042 -0.027154 0.884093 -0.235563 -0.421407 0.229673 -0.932284 -0.413095 -0.037503 -0.536579 0.105286 -0.796754 0.786968 0.944470 -0.813733 0.919350 0.597055 -0.973881 -0.138552 -0.212945 0.129394 -0.880398 0.839232 0.921778 0.841613 -0.555724 0.413783 0.639814 -0.715855 0.572718 0.193071 -0.382897 -0.454436 0.077164 0.381540 0.124157 -0.693163 0.449256 0.711061 0.269334 0.912677 -0.183653 0.472581 0.699646 -0.239184 0.658848 0.618995 -0.642129 0.684967 -0.519557 0.144927 -0.185639 -0.399955 -0.015842 -0.263861 -0.558342 0.428434 -0.850078 -0.918528 0.712579 0.722640 0.274543 -0.670318 -0.731796 -0.648293 0.711222 0.392361 -0.341456 0.160478 0.103422 0.927879 0.073155 0.919769 0.400459 -0.227200 -0.319415 0.059307 -0.608204 0.038456 -0.255726 -0.127761 -0.816617 0.558635 0.472284 0.167541 -0.705226 0.913942 -0.404024 -0.555304 0.995414 -0.691445 -0.832664 0.269957 -0.361764 -0.564460 0.621664 -0.650542 0.827901 -0.719792 0.509936 -0.068677 -0.791913 -0.416909 -0.148908 0.608546 0.355891 0.531677 -0.332147 0.747687 -0.429867 0.412127 -0.380074 -0.246484 -0.029239 -0.907789 0.921058 0.265535 -0.993847 -0.482967 0.710231 -0.998433 -0.174412 0.877566 0.271524 0.463824 -0.686893 -0.106812 0.813283 -0.858992 0.173396 0.323219 0.072331 0.381483 0.906310 0.923424 -0.009971 0.262201 0.455100 0.657881 0.009888 -0.974766 0.070008 0.629815 -0.221250 -0.959230 0.722025 -0.300193 0.306305 0.728178 0.216841 0.016535 0.729744 -0.957571 -0.105898 0.001268 0.506253 0.207208 0.894456 0.319536 0.348217 0.067852 -0.357245 -0.579452 -0.550665 -0.450935 -0.656028 0.439363 0.811266 0.799072 0.097245 -0.178846 0.824306 -0.832747 -0.549031 -0.396944 -0.791978 -0.827006 0.302863 0.514327 0.901172 -0.480296 -0.469138 0.630917 -0.437867 0.424964 -0.367815 -0.931614 -0.367828 -0.473359 0.387922 0.980389 0.594493 -0.969324 -0.599063 -0.956173 -0.420259 -0.255092 0.483190 -0.608993 -0.456020 -0.419565 0.212162 -0.631714 -0.252313 0.663131 -0.028658 -0.044290 0.836125 -0.725795 -0.529963 0.737297 -0.206091 0.000899 0.368214 0.356041 -0.574137 -0.999601 0.424427 0.058035 -0.472960 -0.187652 0.038424 -0.878468 -0.156975 0.439361 -0.834641 0.422766 -0.815731 0.648550 0.813773 -0.271751 -0.771015 0.025935 0.096536 -0.023328 -0.310934 -0.932123 0.932382 -0.474809 -0.657918 -0.597581 -0.737512 0.135991 0.403318 0.630702 -0.507968 0.829180 0.631101 0.916459 -0.112785 -0.841859 -0.271193 0.925639 -0.720326 0.571832 0.365000 -0.554967 -0.005402 0.549269 -0.906417 -0.191629 -0.722482 -0.677433 0.834306 0.374054 0.299239 -0.476629 0.441931 0.231621 0.048562 0.784013 0.634040 0.311050 -0.079997 0.037357 -0.058248 0.412035 -0.133462 -0.427146 0.328494 0.753753 -0.269005 -0.942699 0.679392 0.010668 0.629132 0.044392 0.455701 -0.376270 -0.406339 0.549284 0.432101 -0.128821 0.871852 0.266407 -0.754767 0.171091 0.789778 0.687164 -0.597288 -0.161660 0.471177 -0.963248 -0.850610 -0.608820 0.074110 0.091143 0.803215 0.940647 0.663997 0.131709 0.694400 -0.605009 0.189009 0.373793 0.405660 -0.181859 -0.581815 -0.138639 0.441872 0.011845 -0.589354 -0.126027 0.883024 -0.717503 -0.859620 -0.871743 0.453588 0.930158 0.815421 0.856301 -0.231502 0.286598 0.893053 -0.082111 0.677778 -0.032838 -0.990969 0.480993 -0.092190 0.673028 -0.387299 -0.397790 -0.931981 0.801710 0.976003 0.473679 -0.380148 -0.605813 -0.664959 -0.938277 0.406033 -0.254314 -0.064304 0.289057 0.028183 0.076076 0.417314 -0.518228 0.006234 0.232735 -0.661928 0.774732 -0.480668 -0.768875 -0.307379 -0.802890 0.198287 -0.298348 0.678102 -0.893903 -0.625320 -0.709196 -0.291693 -0.557301 -0.907486 -0.315690 0.916378 -0.287635 0.078498 -0.748581 -0.225911 -0.515470 -0.002895 0.709785 0.773587 -0.974711 -0.214139 0.190901 -0.492939 0.792094 -0.576364 -0.154867 0.566826 -0.057032 0.076258 -0.740553 0.140078 -0.725455 -0.038901 -0.181820 -0.619358 0.335779 0.108984 0.088950 0.778478 0.201498 0.773260 0.694857 0.913863 -0.148242 0.946276 -0.312048 0.336288 -0.056619 -0.602263 0.109875 -0.031330 0.183597 -0.699224 0.475730 -0.024308 -0.275588 -0.679137 -0.457482 0.667380 0.397121 -0.198035 -0.192542 0.671666 0.763064 0.625638 -0.947692 0.098842 -0.265378 0.141258 -0.122680 0.936120 -0.085482 -0.427823 0.849983 0.766276 -0.481548 -0.462065 0.102564 0.461833 -0.064328 -0.787562 -0.569497 -0.880731 -0.486786 0.906233 0.094961 0.237626 -0.772904 0.637479 -0.094994 0.624217 -0.560557 0.712463 0.295883 -0.797493 0.338101 0.348191 0.301349 -0.927277 -0.510551 -0.821330 -0.991157 0.403967 -0.249154 0.858826 0.170243 0.269299 -0.603239 -0.727194 -0.268868 0.332433 -0.514755 0.161635 0.451703 -0.001541 0.067868 -0.453337 -0.763915 0.294965 -0.815858 0.141090 -0.080818 -0.376414 -0.146446 -0.784935 -0.173908 -0.808345 0.563256 -0.872558 -0.735622 -0.947295 -0.693889 -0.726778 0.456672 0.056957 -0.867952 -0.373085 -0.673744 -0.471191 -0.100279 0.057388 0.861243 0.384966 -0.780977 0.312945 -0.616575 0.286891 0.859609 -0.380490 -0.418144 -0.956249 0.760600 0.501037 -0.332664 -0.385846 0.716102 0.493429 -0.194191 0.279358 0.620871 0.070187 0.332063 0.926982 0.343409 -0.211265 -0.016061 0.475457 0.415649 0.310195 -0.995734 -0.684630 -0.632417 0.865509 0.700336 -0.413394 0.178455 -0.916239 0.873497 0.038063 -0.296729 -0.544647 0.081814 -0.536129 0.956391 0.749151 0.078025 0.672493 0.242580 0.883834 -0.048149 -0.136550 -0.045979 -0.716087 -0.209568 -0.702570 0.072648 0.774371 0.772887 -0.511703 0.084566 0.777154 -0.196332 0.452149 0.642663 -0.495996 -0.961245 -0.178882 -0.412235 0.912253 0.859181 0.291036 -0.632394 -0.059005 0.754906 -0.676003 -0.309854 -0.167069 0.996489 0.932725 -0.283235 -0.051660 -0.203824 0.670786 0.232253 0.586607 0.968217 -0.695099 0.360978 0.741104 -0.206802 -0.554456 0.518258 0.596866 0.897694 0.160921 -0.899130 0.936449 0.982038 -0.311365 0.848702 0.841219 0.979670 -0.783692 -0.217786 0.734577 -0.459696 0.472360 -0.432492 -0.463206 0.405086 0.284273 0.485134 -0.798739 -0.044941 -0.282613 0.787869 -0.076724 0.022288 0.148847 -0.335620 0.815486 0.594391 -0.817363 0.412351 0.492085 0.343558 0.513221 0.428533 0.325596 -0.798144 0.277235 0.166815 -0.818474 0.493543 0.949030 0.916103 -0.966153 0.421390 -0.516389 -0.429359 -0.173525 0.767884 -0.944226 0.027737 -0.277057 -0.226839 -0.184395 0.646219 0.795449 0.964452 -0.689401 0.610934 0.558843 -0.506764 0.023286 0.050928 0.836794 -0.463493 -0.520539 0.162390 -0.261637 0.756696 -0.670795 -0.080111 0.250239 -0.721765 -0.164008 0.284086 0.699625 0.319603 0.854727 -0.473900 0.087487 0.910502 0.553837 0.810430 -0.316337 -0.630558 0.456649 -0.520889 -0.666106 0.767247 -0.909954 0.892738 -0.739517 0.113332 -0.056335 -0.902723 0.649839 0.423127 0.259667 -0.611798 0.179823 0.588872 0.308091 -0.569938 0.867107 -0.855917 0.714148 0.566731 0.463686 0.568875 -0.907168 -0.448827 0.479377 0.646668 -0.638397 -0.836960 -0.983890 0.818251 -0.357849 -0.649995 0.585499 -0.267803 -0.757258 0.845982 0.845529 0.186408 0.943259 0.495368 -0.390466 0.202925 0.883570 0.789357 -0.208203 0.191661 -0.780580 -0.341096 0.335744 0.933568 -0.774364 -0.200570 0.502443 -0.681533 0.350603 -0.018179 0.965136 0.712206 0.144860 0.981246 0.530457 0.787012 -0.668749 0.115956 -0.480791 -0.426007 -0.038062 -0.635263 0.760401 -0.094804 0.860105 -0.630065 -0.891878 0.743675 -0.840707 -0.100081 -0.064665 -0.621288 0.558823 -0.728921 -0.687720 0.784459 0.070510 0.814724 -0.897074 -0.578887 -0.203456 -0.931939 -0.866681 0.941405 -0.950692 0.663776 0.728416 -0.619442 -0.220267 -0.752375 -0.045448 0.741670 -0.387638 -0.285048 -0.353134 -0.527533 0.084888 -0.245012 -0.783858 0.244180 0.654907 0.151477 0.622893 0.213730 0.422557 0.935173 -0.001811 -0.506934 0.749897 0.101115 -0.085821 -0.453559 0.169176 0.047498 -0.512154 0.218484 -0.288725 -0.783738 0.599042 0.491007 -0.536114 -0.446407 0.232678 0.076248 0.268546 0.879544 0.548715 -0.646566 -0.365468 0.764857 0.597614 -0.710561 -0.083666 0.220507 0.503169 -0.661110 0.155679 -0.498643 -0.168043 -0.094424 0.602472 0.746136 0.452017 -0.228352 -0.206366 0.939862 0.990131 0.504909 -0.843876 0.589173 -0.004084 -0.379990 -0.857233 -0.771406 0.696259 0.411312 -0.891862 0.244974 0.764746 -0.257330 0.009831 0.362360 0.032108 0.926165 -0.417134 -0.464723 -0.734945 0.738546 0.036634 0.097011 -0.355878 -0.360894 -0.156853 -0.903861 0.410754 0.636782 -0.963999 0.400885 0.141691 -0.807875 -0.009942 -0.862393 -0.187864 0.132825 -0.633799 -0.491605 -0.455863 -0.525661 0.753369 -0.691117 0.217009 -0.236801 0.671243 -0.750883 -0.310636 -0.745890 -0.215606 -0.045581 0.992656 0.821029 -0.948570 -0.363223 -0.539866 -0.105422 -0.267084 0.870888 -0.468641 -0.231082 0.271773 0.673050 -0.038957 -0.738169 0.810658 0.773179 0.394656 -0.823141 -0.718426 0.938793 -0.348802 -0.965058 -0.752324 0.868207 -0.201858 0.918919 -0.882675 0.487505 -0.826971 -0.098281 -0.558076 -0.834315 -0.277252 -0.506646 -0.197538 0.182882 0.387932 0.535378 0.053770 0.919291 -0.695704 -0.674457 0.592342 0.265339 -0.412626 0.402999 0.038518 0.982029 0.579858 0.320091 0.920822 -0.768944 0.355034 -0.831501 -0.900736 -0.846825 -0.912582 -0.783412 0.640681 -0.739553 0.118307 -0.917395 -0.573869 0.841055 -0.424041 0.228593 0.023937 0.963891 -0.236028 -0.922293 0.883183 0.068267 -0.596750 0.475525 -0.666394 -0.009377 -0.121476 0.372124 -0.027347 -0.541618 -0.307785 -0.106525 -0.310562 -0.952751 0.061974 -0.211298 -0.799575 0.149392 0.005290 0.841105 0.409839 -0.876402 0.923710 0.835970 0.964653 -0.500330 0.064563 -0.011410 -0.536439 0.828535 0.066297 -0.653256 -0.103198 0.469546 0.822269 0.230408 -0.539830 -0.299208 -0.397468 0.432823 0.159174 0.294748 -0.673702 0.848613 0.341997 0.388272 -0.362685 0.542421 -0.462336 0.642605 0.383527 0.947502 0.766202 0.307237 0.783472 0.730855 0.806907 -0.151965 -0.280555 -0.729532 -0.323430 0.785741 -0.382788 0.573373 0.255288 -0.560519 -0.196219 0.715457 0.140273 0.406313 0.148280 -0.700553 -0.298939 0.474578 -0.851940 -0.956942 -0.137151 -0.214625 0.585479 0.400513 -0.572021 -0.030994 0.348015 -0.805818 -0.723757 0.131487 0.925036 -0.916850 0.979523 -0.355519 -0.646382 -0.343907 -0.569778 -0.029170 -0.770534 0.685510 0.410311 0.033247 0.400967 -0.449416 -0.560440 -0.450753 -0.149969 0.140621 -0.976175 -0.001909 0.183679 -0.113326 0.783466 -0.230842 -0.712813 -0.788555 0.738164 0.635202 -0.594373 -0.985593 -0.233311 -0.669337 -0.902443 -0.253788 -0.024856 -0.548825 0.402305 0.405367 0.422005 0.631771 0.090876 -0.167684 -0.334982 -0.508156 0.382900 0.104578 0.041090 -0.767069 -0.754801 0.064915 0.231022 0.428878 0.951589 0.014488 -0.801964 -0.761224 0.225933 0.936200 0.873978 0.631560 0.950607 -0.359332 0.962223 -0.951837 0.386880 -0.062633 -0.500662 -0.210814 -0.657266 0.921344 -0.579043 0.433611 -0.246341 0.085975 0.925454 -0.863441 -0.809447 -0.033455 -0.630510 -0.564248 -0.968540 0.600513 0.864630 0.983049 -0.384999 -0.937334 -0.778175 0.840935 0.998865 -0.904196 0.472495 0.949472 -0.263528 0.434718 0.997636 -0.876648 -0.627914 -0.503026 -0.087462 -0.285180 -0.581682 0.333494 -0.851570 0.171977 -0.580531 -0.926116 0.308536 -0.389977 0.040429 0.678027 0.045775 0.071888 0.278540 -0.089595 0.054937 0.893541 -0.026929 0.276762 0.734476 -0.028064 0.372566 0.206970 -0.078592 -0.890962 -0.358312 -0.080956 -0.767611 0.013774 0.416018 0.144927 0.728593 0.834335 -0.521579 0.877024 0.006312 -0.102109 0.950908 -0.685151 0.507913 -0.008663 0.992876 -0.446312 -0.936775 0.271415 0.464093 0.118162 0.164956 -0.562837 -0.605075 -0.100568 0.409099 0.767491 -0.893598 -0.669492 0.876528 -0.251909 0.249551 -0.891082 0.761865 -0.334431 0.253845 0.490458 -0.500096 0.732266 0.367482 0.506217 -0.369843 0.318390 0.821065 -0.861929 -0.690274 0.813941 -0.308241 -0.627049 0.085356 -0.844148 0.491114 -0.749687 -0.406985 0.886038 0.149745 -0.997885 0.653529 0.256147 -0.667378 0.530058 -0.995762 0.582174 0.638975 0.766103 -0.752257 -0.107180 0.256561 -0.252353 -0.374913 -0.375957 -0.746136 0.255244 0.942432 -0.925071 0.393315 -0.747842 0.888870 -0.914926 -0.374890 -0.025773 -0.759074 -0.883777 0.224540 -0.166059 -0.997739 -0.625716 -0.163944 0.655790 0.630432 0.168678 0.185848 0.634670 -0.249148 -0.175177 0.400772 -0.001406 0.717644 -0.342667 0.746241 -0.657269 0.281376 -0.999895 0.597975 0.223808 -0.924966 -0.008711 0.475967 0.963905 0.076363 -0.898924 -0.061868 0.317289 -0.782701 -0.837329 -0.848770 -0.780439 -0.463044 -0.012715 0.875351 -0.832613 -0.844037 0.061199 0.802057 -0.093185 0.886023 0.202829 0.905409 0.603666 0.860163 0.651650 0.946397 0.141539 0.651755 0.544372 -0.634653 0.726790 -0.464339 0.841314 0.690694 0.612024 0.942390 -0.371174 -0.070687 -0.840311 -0.208503 0.080543 -0.620750 0.328453 -0.932172 -0.745398 0.495840 -0.776208 0.315801 0.297897 0.130607 0.201824 -0.499273 0.036016 -0.194510 -0.639110 -0.312334 -0.248113 0.502428 -0.660578 -0.703741 0.867775 -0.933789 -0.168080 0.709089 0.756906 -0.556056 0.651479 -0.614268 0.373257 0.811169 0.177229 -0.546200 -0.809581 -0.494318 -0.478372 -0.554980 -0.998478 -0.254580 0.760821 0.299420 0.876026 -0.037355 0.800147 -0.087958 0.768135 -0.838964 0.599708 -0.479978 0.663464 0.939130 -0.183720 0.531240 -0.994659 0.648200 0.240329 0.762247 -0.907856 -0.108192 -0.852022 0.465401 -0.297023 0.325207 0.919201 -0.106605 0.830889 -0.559171 0.338416 0.832412 0.186248 0.099237 0.131832 0.062274 -0.938118 -0.068022 0.974316 0.830017 0.093015 0.574024 -0.649962 -0.243521 0.513154 0.166319 -0.712281 0.518494 -0.185481 0.528048 0.280741 -0.093337 -0.580144 0.428719 -0.627936 0.122832 -0.246073 -0.708736 -0.983772 -0.415184 -0.267907 0.354643 -0.582772 0.918341 -0.546120 0.549060 -0.019385 -0.484238 -0.518962 -0.045068 -0.654221 0.574053 -0.471044 -0.304183 -0.669468 -0.957891 0.862136 -0.381749 0.560604 -0.323345 -0.853701 -0.158655 0.583318 -0.433846 -0.729936 0.955382 0.688987 0.023990 -0.753354 0.705214 0.608806 -0.021261 0.059858 -0.973966 -0.102920 0.513738 0.575094 0.877696 -0.970500 -0.943867 -0.167373 -0.624721 0.630186 0.361583 0.071096 0.960718 0.403692 -0.066768 -0.421031 -0.035704 0.609887 -0.274733 0.805640 0.193205 0.291422 -0.924296 0.148587 -0.019592 0.099694 0.395233 -0.314377 -0.291499 -0.626028 0.745480 -0.265465 0.271052 0.259218 -0.690370 0.148748 0.288718 -0.634238 0.981375 0.663998 0.995948 0.342958 -0.264906 0.956666 -0.253350 0.668326 -0.464365 0.710946 0.278213 0.260902 0.516586 -0.528581 -0.447676 0.592290 0.620005 0.532732 -0.308015 0.015238 -0.781645 0.400486 0.389210 0.963835 -0.864979 -0.339737 0.223053 -0.555349 0.809011 -0.488228 -0.189586 0.790386 -0.824231 -0.193638 0.133344 -0.089137 -0.236973 0.879995 -0.420811 0.298662 0.590941 0.857403 -0.440436 0.107527 -0.671178 0.111888 -0.300183 0.948827 -0.355380 0.391802 -0.035935 -0.137025 -0.207712 -0.646724 -0.173189 -0.072690 0.013539 -0.950136 0.371961 -0.177451 -0.438364 -0.817626 -0.387065 -0.262594 -0.011264 0.746280 0.648269 0.751763 0.626274 -0.772542 0.050425 0.217215 -0.915139 0.609989 -0.675258 -0.586317 -0.278123 0.024559 -0.637490 0.366498 -0.583638 0.326575 -0.770527 0.208650 0.679851 0.056284 -0.864040 -0.306610 0.106148 0.507921 0.515939 0.667784 0.690295 -0.871126 -0.594810 -0.320969 0.875154 -0.946541 -0.569206 0.501428 -0.719083 0.481219 -0.281357 -0.634222 0.091209 0.043386 -0.220539 0.813086 -0.932055 0.141971 0.179584 -0.515693 -0.531454 0.409057 0.692957 -0.851603 -0.534659 0.828917 -0.158213 0.571489 0.336837 -0.642274 0.239273 0.027132 -0.513400 0.644463 0.706163 -0.638246 0.697922 -0.863043 0.863182 0.978839 0.618176 -0.418174 -0.655383 -0.290615 0.625211 0.124078 -0.477529 0.693156 -0.733951 0.702055 -0.822537 -0.265405 0.111112 0.870420 -0.117007 0.576453 0.699337 0.724779 0.147942 0.036174 -0.917495 -0.612784 -0.936694 -0.430896 -0.968321 0.769469 -0.069142 0.729601 0.906426 -0.205959 0.708440 0.524602 0.375867 -0.946943 -0.766013 0.001078 0.177136 -0.243542 -0.305765 0.443185 -0.541486 -0.128302 -0.822220 0.569626 -0.257882 0.060773 0.146079 -0.558545 -0.214448 -0.705978 0.477629 -0.131943 -0.318763 0.540935 0.437161 -0.287083 0.310403 -0.631981 -0.557482 0.216829 0.162060 -0.849042 -0.258569 -0.462073 -0.795985 -0.024582 0.539005 0.381151 0.731876 -0.766760 -0.175664 -0.809610 0.104938 0.002116 0.760016 0.847056 -0.937111 -0.093905 -0.711489 -0.151559 0.200116 0.766139 0.716497 0.881354 0.307074 0.153658 -0.405729 -0.382523 0.521678 0.036788 0.834306 -0.316262 0.187746 -0.424263 0.221665 0.391761 0.551155 -0.239330 -0.227088 0.283031 -0.006090 0.597247 
0.473421 -0.901152 -0.400637 0.233437 0.945904 -0.337748 -0.860468 -0.765586 0.510692 0.339648 -0.999446 0.227189 0.221002 0.307628 -0.619152 0.815273 0.925105 0.902525 -0.147939 0.759411 -0.413737 -0.960193 -0.664852 0.807928 0.431568 0.886303 -0.431402 -0.795520 0.169335 0.562508 0.801727 -0.357244 0.661356 -0.598909 0.876193 0.607260 0.063342 -0.984275 0.841675 -0.425965 0.355373 0.842228 0.801224 -0.423625 0.149856 -0.817928 -0.608353 0.074961 -0.915403 0.243708 -0.165628 -0.329140 0.283515 0.169521 -0.521212 -0.284916 0.055824 0.047386 -0.080436 -0.774841 -0.390106 -0.278709 -0.132085 -0.728749 0.122382 -0.255892 0.878511 -0.814276 -0.240168 0.720185 -0.240241 -0.884795 0.562414 -0.439017 -0.308420 -0.287730 -0.256945 0.083228 0.787231 -0.172349 -0.673064 -0.378397 0.498511 0.610451 0.791124 0.977299 -0.674465 -0.153052 0.024685 0.245098 0.072107 0.634579 0.966389 0.940022 0.905829 0.088771 -0.315871 0.784340 0.274495 0.443962 0.504526 -0.965746 0.559167 0.066939 -0.404763 -0.749253 0.779209 0.338291 0.333975 0.566440 -0.834058 0.660911 -0.811957 0.664454 0.271362 0.979167 0.641752 0.596896 -0.173885 -0.333563 -0.158005 0.898222 -0.698984 -0.191616 0.838244 -0.793155 0.897155 -0.477627 0.991186 0.171650 0.966335 0.495711 0.205904 0.525502 -0.437350 0.801140 0.776249 -0.658141 0.139431 0.110224 0.908299 0.305374 -0.228865 -0.903658 -0.030173 -0.957504 -0.924492 -0.388420 0.639393 -0.098377 0.278017 -0.518613 -0.200155 0.579033 0.289771 -0.361912 0.785878 0.186927 0.160462 0.777064 -0.641423 0.126796 0.272775 0.564481 -0.347701 0.835425 0.365621 -0.571452 -0.822715 -0.494947 0.538772 -0.914416 0.810426 -0.690094 -0.818075 -0.219746 -0.647597 -0.742567 0.391834 0.991795 0.159057 -0.330150 -0.526817 0.958901 -0.751117 0.762954 -0.403010 -0.965239 -0.050119 0.757451 0.811825 0.308458 -0.115752 0.084600 -0.127062 0.536546 -0.079974 -0.761441 0.965094 0.097311 -0.256388 0.503866 0.182894 -0.445961 0.813773 0.364819 0.334292 -0.833825 0.622253 -0.273874 -0.842029 -0.218691 0.395977 -0.368847 -0.259789 0.644860 -0.605893 0.337201 0.679621 0.343988 0.094652 0.491447 -0.347554 0.978900 -0.423953 0.525384 0.515446 0.496073 0.763944 0.480541 -0.406617 -0.492444 -0.015593 0.776278 0.061594 -0.201821 0.141097 -0.604113 -0.035645 -0.236650 0.122013 0.122325 0.544659 -0.482011 0.753479 -0.715130 -0.837151 -0.852414 0.622071 0.842470 0.491574 -0.283277 0.333917 -0.855980 -0.304377 0.909964 0.669404 -0.788931 0.406036 0.433348 0.691609 0.999420 0.940904 -0.323984 0.775697 0.002498 0.474195 -0.083206 0.398385 -0.561450 0.680144 -0.479603 0.560875 0.224803 0.038386 0.314354 0.509673 0.201235 0.461940 0.131744 0.043705 -0.046486 0.848467 -0.622378 0.097534 -0.455911 -0.712414 -0.233061 -0.244842 0.693622 -0.799713 -0.553232 0.693042 -0.858810 0.122784 0.468739 0.143688 -0.403021 -0.614467 -0.457927 0.035529 -0.934323 0.062470 -0.403596 0.290480 -0.899144 0.910758 -0.199846 0.302091 0.372698 0.931898 -0.654203 -0.673788 0.780364 -0.276581 0.423747 -0.675546 0.011004 -0.809315 0.079612 -0.295374 -0.609028 0.526380 -0.602332 -0.467838 -0.350836 0.866407 0.675850 0.246143 -0.748061 -0.782077 -0.718328 -0.682384 0.280393 -0.121923 0.608097 0.381249 -0.211165 -0.591750 -0.316660 -0.838467 -0.659852 0.029137 -0.512254 -0.879488 0.752556 0.911492 -0.555034 -0.236440 -0.897822 0.524578 0.468187 -0.506850 0.050958 0.865854 0.025312 0.700122 0.732261 -0.298838 -0.053735 0.984200 -0.080915 0.227937 -0.698183 -0.800522 -0.893986 0.909914 0.580726 -0.105151 -0.681836 -0.735933 0.056382 -0.341688 0.293203 0.544128 -0.221176 0.045759 0.455620 0.223789 0.809319 0.557798 -0.251633 0.277506 -0.949052 0.799325 0.143360 0.076260 0.499447 -0.124379 0.777422 -0.554288 -0.140178 -0.303493 0.673649 0.161639 -0.104015 0.779663 0.071552 -0.523289 -0.325489 0.389716 -0.259223 0.730893 -0.951972 -0.966019 0.275021 -0.173149 0.079740 -0.269359 -0.949359 -0.110941 -0.711561 -0.200992 -0.833435 -0.660614 -0.401667 0.309926 0.415646 -0.902220 -0.814453 0.193068 -0.456508 0.045369 0.889575 -0.782859 -0.792992 -0.214441 0.996804 0.278560 0.262270 -0.328685 -0.331724 -0.996952 -0.597791 -0.283697 -0.962971 0.677229 0.543155 0.116769 -0.592130 0.593795 -0.994172 -0.303691 -0.607196 -0.827607 0.035695 -0.008863 0.482319 -0.548659 0.088917 0.667866 0.644408 0.632410 -0.286765 0.533983 0.849551 -0.079758 -0.680458 0.846355 -0.801198 0.581813 -0.482330 -0.132922 0.584860 -0.080121 0.583381 0.621889 -0.402892 0.126536 -0.261343 0.004978 -0.279669 -0.255515 0.701287 0.113135 -0.083122 -0.263018 -0.895728 -0.600803 0.188322 0.193189 -0.932937 -0.167269 -0.174401 -0.219703 -0.633286 -0.324850 0.700539 -0.313744 -0.478495 0.899341 -0.731932 0.039176 -0.233581 0.852929 0.959055 -0.650200 0.474817 -0.443837 0.476336 -0.786525 0.561141 -0.803333 -0.042040 0.262428 0.309802 0.874838 0.999410 0.414074 -0.725965 0.187732 -0.392737 -0.658902 -0.979538 0.432863 0.121396 -0.612824 -0.891987 -0.178065 0.073432 -0.370482 -0.278724 0.341501 0.668694 0.487695 0.194429 0.627749 0.837495 -0.330753 -0.816088 0.313831 -0.117278 0.745053 0.510498 0.840682 0.007481 -0.179700 0.715520 0.006891 -0.765626 0.989555 -0.805377 -0.158362 -0.669346 -0.784915 -0.725500 0.452049 -0.397739 -0.617487 -0.726016 0.675694 0.012032 -0.004739 0.017194 -0.319274 -0.517044 -0.788376 -0.691525 -0.679549 -0.119129 -0.507614 0.634282 0.763592 -0.762560 0.144780 0.604274 0.244921 0.965080 0.319794 -0.748188 -0.800545 0.309349 -0.553565 0.041093 0.640003 -0.338480 0.315593 0.092053 0.263782 0.698106 0.366037 -0.060525 -0.289862 -0.638702 0.956669 0.390864 -0.155747 -0.831707 0.699338 0.164704 0.049164 -0.808275 -0.201014 -0.187244 -0.570836 0.943766 -0.582970 0.674085 0.908846 0.736823 0.925897 -0.891699 0.046173 -0.627668 0.149394 -0.313824 0.033852 -0.535013 0.778229 -0.702366 -0.836907 0.144265 0.237109 -0.126769 0.505563 0.193778 -0.735905 -0.650184 0.362071 0.963433 0.514521 -0.588766 -0.844842 -0.686494 0.223990 -0.415677 -0.742728 0.641020 -0.741592 -0.833881 0.377843 -0.815695 -0.725580 -0.575984 -0.443363 0.423814 0.110192 0.590489 0.888800 -0.111579 0.888122 -0.948106 -0.967314 0.125231 -0.074875 0.538249 -0.680991 0.189220 0.888066 0.681080 0.152653 0.402586 -0.907685 0.307812 0.716093 0.316305 0.892134 0.973365 -0.042675 -0.849458 -0.860516 -0.664832 -0.665153 -0.586097 -0.240816 -0.108516 0.837717 0.869376 -0.518027 0.726517 -0.242203 -0.629904 0.778411 -0.209517 0.495327 -0.296464 -0.671268 0.814336 0.892756 -0.783203 0.495416 0.045409 0.619383 0.587731 -0.646779 0.335476 -0.095964 -0.754645 0.308841 0.861360 -0.604103 0.448325 -0.803472 -0.269256 0.862228 -0.044288 0.622229 0.699945 -0.174912 -0.895798 0.426462 0.582885 -0.525702 0.204873 -0.626632 0.969624 0.908409 -0.297901 0.783960 0.801165 -0.081103 0.279376 -0.153426 -0.461720 -0.132893 0.199795 0.873756 0.771142 0.445151 0.182597 0.632503 0.841048 -0.369078 0.829031 -0.428208 -0.506851 -0.215257 -0.805979 -0.806906 0.609831 -0.701777 0.619557 0.192716 -0.227480 -0.175570 0.566083 -0.257855 -0.267161 -0.731817 -0.473895 -0.465996 0.187079 0.805481 0.380579 0.725360 -0.327412 -0.419626 0.599116 -0.556269 -0.974476 -0.218287 -0.923767 0.866572 0.412634 0.905264 -0.561635 0.905784 -0.309994 -0.367614 -0.901122 -0.700163 -0.069391 0.718435 0.492553 0.703129 -0.457135 0.058636 -0.554726 0.275704 0.326819 -0.028621 0.809708 -0.486102 -0.223140 0.190287 -0.760742 0.449448 0.770661 0.838374 0.893179 0.796185 -0.379914 0.969412 0.662758 -0.967279 0.874676 -0.898878 0.938505 -0.435318 -0.266492 -0.962617 -0.135480 0.664117 0.755818 -0.642927 0.367246 -0.701317 0.415709 0.812520 0.574387 -0.257472 -0.216101 0.384095 0.256426 0.560759 -0.425618 0.495684 0.010208 -0.654957 0.334058 -0.096613 -0.858772 0.954144 -0.127201 0.803986 0.986865 -0.252525 0.905108 0.925370 0.312157 -0.361384 0.962752 -0.823323 -0.697267 0.718570 -0.466250 0.669979 -0.982747 0.949459 0.482499 0.591640 -0.308013 -0.733602 -0.024265 0.948414 0.827158 0.550118 0.444098 -0.162635 0.895161 -0.221844 0.740752 -0.963611 -0.267700 -0.386450 0.840375 -0.280835 0.361025 0.745483 -0.355465 -0.326818 -0.615900 -0.392713 -0.150141 -0.313167 -0.674143 0.383609 -0.643188 -0.656890 0.333068 0.839312 0.934750 -0.974944 -0.894290 -0.089514 0.973469 0.932868 -0.539396 0.417567 -0.229767 -0.644235 -0.804277 -0.489015 -0.607846 -0.071977 0.124535 -0.767471 0.647188 -0.514440 0.978012 -0.708277 0.158743 -0.637888 -0.100990 -0.991398 0.048945 0.224867 0.392212 0.405757 0.567978 -0.274720 0.245069 0.502728 -0.249664 0.350780 -0.586786 -0.276195 0.283647 -0.126182 -0.858628 -0.946120 0.229582 -0.662905 -0.435135 0.621736 0.265117 0.689401 0.854265 -0.087695 -0.825039 0.832277 0.204028 0.333704 -0.805612 -0.896962 0.342306 0.243333 0.327905 -0.265482 -0.350910 -0.104117 0.459798 0.894160 -0.601389 -0.789866 0.244939 -0.188175 -0.066061 -0.471413 0.685643 0.075311 -0.417533 -0.084775 0.412406 0.147332 -0.463039 -0.322477 -0.163267 -0.608774 0.589828 0.011694 -0.776498 -0.206144 -0.654602 -0.582109 -0.103107 0.687704 0.661224 -0.775202 -0.577778 -0.689685 0.120681 0.882021 -0.795526 0.519291 -0.907845 0.449414 -0.668884 0.026094 0.978000 -0.983241 -0.898595 -0.439532 -0.068016 0.513810 0.707800 0.468945 -0.808667 -0.455467 0.860171 0.781161 0.556227 -0.916326 -0.424983 0.901625 -0.498435 0.471910 0.589329 -0.837211 0.696709 -0.988448 -0.526897 -0.182611 0.893573 -0.322423 -0.663319 0.985727 -0.873009 -0.332203 0.011821 -0.895009 -0.315444 0.113226 -0.334541 0.616540 -0.372964 -0.626741 0.085486 -0.181630 -0.082208 -0.054343 -0.400469 -0.525981 0.029330 0.174548 -0.624356 0.530895 -0.353541 0.964974 0.693684 -0.656833 0.976525 -0.833213 0.160556 0.870098 -0.155636 0.497237 0.855825 -0.028645 -0.834966 -0.132354 0.076347 -0.150410 0.980872 0.741806 -0.533870 -0.392091 -0.884936 0.551615 0.426278 0.032856 -0.502728 -0.974191 0.506875 0.526603 0.200358 0.882520 0.057498 0.846816 0.847493 -0.248819 -0.810017 0.824019 -0.082032 0.350539 0.694117 0.762332 -0.152224 0.549942 -0.266313 0.012810 -0.582412 0.810034 0.862399 -0.601540 0.551840 -0.671471 0.006369 0.666904 0.880144 -0.567353 -0.300240 -0.622583 -0.541543 -0.793364 0.904019 0.658814 -0.910845 -0.038483 0.505630 0.936648 0.712698 0.695614 0.760667 -0.369334 0.046153 0.454784 -0.607002 0.893929 0.004726 0.126685 -0.093261 0.422314 -0.063281 -0.230862 0.820774 -0.511441 0.097668 -0.172857 -0.844537 -0.022188 0.259791 -0.144777 0.355229 0.718247 0.061859 0.259248 0.377062 0.151014 -0.779235 -0.117308 0.087662 0.933462 -0.421694 -0.151671 -0.435872 0.624459 -0.696887 -0.042874 0.518388 0.307839 -0.916189 -0.574872 -0.269847 0.020530 0.194266 -0.449073 0.509089 -0.708066 0.378070 0.664551 0.269746 -0.362139 -0.480226 -0.375025 -0.643892 0.581633 0.884223 0.733170 -0.267353 -0.895013 -0.384138 0.820310 -0.961551 0.194168 -0.331361 -0.397423 -0.181373 -0.028248 0.559703 -0.662984 -0.720409 0.643514 -0.237857 0.009744 -0.335956 0.956409 0.560670 -0.826867 -0.751657 -0.061259 0.837684 0.518089 0.576601 -0.642541 -0.856937 0.932710 0.939092 -0.972714 0.665879 -0.328261 -0.867727 -0.718258 -0.507951 -0.829278 0.475910 0.160688 -0.226700 -0.705463 -0.867559 -0.666997 -0.368447 -0.587968 0.976517 0.393696 0.421775 -0.359439 0.350106 -0.017554 -0.186306 0.598449 0.921187 -0.348622 0.116537 0.497788 0.008836 0.259601 0.430497 -0.052072 0.286887 0.096377 0.619667 0.419160 0.378118 -0.888283 0.589882 -0.145972 0.272405 -0.636818 0.148565 0.404845 -0.303815 0.780118 0.816877 -0.327298 0.173814 0.238653 0.313263 -0.476080 -0.778902 -0.873044 -0.877631 -0.857715 -0.221666 0.238906 0.640073 0.787170 -0.501493 0.070570 -0.264902 0.785394 -0.833053 -0.645234 0.204553 0.545066 -0.533518 -0.205565 -0.600906 0.738887 0.157617 0.547659 0.143733 0.853802 0.327777 -0.039390 -0.473496 -0.498408 -0.800738 0.839766 0.025512 -0.579639 0.966722 0.147880 -0.437354 -0.254944 -0.613214 -0.797282 -0.467774 -0.114707 0.273289 0.267325 -0.329313 0.440236 0.622090 0.875240 -0.014698 -0.911427 -0.330325 0.384396 0.827460 0.827293 -0.067945 -0.028808 0.681095 -0.740168 0.931802 -0.792402 -0.238576 -0.868936 -0.952635 0.786936 -0.448575 -0.985913 -0.065184 0.114070 -0.240857 0.321603 0.316789 0.291369 -0.793104 -0.409922 -0.441306 -0.122417 -0.969686 -0.819216 -0.247177 0.015615 -0.730643 0.422498 -0.599989 -0.903183 0.249791 0.332066 0.068009 -0.069114 0.591898 -0.000189 0.138484 -0.646678 0.130875 0.185849 -0.859742 0.682300 0.199936 0.075074 -0.203630 0.959079 -0.603323 -0.886841 0.250448 -0.396427 -0.296763 0.809142 0.481156 -0.266450 0.989926 -0.766021 0.749165 -0.740717 0.656478 -0.850824 -0.643900 -0.093731 0.481242 0.424109 0.837155 0.073140 -0.576080 -0.024361 0.426461 0.554796 -0.838512 0.566719 0.237096 0.361424 -0.358206 -0.966534 0.320502 0.038471 -0.853375 -0.429050 0.642044 -0.150139 -0.619908 0.123200 0.583412 -0.629982 0.357179 0.332577 -0.370699 0.013657 0.481753 -0.014599 0.919925 -0.037005 -0.590489 0.757080 -0.963865 -0.166569 -0.267281 0.462596 -0.611774 -0.105793 0.029315 0.625322 -0.744370 0.671109 0.658788 0.576132 -0.290420 0.805412 -0.852917 -0.648376 -0.344726 -0.472825 0.474824 -0.761315 -0.102807 -0.167997 0.571262 0.526494 0.845659 0.053016 -0.488104 0.765584 -0.983989 -0.078594 0.522664 -0.947854 0.754837 -0.744617 0.514742 -0.856936 0.149590 -0.455943 0.768386 0.405220 -0.784834 0.427173 -0.018648 -0.075254 0.232586 0.128435 0.276370 0.887860 0.655610 -0.248807 -0.873455 -0.447197 0.583196 0.697808 -0.920703 0.428855 -0.249177 -0.408807 0.194440 -0.233166 0.512599 -0.282896 -0.181020 0.267437 -0.027513 -0.666278 0.410500 -0.877923 -0.122221 0.178886 0.527297 0.092946 -0.393941 -0.491351 -0.982308 0.838645 0.637084 0.294062 0.726505 0.292694 -0.954745 0.853050 0.845497 0.628451 0.550858 0.924794 0.057306 -0.698319 -0.484013 -0.748254 0.068515 -0.971413 -0.031150 0.887496 0.296023 0.941338 -0.778783 -0.293477 -0.936585 0.098997 0.885409 0.590712 -0.808058 -0.508531 -0.900639 -0.790366 -0.669886 0.736445 0.503696 -0.943381 0.029139 0.548951 0.909670 -0.125364 0.177402 0.460528 -0.200570 -0.765292 0.762209 0.315417 -0.513546 -0.169276 0.344004 0.455305 -0.281780 -0.359973 0.396642 -0.060563 0.346550 0.460057 -0.961566 0.231960 0.050769 -0.769624 0.723429 0.150130 -0.559989 -0.946457 -0.113425 0.943706 -0.889837 0.915715 0.492657 -0.980168 -0.209649 -0.329941 0.480360 0.589781 -0.095233 0.242569 -0.094802 0.391221 -0.926707 -0.750798 -0.153474 -0.208488 -0.110771 -0.756832 0.730950 -0.764221 0.703225 0.769383 0.467739 -0.246006 0.999760 0.191168 0.904124 -0.560230 0.244711 -0.209301 -0.616523 0.354874 -0.293586 0.876134 0.374706 0.496765 -0.453808 -0.144934 0.086546 0.450959 -0.902365 0.991745 -0.157819 -0.829072 -0.759053 0.688707 -0.037560 0.130176 0.931875 -0.306610 0.365955 0.635100 -0.537227 -0.166306 -0.610906 -0.537467 -0.975138 -0.706782 -0.097697 0.269574 0.083917 0.285779 -0.375553 0.790331 0.161913 0.999154 0.287097 0.708105 -0.145780 -0.626357 0.159065 -0.048146 -0.634612 -0.998754 0.122782 -0.393665 0.689952 -0.914778 0.736510 0.621827 -0.221389 0.102466 0.256926 0.241384 0.936160 0.646020 0.703917 0.961022 0.939237 -0.393780 0.230596 0.023155 0.891999 0.855043 -0.186514 0.053912 0.854197 -0.899417 -0.237983 -0.291584 -0.525774 0.921082 0.660271 -0.160386 0.922328 -0.216947 0.445948 0.612280 -0.131725 0.182459 0.234107 0.646886 -0.715076 -0.508967 -0.111729 -0.778916 -0.862947 -0.407813 -0.817893 -0.923710 0.198407 0.412702 0.099445 0.090406 0.267746 0.912931 -0.855682 0.121942 -0.986486 -0.093664 0.830359 -0.512261 -0.172582 0.490630 0.327353 -0.250254 -0.726318 -0.226699 -0.637974 0.141957 0.955760 0.596133 -0.211157 -0.759315 -0.912834 0.677114 -0.538231 -0.775782 -0.730699 -0.356124 -0.699491 0.467709 -0.943422 0.399954 -0.441885 0.324323 0.312885 -0.297567 -0.553734 0.326398 0.608769 -0.723375 0.814138 -0.563813 0.767254 0.141491 0.185933 -0.959063 0.914792 0.547958 0.182894 0.870552 0.144091 0.971737 -0.888763 0.231257 0.648851 -0.426994 0.455475 0.918153 0.216881 0.755984 0.385861 0.273459 0.155938 0.943976 -0.402217 -0.531177 -0.353591 0.044048 0.795221 -0.744822 0.320673 0.609359 -0.308635 0.087927 -0.249150 0.877297 0.128863 -0.334358 0.425256 -0.688243 -0.463806 -0.430653 -0.716505 -0.352569 0.800604 0.932346 0.220436 0.256079 0.850499 -0.562683 0.012063 0.236360 0.710776 -0.831999 0.180336 -0.691441 -0.363176 0.826745 0.352607 -0.567955 -0.918077 -0.326720 -0.958596 -0.226712 0.761207 -0.207747 -0.349415 -0.109930 0.457895 -0.924159 0.201828 0.994089 -0.354812 0.485322 -0.358481 -0.554209 0.417668 0.861956 0.701870 0.268167 -0.700727 -0.286067 -0.495474 -0.989951 -0.118066 0.684863 -0.681392 0.518758 0.511608 0.671215 0.950803 0.593531 -0.655505 0.992207 -0.633181 -0.894298 -0.215540 0.017405 -0.004228 -0.757645 0.093245 -0.802400 -0.763556 0.738433 0.682922 -0.122037 -0.815776 0.100590 -0.260081 0.886095 -0.631244 0.039192 -0.399972 -0.126717 0.049241 0.481962 -0.441854 0.367849 0.000720 -0.930246 0.039064 -0.048477 0.663285 0.383560 -0.056270 -0.969895 0.489262 0.728190 0.047509 -0.514966 0.970546 -0.859245 -0.317366 -0.793010 0.879188 -0.634444 0.084953 -0.936588 0.466146 0.824872 0.949507 0.834902 -0.135936 -0.450466 -0.291815 0.913305 -0.968504 0.266331 0.281154 0.032217 0.336084 -0.679782 0.983740 -0.000630 0.703778 -0.072530 0.029474 0.193040 -0.344340 -0.923017 0.678073 -0.373794 -0.782262 -0.639293 -0.166805 -0.903074 -0.273737 0.918148 -0.839662 -0.807591 0.743021 -0.890155 -0.972689 -0.392916 -0.340621 -0.264504 -0.479611 -0.309124 -0.998173 0.801543 0.723092 0.337911 -0.878238 0.706832 -0.662719 0.825540 -0.365698 0.366755 0.018579 0.289962 0.443738 -0.303347 0.916167 0.661477 0.057360 -0.250637 0.758402 0.783623 -0.332489 0.918741 0.976032 -0.589469 -0.971414 -0.996657 0.017616 -0.312035 -0.261161 0.538005 0.378841 -0.259334 0.339549 0.101933 -0.921423 0.461311 -0.191235 -0.584142 0.286851 0.443067 0.782613 -0.694570 -0.266971 0.226352 0.002083 -0.350804 -0.112172 -0.940557 0.398559 -0.353769 0.843066 -0.933930 -0.435029 0.819098 -0.523399 -0.406443 0.822442 0.494217 0.281522 -0.438719 0.032222 -0.339637 0.301947 -0.628229 0.762296 0.380524 0.833082 -0.428939 0.796383 0.119932 -0.985872 0.578996 0.425362 -0.252843 -0.194653 -0.572555 0.396353 0.693176 -0.513112 -0.205088 -0.660594 -0.670046 -0.139018 -0.095623 -0.850947 0.337583 0.497934 0.971494 -0.168201 -0.220544 -0.467225 0.864022 0.439819 0.834722 -0.764207 0.202114 0.215246 -0.931126 0.773176 0.011629 0.188806 0.787304 -0.409375 -0.385831 -0.465539 0.395972 0.041614 0.930815 0.089148 0.528502 -0.274273 0.428554 0.858456 0.586708 -0.667069 -0.992491 -0.075709 0.830866 0.979003 0.756090 -0.389678 -0.488222 0.620112 -0.949860 -0.653500 0.855904 0.252254 0.561746 0.924779 0.025430 -0.426625 0.113585 -0.187266 0.164000 0.727754 0.347196 -0.440027 -0.230633 0.278010 0.649120 -0.702131 -0.996263 0.077674 -0.843675 0.590445 0.410606 -0.836166 -0.485264 0.241471 -0.857163 -0.729173 0.851793 -0.345385 0.890939 0.901933 0.001115 0.746843 0.154187 -0.437138 0.671622 -0.820382 0.136237 -0.214793 -0.007648 -0.699762 -0.487040 -0.660453 -0.139790 0.282328 0.617558 -0.490669 0.580197 0.621295 0.587005 0.736522 0.211740 -0.002389 0.900356 0.726476 -0.760918 -0.956807 0.997303 -0.909125 -0.302191 0.888242 0.992808 0.698924 0.635085 0.146995 -0.738214 0.306707 0.326613 0.398023 -0.908087 -0.681035 0.698261 -0.395126 -0.341488 -0.441529 0.887201 -0.723930 0.067802 0.467398 0.897364 -0.345193 0.203920 0.109104 0.652417 0.104276 -0.164420 0.891499 0.147469 -0.167117 0.982374 0.845278 -0.278875 0.975182 0.544202 -0.643790 0.122177 0.805988 0.662916 -0.551210 0.204011 0.754830 -0.232245 -0.097728 -0.640296 0.426267 0.460744 -0.753095 0.702337 -0.471455 0.714303 0.599701 0.183352 -0.081777 -0.291195 -0.164231 -0.977501 0.544385 -0.272731 0.169969 -0.622732 -0.290357 0.015247 0.098393 -0.315175 -0.440551 0.454603 0.807002 -0.634563 0.117520 -0.744208 0.569448 -0.127650 0.023547 -0.528279 0.232053 -0.550186 0.932464 0.478958 -0.847849 -0.538991 0.193262 0.751852 0.644361 -0.888515 -0.539343 -0.519869 -0.866016 -0.994958 0.207399 0.303953 -0.617690 0.917042 -0.680800 0.480704 -0.398133 -0.121351 -0.064693 -0.591131 0.244086 -0.947173 -0.335339 -0.186466 -0.074824 0.688209 0.285255 -0.842770 -0.861977 0.217719 0.636188 -0.709826 0.678728 -0.170550 -0.957975 0.323090 -0.059065 -0.497318 0.803220 0.074919 -0.492276 0.010620 -0.621128 -0.109966 -0.072338 -0.301928 -0.629262 0.529528 0.576721 0.306045 0.938397 -0.179193 0.358872 -0.396941 0.634342 -0.715952 -0.708733 -0.080404 -0.558722 -0.570710 -0.862684 -0.922534 -0.280536 0.816044 -0.093084 -0.238511 0.139134 0.847850 0.264171 -0.057646 -0.077231 0.771895 0.952974 0.301642 -0.338071 -0.119365 0.999714 0.032668 -0.589836 0.576435 -0.661287 -0.651439 -0.602757 0.697585 -0.048380 -0.968416 0.981634 0.242887 -0.048819 -0.577088 0.672177 0.088496 -0.499622 -0.608359 -0.095460 0.407294 0.153130 -0.956326 0.255144 -0.582699 -0.013972 -0.822087 -0.810804 -0.060998 0.479555 -0.148875 0.819637 0.479269 0.883793 -0.770199 0.055704 -0.777494 -0.421638 0.452947 0.920092 0.529982 0.484531 0.901726 -0.227131 -0.564288 -0.675363 -0.554954 0.524208 -0.174985 -0.163314 -0.571252 -0.767691 0.989816 -0.527578 0.487453 -0.592884 0.458450 0.665366 -0.403688 -0.602548 0.144921 0.447437 -0.782911 -0.375810 0.331230 -0.553110 0.679894 0.553736 0.025251 0.132841 0.473828 -0.444767 -0.382628 0.375554 0.328102 0.053083 0.700191 0.773147 -0.422709 -0.474794 -0.390166 0.006039 -0.242485 -0.400351 0.478461 -0.755032 0.006766 -0.063089 0.910334 0.603078 0.334362 0.055256 0.050515 0.551451 0.679446 -0.618255 0.998341 0.359340 0.935482 0.023592 -0.507819 0.409310 0.578825 0.109553 -0.215137 -0.093073 -0.837364 -0.514946 -0.319926 -0.260073 0.010261 0.289908 0.745966 0.767776 0.889557 0.224426 -0.987256 -0.103677 -0.838663 0.923079 -0.500599 0.495699 -0.021666 0.549917 0.047150 -0.342220 0.931662 0.045491 -0.982880 0.867144 -0.930917 -0.490699 0.276454 0.647909 0.618854 -0.938683 -0.445164 0.781490 -0.453628 0.234910 -0.478583 0.556632 -0.475182 -0.732617 0.324408 -0.585624 0.491809 0.337153 0.310699 0.653146 0.260232 0.810100 0.148845 -0.761434 0.360017 -0.804005 -0.103654 0.291679 0.241487 -0.086534 0.158823 0.310570 0.422767 -0.564723 -0.041521 0.041621 -0.503406 0.513315 -0.176890 0.042965 -0.251775 0.344527 -0.400402 0.273043 0.611910 0.924006 0.687419 0.103719 0.261159 -0.001882 -0.243135 -0.478609 -0.191782 0.905710 -0.240043 -0.831765 -0.898295 0.656303 0.459914 0.343192 -0.430231 -0.381263 -0.346238 0.992537 0.054014 0.612240 0.034157 0.550607 0.125555 0.857268 -0.406427 0.873780 0.201795 0.193170 0.146823 -0.186295 0.117176 -0.165758 0.917423 -0.621665 0.832359 -0.325712 -0.100274 -0.359422 -0.420003 0.659683 -0.191187 -0.318298 0.315986 -0.731273 -0.975106 0.885755 -0.112536 -0.321344 0.878291 0.941477 -0.709104 -0.087551 0.492084 0.416451 -0.230283 -0.914343 0.290231 0.971512 0.278827 -0.562946 -0.214784 -0.603997 0.271296 -0.297360 -0.225662 0.103655 0.376927 0.674064 0.744233 0.956925 0.333746 -0.446955 -0.361373 -0.350268 -0.178228 -0.336479 -0.464513 0.709236 0.342177 -0.586222 0.650713 0.633073 0.326227 0.142797 0.049525 -0.904056 0.228454 -0.660244 -0.932544 -0.492719 -0.223190 -0.147328 -0.096716 -0.951895 0.555312 0.677623 0.151760 -0.067761 0.351687 -0.104007 -0.110836 -0.314567 0.449039 0.527791 0.335165 -0.729190 -0.808688 0.870652 0.980046 0.533490 -0.715569 0.630759 0.166563 0.610658 -0.226444 -0.783912 0.706602 -0.997990 -0.444157 0.774058 -0.490709 0.332653 -0.373270 0.412575 0.380758 -0.817958 0.090198 -0.467481 0.114281 -0.558115 0.428512 -0.996556 0.127318 -0.122450 0.531235 -0.537517 0.148361 0.722548 -0.666864 0.128407 0.256037 -0.382433 -0.240834 -0.577400 -0.771775 0.532721 -0.361312 0.934827 0.534731 0.194531 0.708885 
-0.955978 -0.472816 -0.664385 0.456598 0.907943 -0.482343 -0.453204 -0.559539 0.631938 -0.011319 0.868973 0.635382 -0.884001 -0.253476 0.166618 -0.421518 0.894885 -0.110835 -0.088382 0.023292 -0.854797 0.529185 0.782457 -0.432197 0.757409 0.315178 0.206491 0.692236 -0.150090 -0.598978 0.401121 -0.106068 -0.071793 0.736736 -0.649470 -0.163851 -0.745607 -0.102674 0.276611 0.886331 0.886007 0.145584 0.521713 -0.997994 0.892108 -0.311669 -0.419512 0.786992 0.577496 0.492106 -0.189716 0.722698 0.021291 -0.407259 -0.709499 -0.221300 0.907920 0.496992 -0.529064 -0.242171 0.898014 0.872057 0.651761 -0.173779 0.608793 -0.997709 0.662370 0.863187 -0.100383 -0.061019 0.749517 -0.214377 -0.915435 0.271230 -0.212371 0.976673 0.959561 0.368117 0.763665 0.537057 -0.139777 -0.426051 0.259755 0.881513 0.166690 0.550256 -0.339787 0.074610 0.047249 0.131149 0.832439 -0.054737 0.003206 0.484200 0.771484 -0.388000 0.486491 0.433854 -0.524814 -0.613892 -0.627165 -0.775296 0.171731 -0.542600 0.495934 0.959360 -0.565928 0.455494 0.327477 -0.802262 -0.007449 -0.812301 -0.228313 -0.747694 -0.930787 0.938377 0.802562 -0.270574 0.012987 -0.150189 0.860575 -0.154574 0.795074 -0.136219 -0.670374 0.566558 0.475781 0.816117 0.000412 0.950967 -0.797775 0.373247 -0.824330 0.373956 0.830646 0.671604 0.333316 -0.735281 0.127099 -0.339207 -0.537544 -0.880350 -0.151508 0.234143 -0.628044 -0.082295 0.172519 -0.825482 0.647131 -0.814494 0.024329 0.507705 0.030932 -0.180597 -0.628514 0.360557 -0.614039 0.847267 0.176674 0.386373 0.798234 0.378899 -0.240381 0.973904 -0.247144 -0.409734 0.645509 -0.913828 -0.145016 -0.227393 -0.253035 0.317440 -0.107743 0.595458 -0.448417 0.264213 -0.486837 0.724102 0.438731 -0.839707 0.909608 -0.536939 0.667999 -0.059460 0.282464 -0.960515 -0.698903 0.668425 0.886752 0.477772 0.054798 0.684986 -0.143329 0.814417 0.658890 0.609527 -0.595317 0.304398 0.695699 0.259667 -0.922994 -0.557336 -0.422893 -0.030737 -0.961878 0.128690 -0.766524 -0.448715 -0.147208 0.672207 -0.288422 -0.237600 -0.864732 -0.620423 0.702940 0.417732 -0.580938 -0.995962 0.086157 -0.694186 0.481809 -0.859045 0.990799 -0.661519 0.955372 0.649689 0.948007 -0.639946 -0.045912 0.643706 0.619721 0.031093 -0.913629 -0.803172 -0.999644 -0.875508 0.325518 -0.766168 -0.324223 -0.821690 0.906039 0.387355 -0.059290 -0.958694 0.766932 -0.356349 0.459038 -0.814006 -0.352312 -0.454805 -0.508193 -0.870502 -0.313851 -0.517394 -0.532022 -0.358479 -0.867705 -0.584014 0.001576 0.086383 -0.940308 -0.378703 -0.882524 -0.853937 -0.181875 -0.882168 -0.729445 -0.856357 -0.648336 -0.053668 -0.678047 -0.742298 -0.666312 0.262663 -0.700991 -0.899381 0.906314 0.758047 -0.713387 -0.445997 -0.696759 -0.221580 -0.316500 -0.010609 0.261026 0.151479 0.630912 0.393322 0.567464 -0.367512 -0.520295 0.627157 0.253785 -0.402819 0.773219 -0.928090 -0.284986 -0.956225 -0.784447 0.066677 -0.009893 -0.462494 0.324380 0.323795 0.800169 0.623389 0.424414 0.706484 0.381435 0.711027 -0.739514 0.684676 -0.510553 -0.056014 -0.325933 0.750474 -0.904535 -0.695021 0.143796 0.662929 -0.062533 0.623501 0.290086 -0.808748 -0.779318 0.063305 -0.736838 -0.064305 0.107080 -0.521285 -0.997627 -0.902813 0.016221 0.326753 0.420982 -0.183610 -0.049859 -0.154604 -0.477126 -0.668424 -0.443577 -0.216640 -0.983747 0.045870 0.727346 -0.309680 -0.203656 0.822812 -0.004701 0.940140 0.485741 0.932766 0.563640 -0.224173 -0.875982 0.784322 0.839132 -0.612821 -0.279983 -0.053788 -0.134106 -0.277610 0.043400 0.882115 -0.950857 -0.535618 -0.301495 -0.000716 0.309778 0.221379 0.330860 0.866201 -0.995261 0.347113 -0.087929 0.732085 -0.962567 0.708415 0.554897 0.032732 0.648555 0.040638 -0.034502 0.212195 0.816465 0.089516 -0.003483 0.655597 0.476695 0.716534 -0.398190 -0.657411 -0.561075 0.645209 -0.775296 -0.511933 -0.890409 -0.076791 0.487351 0.419368 -0.855412 -0.181789 0.285569 -0.850672 -0.834676 -0.802360 0.881413 -0.797243 0.906056 0.436310 0.235489 0.554611 -0.523052 -0.799013 -0.233194 -0.706587 0.290503 0.763323 0.949010 -0.232802 0.479857 -0.449180 0.109788 0.918782 -0.803971 0.334492 -0.593151 -0.694380 -0.742299 0.894201 0.724988 -0.597710 -0.287588 0.010557 -0.448383 -0.122264 0.208198 -0.566970 0.080494 0.114253 0.869340 -0.684017 -0.331136 -0.653712 -0.483030 0.435670 -0.360299 0.807473 0.198993 -0.411289 -0.425329 -0.321150 0.139531 0.684458 -0.402368 0.335560 0.018950 0.004482 0.641180 0.276652 -0.101318 0.366168 0.678941 0.611094 -0.623275 -0.769441 -0.511170 0.584923 -0.336411 0.569324 -0.300824 -0.467071 0.885307 0.368040 -0.120782 -0.597724 -0.196290 0.518919 -0.790251 -0.997297 -0.892370 -0.215581 -0.318447 0.247161 -0.531122 0.279185 -0.417279 0.487828 -0.716333 -0.776100 -0.235521 0.182349 0.590068 -0.556579 -0.206557 0.966794 -0.326021 0.282273 0.551717 0.337568 -0.148403 -0.749107 0.870498 -0.263096 0.618934 -0.250285 0.139180 -0.577356 -0.731366 0.348929 -0.574654 -0.623736 -0.866652 0.106899 0.623425 -0.397774 -0.613916 -0.793855 -0.909947 -0.330249 -0.569954 -0.145467 0.852099 -0.979886 0.297953 -0.354458 0.986908 0.971933 0.927815 0.538625 0.309501 -0.220587 0.789518 0.179999 0.516316 0.408452 0.929715 -0.344504 0.831095 -0.801651 -0.995575 -0.743558 -0.425387 -0.862227 0.363341 -0.801962 -0.260001 0.749425 -0.595817 -0.169948 -0.580825 -0.165771 0.684585 -0.728725 -0.145657 -0.017462 -0.083183 -0.158749 -0.045529 -0.155368 -0.620124 -0.736027 0.624045 -0.830606 0.443972 0.140361 0.577846 0.373687 0.795857 0.408941 0.572036 0.800283 0.665383 -0.853351 0.938056 0.028723 -0.655314 -0.321946 -0.221852 -0.251130 0.508107 0.197323 0.583099 0.192692 0.468598 -0.562558 -0.824770 -0.614585 0.278693 0.129702 0.230047 0.658568 0.393674 -0.145908 0.827962 -0.162354 0.994453 0.405808 -0.788667 0.790310 -0.185251 0.783369 0.590593 -0.519869 0.930017 0.528648 0.508855 -0.725296 -0.793297 -0.712998 0.023574 0.714810 0.484326 -0.393328 -0.092498 -0.047077 0.044114 0.082732 0.338338 -0.677194 -0.787566 -0.431615 0.981375 0.606108 0.422477 0.809337 -0.556245 0.416929 0.215145 -0.344912 0.207240 -0.970106 -0.561543 -0.202167 -0.489974 -0.631526 -0.673519 -0.981120 -0.356822 -0.466816 -0.694118 0.666751 -0.752006 0.790208 -0.726576 0.155495 -0.256869 0.317537 -0.761773 -0.918531 0.640344 -0.549339 -0.350146 0.621719 -0.943231 -0.927669 0.431056 -0.499476 0.489260 -0.353799 0.155612 -0.303500 -0.323905 0.594068 0.494332 0.186121 0.962542 0.820813 0.205001 -0.394280 -0.646003 0.510883 -0.727528 -0.398009 0.301091 -0.454105 0.757487 -0.955777 0.863432 0.995714 -0.874308 0.503776 -0.553625 -0.224454 0.125495 -0.496855 -0.152123 -0.443449 0.003669 -0.662863 0.202752 -0.840720 0.033637 0.878847 0.753348 -0.472031 0.064967 0.715891 -0.651217 -0.730032 -0.678389 -0.297220 0.780851 -0.405918 0.304772 0.081943 0.139977 0.062258 0.126165 0.003410 0.057973 0.251857 -0.492814 0.504348 -0.972597 0.632681 -0.992507 -0.124720 -0.810769 0.011161 0.212418 0.391983 0.170442 -0.753945 0.270830 -0.076210 -0.225976 -0.664203 -0.360320 0.122807 -0.394234 -0.038709 0.825587 -0.613383 0.555373 0.130359 0.468560 -0.304649 -0.807383 -0.405275 0.698760 0.250590 0.846582 -0.794054 -0.245062 0.873986 0.838627 -0.237569 -0.250734 -0.972142 0.773593 0.961684 0.419842 -0.055966 -0.792261 -0.309328 0.867824 -0.018237 0.026469 -0.492495 -0.895430 0.632235 0.468796 0.930157 -0.981148 0.024169 0.060516 0.487412 0.719519 0.253133 -0.917863 0.418280 -0.496277 0.928719 0.624226 0.258661 0.802705 0.462853 -0.978908 -0.448029 0.490712 0.794685 -0.486345 -0.089447 -0.261281 -0.278607 0.601225 -0.393457 0.703156 -0.372306 0.114048 0.807726 -0.740072 -0.417157 0.737882 -0.721220 0.607012 -0.201602 0.766192 0.326532 -0.948469 0.848328 -0.255189 -0.444746 0.777047 -0.630962 0.813915 0.579752 0.831891 0.835008 -0.868278 0.322602 0.629692 -0.354623 -0.766845 -0.631588 0.366770 0.834380 -0.025045 0.069926 -0.537926 -0.910997 -0.122349 -0.277998 -0.328154 -0.384466 0.000782 -0.721142 0.413932 -0.233026 0.605390 0.465463 -0.384698 -0.649798 -0.979283 -0.607651 -0.280761 0.834632 0.972101 -0.448870 0.669640 -0.896177 0.873732 0.299332 -0.250800 -0.893113 0.667744 -0.884030 0.941268 -0.357301 0.185896 -0.596658 -0.268298 -0.936453 0.125344 0.403548 -0.320919 -0.873874 0.682406 -0.906987 -0.106900 0.287797 0.558476 0.508403 0.637998 0.579194 0.900752 -0.642763 0.413826 0.872853 -0.091633 0.083466 0.976676 -0.217901 -0.617202 -0.274124 -0.111013 -0.949458 -0.158154 -0.169746 -0.306759 -0.972258 0.233596 0.424943 -0.908710 -0.641060 -0.171509 -0.229629 -0.514934 -0.489103 -0.136616 0.378166 0.798694 -0.578139 -0.113431 0.436692 -0.998946 -0.212679 0.793929 0.414880 -0.339826 -0.297703 -0.501654 -0.363150 0.484396 -0.118855 0.362726 -0.626617 -0.068313 -0.795428 0.203637 0.624928 -0.767686 -0.562767 0.049871 -0.676396 -0.203828 0.878362 0.093975 0.281239 -0.610741 0.957359 -0.340595 -0.812047 -0.620780 0.545974 0.624644 -0.619726 -0.666705 0.418574 0.795154 -0.006531 -0.879130 -0.706499 0.630319 0.605266 0.174645 -0.006956 0.978649 -0.893668 0.197616 0.182285 0.731260 0.429930 0.619518 -0.218868 0.753534 -0.584310 -0.340506 -0.152492 0.696929 0.048753 -0.195133 -0.643666 0.236705 0.184087 0.902308 -0.138651 0.564361 -0.764397 -0.720077 0.359515 0.229072 -0.599207 0.653016 -0.140609 -0.993941 -0.172339 0.852435 0.984708 -0.066007 0.050051 0.166993 -0.334747 -0.520019 -0.213489 0.446384 -0.766485 0.202202 -0.894122 0.081023 -0.100869 0.154631 0.885890 0.255465 -0.608664 0.069977 0.157773 0.252685 -0.365662 0.393376 0.532608 0.993853 -0.377552 0.933402 0.646868 0.481839 0.939461 -0.525471 0.334274 0.924169 0.408522 -0.615675 0.091162 -0.926225 -0.135694 0.877674 0.520159 0.097822 0.079875 0.626037 -0.821155 0.979006 -0.219333 -0.935265 0.234471 0.172003 0.134712 -0.607756 -0.575312 0.769050 0.785620 0.957297 0.762903 -0.591932 0.890698 0.409771 0.889906 0.830159 0.884300 0.224180 0.754328 0.292822 0.608505 -0.154510 0.366597 -0.527188 -0.276836 -0.113244 0.570633 0.803039 -0.487208 0.749478 0.782045 0.293460 0.814213 0.016516 -0.534537 -0.051074 0.408760 -0.109848 -0.282024 0.194380 -0.152552 -0.519121 0.602447 -0.261854 0.890650 0.492354 -0.431694 0.774951 -0.283466 -0.677366 0.067773 -0.674961 0.168124 -0.565630 -0.202149 0.891288 0.321125 -0.631516 0.694327 0.833918 -0.882038 0.476373 0.127378 0.932175 -0.507111 0.592841 -0.118900 0.901649 -0.517008 0.599076 0.096029 0.330440 -0.920045 -0.301524 -0.931413 0.970605 -0.809170 -0.363108 0.745556 -0.092636 -0.040474 -0.186671 0.232403 -0.872350 0.247699 -0.969746 -0.981062 -0.431176 -0.601262 0.713266 -0.597258 -0.483301 0.189638 0.530119 -0.551126 0.682528 0.122960 0.329975 0.584176 0.605952 -0.070949 -0.319795 -0.063607 0.009006 0.378681 0.004979 -0.020389 0.569511 0.641872 -0.274833 -0.523125 -0.398602 0.538497 0.709279 -0.270952 -0.213804 0.739533 -0.252014 0.355020 -0.861730 -0.538748 0.757761 -0.345030 0.650891 0.287880 0.103844 0.333418 -0.589160 -0.566182 -0.082405 -0.983208 0.362869 0.597800 -0.046815 -0.628125 -0.023519 0.958164 0.351486 -0.454008 0.600036 -0.923347 0.022868 -0.798566 0.615150 -0.267854 -0.069518 -0.598654 -0.528321 0.678468 0.756365 -0.390051 -0.860280 0.514126 0.264919 0.790611 -0.197993 -0.631237 0.124029 0.212847 -0.197419 -0.958376 0.229639 -0.834549 0.639424 -0.817176 -0.462675 -0.384095 -0.859011 0.888811 0.161897 0.741024 0.965465 -0.815235 0.942458 0.580615 -0.083089 -0.127060 0.981961 0.388590 -0.448592 0.738326 0.998540 -0.308871 0.252453 0.263459 -0.518260 -0.945541 0.632222 0.605769 0.267306 -0.565197 0.647393 -0.503054 -0.399746 0.286817 -0.320230 0.137579 0.902722 -0.179242 0.026390 0.064620 -0.438217 -0.008145 0.249385 -0.495759 -0.427530 -0.833704 0.377181 -0.445569 0.554886 0.928590 -0.707243 0.553426 -0.380281 0.545210 -0.183115 0.101459 0.599669 -0.550894 -0.292772 -0.133024 -0.116090 -0.645379 0.363921 0.484163 0.641438 -0.956309 -0.378258 0.544161 -0.135550 0.648133 -0.391220 0.426233 -0.360012 0.858165 0.930474 0.212458 -0.975539 0.307655 0.766889 0.579347 0.236245 -0.940354 0.132773 0.855963 0.604856 0.949657 -0.042578 0.204525 -0.601236 0.664650 -0.928499 0.282674 -0.980729 0.435422 -0.233163 0.660709 0.479113 0.388579 0.204870 -0.656437 0.036712 0.813650 0.769795 0.676700 0.671815 0.700269 -0.110842 0.696276 0.007924 -0.343953 0.275623 -0.755831 -0.284307 -0.591604 -0.899868 -0.679451 -0.641947 0.057554 0.525074 -0.243183 -0.277796 0.596575 -0.960509 -0.258525 0.031996 -0.193672 -0.597816 -0.488890 -0.805093 0.607054 -0.145328 0.231619 0.420705 -0.375532 -0.091680 0.092520 -0.675263 0.797478 -0.211205 0.332662 -0.546475 -0.935582 0.576831 0.169218 -0.527186 0.676963 0.489767 -0.169133 -0.265482 0.014841 0.587684 0.456721 -0.388584 0.627175 -0.801804 0.643412 -0.566498 -0.399619 -0.845478 -0.371590 -0.792565 0.009194 0.860029 0.628139 0.633662 -0.231651 -0.279341 0.958399 -0.434174 0.509454 0.291061 0.019351 0.573873 -0.132109 -0.811431 -0.953314 -0.455145 0.678336 -0.122447 0.279372 -0.306823 -0.534763 -0.263906 0.304592 -0.907589 -0.065710 -0.051996 -0.474086 0.534671 0.102526 0.154323 0.742106 -0.888280 0.014352 0.370245 0.745382 0.782701 -0.909096 0.703781 -0.651473 0.600359 -0.005158 0.367878 0.174231 0.862733 0.556446 0.220917 -0.592412 0.234782 -0.901530 0.686960 0.927959 -0.436293 -0.576947 0.232551 -0.343882 0.357343 -0.819445 0.182032 -0.107986 0.283081 -0.663645 -0.365880 0.394801 0.350707 -0.995635 0.140182 0.133408 -0.904731 -0.156037 0.481935 0.695628 0.838805 -0.150188 -0.130141 0.701538 -0.593741 -0.909223 -0.890874 0.641041 -0.810753 0.796085 0.568999 -0.247046 -0.780861 -0.198450 0.409072 0.576482 -0.017895 -0.408896 -0.531504 -0.734815 -0.072541 0.102616 0.659986 -0.721833 0.106981 -0.199832 0.411575 0.202250 0.644132 -0.106491 -0.102122 0.482937 0.743321 0.767737 0.184475 -0.850420 0.858514 0.293600 0.790621 -0.952239 0.089686 0.359620 -0.199285 0.308824 -0.838830 -0.790213 -0.114693 0.143274 -0.199109 0.353803 0.408460 0.728351 -0.543581 0.068446 -0.993483 0.563400 0.868614 0.418092 -0.234349 0.512746 -0.688399 0.663529 -0.004318 -0.945078 0.431266 -0.819843 -0.795498 0.289780 0.473757 0.995123 0.337541 -0.436558 0.354743 -0.861745 0.872267 0.515913 -0.651958 -0.242427 -0.340813 0.148933 -0.888624 -0.932353 -0.122716 -0.432204 0.136092 -0.116199 -0.868804 0.004706 -0.698107 -0.103153 -0.482548 -0.386506 -0.439624 0.513134 -0.331584 0.991642 0.693291 -0.127081 0.281422 0.167048 -0.131958 -0.381037 0.730490 -0.777215 -0.242782 0.602757 0.738698 0.105261 -0.639670 -0.602115 -0.745806 -0.528293 -0.534468 0.131478 0.039502 0.601624 -0.984721 0.170699 -0.393669 -0.682828 -0.932455 0.123783 -0.069334 -0.372079 -0.363083 0.599082 -0.380437 -0.669792 -0.528000 0.900986 0.497256 0.340042 -0.480051 0.227746 0.562827 0.277167 -0.169497 0.301525 -0.617572 0.190834 0.699410 -0.363378 0.662541 -0.835059 0.768100 -0.297957 0.766566 0.783379 0.872742 -0.627104 -0.899449 0.940287 0.496679 0.031217 -0.431792 -0.866404 -0.369702 0.187772 -0.536196 0.102299 0.088757 0.961059 -0.557659 0.608706 0.188806 -0.994832 -0.114127 -0.980691 0.306692 0.268301 0.210143 0.006102 0.904923 -0.127317 0.171043 0.673023 0.574726 -0.062391 0.456402 0.447468 0.310505 0.556953 0.387755 -0.192816 -0.411830 0.955963 -0.059221 0.218468 0.143735 0.404583 -0.679233 -0.767508 0.365642 -0.236892 0.841198 -0.445552 -0.231725 -0.272930 -0.426243 -0.925032 0.995371 0.783899 0.081070 0.900294 -0.343417 -0.747887 0.573316 -0.768691 0.189722 0.029718 0.678777 -0.499774 -0.413329 0.066532 0.307410 0.174841 0.022495 -0.751811 -0.606691 -0.833771 0.652772 -0.285924 -0.601279 0.018414 0.477183 -0.760081 0.572862 -0.754541 -0.033011 -0.853382 -0.679574 -0.037640 0.930518 0.401496 -0.137346 -0.412900 0.653609 -0.564030 -0.181591 -0.156670 0.465689 -0.502815 0.343557 -0.947640 0.563717 -0.349034 0.227200 -0.413788 -0.100845 0.620509 -0.247559 -0.448073 -0.665415 0.151162 0.570341 0.811768 0.391081 0.143203 -0.942773 -0.641930 0.289821 -0.622347 0.320431 0.220339 0.779149 -0.816915 0.807439 0.432758 -0.380945 -0.374153 -0.723912 -0.915256 0.123033 0.619645 -0.862897 -0.313250 -0.729388 0.364303 0.272962 0.169767 -0.015188 -0.974597 0.721694 0.319397 0.176565 0.292035 0.131165 -0.432354 -0.564762 0.188392 -0.074283 0.725059 0.566045 -0.753853 -0.054602 0.345194 -0.570768 -0.247164 -0.222048 0.048287 0.378684 0.054040 0.133031 -0.498283 -0.326315 0.270134 0.188467 -0.055703 -0.365563 -0.538572 -0.885936 0.619250 -0.513169 0.835759 -0.061353 0.663396 0.127794 -0.930188 -0.768957 0.563032 0.258204 0.156759 0.288091 -0.175752 0.402907 -0.766511 -0.830558 0.832139 -0.013675 -0.052606 -0.119574 -0.634991 -0.998565 -0.986543 -0.133274 -0.324880 0.283591 -0.944808 0.619417 0.918028 -0.483379 0.733481 0.537278 0.003452 0.569240 -0.524075 -0.333152 -0.302966 -0.454263 -0.102109 -0.739934 0.803941 -0.945349 0.548157 -0.371811 0.457557 0.781646 -0.202369 0.289696 -0.232028 0.745026 -0.829878 0.132981 0.746460 -0.816421 0.999706 -0.578420 0.467170 -0.945101 -0.959003 0.385198 -0.428480 0.774479 -0.077524 0.574972 0.343718 0.398400 -0.758180 -0.959248 0.944137 0.139711 -0.699182 0.748078 0.194362 0.848976 -0.623733 -0.348081 0.630622 0.173898 0.941615 -0.601407 -0.081076 -0.888263 0.531574 -0.334616 -0.704684 0.531281 0.086964 0.762486 0.586179 0.127961 0.147684 -0.842301 -0.097560 -0.929841 0.732671 -0.753842 0.468560 0.974491 -0.713089 0.412697 0.114202 -0.412271 0.160775 -0.691436 -0.563295 0.537041 -0.039517 -0.932673 -0.289060 -0.097902 -0.534080 0.629863 0.013836 0.997494 -0.704753 0.309152 0.528775 0.382211 0.071638 0.114954 -0.489828 -0.780678 0.272654 0.412612 -0.710518 0.005324 0.658770 0.758041 -0.020185 0.945681 0.170738 -0.905982 -0.466590 -0.668487 -0.597418 -0.029886 0.868554 0.363065 0.037441 -0.420506 -0.734837 0.503361 -0.790643 0.278999 0.500855 -0.495396 -0.411848 0.029630 0.886815 0.659790 -0.855416 -0.603012 0.879112 0.417238 0.809599 -0.831406 -0.577438 0.468369 0.926635 0.402378 0.414050 0.097373 0.496395 0.947460 0.428886 0.898977 -0.082426 0.297440 0.262042 0.955015 0.876934 0.527205 0.458375 -0.913708 -0.193795 -0.040770 -0.409104 0.394356 0.988860 -0.522288 0.054146 -0.866555 -0.125301 -0.066742 0.550683 -0.315701 0.101852 0.973245 -0.847332 0.028487 0.375622 0.566718 -0.874140 -0.127982 0.514178 0.554746 -0.229005 -0.568249 -0.147813 -0.966964 -0.613234 -0.270879 0.560242 0.845141 -0.184587 -0.633554 -0.195628 0.406309 0.760802 -0.206768 0.884021 -0.185051 -0.073323 -0.241280 0.748207 -0.522641 0.443019 -0.149941 -0.549396 0.595687 0.878546 0.826226 0.162405 -0.995594 -0.301756 -0.323418 0.559152 0.469239 0.108334 -0.588662 0.502275 0.495099 0.140460 0.062517 0.340240 0.955872 0.428963 -0.855388 0.362182 0.189765 -0.062156 0.246203 -0.995286 0.864521 -0.995077 0.752921 -0.658120 0.447941 -0.397021 -0.207516 0.043628 -0.518475 -0.381289 -0.793967 -0.514069 0.316955 -0.117385 -0.954918 -0.213807 0.990949 -0.543579 -0.711532 0.486048 0.596880 0.350985 -0.173711 0.552753 -0.220052 -0.029099 -0.085066 0.969713 0.908745 -0.838863 0.974427 0.773266 -0.833940 0.727348 -0.884854 0.614001 -0.669673 -0.092370 -0.342371 -0.188148 0.526341 -0.136338 0.297783 -0.156704 0.746278 0.342865 0.629490 0.737227 0.799286 0.917958 0.223275 0.396166 0.268943 -0.950436 -0.051081 -0.951109 0.020464 0.863853 -0.981396 -0.070791 -0.975010 0.993031 -0.297525 -0.808950 0.720379 -0.182379 0.805051 -0.949294 0.725251 -0.537320 -0.137442 0.251593 0.326343 -0.839659 -0.905111 0.072620 0.503206 0.724379 -0.190153 0.302491 0.642337 -0.966878 -0.301343 -0.088720 -0.917314 0.647576 -0.039829 0.103150 0.511429 -0.021225 -0.967640 0.536419 -0.028193 -0.265166 0.727469 -0.307814 0.552455 0.532519 -0.257108 0.277706 0.995199 0.605450 -0.470701 0.321542 0.765791 -0.375812 -0.605837 0.268997 -0.651434 0.204010 -0.428512 0.990903 0.237132 0.270145 -0.097817 0.319818 -0.082279 0.862354 -0.577031 -0.570850 -0.158870 -0.544672 0.965569 0.812937 0.190163 0.693037 -0.494877 -0.257382 0.225556 0.248015 -0.979675 0.220756 -0.146535 -0.450376 -0.457702 -0.380743 0.173812 -0.063539 0.888253 0.522378 -0.859530 -0.540259 0.513281 0.377603 0.729886 -0.584535 -0.302579 -0.352393 -0.722181 0.120390 0.076757 0.118949 0.575719 0.042325 -0.068114 -0.234119 -0.264637 0.437008 0.508500 0.960919 -0.314977 0.528824 0.181675 0.538489 -0.921552 0.723973 -0.842255 0.252260 -0.339566 -0.954001 -0.225362 -0.199096 -0.494260 -0.712081 -0.821493 -0.764373 -0.296617 -0.124072 -0.116766 -0.018798 0.996318 0.959991 -0.899849 0.572036 0.002316 0.032037 -0.662082 0.737679 -0.530955 0.846417 0.698598 0.154068 0.375242 -0.119727 -0.307443 0.453690 -0.395754 -0.149698 -0.294051 0.264679 -0.103699 0.480587 -0.934417 0.402041 0.768506 -0.755910 0.637668 -0.528111 0.120018 -0.479099 0.453091 0.116336 -0.519108 0.553242 -0.311628 0.483208 -0.414721 0.026290 0.220887 0.054324 -0.127293 -0.080515 -0.791608 -0.752051 0.799758 -0.099051 0.701639 -0.595996 0.751252 -0.592412 0.668683 -0.352447 0.888174 0.734266 -0.950406 0.656680 0.978356 0.687261 -0.871431 0.098374 -0.791837 0.581660 -0.785290 -0.310945 0.134903 -0.096918 -0.827736 0.720182 0.929371 0.393151 -0.225494 -0.197921 -0.687364 -0.017102 0.050028 -0.887606 0.883848 -0.248334 -0.483602 0.635099 0.159254 -0.814919 -0.717348 0.047428 0.919347 -0.667754 -0.295892 0.897703 -0.980493 -0.167323 -0.003923 -0.772330 -0.585663 0.210787 -0.083275 0.549240 -0.886131 0.088988 0.269422 -0.956760 -0.517861 -0.956073 -0.154681 -0.205225 0.026826 0.895346 -0.092831 -0.089327 -0.352988 0.423567 -0.454227 0.806266 0.608648 -0.171575 -0.146306 0.527995 0.160670 0.557802 0.425699 0.180177 -0.609521 -0.578224 0.407847 -0.195184 0.632563 -0.675428 -0.645944 0.746431 0.413560 0.623478 0.789671 0.895700 0.667405 -0.365010 -0.309525 -0.305769 -0.469664 0.597644 0.604904 0.177349 0.021211 -0.849323 -0.016385 -0.370141 -0.020899 0.837309 -0.842146 -0.860228 0.395111 0.583553 0.319949 0.785591 -0.994671 -0.272204 -0.409593 0.637892 0.052368 -0.055537 0.384323 -0.534072 -0.432059 0.173994 -0.638372 -0.764654 0.808984 0.052103 -0.070423 -0.660679 -0.350253 -0.465519 0.516669 0.670958 -0.314842 -0.499716 -0.699183 0.664259 -0.662407 -0.541329 0.804031 0.732705 -0.957776 0.123980 0.518295 -0.952448 0.851776 -0.891298 0.685444 -0.095856 0.053165 0.069767 0.370072 0.621106 -0.756239 0.731700 0.856452 -0.947254 -0.216198 -0.213971 -0.607933 0.433549 0.320510 0.908736 0.104506 -0.994333 -0.590980 0.405323 0.669927 -0.253387 0.863994 0.473958 -0.520682 0.906218 -0.402062 0.997613 0.953770 -0.550286 -0.893685 0.639214 0.353857 0.159480 -0.291019 -0.276071 -0.219414 -0.047257 -0.544371 -0.362962 0.005488 0.239431 0.423067 0.397555 -0.327021 -0.256424 0.306291 0.777485 -0.250756 0.715311 0.182809 -0.580830 -0.538076 0.046803 0.893128 -0.058758 -0.046980 -0.508934 -0.061145 -0.093209 -0.059221 0.045170 -0.453995 -0.705364 -0.795350 0.254986 0.018566 -0.014764 -0.792272 0.474194 0.622274 0.213217 -0.286375 0.045341 -0.389228 0.386604 0.788917 0.917063 0.164089 -0.461839 0.632374 -0.653102 -0.042668 -0.905702 0.393700 -0.149540 0.035540 -0.653279 0.341525 0.974395 0.253511 -0.717695 0.019565 0.799516 -0.423059 0.224215 0.054502 0.595507 -0.790549 0.262230 0.069701 0.831725 -0.524553 0.783325 -0.122934 0.086219 0.169929 -0.334016 0.003282 -0.665982 0.204145 -0.364344 -0.319084 -0.838524 -0.270046 -0.925384 0.011936 0.765494 -0.578664 -0.646538 0.739889 0.674848 -0.364234 -0.240546 0.474363 0.212708 0.983669 -0.471135 -0.191786 -0.806880 0.791095 0.877915 -0.975155 -0.733458 0.661240 -0.098089 0.352761 -0.168831 0.567895 -0.643957 0.165187 -0.227960 -0.008301 0.846103 -0.066484 0.721653 0.920719 0.945452 0.487148 -0.657945 -0.701086 0.227037 -0.983097 -0.065320 0.986491 0.491266 -0.852612 0.970160 -0.979869 -0.044398 -0.836720 0.811227 -0.166483 -0.811875 -0.922231 -0.505243 0.090036 0.430531 0.325927 -0.342070 0.786574 -0.508886 0.429970 -0.221727 -0.662783 
/
-0.636514 -0.500074 -0.742064 -0.691062 0.987074 -0.400009 -0.392148 0.214111 -0.383106 0.542532 0.200602 -0.891840 0.689919 0.170763 -0.871709 -0.354479 0.334042 0.939518 0.479038 0.522167 -0.982713 0.973795 -0.387797 0.447818 0.299722 0.270133 0.234392 0.790836 -0.299897 -0.987335 -0.871947 0.063589 -0.487409 -0.614012 0.372527 -0.500335 -0.014021 0.980379 0.713777 0.602873 0.522911 -0.085621 0.711032 0.212830 -0.914858 0.839323 0.858351 0.419184 0.778841 0.337389 -0.058649 0.796129 0.311184 0.553554 0.243947 -0.389095 -0.176313 -0.521661 -0.598259 0.523791 -0.508997 -0.470206 -0.412620 0.003595 -0.084218 0.959907 0.503260 0.901761 0.940286 0.217037 0.504634 0.463197 -0.868584 0.215666 -0.323974 -0.783442 0.054989 -0.465623 0.635742 -0.166169 0.871766 -0.422907 -0.370041 0.182949 -0.869353 0.873906 0.793855 -0.045666 -0.647756 -0.804404 -0.521875 -0.156752 -0.274610 0.065505 0.846843 0.641171 0.025412 0.350103 0.542932 -0.034302 -0.432860 0.047566 -0.571105 -0.301444 -0.736768 0.104921 -0.084887 0.318221 0.639298 -0.449145 -0.847948 0.511064 0.127948 -0.217989 -0.305986 0.258596 -0.344083 -0.512132 -0.787070 0.008161 -0.316536 -0.308945 0.851409 0.408854 0.756560 0.698252 0.050025 -0.218028 0.048355 -0.407042 0.747670 0.615494 0.640524 -0.823435 -0.685950 0.903755 0.281486 0.229163 0.221976 -0.079216 0.780019 0.374028 -0.568152 -0.092033 -0.843961 0.125862 -0.833437 -0.188044 0.613730 -0.620507 0.820117 -0.702805 0.070548 0.671526 0.706049 -0.172892 0.369778 -0.243926 0.609080 -0.581868 0.349032 0.356750 -0.966374 -0.010445 0.533315 -0.652324 -0.106689 -0.185199 0.576840 -0.884713 0.735585 0.356859 0.489316 -0.832567 -0.735174 0.645355 0.293295 -0.568611 -0.542690 -0.092975 -0.189118 -0.722573 0.204220 0.881430 0.948953 -0.089731 -0.291462 0.318730 0.666342 -0.682382 0.736863 0.015374 0.674368 0.770489 -0.995070 0.207682 -0.881835 -0.101759 -0.977517 0.695005 0.013528 0.758068 0.051864 -0.497156 0.925502 0.316690 -0.851802 0.218797 0.748078 -0.394492 -0.874178 -0.441040 -0.117065 0.330042 -0.559611 -0.168112 -0.759689 0.148927 -0.849381 0.906654 0.466544 0.887481 -0.077972 0.140912 0.657970 -0.073042 -0.651406 0.776135 0.825198 -0.628922 0.471141 -0.161274 -0.870854 -0.476996 0.341570 -0.945352 0.839694 0.489768 0.273445 0.587772 -0.904723 0.399267 -0.853268 -0.021788 -0.270690 -0.412879 0.810100 -0.030379 0.736048 0.960719 -0.123726 0.202593 0.848200 0.798302 -0.656495 0.506170 -0.274740 -0.307901 0.282306 -0.449542 0.063177 -0.246553 0.389184 0.192323 0.276451 -0.269246 0.246970 0.116145 -0.779477 -0.479585 -0.296083 -0.684201 0.919682 -0.149351 0.294012 -0.351008 0.437771 0.104112 0.618612 0.173819 0.064831 -0.505113 -0.623589 -0.086969 -0.706811 -0.280084 -0.580798 0.018448 0.412015 0.701508 0.568906 -0.524808 -0.545046 -0.041910 0.667514 0.731405 0.688844 -0.085515 -0.152450 0.909367 0.434900 0.551467 -0.774834 0.354582 -0.597883 0.519178 -0.996426 0.839887 -0.376710 0.622187 0.013706 0.688121 -0.882927 0.390117 -0.398848 -0.589738 -0.889967 0.020354 0.428710 0.522048 -0.278138 -0.002383 0.997239 0.176816 0.955707 0.664754 -0.091778 0.644551 -0.420761 0.755772 0.553918 -0.985861 0.307239 0.779085 0.368721 0.709356 0.298263 0.372295 0.549243 0.921552 -0.005519 -0.437051 0.609673 0.111555 0.953066 -0.789174 0.521817 -0.936901 0.231180 -0.049473 0.585146 0.953042 0.948144 0.582386 0.129859 0.903850 0.247140 -0.961920 0.548402 0.826378 0.793852 0.102320 0.840517 0.101092 -0.118595 0.209237 -0.189553 -0.820333 -0.418468 -0.640310 -0.898781 0.576014 -0.077361 0.710893 -0.312432 -0.124295 0.921719 -0.790615 -0.061197 0.152899 0.159912 -0.476050 0.105941 0.108056 -0.893664 -0.764201 0.011906 0.353475 -0.726120 -0.439692 0.179853 -0.932268 0.662628 0.020370 0.168823 -0.455968 -0.770393 0.979271 -0.276300 -0.188860 -0.661039 -0.175081 -0.612846 0.261600 -0.464188 0.074722 -0.862695 -0.542470 0.284107 0.076108 0.610429 -0.555981 0.600058 -0.283631 0.552075 0.706394 -0.047831 -0.436019 0.059869 0.226048 0.124289 -0.760278 0.293780 -0.213083 0.260092 -0.537397 0.330950 0.489700 -0.558126 -0.945351 -0.699160 -0.219165 -0.120432 -0.312007 -0.957565 0.415380 0.762715 -0.820260 0.872910 0.046822 0.255848 0.483339 0.490841 -0.144093 -0.800292 0.042916 -0.437699 0.151877 0.606898 0.622170 -0.622075 -0.268813 0.861892 0.671705 0.518104 0.121984 -0.865692 -0.150946 -0.388316 -0.423818 -0.096297 -0.087476 0.357017 0.783271 0.600517 0.399452 0.198651 0.363232 0.579192 0.071561 -0.589947 -0.164960 -0.445100 0.900895 0.690947 -0.245392 -0.056189 -0.746753 0.906485 -0.449292 0.875417 -0.715590 0.281895 0.737309 0.956115 -0.200000 -0.140707 -0.909576 0.649053 0.470977 -0.333394 -0.447244 -0.616499 -0.976378 -0.663973 0.984017 0.423074 0.534677 0.347249 0.002266 -0.393762 0.757302 0.837306 0.161138 0.658197 0.528253 0.915746 -0.397992 0.781500 0.822231 0.152716 0.656917 -0.893359 -0.565389 0.394226 -0.937244 0.234611 -0.746481 -0.846820 -0.116336 0.724496 -0.180215 0.436420 -0.892003 -0.156592 0.772447 -0.907986 -0.733518 0.307124 0.439263 0.268748 0.913363 0.196565 0.106054 0.074500 -0.145238 -0.365693 -0.009754 0.456769 -0.584193 -0.187523 -0.390515 -0.927276 -0.080882 0.044097 0.466949 -0.018126 -0.721292 0.720468 0.135054 0.162372 0.444964 0.954839 -0.401208 0.552961 -0.201753 -0.628761 0.644975 0.064729 0.678363 0.084238 -0.666523 0.591726 -0.719197 0.439531 -0.333774 0.135565 -0.926163 0.656472 -0.407666 -0.510356 -0.531051 0.201820 -0.437633 0.388067 -0.754084 -0.970683 -0.630059 -0.475376 0.749785 0.504995 0.686996 0.194749 0.459834 -0.714212 -0.252290 -0.741919 -0.342974 -0.607315 0.322810 -0.664610 0.476922 0.656287 0.927115 0.757725 0.095817 -0.406659 -0.106710 0.169655 -0.750187 0.485624 0.659298 -0.281238 -0.312557 -0.778334 -0.893171 -0.066640 -0.749018 -0.523230 0.457984 -0.999233 0.981765 0.144979 0.195516 0.441599 0.430767 0.943226 0.699680 -0.912207 -0.664090 0.022490 -0.576817 0.812832 -0.321223 -0.649702 0.570557 0.774595 -0.056361 -0.536153 -0.055751 0.193452 0.949470 -0.396452 0.912215 -0.363086 -0.174787 -0.980956 0.570273 0.076196 -0.504186 0.028257 0.076963 -0.522421 -0.826764 -0.727522 0.919178 0.604003 -0.784296 0.618859 0.691797 -0.448386 -0.358651 -0.885020 -0.635554 0.320127 -0.534722 0.935004 0.094721 0.408917 -0.601149 -0.961029 -0.397630 -0.651679 -0.357482 -0.485416 -0.014765 0.467732 -0.466372 -0.444492 -0.456073 0.029442 0.583764 0.620890 0.507021 0.757000 0.893368 0.426199 0.361003 -0.890928 0.045058 0.052800 -0.339314 0.686407 0.167780 0.025133 0.006534 0.633057 -0.039864 -0.898745 0.041974 0.358987 -0.859774 0.644344 0.707308 -0.217256 -0.841072 -0.307457 -0.749524 -0.307444 0.248050 -0.205597 0.721998 -0.168185 -0.584707 0.229019 -0.411185 -0.691339 -0.344781 0.949819 -0.582267 0.700277 0.002619 0.078420 0.386684 -0.829602 -0.896448 -0.606782 0.803456 0.063689 -0.505527 -0.154570 -0.577324 -0.365301 -0.510226 -0.870016 0.417443 -0.351297 -0.177474 0.667919 0.341259 -0.929423 -0.537678 0.063257 -0.097609 -0.122386 -0.707724 0.491207 0.186275 -0.052505 0.441025 0.604008 -0.352228 -0.556356 -0.317572 -0.965544 -0.385958 -0.214020 -0.572326 -0.582502 0.849669 -0.077853 0.262928 -0.727655 0.556846 0.752703 -0.597672 -0.025711 -0.598595 0.224855 -0.357792 0.742664 0.295432 0.104529 -0.194079 -0.802177 0.982144 0.098197 0.689030 0.168419 -0.954308 0.130055 -0.227573 -0.306536 0.573699 0.454855 -0.272080 -0.812259 -0.759164 0.155594 -0.394761 -0.909495 -0.922259 0.868167 -0.637151 0.634587 0.620870 -0.234822 -0.391124 -0.977725 0.990033 0.251084 0.764939 0.285464 -0.644387 -0.429140 0.483287 -0.662243 0.669057 0.172317 0.506176 0.714750 -0.697628 -0.721397 -0.591786 0.876070 0.733458 0.136133 -0.936189 0.974294 -0.708273 -0.330950 -0.935202 -0.630532 -0.462783 -0.572352 -0.995945 -0.841913 0.192825 -0.387069 -0.819638 0.182858 0.864016 0.945300 -0.531677 -0.780371 -0.483840 0.951610 -0.442614 -0.814783 0.123927 -0.936438 0.899967 0.426298 -0.657835 -0.691820 0.302369 -0.924377 0.444314 0.366180 -0.950083 0.736041 -0.964770 -0.885284 -0.894491 -0.427553 -0.457637 -0.890436 -0.269467 0.735189 -0.277504 -0.089105 -0.081953 -0.413489 -0.143805 0.386369 -0.193859 0.372355 0.337979 0.363527 0.557573 -0.538094 0.427089 0.457539 0.888205 0.769254 0.765720 0.190573 0.844877 0.210034 -0.443247 0.894794 -0.053925 -0.408017 -0.990490 0.051584 0.164429 -0.448127 0.161148 0.894963 -0.712938 0.883644 -0.194142 0.205109 -0.529844 0.662053 -0.408522 0.276296 0.034408 0.929457 -0.360177 -0.408019 -0.608636 -0.933088 -0.950480 -0.720432 0.836165 0.815240 0.470141 0.681042 0.025274 -0.973106 0.575837 0.971349 -0.381123 0.585346 0.022933 0.783306 -0.862781 -0.815919 0.678269 -0.575719 -0.932275 -0.515873 0.629390 -0.462119 -0.853821 -0.779132 0.814177 0.180587 -0.849675 -0.546000 0.772568 -0.458311 -0.479088 0.822088 -0.178743 -0.642923 0.637328 -0.708602 -0.961880 -0.337398 -0.681708 0.613957 -0.366050 -0.062831 0.199303 0.656883 -0.279525 0.336522 0.840964 -0.601256 0.760803 0.908689 -0.117129 0.390193 -0.553430 0.029050 0.611061 -0.739252 -0.790362 0.761386 -0.285252 0.982206 -0.696926 0.235660 0.804294 0.124331 0.592738 0.441621 0.415729 0.630858 -0.895777 0.734021 0.244814 -0.261827 -0.328810 -0.555883 -0.604943 0.391666 0.780639 -0.763979 0.790410 0.541443 -0.855290 -0.326719 -0.068364 -0.408719 0.702331 -0.457304 -0.147972 0.911969 -0.695918 0.566777 0.894175 -0.392844 -0.197563 0.698468 0.731488 -0.604826 0.140090 0.147216 -0.973968 0.244313 -0.118762 0.270846 0.982486 0.552428 0.714963 -0.622457 -0.055906 0.495602 -0.386436 -0.265496 0.037045 -0.241726 0.407785 0.968681 0.349555 0.110117 -0.488623 -0.798417 0.022086 -0.184541 0.768360 -0.083740 0.422616 -0.429204 -0.385271 0.154103 -0.034030 0.754818 -0.698680 -0.007998 -0.000869 0.182557 -0.737152 -0.018383 -0.265015 0.977811 0.359160 0.679079 0.473413 0.972724 -0.586417 -0.489542 -0.269002 0.821368 -0.520861 -0.919448 -0.068516 -0.009484 -0.717865 0.953570 0.805975 -0.949505 -0.130170 0.228591 -0.378709 0.484559 -0.617306 0.587261 0.239377 -0.315986 -0.420737 -0.761492 0.866571 -0.157889 0.220126 -0.398444 -0.180078 -0.420714 -0.719365 -0.706665 -0.447991 -0.305782 -0.196207 0.283007 -0.484415 0.282932 0.363559 0.447070 -0.726552 0.645694 0.400640 -0.920577 0.696189 -0.729530 0.308014 -0.682520 0.755029 0.690708 0.904742 -0.005593 -0.625279 -0.515995 0.232915 -0.758708 0.326116 -0.546959 -0.157152 -0.853962 0.032326 0.123483 -0.560626 0.584336 0.817700 0.243167 -0.132657 -0.666714 -0.473901 -0.769098 0.780355 -0.200453 0.876597 0.180995 -0.121030 0.572786 0.451465 -0.813016 0.890266 0.206495 0.877692 0.795008 -0.799099 -0.747587 -0.720987 0.433816 -0.506295 0.605129 0.886856 0.336553 0.751167 -0.080817 -0.539965 -0.809459 -0.496481 -0.722265 0.433708 0.370862 -0.388979 0.959807 0.601764 -0.608624 -0.240646 0.478360 0.572371 0.638324 0.051146 0.023837 0.825308 -0.058588 -0.769669 0.702999 -0.263580 -0.568768 0.955412 0.015433 0.865048 -0.550883 -0.379438 0.751905 0.785669 -0.628271 -0.328912 -0.754295 -0.437730 0.174606 -0.476560 0.995978 -0.454532 0.134461 0.955785 -0.852769 0.525837 -0.284861 0.625591 0.098208 -0.646537 -0.323263 -0.877955 -0.821229 0.618150 -0.647624 0.881770 -0.645431 -0.216392 0.837182 0.370002 -0.351344 -0.713701 0.990564 -0.599439 -0.928032 -0.637707 0.071648 -0.682328 -0.075437 -0.753746 -0.158888 -0.079459 -0.208278 0.975573 -0.123673 -0.061047 0.501410 0.591465 -0.435455 -0.400382 0.944928 0.241282 -0.278337 -0.876301 -0.140568 0.074039 -0.994531 0.214001 0.857647 0.842651 -0.415997 -0.493697 -0.871051 -0.425433 -0.093136 -0.799083 -0.063140 0.978512 -0.481411 0.861423 -0.775234 0.359701 -0.218035 0.016488 0.335274 0.658291 0.955442 -0.163315 0.249757 -0.480014 0.436303 0.194685 0.761269 -0.842034 0.318384 -0.379300 0.232005 0.323853 0.834702 0.089651 0.166503 -0.581295 0.595954 0.295452 -0.006728 -0.497182 0.496369 0.930132 -0.518670 -0.985042 0.791556 -0.293904 0.374660 -0.426480 0.722585 -0.290066 -0.768188 0.678026 0.546619 0.481568 -0.801987 -0.017078 -0.323746 0.959281 0.140887 0.994638 -0.420018 -0.627108 0.318490 -0.585317 0.462543 -0.515006 -0.166612 0.058497 0.780446 0.826661 0.561315 0.276815 0.756793 -0.957355 0.291774 0.548349 -0.251259 -0.333567 -0.878131 -0.528674 0.376368 -0.646319 -0.850648 -0.077013 0.835249 -0.652635 0.905908 -0.488497 -0.693354 0.046796 -0.493859 -0.113372 0.419688 0.824631 0.301311 -0.117769 -0.690375 -0.865301 0.940728 -0.909929 0.961360 0.502044 0.366886 0.718153 0.544689 -0.341340 0.266501 -0.706570 0.325093 0.388370 -0.235244 -0.298539 0.742051 -0.085892 0.624447 0.577301 0.261473 0.530356 -0.911196 0.568119 -0.422849 -0.405056 -0.545253 0.996839 -0.580425 0.756057 -0.120931 -0.270800 0.890756 -0.180202 -0.180730 0.852116 -0.678159 -0.813844 0.570269 0.866530 -0.155184 -0.163230 -0.840040 -0.830091 -0.774860 -0.075284 -0.128630 0.967192 0.838824 -0.504183 0.544492 0.100297 -0.973827 0.633296 -0.331584 -0.396676 -0.771760 0.123163 -0.399838 -0.352185 -0.120780 0.479232 0.377015 -0.230023 -0.700971 -0.803715 -0.377908 -0.379130 -0.617558 -0.807639 -0.512600 0.227258 0.029131 -0.352640 0.397167 0.254271 0.572076 -0.731464 0.221463 0.410901 -0.235647 -0.234045 -0.488802 -0.209474 -0.600750 0.179614 0.393850 -0.372510 -0.697223 0.994012 0.275305 0.181998 0.473244 -0.347680 0.951974 0.772273 -0.151395 -0.425933 -0.606856 0.231047 -0.233572 -0.119456 -0.541696 0.795558 0.527904 0.855471 0.049829 0.099981 -0.875993 -0.728708 -0.489118 -0.111640 0.037247 0.022080 0.678886 0.436497 -0.798306 0.072736 -0.936013 -0.495529 0.066748 0.339293 0.686469 -0.460008 0.991612 0.638443 -0.687735 -0.159782 -0.787490 -0.294591 -0.928736 -0.021063 0.585953 -0.470432 -0.225504 0.113857 -0.614961 0.824325 -0.786162 -0.490954 -0.904383 -0.275280 0.397407 0.132864 0.746799 0.076293 -0.430639 0.948493 -0.850971 -0.366652 -0.547035 0.215778 0.972641 -0.860566 0.755770 0.964253 0.777877 -0.931965 -0.195529 0.990387 -0.226556 -0.124265 -0.030676 -0.640603 0.405303 0.743820 0.473254 0.790342 0.568145 0.687092 -0.700612 0.663762 -0.588189 0.696795 -0.203374 -0.841389 -0.226912 0.365986 -0.892896 -0.077883 0.999334 -0.439932 -0.862105 0.971975 -0.300498 0.893664 0.936228 -0.522621 0.961699 -0.259302 -0.532234 -0.264857 0.616433 0.437090 0.094540 0.021736 0.180910 -0.432206 -0.187921 -0.250945 -0.745115 0.111467 -0.587183 -0.333303 -0.191738 0.209443 -0.174693 0.581350 -0.424571 -0.067589 -0.496533 -0.425237 0.492480 -0.358638 -0.453262 -0.808018 -0.464974 -0.517034 -0.330639 -0.503274 0.223665 0.137127 0.231869 -0.159902 -0.425783 -0.673591 0.861834 0.755127 -0.105797 -0.326087 -0.495817 0.149088 0.785380 -0.083000 0.815785 -0.406357 -0.873558 -0.358908 -0.825007 -0.298129 0.573503 -0.321540 0.276635 0.065983 0.319822 0.823373 0.257965 0.854848 -0.693660 0.927326 -0.648426 0.530004 0.064453 0.583443 -0.629898 0.638671 0.909852 -0.768063 0.393798 -0.195946 -0.094150 0.897981 0.953143 -0.308770 -0.185019 0.768928 0.284873 -0.058577 -0.589980 0.459866 0.643294 0.983524 -0.861674 -0.080071 0.049507 0.458147 -0.256698 -0.692528 0.312995 0.049642 -0.765202 0.664569 -0.420354 0.299251 0.248012 -0.050252 -0.062078 0.157863 0.181685 -0.668280 0.961918 -0.912465 -0.770299 0.915060 -0.221234 0.044682 0.683988 -0.936361 0.986105 -0.905992 0.523504 0.629399 -0.922468 0.661830 -0.450672 0.127038 0.119977 0.292631 0.434510 -0.567027 -0.657728 0.669308 -0.902458 -0.078081 -0.031441 0.345553 0.871667 0.906481 -0.496583 0.053352 -0.761799 -0.534666 0.140887 -0.532097 -0.619605 0.919653 0.512584 -0.935617 0.983292 0.498689 -0.841609 0.506796 0.128088 -0.764078 0.168626 0.677416 0.362960 -0.711396 -0.029953 -0.202530 -0.278424 0.312319 -0.533222 -0.180882 -0.765762 0.435336 -0.835329 -0.894095 0.341817 -0.331912 0.159257 0.580018 0.133422 -0.699856 -0.952079 0.513816 -0.780203 0.560505 0.578199 -0.796911 0.059194 0.736590 0.709885 -0.812718 0.972512 -0.121489 0.864699 0.335472 0.167114 -0.165255 -0.867058 0.888691 -0.852936 -0.400281 -0.292192 -0.618698 -0.964944 -0.127521 -0.512793 0.376873 0.540567 0.646464 -0.043109 -0.326011 0.946608 0.004812 -0.812195 -0.833595 -0.434682 0.766004 -0.630506 0.624512 0.502594 -0.920622 0.811794 0.475105 -0.042111 0.676493 -0.189423 -0.874996 -0.488762 -0.056481 -0.986306 -0.341698 0.543238 -0.278498 0.039604 0.578294 0.593982 0.526811 -0.044833 0.134548 0.173275 0.912058 0.808537 0.119883 -0.083130 0.996342 0.286288 0.482188 0.762346 0.655782 0.106700 0.264940 0.735160 -0.081506 -0.259955 -0.306951 -0.405013 0.550622 -0.181947 0.106225 -0.505859 -0.168253 0.764527 -0.962621 0.553249 -0.195868 0.615673 0.147231 -0.669057 -0.429160 -0.718221 0.504218 -0.517102 -0.909684 -0.375898 0.399768 -0.913342 0.910390 -0.118045 0.849005 0.566172 0.988655 0.113944 0.301332 -0.092851 0.853989 0.994382 0.502136 0.404611 -0.187565 -0.391639 0.898753 0.644181 -0.627112 0.936132 0.197431 0.177020 0.551805 -0.655338 0.507963 -0.877355 -0.373559 0.012182 -0.394458 -0.283243 0.636283 -0.994690 -0.196584 0.546673 -0.112735 -0.347580 0.112845 -0.124080 0.766365 -0.585823 0.783068 0.620354 -0.591441 0.285204 0.024965 0.220993 0.893564 -0.076282 -0.134825 -0.733548 -0.140150 -0.937394 0.443472 -0.588345 -0.592732 -0.048565 -0.465700 0.033709 0.963617 0.139842 0.750466 0.599900 0.145152 -0.446118 0.146573 -0.967583 0.206302 -0.740582 -0.091664 -0.027333 -0.326404 -0.308595 -0.406979 0.082155 0.976609 0.617986 -0.696852 0.870173 -0.458296 0.168323 -0.863375 0.401554 0.230929 0.580098 0.813209 0.638196 -0.468467 -0.652492 -0.328095 -0.504850 0.487350 -0.577629 -0.904950 -0.367498 -0.023747 0.241623 -0.335081 -0.817445 0.501041 0.573255 0.155221 -0.825364 -0.735340 0.748242 0.256791 -0.758731 0.366228 0.559939 -0.888558 0.907932 -0.271738 -0.751933 0.309486 0.959191 0.828164 0.122695 0.597387 -0.640303 0.470203 -0.730708 -0.145153 -0.042446 -0.308337 -0.050104 0.590056 0.667915 -0.808481 -0.745025 0.850470 0.692560 0.828230 0.005691 0.867196 -0.907110 -0.246067 0.123987 -0.665841 -0.879839 -0.316074 -0.554399 -0.971907 0.412188 -0.306333 0.337579 0.371379 -0.478168 -0.539726 -0.031234 -0.118471 0.930477 0.238057 0.736376 -0.111969 0.929720 -0.313728 -0.521913 0.597635 -0.122209 -0.266938 0.448105 -0.429649 -0.438708 -0.546204 -0.562453 -0.345817 0.207730 0.561534 -0.011658 0.327891 -0.754539 0.433942 0.355985 0.657649 -0.872390 -0.306436 0.029028 -0.350558 0.153838 0.997793 0.530971 0.084315 0.235850 0.267347 0.972346 0.165570 0.953619 -0.549567 -0.236795 -0.168590 0.183495 -0.788690 0.401761 0.744787 -0.334894 0.839308 -0.601030 0.872836 0.400843 0.387312 0.200727 0.646303 -0.178746 -0.443288 0.303952 -0.051137 0.250276 -0.667020 0.598305 -0.595886 -0.669227 0.129276 0.488429 0.566623 -0.603378 0.460775 -0.267807 -0.649759 0.911208 0.495398 0.181651 0.094703 0.706708 -0.416588 -0.160509 -0.628185 -0.577280 0.238460 -0.755349 0.823563 -0.374228 0.445378 0.469866 0.447026 -0.997910 -0.226181 -0.604111 0.252366 0.106798 0.994194 0.656480 0.437571 0.123470 0.144910 0.004194 0.520093 -0.394315 0.736388 0.870334 -0.483107 0.231786 0.051985 0.611597 -0.061506 0.635398 -0.548913 0.310309 -0.941882 0.689548 0.554960 0.881681 -0.684680 0.000338 0.351547 0.762346 0.002428 -0.874634 -0.841765 -0.745206 0.232164 -0.847571 0.911274 -0.330264 0.275900 0.056184 0.673930 -0.204008 0.661869 0.410318 -0.333674 -0.821238 -0.357896 0.718312 0.790359 0.580598 0.353709 -0.758554 -0.109093 0.411827 0.930994 -0.554133 0.293508 -0.753686 0.446205 -0.354944 -0.991340 -0.551367 -0.229578 -0.833105 -0.296573 -0.997414 -0.680676 -0.385299 -0.327678 0.595224 0.670885 -0.653749 -0.608784 0.332754 0.756569 0.057542 0.511517 -0.601327 -0.224146 0.301876 0.979270 -0.870437 0.543322 -0.129823 0.541390 0.474316 0.316044 -0.165102 0.720630 -0.237751 0.479954 0.729290 0.210882 -0.749625 0.896185 0.914308 -0.747038 -0.784491 -0.470990 -0.074717 0.810732 -0.800105 0.271535 -0.798052 0.532649 0.028104 0.259491 0.044165 0.426776 -0.964656 -0.653959 0.406047 -0.835093 0.889363 -0.723776 0.706297 0.363679 0.592268 -0.458805 0.084309 -0.645483 -0.978851 -0.186401 0.565399 -0.728476 -0.290216 0.479707 -0.475514 -0.074707 -0.991283 0.449769 -0.263975 -0.791389 -0.278696 -0.062027 0.741260 0.749407 -0.802536 -0.214575 0.176183 -0.767192 0.131466 -0.417770 -0.602284 0.020829 -0.141546 -0.895987 -0.615492 -0.549278 -0.354792 0.468818 -0.194761 -0.333643 -0.717583 -0.629362 -0.062119 -0.007799 0.850345 0.462367 0.917493 0.859061 -0.087863 -0.346482 -0.932327 0.633440 0.591492 0.808933 0.382848 0.788956 -0.405642 -0.440969 -0.978236 0.725824 0.141261 -0.580520 -0.253346 0.999715 -0.476507 0.131162 -0.549563 0.168701 -0.400020 0.255676 0.835058 -0.117603 0.626314 -0.227061 0.874598 0.476659 -0.764694 0.792091 0.335721 0.147443 -0.554390 0.403393 -0.219117 -0.962898 0.212326 -0.836269 0.826057 0.806684 -0.277238 0.847822 0.532509 0.864023 -0.732698 -0.720837 0.863738 -0.209206 0.410325 -0.685825 0.959495 -0.989695 0.569852 0.794553 -0.107298 0.196166 -0.432508 -0.232700 -0.327175 -0.197202 -0.440608 -0.991454 0.950241 0.005002 0.411940 -0.268876 0.042104 -0.375734 -0.105146 -0.131839 -0.569050 0.617616 -0.284017 0.963459 0.481639 -0.016715 -0.757379 0.345377 0.774079 0.652946 0.659553 0.733574 0.663251 0.229405 0.528127 -0.444046 -0.574429 -0.904382 0.323254 0.098396 -0.101584 0.882646 0.106942 -0.151343 -0.112352 -0.481118 0.579780 0.929752 0.143148 -0.525365 -0.202087 0.574098 -0.907749 0.513895 0.537557 0.573890 -0.502820 0.780178 -0.080732 -0.728741 0.433125 -0.421179 -0.995167 0.096376 0.808225 0.532960 0.652330 -0.766204 0.628578 -0.024416 0.332192 -0.473006 -0.141770 -0.560865 0.375650 0.745878 -0.041983 -0.044569 0.675630 -0.898835 0.430066 -0.526457 0.675262 0.522317 0.987438 0.212819 0.096207 -0.515382 -0.007002 -0.984525 -0.244123 -0.573878 -0.405704 -0.239290 0.522498 -0.597479 -0.706331 0.174828 -0.363683 0.922247 -0.849588 0.968509 -0.550759 0.008643 -0.592356 0.824891 -0.245479 0.365660 -0.219678 -0.569849 0.466825 -0.789612 -0.096306 0.142087 0.732704 -0.108868 -0.645094 -0.171089 0.375750 0.347904 -0.155614 -0.868374 0.774026 0.438682 -0.107664 0.296525 0.841203 0.186006 -0.528647 -0.522481 0.108253 -0.378235 -0.553972 0.557494 0.630408 -0.146328 0.382385 -0.615071 -0.780668 -0.837293 -0.184920 0.686157 -0.626905 0.718773 -0.171756 -0.894201 -0.390095 0.183150 -0.065289 0.985654 -0.468946 0.779097 -0.882719 -0.694920 0.217779 0.009617 0.601605 0.058981 -0.804377 -0.927042 0.536500 0.303875 -0.305277 0.982529 -0.138631 -0.674870 -0.163799 -0.756246 -0.289941 0.055532 -0.593539 0.525138 -0.258311 -0.220444 0.243911 0.569933 -0.114644 0.853816 -0.246917 0.820066 0.839470 0.284137 0.599163 0.956751 0.589217 -0.183058 -0.033632 0.190822 0.875923 0.161991 0.263780 0.412423 -0.534134 0.958502 0.394952 0.327235 -0.716368 -0.768847 0.570989 -0.006309 0.286685 0.977450 -0.481171 -0.971626 -0.242994 0.762741 0.598307 0.642362 0.616557 -0.648610 0.462428 0.456027 0.635527 0.061591 0.412779 0.224745 0.878533 -0.620853 -0.584433 0.754456 0.541138 0.679347 0.166880 -0.992996 0.637849 -0.438168 0.334238 0.921481 -0.207015 -0.094773 -0.084828 -0.920330 -0.117323 0.434002 -0.891956 0.639683 0.196743 0.706351 0.282045 -0.186700 -0.942259 -0.255527 -0.730673 0.693268 0.806064 0.682106 -0.081987 0.684597 -0.938748 0.333580 0.439053 0.602390 0.012926 -0.394067 0.609394 -0.349225 0.167765 -0.056368 -0.427744 0.960749 0.848859 0.487429 -0.959581 -0.268463 -0.078570 -0.851537 -0.628780 -0.881827 0.854814 0.653265 -0.068527 0.912556 -0.602262 0.200800 0.605824 -0.796198 -0.117095 -0.476163 0.888399 -0.055842 0.857417 0.327452 -0.453452 -0.129657 0.933385 -0.844059 0.521118 0.101150 0.099573 -0.906626 0.061899 -0.051567 0.580803 0.102318 0.679969 -0.497766 0.250781 -0.948811 -0.379593 0.105596 0.704454 0.551879 0.018152 -0.897808 -0.247321 -0.376024 -0.694006 0.635584 0.147813 
-0.805607 -0.420259 0.005230 0.521845 0.126289 0.875573 0.455231 0.282230 0.396692 -0.443619 -0.618197 0.490066 0.618280 0.330236 0.070869 -0.279402 0.010205 0.573103 0.971380 0.061395 -0.806491 0.076976 -0.234151 0.745388 -0.904873 -0.131960 -0.501933 -0.280897 0.174034 -0.866349 0.866916 0.368427 -0.286608 -0.127853 -0.109728 0.839681 -0.252280 -0.654497 0.121911 -0.855588 -0.098116 0.503714 0.634478 -0.479836 -0.166050 -0.294653 0.240762 0.844155 -0.721550 0.212142 -0.094450 -0.528041 -0.710882 0.671399 -0.782652 -0.615755 -0.460561 -0.284585 0.103348 0.713473 -0.150934 -0.029735 0.081900 0.562458 0.842411 0.972172 0.402139 -0.409869 -0.682325 -0.475951 -0.265457 0.219559 -0.972237 -0.630979 0.739722 -0.138286 0.074368 -0.019516 -0.294131 0.352818 -0.807374 0.611419 0.824777 -0.518256 0.282818 -0.957875 -0.134011 0.822256 -0.242460 0.969337 0.535729 0.606606 -0.060398 -0.382371 0.169064 -0.217986 -0.410199 -0.428798 0.372145 -0.092524 0.095252 -0.893312 -0.872966 0.123015 -0.524291 0.866757 0.984729 0.550077 -0.152759 -0.309402 -0.097105 0.039868 -0.697983 -0.272327 0.521612 0.584834 -0.230202 -0.612399 0.407091 0.527338 -0.643062 -0.057180 0.133944 0.296540 0.560449 -0.696993 -0.921446 -0.849751 -0.125790 0.450699 0.057725 0.969461 0.557387 0.184760 0.092477 -0.966904 0.051516 0.077205 0.583173 0.898758 0.767803 -0.513931 -0.061375 -0.930180 0.213741 -0.539763 0.654654 0.983539 -0.152162 0.061745 0.510877 0.204776 -0.995436 -0.355180 -0.498684 0.565013 -0.052173 -0.420130 0.715262 0.822037 -0.969431 -0.227012 0.791498 0.587957 0.957747 -0.116025 0.621053 0.009264 0.961180 0.204226 -0.091979 0.728983 0.690295 0.846647 0.798803 -0.095964 -0.693116 0.453457 -0.112425 0.154722 -0.484799 -0.601549 -0.640502 -0.480234 0.043271 -0.139185 -0.915221 0.991099 0.440685 0.800041 0.813136 0.471254 -0.426971 0.604634 0.059211 -0.469224 -0.511392 -0.319736 0.540040 -0.550212 0.884490 -0.551939 -0.821229 0.574785 -0.705292 0.977574 -0.521179 -0.398408 0.431031 0.366395 0.756314 0.946232 0.764847 -0.884188 -0.534002 -0.191882 -0.023373 -0.449223 -0.200783 -0.582688 -0.649182 -0.387648 0.888566 -0.076153 -0.783014 -0.052223 0.454623 -0.294406 0.628041 -0.005337 0.155383 0.512531 0.442724 0.334154 0.087315 0.737432 0.311728 0.566136 -0.660976 -0.257241 -0.067468 -0.904662 -0.311008 -0.302622 -0.788850 0.154990 0.505496 0.187777 0.705766 -0.695287 0.605089 -0.943416 -0.082935 0.493655 -0.019569 0.134052 -0.558568 -0.564946 0.839646 -0.930528 0.429717 -0.004971 0.582003 -0.127560 -0.670817 -0.330682 -0.390128 0.640911 -0.764546 -0.051104 -0.616330 0.167986 0.044235 0.072662 0.865364 0.255385 -0.772348 0.370860 -0.556838 0.933418 0.675574 -0.951749 0.990003 -0.407361 0.541906 -0.029566 0.726691 0.983338 0.405488 0.566337 -0.947190 -0.164795 -0.438635 0.634813 0.707645 -0.109452 -0.695869 -0.682483 -0.468540 -0.460415 0.266413 -0.084870 0.707570 -0.689352 0.987792 0.572935 0.566033 -0.784556 -0.056205 -0.990805 -0.851138 -0.380631 -0.942553 -0.861135 0.212008 0.599353 0.109299 -0.061302 0.582690 -0.485213 -0.494965 0.635500 0.349991 0.066401 0.270313 0.057636 0.956949 0.574443 0.375153 -0.511591 -0.885972 -0.358433 0.403539 0.821598 -0.047785 0.391331 0.394533 -0.481752 0.606775 -0.661672 -0.472557 0.755637 -0.042303 -0.415110 0.894502 -0.830295 -0.815758 0.003801 0.108403 0.766933 0.518587 0.613438 0.402433 -0.131421 -0.320161 -0.327255 0.926215 -0.363212 -0.752811 0.301368 0.125197 -0.638784 0.942934 -0.471264 -0.817185 -0.104851 0.920067 0.577348 0.413397 0.526842 0.915676 0.940840 0.282480 -0.126627 -0.474270 0.176982 0.043077 -0.290028 -0.819218 -0.848519 -0.523095 0.699370 0.764919 0.879338 -0.432052 -0.555242 -0.447917 -0.505837 0.081546 -0.200728 0.795531 -0.793258 0.160488 0.738465 -0.264522 0.343303 -0.366386 -0.344455 -0.079349 -0.952989 -0.817612 -0.163673 0.987851 0.464867 0.709700 -0.486419 -0.358151 -0.247223 0.223554 -0.177369 -0.095742 0.700459 -0.477999 -0.330823 0.579796 0.089949 0.113934 -0.868121 0.584112 -0.804520 -0.068849 0.379643 -0.597778 -0.908361 0.118108 0.137700 0.434942 0.751722 0.793246 -0.644406 0.798733 0.975633 0.191921 0.786585 0.440500 -0.098379 -0.699834 -0.917651 0.654398 0.523720 -0.095020 -0.441344 0.224178 0.426981 0.227833 -0.196026 -0.483070 -0.658233 -0.064146 -0.898958 -0.462753 0.867005 0.480685 -0.060531 0.958644 -0.401207 -0.922831 0.393587 -0.649484 0.870415 0.749180 -0.850751 0.846048 -0.058899 0.935834 0.286548 0.842722 -0.764000 0.368897 0.497120 0.759720 -0.726123 -0.944224 -0.016102 0.700858 0.283608 0.787872 -0.782211 0.625375 -0.276274 -0.681169 -0.837378 -0.409269 0.799516 0.102091 -0.450625 -0.601690 0.179260 0.942962 -0.251175 0.049675 0.692143 -0.101926 -0.104276 -0.366756 -0.166092 -0.817728 -0.524034 0.069908 0.551169 0.973085 -0.170372 0.825047 -0.971139 0.813525 0.525905 0.312469 0.601398 0.743694 -0.062155 -0.674876 -0.937475 0.100467 -0.084145 0.862041 -0.797442 0.465230 -0.739649 0.381818 0.408192 0.009176 -0.568507 0.100335 0.907250 0.327217 0.733579 -0.258841 0.509489 -0.790455 0.811067 0.060658 -0.817370 -0.359306 -0.114295 -0.788509 -0.545780 -0.588390 0.523960 -0.944383 -0.844696 -0.538195 -0.619259 -0.782171 0.562271 0.296595 -0.920130 0.764829 -0.238175 -0.659779 0.146647 -0.829982 0.349397 0.578140 0.270353 0.256647 -0.094643 0.003932 0.997806 -0.585154 0.213477 0.808872 0.475505 0.396106 -0.550433 -0.638790 0.607597 -0.096214 -0.227180 0.131558 -0.040596 -0.071876 0.593362 0.340144 0.145953 0.155634 -0.363260 0.225823 -0.079537 0.398565 0.566044 -0.932890 0.568583 -0.084559 0.645250 -0.161064 -0.827912 -0.449392 0.842868 -0.830107 -0.034546 0.056344 0.978766 -0.559041 -0.547549 -0.571668 -0.197832 -0.939952 0.332119 0.574988 0.191606 -0.708478 -0.496888 -0.215032 0.631667 0.649064 0.940602 -0.731594 -0.125113 -0.138935 0.666971 -0.559069 -0.071826 0.235554 0.356371 -0.426576 -0.925510 0.528459 0.124032 0.917358 0.698352 -0.910514 -0.026298 0.677118 -0.469555 0.426153 -0.894550 0.332613 0.486201 0.437569 -0.092399 -0.322193 0.729092 0.410712 0.462775 0.360758 0.059777 0.403377 0.629165 0.934664 -0.735559 0.296136 -0.624406 0.192616 -0.468309 0.731965 0.766040 -0.393819 0.260424 -0.109928 -0.476462 -0.041224 -0.020442 0.497240 -0.364106 0.510003 -0.076607 -0.258655 -0.157384 -0.590406 -0.821086 0.750216 0.087401 0.908006 0.160929 -0.449824 0.268764 -0.779295 0.953552 -0.102071 -0.844631 -0.782006 -0.805935 -0.469037 0.410610 -0.274244 -0.737072 0.176650 0.331937 0.523352 -0.933277 0.855475 -0.517871 0.046281 0.352715 0.118023 -0.443716 -0.723892 0.859368 0.398900 -0.314298 -0.961718 0.149116 0.773103 0.946287 -0.689955 -0.676721 0.215051 -0.469250 -0.723169 -0.887020 -0.313882 -0.505175 -0.692954 0.217081 0.905435 0.032802 0.480009 0.082085 -0.635262 0.003362 0.148807 -0.779787 0.485490 -0.804912 0.572928 -0.396487 -0.248628 0.849037 -0.537119 -0.849728 -0.465261 -0.498837 0.299388 -0.692158 -0.552550 0.609433 -0.368879 0.662501 -0.859818 -0.092048 0.775482 -0.173699 0.402777 -0.917472 -0.956618 0.308211 0.115329 0.523391 -0.609704 0.480067 -0.473247 0.539103 0.700281 -0.987757 0.734191 0.273209 -0.384243 -0.514437 0.122246 0.078638 -0.364165 0.656985 0.579801 0.935223 0.964827 -0.972749 0.544655 -0.404052 0.689752 0.684838 0.503900 0.465234 -0.488862 -0.093323 0.547761 -0.445480 -0.785112 -0.336909 -0.922088 -0.394816 -0.856842 -0.395335 -0.855713 0.843439 -0.383092 0.878479 0.116648 0.232665 -0.635958 -0.761106 -0.688697 -0.000123 0.895879 0.891104 -0.064901 0.860706 0.918355 -0.520245 -0.543346 0.608107 -0.835408 0.960555 0.073341 -0.324269 -0.132768 -0.378898 0.230251 0.082120 0.284193 0.308163 0.687304 0.427351 0.912828 0.831592 0.270790 -0.470264 0.710070 -0.612562 0.762401 -0.925888 -0.373669 -0.926296 0.073988 -0.477790 0.964808 -0.990912 -0.617084 0.883162 -0.511158 -0.160430 0.491269 -0.346565 -0.199875 -0.435390 0.329166 0.667357 0.185712 -0.440583 -0.250523 -0.530095 0.867580 -0.563219 0.897256 0.780407 -0.731627 0.168046 -0.689857 0.978443 0.555483 -0.927456 -0.947445 -0.818185 -0.853752 0.126543 -0.295976 -0.888944 0.135631 0.086940 0.994219 0.624473 0.926511 0.485488 -0.722092 -0.273364 -0.949902 0.607074 -0.606007 0.235810 -0.833510 0.143470 0.705715 -0.965930 0.580251 0.602971 0.814477 0.848623 -0.228983 -0.875379 0.827066 -0.673500 -0.802835 0.879621 -0.491685 -0.656587 0.006164 0.212339 -0.545531 -0.858206 -0.700720 -0.551312 0.766268 -0.774209 0.934176 -0.955824 -0.047573 0.984273 0.651249 0.346420 0.220083 0.817739 -0.510111 -0.074202 0.851809 -0.929860 -0.471231 0.666287 0.918763 0.299786 0.790907 0.745829 0.626286 0.988072 0.625450 -0.865399 -0.668515 -0.368387 0.346940 -0.214045 -0.226592 0.646220 0.234643 -0.460325 0.872011 0.168818 -0.416149 -0.175562 0.153092 -0.764900 -0.829143 -0.626825 -0.947160 -0.339254 0.298973 0.904649 -0.269114 0.827742 0.570936 -0.350351 0.127527 0.361843 -0.604522 -0.246186 0.349915 -0.979072 -0.111585 0.681400 -0.347459 -0.764645 -0.532645 0.425949 0.881575 0.701997 0.965624 0.753586 -0.129184 -0.450525 -0.421976 -0.976093 -0.215424 -0.251119 -0.602918 -0.162585 0.409627 0.696055 -0.257936 -0.859487 0.523796 -0.687000 -0.209838 -0.348676 0.674843 0.185640 0.405137 0.024757 0.206568 -0.706448 -0.293843 0.859109 -0.471093 0.173512 0.285058 -0.589518 -0.124491 0.250682 -0.835932 0.746325 0.800158 -0.257908 0.770232 -0.415267 0.490973 -0.832686 0.422148 -0.099400 0.863368 -0.835788 0.041114 0.387165 -0.522788 0.831276 -0.961511 -0.847945 0.016916 0.443626 0.176812 -0.776516 0.737178 0.882969 -0.917407 -0.733915 0.056481 0.367651 -0.323433 0.931990 -0.381666 -0.159364 0.678315 -0.581509 0.582728 0.448546 0.003224 0.073701 0.615860 -0.574627 0.974301 0.479229 -0.410415 0.015415 -0.133607 0.066798 -0.153309 -0.095118 0.218852 0.863607 -0.651492 -0.604336 -0.912908 -0.914315 -0.721366 -0.830315 -0.648230 0.335115 0.537337 0.028337 0.267105 -0.844330 0.868973 -0.054581 -0.425838 0.451701 -0.606034 0.577386 -0.474599 -0.990174 -0.997241 -0.500297 0.489054 -0.407656 0.515118 -0.644552 0.659142 -0.638191 0.260329 -0.122006 -0.774584 0.608837 0.273658 -0.687492 0.694522 0.552292 -0.517807 -0.953707 -0.112593 -0.980471 0.074630 -0.845489 -0.824801 -0.056397 0.099931 -0.250639 -0.604697 0.493896 -0.673253 -0.079295 0.503722 -0.670494 0.420407 -0.007224 -0.078150 -0.064475 0.348223 -0.419009 0.297334 -0.391447 0.458985 0.522750 -0.782610 -0.267356 0.835257 0.911912 -0.715064 -0.682550 0.958205 0.172342 -0.663021 0.032834 0.326854 -0.487821 0.976437 -0.573216 0.261540 -0.628260 0.920680 0.588287 0.292445 0.424402 0.917792 -0.287147 -0.582822 -0.160358 0.648378 0.765401 0.420634 -0.054289 -0.626046 -0.120381 -0.531539 -0.408656 0.612262 -0.696282 -0.496744 0.897198 -0.378832 -0.538540 0.069540 -0.041852 0.494295 -0.603606 0.470326 0.470732 -0.176822 -0.268134 0.842473 -0.256141 -0.679848 0.134918 -0.831739 -0.762055 0.847770 -0.414561 0.077587 0.496148 -0.649160 -0.501779 -0.558141 -0.275205 0.377840 -0.089680 0.316138 -0.009898 0.214039 0.819394 -0.112700 0.835207 -0.719145 0.956841 -0.206645 0.775150 -0.646765 -0.736319 0.245882 0.176413 -0.004454 0.088354 0.920271 0.315699 -0.776728 -0.911468 0.553643 -0.928958 -0.326029 -0.368769 0.567190 0.024811 0.129451 -0.990951 0.749606 -0.492709 -0.080630 0.065744 0.497393 -0.866592 -0.114861 -0.615306 0.968615 0.165993 -0.658466 -0.238030 -0.058857 -0.305231 0.025651 -0.812975 0.871182 -0.978803 0.275379 0.791453 0.336896 0.498652 0.879985 -0.109461 0.569694 -0.446044 0.521770 0.136884 0.578768 -0.348779 0.145933 0.328374 0.158512 -0.934697 -0.605882 -0.344094 -0.801289 0.279257 0.040600 -0.832674 -0.554750 0.382134 -0.070704 0.386393 -0.923097 0.954947 0.573418 0.948085 0.976144 -0.151202 0.739538 0.313040 -0.652551 0.619523 -0.796421 0.917143 -0.826520 0.725349 0.054027 0.752248 -0.623430 -0.800040 0.080621 0.535083 -0.734737 0.474739 -0.809011 -0.536026 -0.246004 0.231588 -0.368700 0.199246 -0.386277 0.560596 -0.414361 -0.309374 0.515543 -0.840942 -0.361290 0.491688 0.007855 -0.621752 -0.195272 0.355305 0.997772 0.008307 0.272448 -0.828748 -0.266344 -0.673525 0.923500 0.110226 -0.473565 0.004121 -0.354691 -0.208302 -0.521140 -0.163702 0.255671 0.232857 -0.932114 0.886971 -0.567897 -0.318391 0.447568 0.017742 0.372234 -0.036889 0.176800 -0.989055 -0.545201 -0.815345 -0.610807 0.259526 0.539960 -0.613035 -0.732167 -0.187593 -0.441783 0.001489 0.138882 -0.518284 -0.888285 0.665317 0.485837 -0.242975 -0.542985 0.964698 0.593322 0.712686 0.197554 0.661209 0.599658 0.629657 -0.657183 0.047225 -0.352601 0.715052 -0.989664 0.824199 0.725996 -0.534865 -0.991146 -0.884811 0.724661 0.548813 -0.497846 0.992494 -0.638779 0.060371 -0.006017 0.500103 0.542087 0.105699 0.165420 0.027925 0.862723 0.622435 -0.007377 0.456046 0.335121 -0.809823 0.117254 -0.065221 0.819834 0.460072 0.982004 -0.532767 0.175124 0.992340 -0.708568 -0.098880 -0.542525 -0.699715 0.016310 -0.817864 0.849098 0.518464 -0.825370 -0.789681 -0.421165 0.168613 0.710422 -0.879077 -0.725688 -0.124158 0.148848 -0.862964 -0.501724 -0.858530 0.593081 0.833397 -0.668353 -0.289664 -0.231824 -0.848519 -0.829592 -0.249821 -0.381286 0.345532 -0.257481 -0.089854 -0.753348 0.199994 0.210431 0.262961 0.382130 0.059530 -0.218574 0.556760 0.269849 0.360261 -0.274626 -0.019730 0.481184 -0.000314 0.856112 -0.369969 0.136721 -0.645612 -0.228498 -0.270197 -0.812214 0.103149 0.440138 -0.044039 0.254630 0.610546 0.706141 0.873345 -0.043922 -0.551340 -0.216509 0.202730 0.648654 0.993922 -0.534309 0.030784 0.053452 0.247117 -0.412455 -0.676699 -0.392622 0.312918 0.303571 -0.911439 -0.687396 0.159683 -0.281407 0.449325 0.514071 0.490094 -0.820872 0.701857 -0.406757 0.619266 -0.342182 0.847874 0.229813 -0.636041 0.721219 -0.814110 -0.187381 -0.495290 0.388620 -0.538727 -0.501368 0.854311 0.492057 0.552084 0.101427 -0.920398 0.875384 0.708805 0.392520 0.178955 0.797366 0.705124 -0.661362 -0.484041 0.154449 0.852710 -0.993947 0.333577 0.554566 -0.400703 -0.047157 -0.787616 -0.552830 -0.817344 -0.423657 -0.831611 -0.631454 0.388962 -0.326901 0.757166 0.850235 0.171730 0.611477 0.342292 -0.276186 -0.287095 0.421894 -0.400801 -0.578290 -0.185586 0.778154 -0.780924 -0.480462 -0.883208 -0.264965 0.673987 0.969502 -0.258912 0.007564 0.524068 0.340385 0.960407 0.736453 0.787555 -0.856937 -0.687204 0.955944 -0.488390 0.701757 -0.370957 -0.731224 0.551992 0.800773 0.880253 -0.105716 -0.475413 -0.406842 -0.683821 0.123786 0.014867 0.130593 -0.098060 0.233943 0.650131 0.018732 0.968978 0.324118 -0.011766 -0.289934 -0.668318 -0.487698 -0.949549 -0.707910 -0.751245 0.838006 -0.564847 -0.438449 0.793950 -0.053237 -0.736692 -0.577008 0.215539 0.815300 -0.776235 0.095792 -0.290415 -0.251648 0.688949 0.025763 0.872137 -0.296184 -0.843644 -0.225923 0.937759 0.806487 0.792809 0.906737 0.130605 -0.218957 -0.383197 0.462287 0.293345 -0.332747 0.754376 0.542100 -0.494741 -0.810471 -0.896349 -0.700791 0.136292 -0.633041 -0.277799 -0.648169 -0.817741 -0.054034 0.447623 -0.108156 0.694318 0.136572 0.917607 0.566455 0.840389 -0.926037 -0.659468 0.778148 0.880450 -0.866659 0.684885 0.011055 -0.085616 -0.698312 -0.526658 -0.792271 -0.031058 -0.772282 0.749830 0.474201 -0.582753 0.853480 0.773409 0.553540 -0.779561 -0.504390 0.905371 -0.597301 0.441575 0.352993 0.294543 0.135893 -0.510434 0.212150 -0.297652 -0.670046 0.286114 0.042880 -0.891898 0.166564 0.176221 0.792988 -0.822381 -0.909395 -0.905324 -0.349039 -0.701665 0.063618 -0.121321 -0.951836 -0.462182 0.295926 0.901644 -0.688772 -0.150534 -0.877916 -0.193163 -0.245164 -0.475217 -0.751587 -0.892170 0.819325 0.384306 -0.402604 0.031476 -0.913346 -0.072650 -0.682411 0.129534 0.035452 0.484153 -0.694245 -0.171560 0.661772 -0.603639 -0.076884 -0.687268 -0.305305 0.986734 0.191411 -0.257141 -0.475448 -0.512663 -0.355496 -0.164220 0.336803 -0.233412 0.642617 -0.908361 0.291370 0.891030 -0.800531 0.110696 0.275336 -0.203135 -0.857829 0.361990 0.724214 -0.540240 -0.508476 -0.240333 0.943913 -0.202720 0.588107 0.605685 0.193641 -0.488777 0.918418 0.888336 -0.502043 0.109829 -0.368804 0.022509 0.597166 0.275699 0.858289 -0.066032 -0.957713 0.500906 0.025607 0.333658 0.391937 0.225076 -0.555647 -0.332727 -0.978059 -0.413475 -0.970737 0.746155 0.046285 -0.479212 -0.494178 -0.009802 0.318067 -0.906071 -0.404116 -0.488292 -0.394848 -0.485699 -0.599956 0.103109 0.624130 0.031240 -0.874382 0.221295 -0.693061 0.983907 -0.844736 -0.650774 0.484813 0.180871 0.682884 -0.123250 -0.594052 -0.872763 0.544023 -0.572111 -0.286238 0.573286 -0.825956 0.760047 -0.905926 -0.320134 -0.249754 0.412141 -0.226205 0.346129 0.923849 0.378948 0.860431 -0.676106 -0.517944 0.484560 0.355133 -0.392325 -0.294144 0.662072 -0.408418 -0.138881 -0.988701 -0.923605 -0.958009 0.694183 -0.046855 -0.552062 0.821420 -0.502832 -0.124173 -0.464817 -0.929546 0.049871 -0.704770 -0.835472 0.729737 0.045476 0.576669 -0.496467 -0.608395 0.500519 0.882480 -0.747964 0.824412 -0.635463 0.736596 0.179545 -0.027789 -0.557548 -0.158382 0.563793 0.303571 -0.147083 0.640188 0.345562 -0.452901 -0.406667 0.793500 -0.631480 0.090501 -0.330673 -0.096298 0.160956 0.719198 0.198932 0.325484 0.448935 -0.755592 -0.097846 0.952468 -0.363987 -0.597328 0.834948 -0.111951 -0.772915 -0.800516 -0.375354 0.406630 0.171696 0.067098 -0.751752 -0.264511 -0.629331 0.101164 -0.624323 0.716231 0.648264 -0.030990 0.509731 -0.983216 -0.940489 -0.820942 -0.079514 0.220467 0.898255 -0.880581 -0.454049 0.347190 -0.636173 0.448105 0.299658 -0.000160 0.850777 0.134605 0.887889 -0.922138 0.334090 -0.487465 0.484492 -0.494215 0.579632 0.732739 0.241274 0.950301 -0.166096 0.616951 0.666532 -0.517832 -0.414040 0.176263 -0.501048 -0.354528 0.355320 0.419438 0.865939 0.253575 0.538856 -0.588110 -0.399235 0.902683 0.859995 0.900423 -0.097477 0.710772 0.035028 -0.209588 0.788633 -0.630882 0.302947 0.273125 -0.125097 -0.117421 0.005864 -0.883823 -0.167120 0.839768 0.733128 -0.500588 -0.678064 -0.680912 0.675674 -0.179112 -0.035440 0.030994 -0.759675 -0.169502 -0.715431 0.779182 0.242388 -0.114665 0.681864 0.102383 -0.214242 -0.415613 -0.186845 0.820786 0.374799 -0.398212 -0.810097 -0.322255 0.874913 0.064806 0.560324 -0.119222 0.180984 -0.606796 -0.279454 -0.085889 -0.107385 0.042482 0.233200 -0.431710 0.863370 -0.802241 0.599284 -0.896305 0.028258 0.883853 0.882877 -0.729354 -0.230812 0.564741 0.373029 0.554945 -0.850872 -0.813816 0.375731 0.523927 -0.212027 0.565634 -0.798327 -0.337114 -0.369559 0.761997 0.543664 0.811424 -0.844799 -0.735790 -0.274464 0.047816 0.306693 0.958735 0.616106 0.170063 -0.843505 0.215389 0.273758 0.184752 0.099243 0.156635 0.455398 0.868431 -0.278624 -0.171572 0.423376 -0.129495 0.014612 -0.200893 -0.605568 0.802585 -0.635259 -0.403895 -0.534529 -0.004818 -0.641899 -0.990865 -0.193393 -0.486698 -0.726655 0.532143 0.561118 0.580038 0.490878 0.177224 -0.249900 0.647373 -0.607387 -0.976142 -0.167875 0.491856 0.180494 -0.712476 0.360286 0.901870 0.115951 -0.216338 -0.227625 -0.869437 0.582770 0.166807 0.933148 0.947511 0.762911 -0.601382 -0.057307 -0.878987 -0.592247 0.749300 -0.365685 -0.318902 0.281443 -0.804567 -0.738864 -0.227679 0.372657 0.011236 -0.580307 0.765270 0.035094 0.251819 0.257125 -0.784412 0.539342 -0.382588 -0.882542 -0.344707 0.401074 -0.110167 -0.214143 -0.016156 -0.943360 -0.280996 -0.068645 0.819551 0.117623 0.874048 0.940564 0.525375 0.623348 -0.425121 -0.793527 -0.095209 -0.229688 -0.532391 0.677111 -0.857031 0.478845 -0.903195 0.908239 -0.486061 0.348623 0.165364 -0.270473 -0.112034 0.782776 -0.153015 0.543259 0.183850 0.736818 -0.670884 -0.832306 0.793458 0.048120 0.099049 0.613009 -0.834258 -0.026903 0.553573 0.691118 -0.403555 -0.871547 0.897591 0.501236 -0.101235 -0.634800 0.178347 0.041734 0.844045 0.275152 -0.050027 -0.642016 -0.376225 -0.884663 0.087512 0.511741 0.898113 0.934497 0.055000 0.081963 0.671315 0.384116 0.249657 0.464773 -0.567764 -0.651294 0.077782 -0.402022 0.321803 -0.368644 -0.710904 0.918248 -0.240191 -0.813313 0.419483 0.658574 -0.448112 -0.402170 -0.299692 -0.604067 0.872982 0.650280 -0.246083 -0.503243 0.765617 0.841429 -0.991502 0.663730 0.775926 0.063498 -0.254306 0.447241 -0.552386 0.995351 -0.087986 -0.120150 -0.655943 0.989796 0.477828 0.665860 -0.378848 0.766924 0.584107 0.380960 0.953611 0.003590 0.039534 -0.494501 0.601421 0.739842 -0.098568 0.474402 0.390122 0.655349 0.971160 0.155739 0.496778 0.979658 -0.180530 0.272704 0.043156 0.565163 -0.280055 0.490770 0.560514 0.631959 -0.629380 0.904571 0.621755 0.848448 0.570431 -0.757093 0.615371 0.154538 0.623867 0.568983 -0.841871 -0.336599 -0.925519 0.759549 -0.596757 -0.024087 0.233952 0.793365 -0.368738 0.205111 -0.050896 -0.871960 0.184769 0.768573 0.400744 -0.772075 0.333737 -0.879311 0.718695 -0.105749 0.752648 -0.910685 -0.201178 0.374403 0.937763 -0.630747 0.617310 0.553134 0.523791 0.241177 0.122117 0.681919 0.904578 0.196598 0.441469 -0.692179 -0.827489 -0.324580 -0.898814 -0.196227 0.880531 0.050290 -0.068187 0.065301 -0.181137 -0.667443 0.293226 -0.847400 -0.546754 0.011921 0.046851 -0.794106 0.101236 0.845673 0.580296 0.038999 -0.785075 0.197606 -0.407867 0.738716 -0.561217 0.714249 0.420635 -0.656639 -0.089153 -0.137896 -0.348818 0.083358 0.537524 -0.247632 0.887131 0.418056 0.802658 -0.181055 -0.516644 -0.378478 0.151502 0.776582 -0.225878 0.604748 -0.211498 0.820973 0.810642 0.889738 0.666645 0.390938 -0.071263 0.881571 -0.411456 0.520870 0.620287 0.027326 0.235119 0.040922 0.370687 -0.854034 0.903026 -0.978130 0.229324 0.440550 -0.225762 0.116456 -0.141395 -0.423103 0.935400 0.341961 0.198419 0.086902 0.118543 0.972541 -0.308350 0.907045 0.793513 -0.497709 0.796784 0.460159 0.893229 -0.274479 0.341729 -0.518227 -0.753610 -0.037984 0.509099 0.481509 -0.997062 -0.120213 0.627475 0.905964 -0.098343 -0.143201 0.346514 0.675895 0.973255 -0.794881 -0.747208 0.908655 0.547080 0.451210 -0.004443 -0.334377 0.423751 0.687207 -0.427332 0.217264 -0.810502 -0.630548 -0.322577 -0.917272 0.094973 -0.980848 -0.435499 0.341363 -0.018832 -0.926400 -0.177128 -0.015894 -0.046613 -0.549653 -0.109930 0.855043 0.307146 -0.763417 0.530938 0.280401 -0.558298 0.783730 0.189056 0.988782 0.234940 -0.815386 -0.345595 -0.341310 0.871820 0.227074 0.875954 -0.938681 0.596526 -0.446623 -0.855954 -0.308501 -0.427471 -0.291453 -0.967138 0.553697 -0.217853 -0.144266 -0.462197 0.735534 0.306081 0.427873 0.590577 -0.386773 0.664456 0.121515 0.893628 -0.893842 -0.094755 0.082685 -0.905059 -0.859815 0.267298 -0.250654 -0.201125 0.139119 0.976420 -0.325170 0.200437 0.572946 0.228207 0.344484 -0.735556 0.800736 -0.946969 -0.702694 0.354433 -0.164822 0.153040 0.892237 -0.429288 -0.540880 0.320110 -0.838711 0.072347 -0.015434 0.282804 -0.034025 0.090725 -0.811951 -0.951340 0.185665 -0.671766 0.315958 0.935011 0.127109 -0.544924 0.911431 0.801939 0.655514 0.484376 0.030146 -0.000002 0.748821 -0.169118 0.053028 -0.953873 -0.814685 0.888206 0.199167 -0.922448 -0.541082 0.658287 0.397662 -0.379793 -0.269366 -0.617772 0.903012 0.696609 0.472952 -0.908939 0.745269 -0.341382 -0.580705 0.061227 -0.406371 0.546404 0.516303 -0.494940 0.348343 0.171817 0.989436 -0.621511 -0.828185 0.738257 0.209370 0.224843 0.784384 0.394685 0.113049 -0.016450 0.472237 0.571968 -0.358163 -0.130102 -0.807825 0.372471 0.252126 -0.904814 0.069081 -0.274921 -0.813752 -0.185650 0.383696 -0.394457 0.875577 0.977325 -0.848053 0.391880 -0.517615 0.500290 -0.436302 -0.528179 0.878779 -0.264488 -0.789923 0.088150 0.960355 0.994461 -0.517165 0.073405 -0.021989 0.955072 -0.354628 0.619849 -0.175030 -0.162453 -0.007680 -0.922903 -0.067266 -0.938599 -0.197825 0.118981 -0.124249 -0.814129 0.724524 -0.248672 -0.836804 0.876471 -0.856792 -0.354419 0.376762 -0.293094 0.117402 0.255541 0.442418 0.327479 -0.656309 0.402774 0.321940 -0.173475 -0.523822 -0.700049 -0.218403 0.121551 0.919800 0.606568 0.959098 -0.087879 0.683664 -0.108168 
-0.026478 -0.514161 -0.989186 0.849273 -0.328289 0.735338 -0.399399 -0.165093 0.611809 -0.256191 0.480488 -0.011430 0.450715 -0.402110 -0.755889 -0.106867 0.925369 -0.412198 -0.704093 0.247309 0.414327 -0.227915 0.547260 -0.804076 0.893636 0.467061 0.802492 0.852735 -0.620819 0.486156 -0.255433 0.352703 0.971996 -0.244620 0.201976 -0.356293 -0.509282 0.802576 0.478614 -0.897473 -0.453615 -0.040898 0.091097 0.997100 0.556992 0.335208 -0.109766 0.482361 0.923010 0.186141 -0.270330 0.337337 0.958226 -0.723070 0.533261 0.851863 0.743991 0.335753 0.704598 -0.876828 -0.178090 -0.550835 0.475875 -0.206095 0.204545 -0.322149 0.437612 0.695263 -0.519573 -0.083774 0.797790 0.026812 0.875328 -0.111113 0.023913 0.432320 -0.775905 0.914147 -0.085319 -0.852895 0.100287 0.644351 0.484442 0.058514 0.921282 0.017704 -0.089623 0.665273 -0.646543 -0.385026 0.788445 0.175367 0.064139 0.264320 0.969272 -0.731316 0.942171 0.406884 0.963947 -0.577402 -0.676890 0.761737 0.449410 -0.801562 -0.349376 -0.526677 0.630758 -0.125281 -0.612531 -0.454561 0.021825 0.487757 -0.810209 -0.493733 -0.453730 -0.888928 0.523970 0.456647 0.776345 0.877428 -0.928379 0.564790 0.052794 0.135760 -0.170890 0.022066 0.404444 -0.228719 -0.571050 0.368391 0.193879 -0.247940 0.130128 -0.356711 -0.049502 0.780752 0.116611 -0.418744 -0.344529 0.504080 0.126695 0.677295 -0.008163 0.316486 -0.816438 0.538107 0.427558 0.707533 -0.005246 0.203903 0.584960 0.066376 -0.231306 -0.362246 -0.797864 0.597804 0.659821 0.606580 -0.630915 -0.911229 -0.025030 0.562964 -0.159169 -0.894902 -0.793747 0.791329 0.885850 0.322864 -0.627415 -0.458680 -0.173056 0.499280 -0.781384 0.818781 -0.184234 -0.597822 0.356888 -0.756676 -0.890289 -0.648358 0.447227 0.694671 0.418017 -0.784079 -0.667574 0.620153 0.813725 0.992246 0.226733 -0.817190 -0.918983 -0.798297 0.745774 -0.078152 -0.693199 0.952027 -0.286823 -0.807349 0.274891 0.085762 -0.266029 -0.898165 -0.414959 -0.047413 0.920616 0.400807 0.354765 0.277503 0.644131 0.464476 0.629145 0.091358 0.159147 0.047163 0.307279 0.491573 -0.332684 0.121004 0.483819 0.894049 0.303814 0.564837 -0.904248 0.049589 -0.513315 -0.597447 0.001616 0.199862 -0.404796 -0.723493 -0.714376 0.329175 -0.621658 -0.129335 -0.718238 -0.701043 -0.728528 0.636528 0.576461 0.915603 0.101004 0.205606 0.006960 -0.739849 -0.747231 -0.685761 0.751724 -0.079915 0.435243 0.235543 -0.185866 -0.260942 -0.199620 -0.090114 0.788647 0.287065 0.312439 -0.209738 -0.513073 0.907643 0.066769 -0.227449 0.236818 0.445111 0.643216 0.518581 0.744068 0.914688 0.155108 0.320529 0.830290 -0.743888 -0.473865 -0.162749 -0.483737 -0.221095 0.151490 -0.732013 0.698990 -0.413266 0.503530 -0.486876 0.325791 -0.696090 0.423010 0.114438 0.590975 -0.264551 0.904700 -0.922098 -0.356908 -0.028531 -0.149547 0.879910 -0.583420 -0.506331 0.398491 -0.839352 -0.591644 -0.446401 0.481177 -0.761353 -0.190289 -0.992687 0.075897 0.325974 -0.213783 -0.772612 0.593960 -0.514793 -0.185879 0.097491 -0.001669 -0.860087 0.401401 -0.578659 0.254351 -0.007624 0.156790 0.159051 0.070278 0.799882 -0.869480 0.920730 0.679792 -0.452899 -0.585601 0.078282 -0.292251 -0.177245 0.631881 -0.811074 0.061402 -0.558409 -0.803761 -0.862700 0.767565 -0.017543 -0.635313 0.361526 0.467664 0.178808 -0.540984 -0.534005 0.318721 0.860417 -0.112664 -0.426928 -0.147208 -0.955874 0.732123 0.923070 0.844008 0.862643 0.843800 0.523799 -0.590257 -0.741801 -0.397919 0.117492 0.080955 -0.766038 0.306419 -0.857643 -0.324446 0.502658 -0.720344 -0.556881 -0.514885 -0.355657 0.804644 0.952779 0.823152 -0.736340 -0.581226 0.141873 -0.875923 0.306110 0.714944 -0.023131 0.350236 0.447067 -0.100061 0.194244 0.309710 -0.256261 -0.281957 0.719454 0.001939 0.320125 -0.163054 -0.917107 0.554087 -0.856635 -0.774750 -0.770360 0.646023 -0.495094 -0.327241 -0.868863 0.149249 -0.522597 -0.916084 -0.027599 -0.258936 -0.497310 -0.885726 -0.134859 0.808800 0.829219 0.842010 0.159037 0.276286 -0.258051 -0.646719 -0.414004 0.485689 0.071324 -0.694551 -0.512373 -0.608552 0.142395 -0.429479 0.945535 0.285760 -0.204229 -0.824824 -0.068217 0.300677 -0.152065 0.062920 -0.550074 0.325338 0.146837 0.422327 -0.933598 0.649527 0.536601 -0.068458 0.458327 0.365820 -0.226448 -0.382636 -0.357894 0.515502 -0.029356 0.228101 0.001191 -0.958032 0.533551 0.488818 -0.566584 -0.324054 -0.940662 -0.621049 0.961706 -0.144891 -0.445873 -0.106511 -0.844214 0.402062 0.956410 -0.394288 -0.272600 0.103246 -0.971961 -0.206198 -0.247227 0.564641 0.725344 -0.788900 -0.069539 -0.501104 -0.171536 0.572566 -0.985602 0.799108 -0.199332 0.015589 0.841076 -0.665782 -0.495593 -0.725508 0.010165 -0.436255 -0.346556 -0.028129 0.418854 0.207571 0.865360 0.574640 -0.390367 0.821770 -0.819648 0.337033 -0.074984 -0.791609 -0.869165 0.677789 0.773032 0.856179 0.888889 -0.296508 -0.644925 -0.282647 -0.723941 -0.630527 -0.483539 0.076726 0.385062 -0.642462 0.410945 0.889469 -0.367970 -0.578891 -0.546786 0.285474 0.392980 0.872068 -0.506955 0.258340 0.446708 0.102678 0.080110 0.627060 -0.560289 -0.994874 0.835451 -0.429455 0.682915 0.608482 -0.573276 0.571805 -0.688025 -0.218201 -0.710842 -0.411967 0.151272 -0.194381 0.664760 -0.463666 0.163157 0.075705 -0.574197 0.795187 0.496814 -0.120983 0.080661 -0.110206 -0.248915 0.573706 -0.851866 -0.802207 -0.323616 0.228244 0.824852 0.116095 0.233370 0.660303 0.686640 -0.083715 0.268785 -0.886636 -0.511911 0.580760 -0.104837 -0.222753 -0.831207 -0.953565 0.582867 0.833553 -0.417231 -0.253977 -0.090742 0.008572 -0.458790 -0.593928 0.887589 0.621871 0.295865 -0.361326 0.195577 0.443999 -0.163534 0.871960 -0.327757 -0.338681 -0.011945 0.905613 -0.678379 -0.325305 -0.178102 0.590407 -0.211942 0.309987 0.171167 0.683221 -0.912766 0.339960 0.729656 0.670101 0.173513 -0.687575 -0.583876 -0.917229 0.320997 -0.042666 -0.511157 0.208586 -0.420795 0.784708 0.847259 0.774782 0.228707 -0.316274 0.646742 0.900950 0.345044 -0.365203 0.806563 0.666666 0.309492 -0.371540 0.257072 -0.902450 0.938448 -0.571761 0.780771 -0.974318 0.768199 0.510426 0.695783 -0.058288 0.822851 -0.888093 0.024483 0.143848 0.069241 0.513326 -0.647567 0.648447 0.298034 -0.800307 0.423229 -0.473259 -0.116582 0.069971 -0.572309 -0.771537 0.704768 -0.765746 0.895128 0.014259 -0.137285 0.152201 0.111809 -0.198838 0.580440 -0.107420 -0.173156 0.348639 -0.596994 -0.477373 -0.709649 -0.774143 -0.365466 0.314835 0.369705 0.703775 -0.171839 0.722138 0.352222 -0.873805 0.921831 -0.224550 -0.347064 -0.194751 0.845421 0.080627 0.033712 0.550189 0.314881 -0.071160 -0.435552 -0.822404 -0.918959 0.676257 -0.021242 0.661481 -0.431163 0.805602 0.010120 -0.028156 -0.671771 0.300471 0.197701 -0.037238 -0.384694 -0.432594 -0.333462 0.443466 -0.710455 -0.981240 0.569661 -0.788624 -0.205790 -0.777404 0.016625 -0.360369 0.303223 -0.949664 -0.810180 -0.381896 -0.020824 -0.245732 -0.204300 0.060217 -0.569474 0.774457 -0.278302 -0.000637 0.580059 0.731818 0.971207 0.908288 0.032289 0.168908 -0.128950 0.647594 0.736315 0.537588 0.091060 -0.974140 0.556348 -0.339279 -0.762765 -0.649442 -0.116683 0.253860 -0.009811 -0.813460 0.304196 0.180010 -0.195355 -0.716627 0.934278 0.600344 0.343590 -0.635196 0.374802 -0.934712 0.364168 -0.045139 0.797106 0.335375 -0.136852 -0.170606 -0.495717 0.734198 -0.523012 -0.759402 0.271786 0.568048 -0.733542 -0.171866 -0.771231 -0.496307 0.178692 0.112087 0.757553 -0.831118 0.298627 0.061749 0.348891 -0.896729 0.345122 0.283170 0.703616 -0.311288 0.647974 0.078417 -0.246000 0.012142 -0.966722 -0.448895 -0.652484 -0.103574 0.380500 -0.148200 -0.369375 0.857488 0.092398 0.902411 0.425536 0.358855 -0.269455 0.654306 0.862548 0.909237 -0.233608 0.620101 -0.921881 -0.934981 -0.318150 0.427010 -0.831709 -0.973028 -0.289820 0.871906 -0.284316 -0.641846 -0.049676 0.469684 0.370296 -0.016399 -0.979211 0.717812 0.880028 0.401289 -0.430388 -0.489348 0.258777 0.662009 -0.586937 -0.315687 0.020865 0.143608 -0.661381 -0.116587 0.052846 0.105011 -0.496486 0.130965 0.170031 0.185364 -0.442025 0.338322 0.212336 0.268155 0.210228 0.928020 0.626310 -0.839448 0.397704 -0.003395 0.144153 0.418493 -0.285582 0.024181 -0.180218 0.284030 0.534833 -0.921441 -0.053961 0.947896 -0.237128 0.966904 0.091504 0.101491 -0.149683 -0.855650 -0.793497 0.353830 0.275314 0.376534 -0.460805 0.833289 -0.285145 0.751531 0.101445 0.925083 0.679551 -0.272246 -0.914365 0.077255 0.724360 0.229788 -0.504252 -0.561223 -0.746032 0.315531 0.722807 0.788801 0.394090 -0.331154 0.736697 -0.843038 -0.364251 -0.171799 0.258454 0.486066 -0.027449 0.464957 -0.160104 -0.752135 -0.158510 0.379091 -0.918845 0.556345 0.130622 0.182599 0.481428 -0.189827 0.910354 0.567063 0.887428 0.634713 -0.203149 -0.616823 -0.926509 0.050819 0.698707 0.796298 -0.160380 0.092797 -0.534856 -0.423683 0.249759 0.100893 0.404519 -0.491787 -0.413041 -0.622930 0.973170 0.426856 -0.375065 -0.185340 -0.194053 -0.293910 -0.628995 0.936569 0.888690 0.852433 -0.253258 0.799043 0.419496 -0.365830 0.433757 -0.783653 0.017347 0.507248 0.267165 -0.283946 0.303546 -0.893214 0.808851 0.768689 -0.316897 0.058610 -0.130417 -0.912378 0.566823 0.456542 -0.535308 0.539993 -0.116602 0.089627 -0.645347 0.689344 0.795717 -0.274342 0.625913 0.684407 -0.421909 -0.627345 0.483450 0.997587 0.006825 -0.082793 -0.786067 -0.975828 -0.575545 0.481099 -0.259774 0.728000 0.587885 -0.450923 0.496690 -0.729012 0.607687 -0.633728 -0.641391 0.174511 0.822814 -0.176699 -0.285496 -0.293788 0.912928 0.069157 -0.604444 0.708645 0.794814 -0.978531 0.393051 -0.627095 -0.605875 -0.123498 -0.629508 0.400950 0.793708 -0.415574 0.425122 -0.781837 -0.934475 -0.834652 0.946163 0.653409 -0.285574 0.442853 0.924397 -0.677887 0.809125 -0.716994 0.496624 0.631940 0.106307 -0.788872 -0.661849 0.019235 0.280284 -0.266293 -0.272121 0.075099 -0.244824 -0.879069 0.448004 0.149301 -0.002568 0.818496 -0.449749 -0.208859 -0.597078 0.975373 0.009304 -0.531554 -0.859279 -0.044533 -0.878144 -0.144853 -0.601680 -0.953748 0.177260 -0.792554 -0.670741 -0.326116 0.839385 0.435566 -0.114988 -0.822464 -0.545200 -0.834704 -0.088756 0.182680 0.240394 0.666420 0.303611 -0.311602 -0.184279 -0.698957 -0.493106 0.365972 0.092184 -0.090184 0.341345 -0.898512 0.378262 0.482066 0.056955 0.500118 -0.662787 0.455276 0.546371 0.514473 0.662722 0.875629 -0.811643 0.502107 0.311195 0.073369 0.679643 0.765995 0.238665 -0.409113 -0.051326 -0.520941 -0.742693 -0.747715 0.167457 0.073028 -0.446672 0.674352 -0.561000 0.645512 -0.415832 0.780345 0.747000 0.962430 0.262412 -0.196045 0.462548 0.599625 -0.740770 0.008918 0.114098 0.921952 -0.115453 0.302456 0.424059 -0.804258 -0.624175 0.103702 0.961737 0.614490 0.694589 -0.089589 -0.906451 0.951897 0.162696 0.261006 0.024925 0.716024 -0.064642 0.463925 0.361536 0.519525 0.244270 0.108536 0.481955 -0.493318 0.912490 -0.055497 -0.893693 -0.828279 0.953421 0.220405 -0.906327 -0.162031 -0.477139 0.517732 0.033711 -0.101315 -0.378566 -0.004552 -0.486825 -0.683976 0.905859 -0.393276 -0.732080 0.068556 0.867730 0.292845 -0.215420 -0.196912 -0.243230 -0.853884 -0.677387 -0.998960 0.254652 0.804568 -0.492278 0.167142 -0.250929 -0.385972 0.338863 -0.297507 0.834433 0.432536 0.540462 -0.642706 -0.049732 -0.425827 0.255979 0.571702 0.569621 0.769154 0.887726 0.475480 -0.624122 -0.844354 -0.455964 -0.756392 0.448491 0.328616 0.046696 -0.794739 0.474732 0.369309 -0.793699 -0.270617 0.173877 -0.285977 0.896525 0.922948 0.328052 0.235388 -0.374559 0.162485 -0.332076 -0.834097 0.519779 0.618192 -0.259925 -0.224242 0.189893 -0.690304 -0.455088 0.077619 0.785176 -0.079210 0.233265 -0.670789 0.164398 -0.318244 0.657827 -0.788906 -0.112983 0.132558 0.580402 0.093319 0.861941 -0.245721 0.807342 0.758466 -0.322773 0.135393 -0.006146 0.302668 -0.702122 0.661778 0.468571 0.817657 0.279970 -0.791354 -0.406585 -0.530137 -0.481658 0.138327 0.547482 -0.696483 -0.940883 -0.219253 -0.367272 0.223515 0.462503 -0.709445 0.434609 -0.650479 0.423113 0.015011 0.442839 0.285054 0.769290 0.250181 0.043520 -0.553483 -0.614425 -0.962625 0.749185 -0.316547 0.699153 0.217756 -0.498890 -0.020878 0.426402 0.094524 0.448985 0.944743 -0.767149 -0.003532 -0.751740 -0.708032 0.777215 -0.119012 0.515483 0.239719 0.171543 -0.049908 0.589239 -0.405344 0.965103 0.032079 0.879710 0.734393 -0.717740 -0.076769 -0.819090 -0.332165 -0.039395 0.930095 0.351288 -0.340242 0.147851 0.852397 0.638880 -0.425748 -0.053079 0.087866 -0.481005 0.179772 -0.915666 -0.232745 0.471741 0.861549 0.648244 -0.012776 0.101267 -0.180213 0.937316 -0.309494 0.414443 0.902419 0.722585 0.294153 0.636812 -0.995155 -0.782617 0.817721 -0.327320 0.177989 0.747816 -0.976032 0.837747 -0.104333 0.876365 0.476627 0.469919 -0.176714 -0.435507 0.988914 -0.996942 -0.351174 -0.243831 0.474799 -0.489625 -0.595587 -0.537977 0.611642 0.224199 -0.600661 -0.697851 -0.361358 -0.698242 -0.975266 0.932795 0.938569 -0.970421 -0.849822 0.756291 -0.297741 0.328167 0.504107 -0.273773 0.165913 -0.600227 -0.397408 -0.357460 0.869692 0.425878 0.207033 0.858606 0.428936 0.855860 -0.385224 -0.096265 -0.633765 0.019188 0.365758 0.977877 -0.756612 0.765097 -0.719975 -0.117970 -0.933145 -0.695241 -0.185175 -0.994576 -0.665662 -0.034997 0.761715 0.036597 -0.706830 0.265821 0.762824 0.459083 0.665595 -0.634584 -0.898376 0.535287 0.791294 0.308657 0.393893 0.220230 0.164517 -0.991331 -0.876035 0.530751 0.027857 0.489723 0.508628 0.271245 0.254820 0.788654 -0.846725 0.321675 -0.906587 -0.031900 0.327099 -0.572249 0.933103 0.088813 0.464348 -0.773727 -0.645365 0.227173 0.685357 -0.979771 0.592589 0.786980 0.555517 0.383882 0.095638 -0.050590 -0.395888 -0.739846 -0.041921 -0.271923 0.790906 0.985937 -0.782200 0.299534 0.257182 0.472621 0.088188 0.410457 -0.205704 0.181600 -0.621443 -0.878606 0.609351 -0.688340 0.210208 0.073700 -0.462066 0.564843 -0.699127 -0.776710 0.585072 0.893461 -0.989729 0.140588 0.277344 0.105908 -0.910002 0.881456 0.366062 0.048077 -0.390467 0.156968 0.034014 -0.172667 -0.543498 -0.708804 -0.700046 0.544690 0.701653 0.094249 -0.273710 -0.919790 0.215644 -0.664358 -0.608130 -0.574148 0.409341 -0.070196 0.990694 0.710214 0.153094 0.575766 0.603675 0.163365 -0.283645 -0.118981 -0.730727 -0.193647 -0.237526 0.635335 0.854430 0.372007 -0.207697 -0.111556 -0.800660 0.248806 0.179640 -0.500706 -0.206504 -0.118707 0.593544 0.519786 -0.038497 -0.190812 0.855427 0.353374 0.235039 0.264769 -0.716822 0.225733 -0.025017 0.436272 -0.198500 -0.421342 -0.400363 0.517854 0.459677 -0.131090 -0.675793 -0.777849 -0.495755 -0.821362 0.594159 0.296549 0.067082 0.793499 -0.454646 -0.753278 -0.707207 0.338850 0.128016 0.886337 -0.141365 -0.910481 -0.304475 -0.285937 0.442892 0.930564 0.978832 0.726070 0.156297 -0.046185 0.162342 0.957797 0.532473 0.761979 0.475651 -0.007850 -0.369111 0.799858 0.214301 0.135134 0.978496 -0.191541 -0.568318 0.045578 -0.398041 -0.022963 0.292300 -0.105248 -0.684114 -0.579684 -0.218911 0.174522 -0.490165 0.476614 0.888585 0.952727 0.407177 0.867416 0.678797 -0.436525 -0.178769 -0.158860 -0.478728 -0.646296 -0.396881 0.996923 0.345853 0.234008 0.796781 -0.439846 -0.630858 0.775277 0.368614 -0.199176 -0.179145 0.970572 0.777861 -0.886845 -0.134676 -0.906253 -0.466529 0.646413 0.268269 0.043306 0.123026 0.156854 -0.003967 -0.469796 0.024270 -0.325169 0.093678 0.845501 0.515970 0.614950 -0.800795 -0.880911 0.611873 0.545058 0.353097 0.408654 -0.894788 0.722239 0.183930 0.473826 -0.476937 -0.995215 0.444398 -0.699076 -0.882060 -0.690278 -0.605329 -0.348589 0.956134 0.662940 0.694717 0.079161 -0.180206 -0.309250 0.609365 0.844064 0.365581 -0.296957 0.689565 -0.118449 -0.682007 0.888770 0.000640 0.929866 0.433828 -0.646263 0.338519 0.539040 -0.924024 -0.477551 0.012865 -0.400961 -0.472766 -0.542737 -0.100037 -0.354825 -0.233016 0.294634 0.296586 -0.276881 -0.042425 -0.008697 0.802279 0.777369 0.682053 0.411644 0.621432 0.047634 -0.885313 0.310997 0.929184 -0.567320 0.199767 -0.070175 -0.637454 -0.366405 0.283562 0.701065 -0.827366 0.359538 -0.776486 0.185499 0.958578 -0.249251 0.642762 -0.141459 0.395923 -0.590254 -0.846825 -0.307491 0.132865 0.110750 0.683812 -0.064856 -0.111882 0.365865 -0.653212 -0.490449 -0.586501 -0.538525 0.820548 -0.657317 -0.105845 0.020315 0.272508 0.256701 0.653910 -0.443930 -0.042234 0.826544 0.915608 0.181280 0.012043 0.874186 0.932029 -0.345195 -0.267274 0.327952 0.064552 -0.114098 -0.979539 -0.802584 0.996652 0.704274 0.132560 -0.115230 0.070139 0.479348 0.394321 0.483637 0.940823 0.214869 0.826320 -0.165022 -0.764815 0.098828 -0.908321 0.889095 0.654898 0.049445 0.715639 0.570506 -0.769275 -0.272318 0.444691 -0.837247 0.382488 -0.822582 0.490705 -0.552961 0.063319 0.511167 -0.355544 0.059971 0.215440 0.777016 0.944741 -0.714421 0.256365 0.339062 0.769216 0.197188 -0.446069 0.595536 -0.967833 -0.210884 -0.305636 -0.876154 -0.321789 -0.650738 0.173290 -0.606150 0.919768 0.404015 0.121532 0.364460 0.566768 -0.495980 0.541877 0.057473 -0.048941 -0.394803 -0.431360 0.595515 0.665168 0.784081 0.372531 0.609909 -0.930340 -0.371104 -0.051029 0.838876 0.826084 0.502902 0.434412 0.858250 -0.707982 -0.871223 0.982096 -0.029771 -0.521961 0.155386 0.364078 -0.602193 -0.440599 -0.514390 0.762267 -0.873831 -0.010370 0.304144 0.183642 0.940689 0.909341 0.752283 0.536204 0.574509 0.536363 -0.091265 0.184418 0.606023 0.537630 -0.866612 0.444899 0.363714 0.636290 -0.120689 0.221964 0.928308 0.008087 0.204060 -0.101463 0.486126 -0.640554 -0.737385 0.883934 -0.081153 -0.251774 0.646201 0.045016 0.737855 -0.049655 -0.771341 0.678544 -0.140314 0.980942 0.214748 -0.565805 0.517305 -0.876517 0.618613 0.123328 0.661113 0.752001 -0.431773 0.024827 0.388292 0.447538 -0.753208 0.316600 -0.544375 0.450852 -0.784863 0.941751 0.810298 -0.522247 0.825685 -0.270854 0.225978 0.471886 0.774162 -0.036166 -0.577769 -0.997179 -0.357622 0.281917 0.983763 0.857127 0.716112 0.501068 0.980609 0.334725 -0.375604 0.641723 0.086727 0.192622 -0.333450 -0.524981 -0.359840 -0.086658 0.791619 0.095785 -0.635806 -0.993244 0.037536 -0.825508 -0.515491 -0.136779 -0.096362 0.710487 -0.664893 -0.322200 -0.325679 -0.242662 -0.319379 0.316700 -0.960745 -0.335616 0.173826 0.755368 -0.834549 0.154436 0.090093 -0.210153 -0.203842 -0.823180 0.982469 0.462708 -0.348162 -0.377371 -0.623950 -0.556543 0.718413 -0.259757 -0.549787 -0.244051 -0.085265 -0.065278 0.619171 0.818373 -0.354791 0.954278 -0.503827 0.319530 -0.288385 0.176794 -0.363770 -0.249129 0.841178 0.810056 -0.493762 -0.993371 -0.035509 0.596331 -0.203524 0.760649 0.773151 -0.221056 0.223357 -0.575010 0.401573 0.599407 -0.131553 0.119986 -0.660349 0.318660 0.875936 0.254386 -0.746619 0.495106 0.072759 -0.101410 0.449384 0.568933 -0.781880 -0.839001 -0.254273 -0.145650 -0.088130 -0.413095 -0.335594 0.418108 -0.406466 0.628897 0.014439 0.390009 0.389546 -0.212409 -0.831046 -0.387096 0.212580 0.570526 -0.787689 -0.918973 -0.309487 -0.448038 0.399686 -0.433552 0.806348 0.653068 -0.938446 -0.120893 -0.448342 0.510938 -0.551961 -0.230221 0.671937 0.193766 0.624129 -0.416193 0.780671 -0.711465 -0.998085 -0.625795 0.917432 0.016355 0.764214 0.306978 0.803945 0.933168 0.919882 0.016526 0.503695 -0.867807 0.097552 -0.805793 -0.315846 -0.502761 -0.239345 -0.509498 -0.849693 -0.177790 0.369609 -0.298035 -0.666852 0.817648 0.471744 -0.994915 0.011414 0.095873 -0.411108 -0.207915 0.384407 -0.409192 0.166291 0.301839 0.607162 -0.069495 -0.391183 0.411108 -0.136327 -0.471302 -0.572367 -0.632633 -0.339109 0.525186 -0.438425 0.345045 -0.977575 0.322230 0.835547 -0.827269 -0.855560 0.205155 -0.125304 -0.522413 0.022803 -0.653560 -0.517328 -0.965783 0.442313 0.071565 -0.173697 -0.173280 0.662372 0.992593 -0.871441 0.269535 -0.076902 -0.262625 -0.319358 0.786771 0.266074 0.108276 -0.845861 0.926964 -0.366539 -0.284287 0.272009 -0.344114 -0.962057 0.107556 -0.171383 -0.817617 -0.687289 0.703314 -0.340030 0.335514 -0.950246 0.142642 0.369732 0.492067 -0.785793 -0.803965 -0.681213 0.876580 -0.811372 -0.552654 0.146114 0.111726 0.184721 0.826757 -0.101502 -0.549205 -0.064967 0.052636 -0.622241 0.568494 0.768349 0.649769 -0.775620 0.806292 -0.242675 0.052997 0.988675 0.070036 -0.243689 -0.351355 -0.594450 -0.193935 0.791287 0.775282 -0.701868 -0.994506 0.971317 -0.383081 0.882074 -0.840055 0.064265 0.028188 0.271672 -0.751014 -0.145055 -0.829831 -0.300219 0.789977 0.222805 0.077540 0.358471 -0.008845 -0.272691 0.582851 -0.202553 0.484634 -0.364151 -0.213878 -0.445331 0.392160 0.434767 -0.039780 -0.801775 0.226054 -0.264498 -0.503643 0.231549 -0.293181 0.113275 0.113623 -0.133236 -0.822460 -0.858189 -0.861565 -0.573474 -0.003244 -0.691395 0.126307 -0.213267 0.531410 -0.796153 -0.854795 -0.477435 -0.068844 0.728056 0.320012 -0.584211 -0.636095 -0.893866 -0.029541 0.756065 0.540901 0.930679 0.954290 -0.233044 -0.333819 -0.549354 0.998504 0.373000 0.563922 0.112127 -0.760236 0.741462 0.253938 -0.621801 -0.832013 -0.749307 -0.313196 0.294294 0.037426 -0.781786 0.498141 0.182631 -0.259222 -0.570703 -0.089313 -0.939210 -0.154914 0.274592 -0.833075 0.815545 0.030657 0.707826 0.746224 -0.015054 -0.525218 -0.587596 0.435593 -0.526714 0.785404 -0.000486 0.585413 -0.974833 -0.259024 -0.160649 -0.596634 -0.091037 0.090044 0.090170 -0.796743 -0.872530 0.308383 0.701398 0.310101 -0.950838 -0.869305 -0.779212 -0.890048 -0.024219 0.495380 -0.723123 -0.208674 -0.473963 0.984703 -0.462451 0.510983 -0.540516 -0.050047 -0.053424 -0.067230 -0.264643 0.946090 -0.481817 -0.239476 -0.312934 0.357534 0.163890 0.596029 -0.552422 -0.745940 0.799286 -0.424952 0.562444 0.500684 0.885149 0.611606 0.631379 -0.894063 0.721558 -0.392840 0.601318 0.998435 0.398486 -0.872645 0.983137 0.936035 0.638338 -0.557378 -0.114012 -0.415086 0.375392 0.621346 -0.468996 0.893575 -0.618130 0.218070 0.251109 0.545760 -0.185901 0.698687 0.799820 -0.386616 -0.726265 0.362264 -0.885932 -0.841116 -0.026130 0.745447 -0.735179 -0.304572 -0.647394 0.866139 -0.306138 0.751092 0.993494 -0.323000 0.687127 0.631832 0.119622 -0.426885 -0.783254 -0.504986 -0.805539 -0.252250 -0.611411 -0.423669 0.965820 0.639698 -0.877909 -0.220081 0.338385 0.921911 0.393303 0.612119 0.284175 0.507371 0.771003 -0.741955 0.252818 -0.964176 -0.046527 0.605424 0.901963 0.647335 0.356516 0.895457 -0.675665 0.043643 0.527289 0.443957 0.616759 0.744035 0.938970 0.811219 -0.508215 -0.672441 -0.612450 -0.542394 0.967257 -0.490359 0.237525 0.305642 -0.568448 -0.369172 -0.082239 0.715727 -0.861801 -0.311236 0.973773 0.391017 -0.275412 -0.072754 -0.003559 -0.373450 -0.425419 -0.647043 -0.477993 -0.101084 0.396601 -0.950704 -0.657127 0.013359 0.793331 -0.718156 -0.175422 -0.714884 -0.390597 0.212128 -0.257278 -0.423340 0.721769 0.980246 0.882302 -0.846679 -0.388926 -0.199937 0.869048 -0.250727 0.488826 0.842821 -0.859710 -0.786586 -0.229934 0.136731 -0.160035 0.344647 0.489689 0.361972 -0.756436 -0.113711 0.411267 -0.413563 0.899649 0.204598 -0.131719 -0.275773 0.489714 0.477683 0.936355 -0.767564 -0.945657 0.658124 -0.787318 0.936645 0.811445 -0.176244 -0.263292 0.680493 0.573029 -0.774466 0.523314 0.713319 -0.561052 -0.706620 -0.149949 0.278913 0.638027 -0.660261 -0.359115 0.881591 0.226029 -0.947848 -0.531972 0.125677 0.256750 0.336309 0.849904 -0.253536 -0.186008 0.786260 -0.021100 -0.131665 0.444384 0.191582 -0.195020 0.255829 -0.984661 0.541688 -0.063678 0.588368 0.767222 -0.540364 0.301687 -0.793830 -0.246984 -0.848262 0.485083 -0.608957 -0.508523 -0.874032 -0.727366 0.717506 -0.821880 -0.259338 -0.156817 0.434870 -0.923029 -0.306913 -0.818666 -0.109037 -0.520653 0.160235 0.759299 0.923730 -0.648183 -0.435721 0.179559 -0.632845 -0.894033 -0.884118 0.955523 0.873189 -0.424483 0.257211 -0.920640 0.328533 0.408948 0.564443 0.719576 0.900425 0.690411 0.992210 0.617931 0.868531 -0.267128 -0.538886 0.303401 -0.190157 0.154201 0.484736 0.700806 0.633547 -0.355030 0.460105 0.557278 -0.003213 -0.975616 -0.263163 0.363942 -0.869649 -0.147281 0.319466 
-0.996460 0.428236 -0.423324 -0.917100 -0.243231 0.985625 0.647343 -0.523656 0.886050 0.337754 -0.531446 0.503981 0.206285 0.201426 0.965095 -0.490314 -0.988730 0.119296 0.994422 0.712076 -0.247157 -0.360608 0.172181 -0.689879 0.636180 0.196564 0.046958 0.000122 0.326915 0.899676 -0.680412 0.330455 0.327912 -0.103736 0.413354 -0.915319 -0.118112 0.060697 -0.438975 -0.232062 -0.601549 0.029579 -0.728081 0.604736 -0.768994 -0.762986 -0.885578 -0.757725 0.356310 -0.891155 0.954351 -0.890847 -0.251763 0.126532 -0.580727 -0.615583 -0.676904 0.466231 0.384538 0.650011 0.365908 0.704126 -0.019534 -0.306180 -0.399610 -0.606180 -0.221499 0.482278 0.454517 0.339526 -0.749783 0.852968 -0.630895 -0.477864 0.457704 -0.399889 -0.240850 0.572127 -0.157613 -0.884540 0.680971 -0.203262 -0.775387 -0.570792 0.923270 -0.356113 -0.186375 -0.753634 -0.889882 -0.801837 0.896377 0.476026 0.902289 -0.123157 -0.830154 -0.497321 0.270663 -0.051654 0.984957 -0.274820 -0.712128 -0.764826 -0.421852 -0.343022 -0.242690 -0.964147 0.257089 0.516460 0.607979 -0.900524 0.631921 0.288951 -0.103786 0.856534 0.718159 -0.180516 -0.499579 -0.468216 0.065850 -0.389461 -0.270052 -0.037773 -0.913435 -0.367763 0.839069 -0.743590 0.134916 0.109732 0.204757 0.119873 0.834912 0.492629 0.355046 -0.586940 -0.850393 -0.887644 -0.551087 0.406696 0.628816 -0.943108 0.506172 0.260737 0.345843 -0.597614 0.117271 0.064002 0.221870 0.617691 0.595787 -0.712280 -0.771770 -0.674266 0.249947 -0.685205 -0.042029 0.089016 -0.428795 -0.907113 -0.801252 0.775962 0.212759 -0.966340 0.268592 -0.432194 -0.553279 0.418199 -0.319838 -0.104367 -0.175105 -0.691022 -0.047474 -0.668933 0.569715 -0.701631 -0.266547 -0.313014 0.362371 0.955323 -0.695323 -0.041842 -0.756957 -0.467093 0.283892 0.492989 -0.152298 -0.758138 -0.417995 0.418908 -0.665251 -0.219247 0.194870 0.547508 -0.185586 -0.536538 -0.884686 0.261134 0.881660 -0.204524 -0.843232 -0.293444 0.104454 0.109293 0.037623 -0.325831 0.407662 0.771076 0.361154 -0.229967 0.726399 0.665831 0.728191 0.969441 -0.801262 0.012082 0.462431 0.046441 0.253945 -0.955564 -0.534652 0.588694 -0.174811 0.660218 0.136202 0.639603 -0.876320 0.251516 -0.099263 -0.994660 -0.953008 0.057505 -0.288104 0.151446 -0.833202 0.749518 0.825614 0.574460 0.520594 0.186769 -0.655506 0.246993 -0.147400 -0.927316 0.216435 0.051338 0.084767 -0.321135 -0.902221 -0.661288 -0.276699 -0.436873 0.927405 0.548490 -0.776655 0.063607 0.188092 -0.652975 -0.684877 -0.911171 -0.647635 -0.637885 0.146334 0.064260 0.513561 0.313132 -0.186221 0.339175 -0.112407 -0.665627 -0.474056 0.232086 0.581366 0.378543 0.304771 -0.202199 -0.570119 -0.610462 0.476666 -0.472340 -0.271751 -0.800034 0.090787 -0.344345 0.748456 0.314132 0.719262 -0.063451 0.661156 -0.965615 0.025378 -0.986479 -0.603500 -0.828288 0.077781 0.910061 0.484845 0.891560 0.249236 -0.627563 -0.774067 0.775180 0.604524 0.807299 0.153723 -0.090706 -0.394901 0.583604 0.298832 -0.918235 -0.888736 -0.972919 -0.718269 0.202051 -0.317264 -0.969813 -0.483818 -0.598002 -0.033264 -0.822662 -0.563617 0.992114 -0.809141 -0.167117 -0.836174 0.268640 -0.257056 0.648671 0.160200 0.992180 -0.978892 0.386133 0.767360 0.625632 0.193431 -0.078918 -0.465074 0.798531 -0.495314 0.833758 0.880295 -0.384050 0.860839 -0.837974 0.818001 -0.456426 -0.807786 -0.665817 -0.054428 0.158950 -0.488478 0.381955 0.151063 -0.297619 -0.785162 0.314890 0.971021 -0.042218 -0.036440 0.131221 -0.050038 -0.015332 -0.482646 -0.282678 -0.389700 0.710786 0.638404 0.145226 0.509316 -0.856910 -0.021016 0.389612 -0.240959 -0.160177 0.551638 -0.422959 0.383397 0.743852 -0.088775 -0.671031 -0.097199 0.422746 0.710924 -0.946135 -0.874873 0.925762 0.368754 -0.903852 -0.116456 -0.667685 0.227370 0.833506 0.316983 0.744724 -0.449172 0.927283 0.455510 -0.810768 0.072509 -0.035174 -0.667678 -0.948507 -0.645562 0.091363 -0.108684 0.906076 0.668404 -0.725286 0.649928 -0.420371 -0.396317 -0.447271 -0.997625 -0.685393 -0.393406 -0.872498 -0.759631 0.975348 -0.776350 0.123913 -0.692338 0.451020 -0.042581 0.624645 0.195744 0.508247 0.551929 -0.348746 0.697479 -0.375562 0.616080 -0.970199 -0.324069 0.970518 0.121163 0.567248 0.876594 -0.210433 0.841961 0.526521 0.369196 -0.554356 -0.920750 0.371571 -0.239749 -0.314156 0.499073 0.000620 -0.338809 0.722723 -0.875467 -0.031146 0.173743 0.081952 -0.406501 -0.630513 -0.409801 -0.854572 0.020741 -0.712323 -0.230135 -0.363179 -0.682522 0.445797 -0.392661 0.438641 0.013045 -0.516067 -0.771791 -0.144994 -0.989546 0.597405 0.300650 -0.910296 -0.031024 -0.939098 -0.224452 -0.531952 0.061522 0.436739 -0.809229 0.186055 -0.594407 0.364514 -0.731993 -0.000908 0.734001 -0.141794 0.144519 -0.245258 0.145883 0.914385 0.391564 0.463361 0.360181 0.998903 -0.097997 -0.626774 -0.517165 0.130212 0.228232 -0.506711 -0.272383 -0.471118 -0.417007 0.696592 -0.410216 0.358541 -0.835359 0.651306 -0.204720 -0.644588 -0.162639 0.200872 0.719926 0.105368 -0.800036 0.453927 0.963574 0.344483 -0.791331 0.109457 0.258868 0.600233 -0.427181 -0.380951 0.599136 0.474821 -0.007725 -0.918029 -0.394967 -0.779493 -0.424739 0.332650 -0.250611 0.158254 0.029242 0.339174 -0.483205 0.193882 -0.009520 0.312074 0.549294 0.827841 -0.487053 0.269220 -0.066791 -0.287089 -0.276853 -0.103217 -0.942606 -0.068183 -0.993760 0.316262 -0.467950 -0.420942 0.935311 -0.868814 -0.946120 -0.072414 -0.786843 -0.341087 0.148094 -0.211583 0.991562 0.897483 0.946671 0.020804 0.236657 -0.536534 -0.785313 -0.772864 0.775540 0.763981 -0.945023 -0.711513 0.033201 -0.011815 0.001398 0.756349 0.884968 0.058792 -0.311835 0.891208 -0.624947 0.220215 -0.529733 -0.689636 0.351401 -0.475853 0.237951 0.564558 0.183059 -0.613956 -0.647025 0.174622 -0.716473 -0.700353 -0.804574 0.520184 -0.236887 -0.589888 0.747320 -0.461347 -0.825907 0.802297 -0.172860 0.207295 -0.209518 0.828538 -0.036357 -0.324549 -0.112671 0.651808 -0.433341 0.262383 -0.127976 0.036926 0.572747 -0.776575 0.561072 -0.189302 0.787983 -0.255868 0.196742 -0.859042 0.918753 0.480270 -0.559395 -0.885821 0.000454 0.203718 -0.475709 -0.252226 0.742371 -0.301615 -0.449930 -0.430489 0.905679 0.340553 -0.601951 -0.130678 -0.983997 0.285378 -0.478869 -0.417338 -0.452239 0.393154 0.619587 -0.879492 0.616579 0.180660 -0.068794 0.404562 0.924791 -0.872051 0.545520 0.843544 0.608218 0.986125 0.957723 -0.391328 0.189843 -0.517986 0.356445 -0.067786 0.180399 0.906516 0.501725 0.086078 0.247068 0.899773 0.955400 0.263071 0.185152 -0.523469 0.845733 0.732913 0.869685 0.465320 0.853421 0.486264 -0.354020 -0.215373 -0.109174 -0.429229 -0.087424 -0.563654 -0.585685 -0.479206 -0.577528 -0.627962 0.129466 0.612315 -0.145947 -0.514089 -0.455472 -0.965548 -0.607573 -0.953747 0.120530 0.639495 0.946027 0.075930 -0.097434 0.131178 0.552461 -0.251701 -0.135909 0.422146 -0.786380 -0.282488 -0.091589 -0.140400 0.502140 0.799237 0.430371 -0.585285 -0.764417 0.844686 -0.064490 -0.341945 -0.783275 -0.935024 -0.729630 0.070778 -0.449113 -0.185102 0.105230 -0.056686 -0.138849 -0.774240 -0.417191 -0.192822 0.301690 0.485375 0.938356 -0.145849 -0.766325 -0.197553 -0.723703 -0.552705 0.519959 0.184708 0.306895 0.022099 -0.016055 -0.262734 0.436814 0.219529 -0.418048 -0.627676 0.877584 -0.201323 -0.562701 -0.852047 0.869455 -0.011814 -0.037149 -0.025316 0.931500 0.824002 0.200444 -0.485691 -0.368820 -0.497867 0.999684 -0.430464 0.356284 -0.766641 0.371983 0.632582 -0.319346 -0.108057 -0.182710 0.987548 0.914041 0.801235 -0.275186 0.350856 0.020764 0.306766 0.723180 -0.101653 -0.894557 -0.839521 0.046301 0.974898 0.148665 -0.990848 -0.050418 0.080165 0.833154 -0.849975 0.594474 -0.535666 -0.347842 0.594158 0.033870 -0.991557 0.827517 -0.594147 0.641025 -0.491829 0.297796 -0.541685 -0.504281 0.211837 -0.740450 0.220533 -0.437307 0.280314 -0.472701 -0.714128 -0.821339 -0.367258 -0.553649 0.224962 -0.392360 0.595016 0.234113 0.557221 -0.324818 0.067267 0.707246 -0.730344 0.531602 -0.640595 0.863814 -0.434528 -0.632152 0.691331 -0.028675 -0.991128 -0.800498 -0.730879 -0.532813 -0.304779 0.480958 -0.273263 0.915754 -0.956349 -0.992949 -0.556946 -0.670476 -0.814288 0.075796 -0.224125 0.410673 0.683436 -0.629108 -0.355213 0.240657 0.046073 0.712054 -0.052097 0.315729 0.243655 0.307308 0.179543 0.809127 0.675156 -0.129126 -0.219548 0.684028 0.070376 0.049574 -0.848785 0.765597 -0.469468 -0.122048 0.681352 -0.425817 -0.114997 -0.875595 -0.096293 0.070715 0.200201 0.679582 -0.518612 -0.116363 -0.949526 0.126175 -0.875706 0.096547 -0.161771 0.072197 -0.587724 -0.918116 -0.620495 0.591819 0.891011 -0.945339 -0.537307 -0.328536 0.738689 0.533068 0.721037 0.889904 0.298666 -0.748431 -0.232143 -0.019983 -0.174248 0.652860 0.104423 0.729460 -0.276425 -0.695376 0.409042 0.204963 0.188261 0.459516 -0.668862 0.312555 -0.443937 0.169366 -0.615248 -0.031660 0.251250 -0.235743 -0.439842 0.142262 -0.181083 0.022851 0.813725 -0.442394 -0.444080 0.534762 -0.552490 0.854585 0.786332 0.215367 -0.165397 -0.387916 -0.131773 0.939025 -0.658456 0.591802 -0.756351 0.750585 -0.203235 0.431910 0.210101 0.127902 -0.255535 0.766165 -0.702731 0.129217 -0.265496 0.548519 0.893473 0.294663 -0.309219 -0.287610 -0.682486 -0.495494 0.269996 -0.126567 -0.960732 0.717507 -0.271981 0.825600 -0.067126 0.562621 -0.562316 0.801101 0.501647 -0.220773 0.392903 0.745296 -0.470187 -0.810332 0.177206 0.739914 0.317570 0.921671 0.506079 0.614839 0.050888 -0.759417 0.163358 -0.055639 0.535246 0.854138 0.656751 0.852760 -0.641356 -0.073252 -0.273807 -0.602088 -0.355745 0.454212 -0.776488 0.577128 0.016833 -0.338804 0.378229 -0.481520 0.440423 -0.228868 -0.736224 0.970236 -0.039200 0.440982 0.710151 -0.721630 0.362653 0.216230 0.893209 -0.586459 0.456813 0.056567 0.357902 -0.007941 -0.089294 0.014653 -0.155181 0.269350 0.941401 0.571012 0.667262 -0.414344 0.025225 0.890774 -0.837216 -0.957942 -0.448030 0.541014 -0.439462 0.992394 -0.687854 -0.175686 0.962630 0.272946 -0.734704 0.672780 0.551317 0.627949 -0.110990 0.444526 -0.958509 -0.654177 -0.498907 0.399393 0.337882 0.411799 -0.585954 -0.817299 -0.318851 -0.644553 0.753713 -0.651589 -0.058897 -0.221062 -0.760815 0.103887 -0.179004 -0.208844 -0.355099 0.381534 -0.216451 -0.042953 -0.794152 -0.253821 -0.770007 -0.528856 -0.581040 0.781310 -0.900906 0.307970 0.225836 -0.859416 0.653793 0.726929 0.539977 -0.008326 0.138729 0.954023 0.174375 0.819877 -0.690530 -0.071911 -0.831712 0.250573 0.707027 -0.592527 -0.645539 -0.471977 0.198629 -0.000639 0.909558 0.982178 0.956408 -0.884594 -0.271643 -0.813599 -0.413449 0.147317 0.967711 -0.314355 -0.544714 0.193547 -0.173771 -0.890921 -0.079523 -0.633794 0.100753 -0.940795 -0.679771 -0.724871 0.879082 -0.370300 0.203218 -0.952629 0.880273 -0.089755 -0.545156 -0.765266 0.438268 0.653473 0.234095 0.347826 0.635651 0.190503 0.463232 -0.635992 0.376904 -0.950217 0.511325 0.344615 -0.264572 0.966611 -0.461838 0.561657 -0.924310 0.458639 0.927863 0.176444 0.517844 -0.751907 0.451572 0.396926 -0.122208 -0.345210 0.444297 -0.241934 0.565035 0.899141 -0.007200 0.003303 0.552614 -0.773105 -0.648870 0.188265 0.417398 0.814362 0.552273 -0.205698 0.864145 0.063599 -0.861082 -0.400427 0.030210 -0.322920 -0.838770 0.105900 -0.864281 -0.910906 -0.717656 0.653563 -0.662814 0.733916 0.050489 0.214979 -0.611294 -0.505214 0.973044 0.953741 -0.606073 -0.034156 -0.042955 0.946541 0.192739 0.308174 0.134806 -0.389863 0.122537 -0.312921 0.404439 -0.013318 0.750677 0.543357 0.586255 -0.219113 -0.779563 0.747486 0.886788 -0.643844 0.836579 -0.830868 -0.990282 -0.826234 0.903048 0.060207 0.388744 -0.708246 0.554992 0.361789 -0.754505 0.948919 -0.672367 0.202540 0.895460 0.520372 -0.489285 0.030265 -0.869491 0.633251 0.717344 0.534948 -0.380067 0.468022 0.078305 -0.793811 -0.751091 0.298742 0.953675 -0.864303 0.654897 0.790254 -0.695172 0.664615 0.964020 -0.792124 -0.275178 0.352764 -0.500370 -0.720186 -0.285447 -0.254875 -0.771266 0.042185 0.947666 -0.875807 -0.437443 -0.541620 0.154458 -0.306935 -0.908368 -0.128198 -0.771987 -0.288435 -0.660176 0.306318 -0.082246 -0.411267 -0.394940 -0.128571 -0.275570 -0.740043 -0.338317 0.029258 0.924572 -0.374297 0.237134 -0.350606 0.978467 0.736763 -0.070792 -0.306980 -0.518111 0.157942 0.735205 -0.570446 0.282135 -0.702238 -0.112065 -0.563407 -0.009173 -0.020433 0.308396 0.218841 0.691132 0.648219 -0.474841 -0.391114 -0.763048 0.130218 0.480315 -0.038618 0.390175 -0.858001 0.990639 0.314747 -0.232298 0.227773 0.964141 -0.253831 -0.035464 -0.106651 0.439189 0.446425 -0.948709 0.174394 0.875980 0.333426 0.472156 -0.236085 0.770019 -0.537017 0.743481 0.078414 0.681824 0.434613 -0.273366 -0.793018 -0.956500 -0.036414 0.337201 0.523815 0.924968 -0.272625 0.665813 0.915607 -0.957878 -0.566485 0.143380 -0.993737 0.179684 -0.892083 -0.100388 -0.381127 0.554342 -0.049098 0.793266 0.430322 -0.715672 0.265422 -0.805764 -0.945653 0.728405 0.937717 0.132761 0.410229 0.372331 0.859395 0.617211 0.415830 -0.177019 -0.045588 -0.060355 -0.252051 0.681787 -0.394542 -0.336444 0.723910 0.038974 0.806937 0.730172 -0.781342 0.914853 -0.370216 -0.162470 0.469195 0.580686 -0.369203 -0.100483 0.865014 0.896219 0.093753 0.919361 0.624624 0.031470 0.052122 0.034853 -0.596199 -0.088483 -0.347936 0.819631 0.734498 0.606476 -0.240725 -0.517553 0.288263 0.364734 0.146003 0.012173 -0.596293 -0.047061 -0.257654 -0.377635 -0.132207 0.372130 0.459895 -0.663012 -0.047184 -0.909308 0.236505 -0.182170 0.986910 -0.669743 -0.262809 0.611534 0.361727 0.789313 -0.353613 0.765528 -0.299170 0.298451 0.585158 -0.564672 -0.095073 -0.655566 -0.082225 -0.806810 0.709168 -0.936222 0.205363 -0.887125 0.016718 0.947709 -0.264760 0.884510 0.319839 -0.804865 -0.778502 -0.727346 -0.714173 0.458003 0.090485 -0.727263 0.788260 0.827676 0.884271 0.149987 0.616989 -0.469342 -0.084485 -0.682180 0.829109 -0.499326 -0.246852 -0.265964 -0.154892 0.670923 -0.072774 -0.445724 0.734701 -0.867411 -0.332849 -0.248581 -0.919702 0.402391 -0.364071 0.400137 0.597526 -0.142572 0.672791 0.883353 -0.684570 -0.236724 -0.843909 -0.896310 -0.409048 -0.959638 0.253678 -0.792059 -0.428980 -0.830807 -0.474239 -0.599872 -0.330133 0.278909 0.134164 0.514975 -0.050168 -0.938610 -0.930750 -0.315466 -0.806021 -0.263599 0.435953 -0.725723 -0.861208 -0.928118 0.674414 0.736318 -0.070690 0.347205 0.619671 0.244740 -0.889519 0.775762 0.348431 -0.298567 0.816124 -0.397891 -0.090626 -0.612856 -0.228698 0.435135 -0.212728 0.441169 -0.285956 0.921436 -0.043857 0.663877 0.982826 0.025393 -0.651589 -0.823195 0.761794 0.784364 -0.548917 0.900586 0.856246 -0.874503 0.636904 -0.214444 0.472703 0.256575 -0.969704 0.583184 0.032337 0.378727 -0.715383 -0.151539 0.980835 0.193992 0.235605 -0.247863 -0.370873 -0.977123 -0.806694 0.343171 0.944314 0.149449 0.007048 0.927140 -0.825158 0.355459 -0.896055 0.936636 0.139822 -0.444972 0.837222 -0.003932 -0.319475 0.474125 0.781624 -0.846772 -0.269299 0.811920 0.736412 0.763038 0.190647 -0.978971 -0.388501 0.171482 0.215021 0.847104 0.923619 0.844148 0.869982 -0.883075 0.187319 0.814296 0.266374 -0.805633 0.741436 0.441216 0.549826 0.845381 0.377852 -0.310352 -0.599591 0.215073 0.685716 0.080934 -0.310801 0.467340 0.234162 0.419899 0.279260 -0.029426 0.182937 -0.530094 -0.008397 0.794437 0.641388 -0.793376 0.641541 0.565008 -0.949228 0.511523 0.681932 0.238091 0.325818 -0.051694 0.432458 0.067254 -0.610478 -0.017716 -0.087365 0.767373 0.671932 0.313044 -0.017554 0.357649 -0.606022 0.671645 -0.175011 0.628141 0.091544 -0.895752 -0.401285 -0.725519 -0.425845 0.590318 -0.931082 -0.784457 0.796943 0.710459 0.780551 0.847715 0.221982 0.462483 0.085806 -0.452200 -0.589211 -0.481736 0.615054 -0.199689 0.500548 -0.472311 -0.432316 0.172481 0.840733 0.550130 -0.469871 -0.765289 0.221775 0.355118 0.862852 -0.686680 0.459366 -0.538433 -0.412199 -0.966479 -0.948115 -0.343281 -0.750936 0.848828 -0.632822 -0.970385 0.696543 0.589160 0.492097 -0.217652 -0.863039 0.902886 0.300612 0.752015 -0.296803 -0.198840 -0.720296 0.270881 0.973641 -0.879563 -0.178989 -0.496230 -0.644852 -0.957213 0.858888 -0.782000 -0.643893 0.318254 -0.320433 -0.056092 0.351775 -0.268548 0.600627 0.600839 -0.419720 0.967805 0.630453 -0.723178 0.556965 0.122551 0.059171 0.693926 0.025437 -0.640217 0.445941 0.728634 0.160943 0.725645 -0.000485 0.134584 0.846082 0.820527 0.638354 -0.798770 0.863314 0.497241 -0.580770 -0.780580 -0.184505 0.098797 0.163328 -0.832730 0.830249 -0.236045 0.768109 -0.589471 -0.268240 0.398563 -0.312649 -0.711274 -0.478887 0.746522 0.982652 0.546551 -0.893696 0.428592 0.275185 0.267247 0.154237 -0.725300 -0.598169 0.000319 -0.904773 -0.959816 0.201549 0.958541 0.537425 0.620779 -0.822039 -0.647079 -0.280425 0.341289 -0.479809 -0.450176 -0.894756 -0.711700 -0.039647 -0.162996 0.686863 0.647704 0.125729 -0.792024 0.394226 0.108381 0.754527 0.500530 -0.463026 0.029712 -0.232223 0.691211 0.304412 0.169608 -0.308470 0.399639 0.209792 0.893079 0.358180 -0.252783 0.513857 0.536141 0.100138 -0.766567 -0.122571 0.620329 -0.216743 -0.017327 0.908630 0.743609 0.819677 0.595493 0.391313 -0.054593 0.803469 -0.214461 -0.946212 0.557996 -0.713931 -0.409239 -0.412292 0.053846 -0.718028 0.892120 -0.776546 -0.026498 0.291759 0.433245 -0.133420 -0.350061 -0.819537 -0.619563 -0.813921 0.280601 -0.386130 0.063509 -0.099070 0.397127 -0.953818 -0.190440 0.140736 0.865859 -0.594947 -0.467951 -0.188735 -0.791478 0.317588 -0.134947 0.766518 0.603657 0.455814 -0.645774 -0.342497 0.737786 -0.753654 -0.119043 -0.288712 0.538105 -0.685798 0.577868 -0.811957 -0.505335 0.958306 -0.625878 0.775266 -0.427824 0.437631 -0.323804 0.969302 0.483813 0.485756 0.110039 0.349672 0.890808 0.642088 -0.839063 -0.900670 -0.040324 0.025990 0.865848 -0.436666 -0.518195 -0.779926 0.220837 -0.780409 -0.533581 -0.898206 -0.069121 -0.995476 -0.584003 -0.491253 -0.807433 -0.089338 -0.532947 -0.433310 -0.314072 0.039228 -0.995679 0.362123 0.008531 0.488134 -0.152121 -0.881431 -0.162195 -0.261313 0.760657 -0.001257 -0.161983 -0.279666 -0.975267 -0.296135 0.283668 -0.493463 -0.076062 -0.495495 -0.273872 0.390358 -0.393701 0.657007 0.394882 0.022296 -0.834246 0.587449 0.932958 -0.367194 -0.845861 -0.381115 0.672035 -0.841540 0.981009 -0.319435 0.646594 -0.171112 -0.200865 -0.515601 0.567575 -0.440208 0.483142 -0.594408 0.280125 0.507874 0.109457 -0.436207 -0.985588 -0.966604 0.068298 -0.259460 0.423753 0.674597 -0.602453 -0.181365 -0.303107 -0.436699 -0.593915 -0.370150 0.196107 -0.439776 0.248735 -0.131858 -0.281316 0.229744 0.548707 -0.634722 -0.941368 -0.652158 -0.150323 0.626207 -0.092366 -0.667181 -0.968201 -0.812241 0.840693 0.141256 -0.248448 0.855105 0.174651 0.819850 -0.404355 -0.401595 0.494447 -0.006808 0.417040 -0.808661 0.556493 0.823125 -0.178810 -0.247400 -0.616651 -0.930075 0.620742 0.102033 0.299669 0.169449 0.467311 0.358301 0.517291 -0.683012 -0.015493 -0.575076 -0.350193 0.016306 -0.387317 -0.509500 -0.842438 0.364235 -0.654394 0.332213 0.184085 -0.058749 0.930618 -0.321468 0.934443 0.347658 -0.130129 0.490936 0.170783 0.691061 -0.756464 0.554132 0.760986 0.864278 -0.343835 0.060655 0.033726 -0.876524 -0.581044 -0.448983 -0.559536 0.403463 -0.024059 0.090271 -0.580231 0.588624 0.580772 -0.422669 -0.047141 0.926377 0.909544 -0.863056 -0.132372 0.840162 -0.184524 -0.197929 0.187820 0.685347 -0.706993 -0.641396 0.376408 -0.463457 0.912736 0.137394 -0.599179 -0.431100 -0.801951 0.434547 -0.307624 -0.382995 0.985564 0.132841 -0.979532 -0.038494 -0.776888 -0.559762 -0.449870 0.803883 0.017569 0.502989 0.730260 -0.072887 0.639933 -0.402111 -0.232725 -0.544591 0.399960 0.955095 -0.859244 0.692968 -0.686301 0.517164 -0.770489 -0.773565 -0.345442 -0.369668 -0.204665 -0.147393 -0.935121 0.487712 0.469612 -0.949556 -0.379448 0.490081 0.011949 -0.156336 0.930318 0.562079 -0.352453 -0.052113 0.065068 -0.622192 0.874999 -0.294999 -0.024304 -0.357726 0.160410 -0.624344 -0.402630 0.301165 -0.931376 -0.088931 -0.181671 -0.701865 0.137503 0.472887 -0.071533 0.932838 -0.674506 -0.006654 0.420550 0.795106 0.043790 -0.958898 0.285186 -0.944261 -0.115234 0.215504 0.617819 0.532313 -0.836609 -0.317113 0.910120 -0.961610 0.387887 -0.114183 -0.319336 -0.451703 0.261473 0.278034 0.849463 0.330097 -0.810897 -0.332208 0.628232 0.326606 -0.859322 -0.443301 0.259445 -0.533828 0.550045 -0.320005 -0.738722 -0.406165 -0.278903 0.546464 -0.350426 0.605863 -0.238031 -0.732607 0.138176 -0.074641 -0.049721 0.048296 -0.036251 -0.661833 0.934113 0.644414 -0.113536 0.195586 -0.077552 -0.264074 -0.474317 0.111551 0.403718 -0.846085 -0.561843 0.544396 -0.289386 0.697602 -0.989432 -0.739342 -0.622403 -0.728154 -0.145507 0.098694 0.818310 0.504067 -0.295443 -0.419721 0.771460 0.842732 0.505638 -0.278260 -0.108971 -0.530612 0.059906 -0.174858 -0.886198 0.946370 -0.979272 0.036250 -0.317703 -0.453589 -0.852199 -0.913985 -0.299674 -0.414042 0.630411 0.410940 -0.716440 0.640980 0.671598 -0.338843 0.912826 -0.473909 0.759851 0.731136 -0.969841 -0.535592 -0.688585 0.801619 -0.692859 0.817053 -0.476641 0.198169 -0.713559 0.583265 -0.976689 -0.599758 0.529635 -0.955961 0.436492 -0.788068 -0.409551 0.584292 -0.702053 0.290776 -0.829749 0.928358 -0.298285 -0.546189 0.569338 -0.626687 0.114968 0.482163 -0.100595 -0.125180 0.213299 -0.070436 0.339228 0.524714 -0.268817 0.646368 0.341767 0.254541 -0.155462 0.628208 -0.162194 -0.132152 -0.971550 -0.632558 -0.088113 0.464942 -0.420626 0.502336 0.049234 -0.122679 -0.206888 0.219485 -0.194321 0.494827 0.673295 -0.624983 0.868141 -0.211736 0.857180 -0.232455 0.663084 0.070479 0.697109 0.002311 -0.404807 -0.571709 -0.351320 0.936960 0.682833 0.493217 0.565168 -0.479361 -0.638934 0.593618 -0.111919 0.272953 0.058559 0.467455 -0.224711 -0.892207 -0.655224 0.568401 0.327278 0.150455 0.063228 0.000573 0.525472 -0.068631 0.788837 0.382652 0.698914 0.451921 -0.546868 0.396023 -0.545768 0.048325 0.824314 0.102912 -0.014715 0.507147 -0.403871 -0.449547 -0.972213 -0.042805 -0.855929 -0.084132 -0.769852 0.202630 -0.616677 0.005437 0.310423 -0.271901 -0.426161 -0.362299 0.878554 0.637067 0.638275 0.404026 -0.431564 0.427112 -0.213322 -0.732650 -0.120967 0.239810 0.663373 0.333265 -0.711865 0.487688 -0.563823 0.273420 -0.005165 0.032306 0.823874 0.022622 0.989502 0.967945 0.938490 -0.780350 0.170575 -0.678187 0.225087 -0.519002 0.049912 0.798926 0.118700 -0.071534 0.435993 -0.243025 -0.667508 -0.995571 -0.815913 0.119170 -0.728220 0.063119 -0.641020 0.935153 -0.603616 -0.352885 0.422841 -0.167439 0.920535 -0.582324 0.864868 0.744409 0.440298 0.854369 0.712354 0.378787 -0.925981 -0.117072 0.700600 0.299106 0.363927 -0.249489 0.098033 -0.517374 0.678977 -0.465974 0.239601 -0.988531 -0.461545 0.423687 0.130640 -0.189765 -0.513193 0.489620 -0.254612 -0.116809 -0.863265 -0.831771 0.715753 -0.942730 -0.414095 0.580620 0.801679 -0.973797 0.434990 0.514033 0.404990 0.509009 -0.603039 0.105590 -0.191885 0.760888 0.856102 0.906148 -0.756486 0.535079 -0.559826 0.483115 0.546548 -0.021371 -0.093197 -0.322812 0.788864 0.393610 -0.833193 -0.465748 -0.723199 -0.696458 -0.297519 0.992553 -0.639187 0.288386 0.573174 -0.837508 0.314589 0.008163 0.676525 -0.280421 -0.482828 -0.926513 0.825169 0.325288 0.834375 0.681271 0.231436 -0.922111 0.216350 0.671609 0.561005 -0.237102 -0.349762 -0.532193 0.440085 -0.560898 0.861417 0.606893 -0.026646 -0.861782 0.910435 0.675835 -0.869229 -0.728752 -0.035778 0.703945 -0.566260 -0.721189 -0.287892 -0.889735 -0.001610 0.229280 -0.816248 -0.176441 -0.445432 -0.981873 -0.495170 0.786003 -0.903984 0.721179 0.457613 0.657020 -0.515923 -0.892149 -0.875172 0.924162 -0.453047 0.986244 0.531055 0.520307 -0.875538 0.441490 0.196142 -0.744767 0.712738 -0.839636 0.959177 -0.853522 -0.560826 -0.328715 -0.743257 0.437564 0.900566 -0.559505 -0.738877 -0.544866 -0.541379 -0.234047 -0.758863 -0.445363 -0.512868 0.698750 -0.788343 -0.028791 0.806600 -0.663515 -0.104629 -0.646447 -0.677271 -0.573574 0.873860 -0.552809 0.867916 0.070003 -0.297576 0.580654 0.230367 -0.338399 0.727131 0.669541 
0.332886 0.983874 0.107105 0.233452 -0.575632 0.368228 0.688586 -0.117010 -0.865819 0.929723 0.437626 -0.378687 0.628472 0.649283 0.592522 0.435073 0.985768 -0.512107 0.788626 -0.691503 -0.085681 0.662486 -0.244313 -0.217765 -0.267511 0.458111 -0.637111 0.962856 -0.880288 -0.909980 0.632397 0.452599 -0.926106 -0.260498 -0.313949 -0.501737 -0.892270 -0.625363 0.381252 -0.758089 -0.695641 -0.181122 -0.136776 0.932832 -0.531838 -0.544254 0.367905 -0.546070 -0.056361 0.156531 -0.237574 0.857958 -0.180983 0.518114 -0.359807 0.551506 -0.023775 0.003082 0.514362 0.095937 0.093102 0.146759 -0.451464 0.166996 0.886261 0.234586 0.665259 0.993991 0.609223 0.046511 -0.764098 0.913582 0.865389 0.099126 0.846414 -0.666449 0.554872 0.214319 -0.212519 -0.501489 -0.629150 0.549907 -0.643532 0.189867 0.068021 -0.003338 -0.258627 -0.955754 0.999744 -0.744264 0.140183 0.092846 0.402495 0.688719 -0.740158 0.288756 -0.076695 0.925101 0.282748 -0.467472 -0.028389 0.518650 -0.553890 -0.162999 -0.382224 -0.707476 0.170552 -0.827352 0.506843 0.958032 -0.328841 0.877693 0.507939 0.027627 0.067559 -0.424040 -0.975711 0.808933 -0.379794 -0.975968 -0.935332 0.760389 0.116878 0.467163 0.449107 0.376720 -0.244081 -0.627588 0.301821 -0.961333 -0.095060 -0.726568 0.557317 0.351050 0.110433 -0.824907 0.643575 -0.719016 -0.652259 0.150418 -0.760983 0.018900 0.028110 0.746956 -0.953472 -0.904330 -0.677084 -0.929184 0.904602 -0.056879 -0.905151 0.969270 -0.296490 0.211727 0.436433 -0.847382 -0.411553 -0.807647 -0.474970 0.890268 -0.768981 0.429970 -0.836300 0.788336 -0.218979 0.274133 0.963429 -0.575405 0.555117 -0.688830 0.575013 0.794134 0.330071 -0.396877 0.541089 0.376598 -0.301208 0.864005 0.447415 -0.396605 -0.192873 0.542263 -0.427335 0.510637 -0.246010 -0.990902 0.663254 0.342437 -0.798549 -0.811716 0.232705 -0.567530 0.618255 0.396405 -0.779194 -0.600725 -0.329462 -0.815765 -0.176130 -0.774344 -0.504594 -0.601117 -0.980211 0.825476 0.002006 0.560879 0.202075 0.700799 0.424884 -0.350511 -0.695807 -0.767989 -0.808248 -0.123142 0.742647 -0.054257 -0.114043 0.405902 -0.711820 0.087408 0.594186 0.520885 0.519878 0.212441 -0.082709 0.740684 0.611716 0.587829 0.924919 -0.564414 0.813485 -0.579675 -0.165530 0.833274 -0.754199 0.836476 0.394153 0.447876 0.537275 -0.180963 -0.902635 0.841468 0.051048 -0.710883 -0.281674 -0.206305 0.234860 0.604283 -0.800403 0.523040 -0.308309 0.793783 0.043925 -0.788431 0.006224 0.961216 0.952253 -0.382060 0.549045 0.877172 0.053526 0.362530 -0.702503 0.887995 0.195804 -0.456701 0.724471 -0.410043 0.991175 0.261746 0.408994 -0.911461 0.103214 -0.539959 -0.622343 0.821540 0.253736 0.612517 0.425823 0.453333 0.135557 -0.882486 0.247116 -0.820518 -0.670917 -0.746660 -0.859302 -0.718664 -0.128721 0.689743 -0.841492 0.924805 0.052272 -0.543994 0.812800 -0.751924 -0.000696 0.537272 -0.161967 -0.009521 -0.200983 -0.752973 0.079018 0.902231 -0.292932 0.456675 0.723771 0.960804 0.069192 0.149594 0.414137 -0.795252 0.267108 -0.338746 -0.615770 0.596190 -0.085406 -0.475072 0.877526 0.785873 -0.785329 -0.963966 0.710678 0.266943 -0.507960 0.523479 0.515019 0.491344 0.060750 -0.646948 -0.518177 0.859767 -0.399921 0.560841 0.761998 0.307147 0.017516 0.485769 0.267951 -0.913293 -0.364637 -0.317912 -0.708545 0.902471 0.343342 -0.324314 0.498661 -0.742064 0.200614 0.376187 -0.956192 0.415285 0.412221 0.754486 -0.317772 0.904261 0.277965 -0.802753 0.395605 -0.661285 -0.449700 0.877428 -0.801518 0.150378 0.438269 0.960481 -0.542475 -0.544215 0.446250 0.725476 -0.457508 -0.918387 -0.592436 -0.166053 0.984083 0.750906 0.509633 0.482744 -0.991158 -0.289754 -0.141069 -0.947350 -0.874469 -0.728847 0.807137 -0.192241 -0.824586 0.085101 0.005006 0.571019 0.423816 0.555306 0.448448 0.622299 -0.294315 -0.113283 0.582779 0.163210 0.342501 0.029029 -0.111314 0.884993 0.110642 0.296250 -0.281060 0.094725 0.047156 -0.771427 -0.422531 0.055998 -0.061181 0.436400 0.108648 0.064350 0.707553 -0.084215 0.872109 0.882967 -0.999114 -0.122884 0.453986 0.424703 -0.567578 -0.097566 0.047002 0.138107 0.789150 -0.370219 -0.698684 0.131652 0.658810 0.190002 0.016645 -0.230548 -0.513748 0.735585 0.864177 0.533408 0.964158 -0.558354 -0.410593 -0.097022 0.878046 0.698055 0.967328 0.585599 -0.386160 0.839438 0.468565 -0.385273 -0.283446 -0.077448 -0.960570 0.148976 0.824985 0.086431 -0.712918 0.614136 0.716212 -0.411601 -0.254213 0.375023 0.778401 0.762432 -0.855525 -0.735347 0.498017 -0.991348 0.798061 0.462176 -0.549702 -0.612532 -0.634847 -0.671656 -0.914477 -0.667519 0.913943 -0.300637 -0.828081 0.382508 0.314090 -0.111527 -0.694941 0.353520 -0.962552 -0.869955 -0.560049 -0.675469 0.744181 -0.843837 -0.087071 -0.510032 0.531186 -0.308670 -0.747600 0.675661 -0.044017 0.750417 0.684313 -0.245956 0.212593 -0.865390 0.141512 0.577746 -0.537046 0.227035 0.910228 -0.623103 0.926398 -0.917853 0.759405 0.240488 -0.029381 -0.935536 -0.405993 0.008068 -0.805491 0.033958 0.332598 0.938690 0.190122 -0.754473 -0.571343 -0.278692 -0.063143 -0.318942 -0.603032 0.892840 -0.568525 -0.918719 -0.353117 0.644068 -0.784108 0.788395 0.221814 -0.321154 0.015430 0.132042 0.055742 -0.058173 0.214188 -0.184853 -0.817685 -0.815192 -0.120389 -0.223678 0.192876 0.074120 0.810280 -0.474526 0.012810 0.000402 -0.228999 0.441467 0.721709 0.707859 -0.877475 -0.881322 0.600698 -0.446000 -0.800041 -0.752418 -0.801932 -0.584149 -0.964023 0.419882 0.094696 0.051406 -0.448076 -0.849561 0.993234 0.766112 -0.034415 -0.824452 0.950920 0.845196 -0.048129 0.143796 -0.080684 -0.237849 0.669270 0.932126 0.762553 -0.559729 0.373593 0.484262 -0.851871 0.496118 0.602940 0.748828 -0.949883 0.802899 0.996409 -0.751815 -0.781250 -0.967614 0.668067 0.313446 0.083792 -0.780009 0.463885 0.077026 0.986103 -0.570530 0.252575 0.937023 -0.725333 -0.795555 0.080819 0.193983 -0.033404 -0.249911 0.126109 -0.270851 0.190359 -0.500298 -0.786588 0.338489 0.995820 0.816352 0.087316 -0.954063 0.619252 0.083726 -0.705877 0.838002 0.116112 0.962190 0.151448 -0.800095 -0.817819 -0.384668 0.276930 -0.831716 0.044802 -0.470495 -0.894692 0.319469 -0.266050 0.186127 -0.486548 0.700547 0.936215 0.639561 -0.570304 0.126575 -0.860737 -0.356892 -0.534936 -0.864917 -0.540540 0.552380 -0.818980 -0.921288 -0.363894 -0.524857 0.916714 0.752218 -0.562668 0.068161 0.952123 -0.380487 0.683493 0.229053 -0.212203 -0.271704 0.758558 -0.106895 -0.952235 -0.507492 -0.920768 -0.438783 -0.806945 -0.984553 -0.799222 -0.377249 0.142022 -0.659959 0.265859 0.607086 -0.524876 0.725319 0.159466 -0.343856 0.804031 0.795572 0.131286 0.720745 0.547790 0.568619 -0.211094 0.499913 -0.811868 -0.527601 -0.271034 -0.024071 0.200695 -0.512476 0.869034 0.248460 -0.019968 0.948266 0.809676 0.173087 0.963713 -0.989546 0.795837 0.105735 -0.649505 0.061696 -0.287179 -0.174382 -0.212985 0.872287 0.481762 -0.408954 0.667859 -0.386951 -0.688209 0.215649 -0.818332 0.100697 -0.284438 -0.630200 0.573096 0.444528 0.345729 -0.226209 0.932051 0.214764 -0.977749 -0.087917 0.163030 0.831927 -0.914830 0.126743 0.842381 0.881007 -0.767522 -0.807124 -0.057297 -0.054701 0.018495 0.729719 -0.182414 -0.499743 -0.679235 -0.514554 0.113305 -0.367444 0.701095 0.294973 0.733252 -0.583343 0.664773 0.306348 0.861184 0.010502 -0.919861 0.793235 -0.774735 -0.897610 -0.294682 0.388295 0.934317 -0.209512 -0.484962 0.776698 -0.328505 -0.252484 0.969575 0.614199 0.692816 -0.011931 0.343917 -0.489598 0.488326 0.664682 -0.004152 -0.398369 -0.702763 -0.303058 0.896604 -0.969510 0.113599 0.561377 0.336837 -0.025217 -0.428122 0.416976 -0.231982 -0.202856 0.519366 0.473337 -0.814561 0.453683 -0.736175 -0.299523 0.230381 -0.064680 0.447993 0.199956 -0.450481 0.140809 -0.811975 0.893436 0.651211 0.676351 0.558118 -0.352941 -0.722018 0.855355 0.344001 -0.825414 0.885844 -0.542400 0.735963 0.222682 0.432383 -0.692159 -0.360342 -0.799598 0.104985 -0.840976 0.673738 0.290424 0.612707 0.937563 0.990901 -0.156912 -0.127117 0.438894 -0.956956 0.422402 -0.420297 -0.768931 0.315838 -0.769086 0.907420 -0.126045 -0.122027 -0.814599 -0.270690 -0.778025 -0.640013 -0.384845 -0.320425 -0.904050 0.837837 -0.888041 -0.596209 -0.522505 -0.687640 0.508776 -0.363481 0.986099 -0.200801 -0.750774 0.923662 -0.209900 0.092314 -0.203455 -0.771006 0.135358 -0.781053 -0.191303 0.366427 0.534785 0.039612 0.273847 -0.591260 0.917585 0.459248 0.138050 -0.860441 0.819236 0.753205 -0.180866 0.915185 0.591042 -0.068907 -0.681024 -0.931464 0.243453 0.827752 -0.294945 0.229552 -0.373049 -0.045719 0.153214 0.417051 -0.953405 0.949760 0.646046 0.181954 -0.831293 -0.545257 -0.451619 0.703492 0.494354 0.822228 -0.887768 0.411939 0.281477 0.250283 0.551499 0.100712 0.003488 -0.629367 0.015897 -0.405471 0.301726 0.334873 -0.336935 -0.454821 0.162625 0.368120 0.774731 0.789576 -0.677599 -0.072054 0.206627 -0.631004 -0.122295 -0.147327 0.550950 0.046412 0.307416 -0.900669 -0.250096 -0.198230 0.921559 -0.137864 -0.786291 0.203036 -0.887581 0.765208 -0.696252 0.115906 -0.864159 0.319645 0.710435 0.437567 -0.345481 -0.626499 0.982746 0.817144 0.741621 0.757478 0.606720 -0.935978 -0.314577 -0.186653 -0.566981 0.563129 0.666020 0.983969 -0.390459 -0.026564 -0.916700 0.359445 0.775206 -0.995141 -0.778419 0.988915 0.207895 -0.666000 0.754123 0.511643 0.449906 0.889964 -0.168712 0.160341 0.327531 0.485806 0.533842 0.310277 0.302950 0.275463 0.067755 -0.090330 0.339486 0.753178 0.723017 0.772505 0.316307 0.389037 0.756473 0.925848 -0.637527 0.839773 0.285293 -0.862322 0.844633 0.506874 -0.873407 0.052527 0.840873 0.880716 -0.435830 0.290779 0.770679 0.395458 -0.548879 0.098210 -0.118736 0.984963 -0.591513 -0.815785 0.260426 0.476242 0.093884 -0.400088 0.229421 -0.183098 -0.627583 -0.454272 -0.794062 -0.871110 -0.528424 -0.431589 0.968664 0.756868 -0.293911 0.813296 0.263742 -0.167318 -0.134176 0.104615 -0.286602 0.429994 -0.604606 -0.515923 -0.174548 -0.153485 0.582287 0.706716 -0.168522 0.990775 0.890930 -0.908096 0.467017 -0.015185 -0.308184 -0.303562 0.801716 0.064233 0.242166 -0.992345 0.193123 0.713742 -0.423934 0.161787 0.470610 0.282155 -0.024917 -0.265648 -0.885163 0.840907 0.838967 -0.171765 0.270900 -0.765639 0.312312 -0.903648 0.080876 -0.105400 0.803068 0.912354 -0.114626 0.693998 -0.995742 -0.647608 -0.321187 -0.303925 0.048830 -0.519470 0.760307 -0.709004 -0.511816 -0.046570 -0.995262 0.064250 -0.884783 0.475348 -0.653595 0.090300 -0.790300 -0.538758 -0.068794 -0.951333 0.289477 -0.797894 -0.716972 -0.398210 -0.701542 0.363904 0.496389 -0.898474 0.276258 -0.618237 0.795524 0.280517 -0.265845 -0.525663 0.976591 0.782985 -0.045133 0.736899 -0.926019 0.443051 -0.309671 -0.921281 -0.492698 -0.194454 0.554067 -0.146293 0.895846 0.763767 0.314949 -0.172948 0.812434 -0.395573 0.029159 -0.904538 0.206216 0.327617 0.459366 -0.297395 0.429143 -0.264375 0.084369 0.224667 -0.983858 0.818524 0.699004 0.992733 0.601509 -0.346129 0.729631 0.675490 -0.903078 -0.580040 0.754208 -0.395777 0.225506 0.308275 0.457930 0.121352 0.072042 -0.227120 0.948404 -0.115524 0.377307 -0.022437 -0.020063 -0.416477 -0.694820 -0.560696 0.286128 0.734322 0.174928 -0.629503 -0.041011 0.191070 -0.810979 -0.342007 0.183803 0.790530 0.311863 -0.086566 0.466019 0.408785 0.333395 0.220228 -0.986992 -0.441099 -0.471497 0.470938 0.680253 0.600545 -0.756182 0.628658 -0.514980 0.621125 -0.393780 0.464958 -0.795352 -0.088600 0.904262 0.490776 -0.354278 0.079190 0.861273 0.604711 -0.729740 -0.949706 -0.737296 0.454063 0.840824 0.574567 -0.632503 0.306843 -0.016648 0.700891 -0.472929 -0.003640 -0.740207 0.055574 -0.532701 0.940046 -0.343882 -0.288883 0.568704 0.141139 -0.667758 -0.825076 -0.393903 -0.463110 0.086324 -0.489642 -0.972334 0.732047 0.589548 0.888939 0.336758 0.859808 0.939233 0.599462 0.313870 0.780057 0.174029 0.681367 0.086901 -0.842619 0.382259 0.613972 0.153741 0.642051 -0.330455 0.621040 0.582098 0.325664 -0.667843 0.150801 -0.533198 -0.335601 0.325726 0.072899 0.201288 -0.587950 0.583257 0.228954 -0.855904 0.172805 0.117893 0.480854 0.032613 0.057126 0.080316 -0.653516 -0.162816 -0.745656 -0.972149 0.924084 -0.588275 0.410110 0.538056 0.565466 0.052161 -0.792399 0.186506 -0.365741 0.533265 0.518664 0.785060 -0.999933 -0.816938 0.110785 0.072966 0.384351 0.522835 -0.343776 -0.386695 0.666932 0.829029 0.731198 0.147786 -0.138358 -0.211676 -0.771898 0.208126 0.625508 -0.517554 0.235977 0.549592 -0.105828 -0.353914 0.087648 -0.540362 0.698247 0.295249 0.646144 -0.667494 -0.171486 0.164808 -0.882434 -0.171419 0.347870 0.228351 0.901547 -0.267779 -0.248814 -0.442229 0.345526 -0.581882 -0.613200 0.076724 0.565904 0.248442 0.865048 0.794006 -0.543432 0.490556 -0.723548 0.692545 0.040148 0.170624 -0.661369 -0.872203 0.630262 -0.963121 0.423046 0.276406 -0.630616 -0.748440 -0.558785 -0.513050 0.080140 0.789085 0.715301 -0.018312 -0.478694 -0.533512 0.539458 0.866832 -0.115394 0.926258 -0.056444 -0.549489 0.174700 -0.191395 -0.755483 0.631268 -0.700839 -0.479031 0.323812 0.339309 0.691593 0.662444 0.467106 0.321855 0.699322 -0.109849 -0.401738 -0.931293 0.141711 0.039476 -0.444343 -0.778148 -0.171439 -0.729042 0.203539 0.349867 -0.262554 -0.257002 0.216700 0.622052 -0.330744 -0.839744 -0.927437 0.843956 -0.031139 -0.682921 0.475224 0.268021 -0.161951 -0.200964 -0.392669 -0.470358 -0.538520 -0.925564 0.851497 -0.839198 -0.035412 -0.550241 -0.770492 -0.893701 0.489235 -0.214835 -0.671850 -0.682203 0.056123 0.531689 0.667664 0.793569 -0.725313 -0.115636 0.415621 -0.056057 0.044620 0.488184 -0.212101 -0.986520 0.805263 -0.736878 0.281502 -0.356688 0.062158 0.888832 0.172954 0.523638 0.963268 0.024452 0.684439 -0.072144 0.474211 0.913948 0.034155 -0.036554 -0.300887 0.362305 0.281243 0.755236 -0.106005 -0.051093 0.548805 0.168682 0.833271 -0.035574 -0.887375 -0.122110 -0.547390 -0.099477 -0.108629 -0.742127 0.163645 -0.827128 -0.098815 -0.774196 -0.938296 -0.925860 0.749441 -0.975028 0.098591 0.433881 -0.047171 -0.427198 0.347828 0.986984 0.536248 -0.953059 0.349289 -0.182509 0.802177 -0.756716 0.766398 0.350982 0.411965 0.599669 -0.684593 0.524590 -0.522441 -0.231983 -0.574887 0.368930 0.025891 0.588759 0.541802 0.927076 0.814562 0.603506 -0.998784 0.564004 0.628478 0.099807 -0.002115 -0.418693 0.672609 -0.654287 -0.431710 0.208857 -0.607346 0.917579 -0.973652 -0.805169 -0.839137 0.792747 0.545812 0.572828 0.392415 0.861220 0.097418 0.869974 -0.370763 0.522532 0.238904 0.655128 0.111291 -0.219294 0.582204 -0.074147 -0.615789 0.583420 -0.510143 -0.987310 -0.316774 0.487741 -0.406003 -0.644165 0.833454 0.162287 0.564693 -0.773891 0.079866 0.591041 -0.579061 0.240729 0.383788 0.966752 -0.186443 -0.223797 0.827972 0.910976 -0.353822 -0.542791 0.433507 0.885081 -0.887663 -0.455202 -0.334213 0.694540 0.470651 0.049998 0.277960 0.960508 0.062688 0.961186 0.448249 0.656685 -0.682978 0.281704 -0.181028 0.881715 0.507812 0.898838 0.472756 0.928752 0.139567 -0.143456 0.895504 0.953125 0.632747 0.723475 0.864101 -0.721076 -0.819316 0.297608 -0.835994 -0.706979 0.842406 -0.170207 0.987561 0.313057 0.879791 0.265521 0.273565 -0.057520 0.226707 -0.278186 -0.400836 0.543729 -0.996482 0.418136 0.425443 0.511330 0.316975 -0.101801 0.440082 -0.543458 0.754743 0.335586 -0.590333 0.387490 0.059061 -0.726232 0.666414 0.239745 0.571375 0.830420 0.532765 0.413781 -0.339787 0.520326 -0.273162 -0.459996 -0.214153 -0.999597 0.482484 -0.987446 -0.277783 -0.918352 0.556283 -0.274265 0.499784 -0.018274 -0.762935 -0.183241 0.879925 0.677147 0.273301 0.634668 0.012732 0.682967 0.022157 -0.928207 0.956735 -0.311429 0.311538 0.528111 -0.481009 -0.155697 -0.058108 0.179204 -0.635371 0.668730 0.719208 0.150476 0.669133 0.201691 0.163030 -0.608650 0.283339 -0.280688 0.117085 -0.216877 0.701038 0.354150 0.599882 0.580963 0.031297 -0.126818 0.215631 -0.955971 -0.443850 -0.762212 -0.884178 -0.487115 -0.073640 0.427360 -0.959004 0.445351 -0.728337 -0.017112 -0.375445 -0.363707 -0.348382 -0.656237 0.786769 -0.679249 0.545454 -0.050201 -0.287899 -0.171206 0.669111 0.829186 0.611917 0.370150 0.183336 0.211799 -0.048887 -0.785367 -0.915019 -0.833256 -0.741338 -0.358869 -0.595468 -0.625515 0.154016 0.330892 0.801845 0.195012 -0.223757 -0.926492 -0.822101 0.400798 -0.290199 -0.170483 0.744561 -0.503430 0.150268 0.290015 0.446368 0.862370 -0.881191 0.115480 0.691556 0.730726 -0.514371 -0.125108 -0.057476 0.436742 0.089526 0.027506 0.603486 0.348188 0.668637 -0.991982 0.722673 -0.177347 0.338910 0.524518 -0.982335 -0.884847 0.598026 -0.804436 0.515951 -0.692173 0.025081 0.260512 -0.195603 -0.824651 -0.449473 -0.749234 -0.962281 -0.330664 0.366245 0.729275 -0.599939 0.851875 -0.395833 0.342586 0.288617 0.693693 -0.629908 -0.107898 0.041881 -0.961271 -0.099880 -0.235446 -0.138618 -0.760970 -0.710928 -0.120953 -0.645818 0.887098 0.074611 0.870133 -0.805074 -0.900308 0.130645 -0.000677 -0.724958 0.681172 0.250088 -0.687239 -0.649492 -0.383666 -0.957964 -0.249431 -0.531792 -0.353797 -0.906845 0.756825 -0.660104 -0.536753 -0.351073 0.381777 -0.498025 0.549047 -0.853669 0.363357 0.788077 -0.564597 -0.757596 -0.857741 -0.677498 0.317015 -0.987607 -0.482573 0.416707 0.143038 0.516750 0.691749 -0.175790 -0.233162 -0.995490 0.174717 0.383172 -0.953455 0.925286 0.851380 -0.307252 -0.981559 0.608205 0.032645 -0.518312 -0.742868 -0.585578 -0.016336 0.806179 -0.439247 -0.652979 0.594256 -0.003844 -0.410575 0.736515 0.318658 0.906440 0.748908 0.836085 0.323147 -0.108054 0.352835 0.014896 0.716155 -0.880326 0.019405 -0.109128 0.502846 0.065951 -0.183841 0.354226 0.758699 -0.165400 -0.037569 -0.208656 0.316288 0.219563 0.205765 -0.700048 0.025743 0.766518 -0.353027 -0.380001 -0.237325 0.236397 -0.643486 -0.918668 0.142837 -0.894578 0.917418 -0.534016 -0.002632 0.270253 0.480879 -0.286477 0.389926 -0.499715 0.604396 -0.107228 0.566235 -0.579446 -0.753002 0.324935 0.255154 0.209429 -0.883722 -0.428557 -0.571008 0.322044 -0.128605 0.454735 0.088562 0.518367 -0.925266 0.851237 -0.245236 -0.568752 0.932569 0.897601 -0.463329 0.849987 -0.636415 0.534039 0.120239 0.844465 -0.752438 -0.489835 -0.655251 0.851957 0.402937 0.910985 -0.727488 0.649935 0.235919 0.527666 -0.140636 0.352197 -0.900891 0.288356 -0.325759 -0.029497 -0.256909 0.762803 -0.511130 -0.182175 0.614040 0.243635 0.249074 0.546609 0.141236 0.785744 0.396595 0.504821 0.319783 -0.483165 0.349286 0.567345 0.027000 0.694035 0.419302 -0.570063 0.605020 0.691814 -0.920128 -0.159061 0.219480 -0.060764 -0.806864 0.318588 -0.772407 -0.132623 -0.710909 -0.029316 -0.369820 -0.222039 0.788510 -0.755780 -0.978404 0.037583 0.790829 0.162832 -0.176672 0.187424 -0.332347 -0.856889 0.704259 -0.983061 0.710456 -0.268741 0.710973 0.129758 0.161196 0.315993 -0.178428 0.241068 -0.843068 -0.958949 -0.819696 -0.649932 0.359640 -0.592103 0.217445 0.648731 0.378581 0.847626 -0.573308 0.167091 -0.908154 -0.551712 -0.795326 0.882675 0.611120 0.028002 0.070099 -0.721227 0.171112 -0.225642 -0.704288 -0.118432 0.505616 -0.993315 -0.988674 -0.333188 0.322678 -0.167102 0.907880 0.479610 -0.126051 -0.911815 0.829678 -0.766411 -0.503918 0.047123 0.882320 0.874663 -0.105251 -0.690988 0.041754 -0.013405 -0.242700 0.246428 -0.130730 -0.631579 -0.725571 0.939369 -0.352806 0.445542 -0.286273 -0.057094 -0.672890 -0.780657 -0.050409 -0.661564 -0.113845 -0.727731 0.171333 -0.205965 0.751879 -0.954718 -0.117780 0.581557 -0.721129 0.378301 -0.371319 -0.838810 0.252964 0.523430 -0.529798 -0.705282 -0.489975 0.227503 0.541145 0.379295 0.595923 0.815575 0.318664 -0.756882 0.261117 -0.967609 0.186024 0.588226 -0.748266 -0.864385 0.926662 0.137889 -0.592115 0.097995 0.931924 -0.840236 0.143277 -0.185857 0.741321 0.422148 -0.807555 -0.629998 0.583338 0.445409 0.893432 -0.946460 0.740127 -0.596543 0.281043 0.281272 0.782752 -0.123034 0.096847 0.101416 0.120084 -0.642037 0.133807 -0.693892 0.946190 0.385541 -0.558277 0.872852 -0.476570 -0.150392 -0.029153 -0.544646 0.009371 -0.885876 0.269497 -0.249307 0.536272 0.461942 0.120694 0.119610 -0.092649 0.014126 0.173150 -0.352522 0.417583 -0.545807 0.928750 0.200335 0.331159 0.025596 -0.698249 -0.548757 0.383560 0.435558 -0.242649 0.329750 -0.178901 0.199074 0.202601 0.344529 -0.951318 -0.826552 0.799883 0.058053 -0.712428 0.069380 0.808746 0.823843 -0.468678 -0.070560 -0.056547 0.438673 0.943566 -0.883397 -0.913850 0.361148 -0.429203 -0.985100 -0.438517 0.901956 0.040496 -0.136766 -0.646801 -0.575944 -0.701208 0.110551 0.753806 0.119891 -0.690375 -0.043593 -0.535580 -0.641694 0.129855 -0.735697 0.416360 0.417426 0.333683 0.225105 0.241270 0.865005 -0.845455 -0.815277 0.303678 -0.901889 -0.698674 0.389828 0.459260 -0.127877 0.404728 -0.979257 -0.225921 -0.554776 -0.116023 0.127278 -0.130720 0.182769 -0.762171 -0.376914 -0.697340 -0.452546 0.579493 -0.232920 -0.094240 -0.290652 0.031383 -0.677880 -0.873226 -0.634933 0.547225 0.368044 -0.769928 0.701770 0.552767 0.533749 0.799881 0.854093 -0.076423 0.259141 -0.273784 -0.671695 0.279884 0.500295 -0.226471 -0.836140 -0.372427 0.642809 0.346629 -0.134598 -0.734105 0.649289 0.412856 0.845387 -0.583631 -0.681384 -0.445265 0.447753 -0.359264 -0.318491 0.812819 -0.812039 -0.950447 -0.957109 0.889732 0.602319 0.576640 0.689613 0.456412 -0.499783 -0.051246 -0.817372 -0.171478 -0.771362 0.682923 0.602050 -0.607502 -0.689504 0.244859 0.739127 0.175898 0.510754 0.388415 -0.411246 0.356141 0.804784 -0.092630 0.910876 0.252537 0.548106 -0.407616 0.065356 0.736068 -0.358063 0.108247 0.625799 -0.755744 -0.315113 0.315412 0.700668 0.185104 -0.735834 0.883296 -0.986375 -0.507196 0.566219 0.615676 -0.114698 0.876715 -0.139465 -0.375571 0.052613 -0.628712 -0.987156 0.641367 0.727429 0.817629 -0.451263 0.638305 0.070166 -0.903157 -0.769310 -0.864478 0.832910 -0.127373 0.243769 0.458709 0.116883 0.928655 -0.225878 -0.182449 0.113759 0.038288 -0.299152 0.127384 0.531092 -0.732933 -0.256940 -0.583606 -0.856218 0.603595 0.040823 0.196395 0.974883 0.053667 -0.162239 0.702313 -0.128704 0.386498 0.340618 0.941461 0.483340 0.571307 -0.923017 0.316251 -0.556066 0.320752 -0.225040 0.560817 0.249407 0.549082 -0.621632 -0.636834 -0.412630 0.079215 0.490551 -0.881538 0.346282 -0.766389 -0.465144 0.490064 0.837206 0.575679 -0.313542 0.812089 -0.370654 0.524219 0.514402 0.500642 -0.089283 -0.144980 0.442104 -0.605943 -0.573673 0.519087 0.710308 -0.129739 -0.160161 -0.514732 -0.568922 -0.910754 -0.965650 -0.190554 -0.547588 -0.378280 0.888661 0.942963 -0.259818 0.234943 -0.823426 0.275038 -0.274993 -0.986220 -0.149282 0.411465 0.825869 0.480064 -0.064316 0.340272 -0.019294 0.846401 -0.804708 -0.577190 -0.759541 -0.378381 0.941897 0.950766 0.491880 -0.218265 -0.563966 0.922958 -0.129019 -0.529616 -0.267596 0.323394 0.092104 -0.378935 0.266357 0.832286 0.856008 0.442931 0.107324 -0.418985 0.456711 0.958042 0.992480 0.282580 0.438106 -0.071835 -0.377148 -0.581188 -0.225434 -0.181856 -0.158378 0.015025 0.439762 -0.216481 -0.034209 -0.068357 0.565254 0.401825 -0.145399 -0.563765 0.872209 0.587005 0.759629 -0.035687 -0.791930 0.025986 -0.203401 -0.935921 -0.531084 0.903922 -0.354906 0.925627 0.861964 -0.362426 0.208208 0.300070 0.565739 0.831060 0.718882 -0.659695 -0.350797 -0.439496 0.355329 -0.911035 0.344022 -0.678880 0.020608 -0.090724 0.722945 0.875209 0.345511 0.595155 0.462214 0.105140 -0.440532 0.670285 -0.868874 0.356066 0.734363 -0.399958 0.259989 -0.620543 -0.474330 0.121953 0.017031 0.733877 -0.577978 -0.417230 0.564937 -0.859096 -0.076926 -0.785860 -0.298592 -0.721596 -0.696895 -0.954570 -0.400476 0.323713 -0.045294 -0.677531 0.198923 -0.699782 0.917624 -0.338863 0.405358 -0.522908 -0.668579 0.536484 0.833158 -0.934216 -0.863473 0.093146 -0.554759 -0.337804 -0.784901 0.462272 -0.603927 -0.362879 -0.954958 0.961010 -0.221975 -0.031884 -0.824850 0.479433 0.246520 -0.521745 0.524863 0.846044 0.801968 -0.520431 -0.831487 0.000891 -0.220213 -0.913863 0.662028 -0.814855 -0.436771 0.993449 0.721629 -0.603614 -0.940767 
0.858156 0.489533 -0.495525 -0.479648 0.704632 0.966747 -0.083574 -0.658247 -0.988212 -0.122564 0.119778 -0.020095 0.052586 -0.400790 -0.773576 0.530841 -0.875927 -0.927532 0.332809 -0.396358 -0.759019 -0.666300 0.383430 -0.672882 0.995728 0.568575 -0.109653 0.989177 0.290204 0.286733 -0.951589 0.148360 -0.223734 -0.447115 0.668712 -0.519102 -0.480368 -0.414862 -0.177350 -0.468580 0.462574 0.942428 0.511325 -0.484840 -0.458362 0.737749 -0.954000 -0.334289 0.810217 0.378810 0.269354 -0.948801 0.712510 -0.347217 -0.621683 0.708238 -0.778642 0.268664 0.697415 0.511562 -0.444603 0.745826 -0.340077 0.331663 -0.701289 -0.671365 0.812560 -0.181657 -0.086227 -0.364790 0.349764 -0.623653 -0.422362 -0.138911 -0.108493 0.119276 -0.401162 -0.062493 0.784988 -0.590944 -0.683684 0.054342 -0.539746 -0.971174 0.707125 -0.161429 0.737064 0.928483 -0.892766 0.434480 0.440046 -0.337369 0.180306 -0.900032 0.994294 0.479017 -0.571397 0.806854 -0.702640 0.342377 -0.557935 0.647124 0.718724 0.019703 -0.491787 -0.389770 -0.861021 0.107051 0.547737 0.923967 0.516107 0.864054 -0.021692 0.976361 0.892880 -0.314567 -0.185068 0.629944 -0.386084 -0.077834 0.064424 -0.946038 0.584797 -0.755271 -0.846070 0.579091 0.723746 -0.417467 0.385945 -0.978894 0.924910 0.828010 0.668230 0.643634 -0.152287 -0.823557 -0.746136 -0.013308 0.283494 0.801601 -0.089341 -0.200399 0.665655 0.888967 -0.224039 0.558535 -0.425600 0.590893 0.188479 0.188316 -0.486941 -0.747097 0.242278 -0.902144 -0.502367 0.396208 0.676947 -0.778621 0.978741 0.062893 -0.757515 0.903651 -0.109097 0.910715 0.547285 0.738616 -0.912841 0.801149 -0.274692 0.370652 0.602750 0.635967 -0.829747 0.268404 0.524934 -0.053786 -0.173061 -0.900666 -0.462893 -0.984581 0.287650 0.050166 -0.731678 -0.470072 0.148022 -0.234046 0.926135 -0.175030 -0.012667 0.904877 0.887862 0.229818 0.808528 -0.221235 0.140534 0.355812 -0.482619 0.227692 0.156961 0.242689 -0.401655 -0.240290 -0.121344 -0.231402 -0.971885 -0.596410 0.714812 -0.144946 -0.497077 -0.748081 -0.129527 0.790573 0.302085 0.138794 -0.679499 -0.549893 0.904749 -0.753364 0.275077 -0.107918 -0.848487 0.162939 -0.878100 0.960040 0.941705 0.262434 0.315852 -0.540914 -0.509873 -0.527187 0.701775 0.088471 0.232524 -0.419569 0.857069 0.260639 -0.015979 0.571881 -0.884307 0.486944 0.823800 -0.013835 0.277517 0.125885 -0.875040 0.598018 0.575993 -0.970291 0.844654 -0.148931 -0.078210 0.996167 -0.985992 0.043691 0.956207 0.955713 -0.693875 0.272059 -0.585201 -0.203748 0.744873 -0.883426 0.884723 -0.022604 -0.302995 0.741792 -0.761965 0.681026 0.313673 -0.646273 0.167970 0.137474 0.339893 -0.554513 -0.736641 0.464853 -0.956496 0.839351 0.494561 0.888158 -0.309579 -0.583648 0.884325 -0.295571 0.460042 0.840532 -0.339858 0.766167 0.112592 0.074941 -0.437581 -0.142536 0.191515 -0.552858 0.834860 0.888520 -0.811066 -0.927105 0.569545 0.502607 -0.573378 -0.262485 -0.359919 0.766515 0.183002 -0.096560 0.231367 0.226506 -0.257209 -0.274071 0.114665 0.433212 0.142280 -0.001010 -0.862359 -0.397677 -0.160478 -0.202217 -0.631510 0.952114 0.872724 -0.069091 -0.190422 0.064239 0.378051 -0.355562 -0.047241 0.566984 -0.282667 -0.477696 0.069591 0.143955 0.259819 0.709672 -0.089531 -0.557179 -0.386888 -0.858163 0.669327 0.355903 -0.132235 -0.216008 -0.210885 -0.989954 0.782981 -0.073244 -0.387632 -0.377497 0.724539 -0.019142 -0.425383 0.597263 0.911767 0.384195 -0.338498 0.289817 -0.971367 0.614261 -0.143198 -0.254035 -0.863435 0.926393 0.889920 0.396384 0.636065 -0.199611 0.839205 -0.750823 -0.057774 0.508533 0.605080 0.809991 -0.707476 -0.605806 0.820037 -0.924494 0.320950 -0.567595 -0.301991 0.045489 0.413263 0.272626 -0.357248 0.325030 -0.343179 0.304254 -0.385152 -0.314547 -0.081485 0.471649 0.431418 0.055080 0.398043 0.321338 -0.548535 0.034108 -0.878273 -0.709330 0.283285 0.063953 0.799203 -0.111635 -0.126056 -0.908273 0.282560 -0.306019 -0.832768 -0.396490 0.126386 -0.134759 0.648999 -0.460350 -0.862132 -0.708249 0.864680 -0.205312 0.596005 -0.520472 0.480142 -0.485480 0.951177 -0.088440 0.569600 0.349220 -0.767102 -0.978936 -0.616672 -0.645375 -0.688266 0.666613 0.418578 -0.889063 -0.445021 -0.707478 -0.797336 0.837539 -0.013496 -0.630104 -0.558952 -0.887110 0.235138 -0.909953 -0.347460 0.373005 -0.618202 -0.482780 -0.832306 0.977803 -0.003253 0.647835 -0.507678 -0.052076 -0.440605 -0.938078 -0.702856 -0.207707 -0.917014 -0.319528 0.146919 -0.605279 -0.652915 -0.434503 -0.494342 -0.097936 -0.141981 -0.291678 -0.260397 0.844523 0.078218 0.180651 0.957413 -0.686644 0.270698 -0.390047 0.686361 0.652496 0.127172 0.854055 0.630298 -0.876081 0.501890 -0.877380 0.071843 -0.938714 -0.815458 0.368987 -0.146421 -0.732471 -0.950541 -0.999502 -0.337750 -0.603456 -0.434005 0.167908 0.298608 0.424014 0.876230 -0.961789 0.268537 -0.045552 0.218861 0.225950 0.267804 -0.510441 0.835903 -0.045835 -0.857945 -0.036925 -0.191780 0.772353 0.086994 -0.689890 0.894974 -0.841163 -0.628604 -0.920484 0.527824 0.224975 -0.652955 0.577283 0.225473 0.009295 0.973827 0.791468 -0.822797 0.272435 0.215482 -0.946567 0.310646 -0.515981 0.007881 -0.470493 0.709969 -0.724315 0.019067 0.545871 0.229850 0.161122 -0.491054 -0.961930 -0.066525 0.595940 -0.651820 -0.171551 0.754778 -0.280424 -0.092035 0.282602 0.944551 0.255011 -0.140115 0.170024 -0.735694 -0.166288 -0.038508 -0.558491 -0.893852 -0.823026 -0.505058 0.416793 -0.339008 0.502823 0.946301 -0.629039 0.778508 -0.034633 0.916832 0.008358 -0.873511 -0.574222 0.046428 0.059965 -0.978281 0.394608 0.888414 0.776496 -0.885816 -0.203621 0.059098 -0.941265 -0.948610 0.918983 0.228760 -0.684305 -0.247304 -0.809748 -0.242796 -0.141156 -0.632774 0.252146 -0.724363 0.028218 -0.245031 -0.778062 0.399179 -0.466523 0.187305 0.316011 0.541835 0.313794 0.741789 -0.411738 -0.626241 0.763508 0.982870 -0.737827 0.540004 -0.902946 0.058552 -0.400898 -0.844210 0.109941 -0.481914 0.384549 0.425636 0.270782 0.574801 -0.817159 -0.870375 0.942026 0.434987 -0.594738 -0.029756 -0.810044 -0.372800 -0.630577 -0.276568 0.814505 0.685434 -0.734733 0.128300 0.427223 -0.146470 0.502059 0.190731 -0.163600 0.764231 -0.269264 -0.066546 -0.177217 0.329838 0.089244 0.932724 0.847924 -0.526207 0.358360 0.118706 -0.951406 0.541201 0.248331 0.990620 -0.023813 0.653593 -0.039135 0.166143 -0.719207 0.330288 0.889576 -0.904702 0.015722 -0.845157 0.223598 -0.557055 0.008372 -0.274343 0.633677 0.844772 -0.510112 -0.635587 -0.221774 0.312671 0.694251 0.867470 0.245395 0.542175 -0.658737 -0.396245 -0.339119 -0.610143 -0.855044 0.909212 -0.619523 0.121144 0.562805 0.341342 -0.712713 0.843598 -0.328370 -0.823137 0.938896 0.687352 -0.668295 0.162494 -0.869703 0.340078 0.888151 0.763974 0.184850 -0.621961 -0.871613 0.963076 0.690710 0.822637 0.830546 -0.063895 0.364812 -0.828191 0.539861 -0.974307 -0.438334 0.684817 0.934904 -0.057857 -0.194039 0.497709 -0.716515 0.093248 0.341307 -0.044886 0.270111 0.280203 -0.357534 0.601816 -0.557303 -0.227237 -0.058106 -0.669151 -0.463263 -0.873256 -0.291112 -0.334876 -0.910180 -0.600402 -0.512239 0.920366 0.335703 0.852574 -0.907825 -0.124436 0.878266 -0.346159 -0.439619 0.813171 0.595984 0.366342 0.310880 0.879469 -0.540410 -0.347813 -0.165416 0.729701 0.932390 0.477050 0.331517 -0.624913 -0.750187 -0.726590 -0.294064 -0.213450 -0.599846 0.414824 0.451674 -0.510026 0.814422 0.939435 -0.589660 0.150125 0.792008 -0.497485 -0.974311 0.670275 0.156357 -0.413930 0.483446 -0.247659 0.952412 -0.205674 -0.368190 -0.587997 0.446512 0.466394 -0.858297 0.378902 -0.056556 0.473220 0.753990 0.193256 0.746630 -0.540074 0.979806 -0.853216 0.874749 0.431480 -0.363242 0.689171 0.370915 0.047098 -0.160704 0.162923 0.549613 -0.135015 -0.166802 -0.294030 0.451055 -0.683356 0.458311 0.403467 0.110969 -0.909878 0.815470 -0.442518 0.556516 0.957173 0.936384 -0.500041 0.430393 0.690374 0.693216 0.177023 -0.849700 0.673022 0.323807 -0.974951 0.104501 0.960565 0.714220 -0.524584 0.007663 -0.446485 0.638339 -0.442724 0.418500 -0.528463 0.263245 -0.130445 -0.211819 -0.278443 -0.726978 0.899150 -0.188322 -0.911509 -0.543368 -0.631806 -0.954336 -0.606984 -0.131847 0.476057 -0.916610 -0.438632 -0.346920 -0.766310 -0.765610 0.976888 -0.741261 0.338892 0.937453 0.972958 0.814308 -0.054885 -0.473526 0.452647 0.502391 0.944974 0.924184 -0.234364 -0.185471 -0.287635 0.487193 0.087550 -0.388485 -0.701129 0.176041 0.068147 -0.332935 0.221705 0.461163 0.535218 -0.302237 0.544553 -0.903414 0.350843 0.778243 -0.669024 0.327731 -0.963018 0.669868 0.265183 -0.990060 0.484175 -0.789701 -0.463586 -0.063178 0.712690 -0.518612 -0.138994 -0.521674 0.295917 0.573370 0.965519 -0.616533 -0.815115 -0.735610 0.559508 0.253032 -0.068546 -0.218786 -0.285805 -0.533328 0.478976 -0.741251 -0.436742 -0.170181 -0.963008 -0.105766 -0.842450 -0.926026 -0.435898 0.422733 -0.916085 -0.951722 0.633032 -0.379671 -0.014900 0.345722 0.101717 0.846105 0.824048 -0.602367 0.419476 0.789566 -0.218900 0.604361 -0.946044 -0.659392 -0.142607 -0.014590 0.121822 0.571588 0.452082 -0.399202 0.830337 -0.984660 0.430617 0.867329 -0.090425 0.588167 0.941303 0.473677 0.010901 -0.974783 0.521954 -0.356067 -0.354454 -0.492946 0.989655 0.747263 -0.646841 0.813702 -0.855103 0.772635 0.603269 -0.074003 0.376996 0.657225 0.266605 -0.765611 -0.357365 -0.611573 0.805977 -0.905282 -0.010775 0.636314 -0.889942 -0.580157 0.503643 0.019633 -0.991990 0.444946 -0.506691 0.018911 0.470164 -0.984736 0.662844 -0.884290 -0.477682 0.652498 0.862973 -0.124523 0.466201 -0.992130 -0.351888 0.069469 -0.066133 -0.974892 -0.273306 -0.799528 -0.740502 0.369330 -0.411101 -0.934525 0.464047 0.578125 0.701789 0.574106 0.997967 0.205432 -0.406262 -0.994022 -0.349621 0.087047 0.024888 -0.879458 0.102311 -0.312268 -0.763748 0.624629 -0.659770 -0.900775 -0.499894 0.806431 -0.892905 0.148218 -0.124100 0.040962 0.173326 0.602595 0.241434 0.432824 -0.028075 0.830333 0.498299 -0.564028 0.408457 0.200088 -0.989923 0.406425 -0.594479 -0.396184 0.412403 0.055899 0.690863 -0.562709 0.176442 -0.206826 0.125023 0.412694 -0.582197 0.465253 0.511920 -0.082092 0.271684 0.619015 -0.933874 -0.852415 -0.340023 0.239453 0.750179 0.901410 -0.327723 -0.277896 0.731743 -0.829424 0.158076 0.140200 0.370664 0.168153 -0.453375 0.776184 0.771969 0.959028 -0.167916 0.462832 -0.603682 -0.991474 -0.743994 0.521341 0.421220 -0.326191 -0.013405 -0.066860 0.591717 -0.741721 -0.447846 0.657843 -0.594136 0.212131 -0.102704 -0.843957 0.113541 0.569573 -0.121853 -0.154716 0.740148 -0.963777 0.985484 0.110812 0.204376 -0.467891 -0.113004 -0.023655 -0.508863 0.719080 -0.560823 -0.112545 0.727606 -0.304817 -0.591204 0.148826 0.368991 0.395391 -0.918034 -0.039292 0.653670 -0.365880 -0.381448 -0.940466 0.846251 0.515848 -0.784423 -0.040208 0.085420 0.093724 0.805076 -0.174432 0.129947 0.790560 0.936380 -0.665677 -0.677331 -0.176623 0.310668 -0.186195 -0.457543 0.749845 0.701260 -0.729937 -0.554973 -0.889943 0.418889 0.814019 0.505448 0.500855 -0.225273 0.159118 -0.865025 0.393279 0.218652 0.981226 -0.090874 0.434229 -0.058982 0.994547 -0.472047 -0.253906 -0.179885 0.657899 -0.463347 -0.243505 0.992222 -0.140678 0.579872 0.302890 0.673128 -0.877671 0.052735 0.374388 -0.607607 0.497762 0.484445 0.811282 0.311781 -0.010107 0.312136 -0.913492 -0.850989 0.447111 0.479786 0.367663 0.428336 -0.611087 -0.198108 -0.630646 -0.616541 0.329844 0.115448 0.203574 -0.012257 0.652101 0.960070 -0.020035 -0.488577 0.539942 -0.717145 -0.815449 0.662272 0.335590 0.558939 -0.945336 -0.166648 0.043384 0.865946 -0.854868 -0.966724 0.178082 -0.768360 -0.817713 -0.374807 0.711426 0.549950 -0.946471 -0.899661 -0.648158 -0.577117 -0.516201 0.681686 0.538331 0.687373 -0.330571 0.190432 0.647443 0.649395 0.701855 0.187385 0.932250 0.886406 -0.150343 0.267840 0.445345 -0.095679 -0.898808 -0.511272 -0.229734 -0.753676 -0.477995 0.948348 -0.522036 -0.295708 -0.426459 -0.810609 -0.745758 -0.372930 -0.710270 -0.393916 0.049954 -0.226471 -0.712230 -0.411715 -0.539099 -0.042801 0.778717 -0.891656 -0.393407 0.480572 0.295729 -0.461157 0.366978 -0.854614 0.806683 -0.187677 0.049706 0.907875 0.301051 0.819973 -0.845801 0.823056 0.768321 -0.367837 -0.472652 -0.658138 -0.178446 -0.218410 -0.031067 0.111284 0.387674 -0.981113 0.884812 0.675444 -0.392828 -0.654286 -0.367357 -0.614111 -0.545942 0.239236 0.866461 0.749788 0.778080 0.233439 0.895173 0.584763 -0.954237 -0.055120 0.492638 0.346814 -0.235147 0.646836 0.169870 -0.466826 -0.721001 0.697218 -0.124964 0.100553 -0.521191 0.843969 -0.788163 0.866483 0.862855 -0.903351 0.541927 -0.529973 -0.557637 -0.825431 -0.144084 -0.103579 0.413806 -0.277623 -0.353791 0.191885 0.955816 -0.458618 -0.223352 -0.998421 0.486262 -0.730714 0.348393 -0.748885 0.916122 -0.481737 -0.215712 -0.804879 -0.784518 0.659324 0.295675 -0.305710 0.503293 0.507512 -0.439227 0.366149 0.604161 -0.897301 0.836176 -0.953476 -0.722731 -0.307909 -0.057054 0.691074 0.414468 0.589155 -0.117040 0.370284 -0.869463 0.659608 0.371863 0.616799 0.928893 -0.279744 0.867913 0.845015 0.238519 -0.347798 -0.959863 0.454001 -0.688474 0.335811 -0.851709 0.814820 -0.156677 -0.290936 0.180968 -0.552516 -0.188237 0.017144 -0.505991 0.089032 0.709235 0.436954 -0.219894 0.123703 0.026109 0.663065 -0.506013 0.156646 0.322673 0.865850 -0.226556 0.251566 -0.413895 -0.358642 0.096581 0.824624 0.293560 0.136718 0.278625 0.605086 -0.527471 0.426916 0.419905 0.315852 -0.864021 -0.399126 0.763337 -0.052258 0.618017 -0.742655 -0.963226 0.327252 0.694300 -0.183120 -0.549045 -0.279591 -0.520054 -0.055058 0.877054 0.802619 -0.189208 -0.349501 0.054185 0.396897 0.291857 -0.849234 0.221522 -0.414584 0.287484 -0.499853 -0.809498 0.760014 0.927063 0.610407 0.075866 -0.936958 -0.788719 -0.160797 0.010785 0.829298 0.096548 0.047559 0.156550 -0.209152 0.864439 0.607506 0.511256 -0.655616 -0.447552 0.388311 -0.852997 0.363240 -0.961190 0.201188 -0.239863 0.330666 0.351954 0.981659 0.916083 -0.360561 -0.518194 -0.893416 -0.600548 -0.591131 0.716992 0.475318 -0.528089 0.928273 -0.685480 0.482696 0.757571 0.411068 -0.469746 -0.085879 -0.798084 -0.605307 -0.478373 0.713172 -0.260922 0.074075 0.101483 -0.113920 -0.562685 0.140293 -0.912732 0.197452 -0.529041 0.439223 0.179111 -0.612958 -0.921339 0.660917 -0.506374 -0.521887 -0.930214 -0.789382 0.953431 -0.458303 -0.861110 -0.732049 -0.975607 0.896461 0.679020 -0.445352 -0.189418 0.880936 -0.050659 0.332209 0.594108 0.688418 -0.593716 -0.304409 -0.425501 -0.156401 0.835884 -0.338233 -0.958949 -0.693157 -0.899010 0.220162 -0.306116 -0.820349 -0.118920 0.187510 -0.342236 -0.049134 0.398128 -0.388805 0.492563 0.537019 -0.120854 0.516956 0.433480 -0.441834 -0.928396 -0.755938 -0.560898 0.020945 0.576271 -0.966790 -0.290637 0.982555 -0.271199 0.283862 -0.173846 -0.435315 0.945629 -0.132795 -0.128472 -0.953381 -0.912633 0.565413 -0.773730 -0.031553 -0.247077 -0.115967 0.919313 -0.848949 0.495228 0.411876 0.688070 -0.625626 -0.071168 0.121550 -0.067460 0.000437 0.365612 0.371642 -0.978619 -0.058117 0.404852 -0.269255 -0.075562 -0.866346 -0.985393 0.750593 -0.301661 0.960236 -0.382202 0.569867 -0.993145 -0.294835 0.135280 -0.766875 0.673612 0.888203 0.117158 0.592925 -0.960746 -0.387614 0.004801 0.727324 -0.013240 0.933633 -0.151127 0.919301 -0.065930 -0.785515 0.290943 -0.044549 0.156368 -0.304205 0.686196 -0.919194 -0.170551 0.700803 0.831399 0.527788 0.661040 -0.550803 0.097655 0.667895 0.154362 -0.767066 0.901020 -0.172026 -0.878863 0.018178 -0.579101 -0.839609 0.630564 0.425700 0.887715 -0.382675 0.359333 -0.263412 -0.463375 -0.706598 -0.048927 0.827568 0.248853 -0.892559 -0.476637 -0.064951 -0.811753 0.352812 -0.364147 -0.980353 -0.119400 -0.703108 -0.531156 0.978254 0.964787 0.623206 -0.788812 0.865807 -0.548820 -0.667675 -0.116015 -0.127921 -0.507284 -0.485450 -0.702221 -0.619569 0.131874 0.657111 0.117018 0.668500 0.950514 -0.931909 0.496068 0.199367 -0.824468 -0.980569 -0.865583 -0.636220 0.372243 -0.229731 -0.616574 -0.747157 0.067161 -0.147730 -0.768903 0.031949 -0.524524 -0.557715 -0.102244 -0.073344 -0.225390 0.781741 0.798735 0.267326 -0.703709 -0.903487 0.647757 0.428165 0.753625 -0.235225 0.096665 0.704139 -0.167133 -0.407267 -0.096494 0.008399 -0.387836 0.037922 0.372179 0.984407 0.808192 0.755605 -0.762750 -0.124647 -0.392125 -0.531654 0.907302 0.083351 -0.089368 -0.194943 -0.989994 0.685242 -0.413202 0.808741 -0.047432 -0.116911 0.905254 -0.399675 -0.688746 0.658879 0.365100 0.407919 0.363018 -0.802033 -0.999348 -0.733477 0.206366 -0.387184 0.304446 -0.421455 -0.402777 0.112637 -0.665850 -0.165527 0.987990 -0.057975 0.302819 0.895292 -0.974624 -0.786549 -0.299650 -0.964618 0.898693 0.287148 0.844123 -0.148739 -0.829763 0.749377 0.451586 -0.518508 0.408257 -0.183314 0.889411 -0.228726 0.014653 0.890063 0.037798 -0.778981 -0.497121 -0.657757 -0.200436 0.100102 0.454881 0.133714 0.934575 0.442871 -0.924261 0.237394 0.338163 -0.898885 0.450845 -0.961487 -0.863504 0.349537 0.325661 0.980619 -0.799202 0.495898 0.729997 0.652384 0.977390 0.138253 -0.530930 0.866800 0.909528 0.483724 0.756863 -0.052674 0.704743 -0.740258 0.289569 -0.495693 0.359843 -0.255550 0.638022 0.294418 -0.812679 0.713761 -0.468188 0.525485 0.814875 0.982656 0.563998 0.951371 0.332194 -0.110341 0.931991 0.532992 -0.614443 0.661988 0.185376 -0.637053 -0.199759 0.654446 -0.770253 -0.290231 0.138170 0.986610 0.657094 -0.157087 -0.753648 -0.053337 0.347221 0.606196 0.691113 -0.014758 -0.099386 0.878434 -0.300997 0.432425 0.403919 -0.486122 0.415082 -0.032083 -0.534751 -0.252724 0.857575 -0.602760 -0.719733 -0.756868 -0.940772 0.465643 -0.393921 -0.140531 0.120090 -0.164174 0.569238 -0.741740 -0.177564 0.226332 0.101173 0.068788 -0.827005 -0.551607 -0.325016 0.864109 0.433635 0.575597 0.742543 -0.867362 0.008022 0.146462 -0.353484 -0.576896 -0.885621 0.111765 0.170380 0.971954 0.509005 0.450647 -0.784914 0.568233 -0.083709 -0.178835 -0.572298 -0.963620 0.656991 0.996939 -0.705360 -0.520573 0.223271 0.395813 0.548215 0.396267 0.844206 -0.776802 0.260375 0.277841 0.798795 0.002918 0.410479 -0.193182 -0.850619 -0.943005 0.229922 -0.736241 0.168760 -0.599698 -0.764287 -0.322235 0.850949 -0.549200 -0.754002 -0.232760 0.271964 -0.326300 -0.196380 -0.071045 -0.329361 0.098260 0.408382 0.893910 -0.505927 -0.043403 0.290177 -0.661721 0.179795 -0.449448 0.616121 -0.021409 0.553470 0.026600 0.785409 0.702851 0.083595 0.015331 0.966610 -0.747644 0.415633 -0.797677 -0.069879 0.266582 -0.346877 0.176119 -0.966178 0.925088 0.849819 -0.162557 -0.145957 -0.479542 0.935703 -0.737575 -0.585632 -0.570224 0.219022 0.704545 -0.231944 -0.601183 -0.744903 -0.615824 0.377408 0.808567 0.410777 0.162816 0.511418 -0.505628 -0.821853 0.478028 -0.253272 0.593780 0.680352 0.676849 -0.139638 -0.666525 -0.147032 -0.105815 -0.741438 -0.297213 0.731628 0.112605 0.223245 0.667331 0.375030 0.637613 -0.902893 -0.405949 0.342158 -0.134837 -0.007132 0.597256 0.249339 -0.629724 0.405823 -0.339884 0.533092 -0.082759 0.154488 0.711239 -0.604730 0.901215 0.305020 -0.924379 0.578064 -0.834618 -0.590904 -0.568968 0.059567 -0.332341 0.133819 -0.208806 0.780264 -0.642937 -0.541475 0.155293 0.994677 -0.444368 0.749345 0.336835 0.420795 -0.257787 -0.065909 -0.329865 0.112489 -0.660086 0.330251 -0.354419 0.257155 -0.515262 -0.643179 0.652425 -0.614046 0.661840 0.728046 0.964018 0.827222 -0.862857 -0.604950 -0.113211 -0.195199 0.528868 0.677984 -0.414935 0.885932 -0.863491 0.740358 0.880609 -0.307859 0.489703 0.217444 -0.887063 -0.768084 -0.848465 -0.216929 0.344405 -0.508551 -0.886678 0.989986 0.748604 -0.401940 -0.653193 0.401029 -0.015986 -0.991353 0.129075 -0.051968 0.835869 0.266218 0.343082 -0.277342 -0.928981 -0.128049 -0.599358 -0.343917 -0.242117 -0.462850 -0.603559 -0.361508 0.229292 0.886144 0.855935 0.342228 -0.881940 -0.992530 -0.874700 0.462465 -0.501081 -0.761378 0.452451 -0.752478 -0.163318 0.799258 0.648551 0.820696 0.807904 -0.222374 -0.231271 0.643773 -0.956156 -0.888189 -0.633569 -0.885137 -0.016238 -0.232927 -0.229054 0.741645 0.304223 0.167387 -0.619864 -0.466485 0.053532 -0.763928 0.875743 0.171592 -0.756458 -0.998957 -0.365943 -0.257540 -0.760335 -0.913492 -0.010017 0.076347 0.885765 -0.361466 -0.102957 0.693670 0.416160 0.665772 0.337443 0.460004 0.777583 0.703874 0.574866 -0.238655 -0.529053 -0.654188 -0.497010 0.775170 0.513200 -0.116873 -0.691315 -0.433268 0.119198 -0.815571 0.738323 0.362740 -0.814528 -0.627620 -0.894800 -0.574863 -0.541112 0.095183 0.501484 -0.655347 0.733717 -0.601473 -0.961677 0.149877 -0.935701 0.375766 -0.390119 0.841882 0.079640 -0.815253 -0.396772 0.550587 -0.469441 0.106218 0.325757 -0.956241 0.989345 0.634443 -0.389509 0.108543 0.818871 -0.651186 -0.528717 -0.995657 -0.278806 -0.423517 -0.570520 0.180082 0.671667 0.930964 0.524736 0.405383 -0.670510 0.563059 -0.444740 -0.606211 -0.061176 0.165141 -0.764328 -0.981536 0.349888 -0.161101 0.569051 0.880448 0.945117 -0.105192 0.924207 0.934462 -0.470749 -0.465302 0.043005 -0.651877 -0.116488 0.514288 -0.647534 0.604706 -0.909229 -0.218054 -0.215211 0.762438 -0.287090 -0.690475 0.167821 0.042400 0.872583 0.723081 0.436190 -0.188592 -0.111777 0.671861 -0.170128 -0.761889 -0.489239 -0.601077 -0.881441 -0.544122 0.293732 -0.957234 -0.609660 0.822983 -0.422537 0.433345 -0.828894 0.460975 -0.052368 -0.476428 0.065682 0.038404 0.305518 0.850471 -0.199159 -0.981573 -0.840005 0.968662 0.060828 -0.967421 0.691744 -0.502983 -0.156013 -0.420034 -0.831121 0.673859 -0.181923 -0.320360 -0.927218 -0.063364 0.135518 0.366514 -0.020598 0.525858 0.189497 0.556865 -0.040797 0.360602 0.017841 0.906835 0.884174 -0.916478 -0.054761 0.189692 0.933993 0.746080 0.208119 -0.906012 0.714742 -0.731053 -0.873433 0.406486 -0.234036 -0.029446 0.986453 -0.065157 -0.355588 -0.195470 0.614483 -0.282806 0.741166 -0.250000 -0.916292 -0.279432 -0.724142 0.273205 -0.722567 0.235061 -0.366193 0.295274 0.141896 -0.482019 0.378796 -0.912865 0.707672 0.312789 0.833215 -0.084209 0.406778 0.547957 0.184738 0.533345 -0.045557 0.950702 -0.496102 -0.059104 -0.114455 0.148311 0.745426 -0.499972 0.865505 0.486592 0.250028 0.949213 -0.792841 0.525887 0.222418 -0.515407 -0.239052 0.856224 0.779866 0.902844 -0.625795 0.158663 0.989979 -0.918123 -0.528548 0.823193 -0.002331 0.878229 0.371150 -0.817593 0.411574 -0.674406 -0.866891 0.915473 0.266489 0.018654 0.063783 0.011915 0.518682 -0.070712 -0.501494 -0.231289 -0.121499 -0.294334 -0.705402 -0.899081 0.190258 0.055546 0.957143 -0.029875 -0.041610 -0.668652 -0.871213 -0.051632 -0.586774 -0.399761 -0.228438 0.410894 -0.521532 -0.857288 0.593301 0.890043 -0.531694 0.726410 0.805515 0.734795 -0.254935 -0.130701 -0.253290 -0.736253 0.798587 0.245216 0.032458 -0.322912 0.950882 0.327056 -0.221993 0.141140 -0.617399 -0.264850 -0.888735 0.340991 0.066499 -0.759948 -0.710641 0.479724 -0.159709 0.060921 -0.109381 0.318760 0.203633 -0.516080 0.208802 0.671939 -0.789670 0.014318 0.406734 -0.044605 0.883616 -0.846557 0.219142 0.682203 0.398659 -0.748400 -0.640709 0.349541 0.578656 0.137298 -0.509318 0.961257 0.872448 -0.398053 0.302248 -0.061053 -0.158001 0.591607 -0.581329 0.682290 -0.347472 0.309290 0.001050 0.856161 0.793210 -0.790148 0.528100 -0.996460 0.224170 -0.065166 -0.041064 0.107786 0.088277 -0.821922 -0.210011 -0.513063 -0.570322 0.149280 0.836478 -0.991665 -0.713422 -0.672840 0.969592 -0.840974 -0.070894 0.271840 0.097972 0.771105 -0.136552 0.516643 0.453395 0.515976 -0.174067 -0.545555 0.372137 -0.380857 -0.335703 -0.099763 -0.377316 0.888467 0.835071 0.581619 -0.003747 -0.076651 0.759697 0.786242 0.410285 -0.810624 -0.064478 0.246764 -0.802290 0.222100 0.573923 -0.832697 0.381126 -0.496970 0.439143 -0.520902 -0.725865 -0.697409 0.995741 0.727530 0.818566 -0.178325 -0.818025 0.190704 0.440818 -0.153728 -0.909059 -0.936499 -0.265261 0.926012 0.645121 0.730992 -0.150639 0.404818 0.517233 -0.740354 0.594194 -0.547245 0.506410 0.791904 0.674855 0.080333 0.959206 0.055981 0.583363 0.398349 0.535079 0.857498 0.700940 
0.530820 0.585028 0.519506 -0.647505 0.767003 -0.289790 0.793312 -0.386725 -0.198849 0.856814 0.348013 -0.272837 0.501934 0.079005 0.576524 -0.093248 -0.403761 0.836170 -0.499054 0.048994 0.342580 -0.707151 -0.276151 -0.577087 -0.747944 0.779830 -0.993724 0.650405 0.314909 0.863774 0.351345 -0.154271 0.448801 -0.129148 0.198223 0.215804 0.581062 -0.008464 0.829079 -0.617787 -0.151650 0.177092 0.109376 -0.649716 -0.743903 -0.314101 0.257036 -0.147664 -0.477930 0.757981 0.901330 0.864649 -0.949169 -0.374821 -0.712438 -0.697113 -0.594991 -0.706162 0.953292 0.719918 -0.842389 0.304637 -0.434353 0.606413 -0.824511 0.763870 -0.177783 0.756550 -0.244594 -0.348704 -0.861237 0.603755 0.828388 0.248139 0.954039 -0.915514 0.934038 0.211075 -0.063178 -0.543892 -0.030944 -0.161848 -0.679243 0.019887 0.463331 -0.391681 0.322773 0.868340 -0.097843 0.276065 0.588258 0.059768 -0.419297 -0.846095 -0.333819 -0.243809 0.917775 0.488398 -0.487258 -0.326819 -0.860306 -0.348495 -0.723064 0.968082 0.899643 -0.769024 -0.947432 0.833682 0.442051 -0.010610 -0.710211 -0.588893 0.827542 -0.389454 0.430994 0.290873 0.218865 -0.246233 0.159213 -0.878978 -0.970168 -0.252529 0.180790 -0.389465 -0.098624 0.846971 0.366726 -0.180849 0.335370 0.879468 0.492332 0.475064 -0.469027 0.769268 0.443146 -0.569384 -0.999756 0.495714 -0.735702 0.442294 -0.514896 -0.445913 0.853401 -0.687355 0.164633 0.284395 0.603518 -0.616502 -0.961838 -0.237269 -0.495480 -0.932006 0.510202 0.685310 -0.321471 -0.588421 0.532282 -0.954744 0.230730 -0.132349 0.924724 -0.276938 -0.657285 -0.544303 -0.507670 0.785861 -0.113687 -0.507426 0.281575 0.150611 0.934869 0.766678 0.704698 0.788270 -0.920676 -0.130669 0.072664 0.682841 0.252829 0.110826 -0.554428 0.757349 0.178821 0.955775 0.442660 0.857350 -0.632647 -0.025058 0.902606 0.598083 0.842593 0.827330 -0.678855 -0.814692 -0.716974 -0.186525 0.971169 0.169339 0.306049 0.252744 -0.680050 0.240918 0.019422 -0.975352 0.029188 0.098746 -0.106022 -0.898148 -0.218413 -0.853193 0.212678 0.227160 0.904157 -0.608501 0.182934 0.346816 -0.751151 0.550288 -0.678242 -0.848545 0.148371 -0.835649 0.978784 0.469516 -0.650341 -0.738189 -0.717009 -0.679172 0.431150 0.589041 0.573572 0.751100 -0.170041 -0.407006 0.775747 0.859146 0.691739 -0.330274 0.960998 -0.526674 -0.183467 0.173677 0.700486 -0.279310 0.565176 -0.116580 -0.932494 0.814025 -0.566292 -0.610736 0.965480 0.582079 -0.446385 0.944265 0.051595 -0.096726 -0.793925 0.334586 0.224102 0.637225 -0.076373 -0.202327 0.388325 0.753585 0.390667 0.164072 0.612732 0.082406 0.833797 0.573730 0.555732 -0.349670 -0.252593 0.256218 0.371020 -0.687417 -0.860362 0.438526 -0.873392 -0.426654 0.827790 -0.907912 -0.844575 -0.618595 -0.963647 0.207020 0.284679 -0.757572 -0.458394 -0.491220 0.879653 0.465233 0.306454 0.267977 0.218818 -0.302879 -0.567951 -0.168450 0.779527 -0.734154 -0.594720 0.335259 -0.083823 0.152686 -0.408523 -0.712803 0.465269 -0.268885 0.725723 0.591877 0.304461 0.553512 0.683965 0.459886 0.934917 0.720317 -0.333094 0.219596 0.962745 0.208511 0.728376 0.842398 -0.326256 0.034830 0.110375 0.892562 0.731951 0.542424 -0.275888 0.511478 0.808271 0.129391 -0.153263 -0.275552 -0.717923 0.438214 0.011644 0.747347 -0.830670 -0.262633 0.339223 0.473791 -0.709121 0.023188 -0.066323 -0.774204 -0.256494 0.600582 0.445392 -0.293749 -0.190906 0.173768 -0.451351 0.482838 -0.791402 0.659024 0.375400 0.940548 0.201448 -0.900489 0.452026 0.009718 0.228903 -0.701237 0.734166 0.510980 0.736977 -0.254190 0.258327 0.906307 0.483177 -0.402450 0.380098 0.774057 0.620738 -0.686225 0.999853 -0.635756 0.914357 0.445245 0.070495 -0.276549 -0.380987 0.619144 -0.793711 -0.172390 0.278167 0.581688 -0.231841 -0.520385 0.681200 -0.779815 0.489333 -0.089897 -0.481052 0.223499 -0.578917 -0.744075 0.969310 0.679409 -0.837768 0.452487 -0.723041 0.542330 0.226544 0.897698 0.856105 0.226397 -0.738058 0.770463 -0.328359 0.332437 -0.506087 0.290654 -0.048420 -0.299798 -0.881736 -0.770252 -0.718110 -0.113577 -0.290638 0.963090 0.106608 -0.801304 -0.126807 0.625555 0.422195 0.294276 0.881481 0.391505 -0.026315 -0.956287 -0.156009 0.250644 0.586043 -0.929465 0.148342 0.442149 0.296932 0.410284 0.212611 0.968573 -0.257279 0.706525 0.259227 0.694302 -0.593273 0.377492 0.924049 -0.311383 -0.736085 -0.366588 -0.348293 0.370523 -0.167893 0.524900 -0.003922 -0.745698 -0.180824 -0.122441 0.645807 0.792861 -0.078729 -0.510201 0.043505 -0.492685 -0.439666 -0.808153 0.949464 0.857265 0.602131 0.162075 0.825838 -0.655148 -0.131401 0.085065 -0.960846 0.275326 -0.537443 0.963203 0.963943 -0.273528 -0.403385 -0.384350 -0.903006 0.428722 -0.859450 0.093072 0.683025 -0.040274 0.970631 0.328832 -0.247413 -0.108098 0.818630 0.796092 0.399217 -0.621036 0.987939 0.348681 -0.763771 0.590070 -0.489245 -0.937933 0.934923 0.379355 0.147132 0.974077 -0.345319 0.609689 0.937280 -0.381376 -0.663839 -0.466105 0.234274 -0.566845 0.962617 0.374825 0.526227 0.645642 -0.665449 0.496858 -0.025526 0.087138 -0.611240 -0.206896 -0.116770 0.787977 0.172068 -0.128832 0.136657 0.408298 -0.538761 0.647413 0.470365 -0.603839 0.026767 -0.382503 -0.629762 0.681448 -0.772814 -0.692482 -0.699928 -0.436653 -0.158587 0.534346 -0.003498 -0.195970 -0.090830 -0.477271 -0.550328 0.243721 -0.980413 0.424146 -0.669141 -0.591653 -0.782750 0.214088 -0.803676 0.389319 -0.914743 0.332981 -0.202384 -0.453504 -0.019606 -0.732019 -0.057343 -0.992839 -0.114522 0.312895 0.688609 0.112664 0.620413 0.988681 0.676012 -0.538174 0.523027 -0.327486 0.265856 -0.567803 0.195243 0.715528 0.675918 0.214830 0.139675 -0.993223 0.623177 0.356925 0.220866 0.819501 -0.253756 0.306123 0.152481 0.543860 0.852618 -0.867125 0.811841 -0.204725 -0.859964 -0.302681 -0.891829 0.828645 0.809983 0.728584 0.817326 0.485995 -0.809590 0.340352 -0.841491 0.456266 0.772549 0.353751 0.171795 0.448468 -0.431419 -0.688531 0.455245 -0.808242 0.668394 -0.323889 -0.988741 -0.585362 0.982233 0.163740 0.958498 0.834852 0.296615 0.770339 -0.369873 0.436651 -0.532342 -0.261702 0.265296 -0.722359 -0.533118 0.082622 0.763636 -0.342708 -0.577025 0.922145 -0.886442 -0.804476 0.275896 0.285353 0.643992 0.844478 0.596822 0.099237 -0.963764 0.265217 0.775348 -0.952505 0.679855 0.757581 0.211235 0.638353 0.592433 -0.492150 0.408692 -0.777440 0.944502 0.876350 -0.039142 0.209798 -0.846009 0.427740 -0.707579 0.917627 -0.914968 -0.284605 0.839772 -0.801410 -0.089080 0.115668 0.483944 -0.445089 -0.039854 0.080766 0.654148 -0.003618 -0.654017 0.429496 0.043876 -0.974163 0.187077 -0.744889 0.664190 -0.220490 -0.237038 0.072882 0.002070 -0.292537 -0.050769 0.962929 0.917262 0.103222 0.390669 -0.790318 0.020849 0.475701 -0.074922 -0.139379 0.674291 0.835997 0.976289 0.158235 -0.609091 -0.063565 -0.760999 -0.954943 0.932816 -0.415017 0.474553 -0.023307 -0.389179 -0.338370 0.231804 -0.724989 0.441140 0.994766 0.347893 -0.556790 -0.297771 -0.702876 -0.593862 -0.380509 0.400346 0.796807 -0.170827 -0.578805 0.272508 0.754251 0.281816 -0.053201 0.590248 0.258106 -0.894966 0.981156 -0.805460 -0.655965 -0.973787 -0.872643 -0.070982 0.500766 0.104049 0.539839 -0.837604 -0.664147 0.814850 0.603535 -0.669381 0.162743 -0.953255 0.032848 0.459866 -0.547117 0.652339 -0.139788 -0.750309 -0.518488 0.281408 0.522199 -0.764238 -0.436776 -0.531002 0.826010 0.821330 -0.425968 0.807167 -0.984130 -0.081933 0.833380 -0.856773 0.847085 0.334146 0.247276 0.386924 0.496542 0.583129 0.201774 0.100077 0.913748 -0.635483 0.146822 -0.053404 0.824383 0.599705 -0.401066 -0.315404 0.849396 0.080446 0.966004 0.371595 0.316208 -0.470772 0.840593 0.142218 -0.649443 -0.585376 -0.050615 -0.633572 0.332691 -0.217235 -0.490346 0.179776 -0.883089 0.756930 -0.433299 0.613453 0.340060 0.768475 -0.286470 0.253808 -0.867008 0.860352 -0.799596 0.957375 0.460057 -0.200662 -0.358029 0.309453 0.879784 -0.392025 -0.318952 0.195992 0.137203 -0.478360 -0.661789 0.487760 -0.063735 0.287596 0.854188 -0.731044 -0.929639 -0.636158 0.448732 -0.812728 -0.879227 -0.984567 0.800725 0.460832 0.783908 -0.485745 -0.285360 0.916900 -0.625393 -0.084956 0.874275 0.834664 0.714382 -0.483754 0.144117 0.594167 0.124221 0.825165 -0.209841 -0.738576 -0.653195 0.128370 0.749184 0.283070 -0.584034 0.603372 0.552026 -0.513673 0.967214 0.000758 -0.326400 -0.912013 0.016191 -0.525675 0.548819 -0.199901 -0.011420 -0.736541 -0.283002 0.363186 0.178503 -0.408727 0.197850 -0.107114 0.107520 -0.658033 -0.512948 -0.768259 -0.832868 0.277211 -0.506835 -0.486062 -0.594419 -0.757650 0.797008 -0.178453 0.845722 0.349034 0.307875 0.812936 -0.650208 0.981474 0.900923 0.365983 -0.544201 0.449742 -0.833918 0.444379 0.713202 -0.116920 -0.192435 -0.108295 0.474354 -0.994585 0.784591 -0.418126 -0.652618 -0.728357 -0.186385 -0.485485 0.548855 0.306780 0.028452 0.954436 0.549130 -0.174540 -0.224017 0.394853 -0.825506 -0.916142 0.207789 -0.475714 -0.934668 0.108712 0.890269 -0.478869 -0.441546 -0.943649 0.965509 -0.728344 -0.060568 -0.226926 0.163361 -0.586214 -0.221511 -0.052048 -0.004341 0.125871 0.219595 0.809274 0.640386 -0.231550 0.116055 -0.331162 -0.277114 -0.334815 0.494298 0.498869 -0.939962 0.668792 0.582726 0.267827 -0.806922 0.648058 -0.623461 -0.916652 -0.830812 -0.065007 -0.860301 -0.865302 0.206649 0.079131 -0.092228 -0.629990 0.492917 0.686261 0.317962 -0.511424 -0.187868 -0.462442 -0.702150 -0.547482 0.306007 0.413905 0.121356 -0.971107 -0.920909 -0.384346 0.527762 -0.860872 -0.715554 0.110488 0.406955 -0.522476 -0.241454 0.783494 -0.439128 -0.072266 -0.281513 -0.299429 0.062432 0.925137 0.779702 0.970203 -0.704853 0.272618 0.656464 0.613109 0.761194 -0.531404 -0.849333 -0.940955 -0.078886 0.456675 0.472950 -0.957530 0.485568 0.552041 -0.341876 0.013329 0.691169 -0.057431 -0.876183 0.098124 0.420093 -0.117638 -0.118382 0.980965 0.810096 0.600105 -0.318464 -0.127472 0.525242 -0.538763 -0.157269 0.820389 0.733856 -0.500804 0.433498 0.495050 -0.032208 0.584165 0.554095 0.888905 0.040840 0.027045 0.931375 -0.473592 -0.420915 -0.410501 0.539737 -0.729745 0.532068 0.663554 0.368379 -0.047839 -0.454084 -0.750003 -0.066874 -0.643988 0.850102 0.614662 0.228540 0.375344 -0.924101 -0.928728 0.195733 0.809755 -0.429533 -0.370768 0.304805 0.538259 -0.786603 -0.141100 0.427164 0.254237 0.885945 0.358539 0.780645 -0.534970 0.948038 0.320381 -0.264715 0.480106 -0.016065 -0.896337 -0.567733 0.529851 -0.646340 0.365394 0.885863 -0.796237 -0.019944 0.114404 0.579107 0.055955 0.185676 -0.225160 -0.134290 0.756143 0.404072 -0.829485 0.294402 0.617469 0.029415 -0.278434 -0.128294 -0.084641 -0.919894 -0.347649 0.380389 -0.971857 0.972732 -0.884326 0.508249 -0.043333 -0.780663 0.940517 -0.513483 -0.427003 0.305910 -0.627620 -0.223240 -0.714034 0.486784 -0.644133 0.341921 -0.327540 0.130707 -0.792369 -0.571397 -0.465221 -0.621854 0.723005 -0.847752 0.407561 -0.555429 0.023954 -0.677080 -0.475324 0.676305 0.703309 -0.447180 0.649037 0.818983 -0.938931 -0.394296 -0.961680 -0.998414 0.092221 -0.388682 0.307496 0.464601 0.388078 0.593463 -0.048615 0.743945 -0.064616 0.623845 -0.125348 0.143016 -0.947553 0.409431 0.521162 0.775452 0.561679 -0.071277 -0.779977 -0.414367 0.251643 -0.255301 -0.738062 -0.045047 0.297519 0.910975 -0.226064 0.358588 -0.483321 -0.187744 0.360174 0.608899 0.423574 -0.332330 0.073501 -0.188349 -0.738867 -0.975114 -0.444404 0.196517 0.648731 0.430248 -0.660467 0.701179 -0.160321 0.860695 0.476631 -0.598642 -0.210582 0.696653 -0.013009 -0.958939 -0.558648 0.248929 -0.003986 0.738871 0.159904 0.769949 0.097459 0.676583 -0.417794 -0.542367 0.285483 -0.994221 0.125303 -0.641017 -0.182569 0.386436 -0.616130 0.373027 -0.417046 -0.967399 -0.196726 -0.077514 0.733779 0.642953 -0.216819 0.210410 -0.955690 0.572599 -0.092937 0.031302 0.613660 0.348416 -0.719769 -0.390326 0.087287 0.440135 -0.620377 -0.815254 0.116718 -0.038171 -0.357621 -0.597799 -0.032392 0.767683 -0.238816 0.785039 0.154119 0.145054 0.158066 0.737073 0.177655 0.961340 -0.340441 -0.088566 0.604293 0.442740 -0.878155 0.648603 0.015339 0.028908 -0.320096 -0.371001 -0.622676 -0.039865 0.238673 0.464611 -0.599729 0.618296 0.649357 0.516989 -0.419875 -0.708264 0.919190 0.547734 -0.940581 -0.319625 0.332773 0.213538 0.825429 -0.509162 -0.049389 0.003084 -0.547822 0.610170 0.914518 -0.943529 0.052910 -0.963637 0.705073 -0.931750 0.065271 -0.615022 -0.302751 0.442594 0.345113 0.935922 -0.092795 0.745384 0.554219 -0.443438 0.262373 -0.865656 -0.151701 0.181563 0.682078 -0.092282 0.861938 0.014850 -0.878744 0.687367 0.505688 0.071867 -0.309549 0.957867 -0.317963 -0.395031 -0.985663 0.734948 -0.358668 0.719411 0.803197 0.706602 -0.895611 -0.499553 0.149197 0.449502 -0.563631 -0.943598 0.194886 0.990588 -0.387035 -0.542741 -0.875068 0.461264 0.638822 0.807009 -0.631019 0.500760 -0.178140 -0.509762 0.188127 -0.672452 0.562105 0.878578 -0.714585 -0.755858 -0.516453 -0.700248 0.979090 0.124879 -0.980838 0.782287 -0.168519 -0.876449 -0.717266 0.980678 0.573053 -0.280897 -0.962920 -0.232062 -0.290309 -0.349956 0.225197 -0.165378 -0.888692 -0.135981 -0.358368 -0.519711 -0.635221 0.463491 -0.029473 0.552906 0.791039 -0.467368 0.431484 -0.923546 -0.223226 0.915031 -0.623794 -0.244137 0.039910 -0.604632 -0.461850 0.871390 -0.481081 -0.179116 0.852068 -0.908029 0.539987 0.889148 -0.140090 -0.750322 -0.460808 -0.914894 0.084300 -0.349500 -0.050875 0.725932 0.130789 0.313904 0.189423 -0.898684 -0.133189 -0.019537 -0.366052 -0.701705 0.056916 0.410722 -0.786674 0.433122 -0.833415 0.253236 0.828490 -0.295264 0.124626 -0.652591 0.525620 -0.023306 -0.560620 0.065607 -0.134158 0.299290 0.315284 0.405034 0.384396 -0.600415 -0.944466 -0.666479 -0.874483 0.186323 0.647426 0.314940 0.287640 -0.485764 -0.704597 0.921588 -0.187469 0.352319 0.332310 0.025857 -0.214559 0.498895 -0.720907 -0.386069 -0.796369 0.403719 -0.038660 0.729251 -0.619587 0.400720 -0.205142 0.246255 -0.299990 -0.889858 -0.348711 -0.915594 -0.490273 -0.293177 -0.582073 -0.364756 0.893146 -0.934647 0.950184 0.180786 -0.420411 -0.754414 0.102374 0.392120 0.597905 -0.565315 -0.582022 -0.616654 0.933580 -0.302930 -0.002723 -0.862789 -0.899211 0.958617 0.866462 -0.518798 0.359338 -0.338680 0.727457 -0.940653 -0.228538 -0.621254 -0.856247 0.281189 0.085569 -0.438319 0.916433 -0.021284 -0.372966 0.866616 -0.840498 0.206623 -0.887797 0.261876 -0.401257 0.710108 0.696561 0.016721 -0.906546 0.630141 0.713791 0.090731 0.767352 0.814581 0.049349 0.633815 -0.704217 -0.591314 -0.704865 -0.976760 -0.531966 0.066597 -0.598014 -0.388213 -0.652214 0.487556 0.173468 -0.735781 -0.533729 0.800502 -0.869164 -0.374227 0.007125 -0.756962 0.887650 0.605868 0.953146 0.584211 -0.377411 -0.953400 0.214352 -0.663620 0.137332 -0.018296 -0.849039 -0.813320 -0.384481 -0.553257 -0.404633 -0.089347 -0.530017 0.063401 0.977250 -0.128030 0.675188 -0.674963 -0.640475 -0.151344 -0.410744 -0.174204 -0.350842 -0.279908 0.451570 0.656282 -0.036870 0.339219 0.262150 -0.083724 -0.076570 0.884739 -0.037124 -0.862218 -0.778881 -0.899793 0.119486 -0.627921 -0.713112 0.735005 -0.181177 -0.117745 -0.354342 0.288806 0.945655 -0.377091 -0.839224 0.620843 -0.052054 -0.479699 -0.530501 0.537202 0.346097 0.118656 -0.742707 -0.202333 -0.225062 0.220423 -0.863114 -0.962911 -0.863301 0.060316 0.921828 0.099575 0.198098 -0.857053 0.199782 -0.682416 -0.484974 0.486670 -0.947411 0.333849 -0.631075 -0.301752 -0.377345 -0.685420 0.321156 -0.216569 0.935423 -0.730898 0.303731 -0.595079 0.806304 -0.350172 0.523578 -0.936403 0.447495 -0.701484 0.284020 0.584381 -0.664395 0.420719 -0.355303 -0.742568 -0.479706 0.842794 -0.599621 0.720076 -0.839621 -0.084595 0.206746 -0.787032 -0.750746 0.575671 -0.088785 -0.128091 0.890251 -0.767628 0.655339 0.825673 -0.498526 -0.040930 -0.769405 -0.692223 0.608899 0.754172 -0.628626 0.056393 -0.947312 0.655394 -0.359226 -0.611707 0.076112 0.285471 -0.354275 0.596406 0.128265 0.046104 0.316482 0.288644 0.961509 -0.476772 0.501611 -0.789238 -0.901101 -0.587173 0.082671 0.989150 -0.354802 -0.261990 0.814823 0.146672 0.697080 -0.954583 0.454450 0.305979 0.799590 0.825824 -0.637628 0.852278 0.481217 0.003146 -0.759429 -0.442670 -0.711383 -0.113704 -0.846264 0.416882 0.932400 0.470218 -0.294474 0.893908 0.993446 -0.792863 -0.895329 -0.907655 -0.380036 0.187342 -0.918506 0.265162 0.925352 0.896317 -0.588166 0.622432 0.941734 0.866284 -0.071589 0.741324 0.692108 0.290783 0.593602 0.173325 -0.706070 0.834172 0.730655 -0.417453 -0.279532 0.884391 0.999429 -0.347132 0.354609 -0.295046 -0.453224 0.348054 -0.087909 -0.348553 0.440399 0.532054 0.838788 0.521893 -0.202783 0.764140 0.418210 0.209051 0.386572 0.359945 0.075335 -0.685017 0.101269 -0.232557 0.605767 -0.305130 0.940768 0.899696 -0.470957 0.671423 -0.517757 0.249510 0.555814 -0.518329 0.902378 -0.089577 0.186625 -0.550846 -0.741523 -0.901284 0.100601 0.698876 0.630771 -0.060611 0.220769 -0.572013 -0.296471 -0.361020 0.637038 -0.909899 0.998924 -0.287627 -0.594915 0.100193 0.479816 -0.989149 0.795063 0.420584 0.910548 -0.675894 0.092008 -0.607209 0.573616 -0.352178 -0.125538 0.475994 0.558245 -0.938913 0.925148 0.816722 -0.840196 0.025748 0.515598 0.790575 0.965137 -0.263632 -0.781438 -0.331334 0.375347 0.855600 -0.241232 0.374271 -0.432026 0.163853 -0.525536 -0.952210 0.174704 -0.730473 0.468375 0.085251 -0.406367 -0.439618 0.478042 -0.832751 0.208205 -0.647496 0.643243 -0.233550 -0.586409 0.568391 -0.416828 -0.426605 -0.405861 -0.901230 -0.636030 -0.440723 -0.164862 -0.417468 0.227943 -0.789515 -0.561868 0.986711 0.584757 0.006106 0.150564 -0.940779 0.053896 -0.674733 -0.671252 -0.477729 0.410519 -0.077619 0.082653 -0.111439 0.089630 -0.709142 0.241065 -0.267127 0.057308 0.654656 -0.698736 0.640480 -0.771948 -0.104597 0.739250 -0.407979 0.454680 -0.425611 0.174553 -0.317377 -0.215126 0.612686 -0.330666 -0.630369 -0.381208 0.819898 -0.571149 0.672689 -0.854835 -0.242401 -0.805040 0.555684 0.679980 0.277613 -0.555755 -0.230390 0.568471 0.685310 0.502483 -0.374221 0.339967 0.803746 -0.733741 0.568018 -0.300851 -0.994491 -0.839960 -0.846171 -0.420102 0.334593 -0.163548 0.364772 -0.052721 0.505786 0.734402 0.566072 0.325684 -0.836746 0.238760 0.470850 -0.079147 0.433720 0.026534 -0.399167 -0.288667 0.470779 0.370443 -0.720196 0.156090 -0.127074 -0.094417 -0.503944 -0.323328 0.171842 -0.935925 0.375821 0.177352 -0.775885 0.529650 0.757250 0.558708 -0.633898 0.122021 -0.494013 0.871889 -0.143576 -0.927941 0.197573 0.019677 0.310819 -0.331578 0.940531 -0.255461 0.694956 -0.458636 0.455872 0.165736 0.911807 0.735676 -0.678175 -0.215267 -0.358741 -0.182119 0.461405 0.813101 -0.118044 -0.162773 -0.009547 0.106071 -0.633123 -0.252298 -0.335221 -0.267020 0.869724 0.170766 -0.395132 -0.273853 0.242824 0.802441 0.745825 -0.446357 -0.529136 0.686355 0.298182 -0.834180 -0.772281 -0.245946 0.331556 -0.860474 -0.510270 0.653381 -0.075740 0.130989 -0.528738 -0.614335 -0.055910 0.353218 0.222892 0.934543 -0.540711 0.589769 -0.317755 0.124068 -0.677252 -0.448031 -0.705167 -0.072383 0.278116 0.537658 -0.269942 0.023941 -0.908699 0.200922 -0.289704 0.389484 0.366742 -0.061984 -0.856463 -0.301702 0.077542 -0.366733 -0.648322 -0.998198 0.764256 -0.177059 -0.612533 -0.291654 -0.823841 0.610359 -0.357111 -0.364552 0.200128 0.325134 0.759516 0.522876 0.877103 -0.945651 -0.549507 0.155219 0.592007 0.180551 -0.820840 0.683308 -0.618527 -0.110543 0.072792 0.748215 0.827472 0.216329 -0.553487 -0.094986 0.849596 -0.201809 -0.093184 0.613852 0.621132 0.294283 -0.677802 0.797291 -0.095358 -0.034913 -0.567261 -0.895231 -0.709780 -0.807745 0.627645 -0.832677 -0.753396 -0.921862 0.322542 0.838610 0.258689 0.501702 0.521918 0.640162 -0.608841 -0.405290 0.388377 -0.781369 0.811039 0.834890 0.123646 0.660635 -0.366919 -0.969538 0.274487 -0.745787 0.324745 0.596685 -0.948496 -0.770614 -0.438228 -0.515757 -0.665844 -0.148008 -0.323502 0.961801 0.019315 -0.076899 -0.960061 -0.658143 -0.238288 0.298628 0.843560 -0.716370 -0.061209 -0.765282 -0.121660 -0.672832 -0.546650 -0.310621 -0.837942 0.576995 -0.649986 -0.204861 0.607457 0.624501 0.049352 -0.067798 0.221186 0.100857 0.161588 0.782958 0.585100 0.495744 -0.365050 -0.738403 0.457545 0.654265 0.184699 0.497484 0.996122 0.946410 -0.203888 0.839682 -0.769960 0.734903 -0.925600 0.108380 -0.937929 -0.472250 0.797759 -0.775871 -0.895255 -0.852227 0.019268 0.712202 0.772274 -0.931380 -0.355596 -0.006540 0.169477 0.805992 -0.223582 -0.245424 0.301735 0.411368 0.016174 -0.240720 0.065633 -0.799128 -0.743237 0.061755 -0.852717 0.052875 -0.098563 -0.622677 -0.212222 -0.024162 0.485703 -0.150151 0.503588 0.283462 0.073977 0.608333 0.431234 -0.906755 0.320535 0.203508 -0.838135 0.964938 -0.803032 0.331342 0.770930 -0.026614 -0.914081 0.072665 -0.615247 0.102092 0.831945 0.450386 0.302965 -0.911292 -0.487858 0.450248 0.141583 0.413579 0.827570 0.929361 -0.610583 0.313273 -0.220790 0.893004 -0.403265 0.853187 0.501337 -0.972031 0.946432 -0.178128 0.231477 -0.891702 -0.213190 0.428445 0.439640 -0.442260 -0.598170 0.525558 0.630405 -0.213416 -0.372349 0.462350 -0.763030 0.930616 0.551058 -0.250888 0.380863 -0.307359 -0.837309 0.208434 -0.377998 -0.447893 -0.478293 0.401212 -0.554888 0.118442 0.254399 0.946449 0.146411 0.200832 -0.231679 -0.622111 0.309129 0.555131 0.806334 -0.251231 -0.887129 -0.791836 -0.725673 0.743277 -0.005252 -0.098022 0.205626 0.231718 -0.167406 -0.243316 0.980830 -0.786543 0.449325 -0.856480 0.421891 -0.928672 -0.304373 0.943598 0.472540 0.140739 0.062040 -0.273061 0.087188 -0.791548 0.927771 0.855509 -0.413660 0.236900 0.410640 -0.607326 0.985669 0.523511 -0.399162 -0.740004 0.266787 0.595586 0.161974 -0.527586 -0.172696 0.994569 0.229098 -0.191867 -0.791974 -0.321576 -0.048347 0.629917 -0.250248 0.647281 0.573516 -0.777708 -0.211980 -0.364444 -0.050769 0.875207 -0.155992 -0.122998 0.730716 0.430348 -0.886098 0.141355 0.823022 -0.900429 -0.335134 -0.576140 -0.640432 0.931654 -0.980554 0.521542 -0.595932 -0.153250 0.516111 0.633166 0.654883 0.724137 -0.688410 -0.393464 0.354054 0.061341 -0.746183 -0.072430 0.283633 0.041837 0.563125 -0.767136 -0.082956 -0.592867 0.109867 -0.352240 0.837481 0.223769 0.789115 0.660503 0.323340 -0.546019 -0.915637 0.682908 -0.614365 -0.896191 0.204450 -0.210297 -0.049441 -0.279440 -0.577131 -0.394558 -0.555303 -0.265542 0.211978 0.798751 0.795799 0.465795 -0.273680 0.079432 -0.492368 -0.710554 0.312297 0.424676 -0.303421 -0.577837 -0.927565 -0.465940 0.645932 0.861550 -0.805437 -0.030728 -0.684468 -0.721074 -0.347820 -0.298833 -0.617265 0.856630 0.490869 0.333294 -0.422810 0.913738 0.938735 0.021887 -0.351804 0.150713 -0.179362 -0.556005 -0.383492 0.546958 0.523428 0.124140 0.836404 -0.164276 -0.451184 -0.467017 0.257887 -0.378749 0.067043 -0.096180 -0.517199 0.261606 0.873092 -0.201667 0.540532 -0.474728 0.499499 0.923268 -0.618098 -0.009631 0.256561 -0.040909 -0.095894 0.195296 0.980978 0.552302 -0.653991 -0.198384 0.996297 -0.037482 -0.651426 0.519725 -0.913342 -0.815023 -0.644551 -0.364527 -0.282040 0.613337 0.256724 0.785003 -0.482844 0.739526 0.046609 -0.609752 -0.462142 -0.412858 -0.084480 -0.962642 -0.489591 0.297421 0.027726 0.766970 -0.743487 0.931832 -0.037733 -0.762509 0.484134 0.308276 0.039107 0.480432 -0.729206 0.387680 0.000157 -0.642549 0.572658 0.355606 -0.007075 -0.709382 -0.031058 -0.750351 -0.924379 0.486098 0.989175 0.122230 0.876346 -0.472967 0.709372 -0.208134 -0.435609 -0.780219 -0.910713 0.592117 0.986751 -0.654200 0.523949 -0.050982 -0.416709 0.008084 -0.742706 0.622397 -0.511484 -0.471912 0.010077 0.488672 -0.114460 -0.417265 -0.155722 0.878465 -0.126647 0.813220 -0.871886 -0.051026 0.299318 -0.882712 -0.928796 0.175664 -0.355679 0.780576 0.967530 0.208712 -0.999643 -0.943183 -0.199171 0.987108 -0.597383 -0.675222 -0.063874 -0.014093 0.332862 0.193421 -0.391695 0.821378 0.721509 0.618382 0.310050 -0.392951 -0.798883 -0.845672 -0.514487 0.074470 0.967548 -0.386373 -0.976556 0.266866 -0.269085 -0.905352 -0.557470 0.375236 
0.875224 -0.589940 -0.416052 0.875581 -0.533123 0.384776 0.862689 -0.130506 0.709554 -0.201185 0.855401 0.042417 0.992236 -0.536294 -0.136206 0.713745 -0.917912 -0.826156 -0.679206 -0.716795 -0.671828 -0.193693 0.357675 -0.704280 0.419934 0.381119 0.562586 -0.849151 0.475767 -0.994884 0.526085 0.350991 -0.584825 -0.889968 0.226571 -0.117948 0.494809 0.089260 0.751546 0.204363 0.888075 0.606948 -0.753220 0.880311 -0.929347 0.110574 0.594056 -0.847259 0.284419 0.914849 -0.564054 0.612591 -0.278844 0.793620 0.908311 -0.858910 0.174739 0.470896 -0.708061 -0.349494 0.476012 0.818024 -0.998504 0.891187 0.928056 0.228067 -0.226760 0.422865 -0.682673 -0.475214 -0.372772 -0.794598 -0.868266 -0.125993 -0.914287 -0.797613 0.984582 0.679769 -0.644872 0.269000 0.594618 -0.208926 -0.118409 -0.684225 -0.415306 -0.210098 -0.543135 0.759433 -0.739202 -0.251196 -0.590061 0.736810 -0.433172 -0.588565 0.627998 -0.505116 0.639502 -0.598762 0.917748 0.956830 -0.073976 -0.455024 -0.837768 0.057758 0.418984 -0.752055 0.260145 0.403565 0.927714 0.615273 -0.327435 0.522332 -0.593654 0.554156 0.838106 -0.008960 -0.655942 -0.705029 -0.249527 -0.395144 0.043775 0.160412 -0.658333 0.610603 0.571847 0.969664 -0.894514 0.211349 -0.629098 -0.976765 0.168178 0.296926 -0.431789 0.330410 -0.645316 0.987194 0.578355 0.614828 0.390759 0.506069 0.230101 -0.936675 0.028401 0.636447 0.617481 -0.133493 -0.372513 0.961539 0.161478 0.377960 -0.433605 -0.794747 -0.461629 -0.091938 0.815856 -0.889782 -0.122274 0.921343 0.321567 0.248628 0.944577 -0.510255 -0.454446 -0.487212 0.820156 -0.099762 -0.500018 0.398511 -0.484934 0.890742 -0.095420 0.745167 0.954067 0.932980 0.381614 0.571548 -0.200513 -0.990899 0.533087 0.960966 0.387060 -0.900518 -0.833781 0.925432 0.007544 0.982075 -0.964350 0.885270 0.903418 0.357217 0.133899 0.847995 0.846962 0.679453 -0.639217 0.667118 -0.420309 -0.139234 0.065628 0.094757 -0.248492 0.970208 -0.160076 -0.294426 0.903188 -0.778462 -0.722879 -0.297325 -0.769362 0.810208 -0.336359 0.617699 0.909690 -0.170140 0.543130 -0.082766 -0.188065 0.578780 -0.197496 -0.284647 -0.064003 0.936402 -0.436651 -0.217041 0.615855 -0.075868 -0.549924 -0.804454 0.784898 0.515705 0.290303 -0.463595 0.485913 -0.869773 0.241979 0.389101 -0.648235 0.519101 -0.908224 -0.417597 0.329309 -0.244583 -0.799898 0.238999 0.585277 0.743232 -0.843768 -0.602787 0.322012 -0.041264 0.112566 -0.741991 -0.104861 0.675914 0.040967 -0.489006 -0.399954 0.491044 -0.293460 -0.615056 0.006748 0.996844 -0.078651 -0.507339 -0.872929 -0.836672 0.881762 -0.521164 0.682429 0.973538 0.061239 0.011737 -0.271045 0.261341 -0.749264 -0.685768 0.004573 -0.593032 -0.288555 -0.673415 0.365704 0.824010 -0.415406 -0.739157 0.499925 0.625561 -0.228163 -0.900029 0.116605 0.478378 -0.515085 -0.876647 0.475221 0.406264 -0.383986 0.602292 0.569592 -0.502224 -0.918872 0.252020 -0.528686 0.142366 -0.736243 0.200269 -0.596293 -0.485507 0.514501 0.408280 -0.078539 -0.774054 0.734865 -0.712834 -0.950043 -0.680542 -0.451991 0.549881 0.945019 0.319846 0.649853 0.061624 -0.201776 -0.865233 0.184977 -0.726555 0.541031 0.800991 0.875737 0.110623 -0.701233 0.956865 -0.637357 -0.229919 0.099231 -0.373600 0.970350 0.502938 0.140894 0.484851 -0.088782 -0.937645 0.710797 -0.353918 -0.650479 0.760754 -0.034459 -0.102471 0.310635 -0.089440 -0.782625 -0.039512 0.972184 0.015599 0.095255 0.157161 0.289044 -0.363714 -0.041848 0.164780 0.746909 0.256919 0.121645 -0.890448 -0.973000 -0.779124 -0.264048 0.997350 0.723814 0.876846 0.482201 -0.364968 0.939201 0.192999 0.281115 -0.711278 -0.046247 -0.753345 0.186251 -0.735612 0.157215 0.403626 0.224876 0.129399 -0.580775 -0.679869 -0.713440 0.708269 -0.043583 0.244712 -0.126951 -0.296674 -0.498369 0.994694 -0.187122 -0.471369 -0.784430 0.548831 -0.474019 0.939385 0.425677 -0.991818 -0.425583 0.364878 0.201181 0.855531 0.653599 -0.845067 -0.897813 -0.160150 -0.580679 0.259402 -0.756523 0.644197 -0.611199 -0.337298 0.964328 -0.324639 -0.629029 -0.079254 0.920073 0.244020 0.624072 -0.578296 0.238714 -0.563050 -0.049665 0.454284 0.985781 0.476316 0.393669 0.411458 0.484498 0.968085 -0.223665 -0.314321 0.823617 -0.570065 -0.159387 0.925803 0.269785 0.259934 0.185205 0.513262 -0.095869 0.574006 -0.824036 -0.131541 -0.750633 -0.453065 0.789205 -0.830561 0.790954 0.413277 -0.408856 0.029668 0.850228 0.541479 -0.516048 0.836009 0.017795 0.877621 0.247467 -0.497707 0.845706 -0.976198 0.187972 0.669323 -0.546263 -0.971415 0.595126 0.723522 0.288519 -0.219669 0.236784 -0.807350 -0.645664 0.412748 0.061109 -0.396297 0.959683 -0.149686 -0.226858 0.750637 -0.736408 0.364286 -0.219695 -0.886181 -0.094235 0.264257 0.949828 0.923560 0.141878 0.197295 -0.574147 -0.012416 0.221097 0.613825 -0.343093 0.674834 0.642410 -0.747968 0.398356 -0.069071 0.032363 -0.364860 0.123579 0.386699 -0.952111 -0.815312 0.990402 -0.992428 0.035003 -0.236456 0.758209 0.298594 -0.872170 -0.461486 0.412414 0.033595 0.802771 0.362242 -0.042846 -0.055351 -0.440463 0.383007 0.932234 0.780634 -0.003167 -0.410860 0.455467 -0.360757 -0.158827 -0.146177 0.570172 0.873536 0.488964 -0.306249 0.260235 0.536853 -0.121561 0.250637 0.544424 0.913442 -0.985819 0.302633 0.212036 -0.857989 0.841147 -0.375550 0.175606 0.643919 0.986692 -0.867240 -0.411432 -0.453771 0.515767 -0.479198 -0.673137 -0.487400 0.109942 0.782330 0.151843 0.951115 -0.363847 -0.277985 0.824651 -0.874883 0.415766 0.084886 0.661970 -0.705795 -0.664477 0.206394 -0.792353 -0.650296 -0.490972 0.419684 -0.508285 -0.649825 -0.955866 0.667321 0.994094 -0.969174 0.800081 -0.417338 -0.422945 0.315848 0.103464 -0.096082 0.828448 -0.786594 -0.313752 -0.019710 -0.835480 0.322401 0.702305 0.989171 0.447518 0.118071 0.074057 0.109488 0.412276 0.409579 -0.684117 0.619923 0.759283 -0.175089 0.039606 -0.749003 0.175086 0.083740 0.918318 0.169180 0.114566 0.718399 0.751842 0.691621 0.034246 -0.144695 -0.404461 -0.137306 0.068711 0.281787 0.842984 0.233231 -0.395812 0.545289 0.222402 -0.948294 -0.336640 -0.703541 0.161194 -0.924365 0.706038 0.477077 0.695558 0.465321 -0.698012 -0.264835 0.716318 0.477074 0.818905 0.634636 -0.353747 -0.066529 0.353035 -0.601905 -0.374908 -0.612719 0.253400 0.220631 0.249975 -0.677889 -0.497582 0.092960 0.555342 0.106606 -0.361751 -0.222256 0.158312 0.301609 0.074203 -0.680494 0.377244 -0.219759 0.796584 0.072803 -0.754438 -0.901429 0.807967 0.961880 0.575645 0.626872 0.596516 -0.778101 -0.439657 -0.050449 -0.380007 0.185435 0.336833 0.873393 -0.593933 -0.413192 -0.804496 -0.091515 0.679768 0.750846 -0.984910 -0.681983 -0.471410 0.173402 0.619626 0.602794 0.492908 -0.003129 -0.616965 0.289492 -0.930327 -0.371403 0.388063 0.877640 -0.409523 -0.036291 0.504512 -0.813007 0.185607 -0.935145 0.136545 0.805601 0.250290 -0.526622 0.678994 0.656357 0.060186 0.874498 -0.435158 -0.260046 0.625345 -0.420068 0.057971 -0.846065 0.753334 -0.322403 0.756728 0.246243 0.674468 -0.860237 -0.464265 0.744141 -0.231640 0.923798 0.621781 0.358837 -0.112493 0.126294 0.545830 -0.926886 0.191149 -0.317625 0.878715 -0.558561 0.155752 0.557709 -0.902204 -0.784062 0.432208 -0.337362 -0.044108 0.057552 0.242570 -0.986137 0.211487 -0.004096 -0.308540 -0.031785 -0.757853 -0.634072 0.107979 -0.222118 -0.889931 0.876338 -0.298319 0.731851 0.235175 0.589188 -0.141856 -0.218995 0.662302 -0.950707 0.463380 0.541017 -0.509268 -0.380868 0.098726 -0.411473 -0.164930 -0.469066 0.251165 0.790962 0.588486 -0.506265 0.804825 -0.200027 0.489639 -0.503714 0.768189 0.731786 -0.137786 -0.123833 -0.490332 -0.027717 -0.247495 0.211349 -0.295866 0.987680 -0.199463 0.562278 -0.231315 -0.537161 0.611571 -0.767935 -0.996144 -0.897698 -0.148803 0.102582 -0.309170 0.686267 0.633516 0.941995 0.477229 0.222002 -0.564271 0.282054 -0.978024 0.925368 0.778340 0.790164 0.657155 -0.359446 -0.333669 -0.833177 0.612837 0.418837 0.378172 -0.683029 0.406517 -0.821292 0.879249 -0.824798 -0.358453 0.490819 -0.592733 -0.354597 0.593122 0.258464 0.747985 -0.716049 -0.055270 0.381502 -0.774054 -0.578041 -0.396496 -0.338325 0.704013 -0.374520 -0.412956 0.482353 -0.584356 -0.755802 -0.877093 0.081975 -0.588979 0.735744 -0.499188 0.789193 -0.947286 0.907329 0.967901 0.931963 -0.917469 -0.390552 0.422783 -0.510202 0.254851 0.015904 0.748262 0.002836 0.299856 -0.307008 -0.615663 0.525802 0.114951 -0.012159 -0.812523 -0.181036 0.613321 -0.225479 -0.698683 -0.971035 0.018719 -0.575776 0.110940 0.429740 -0.840033 0.611751 0.218932 -0.787318 0.519080 0.186833 -0.855355 0.601611 0.796281 0.567428 -0.908591 0.051131 -0.416668 0.839671 -0.946033 0.883188 -0.467337 -0.561696 0.408990 0.647614 0.426146 0.596467 -0.533422 0.039467 -0.629013 -0.232104 0.068431 0.389706 0.192119 -0.820629 -0.180554 0.352087 0.791122 -0.961622 0.564769 0.310202 0.225211 0.709414 -0.088187 0.021492 0.276841 0.003221 -0.927376 0.860174 -0.157108 -0.873410 0.743361 0.375555 -0.435105 0.152351 0.023169 0.991040 -0.251182 0.489747 0.030507 0.119805 -0.742357 -0.901062 -0.490488 0.449762 -0.721691 0.328958 -0.198151 -0.930569 0.367336 -0.633382 0.379633 -0.407452 -0.923969 -0.708555 0.614040 0.352873 0.294667 0.686663 0.213046 -0.862441 0.813254 -0.043592 0.513113 -0.621851 -0.891241 -0.463718 -0.630811 -0.142423 -0.973971 0.399696 0.977382 -0.716328 0.498634 -0.513106 0.733435 0.776943 0.815852 -0.464716 0.846373 0.183188 -0.098098 0.226006 0.775735 -0.022067 0.517451 0.389775 -0.669194 -0.187882 0.076439 0.543852 -0.050324 -0.110307 -0.499740 -0.537210 0.267842 -0.390981 -0.000928 0.637031 0.466596 0.025101 0.036726 0.443978 0.308773 -0.464640 0.930872 0.042208 -0.687697 0.746724 0.577492 -0.841324 -0.070089 -0.520606 0.384682 -0.294353 0.457328 -0.097867 -0.904578 0.788134 0.714251 0.171861 0.331986 -0.336073 -0.938446 0.832246 0.126717 0.329396 -0.558735 -0.874212 -0.033574 0.907861 0.150889 -0.996847 0.351839 -0.540337 -0.461487 0.282711 0.501871 -0.149184 0.029435 0.079364 0.009492 0.959346 0.558758 -0.605826 -0.335007 0.016085 0.296307 -0.239584 -0.195781 0.010558 0.932277 -0.863795 0.674485 0.993831 0.968451 -0.198799 0.323227 -0.590283 -0.073010 -0.710346 -0.682422 -0.922121 -0.707194 0.669417 -0.462458 -0.168681 -0.047872 -0.960587 0.682135 0.981563 0.118776 -0.308373 0.940910 -0.322466 0.085801 -0.394097 0.693620 -0.617892 0.366319 -0.502161 0.392665 0.298596 -0.365956 0.067150 0.292427 -0.397504 0.868351 -0.384345 0.012212 -0.204659 -0.094692 0.329790 -0.126780 0.198115 -0.000792 0.410761 -0.970566 0.951336 0.450174 0.711569 0.932899 -0.431049 -0.596804 0.873809 0.246485 0.488997 -0.520288 -0.059896 0.871105 0.846031 0.437943 0.263771 0.144627 -0.928012 -0.669079 -0.562946 -0.325517 -0.800728 0.052708 0.686696 -0.005387 0.958017 0.016486 0.867832 0.156131 -0.984306 0.278594 0.185565 0.967030 -0.271232 -0.102865 0.899929 0.297719 0.300331 0.773738 -0.455797 -0.210672 -0.746551 0.484308 -0.339566 -0.900520 -0.077749 0.924204 0.244107 -0.005761 -0.744875 0.681160 0.668722 -0.545603 -0.266131 0.355418 0.449009 -0.308115 -0.628096 0.316842 0.848017 -0.612403 -0.404564 0.033582 -0.645373 0.324204 0.930717 -0.745445 -0.378077 0.231048 -0.971707 0.166126 -0.979624 -0.718258 -0.349566 -0.319190 -0.618778 0.572685 -0.394986 0.625329 -0.433076 -0.139862 0.306489 -0.764354 0.314535 -0.959642 0.591063 -0.236455 -0.267757 0.962967 -0.919613 -0.419740 -0.649436 -0.324178 0.613842 -0.294809 -0.999974 0.544559 -0.040254 -0.378051 -0.224393 -0.011961 0.788075 -0.204017 0.269782 -0.561491 0.476792 0.651004 -0.988806 -0.918194 0.276333 -0.421882 -0.058055 -0.417178 -0.186237 -0.743520 -0.376820 -0.595173 0.020024 0.355424 -0.632207 0.100411 0.935684 -0.281643 0.776233 0.549526 0.423548 0.776260 0.094085 -0.616706 -0.601792 0.869691 0.371333 -0.813717 -0.334326 -0.358885 -0.375208 -0.857534 -0.707881 -0.364014 -0.775727 0.568452 0.214103 0.166217 -0.848726 -0.972133 0.422697 -0.225546 -0.567307 -0.557279 -0.870122 -0.199513 0.543132 -0.934438 0.518844 0.319365 0.615088 -0.057608 0.095625 -0.290827 0.325686 0.493833 -0.421136 -0.302980 0.680116 0.244539 0.338134 -0.695092 0.387005 0.630253 -0.059106 0.611278 0.198705 -0.845003 -0.222505 0.349979 -0.817136 -0.799809 -0.875566 -0.384442 -0.357087 -0.745688 0.416044 -0.813955 -0.680126 -0.065111 0.505410 0.934962 0.877281 -0.398965 -0.355865 0.202967 -0.905132 0.222999 0.899987 0.774985 -0.532462 0.238121 -0.920107 0.854543 -0.131625 0.020787 0.465820 -0.932920 0.175784 -0.756685 0.417059 0.358648 -0.556494 0.541492 0.974206 0.086419 0.795804 0.390250 0.272464 -0.884322 -0.674861 -0.222126 -0.949361 -0.797580 0.378909 -0.305226 0.405387 0.473777 0.917773 0.305373 0.248761 -0.614689 -0.456505 0.328654 -0.760146 0.411869 -0.650559 0.705674 0.478949 0.525225 0.948989 -0.103992 -0.116127 -0.607505 -0.562500 -0.141921 0.478914 -0.766696 -0.751671 -0.248623 -0.651018 -0.426532 0.529251 -0.600379 -0.224113 -0.091841 0.094395 -0.818726 -0.618064 0.012168 0.486647 0.630697 0.397479 -0.969858 -0.040648 0.637333 0.442011 0.308792 0.343006 -0.079040 -0.165983 0.291995 0.816968 0.717890 0.684490 -0.745532 -0.424031 0.163404 -0.512228 -0.175702 0.914781 -0.163246 0.397766 0.444032 0.236375 -0.826347 -0.647809 -0.669230 -0.645073 -0.265873 0.342938 0.841574 -0.635175 -0.259583 0.871716 0.324177 -0.622250 0.313727 -0.367031 0.720757 -0.765313 0.466986 0.012752 -0.948345 0.184877 -0.302758 -0.693878 0.760846 0.860645 -0.206106 -0.414856 0.775426 0.630648 0.982910 0.219458 -0.132978 -0.843437 0.571649 0.197792 -0.488510 -0.694223 -0.459269 -0.646936 -0.329398 0.281148 -0.775220 0.994779 0.658898 0.538507 -0.372252 0.379655 0.773194 -0.905266 -0.607594 0.824849 0.279610 0.089648 -0.869029 0.040456 -0.049707 -0.075134 0.625600 -0.274280 -0.444487 0.608510 0.945178 0.422536 0.765073 0.516827 -0.379672 -0.723437 0.822604 0.161059 -0.370373 -0.506794 -0.557793 -0.145593 -0.512016 -0.898895 -0.607086 0.115732 0.480759 -0.833891 0.210466 0.873166 0.990958 -0.509924 -0.037187 -0.878071 0.530533 0.913107 0.046795 0.156133 -0.361174 0.602308 -0.235357 -0.415996 0.024844 -0.470284 -0.899169 0.645172 -0.193721 0.923435 -0.193769 0.435906 -0.583359 0.248437 -0.709686 -0.095375 0.349542 -0.316772 -0.979643 -0.169699 -0.150664 0.230823 -0.296533 -0.159706 0.720899 0.666280 -0.037777 0.251431 0.579387 -0.990982 -0.592436 -0.781787 0.611326 0.172207 -0.197783 -0.363831 0.701924 -0.096952 -0.718659 -0.491797 -0.173517 0.087572 0.944110 0.243123 -0.663991 -0.765577 -0.852252 0.685551 -0.082349 -0.831895 -0.484148 0.766988 0.398928 0.219318 -0.392718 0.119826 -0.114402 0.569505 -0.628743 -0.535015 0.578523 -0.221178 -0.316802 0.189848 0.951029 0.485415 0.826018 0.652953 -0.611537 -0.892641 -0.838844 0.214945 0.194931 -0.894734 -0.541932 0.530940 -0.660311 -0.394184 0.216491 0.257340 -0.226079 0.732342 0.024328 -0.827151 -0.048339 0.631610 0.292675 0.837259 0.201115 0.663933 -0.697756 -0.220363 -0.557246 -0.014558 0.969485 -0.606217 -0.529143 0.795503 -0.953264 -0.140680 0.902862 -0.792108 -0.925735 0.097792 -0.686842 -0.467667 -0.371268 -0.347153 0.138150 0.845223 0.910188 0.912071 0.577565 -0.065484 -0.915080 -0.470774 -0.433875 0.377596 -0.633515 0.767240 0.041528 -0.331271 -0.453123 0.484283 0.654171 -0.483638 0.878066 -0.874971 -0.688135 0.924802 -0.015652 -0.785273 -0.867306 0.058613 0.312519 -0.554148 0.590947 0.941251 0.098700 -0.270903 0.786474 0.008888 -0.358832 0.364039 0.943403 -0.273912 0.893265 -0.490471 -0.896316 -0.740250 -0.723231 0.145212 -0.071521 -0.176354 -0.370506 -0.417349 0.340008 -0.492440 -0.292321 0.651873 -0.567638 0.692028 0.866600 -0.434943 -0.249359 0.179119 0.010909 -0.658412 0.120370 -0.890391 0.070685 -0.093156 0.118496 0.711852 -0.729117 0.061900 -0.562059 -0.835852 0.571429 -0.458376 -0.576102 0.848197 0.686836 0.352378 -0.328157 -0.683669 0.935028 -0.988149 -0.176109 -0.357292 0.663724 0.256253 -0.665264 0.530324 0.821310 0.085377 -0.290557 -0.167781 0.426965 0.829813 -0.058172 -0.502351 -0.263344 -0.939676 -0.790498 0.007540 0.122224 -0.352558 0.171688 -0.306347 0.189067 0.595586 -0.458150 -0.124097 -0.052036 0.213693 0.192234 -0.117008 0.225545 -0.983875 0.525700 -0.110731 0.272378 0.860435 -0.580407 0.093688 -0.054188 0.129036 0.925907 -0.627224 -0.041152 -0.132265 -0.129575 0.695505 -0.071941 0.079927 -0.296956 -0.949717 0.727369 0.874732 -0.256064 -0.083564 0.470318 0.285786 0.792338 -0.581719 -0.500520 -0.015428 0.301273 0.725024 0.000697 -0.173027 -0.385707 -0.726926 -0.312592 0.033886 0.366762 0.633220 -0.837079 0.292669 -0.994004 0.121770 -0.839596 -0.123578 -0.182726 0.088463 0.956349 0.520319 0.138746 0.683718 0.395051 0.882683 -0.399847 -0.134631 0.168469 -0.607508 0.283650 0.667948 0.377064 -0.415077 0.392973 -0.622240 0.411896 -0.992734 -0.349165 -0.900696 0.041151 -0.982403 0.732524 0.204073 0.310266 0.738520 -0.674157 0.470670 -0.385059 0.143117 -0.440867 -0.428710 -0.336564 0.697879 -0.744992 -0.941513 0.580562 -0.144839 -0.076145 -0.250969 0.247653 -0.792495 -0.583021 -0.375284 -0.207572 0.809952 0.002477 -0.795676 0.817217 0.653311 -0.696372 -0.141631 0.670909 -0.963848 -0.937558 -0.018825 0.774672 -0.611715 -0.548155 -0.610387 0.531402 0.010977 -0.039097 -0.805162 -0.291143 0.215911 -0.746676 -0.710581 -0.928928 0.177179 0.038449 0.318724 0.384684 0.455428 0.943441 -0.822888 0.265380 -0.054083 -0.618563 0.082598 -0.400771 -0.314935 0.940966 -0.729863 -0.278783 -0.996592 0.251312 -0.504111 -0.608307 0.703156 -0.114498 0.923095 -0.285866 0.846405 -0.882068 0.422991 0.062316 -0.628744 0.712409 0.133388 0.548436 -0.249142 -0.547888 -0.066880 -0.793713 -0.604447 0.110232 0.471667 0.341470 0.491669 -0.445735 0.940699 -0.823266 -0.504769 -0.789164 -0.102049 -0.501361 0.462148 0.393840 -0.109668 0.165304 -0.720658 -0.186573 0.879438 -0.874252 -0.068641 0.302428 0.188064 0.302615 0.014838 -0.678549 -0.148949 0.765696 -0.226437 0.784171 0.971983 0.169116 -0.105597 0.443650 -0.489415 -0.613928 0.997914 -0.548716 -0.437194 -0.506855 -0.337880 0.460758 -0.008215 -0.875732 -0.145402 0.882117 0.289572 0.133940 -0.304457 0.169010 0.259687 0.626902 -0.528562 -0.552249 -0.070482 0.486276 -0.230798 0.780568 0.251972 0.542765 0.564739 0.223954 -0.288119 -0.540858 -0.332396 0.222466 -0.154785 -0.334482 0.673750 0.408021 0.158664 -0.664130 -0.131221 -0.849552 -0.539862 0.723376 -0.967435 0.749709 -0.142684 -0.271892 -0.081281 -0.882996 -0.644990 0.390157 -0.435245 0.284528 -0.123567 0.333957 0.065096 -0.871595 -0.123278 -0.370164 0.352359 0.588603 0.088978 -0.980037 -0.188931 0.934193 -0.314519 -0.515181 0.342214 0.844145 -0.179311 -0.789007 0.994593 0.280827 0.934369 -0.972842 0.030536 -0.208315 -0.244734 0.949255 -0.091311 0.110276 0.339413 0.473444 -0.605196 -0.784155 -0.192599 0.459900 -0.655750 0.684123 -0.910264 0.696609 0.272726 0.178714 0.716572 -0.916205 0.112906 -0.597947 -0.431386 -0.544880 -0.753802 0.389304 -0.333887 -0.759209 -0.329869 -0.399518 -0.732052 0.700667 0.392167 0.023214 0.649922 -0.699144 -0.866510 -0.010665 0.774300 -0.471706 0.205180 -0.418299 0.988195 0.549430 -0.734176 -0.922070 0.246039 0.538550 0.256644 -0.037389 0.622345 -0.630450 0.364664 -0.809040 -0.175330 0.610861 0.580263 0.490783 0.851652 -0.749606 -0.908735 -0.880399 0.951061 0.483432 0.142815 0.600983 0.784289 0.276305 -0.409682 0.558589 0.804599 0.795498 -0.859710 0.792794 0.344928 -0.593885 0.870724 -0.409033 0.944665 0.127368 0.553577 0.567010 0.496918 -0.081759 0.757970 -0.678411 -0.470898 0.338233 0.812372 -0.619246 0.588627 0.903637 -0.499645 0.539688 0.387069 0.643170 0.140671 0.171357 -0.080525 0.730989 -0.270054 -0.275926 0.526486 -0.129763 -0.483132 -0.128586 0.276351 -0.612408 0.462381 0.221016 0.514960 0.015958 -0.211974 0.011878 0.934199 -0.454004 0.333467 -0.536699 0.884229 0.145839 -0.155945 0.472857 0.049475 0.344410 0.012544 -0.563456 -0.012420 -0.846785 0.607902 0.907054 0.884204 -0.662152 -0.368872 0.410690 0.208085 0.147996 -0.717896 -0.515564 0.535588 0.744485 0.705452 0.050547 -0.239557 -0.506521 -0.937575 -0.305358 0.039475 0.395892 0.157943 -0.076295 -0.458269 -0.998002 -0.603439 0.591206 0.346408 0.409106 -0.972250 -0.666012 0.562321 0.635652 -0.758958 0.446525 0.973500 -0.127830 -0.142785 0.181585 -0.979834 0.139320 0.666021 0.555754 -0.116195 0.371474 -0.393699 0.644248 0.864953 -0.331274 -0.661110 -0.095572 -0.935382 0.496833 0.828132 -0.393651 0.498831 -0.775307 -0.802446 -0.154761 0.633799 -0.774695 0.179226 0.196120 0.860957 0.420268 -0.357355 0.834457 -0.707561 0.499860 0.016042 -0.687395 -0.360820 -0.317937 0.868358 0.522985 -0.946463 -0.525341 0.167233 0.918490 0.143385 0.506123 -0.177083 0.208003 0.002955 -0.348950 0.814352 -0.498214 -0.124257 -0.988094 0.347024 -0.490458 -0.762789 -0.473749 0.705662 -0.901833 0.946519 -0.651693 0.932624 -0.761043 0.848167 -0.051334 -0.448438 -0.512653 0.630729 -0.580080 -0.989668 0.684266 -0.105420 0.177565 0.602756 -0.962035 -0.316313 -0.574327 0.245968 0.686643 0.076723 0.060320 -0.811572 0.952466 0.072226 0.535453 -0.537992 0.309437 -0.938297 -0.832329 0.407604 -0.991778 -0.484022 0.340228 -0.752821 -0.635855 -0.711106 -0.201259 -0.148508 0.919623 0.218662 -0.138176 0.603889 -0.886759 -0.960611 0.206645 -0.848794 -0.276924 0.632319 0.397174 -0.590281 -0.290958 -0.542506 -0.401853 -0.338492 0.529720 -0.866400 0.123516 -0.160843 -0.804697 0.291187 -0.753238 -0.796475 0.807165 0.586990 -0.549296 -0.828690 0.875884 0.249445 0.022802 0.795507 -0.531893 0.884627 0.399397 -0.418651 0.924015 -0.393958 -0.267445 -0.352908 -0.761639 -0.870270 0.056810 -0.052598 -0.412776 0.654957 0.608910 -0.883056 0.788557 -0.267573 -0.043898 0.983859 -0.976386 0.202863 -0.812616 0.830779 -0.210147 -0.361912 -0.997911 -0.334263 0.887533 0.024891 -0.538755 -0.644359 -0.090482 0.860642 -0.063011 -0.166467 -0.533316 0.669545 0.480625 -0.294955 0.799274 -0.462565 0.652447 -0.613502 -0.807608 0.261357 -0.496557 0.980948 0.993784 0.459544 0.964808 -0.982602 -0.337592 -0.847809 0.848177 0.452261 -0.209721 0.850266 -0.882002 -0.322188 -0.124843 -0.420757 0.033453 0.784675 -0.560115 0.970442 -0.381792 -0.093431 0.639987 -0.901167 0.611613 0.439261 -0.363732 0.264060 0.825760 -0.171340 -0.474583 -0.670798 -0.190392 -0.480799 0.788747 -0.225584 -0.463401 -0.548846 -0.073393 -0.615224 0.903415 0.716886 -0.764959 -0.978587 -0.605302 0.110198 -0.399343 0.428151 -0.105127 0.040541 0.398594 0.513081 0.947110 0.038581 0.611914 0.558724 -0.522158 -0.751818 -0.177216 -0.696398 0.076842 0.348201 -0.367196 0.886450 0.867402 -0.578449 -0.339134 -0.595998 -0.127295 0.587472 -0.211223 -0.223880 0.304359 0.023819 -0.202467 0.699057 -0.865983 0.398190 0.127208 0.028890 -0.561269 -0.474198 -0.458029 -0.614159 0.564382 -0.846115 0.944565 -0.957776 -0.597933 -0.232651 -0.654174 0.478908 -0.884450 -0.021370 0.365358 0.982952 0.400181 -0.973776 -0.613046 -0.727115 0.613696 0.175731 0.049005 -0.081945 -0.800450 0.846538 -0.382889 -0.666434 0.244728 0.744320 0.362456 0.683459 -0.729879 0.904427 -0.930699 0.834504 -0.941688 -0.986134 0.876728 -0.539622 -0.218786 -0.777446 0.939286 -0.103236 0.201184 0.304644 -0.120284 -0.398635 0.330868 0.266670 -0.125750 -0.055436 -0.557599 0.923256 0.862619 -0.358049 0.769794 -0.520270 -0.024482 0.014522 -0.775950 -0.662026 -0.302018 -0.505829 -0.757600 -0.232718 -0.671325 -0.699288 -0.218852 -0.794597 -0.238910 0.562362 -0.572043 -0.299624 -0.540874 0.629142 -0.994979 0.338843 -0.769493 0.335889 -0.394487 0.104757 -0.719547 0.047914 0.028013 -0.856929 0.689865 -0.202193 -0.377199 -0.334617 0.812329 -0.153149 0.003357 -0.489690 0.341022 0.245757 0.277593 0.669696 0.546469 -0.941259 0.875099 -0.692441 0.621103 -0.696943 0.007936 -0.919770 0.932198 0.012956 0.419072 -0.837295 -0.651155 -0.975415 0.267462 -0.370702 0.072500 -0.704525 -0.227631 -0.237635 0.093281 0.395170 0.427748 -0.094390 -0.757980 -0.568895 0.415920 0.583042 0.676862 -0.306487 0.252738 0.223331 -0.247746 0.127837 0.530890 -0.626643 0.430894 -0.461174 -0.546414 0.363092 0.551782 0.872659 0.525797 
0.900627 0.897244 -0.206741 -0.470075 -0.030256 0.088734 0.302294 0.732110 -0.817985 -0.302536 0.159858 0.087625 -0.060516 0.590963 -0.496455 -0.477474 0.267825 0.197058 0.775264 -0.508844 0.949312 -0.096898 -0.977954 -0.677332 -0.666004 -0.439128 -0.223745 0.697088 -0.887346 -0.351086 0.222885 -0.986718 -0.453842 -0.983855 -0.456793 0.515902 0.104878 0.845501 0.248012 0.286893 -0.457035 -0.592130 -0.625482 0.482449 0.998832 -0.121937 -0.995025 0.266657 -0.924879 0.780239 0.757813 -0.975568 -0.316659 0.779859 -0.652899 0.017337 -0.659269 0.123356 -0.285575 -0.546615 0.772270 0.937310 -0.533333 -0.681572 0.953455 0.009873 0.834330 0.058333 -0.144626 0.082342 -0.654774 0.398339 0.490211 -0.280256 -0.119212 0.489044 0.597807 -0.114237 -0.244299 0.672928 -0.333998 -0.486486 0.697361 0.349343 -0.706627 -0.955538 -0.633320 -0.365896 0.167818 0.081105 0.087488 -0.059913 0.018415 0.554155 0.258515 -0.028130 -0.435972 0.092845 -0.969796 0.419403 -0.824813 -0.624570 -0.182258 0.665398 0.095174 0.698530 0.154442 -0.307018 -0.415707 0.910143 -0.634090 0.250295 -0.576343 -0.936729 -0.400362 -0.282970 -0.892268 -0.033682 0.351134 0.275550 -0.952577 -0.561378 -0.784363 0.065839 0.992777 0.474152 -0.962291 -0.443195 -0.433003 -0.932087 0.976208 -0.257816 -0.556657 -0.206050 -0.592418 0.538517 -0.507520 0.562024 -0.768502 0.076772 0.472167 -0.402592 -0.672933 0.895824 -0.339321 -0.073295 -0.387146 -0.231589 0.893023 0.963988 -0.956039 0.940447 -0.597390 -0.740402 0.006286 -0.604613 0.733750 0.043995 -0.047808 -0.699253 0.111907 -0.071600 0.042931 0.555250 0.722350 0.450513 0.093767 -0.785171 0.012537 0.325265 0.291601 -0.515296 0.922674 0.618668 -0.619472 -0.416647 -0.454626 -0.006618 0.351764 -0.561603 -0.042630 0.395725 -0.621156 0.359980 0.655324 0.385130 0.755367 0.389074 -0.570876 -0.292441 0.689822 0.541032 0.635958 -0.267247 0.096281 0.358308 -0.816735 -0.809952 0.573137 0.195802 0.515313 -0.135261 0.680505 0.437987 -0.516593 -0.938967 -0.978661 0.028781 0.054415 0.373103 0.467178 -0.988214 -0.231171 0.846022 0.371765 -0.575847 0.231152 0.127132 0.813227 0.660276 0.834691 0.503048 0.201308 0.470649 -0.764199 -0.702410 -0.171043 -0.580934 -0.512362 -0.597906 0.614868 -0.997049 0.266833 0.295373 0.440937 0.750240 0.356407 0.462277 -0.220979 -0.589178 -0.164620 -0.753800 -0.577392 0.604209 -0.907778 0.794373 -0.971639 0.323374 -0.078495 0.841588 -0.016350 -0.243804 0.344637 -0.815042 -0.773156 0.580438 -0.517452 0.055801 0.999504 -0.029814 0.457896 0.614372 -0.026864 -0.275271 -0.090255 -0.585926 -0.525031 -0.733848 0.876351 0.253991 -0.323026 -0.288269 0.500191 0.099581 -0.684061 0.592413 -0.106046 -0.655699 -0.084214 0.815459 -0.814111 0.899437 -0.428345 0.530525 -0.915605 -0.201501 0.110963 -0.433057 0.854301 0.110467 0.537129 0.312197 -0.275162 -0.489735 -0.963074 0.634583 -0.075661 -0.488105 0.900735 -0.199311 0.765886 -0.422292 0.512420 0.266077 0.677290 0.828359 -0.141511 -0.428756 -0.827340 0.774276 -0.613296 -0.641451 0.673712 -0.041642 0.889074 0.758108 0.756858 0.000037 -0.674949 0.611159 -0.889496 0.862179 -0.076645 -0.164658 -0.627556 -0.039719 -0.530075 0.296783 0.472176 -0.629340 -0.902527 0.238062 -0.051632 0.609893 -0.495861 -0.374342 0.438252 0.362628 0.196902 0.610912 0.136904 0.583606 0.969461 -0.189384 -0.458036 0.858536 -0.431276 -0.701178 -0.141427 -0.106226 0.909981 -0.030923 -0.244046 -0.166664 0.804420 0.128398 0.793617 -0.725655 -0.574819 0.265793 -0.354995 -0.477346 -0.496145 0.593374 -0.867454 0.007994 -0.780968 0.570798 -0.629378 0.415934 0.181711 0.507526 -0.000460 0.151172 -0.681858 0.541504 0.009708 -0.113134 0.840326 0.868281 0.780640 0.750307 -0.162642 -0.463407 -0.416357 -0.358222 0.664991 -0.622740 -0.083877 -0.909828 0.643054 0.561128 -0.387174 -0.853091 0.154501 -0.254628 0.154903 0.373533 -0.683830 0.525526 -0.210533 0.497881 0.033051 0.789007 -0.350947 0.351193 0.330511 0.658761 -0.761941 0.170837 0.527042 -0.981301 -0.078856 -0.635600 -0.444708 0.504787 0.006178 -0.779716 0.882047 0.922300 -0.689544 0.525101 0.483428 -0.076718 0.672010 -0.362071 0.668654 -0.173086 -0.988538 0.984825 -0.647560 -0.199071 0.482706 0.385491 -0.410064 -0.868241 -0.263316 0.920446 0.790520 -0.025257 0.091283 0.317562 -0.006558 -0.987573 0.681962 0.548734 0.517214 -0.311861 0.769018 0.399261 -0.389560 -0.920526 -0.075638 -0.906132 0.002756 -0.403628 -0.268203 -0.328590 0.423286 -0.256741 -0.343766 0.775726 0.544188 -0.861060 0.161217 -0.865877 -0.729301 0.897901 -0.945430 -0.938781 -0.127356 0.145853 0.378780 0.866086 0.158279 0.060742 0.414820 -0.324507 0.748881 0.183838 -0.925246 -0.640679 0.263312 -0.000884 -0.546812 -0.733932 0.595488 0.184985 -0.062522 0.018775 0.928244 0.593712 -0.205500 0.472432 0.732652 0.955717 0.606555 -0.996649 0.853618 0.661125 -0.935431 -0.273738 -0.193023 0.443349 -0.407651 0.965257 -0.495909 -0.992831 -0.359250 -0.747028 0.191007 -0.284496 -0.387707 -0.545681 0.714620 0.065481 -0.279613 0.310109 -0.749534 0.657865 -0.671117 -0.821291 0.251577 0.123384 0.651141 -0.015772 0.079101 0.257696 -0.012421 -0.067281 -0.081179 0.052148 0.658981 0.725798 -0.504502 -0.748670 0.691055 -0.000411 -0.741501 -0.668195 0.252561 0.449506 0.047309 0.864853 0.903825 -0.238071 -0.069666 -0.375788 -0.927963 0.180800 -0.717923 -0.599080 0.359509 0.533653 0.524304 0.010650 -0.482118 -0.396595 -0.731654 0.505461 0.536124 0.187167 -0.442390 0.195105 -0.087035 0.053107 0.446434 -0.395981 -0.947304 0.704933 -0.064176 0.305257 0.154439 0.983133 0.170111 0.058264 -0.254938 -0.899555 0.682476 -0.182901 0.281245 0.964553 0.218019 -0.359246 0.498206 -0.257677 0.651404 -0.983912 0.345728 0.919749 0.521550 -0.118148 0.106916 -0.920841 -0.923043 -0.980119 0.132266 0.523391 -0.376100 0.184963 0.228324 0.559724 -0.509780 -0.617237 0.542857 0.660331 0.441027 -0.712081 0.760775 0.123503 0.105018 0.042020 0.088056 -0.676963 0.682773 -0.413738 0.065360 0.334177 -0.397649 -0.588911 0.253927 -0.876100 0.292940 -0.639157 -0.796941 0.369897 -0.619277 0.335326 -0.106712 0.004623 -0.479711 -0.878388 -0.435653 0.010508 -0.495625 -0.892796 -0.329161 0.945401 -0.604877 -0.568386 0.068904 0.500140 0.473634 -0.843040 0.823177 0.156408 -0.256778 -0.111463 -0.509415 0.345573 0.299626 0.744511 0.469473 -0.407434 -0.894646 0.672533 0.962463 -0.513923 0.007859 -0.144249 0.490700 0.528147 -0.022638 -0.944953 -0.461344 0.481737 -0.837749 0.209495 0.427138 -0.442626 0.641109 -0.503958 -0.942486 0.114743 -0.346998 0.880691 -0.728849 0.396225 -0.230772 -0.238264 -0.258202 -0.931146 -0.493753 -0.788728 -0.338580 -0.388399 0.883804 -0.376117 0.097678 -0.108337 0.479634 -0.411623 -0.580190 -0.543004 -0.356576 -0.041534 0.938733 -0.194325 -0.832039 0.365872 0.363049 0.809070 0.861914 0.420563 -0.076187 -0.485084 0.301253 0.194964 0.911141 -0.929519 0.956700 -0.347061 -0.860665 -0.537053 -0.135789 -0.199244 0.074548 -0.251985 0.424639 -0.827775 0.639678 -0.095727 -0.239397 -0.940512 0.361269 0.404027 0.017954 0.300002 -0.790298 0.185915 -0.334126 0.572751 -0.005015 -0.472212 -0.006686 0.918798 0.042704 -0.705433 0.113762 -0.046155 -0.634951 0.070461 0.606785 -0.495616 0.533408 -0.529004 0.305139 -0.392044 0.219011 -0.270222 -0.219819 -0.141311 0.634051 0.540784 -0.081823 -0.004680 -0.055189 0.936131 -0.704678 0.154513 0.122046 -0.038804 -0.272736 -0.882969 0.488984 0.720578 -0.964171 -0.468312 -0.984855 0.149590 0.485534 -0.619807 -0.779948 0.092318 -0.115423 0.753460 0.563314 -0.810283 -0.638584 -0.217675 -0.080505 0.141597 0.641013 -0.446454 -0.317620 -0.440810 0.548866 0.627191 -0.504678 0.844188 -0.218296 0.617368 -0.194616 0.508968 0.734399 -0.705632 0.229546 0.770227 -0.173944 0.244691 -0.080182 -0.688411 0.624884 0.139870 0.403907 -0.490539 -0.106670 -0.032779 -0.300822 0.254745 0.749546 0.618673 -0.603658 0.390559 -0.827781 0.078722 0.949749 0.721084 -0.294087 -0.554929 0.565272 0.487617 -0.937561 -0.629344 -0.003415 0.796838 -0.334977 -0.773869 0.567066 0.491079 0.470821 -0.513117 0.802668 0.095705 0.626753 0.206575 0.605167 -0.479917 -0.826203 -0.695655 0.774828 0.923342 0.923018 -0.828830 0.313901 -0.904763 0.249893 0.263651 0.816321 0.955806 0.708722 0.381593 0.443423 0.771161 0.752249 -0.559991 0.567999 -0.582728 -0.333861 0.135065 0.908351 -0.863039 0.621948 0.711019 0.232666 0.248701 -0.082406 -0.162167 0.768784 0.091391 0.142178 0.543612 0.014733 0.065196 0.714782 -0.671365 0.160432 -0.035326 0.592286 -0.023246 -0.079520 0.301008 -0.641653 -0.636096 0.072169 -0.889404 -0.196088 -0.359832 -0.472132 0.470052 0.775232 -0.563781 0.607013 0.397180 -0.852762 -0.160321 -0.354119 0.064832 0.677512 -0.585335 -0.843777 -0.180310 0.958277 0.170957 0.884885 0.673058 0.499591 0.045318 -0.362267 0.091877 -0.977929 0.558213 -0.607116 -0.619582 0.922116 0.465053 -0.508986 -0.273971 -0.894779 0.018882 -0.803920 0.880453 0.455100 0.803093 0.277634 0.602338 -0.357228 0.923515 -0.332830 -0.679716 -0.661820 -0.176606 0.139974 -0.703543 0.994350 0.024859 0.969515 0.493941 -0.929823 -0.392752 -0.414182 -0.907752 -0.834540 -0.021297 -0.527333 -0.912423 -0.556244 -0.036320 -0.186395 -0.451024 0.982562 0.009686 -0.570571 0.437662 -0.187222 0.707063 0.040001 0.455550 0.630578 0.707171 0.775834 0.968758 -0.469435 -0.084192 -0.734785 -0.475085 0.940667 -0.765270 -0.981143 -0.989156 -0.158022 -0.395325 -0.896908 0.007438 0.583377 -0.424241 0.095015 -0.972867 0.539439 0.908620 -0.423891 0.522001 -0.081694 0.005539 -0.040337 0.731084 -0.287398 0.999664 0.186634 -0.656820 0.706835 -0.037532 -0.688062 -0.762600 0.878276 -0.422847 -0.237685 0.818943 -0.188117 -0.218828 0.829786 0.653861 0.385847 0.932878 -0.338701 -0.030776 -0.491363 0.756314 -0.003643 -0.951924 0.664934 0.572466 0.570077 -0.416760 -0.421995 -0.470260 -0.685676 0.290607 -0.470596 0.500958 0.633787 -0.763761 -0.536573 0.945725 -0.526361 -0.658297 -0.477121 0.235954 -0.839354 0.334762 -0.982874 0.990432 -0.011377 0.402973 0.923311 0.649922 -0.627803 -0.568052 0.406235 0.368553 -0.519976 0.071169 -0.058981 -0.949900 0.654409 0.519024 -0.420160 0.968733 -0.190369 0.109244 0.469691 -0.556582 0.345483 0.933118 -0.610857 0.819122 -0.725179 -0.087979 0.055077 -0.564533 -0.753217 0.072203 -0.574101 0.235406 -0.524825 -0.650790 -0.114672 -0.152628 -0.218843 -0.708437 -0.784075 0.261181 0.362732 0.156945 0.311281 0.017141 -0.324031 0.891122 -0.014126 0.485600 0.000366 -0.544435 0.929017 -0.654151 -0.611317 -0.681840 -0.835029 -0.336496 0.230181 0.220048 0.098971 0.476964 -0.707750 0.524869 -0.287630 -0.232574 0.874079 0.597698 0.614797 -0.344764 0.889261 0.830723 0.916417 0.251994 -0.012333 0.227699 -0.730865 0.663636 0.118820 0.255009 0.149236 -0.880814 0.710574 0.078253 -0.534965 -0.900743 0.396413 -0.369994 -0.237239 -0.373406 0.850053 0.861732 -0.896441 -0.857696 0.386601 -0.184071 -0.090271 0.260680 -0.586373 -0.475473 0.915917 -0.697112 -0.644751 0.832334 0.554882 0.342917 0.060033 0.824017 0.006553 -0.821147 0.079026 -0.844211 -0.701961 -0.210400 0.234042 -0.236927 -0.111143 -0.369545 0.393079 0.651618 0.257049 0.243132 0.513350 0.360608 0.385436 -0.100048 -0.823463 -0.704834 -0.839368 -0.409836 -0.180308 -0.923451 -0.106948 0.174942 0.908883 -0.552067 -0.482141 -0.031084 -0.728050 0.524411 0.147769 0.350975 0.680200 0.445808 -0.859425 -0.085758 -0.791119 0.029432 0.544697 0.601960 -0.318950 -0.198254 -0.154908 -0.805599 -0.837646 -0.769472 0.094352 -0.661110 -0.474306 0.254985 -0.070946 0.345386 0.331534 0.822106 -0.479672 0.240417 -0.729961 0.038186 -0.790667 -0.458011 -0.437402 0.357102 0.892964 -0.757202 -0.197091 -0.966461 0.157040 0.011790 0.062971 -0.298263 -0.386250 0.744022 0.503483 0.458842 0.938423 0.665837 0.689370 0.032775 -0.995273 -0.784937 -0.712240 -0.066219 0.560449 0.619293 -0.244113 -0.919223 -0.140290 0.025926 0.118963 0.069043 0.567914 0.681561 -0.573856 0.460879 0.924359 0.229054 0.494418 0.081399 -0.759157 -0.442611 0.783136 -0.145407 -0.698589 0.286619 -0.686565 -0.760166 -0.047544 -0.997196 0.272609 -0.042817 -0.782133 0.560368 0.890964 0.778316 0.179662 -0.353149 0.859093 -0.960628 0.672776 -0.021943 0.108414 0.240691 -0.340382 0.534559 -0.298431 -0.416022 -0.236388 -0.804013 0.665377 0.004456 -0.246623 0.448514 0.859049 0.054788 -0.264867 -0.827517 0.294622 0.687589 -0.824712 -0.432769 -0.355228 -0.606845 -0.872401 -0.464264 -0.828529 0.307261 0.182586 -0.969435 0.346632 -0.144638 0.008622 -0.544954 -0.903947 0.668240 0.989605 -0.202378 -0.747782 -0.246783 -0.006391 0.917595 0.757673 0.746986 0.366109 0.616722 -0.198226 -0.898759 0.789205 -0.903604 0.788830 0.964493 -0.336374 -0.566399 -0.642352 -0.208775 -0.030663 -0.470881 -0.901514 -0.848077 -0.440316 0.445118 0.007285 0.568306 0.900164 0.103338 0.236546 0.889769 0.900960 0.488764 -0.357013 -0.105430 0.406359 -0.599340 -0.358444 -0.227532 -0.982618 0.443329 -0.126291 0.806587 0.539725 -0.337461 0.771080 -0.796649 0.096140 -0.871273 -0.005423 -0.934523 -0.342153 0.093062 -0.782599 0.217531 -0.461820 0.224686 -0.214163 -0.561656 -0.671975 -0.977617 -0.671886 -0.771015 0.511147 -0.028899 0.123554 -0.082494 0.371760 0.765110 0.689973 0.389142 0.208439 -0.436317 0.195729 -0.251836 0.226222 -0.033192 -0.048484 -0.677638 0.095535 0.946092 -0.612161 0.753382 0.039155 -0.394760 -0.029087 0.577335 0.829926 0.756749 -0.984321 -0.842049 0.779132 -0.656207 -0.613064 0.290278 0.314894 0.510490 -0.792216 -0.313346 0.275600 0.897758 -0.924204 -0.515961 -0.538560 0.271524 0.232204 0.687662 -0.761667 -0.816280 -0.989976 0.333868 -0.870188 -0.602137 0.087250 0.168967 0.003103 -0.941837 -0.253699 -0.166970 0.814912 -0.238019 -0.009020 0.594044 0.105773 0.377916 -0.115678 -0.579333 -0.111594 0.092106 0.107321 -0.835994 -0.010136 0.183117 -0.351954 0.451304 -0.545359 0.880250 0.138966 -0.307026 -0.936031 0.148989 -0.973158 -0.806219 0.546852 0.114092 0.362748 -0.450044 0.172254 -0.890951 0.382985 -0.012834 -0.128970 -0.626034 -0.418790 0.976803 0.751882 0.465532 -0.602530 -0.359712 -0.442362 0.504791 -0.195706 0.547502 -0.312092 0.452340 -0.001195 0.142548 0.332590 -0.862229 0.835522 0.396559 0.286760 0.862364 0.590340 -0.166387 -0.023545 -0.046912 0.383569 -0.851290 0.062137 -0.233446 0.135876 0.933167 0.140520 0.717086 0.909970 -0.107598 0.182617 -0.692560 0.532690 0.740255 0.812231 -0.663015 0.287757 -0.499862 0.789325 -0.713438 0.642687 0.121914 -0.575667 0.478209 -0.481527 0.711094 0.340572 -0.891187 -0.455293 -0.682972 0.061901 0.928275 -0.534263 -0.875962 -0.305171 0.601613 -0.942795 0.835349 0.318699 0.967174 -0.272249 -0.498684 -0.725386 -0.739559 -0.758428 -0.913155 -0.402574 0.529329 -0.413017 -0.613249 0.815891 -0.770330 0.508665 -0.759776 0.707879 -0.972862 0.951318 0.048451 -0.864048 -0.503975 0.365479 0.197853 -0.575700 0.831216 0.321891 0.119129 0.432829 0.379096 -0.045522 -0.248471 0.346270 0.682229 0.252845 0.620885 0.942670 0.494417 0.707730 -0.459904 0.023745 -0.705287 -0.073153 -0.160364 -0.475617 -0.564488 0.079861 -0.767739 -0.537350 0.031179 0.280712 -0.401398 0.527204 -0.353809 0.796455 0.951504 -0.522593 0.118346 0.070632 0.910237 -0.502558 -0.974890 -0.338235 0.843712 0.707339 0.914610 0.464597 0.650010 0.409027 0.172326 -0.809895 -0.567228 0.467039 0.116952 0.272409 0.991422 0.552464 -0.647730 -0.776317 -0.984886 0.383449 0.504395 -0.386284 -0.089348 -0.849414 -0.589829 -0.137844 -0.372007 0.528517 0.932788 -0.461770 -0.974041 0.957899 0.199995 0.869671 0.665238 0.114605 0.334268 0.315248 -0.476368 -0.493405 0.505353 -0.043596 0.973634 -0.377695 -0.771187 0.965055 -0.825231 -0.418918 -0.811262 -0.810118 0.964531 0.693133 -0.196402 -0.124817 0.843720 0.213769 0.737339 -0.528287 -0.257714 0.670128 0.009942 -0.231756 0.628026 -0.790063 -0.362084 0.293265 0.324542 0.972184 -0.391488 0.848173 -0.521222 -0.886135 -0.195423 -0.547588 -0.263830 0.033390 -0.582532 -0.089061 0.614472 -0.393794 0.100821 0.579003 -0.700661 0.904419 -0.545814 -0.856941 0.118188 -0.808475 -0.385228 0.860474 0.861652 0.624714 -0.371282 0.489679 0.834651 0.266634 -0.217057 0.159193 0.238818 0.391456 0.007366 0.717596 0.505321 0.811943 -0.829992 -0.758509 -0.154667 -0.412524 0.152430 -0.540195 0.193682 -0.746748 -0.961193 0.493021 -0.842329 -0.507007 0.636080 0.275860 -0.315482 -0.749148 0.136333 -0.453830 0.875566 0.765052 -0.964151 0.710217 0.031686 -0.181208 -0.130591 -0.729496 -0.789752 0.876775 0.988100 0.715568 0.688718 -0.841892 0.957060 -0.465949 -0.254416 0.109490 -0.006144 0.939266 0.362742 0.032663 0.432287 0.520413 0.525656 0.068368 -0.203727 -0.789826 0.319219 0.932606 -0.243656 0.194785 0.697658 -0.207807 -0.094998 -0.270656 0.610985 0.774411 -0.000153 0.821233 0.651186 -0.012053 0.536801 0.339905 0.146056 0.493861 0.873956 0.891640 -0.396649 -0.132188 0.830906 0.966093 0.900475 0.263194 0.486507 0.426131 -0.668439 -0.717220 0.636305 0.650781 -0.784614 -0.607351 -0.154434 0.913044 0.184842 0.750568 -0.357612 -0.204173 0.524979 0.642235 -0.382941 0.176165 -0.369818 -0.846139 -0.483930 0.776238 0.647721 -0.609974 0.667878 -0.748927 0.257838 0.498784 -0.782834 0.158313 -0.238022 0.703672 -0.415556 0.093539 0.986452 -0.779252 -0.255680 -0.798162 -0.386603 0.589886 -0.885118 0.798239 0.340454 -0.242730 -0.405934 -0.134567 -0.600495 0.211125 -0.958402 0.029687 0.364986 -0.442332 -0.194075 0.012707 -0.052306 -0.526197 0.263780 -0.794468 0.972588 0.480946 0.363845 -0.265434 0.184618 0.948288 0.828105 0.171070 -0.830963 -0.427575 0.372908 -0.217566 -0.837689 0.487789 -0.419327 0.502765 -0.754941 0.174738 -0.631802 -0.355436 -0.614137 -0.590204 0.674251 0.750849 -0.032536 -0.519824 -0.236444 0.915158 -0.046020 -0.972664 -0.879310 -0.073433 0.508282 0.484535 0.661133 -0.307101 0.432824 0.489238 0.863969 0.601860 -0.938337 0.236877 -0.615706 -0.776026 -0.275334 -0.035033 0.726739 -0.030275 -0.860295 -0.905063 0.614289 -0.474432 -0.495267 0.288540 -0.723583 0.472197 0.768716 0.039974 0.387356 -0.277304 0.067310 0.508046 0.649263 -0.424409 -0.007419 0.310396 0.268491 -0.574595 -0.200366 0.132460 -0.972735 -0.138703 -0.630663 -0.588441 0.085271 0.094003 0.376526 -0.187989 -0.936272 0.516231 -0.093052 0.678017 -0.958201 0.411681 -0.033443 -0.681783 -0.116121 -0.264727 0.358190 -0.728765 0.457969 -0.574500 0.779281 0.107231 0.001091 -0.228138 -0.582373 -0.730418 0.197267 0.217261 0.402041 0.224532 -0.921441 0.771378 0.636091 0.163830 -0.134619 0.012617 0.975841 -0.070891 -0.471152 -0.117211 -0.392873 -0.429353 -0.705530 0.573684 -0.111137 0.178349 -0.691043 -0.752947 0.449584 0.766925 -0.327447 0.228865 -0.125843 0.673644 -0.999273 0.291784 0.943226 0.197994 -0.490954 0.345267 -0.577474 -0.412396 0.116645 -0.941383 0.751434 0.982026 0.071234 0.727275 -0.088864 0.600082 -0.389936 0.518262 -0.829272 -0.095465 0.091946 0.059592 -0.917116 0.400902 0.306645 0.532468 0.167827 0.979198 -0.238668 -0.958016 0.652842 -0.237941 0.333768 0.596068 0.960053 0.842814 -0.058665 -0.617422 -0.569582 -0.942019 -0.558804 -0.818148 -0.959993 0.512430 0.909127 -0.048857 0.112511 -0.480809 -0.530595 0.283240 0.423725 0.561350 -0.657169 0.506609 -0.037747 0.649476 0.039077 -0.869920 0.628674 0.800409 -0.827936 0.281517 -0.437532 0.505832 -0.122415 -0.477479 0.348646 0.818921 -0.094900 0.779063 0.876901 0.346295 0.960915 0.916908 -0.141275 0.870042 -0.131949 0.971236 -0.610767 0.337456 0.254476 0.812959 -0.101194 0.597307 0.319568 0.861059 0.246783 -0.641355 0.991138 -0.124542 -0.840946 -0.836798 -0.843026 -0.278477 0.669034 0.034560 0.244044 0.017680 -0.146520 -0.850856 -0.203256 -0.269618 0.495439 -0.242341 -0.352710 -0.645836 -0.372299 0.515341 -0.674600 0.016934 -0.147203 0.579875 -0.170108 0.751603 0.177182 -0.850540 0.612661 -0.576035 -0.491895 0.603800 0.299423 -0.332840 0.767002 0.456397 0.388683 0.436036 -0.509043 -0.367273 -0.546283 0.344437 -0.218130 0.250460 -0.925181 -0.722691 -0.991881 -0.277891 -0.368527 -0.364180 -0.762550 -0.043127 0.652754 0.090246 -0.463252 -0.517354 -0.158151 0.713930 -0.367893 -0.545490 -0.862105 0.140212 -0.941690 0.437318 0.807372 0.825312 -0.106285 0.196055 0.261348 0.384672 0.828782 0.715064 -0.270890 -0.389348 -0.034475 -0.196072 -0.112039 -0.026356 0.526037 0.519434 0.609463 0.763487 -0.523693 0.262217 -0.146266 0.013054 0.744863 0.695583 -0.273016 -0.623030 -0.849907 -0.135120 0.517182 -0.791598 -0.697802 0.324554 -0.966286 0.195913 -0.479391 0.295062 -0.419414 -0.650610 0.010126 0.309695 -0.039958 0.975651 -0.886376 0.848004 -0.050706 0.639661 0.367438 -0.441242 0.403148 0.843744 0.820975 -0.743118 -0.143201 0.565838 0.952464 0.583783 0.942808 -0.897443 -0.551337 0.459990 -0.689041 -0.249139 -0.215456 -0.655327 0.946774 0.305153 0.639734 -0.472640 0.654543 -0.350139 0.837055 -0.385414 -0.374489 0.950679 -0.537411 0.574805 0.590340 0.830027 -0.866437 -0.006511 0.673772 0.954538 0.250371 -0.469429 0.520376 0.202835 -0.885646 0.463184 0.305392 -0.436983 -0.076826 0.616351 0.313878 0.707719 0.961024 0.260653 0.012872 0.600758 0.788013 -0.332585 -0.749381 0.625068 0.282001 -0.123870 0.575747 0.744590 -0.549065 0.166088 0.574618 -0.415502 -0.840423 0.248389 -0.460964 0.409947 0.778960 -0.940588 -0.387218 0.893314 0.522596 0.918174 -0.543669 -0.554230 0.534525 0.770209 -0.846511 0.495548 0.030862 0.166361 0.096307 -0.181126 0.833776 0.346925 -0.556058 0.115777 -0.776945 -0.980310 -0.139633 -0.326010 0.185778 -0.565015 0.258488 0.345354 0.683374 0.797525 -0.244699 0.462334 0.856936 0.368083 0.355648 0.379532 0.286257 0.811978 0.825302 -0.179218 0.582187 0.978791 -0.683669 -0.386951 0.145152 0.412637 0.431923 -0.021072 -0.240438 0.875866 -0.905295 -0.017383 0.895555 -0.044928 0.656607 0.081333 0.390057 -0.084904 -0.573313 0.073431 -0.287380 0.181989 -0.464235 -0.430443 -0.449928 0.891412 0.949089 0.836329 0.703391 0.774391 -0.342888 0.285578 0.753183 -0.026558 0.898627 -0.101666 -0.613921 0.330550 0.877262 0.145642 0.206416 0.971967 -0.871741 0.101971 -0.072961 0.784866 -0.816696 -0.682904 -0.300038 -0.390008 0.390527 0.412582 0.791980 0.926292 0.982139 -0.657947 0.817704 0.931228 -0.821618 0.521095 0.705619 -0.164507 -0.193327 0.458802 0.808936 -0.294699 -0.642864 -0.804985 -0.964149 -0.765602 0.340656 0.242267 -0.793635 0.468915 -0.655762 0.133404 0.253781 -0.472457 0.450500 0.953743 0.137535 -0.158973 0.366326 -0.070485 -0.232681 0.348465 0.271568 -0.414977 0.279693 0.449950 -0.893882 -0.014688 -0.714557 -0.087209 -0.555886 -0.905621 0.618092 -0.198750 -0.710606 0.653943 0.035649 0.630050 -0.103790 0.242014 0.098965 0.240448 -0.624582 -0.647253 0.767991 0.825918 -0.693510 -0.094474 -0.333055 0.672816 0.835041 0.434263 0.021281 0.106608 -0.980714 -0.699026 -0.443442 -0.874596 0.286286 -0.157999 0.038196 0.730400 -0.063621 -0.343712 -0.468350 0.225773 -0.689770 0.567299 -0.144177 0.206440 -0.190687 0.954788 -0.553112 0.184731 -0.692465 -0.785121 0.010649 -0.385975 0.120405 0.677593 -0.713159 -0.044554 0.111856 0.308122 -0.937946 0.131143 0.609096 -0.381389 0.256547 -0.104618 0.460612 -0.705257 -0.374218 -0.603009 -0.048970 0.157432 0.622764 0.261260 -0.275269 -0.521413 -0.532299 0.534044 -0.566625 -0.085411 -0.281226 -0.259090 0.129469 0.729423 0.354936 -0.750127 0.407016 0.641777 0.205319 -0.481128 -0.050101 0.267373 0.650015 -0.441005 0.885984 -0.093438 0.454377 0.346596 0.201304 -0.919841 0.743587 -0.847665 0.237591 0.366352 0.413595 0.962322 0.844939 0.881296 0.496366 -0.721686 -0.204115 -0.784860 0.019225 0.925353 0.944563 -0.625840 -0.824773 0.351579 -0.984062 0.380546 0.870452 -0.034163 -0.352081 0.520467 0.524832 -0.466097 -0.572971 -0.020790 0.880499 0.628333 0.059369 0.624086 0.780668 -0.703039 -0.009562 0.194263 -0.740717 -0.164623 0.075558 0.755649 0.113691 0.871443 0.970789 -0.867084 0.796796 0.915353 -0.492923 0.972023 0.266932 -0.476986 0.352569 0.137383 0.488851 -0.999512 -0.342150 0.013683 -0.465610 0.084879 0.992893 -0.585111 -0.286788 0.052263 -0.961025 -0.506121 0.349223 0.029413 0.688142 0.608506 0.864790 -0.236300 0.364155 -0.021519 -0.364857 0.334944 0.111398 -0.568060 
0.250297 0.618474 -0.596037 -0.482771 -0.858512 0.756532 0.654612 0.630339 0.757019 -0.687538 -0.355977 -0.708590 0.397341 -0.363084 -0.293702 -0.889447 0.689179 -0.254726 -0.395568 0.038402 0.774687 -0.707426 -0.353092 0.639477 0.056274 -0.988937 -0.382042 0.691417 0.346007 0.729356 -0.876643 -0.403696 0.347830 -0.472681 0.113533 0.489318 -0.716149 -0.231855 0.119657 -0.959129 0.080607 0.763680 -0.667720 -0.522052 -0.599404 0.038579 -0.411499 -0.910226 0.783852 0.192933 0.128176 0.558539 0.485507 0.775084 0.198015 -0.458219 0.786147 0.815974 -0.766802 0.132154 0.545329 -0.643446 0.728459 -0.106841 -0.116126 -0.158008 -0.617523 0.167725 0.610137 0.502134 0.208595 -0.309256 0.265814 0.540875 0.168692 0.666410 -0.420546 0.757193 0.756184 -0.636694 -0.049874 -0.115640 0.921845 -0.564367 -0.340556 0.119860 -0.022587 -0.554409 -0.064166 0.210611 0.577745 -0.518837 0.567165 0.306204 0.374322 -0.548962 -0.851805 0.756799 0.618763 0.758332 0.258934 -0.172642 -0.550924 -0.475252 -0.631766 0.617768 -0.808842 -0.052312 0.374962 0.947342 0.310994 -0.674912 -0.168298 0.232839 -0.239280 0.491146 -0.647301 0.738133 0.936737 0.288534 -0.051256 0.514482 0.769697 -0.484092 -0.179315 0.144019 -0.033053 -0.031120 -0.099181 -0.414290 -0.272788 -0.840248 0.413068 0.176289 -0.315500 0.781302 -0.205943 -0.124342 -0.271010 -0.830981 -0.177001 -0.960016 -0.505894 0.654701 0.272823 0.254826 0.145847 0.625523 -0.007041 0.082584 -0.085944 0.941703 -0.402935 -0.316247 -0.542388 0.417751 0.827773 0.424558 -0.613369 -0.271409 -0.989732 0.113843 -0.111656 0.423336 -0.709868 0.572844 0.204639 0.084189 -0.551498 0.933629 0.253207 0.271501 0.973613 0.747314 -0.073798 0.246436 0.002140 -0.927951 -0.128041 0.995099 0.154633 0.786015 0.936802 0.751698 -0.530231 -0.605586 0.169449 -0.702459 0.818972 0.556080 0.026133 0.829241 -0.330076 0.914477 0.252577 -0.039945 0.487321 -0.542784 -0.955756 0.935822 -0.609156 0.297452 0.207323 -0.635543 0.044765 -0.866475 0.610894 -0.953095 -0.794425 -0.517147 -0.957995 0.360208 -0.731132 0.978807 0.111906 -0.261363 -0.626779 -0.718645 0.036178 -0.807806 0.837435 -0.937690 -0.978566 -0.492641 0.976787 0.274011 0.467414 0.464108 0.731227 0.511658 0.399930 -0.877929 -0.190890 -0.392747 -0.513472 0.853876 -0.259221 -0.902578 0.900781 -0.053646 -0.419725 0.942786 -0.693439 -0.150857 0.921593 0.418467 0.587779 -0.705186 0.699823 -0.376043 -0.512993 0.537258 -0.313733 -0.491559 -0.955383 -0.336946 0.782452 0.512031 -0.872838 0.513679 0.023689 0.527092 0.635750 0.832799 -0.865655 -0.877722 0.686675 -0.124876 -0.780300 0.587456 0.821478 -0.200025 0.530242 -0.871961 0.649117 0.451835 0.546507 0.236896 0.746649 0.246329 0.860853 -0.766344 -0.216413 -0.452880 -0.257902 -0.171797 0.210175 -0.475450 -0.659766 0.337336 -0.961771 0.363923 -0.135572 0.673979 0.196723 -0.001226 0.796257 -0.116602 0.873898 -0.984042 -0.529146 0.695376 -0.184068 -0.998904 0.823415 -0.534951 0.452931 0.369921 0.701946 0.199579 -0.383749 0.562799 0.433236 0.399837 -0.890081 -0.824667 -0.771959 0.320094 -0.300117 -0.431725 -0.342570 -0.261887 0.932199 0.521858 -0.587908 0.128922 -0.479368 -0.791651 -0.987680 -0.605470 -0.775693 -0.516826 -0.910094 0.040239 -0.515730 0.913321 0.505288 0.937201 0.283242 0.207234 0.136780 0.899493 -0.229967 -0.429984 0.299330 -0.120048 -0.254651 0.527371 -0.799954 0.445232 -0.904354 -0.142524 -0.816655 -0.972155 -0.620666 -0.404564 0.156766 -0.100034 -0.196214 0.169086 0.294496 0.028092 0.652260 0.384402 -0.931669 -0.863470 0.297722 0.573620 -0.926270 -0.419036 -0.219146 0.210510 -0.519543 0.550887 0.780526 0.779787 -0.569161 -0.474125 0.307158 -0.369115 0.971107 0.402804 0.488360 -0.845548 0.430648 0.867694 -0.250112 -0.412585 -0.232340 0.553674 0.756500 -0.937844 -0.418234 0.408760 0.446557 -0.349902 0.545290 -0.255721 -0.776283 0.619020 0.325244 0.004571 -0.170470 0.805700 -0.444542 -0.389944 0.585487 -0.013703 0.135931 -0.107355 0.617182 0.107038 -0.704551 0.105542 0.261490 0.726097 -0.026764 -0.988622 -0.686489 0.740896 0.565052 -0.929988 0.803051 -0.853182 0.478772 0.249608 -0.203084 0.024062 0.993888 0.020633 -0.356918 0.319131 -0.974795 0.472612 0.124832 -0.419337 -0.917331 -0.289681 0.566961 0.218600 0.602964 0.184143 -0.674362 0.898412 -0.710315 0.587128 0.624509 0.262921 0.598507 0.938021 0.003816 0.163559 -0.991967 -0.193133 0.310377 0.486805 -0.943524 -0.892707 -0.489133 -0.949636 0.127926 0.153949 0.369495 0.153131 -0.373439 -0.505674 0.733795 -0.290770 0.204645 0.300755 0.927830 -0.192391 -0.515102 -0.746532 -0.293979 -0.225417 0.840596 -0.669470 -0.962497 0.439103 -0.731450 0.041319 -0.397339 -0.723417 0.848187 0.913038 0.763388 0.904663 -0.979669 -0.725746 0.955026 0.148257 0.428203 0.324521 -0.698611 -0.945237 0.818847 -0.964817 -0.236007 0.023492 0.335938 -0.308177 0.831101 0.820836 -0.054710 -0.462879 -0.404581 -0.214114 -0.132349 -0.367078 -0.775011 0.136201 0.674241 -0.172350 0.412784 0.522428 -0.259312 0.176172 0.427091 -0.238980 0.450426 0.382117 0.909277 -0.121372 -0.293362 -0.789334 -0.066608 -0.474515 -0.754151 0.697385 0.548977 0.581787 -0.610792 0.380078 0.402623 0.334498 0.917199 0.998042 -0.879615 -0.215149 -0.369036 -0.654626 0.921052 -0.694795 0.173024 0.333836 0.827633 0.913712 -0.489992 0.254724 -0.325268 0.960434 -0.363159 -0.415991 -0.160938 0.343479 -0.205326 0.772454 0.868964 0.040523 0.469839 0.417942 -0.377690 0.859047 -0.201980 -0.975067 0.193545 -0.284781 -0.977025 0.313929 0.500070 -0.346061 0.659303 0.421122 -0.040856 -0.167673 -0.245042 -0.213222 -0.253961 0.264966 -0.958498 0.420771 0.225400 -0.321657 -0.995220 -0.935538 -0.978178 -0.200546 0.836916 0.890787 0.839977 0.306755 0.308728 -0.537713 0.165802 -0.893252 -0.512780 -0.640653 -0.178033 -0.489805 0.673276 -0.677963 0.164134 0.332579 0.743159 -0.876721 -0.835094 -0.501883 -0.089943 -0.089055 0.763083 -0.048441 -0.668284 -0.011517 0.629902 -0.663504 0.052945 0.651725 0.135950 -0.110138 0.542512 -0.024073 -0.803383 -0.148760 0.438214 0.362419 -0.042012 0.925434 0.721766 0.779955 -0.564371 0.395043 -0.898008 0.599763 -0.272378 0.845151 0.723042 -0.107472 -0.656732 -0.366901 0.803473 -0.893649 0.584658 -0.864811 0.094834 0.214560 -0.528315 -0.852220 -0.133715 0.607635 0.037641 -0.591203 -0.416438 0.234259 0.260037 -0.978224 -0.403322 -0.781976 0.947210 -0.681556 0.997979 -0.617161 0.713487 -0.900029 0.982602 -0.558891 0.945121 0.705644 0.333637 -0.711611 -0.661257 0.137110 -0.605260 0.923401 0.272299 0.489574 0.137962 0.743984 0.637354 -0.995753 0.351619 -0.325005 -0.586956 0.935181 0.909254 0.673081 0.956957 -0.494068 0.891105 0.904166 -0.175624 0.889084 -0.712995 -0.462137 0.989055 -0.730393 -0.021029 0.934176 0.975251 -0.687392 -0.777435 -0.686005 0.449718 -0.382695 -0.762604 -0.277982 -0.893121 0.375358 -0.533998 0.744233 0.379605 0.817621 -0.580772 0.792649 0.752803 -0.671519 0.465730 0.709760 -0.165587 0.356835 0.613926 0.658789 0.245919 0.900931 -0.803348 0.234973 -0.829462 0.175623 0.169149 -0.854210 0.488231 0.391714 -0.540216 -0.062051 -0.990981 -0.302819 0.659967 -0.884102 -0.927461 -0.874031 0.860130 0.452144 0.943590 -0.720642 0.244794 0.696393 -0.392161 -0.289476 0.406153 0.442252 -0.932641 0.020079 0.101041 0.313277 -0.078990 0.297693 -0.451749 0.091548 -0.526684 0.717400 0.237338 0.961547 0.109114 0.697122 -0.100504 0.118133 -0.605698 -0.440537 0.234030 -0.533159 -0.314568 0.094160 0.918985 -0.370977 0.373518 0.163779 -0.674584 0.981357 0.874302 0.731569 0.423610 0.941661 -0.248352 -0.475349 0.254938 0.672657 0.822344 0.803189 -0.235794 -0.704340 0.520589 -0.998457 -0.742793 -0.370298 0.698665 0.156704 0.747835 -0.907032 0.716167 -0.018134 -0.440191 -0.598400 -0.923974 -0.521206 0.030622 0.449544 0.642573 0.356038 0.430902 0.516875 0.087607 -0.145488 0.458536 0.839254 0.379163 -0.286526 0.511912 0.201507 -0.483337 -0.723883 0.497167 -0.962748 -0.722339 0.754375 -0.333046 0.976326 -0.088922 -0.585211 -0.930707 -0.372754 0.396655 -0.370898 0.028845 0.472681 0.107896 -0.940532 -0.077775 -0.249532 0.415506 -0.646873 -0.732656 -0.496887 0.207638 0.725880 -0.657633 -0.413199 -0.560646 0.854279 0.788308 -0.043983 -0.869604 0.285475 -0.006731 -0.591943 0.039850 0.660223 -0.615617 0.950929 -0.924988 -0.546324 -0.421826 0.471667 0.082778 0.607019 -0.055652 -0.809326 0.666487 0.866573 -0.058858 0.081993 -0.780300 0.208486 0.585106 0.427338 -0.065635 0.927473 -0.985861 0.373719 0.781752 0.802447 -0.670264 0.912148 0.087923 0.323005 -0.679794 -0.872227 -0.016772 -0.295412 -0.921299 0.058240 0.158264 -0.343124 -0.470093 -0.758958 -0.736105 0.474256 -0.568284 0.930382 0.340829 0.372858 0.012375 0.560529 -0.418656 -0.402519 -0.012133 0.515710 -0.475046 0.002006 -0.110571 -0.693294 -0.195546 0.219165 -0.781146 0.892377 -0.457829 -0.460940 -0.979851 0.525399 0.243648 -0.901149 -0.416361 -0.598088 -0.244274 0.113546 -0.357046 0.019621 -0.412198 0.074671 -0.049996 0.928631 -0.552471 0.962379 0.489159 0.028873 -0.440141 -0.522974 -0.455417 0.084813 0.479032 0.434012 0.391519 -0.716514 -0.346823 0.610373 -0.824138 0.195348 -0.850567 -0.803988 -0.279254 0.393081 -0.705137 0.304385 0.794993 0.050589 -0.582069 -0.562052 -0.929789 0.005733 0.512618 0.020214 -0.065636 0.960147 -0.017407 -0.576477 -0.010980 0.542452 -0.099451 0.533603 -0.372734 -0.620419 -0.032386 -0.981215 -0.336933 0.620791 0.629158 -0.161070 -0.183861 0.778591 0.034942 0.536885 0.171672 0.329805 -0.158730 -0.033334 -0.619606 0.259202 0.404614 -0.549395 -0.735065 -0.082768 0.470819 0.199299 -0.122621 -0.546588 0.622822 0.866399 0.995864 -0.476629 0.400002 -0.376870 -0.097048 -0.632384 -0.358085 0.566020 0.988408 -0.728927 -0.595051 -0.195453 -0.950336 0.439891 -0.658568 0.221336 -0.230304 0.182703 -0.811998 0.150090 -0.558096 0.592616 0.600694 -0.293161 -0.490152 0.071513 0.906138 0.387227 0.524925 0.528960 0.253626 0.520789 -0.947669 -0.346372 -0.856081 -0.044717 0.021244 -0.214166 -0.478698 0.009652 0.056907 -0.073748 0.814199 0.106571 -0.633857 -0.844369 -0.672093 0.135839 0.338333 -0.484091 -0.714072 0.780238 -0.891475 0.886623 -0.512923 -0.381627 -0.041864 -0.606785 -0.994401 -0.516939 0.922175 0.259225 -0.996150 0.974505 0.912853 -0.852231 -0.070212 -0.065903 -0.066397 0.451091 0.943749 0.990510 -0.622658 0.757948 0.097081 -0.256515 0.913579 0.424988 0.879324 0.251912 0.940898 -0.834748 0.032150 -0.950577 -0.948125 0.519227 -0.332205 0.010011 0.912442 -0.326605 0.493072 0.834616 0.932620 0.496921 0.809121 0.845473 0.644690 -0.261091 -0.220430 -0.421707 -0.810000 -0.276682 -0.431197 -0.432658 -0.518734 0.665884 0.310828 -0.605155 0.090872 0.190152 0.646757 0.031770 0.355404 -0.321093 0.081192 0.407279 -0.801866 0.748988 -0.582710 -0.889425 -0.577618 0.910362 0.945191 -0.644998 0.407283 0.754313 -0.799526 0.051974 -0.506778 -0.019956 0.630267 -0.316778 0.703362 -0.800930 0.250564 -0.815372 0.864954 -0.438608 -0.420527 -0.044174 0.751544 -0.773770 0.987596 0.106949 -0.094863 0.068788 -0.485772 0.103270 -0.182224 -0.068482 0.213846 0.240158 -0.158120 0.159037 0.595160 -0.750837 -0.086651 0.795634 0.301137 0.406571 -0.224323 -0.068596 -0.910207 -0.520960 0.130475 0.340358 -0.336332 -0.004571 0.901750 0.243141 0.951255 0.653294 0.469371 0.938851 -0.239757 -0.625492 0.007640 0.274471 0.477779 0.825416 -0.794011 -0.308376 0.065574 0.047870 0.850661 -0.339267 0.297033 -0.235989 -0.543633 -0.401830 -0.829418 0.232044 0.529574 -0.739625 0.711084 -0.339951 0.600733 -0.625248 0.655478 0.502483 0.617893 0.606733 0.155778 0.087264 0.545585 0.916021 0.461772 -0.446775 0.190492 -0.060449 -0.621360 0.396481 0.631175 0.444214 -0.555649 0.481836 -0.895053 0.741383 -0.754153 -0.438686 -0.660446 -0.583571 0.793358 0.869128 -0.323196 0.504442 -0.470823 -0.722463 0.879194 -0.815345 0.780021 0.497087 0.791388 -0.064202 -0.415648 0.336973 -0.148181 -0.953876 0.890198 -0.957690 -0.014325 -0.731162 0.438791 -0.383150 0.713052 0.883142 -0.901313 0.817999 0.624525 -0.655466 -0.620687 0.964079 -0.239037 -0.827329 0.833207 0.437767 0.677113 -0.637616 0.715304 0.556307 -0.452962 0.495325 0.053394 -0.661573 -0.568877 0.637746 0.675400 0.282942 0.683870 0.565598 0.325252 -0.330455 0.834436 -0.235956 0.286396 0.547488 -0.352814 0.385083 0.365487 -0.728289 0.729617 0.744800 -0.764210 -0.509421 0.917471 -0.931003 0.928346 0.594584 -0.568619 0.643650 0.150891 -0.021581 0.138975 -0.795715 0.316846 0.570098 0.842032 -0.007754 -0.146961 0.525902 -0.442157 -0.821708 -0.804553 -0.607721 -0.057665 0.481843 0.939768 0.589521 -0.133075 0.305255 0.861232 -0.403458 0.050054 -0.902978 0.087121 -0.032475 -0.833982 0.015467 -0.437891 -0.402601 -0.340882 0.713000 0.575818 0.798093 0.917285 -0.107336 0.368190 0.759317 0.884909 -0.778770 0.285219 -0.557247 -0.600479 0.480665 -0.164968 0.341857 -0.037492 -0.225200 -0.068623 0.829434 -0.919946 -0.207391 -0.574024 0.130109 -0.110370 0.513097 -0.902366 0.055649 -0.471436 -0.340257 0.653048 0.187682 -0.627257 0.228865 -0.014225 -0.709972 -0.878471 -0.646035 -0.950655 -0.993562 -0.424805 0.334564 -0.550809 -0.025284 -0.184771 0.284223 -0.683427 0.777737 -0.940977 0.247950 0.607171 -0.860922 -0.959441 -0.966854 0.269186 -0.069811 0.546243 0.366820 0.985837 -0.925193 -0.973437 0.638885 0.262489 -0.600694 -0.132250 -0.751736 -0.310666 -0.010721 -0.397771 -0.261321 -0.004282 0.177424 -0.926757 0.444909 -0.847860 -0.111528 -0.270868 -0.531288 -0.333791 -0.211844 0.716662 -0.726620 -0.072767 0.757221 -0.693474 -0.803580 -0.312591 0.852770 0.563240 -0.326753 0.927577 0.589803 -0.687868 0.190066 0.989110 0.179882 0.438330 -0.321556 -0.830839 -0.959441 0.417123 0.164879 0.217983 0.490366 -0.390213 0.370122 -0.621162 0.338920 0.838835 0.045048 -0.872925 0.555497 0.318428 0.054309 0.312717 0.624954 0.250728 -0.999873 0.477724 -0.186031 -0.326627 0.405300 -0.596228 -0.014495 -0.404633 -0.607119 -0.834613 -0.966303 0.071325 -0.665452 -0.925744 -0.511552 0.499427 0.292239 0.978815 -0.890786 -0.337639 -0.642347 0.448134 -0.498804 0.402700 0.575209 -0.943308 -0.278872 -0.370482 0.369410 -0.653918 0.880246 0.369536 0.823806 -0.305785 -0.957090 0.229106 0.097987 0.028414 0.824473 0.490868 0.193801 0.858170 -0.437806 0.528349 0.932426 0.050642 0.027776 0.224665 0.029457 0.136990 0.887026 0.387109 -0.414876 -0.611778 -0.210190 -0.839667 -0.555086 0.510938 -0.210149 0.814324 0.857020 -0.329903 0.183860 0.680826 0.364312 0.226769 -0.090068 -0.537701 -0.744816 -0.265595 0.953168 0.448985 -0.407425 -0.484639 -0.022666 -0.474999 0.566003 -0.994890 0.749666 -0.404540 0.142100 0.636693 0.982569 0.727224 -0.975085 -0.227621 0.887556 -0.530171 -0.716683 -0.322593 -0.715847 -0.859663 0.347505 0.468013 0.821163 -0.288183 -0.305218 -0.268906 0.174116 -0.050034 0.465499 0.127283 -0.601048 -0.941926 0.642645 0.376286 -0.416925 0.208648 0.381396 -0.667259 0.804108 -0.476504 0.969434 0.786677 -0.749280 0.994349 -0.440944 -0.861724 -0.535822 -0.157627 -0.184316 -0.251669 -0.017290 -0.836812 -0.783656 -0.196127 -0.124995 -0.088873 0.534967 -0.950879 0.861093 0.000466 0.176404 -0.739955 0.058540 -0.180951 0.636331 0.641615 -0.972303 0.017727 0.974356 0.831805 0.541223 0.943790 0.618482 0.791943 0.938139 -0.822462 0.930219 -0.597682 0.019911 -0.254097 0.150649 -0.997379 -0.090909 0.366993 -0.193506 0.784096 -0.721880 -0.658539 0.833217 -0.860787 0.341928 0.009621 -0.600742 -0.599533 0.828670 -0.964412 -0.957918 0.856367 0.053315 -0.983562 0.688172 -0.405461 0.960229 0.306653 -0.613519 0.898368 0.484191 -0.683300 -0.699314 -0.495898 0.062603 0.451335 -0.493276 0.971694 -0.181672 0.313218 0.755789 0.096448 0.654679 0.589006 0.235661 -0.003393 -0.401373 0.634919 0.397074 -0.572703 0.670507 0.439157 -0.716336 -0.276177 0.455595 0.971835 0.318361 0.415824 0.278489 0.704842 0.314192 -0.237320 -0.978457 0.614878 0.266782 0.084146 0.066212 0.773506 0.055839 0.884541 0.086723 -0.188371 -0.019011 -0.258597 -0.599366 -0.783350 0.738010 -0.000739 0.851569 0.135084 0.426558 0.522076 -0.425759 0.710222 -0.754102 -0.970164 0.682057 0.564259 0.445659 -0.039454 0.269102 -0.240149 0.723225 0.290645 -0.625272 -0.009993 -0.625210 0.440941 -0.236487 0.430630 0.325481 0.850236 -0.757742 -0.693530 -0.408361 -0.357107 -0.476880 -0.670351 0.642154 -0.625312 0.464733 0.068712 0.896764 -0.961027 -0.221067 -0.857338 -0.931191 -0.539010 0.706922 0.514468 0.421536 -0.023976 -0.725681 0.144761 -0.733332 -0.350953 -0.865231 -0.358541 -0.910012 -0.101718 -0.927912 0.415469 -0.251482 -0.685653 0.721939 0.340157 -0.042761 -0.754942 0.669806 -0.400607 -0.380253 0.134538 0.668105 -0.483489 0.173512 -0.552962 -0.340827 0.242321 -0.091972 -0.633905 -0.243211 -0.670436 0.342118 0.031108 0.474325 0.608787 0.680154 0.609094 -0.749755 0.770142 -0.492625 -0.677666 0.185611 0.255893 -0.363320 -0.092451 -0.403950 0.593920 0.152608 -0.734144 -0.806687 0.772355 0.400394 0.861417 -0.711135 -0.426094 -0.691545 -0.051962 0.816227 0.216483 0.314133 -0.426984 0.546047 -0.343749 0.604123 0.020373 -0.734962 0.284278 -0.370533 -0.484717 0.054419 0.136842 -0.162383 -0.759970 -0.607265 0.474297 0.147580 -0.011215 0.068217 -0.699813 0.254641 0.261529 -0.927458 -0.344965 0.122947 -0.638592 0.228941 0.431402 0.309446 0.045168 -0.352115 -0.376421 0.618183 -0.806068 0.279830 0.222306 0.214305 0.544868 -0.493416 0.843771 -0.939848 0.561003 -0.019387 -0.102231 0.801034 0.373349 -0.627934 -0.051387 -0.637866 0.440282 0.248801 0.616775 -0.298188 0.321343 -0.728190 0.824758 0.682750 0.500751 0.256160 -0.007804 -0.454081 0.904045 0.615775 -0.835898 -0.902023 -0.104394 0.386408 0.312282 -0.559526 0.892992 0.156054 -0.499374 0.453996 -0.863333 0.398394 0.255029 0.510016 0.770460 -0.796358 0.872150 0.210742 0.452443 0.488925 0.912554 -0.226214 0.760735 0.737312 -0.543464 0.261485 -0.006528 0.448732 0.807404 -0.102483 0.064507 0.971506 -0.004506 0.960113 0.357914 -0.692224 -0.599413 0.250906 0.463830 -0.098787 -0.295098 0.600497 -0.700393 0.959931 0.110513 -0.929933 -0.836427 -0.017338 0.280809 0.616016 -0.528413 0.193363 -0.610198 -0.767679 -0.069325 -0.153662 0.493807 0.924147 -0.704930 0.301211 -0.178336 0.359577 0.272717 0.817159 0.319690 -0.369369 -0.875065 0.720277 0.881537 0.588765 -0.378511 -0.413561 0.189261 -0.078904 -0.453630 -0.700226 -0.008837 -0.290057 0.282436 -0.728027 -0.674041 0.754023 0.465336 -0.284239 0.986344 -0.603989 0.562099 0.480151 -0.679841 0.857169 -0.218638 0.141823 0.216745 -0.945921 -0.041018 -0.463565 -0.315291 0.083917 -0.743288 -0.433754 -0.327319 -0.121799 0.152685 0.861943 0.799297 0.699055 -0.838283 -0.209539 -0.591002 0.444153 0.062433 -0.265042 0.198176 -0.472231 0.450719 0.184520 -0.076219 0.012818 -0.335329 0.243940 -0.130014 0.446033 -0.614237 -0.913268 0.500111 0.344745 -0.376833 -0.815179 -0.571338 -0.120122 -0.248933 0.101343 0.758079 0.903752 -0.036715 0.557377 0.602807 0.125002 -0.652162 -0.988195 -0.430845 0.410271 -0.253237 0.767330 0.938041 -0.802518 -0.048150 -0.138179 0.210299 0.616521 -0.894239 -0.919714 0.062554 -0.508476 -0.832983 -0.437335 0.836269 -0.209816 -0.252514 -0.735069 0.670062 0.498553 0.366274 0.428142 0.402305 -0.670441 -0.014481 0.005112 0.454561 0.333356 0.016917 -0.976284 -0.256373 0.763680 0.791046 -0.318332 0.961161 -0.257104 0.543489 0.171461 -0.640583 0.649251 0.251746 0.421970 -0.859225 0.418763 0.984635 0.977044 -0.791053 -0.267879 -0.758025 0.879010 -0.769327 0.608249 0.307152 0.632978 0.937809 -0.707330 -0.361910 0.392370 0.626027 0.655007 0.416086 -0.630346 0.418686 0.207132 0.051322 0.379848 0.950028 -0.405189 -0.448691 -0.690556 -0.755938 0.803055 0.731415 -0.615163 0.221818 0.716050 -0.638119 0.430766 -0.551829 -0.396143 0.309775 -0.321156 -0.787894 -0.383073 -0.688178 -0.850086 -0.090403 -0.050089 0.542284 -0.464376 -0.395082 -0.041630 -0.094722 -0.976395 -0.834498 0.956600 0.403452 -0.884470 -0.448588 0.954761 -0.575026 -0.204526 0.757816 -0.843611 0.180311 -0.020366 0.872439 0.542192 -0.589601 -0.679391 -0.853951 0.720175 -0.000547 -0.641846 -0.662898 0.311275 -0.491931 0.246699 -0.738813 -0.949647 0.782323 -0.133895 0.008723 -0.312398 -0.110291 0.174225 -0.355798 -0.706838 0.289754 0.195614 -0.752078 0.714728 0.991088 -0.994262 0.871117 0.171399 -0.014628 0.743556 -0.286409 0.395771 -0.935835 -0.140361 0.115946 0.063619 0.217794 0.453048 -0.625106 0.725863 -0.300253 -0.363920 0.776215 -0.517929 0.502185 -0.215062 0.169672 -0.608106 0.959163 0.813874 -0.314944 0.248917 0.009488 -0.067022 -0.036354 0.000576 -0.061284 -0.165237 -0.828026 0.924088 -0.421681 -0.114435 0.319859 -0.357516 0.745204 -0.564194 0.706102 -0.037002 0.888854 -0.919004 -0.311139 -0.411399 -0.282924 -0.534924 0.070672 -0.780738 0.250015 -0.759656 -0.388844 0.209178 -0.945782 0.296212 -0.541905 0.063706 -0.770810 0.421740 -0.935718 0.167907 -0.743497 -0.763744 0.091995 -0.165179 0.121821 -0.588146 0.477305 -0.132975 -0.152340 0.183408 0.830023 -0.263487 0.264404 -0.481116 0.325114 0.981480 -0.016040 -0.604214 -0.799258 -0.766026 -0.363870 -0.188102 0.443152 -0.309652 -0.891891 0.901247 0.754054 -0.662700 0.322987 0.818335 0.505206 0.579490 -0.945409 -0.402799 -0.585689 0.176411 0.009055 0.891617 -0.956564 0.856714 0.075024 0.873459 -0.406772 -0.660572 -0.607657 0.918342 -0.679092 0.376303 -0.685872 -0.478351 0.610278 -0.049742 0.333547 0.053430 0.640605 0.441656 -0.045324 0.394659 0.778956 -0.722337 0.212994 0.284162 0.857153 0.267584 0.881362 -0.728535 -0.556004 -0.109583 -0.836919 -0.512568 -0.252868 0.238105 -0.639108 0.340359 0.577533 -0.246765 0.258701 0.898440 -0.870462 0.572829 -0.579910 0.739815 -0.476913 0.753636 -0.206755 -0.836308 0.195292 0.747921 0.558350 -0.025752 -0.974416 -0.228656 -0.741591 0.882738 -0.961071 -0.860228 -0.845798 -0.517075 0.030189 -0.682717 -0.029643 0.777320 0.555388 0.331248 0.117679 0.132921 -0.915517 -0.623619 0.031362 -0.785979 0.949210 0.451451 0.953836 -0.527703 0.205087 -0.252919 -0.364011 -0.599620 -0.504998 -0.805661 0.374627 -0.479414 -0.034317 0.633037 -0.596676 0.004612 0.772808 -0.442474 0.487536 -0.197003 -0.125191 -0.542107 -0.419683 -0.569802 0.789141 0.697996 0.563119 0.873625 -0.925623 -0.405520 -0.912355 -0.976413 -0.954069 -0.958519 -0.504116 0.251019 -0.211438 0.131873 0.651398 0.283564 0.326212 0.026026 0.804150 -0.708105 -0.340938 -0.792527 0.296507 -0.568129 -0.235001 -0.215957 0.234867 0.639808 0.241937 0.815184 -0.929994 0.031078 0.513181 0.633125 -0.095297 0.587558 -0.772395 -0.007652 0.611145 -0.726463 0.033829 -0.892971 0.524556 0.822391 0.238902 0.175954 0.105955 -0.434886 -0.798021 -0.089896 -0.142991 -0.138958 0.117578 -0.846483 0.292912 0.882577 -0.062440 -0.472221 0.522385 -0.820503 -0.657036 0.592391 0.210575 0.856145 0.225516 -0.884723 0.443703 0.453121 0.107625 0.054848 0.726658 -0.858546 0.161878 0.251214 0.963845 -0.599220 -0.572833 0.069800 -0.034106 -0.370853 0.979904 0.822904 0.490188 0.097481 0.976420 -0.216899 -0.019942 -0.086020 0.310880 -0.497557 0.093477 0.653844 -0.905165 -0.695949 0.509988 0.320351 -0.580672 -0.046309 -0.226528 0.526953 -0.991461 -0.499870 0.668408 0.170417 0.751344 0.632253 0.571196 -0.821489 -0.297948 -0.462910 -0.192342 -0.318044 -0.640006 -0.702153 0.779437 -0.663586 0.080947 -0.240505 0.250394 -0.608173 0.261938 -0.656129 -0.954329 0.356773 -0.352078 0.555660 -0.322876 0.067250 -0.490649 0.450596 -0.405796 -0.482110 0.950726 -0.737389 0.688306 0.702070 0.894864 0.259503 0.880581 -0.403084 0.796593 -0.311760 0.278872 -0.843413 -0.013914 0.058309 -0.506999 -0.932966 0.817804 0.743395 -0.541139 0.079743 -0.912734 -0.495468 -0.563485 -0.264812 -0.939808 0.113639 0.802438 -0.430458 -0.435765 -0.603359 0.087432 -0.485039 -0.340747 -0.224262 -0.782969 -0.445883 -0.964759 -0.902388 0.151033 0.831833 -0.214148 -0.570096 0.988420 0.771938 0.488213 -0.518579 0.838972 0.306018 -0.775183 -0.702167 -0.614240 -0.687918 -0.197635 -0.177724 0.047270 -0.137443 0.935915 -0.150292 0.432099 -0.499851 0.246349 -0.480469 0.015110 0.905602 0.295269 0.232141 -0.540282 0.330510 0.329753 0.610751 0.162343 -0.884396 -0.959345 
0.150764 0.887543 0.528869 0.632185 0.726515 -0.165113 0.857002 -0.975652 0.220647 -0.830916 -0.173287 -0.957077 0.216354 0.689270 0.978837 -0.933938 0.121370 -0.521013 0.312411 0.640901 0.494097 0.218013 -0.063830 -0.273763 0.677731 -0.733320 -0.944010 0.288482 0.429023 -0.828406 0.329137 -0.420213 -0.940863 -0.141994 -0.788028 0.785652 0.692893 -0.931026 0.810000 -0.086461 -0.761942 -0.363287 -0.043538 0.454412 -0.674017 -0.064701 0.520474 0.447353 0.414286 -0.167115 0.088254 -0.091617 -0.949102 -0.975576 0.634620 0.728628 -0.708896 0.690610 0.017110 0.720127 0.862204 -0.653753 -0.700086 0.921341 0.204253 -0.488113 0.706993 -0.102854 -0.419139 0.516993 0.810685 -0.181081 -0.846294 -0.232853 -0.726668 -0.520310 0.702446 0.793806 0.927043 0.116732 -0.373309 0.015297 -0.974885 -0.322411 0.039720 0.659735 -0.593783 0.330824 0.350344 0.423327 0.050952 0.212549 0.769575 0.350866 0.133890 -0.026172 0.862753 -0.159117 0.870974 -0.556386 -0.642123 0.681659 0.262533 -0.488417 -0.551193 0.535865 -0.008727 -0.848747 0.329671 -0.081685 0.267985 0.956362 0.933612 0.293100 -0.366049 -0.026668 -0.047165 0.040168 -0.695843 -0.696821 -0.536505 0.355108 0.515728 -0.766930 -0.294026 -0.350382 0.206898 -0.431273 0.490501 0.077872 0.012341 0.848378 -0.240469 -0.725125 -0.640039 0.208338 0.810740 0.351233 0.359591 0.140411 -0.730451 -0.372424 0.096774 -0.796840 0.920677 0.730725 0.176492 -0.126488 -0.229107 0.480649 0.176691 0.234388 -0.164243 -0.307581 0.467458 0.541732 0.342037 -0.325644 -0.889541 -0.167461 0.752228 0.122800 -0.319083 -0.488241 0.397675 0.040877 0.720097 0.208415 -0.607889 0.079688 -0.651174 -0.338341 0.707265 0.445600 -0.135180 0.627941 0.176324 -0.958688 -0.498547 0.947217 0.521961 0.678144 0.181605 -0.642281 -0.629437 -0.350937 0.899450 0.712600 0.323419 -0.990090 -0.454861 0.075647 0.132710 0.226055 0.587406 -0.469615 -0.733067 0.307503 0.738800 -0.340957 -0.612808 -0.912374 0.320703 -0.905544 0.533226 -0.814478 0.722398 -0.290450 -0.773166 -0.776150 -0.343233 0.748795 0.901994 0.838373 -0.893486 -0.727443 -0.512565 -0.994036 0.985157 0.810854 -0.984126 -0.469705 -0.113499 0.148584 0.756350 -0.526093 0.678969 -0.976717 0.781410 0.417769 -0.317674 -0.831398 0.505395 -0.996971 -0.736942 0.038621 -0.811449 0.985456 0.748171 -0.584615 -0.790694 -0.595062 -0.835820 -0.888700 -0.756689 -0.729306 -0.616143 -0.269254 -0.723342 -0.630986 -0.458399 -0.707468 -0.100691 0.428102 0.441116 -0.344340 0.902009 0.120085 -0.321057 0.683419 -0.462146 0.361269 0.852021 -0.956751 0.364298 -0.884920 0.081869 0.552849 -0.899465 -0.169960 0.968234 -0.690158 0.234978 -0.867585 -0.578858 0.478289 -0.596891 -0.195001 -0.790964 -0.320233 0.174013 -0.249364 -0.027701 -0.926678 -0.821262 -0.586585 -0.271018 -0.919253 0.533500 0.407925 0.764166 -0.928646 -0.230806 0.616187 -0.885397 -0.866508 0.731266 0.196472 0.686341 0.831802 -0.973488 0.654575 -0.858357 0.261490 0.786990 -0.437215 -0.260220 -0.809901 0.367784 -0.051185 -0.130134 -0.458203 0.699452 0.842166 -0.384880 0.878189 -0.744419 0.344101 0.958936 0.789081 -0.247974 0.723102 0.860435 0.521220 0.339289 0.975038 0.654712 0.070555 0.171509 0.341053 -0.097643 0.198021 -0.004372 0.044000 -0.540488 -0.217382 0.606786 0.199292 -0.027283 -0.025430 -0.851893 0.842584 0.516368 0.847558 0.684749 -0.868513 0.725748 0.940330 0.475589 0.684684 0.729412 -0.772385 0.407785 0.589847 0.748835 -0.252926 0.564884 0.403546 0.817629 -0.263607 -0.255401 -0.280014 0.934415 0.740227 0.763987 -0.606073 -0.477155 0.370773 0.593218 0.495562 -0.654657 0.741325 0.338146 0.861711 0.588883 0.022895 0.993198 0.314631 -0.036774 0.468787 -0.000685 -0.307363 0.696402 -0.592900 -0.717516 0.445236 0.154174 0.847368 -0.151217 -0.028196 -0.416238 0.593382 0.691790 -0.481824 0.333609 0.455777 -0.087897 0.856454 -0.173451 -0.494679 0.352016 0.171892 -0.753354 -0.309838 0.033603 0.835529 0.713058 0.026801 0.150161 -0.323717 -0.504413 -0.850524 0.368921 -0.808011 -0.443424 0.651405 0.637226 0.710750 0.498773 -0.513992 -0.317446 -0.917465 -0.920610 -0.625657 -0.399289 0.412999 0.830120 0.512814 0.269453 -0.343331 -0.981865 -0.378531 0.828561 -0.735219 0.311631 -0.137836 -0.899689 0.024689 0.888965 0.250471 0.700972 -0.615448 0.399947 0.069893 -0.423459 0.956522 -0.278702 -0.786233 0.667273 -0.779929 -0.300225 -0.650174 -0.697394 -0.220835 -0.275830 -0.096683 -0.807836 -0.445710 -0.583869 0.461617 0.210959 -0.565734 -0.916915 0.039520 -0.300953 0.394716 0.901684 -0.200642 -0.580595 0.790649 -0.950171 -0.879623 -0.824799 0.449776 0.190270 -0.248258 0.406298 0.911568 -0.034491 0.073571 -0.868361 0.665284 0.423397 -0.565755 -0.555551 -0.852434 0.337562 -0.363387 -0.298144 0.753693 -0.901770 0.912815 -0.812041 -0.818685 -0.047665 -0.112994 0.576032 -0.145981 0.686364 0.995436 -0.355333 0.736193 -0.884187 -0.180132 0.185969 0.306083 0.571610 -0.407733 0.217651 -0.462881 0.665837 0.349289 -0.797597 0.089234 0.783534 -0.353148 0.236801 0.121096 0.283465 0.938657 -0.125212 0.381695 0.851472 0.062747 0.563010 -0.196193 0.949754 0.139042 0.657826 0.636118 0.134478 -0.697507 0.372311 0.250291 0.122361 -0.441721 -0.443626 -0.306028 0.150546 0.774025 0.231091 -0.183617 0.123315 0.433494 0.905617 -0.093151 -0.919654 0.142418 -0.972056 0.363811 0.081075 -0.097267 -0.254494 -0.067453 0.965480 -0.691483 0.736353 0.915234 0.447558 0.394179 0.551352 -0.417964 0.696672 -0.076338 0.832327 -0.180967 0.481942 -0.611298 0.513005 -0.367512 -0.837273 -0.255905 0.448871 0.286042 -0.822411 0.354489 -0.807110 -0.742064 -0.503093 -0.779165 0.621747 0.577982 0.123568 -0.632746 -0.489472 0.089048 -0.324230 -0.753118 0.004282 -0.876672 0.641060 -0.444366 -0.294636 0.337732 0.479296 -0.462308 -0.843235 -0.038762 -0.073606 0.669770 0.593726 0.089121 -0.586135 0.042597 -0.624838 -0.408545 -0.602915 -0.431947 -0.150610 -0.106008 -0.211112 -0.528863 -0.528026 0.912455 -0.161609 -0.017498 0.001504 0.514161 0.229383 -0.994214 0.637489 -0.129556 -0.438580 -0.657146 -0.791824 -0.959284 -0.119455 -0.635059 0.001954 0.806939 -0.965289 -0.404321 -0.103940 -0.551424 0.638276 0.271222 0.040031 -0.964639 0.839275 0.889422 -0.070647 -0.371837 -0.639441 0.401327 -0.459382 0.198950 -0.616171 0.542122 -0.286889 0.613212 0.547908 -0.649400 -0.516344 -0.890673 -0.306546 -0.308168 -0.849957 0.574000 0.056773 0.151997 0.380939 0.091484 0.747676 -0.723001 0.540060 0.385952 0.548221 -0.419909 0.421314 0.387496 -0.530487 -0.649333 -0.984341 -0.169928 0.751994 -0.443723 -0.970978 -0.864177 -0.901601 -0.257867 0.749035 0.646307 0.092734 -0.767309 0.755634 0.786188 -0.075478 0.905678 0.360187 0.981295 0.057675 -0.258874 0.072779 -0.194649 0.018125 -0.387161 -0.808697 -0.433654 0.192930 0.612617 0.953842 0.662443 0.963284 0.969501 -0.507485 0.715278 -0.474222 -0.478463 0.851100 -0.375823 0.263670 0.600135 -0.729516 -0.643596 0.832826 -0.973882 -0.857408 -0.242652 0.931796 0.502779 -0.261357 -0.010529 -0.756095 0.811422 0.794822 0.262030 -0.575739 0.986125 0.828376 0.617191 0.598742 0.782218 0.279635 0.562026 0.751718 0.772150 0.277303 -0.722504 -0.706313 0.128404 -0.098327 0.557358 -0.271461 0.172157 0.913761 -0.438635 0.198275 -0.943647 0.318712 0.130071 0.559132 -0.942645 -0.880458 0.803037 0.868777 0.914363 0.065067 -0.706962 0.900488 -0.106557 0.910230 0.499230 -0.324340 0.189865 0.061256 -0.572622 -0.037985 -0.661440 -0.295126 0.255702 0.466963 0.606547 -0.186941 -0.804498 -0.221296 -0.273179 -0.243133 0.976979 -0.216826 -0.924421 0.107050 -0.657694 -0.867065 0.226592 -0.854657 -0.998288 0.140955 0.210411 -0.705250 0.041444 -0.896147 -0.795020 -0.459326 -0.220486 0.394845 0.601930 0.206892 -0.643141 0.940490 0.911766 0.612561 0.407453 0.518314 -0.574379 0.602956 -0.702982 0.152442 -0.640177 -0.726003 0.935616 -0.564598 0.381048 -0.722078 -0.431663 -0.392360 -0.576735 -0.429951 0.748595 0.633676 -0.135201 -0.209961 0.737529 0.069779 0.330713 -0.482957 -0.535376 -0.067357 0.723935 -0.178517 -0.126867 0.635701 -0.565956 -0.719413 0.154015 -0.140335 0.883543 0.451033 -0.987893 -0.756635 0.725031 0.947722 -0.321233 0.106078 -0.774356 0.247104 0.713718 -0.351091 0.817153 0.462313 -0.717415 -0.318048 -0.747648 -0.979886 0.751731 0.583065 -0.462843 -0.783645 -0.484292 -0.738908 0.037838 0.388841 0.896793 0.471883 0.669428 0.050808 -0.668452 0.552970 -0.498159 -0.656346 0.796336 -0.773129 -0.708623 -0.524897 0.332949 -0.482979 0.722207 0.046667 0.165930 0.539360 -0.491020 0.448515 -0.778688 -0.238668 0.468630 0.973044 -0.655604 -0.994213 -0.810601 -0.139896 -0.733122 0.227237 -0.751055 -0.836329 -0.300881 0.918373 0.214478 0.030667 0.471343 0.716319 0.374321 0.267678 0.943190 0.665698 0.742781 0.276140 -0.817281 0.464988 -0.677193 0.348649 0.004349 -0.168213 -0.202835 0.225661 0.593119 -0.734206 0.198704 0.937515 -0.728419 0.388103 -0.202380 -0.461541 -0.384660 0.046565 -0.297871 0.314459 -0.035062 0.916608 -0.654874 -0.563720 0.632926 0.719447 0.703959 0.576117 0.385145 0.446740 -0.147744 0.567864 -0.088271 0.175063 -0.083486 0.916077 -0.993150 0.713678 0.141738 0.599969 0.979472 -0.659557 0.537485 -0.748947 0.728545 -0.664896 -0.210488 -0.656115 0.381669 0.491641 0.658344 -0.653393 0.408249 -0.996530 -0.217113 0.041175 0.722918 -0.513154 -0.382708 0.108063 0.933586 0.469548 -0.324073 -0.154685 -0.355389 0.592441 -0.238608 -0.348539 0.306119 0.903130 -0.748570 0.285591 -0.756427 0.788915 0.536644 0.972118 -0.875981 -0.673844 -0.683997 0.505688 0.817798 0.974347 0.852295 0.226046 0.977818 -0.364818 -0.732778 0.700735 0.122028 -0.115486 -0.191202 0.055614 -0.645938 0.484726 0.900929 -0.001327 0.077167 -0.337680 0.650134 -0.616714 -0.434550 0.901564 0.668877 -0.190977 0.690479 0.205521 -0.218859 0.814498 0.531678 0.097144 0.320187 0.349475 0.071492 0.172482 -0.424478 0.049310 0.807664 -0.157257 -0.249955 -0.070308 0.727257 0.558843 0.985306 -0.918681 0.043569 0.886234 0.079991 -0.879264 -0.451445 -0.269875 -0.495979 0.114005 -0.368311 -0.827102 0.923028 -0.677832 0.378420 -0.295831 -0.863333 -0.089902 0.801314 0.456853 -0.740427 -0.127194 -0.370665 -0.164906 0.922115 -0.563002 0.677838 -0.327840 0.366690 0.405095 -0.768996 0.351995 0.486413 0.274573 0.238230 -0.433595 0.395308 0.786784 0.296530 0.899330 -0.099210 0.928219 -0.927772 -0.176182 -0.749612 0.450648 0.527987 -0.612946 -0.639254 0.329301 0.843907 -0.379681 -0.797894 -0.526758 0.455413 -0.875778 -0.089760 0.133251 -0.203618 -0.723070 -0.461654 0.027385 0.628925 -0.975241 -0.698042 -0.132846 -0.408836 0.697266 -0.346061 0.887694 0.596596 0.554728 0.815913 0.668825 -0.621454 -0.933699 0.119473 0.906533 -0.546645 0.480219 0.235834 -0.702738 -0.899463 0.437940 -0.229497 0.555951 0.562162 0.680743 -0.310798 -0.641457 0.957673 0.227547 0.385929 0.586598 0.252307 0.687886 -0.546248 0.843471 0.385153 0.107691 0.731164 -0.018251 -0.337581 0.547077 -0.349426 0.040965 0.613378 0.770047 -0.052502 -0.933268 0.250265 -0.816668 -0.636006 0.350803 0.621272 0.134498 -0.093247 0.183434 -0.184759 0.595955 0.541978 -0.227086 -0.176497 -0.072094 -0.640489 -0.924191 -0.384207 -0.186737 0.919280 -0.999054 0.920954 0.650444 -0.017305 -0.416627 0.197522 0.633268 0.624339 -0.189101 0.403315 -0.428163 -0.122368 -0.346420 -0.244831 0.241626 -0.995617 -0.623559 -0.623877 -0.088863 0.559876 0.191364 -0.492908 0.101853 0.964278 0.330595 -0.970240 -0.676211 0.406404 -0.354447 0.137053 0.325684 -0.353502 0.058007 -0.023872 0.629193 0.641380 -0.826350 0.262462 0.265719 -0.015451 -0.334223 0.837556 0.862181 0.319357 -0.407275 0.103807 0.323740 -0.030834 0.479930 -0.765123 -0.470958 -0.328705 -0.258031 0.630896 -0.364428 -0.927437 0.660655 -0.040638 0.478967 -0.693792 -0.903586 -0.195349 -0.047294 0.154421 0.780779 -0.418100 -0.204198 0.954428 0.844361 -0.938479 -0.061022 -0.489862 0.899077 -0.198841 0.829495 -0.508198 0.904965 0.153235 0.460968 0.384896 0.388111 0.990010 -0.943810 -0.869920 0.620906 -0.308237 -0.797357 0.281561 0.651124 0.681610 0.587769 0.747539 -0.513739 -0.459524 -0.098040 -0.732960 0.122376 0.697762 -0.778532 -0.033263 0.759282 0.160446 0.476874 0.658359 0.961604 0.306369 -0.849839 0.866570 -0.540396 0.611129 0.251466 0.847715 0.601139 0.307656 0.977795 0.222045 0.999419 -0.819562 -0.496394 0.650543 0.862048 -0.908624 0.398082 -0.651691 -0.368148 -0.699958 -0.384652 0.754227 0.997804 -0.163184 -0.279036 0.757086 0.997262 -0.802162 0.415445 0.958866 0.504208 0.565606 0.825436 0.963811 0.176735 0.076901 0.811526 -0.222126 -0.615443 0.789321 0.999919 -0.616024 0.969759 -0.496475 -0.965481 0.831807 -0.405099 0.432602 -0.819884 0.226753 0.732644 -0.204536 -0.019020 0.730447 0.632280 0.701944 0.487533 0.629542 0.899783 -0.097022 0.588408 0.403990 -0.531416 0.413843 0.367802 0.645318 -0.509256 0.179328 -0.576808 -0.124698 -0.031350 -0.576889 0.259278 -0.061591 -0.073364 0.293797 -0.229784 0.521537 -0.273601 -0.049668 -0.251710 -0.540958 0.745796 0.729270 -0.810511 0.378076 0.431214 0.677022 0.007617 0.330997 -0.419999 -0.403975 -0.265013 0.048584 -0.990132 -0.897211 -0.306097 -0.499387 0.282117 0.117095 0.375914 -0.749234 0.540206 -0.364808 0.189175 -0.533158 0.928989 0.959391 0.988379 -0.344612 -0.090277 -0.263332 0.114430 -0.344481 -0.534062 0.303919 -0.966405 0.897153 -0.019058 0.041213 0.228149 0.560942 0.637238 0.963137 -0.390473 0.647106 -0.934075 0.303429 -0.852281 0.348042 -0.579476 0.523633 0.598808 0.960730 -0.841175 -0.212017 -0.572428 -0.912186 -0.252625 -0.584050 -0.256799 0.657098 0.152618 0.857631 -0.687382 0.618557 0.161550 -0.653787 0.515709 -0.857508 0.387425 -0.256141 0.703434 0.024663 -0.293005 -0.687039 -0.328231 -0.227079 0.616390 -0.180512 -0.879037 -0.963086 -0.656879 0.719771 0.997644 -0.498054 -0.492246 -0.574784 -0.410241 0.255129 -0.158834 0.332961 -0.087773 0.993784 0.190592 0.224845 0.612341 -0.647858 0.571058 0.128050 -0.505366 -0.041517 0.871909 -0.801932 0.983146 -0.421096 -0.488972 -0.345085 0.351825 -0.872582 0.474403 0.472788 -0.835667 0.817523 0.192558 -0.838023 -0.680531 0.700313 -0.412808 -0.090772 -0.044558 0.428358 -0.757811 0.867669 0.422142 0.432781 0.092514 0.034483 0.784924 -0.336428 -0.837467 -0.720442 0.622055 -0.965558 -0.522375 0.605200 -0.386653 -0.011346 -0.739885 0.965172 0.116072 0.734518 0.437960 0.280405 0.552041 -0.369482 0.442381 0.871511 -0.669169 -0.970427 -0.219261 0.286272 0.457931 0.022928 0.153942 -0.119927 -0.544290 -0.753544 0.914556 -0.759367 -0.089973 -0.922910 -0.479809 -0.467918 -0.888468 -0.002184 -0.862718 -0.275121 0.986470 -0.602602 -0.309949 0.102542 -0.868084 -0.871990 -0.617053 0.683957 -0.241472 0.825328 0.555468 0.089359 0.854901 -0.663793 -0.624368 0.312833 0.359135 0.529573 -0.807094 0.814845 0.776029 -0.892538 -0.944522 -0.313944 -0.815448 -0.424331 0.218138 -0.703916 0.573485 0.355420 0.020963 0.559955 0.752818 0.711013 -0.337503 0.884733 0.839024 0.045443 0.568691 -0.402448 -0.129229 0.124158 0.686911 -0.274327 0.460365 -0.937457 -0.961495 -0.180500 0.592116 -0.768589 -0.365656 0.368145 -0.661127 -0.310178 -0.945799 -0.476575 0.265491 0.272339 -0.180491 -0.161025 -0.372241 0.840471 -0.601070 -0.619424 0.551485 0.061427 -0.734691 0.390509 -0.893130 0.834000 0.988061 -0.022358 -0.041842 0.674972 0.703314 -0.581477 0.737515 0.741820 0.238023 0.329632 0.973231 0.872368 -0.302223 -0.687896 -0.437810 -0.248022 -0.164471 0.827681 -0.975684 0.655038 -0.333344 -0.347925 0.495510 0.065586 0.032651 0.046995 -0.872987 0.297960 -0.562497 -0.766117 0.131960 -0.574436 0.211525 -0.909881 -0.899463 -0.085161 -0.491358 0.838052 -0.343341 0.746665 0.167683 -0.370110 0.619033 0.865460 -0.058006 -0.818778 -0.382563 0.777524 -0.991097 -0.358246 0.432562 -0.324441 0.293829 -0.071929 0.741145 -0.673520 0.975066 0.868158 0.624440 -0.587431 -0.897959 -0.243599 -0.161866 0.313566 -0.153481 -0.061330 -0.771595 0.355161 -0.223278 -0.114935 0.101826 0.944405 0.514955 -0.279141 0.809865 -0.543051 -0.097919 -0.572697 -0.765527 -0.089016 0.069057 0.667034 0.586543 -0.637115 -0.404894 0.327689 -0.310635 -0.429828 0.195847 -0.686195 -0.017259 0.297888 0.070205 0.820875 -0.388546 0.916725 -0.240455 -0.160140 0.271886 0.536267 0.724924 -0.626288 0.480672 0.239879 0.094571 0.290538 0.696828 0.996652 0.717841 0.931300 -0.092364 -0.213102 0.598334 -0.505820 0.149783 -0.806560 0.821868 0.839148 -0.236388 0.017715 -0.847048 0.746353 -0.684397 0.223158 0.567228 -0.072943 0.139883 -0.673227 0.766917 -0.588232 0.863040 0.491841 -0.214519 0.343712 -0.268281 0.880051 -0.365750 -0.571453 0.876704 -0.647909 -0.640153 -0.215660 0.138988 0.958181 0.278520 -0.711229 -0.848378 0.100388 -0.872081 -0.084766 -0.881896 -0.719129 -0.338413 -0.566293 0.504029 -0.771185 0.360764 -0.356089 -0.444412 0.127680 0.055680 -0.581372 -0.380479 0.841160 0.762340 0.351240 0.721212 -0.603410 0.779787 0.597916 -0.251320 -0.860366 -0.617744 0.887668 -0.902185 0.660776 -0.823561 -0.750563 -0.238836 -0.695642 0.164671 -0.120732 -0.414771 0.826258 0.312975 -0.910742 -0.944926 -0.326262 -0.266831 -0.389338 0.801419 0.788849 0.029289 -0.579060 0.630010 -0.208371 0.772180 0.351222 0.188219 0.551967 -0.050862 0.936899 0.691601 0.331393 0.824567 0.789416 -0.007831 -0.998993 -0.961147 0.753334 -0.694635 0.203524 -0.367398 -0.109406 0.029783 0.945576 -0.020148 0.084857 -0.380685 0.713021 0.695518 -0.579267 0.501871 -0.275192 -0.158327 0.131881 0.516437 -0.386147 -0.516898 -0.295344 -0.834181 0.432240 -0.358445 0.857420 -0.236367 -0.533878 0.646836 0.755803 -0.532871 0.685690 0.509136 -0.227507 -0.110786 -0.858262 0.663087 0.918997 -0.912686 -0.357061 0.003853 -0.293371 -0.644040 -0.300628 0.127362 0.857831 0.424179 0.969034 -0.010289 -0.059384 -0.417113 0.472814 0.645272 -0.251294 -0.094946 -0.713174 -0.393874 0.668687 -0.247052 -0.747037 0.424490 0.220077 0.938652 -0.066374 0.992570 -0.172134 0.075364 0.655657 -0.253137 0.162678 -0.701404 0.750716 0.869306 -0.345444 -0.549912 -0.003332 -0.487613 0.874267 -0.034298 0.502099 -0.185117 0.548589 -0.025088 -0.539845 -0.702704 0.879966 -0.253018 -0.096578 0.548653 0.499930 0.156385 -0.026857 -0.279994 0.095037 0.906768 -0.287423 0.922904 -0.017868 -0.631766 -0.330233 -0.855190 -0.333170 -0.579517 -0.985884 0.321387 -0.129429 0.010784 0.833774 -0.255162 0.976486 0.335873 0.559721 0.525076 -0.689215 -0.980124 0.822372 -0.809249 -0.233143 -0.274206 0.739404 -0.733213 0.882179 -0.287453 -0.013206 -0.022784 -0.380685 0.699370 -0.099880 0.601447 -0.932396 0.569887 0.746257 -0.265566 0.990370 0.760373 -0.944179 -0.139060 -0.228843 0.889595 0.605778 -0.252357 0.225467 0.165499 -0.727281 0.536252 0.185375 -0.904910 0.727003 0.952232 -0.179116 0.466407 -0.780981 -0.296937 -0.821046 0.205813 0.680279 -0.201731 -0.094817 -0.419601 -0.600284 -0.027213 -0.849714 -0.854027 0.707222 -0.859344 0.906346 0.763042 0.001596 -0.322498 0.652637 -0.392626 0.425145 -0.121895 0.772872 0.697864 -0.585643 -0.041753 0.792954 -0.858640 -0.089521 -0.386161 0.607767 0.129498 0.316902 0.786721 -0.664689 -0.002819 -0.415010 0.240494 0.577580 -0.015294 -0.786719 0.727867 0.130679 0.920502 0.868522 0.037025 0.683545 -0.129881 0.714527 0.336182 0.477492 0.139673 -0.785713 0.250365 -0.162463 -0.371357 -0.791388 -0.369509 -0.229997 0.119091 0.244330 -0.622230 -0.751411 -0.438769 -0.835509 -0.416100 0.558412 -0.250518 0.824393 0.135993 0.734188 -0.962326 -0.136141 -0.135132 0.958177 -0.267618 0.901893 0.641721 0.602500 0.616420 -0.022096 0.079993 -0.243907 0.192190 -0.669643 0.593629 0.820833 -0.461031 -0.775880 -0.409163 0.658060 0.468450 -0.031393 0.906649 -0.970319 0.133098 -0.509452 0.588093 0.882580 -0.685058 -0.275914 0.616768 -0.647384 0.587945 -0.518365 -0.689208 -0.679673 -0.616472 0.952514 0.922827 0.999948 -0.069583 0.002820 -0.243959 -0.877393 0.333177 -0.650330 0.943441 0.872147 -0.426210 -0.465723 0.530207 -0.957760 0.502884 0.436855 -0.928078 -0.364018 0.927404 0.660015 -0.481438 -0.757655 -0.615899 -0.864671 -0.405039 0.972046 -0.383035 -0.094247 -0.707627 0.000492 -0.141733 -0.784800 0.000440 0.788684 0.218020 0.756481 0.911292 -0.448803 -0.893849 0.854733 -0.576656 -0.320059 -0.610990 0.953551 -0.277818 0.891894 0.390406 -0.205897 -0.472124 0.317809 -0.545882 0.046438 0.560154 -0.161781 0.181768 -0.844885 -0.189735 0.798732 0.060869 0.102638 -0.200775 0.919136 0.317838 0.799665 0.707820 -0.464141 0.556146 0.619112 0.087056 0.662297 0.473844 0.510400 -0.657761 0.862854 0.463951 0.064420 0.754748 -0.145644 0.858524 -0.717375 -0.827834 -0.687358 0.329063 0.732320 0.150861 -0.489170 0.887436 0.961126 -0.690438 -0.051696 0.063765 0.108787 -0.132560 -0.618397 -0.091548 -0.424741 -0.082538 -0.535402 -0.805629 -0.995482 -0.873105 0.668215 0.514918 -0.530866 0.531069 -0.021132 0.533554 0.285817 0.833225 0.392078 0.568442 -0.994609 0.704720 -0.102495 0.737711 -0.144419 0.408335 0.625147 -0.183292 0.717897 -0.426549 0.880472 -0.173315 0.440891 -0.737925 0.735137 -0.983850 0.179537 -0.800265 -0.789479 0.184055 -0.673370 0.878736 -0.301028 -0.204236 0.409806 0.677841 -0.670682 -0.304377 0.511066 0.721396 -0.735935 0.516456 0.426116 0.161570 0.254168 -0.718303 -0.430095 -0.120686 0.098405 -0.712198 0.452765 -0.021123 0.114487 -0.106344 0.240953 -0.150377 -0.090194 -0.579511 0.049358 0.120328 0.604544 0.375988 -0.000936 -0.696484 -0.828248 -0.591130 0.981357 -0.498930 0.104493 0.492422 -0.777534 0.368558 0.008879 0.648582 -0.469872 -0.736954 0.930279 0.100032 0.142361 0.028684 0.387835 -0.404874 -0.992438 -0.497679 0.488782 0.248514 0.351945 -0.601412 0.669004 -0.598697 0.518916 0.273548 0.777291 -0.482020 0.577064 0.949044 -0.073151 0.558421 -0.549886 -0.968658 0.050843 -0.327420 0.399900 -0.940278 -0.678838 0.930027 -0.677231 -0.748559 0.030060 0.465129 0.280126 -0.582106 -0.939745 0.287688 -0.079785 0.549038 -0.463798 -0.727840 0.947626 -0.794794 -0.326537 0.466542 0.478753 -0.549245 0.984522 0.055817 -0.600202 -0.088629 -0.385762 -0.150088 -0.057287 0.665081 0.522492 -0.657387 0.724804 0.843653 -0.727360 -0.952428 -0.904905 0.302700 0.512701 0.375220 0.720594 0.572957 -0.337092 -0.359191 0.121995 0.199110 -0.087031 0.069621 0.404316 0.586432 -0.463837 -0.116931 -0.962813 -0.479315 0.938886 -0.563015 0.432056 -0.446876 0.286897 -0.625230 -0.781794 -0.190612 -0.282617 0.943009 -0.346958 -0.009977 0.990581 -0.251864 -0.707277 0.503283 -0.876643 -0.986683 0.076240 -0.213735 -0.345874 -0.801766 0.985375 0.567095 0.267855 0.389691 0.153528 0.804018 -0.727240 0.190715 -0.675297 -0.788354 0.627700 0.756759 -0.235230 -0.085404 -0.868471 -0.017024 0.723985 -0.151088 -0.074015 -0.622974 0.838935 -0.083433 0.125163 -0.868342 -0.580151 0.248519 -0.855025 0.496089 -0.965216 -0.200899 0.694323 -0.979841 -0.633804 -0.037821 0.409850 0.519724 -0.233803 0.682609 -0.289562 0.090900 0.894255 -0.661862 -0.152341 -0.340975 0.252734 -0.020812 0.642001 -0.023281 0.828100 -0.432013 0.353745 0.667036 0.484553 -0.521092 0.798694 0.904403 0.727427 0.943669 0.400492 0.762212 -0.257231 0.094815 0.782371 0.108965 -0.943006 0.192220 -0.371311 -0.176810 -0.125170 0.339127 0.914090 -0.230915 0.677265 -0.238251 0.428110 -0.070001 0.740937 0.070111 0.906718 0.569037 0.638098 0.260463 0.236073 0.122651 0.739371 0.034767 0.027054 0.466798 -0.021564 -0.572454 0.229010 0.721205 0.522361 0.011380 -0.169830 0.579355 -0.796399 0.458859 -0.597455 0.078430 -0.202014 -0.683365 0.847515 -0.524750 0.078384 0.275625 0.405249 -0.180679 -0.654263 0.311967 -0.611642 0.983835 -0.427570 0.624432 0.106486 -0.688199 -0.340801 -0.866460 0.778599 0.637634 -0.438915 0.007608 0.358839 -0.916554 -0.981012 -0.810990 0.662801 -0.777411 0.647869 -0.934654 0.301019 -0.554146 -0.618019 0.148534 -0.078895 0.460365 -0.575841 -0.673646 -0.720314 -0.230104 0.638321 -0.331956 -0.246270 -0.789249 -0.707524 0.860216 -0.477449 -0.048326 0.993756 -0.698850 -0.410692 -0.445159 0.308758 0.948148 -0.361712 0.327746 -0.862843 -0.698911 0.550335 0.785026 -0.633565 -0.148646 -0.769120 -0.251584 0.999889 0.151985 -0.791219 -0.575952 0.478339 -0.511533 0.193943 0.116660 0.156511 0.947674 
0.327411 0.448987 0.807890 0.849962 -0.599339 0.801646 -0.848888 -0.010031 -0.643513 0.459870 -0.061883 -0.005226 -0.212384 0.075274 0.295863 -0.662048 -0.139700 0.662298 0.189306 0.091180 -0.589286 0.189195 -0.756835 -0.380505 0.613242 0.721505 0.107962 -0.192814 -0.161835 -0.735527 -0.245141 -0.834424 0.713459 -0.437251 -0.984462 -0.885880 -0.635605 -0.833350 0.104089 -0.279118 0.626520 -0.957794 0.715656 -0.585863 0.117481 0.011519 -0.247912 0.977781 -0.326183 0.941394 0.068961 0.084531 0.130589 0.312127 0.704026 -0.256169 0.033631 -0.188012 0.551017 0.871796 0.076461 -0.694124 -0.962628 -0.210079 -0.131375 -0.947091 -0.095959 0.233020 -0.780440 -0.991870 0.953902 0.846080 -0.949663 0.669558 -0.739784 0.167817 -0.318923 0.012305 0.145598 0.354894 -0.046301 -0.785441 -0.560575 -0.915712 0.526686 -0.856549 -0.171881 -0.439683 -0.044561 -0.620865 -0.567887 -0.968100 -0.314988 -0.530516 -0.178179 0.553637 -0.477606 0.725862 -0.213343 -0.258047 0.733992 -0.259441 -0.411967 0.784329 -0.589883 -0.151750 -0.047854 0.091194 0.860554 -0.902256 -0.553913 -0.185747 -0.687697 -0.114488 -0.101459 0.838989 0.028963 0.726659 -0.600694 0.984403 -0.894205 -0.168581 -0.983697 -0.209194 0.300903 -0.161876 -0.655556 0.823297 -0.436014 0.131101 -0.434749 -0.702022 0.871660 0.153284 -0.917693 -0.718223 -0.998466 0.034452 0.372971 0.862088 0.132197 0.819059 -0.323659 0.444500 -0.295429 0.574881 0.283489 0.733535 0.301541 0.682795 0.717937 0.407335 -0.485786 0.734240 -0.801858 0.815118 -0.427635 -0.457415 0.638415 0.136351 0.673687 -0.796334 0.434329 0.545347 0.356950 0.516635 0.827124 0.358484 -0.448912 0.200095 0.220572 0.683284 0.019154 0.896913 0.127784 0.723725 0.471794 -0.588727 0.457260 -0.226666 -0.905931 0.175197 -0.819330 -0.391717 -0.090563 -0.621189 -0.576599 0.481802 -0.078603 -0.938184 -0.381847 -0.404917 -0.734518 -0.947519 -0.859570 0.622433 0.569117 0.967554 -0.019083 -0.879796 0.167650 -0.798512 0.803488 -0.813196 -0.901599 -0.068727 0.910529 0.570195 0.342546 0.367789 -0.656471 0.436614 -0.457014 -0.475801 -0.955103 0.452423 -0.096990 -0.531702 -0.065775 0.824407 -0.469885 0.552378 -0.580510 -0.204403 0.604859 -0.440080 -0.581970 0.173976 -0.472525 0.398947 0.294180 0.695125 0.600435 0.097669 0.881929 0.698836 -0.971059 0.792458 0.269030 0.371487 0.160247 0.612559 -0.191898 0.703233 -0.863242 -0.147001 0.155656 0.039768 0.321298 -0.910119 -0.135824 0.851412 0.642259 0.283666 -0.352990 0.247119 0.843586 0.065040 -0.578905 -0.628939 -0.536014 0.715275 -0.933814 -0.935579 -0.187056 0.948115 0.763257 -0.158115 0.740573 0.032287 -0.786627 -0.099180 -0.355154 0.021474 -0.395948 -0.218396 0.874473 0.759708 0.821373 0.195771 0.849589 -0.314452 0.047183 0.491849 0.969214 0.694193 -0.261033 0.812800 -0.240767 0.160062 -0.816138 0.223219 -0.124663 -0.749952 0.287640 0.688281 -0.801838 0.050897 -0.469833 0.938735 -0.916817 -0.256461 -0.160445 -0.271970 0.765013 0.443607 0.509634 0.639487 0.203316 0.331007 -0.164742 0.052905 -0.983445 0.882441 -0.455246 0.985769 0.576634 0.283721 0.798570 -0.664133 -0.556217 0.982431 0.559086 0.319121 -0.767521 -0.153274 0.007402 -0.569358 0.897622 0.537568 -0.630623 0.980806 -0.718892 0.208932 -0.291165 -0.953879 -0.347460 -0.781531 0.685608 0.855855 0.549476 -0.479135 -0.091240 0.566031 -0.596693 0.453514 0.551800 0.979941 -0.262764 0.350370 -0.684193 0.181019 0.332801 0.874893 -0.499860 0.565280 -0.278381 0.507542 0.995922 -0.380759 0.045110 -0.634701 -0.399954 0.326218 0.574231 0.308881 0.372339 -0.773230 0.527350 0.057946 -0.917374 0.076826 0.578812 -0.008614 -0.357143 0.982118 -0.555100 -0.805343 0.962059 0.182136 0.545027 -0.722134 -0.636845 -0.122172 -0.847240 -0.136706 -0.556892 -0.125622 -0.629164 -0.560970 0.493619 0.415946 -0.195671 -0.906334 -0.257836 -0.621440 0.402547 -0.885498 -0.394670 -0.070102 0.172449 -0.312044 -0.993276 -0.248740 0.679342 -0.350419 -0.266621 -0.875758 -0.155762 -0.304562 0.306378 -0.610735 -0.026696 0.669532 0.267092 0.126064 -0.467173 0.710201 -0.999557 -0.096337 -0.850769 0.494062 -0.680391 -0.046440 0.587728 0.061773 0.332119 -0.009725 0.176275 0.937449 0.920173 -0.651276 -0.374595 0.926897 0.099984 -0.695254 -0.423523 0.833363 -0.571012 0.420715 -0.471199 0.735366 0.809980 0.502105 0.404898 0.077072 -0.371831 0.937725 -0.212727 -0.371388 -0.158613 -0.063496 -0.877326 0.160996 0.890063 0.710401 -0.777232 0.222183 -0.299324 0.399043 0.159632 -0.379151 0.747767 0.785037 -0.452254 -0.152249 -0.910217 0.124223 -0.318886 -0.481228 -0.455062 0.209914 -0.745863 -0.645082 -0.287981 0.659035 0.431990 0.340189 0.596760 -0.780737 0.968800 -0.561853 0.155767 -0.908526 0.599143 0.045830 0.801875 0.821912 -0.731987 -0.497449 0.220955 0.427645 0.123400 -0.031278 0.212682 0.671145 0.816473 0.302465 -0.204632 -0.502414 0.821237 0.340307 0.707501 -0.924626 0.695225 -0.580480 0.734409 0.127215 0.759709 0.331169 0.346478 0.728509 0.769316 -0.497754 0.819983 0.368459 0.548076 0.621858 0.190371 0.816089 -0.875591 -0.588674 0.243734 0.247809 0.380048 -0.543584 -0.081046 0.196520 0.758881 0.714323 0.694107 0.580118 0.054629 0.401607 0.655492 -0.250146 0.821128 0.389901 0.877069 0.580836 -0.278930 0.223548 0.309345 -0.509614 0.725793 0.129328 0.858846 0.273869 -0.248814 0.049217 0.089958 -0.124405 0.460543 -0.666307 -0.876597 -0.159410 -0.209891 0.042358 -0.962889 -0.451010 -0.243320 0.731218 -0.870892 0.811310 0.132825 0.784600 -0.438836 -0.046047 0.174501 -0.561767 -0.465211 0.895571 0.661781 0.844135 -0.614043 0.387575 -0.026537 -0.755197 -0.338556 0.724649 0.294020 0.751403 -0.399756 -0.245438 -0.914905 -0.276353 0.595153 -0.124796 0.766005 0.632264 0.424194 -0.477315 0.363481 0.553302 -0.666005 -0.503694 0.337901 -0.104841 0.450259 -0.487598 0.333392 0.985048 -0.592027 -0.004827 0.829182 -0.206069 -0.617252 -0.197355 0.038734 0.044192 -0.472706 -0.667246 -0.204405 0.127538 0.087316 -0.119310 0.851185 -0.317531 0.755894 0.617189 -0.685267 0.180087 -0.860126 0.678214 -0.266611 -0.526131 -0.825480 -0.928710 0.369028 0.624779 -0.416308 -0.297580 0.609827 -0.008335 0.697593 0.439009 0.785596 -0.919658 -0.758346 -0.175671 0.124534 -0.231052 0.157083 0.920128 0.896486 -0.755601 -0.199182 0.747671 -0.073132 -0.443288 0.364860 0.241601 0.736799 0.504734 -0.080185 -0.529812 0.978603 0.094334 -0.458522 0.347631 -0.280887 0.125170 -0.949949 -0.671060 -0.883165 0.747645 0.767948 0.902430 0.827986 -0.990397 -0.273240 -0.047480 -0.221449 0.883843 -0.127352 -0.324963 -0.871758 0.673466 -0.577293 0.055110 -0.769822 0.787567 -0.703289 0.966977 0.292302 0.216526 -0.562835 0.270905 -0.689140 -0.021357 -0.381464 0.029973 -0.896188 -0.331412 0.358913 -0.779353 -0.583767 0.126861 -0.876923 -0.755781 0.136464 -0.150163 0.196739 0.915015 -0.266320 -0.930613 -0.409949 -0.138078 0.742854 0.012759 0.917032 0.973032 -0.199674 -0.786257 0.940009 -0.907372 0.430269 -0.622826 0.363533 0.741129 0.355816 0.982069 -0.228898 0.459629 -0.349343 -0.869985 0.680276 0.066890 0.256876 0.803353 0.311109 -0.606660 -0.346810 -0.492152 -0.691645 0.386870 -0.422765 -0.101594 -0.751209 -0.679911 0.911165 -0.834177 -0.706879 -0.288509 -0.620434 -0.766870 -0.195881 0.809835 -0.389696 -0.832349 0.550964 0.966120 -0.850279 -0.677934 0.425749 -0.199623 -0.547920 0.106025 0.867267 0.708957 -0.090623 0.178376 -0.897703 0.562567 0.686224 -0.589348 -0.050563 -0.736540 0.309058 0.198228 -0.416451 0.220224 0.364052 -0.123330 0.931715 0.743618 0.109800 -0.264166 0.553453 0.720104 -0.096515 0.104416 0.686225 0.053206 0.426482 0.111974 0.853583 0.878562 -0.782002 0.720850 0.587519 0.127376 -0.100774 0.689816 -0.310057 -0.414550 -0.899532 0.639380 -0.151090 0.409527 -0.162391 0.432459 -0.370250 -0.798340 -0.690871 -0.438535 0.945278 0.418929 0.297299 0.498731 0.139034 -0.799216 -0.396853 -0.174741 0.253990 -0.970371 0.937232 0.107573 0.908191 -0.844769 -0.171577 0.495710 0.282607 0.727650 0.185526 0.972550 -0.686900 0.285994 0.611930 0.162010 -0.304480 -0.550461 -0.405531 0.325271 -0.348801 -0.096402 0.886736 -0.403523 -0.677473 0.184035 -0.904792 0.461561 0.384819 -0.301645 -0.713181 -0.361192 -0.272017 -0.775948 0.746381 -0.363826 -0.620718 -0.425195 -0.868116 0.661889 -0.697545 0.317409 0.634439 -0.384445 -0.396597 0.246369 0.777565 0.298923 0.695908 -0.627966 -0.375806 -0.652893 0.275631 -0.489071 -0.056416 0.598158 0.694964 0.038792 0.059719 0.079782 0.737146 0.346538 0.718591 -0.534871 0.570590 0.464972 0.101303 0.949872 -0.960223 0.233186 0.611761 -0.657768 -0.449404 0.246200 -0.042214 0.153999 -0.507432 -0.264649 -0.547078 -0.811524 0.107385 0.077115 -0.464417 -0.616984 0.588045 0.479166 0.981175 0.283009 -0.482042 0.040894 -0.637209 -0.744896 -0.612567 -0.918618 -0.279767 0.958023 0.546354 0.821536 0.907895 0.586131 0.054723 0.519656 0.928362 0.605319 -0.234144 -0.113851 -0.240683 0.258424 0.621500 0.212239 0.446900 -0.271115 -0.710646 0.982483 0.111902 0.877399 0.461649 0.093077 0.160408 0.979607 -0.866029 0.523199 -0.765289 -0.478596 0.604581 -0.045055 -0.520574 0.150935 -0.223519 -0.612679 -0.262934 0.831204 0.906977 -0.334572 0.436522 -0.327167 0.551577 -0.804160 0.931257 0.173077 0.408079 0.378157 0.901962 0.697433 0.360640 0.013864 0.574832 -0.177711 -0.893059 -0.264760 -0.198104 -0.759088 -0.741561 0.036607 -0.237685 0.863020 0.991552 0.241741 0.013955 -0.231967 0.629062 0.751021 -0.400763 0.536039 -0.583551 -0.964240 -0.791128 0.968026 -0.768401 -0.859871 0.141103 0.639678 0.518286 0.043066 0.337111 -0.121075 -0.943070 -0.088057 0.701214 -0.836129 0.647183 -0.496890 -0.595218 0.905623 0.539718 0.167097 0.768643 0.531270 -0.591162 -0.217402 -0.700697 -0.962099 -0.466382 -0.101460 0.573940 -0.049933 -0.065700 0.782812 -0.081907 0.165899 0.922941 -0.940803 -0.194423 0.441227 0.102262 -0.857312 -0.679848 0.159192 0.054631 -0.978634 0.323063 -0.298186 -0.475524 0.727845 -0.392563 -0.935806 -0.105058 -0.623920 0.595464 0.303781 0.158677 0.894767 0.341681 0.692295 -0.206693 -0.084379 -0.357638 0.727607 -0.301567 0.560456 -0.106494 -0.378626 0.619652 0.699083 -0.937399 -0.278085 0.841771 -0.617247 0.881107 -0.103598 -0.595881 0.204170 0.598216 -0.071405 -0.067985 -0.794347 -0.007211 0.826957 -0.418268 -0.411748 0.130737 0.740410 -0.516981 -0.527581 0.432705 0.276326 0.388040 -0.924932 0.003932 -0.913527 0.635523 0.897438 -0.292152 0.255175 0.596521 -0.229551 0.977090 0.438292 0.153202 0.858197 -0.665307 0.557320 0.062366 0.932909 -0.514085 0.994381 -0.861438 0.478704 0.821338 -0.279706 -0.933044 -0.047925 -0.539296 -0.450025 0.424494 0.893409 0.826301 -0.187466 0.968476 -0.169766 -0.100992 0.603999 -0.272328 0.606855 -0.140825 -0.675807 -0.622696 -0.163735 0.762484 0.530506 -0.305539 -0.902822 0.087826 0.756828 -0.969914 0.573741 0.751209 -0.831352 0.052445 0.572547 -0.111058 0.119402 -0.475378 0.349646 0.669377 0.949116 0.243055 0.495678 -0.238350 0.211532 -0.674088 0.660658 -0.184469 0.053584 0.267513 0.674706 0.377777 0.644817 -0.489029 0.140261 0.175323 0.205432 0.237439 -0.736851 -0.037740 0.267525 0.836890 -0.286532 0.436173 -0.110665 -0.713985 -0.674884 -0.991263 -0.189363 0.674762 0.678114 -0.240247 -0.082183 0.173792 0.521403 -0.870652 0.499704 0.182061 -0.055121 -0.446712 -0.550426 -0.380415 0.931065 -0.905608 0.130556 0.071326 0.269715 -0.664012 -0.691236 0.532864 0.298247 0.576289 0.369754 -0.988284 0.012463 -0.740910 -0.702269 0.337578 -0.732173 0.108368 0.012340 0.945941 0.868121 0.930157 0.119733 0.389524 -0.940495 -0.380563 -0.428415 0.004384 0.172725 0.021160 0.623970 0.103790 0.115551 -0.245474 -0.824884 -0.614734 0.090513 -0.516120 0.918130 -0.611240 -0.939830 0.287884 -0.599524 0.072632 0.546974 -0.301793 -0.589790 0.814800 0.806574 0.422550 0.760741 0.674695 0.352707 -0.119526 0.064219 0.412212 0.499912 0.635804 -0.583404 -0.327363 -0.343036 -0.959434 0.776427 0.772515 -0.204909 0.951543 -0.842219 0.885604 -0.564576 -0.924088 -0.725635 -0.504407 0.363796 -0.325159 0.568226 -0.089231 0.373047 0.978436 -0.274430 0.179622 0.400986 -0.513689 -0.145683 -0.246307 0.366785 0.918536 -0.834096 -0.133303 0.554340 -0.417500 0.539334 -0.788696 -0.376934 0.315761 0.983819 0.418157 0.267305 -0.858399 0.303761 0.702728 -0.782488 0.578126 -0.801679 0.581308 -0.747033 0.766547 -0.507923 0.626014 0.744983 0.217647 -0.194364 0.145969 0.703958 0.659952 0.899661 0.070743 0.578488 -0.934434 0.937440 0.132828 -0.351934 0.476774 0.344132 0.271131 -0.207465 0.327951 -0.310712 -0.940160 0.469552 0.993049 0.762568 0.687064 0.571174 0.960889 0.268372 0.824141 0.727436 0.760449 0.450155 0.472419 -0.021904 -0.744209 -0.381612 -0.317946 0.915743 -0.481951 0.752796 0.494231 -0.416385 0.690236 -0.372941 0.231680 0.167010 0.971190 -0.497189 0.959545 0.299141 0.192099 -0.980615 -0.231307 0.185148 0.781952 -0.544243 -0.243678 0.742841 0.724128 -0.419537 0.470277 0.484577 -0.969382 -0.057304 -0.537327 -0.713591 0.561084 0.144726 -0.797848 -0.920867 -0.102477 0.696382 -0.337252 -0.412241 -0.676559 0.894428 0.754769 -0.705369 -0.602760 0.714314 0.593773 0.589339 0.733698 -0.637534 -0.225513 0.515650 -0.181778 0.530809 0.258492 -0.457649 -0.888728 -0.271231 -0.973072 -0.858110 0.671465 -0.510399 -0.571701 0.232549 0.634327 -0.369549 0.311683 -0.468150 -0.673167 0.974431 0.119609 -0.349726 0.868859 -0.125622 -0.055095 -0.733901 -0.411309 -0.461322 0.855438 -0.677610 -0.098856 -0.370075 0.838040 0.719366 -0.839266 0.096531 -0.738283 -0.727994 0.825300 -0.711356 -0.586104 0.496765 -0.221755 -0.157805 -0.270685 -0.587428 0.472645 -0.959003 -0.055578 0.799478 -0.984572 -0.935969 -0.550248 0.884287 -0.061591 0.394658 -0.849614 0.527101 0.933336 -0.994176 0.849490 -0.165521 -0.364251 0.687530 -0.446155 -0.203517 -0.215938 -0.184438 0.068488 -0.390638 0.104206 0.482384 -0.893873 0.882451 -0.675421 -0.164558 -0.704976 0.797225 -0.123561 0.239446 0.596703 -0.108133 0.303478 -0.953544 -0.223846 -0.758113 0.441113 -0.073459 0.768987 0.374449 -0.067635 0.618478 -0.791072 0.568114 0.306008 -0.237226 -0.635403 -0.909931 0.578336 0.433085 -0.300569 -0.317458 -0.084530 -0.194442 -0.435007 0.240049 0.641000 -0.139983 0.037274 -0.482561 -0.900537 -0.366023 0.409306 0.402941 -0.319567 -0.814539 0.644828 -0.878454 0.112002 0.413815 0.495995 -0.955633 0.032293 0.704923 0.612481 -0.661699 -0.532303 0.977078 -0.571630 -0.953967 0.410163 0.127801 -0.271425 -0.674367 0.933360 0.293568 0.565682 0.574360 -0.846414 -0.397044 -0.908201 -0.746951 0.236934 0.501106 0.655990 0.917366 0.686567 0.300818 -0.961088 -0.201432 -0.285367 0.534908 -0.157065 0.746926 0.239831 -0.544584 -0.914774 0.707528 -0.567506 -0.486404 0.753561 0.842657 0.641397 -0.517864 -0.831710 0.574757 0.775704 0.733973 0.149117 0.929290 -0.663071 0.240916 -0.817661 0.573863 -0.257978 0.838329 0.491229 -0.571412 0.139146 0.530142 0.227156 0.853779 0.065049 -0.929909 0.600705 -0.695120 -0.474493 0.685931 -0.987592 -0.041999 -0.800473 0.765969 -0.199342 0.840924 -0.751895 -0.031052 0.415681 -0.976191 -0.297079 -0.435202 0.953099 0.039850 0.805714 -0.864562 -0.386287 -0.452264 0.973766 -0.895057 -0.023676 0.112912 0.635084 -0.796520 -0.033309 -0.299866 -0.726429 -0.432604 0.005014 -0.200922 -0.746674 0.017422 0.757079 -0.547146 -0.216609 -0.442263 -0.706222 0.031496 0.526685 0.709459 0.055305 -0.770394 -0.725743 0.008404 0.269456 -0.920029 0.143842 0.883170 -0.372293 0.117608 0.988112 0.604031 -0.769480 0.623197 0.807510 0.197211 -0.676669 -0.918918 0.764607 0.328344 -0.119840 -0.982067 -0.654233 -0.362762 -0.529213 0.129158 0.194975 -0.235435 -0.839346 -0.278340 -0.525976 0.215960 -0.048734 -0.251719 -0.775636 -0.779278 -0.171747 0.368206 -0.896108 0.455960 -0.514186 -0.907996 0.059990 -0.283666 0.715201 -0.132499 0.913545 -0.961468 -0.051418 0.678152 0.366876 0.828742 0.696086 0.712643 -0.534020 -0.833128 -0.158200 0.660955 -0.068563 0.002455 -0.617385 0.405461 -0.781586 0.333881 -0.846257 -0.557222 0.554603 -0.018005 0.810984 0.658495 -0.562045 -0.703202 0.750499 0.497945 0.013132 0.465701 -0.634554 -0.073323 0.504232 0.314028 -0.395171 -0.128892 0.142770 -0.699085 -0.416249 0.608750 -0.532213 0.425551 0.269706 0.399224 -0.571994 0.652321 -0.195314 -0.353580 -0.013799 -0.041572 0.089199 -0.459195 0.940424 -0.099817 -0.800700 -0.621621 0.196981 0.949799 0.876324 -0.789887 0.415500 -0.758230 0.136790 -0.080268 0.555798 0.741619 0.790840 -0.301431 -0.957466 -0.625409 -0.692681 -0.489679 0.800143 0.577024 0.909545 -0.771851 0.229345 -0.285769 -0.125431 -0.784454 0.672659 0.963768 -0.243649 0.613083 -0.136049 -0.044349 0.991462 -0.939069 -0.094550 0.867786 -0.728956 -0.679050 -0.890444 0.407834 0.240682 0.665355 0.149452 0.031523 -0.636077 0.191986 0.406114 -0.328758 0.702307 0.206257 -0.751733 0.611852 0.434406 0.477612 -0.673917 -0.691025 0.693158 0.998742 -0.727257 -0.550491 0.611825 0.136693 0.405160 0.603287 0.197625 -0.689390 0.471073 0.468669 -0.368440 0.580629 -0.123498 0.872243 0.245984 -0.974045 -0.096235 0.609907 0.217941 -0.690121 -0.718850 -0.079752 0.516136 -0.470584 -0.467901 -0.049458 -0.992972 -0.141818 0.259517 0.700186 -0.143076 0.532259 -0.850305 -0.531251 -0.331047 0.554855 -0.927964 0.866577 0.865465 0.543109 0.335246 -0.502975 0.123738 -0.788252 -0.630732 -0.630278 -0.762297 0.273033 0.979630 0.455644 0.582913 -0.739221 -0.624109 0.099049 -0.209804 -0.092009 -0.950409 -0.202777 0.766173 0.309107 -0.502591 -0.376904 -0.158633 -0.352896 0.091845 0.510319 -0.798041 0.163881 0.376896 -0.932575 -0.293011 -0.287858 -0.435550 0.830728 -0.076110 -0.066282 -0.799550 0.161593 -0.793249 -0.819920 -0.382763 0.789664 -0.559141 -0.006871 -0.111287 0.231055 0.901119 -0.061696 -0.971722 0.667292 -0.752589 -0.474312 -0.709612 0.088778 0.172792 0.382233 -0.400903 0.374751 -0.453886 0.975994 0.442176 0.253104 -0.311864 -0.993374 0.083831 0.612027 -0.059656 0.284281 -0.226380 0.147095 0.464361 0.390857 -0.063240 0.905220 -0.616014 0.825473 0.136275 -0.714895 -0.236223 0.164554 0.952397 0.011188 0.690242 -0.757215 -0.900034 -0.136966 0.625019 -0.300936 -0.762215 -0.828867 -0.324943 0.679961 0.424236 0.363193 0.686587 -0.491932 -0.024780 -0.373069 0.792349 0.748840 0.774027 0.256710 0.139697 -0.289214 0.161930 0.523683 -0.463741 -0.701795 0.808788 0.300036 0.462759 0.761185 -0.688776 0.153001 -0.996030 -0.588809 -0.983966 0.628989 0.110255 -0.746181 0.800122 0.785312 0.933780 0.224358 0.148505 0.620367 0.732426 -0.876275 -0.752702 0.524774 0.872565 -0.978675 -0.218516 0.012262 -0.267889 0.943414 -0.464055 0.268370 -0.758381 -0.655267 -0.431594 0.704378 -0.894082 -0.120370 -0.142621 -0.890112 0.290821 -0.126587 0.738876 -0.598924 0.127232 0.538998 -0.813612 0.061012 -0.236644 0.334893 -0.318620 -0.504218 0.458619 -0.071322 -0.979444 0.331184 -0.049997 -0.197960 -0.656554 0.682114 -0.254546 -0.120608 -0.049516 -0.012927 0.224125 0.518891 -0.308549 0.330042 -0.601479 0.548830 0.439930 0.689342 -0.577757 0.178806 -0.909582 0.549475 -0.282196 -0.723194 -0.389512 0.481160 0.611699 0.291867 0.976942 0.070318 -0.779454 0.997498 -0.598498 0.170549 -0.200462 -0.255052 -0.147337 0.544991 0.624340 0.803147 -0.467935 -0.151535 0.322038 0.223516 -0.821493 0.720559 -0.227654 0.618437 0.409901 0.194589 -0.202756 0.500319 -0.255935 0.515048 0.777124 0.354552 -0.003792 0.388823 -0.353580 -0.026850 -0.540859 -0.133035 -0.029352 -0.139357 -0.962486 0.770186 0.605591 -0.109823 0.315177 0.229931 -0.306676 0.847242 -0.921605 -0.984639 0.070758 -0.743098 0.735920 0.843104 0.875339 0.145821 0.037694 -0.327417 -0.353860 0.781758 -0.812369 -0.576736 0.136311 0.183839 0.812088 0.782731 -0.843010 -0.728771 -0.350304 0.127638 0.131872 -0.312790 -0.102177 -0.262538 0.577387 -0.786999 0.967393 -0.729289 -0.939758 -0.954211 -0.713928 0.131000 -0.697309 -0.978008 -0.025896 -0.821970 0.167813 -0.988202 -0.149387 0.813953 0.793557 0.038244 -0.762783 -0.070133 -0.777916 -0.950695 -0.287402 -0.620927 -0.679467 0.362294 0.506711 0.452405 -0.950495 -0.595466 -0.810133 0.626892 -0.382465 -0.842740 0.897603 -0.322223 -0.796951 -0.816325 0.808778 -0.494260 -0.794333 -0.217118 -0.316230 0.373481 -0.205320 0.534384 0.187434 -0.411763 -0.427372 0.424651 0.518104 -0.205289 0.473955 -0.769298 0.173785 0.794488 0.592996 -0.319504 0.246893 0.642501 0.085030 0.436760 0.269393 0.702565 0.594021 0.166995 -0.619658 0.797070 0.350670 -0.810880 -0.697190 0.556338 -0.027998 -0.013420 -0.070182 0.766682 -0.479036 -0.882748 -0.645081 0.093592 0.541902 0.873023 0.888303 0.015858 -0.896275 0.062088 -0.189654 0.696721 0.742584 -0.942761 0.339222 -0.172386 0.494000 -0.391385 -0.469821 0.088020 0.775610 -0.089479 -0.114910 0.126280 0.099641 0.187900 -0.317382 -0.928356 -0.825519 0.612436 0.838326 -0.304555 0.729688 -0.806756 0.789037 0.271590 -0.933733 0.677340 -0.712552 -0.830008 -0.260572 0.097794 0.866713 -0.517988 0.155033 0.205936 0.309625 -0.350967 0.814551 0.839804 0.737053 0.590161 -0.249674 -0.377856 -0.283559 0.849967 0.810044 0.399059 0.921611 0.984525 0.011495 0.759937 -0.320030 -0.258817 0.953181 -0.530993 -0.987227 -0.980552 -0.853653 -0.699779 -0.810560 -0.114225 0.398015 -0.943846 0.367786 -0.446951 0.262090 -0.322588 0.202081 0.076640 -0.482784 -0.060865 -0.333199 0.267542 0.561278 0.383243 0.117509 0.371322 -0.217698 0.039120 0.355847 0.793797 -0.200944 -0.964183 -0.465020 -0.247763 -0.495177 -0.452246 -0.228315 -0.348830 -0.152025 -0.038874 0.536945 -0.754009 0.017280 -0.095269 -0.200961 -0.720631 0.582143 -0.998879 0.356010 -0.900641 -0.059744 -0.977189 0.366900 -0.498466 0.406054 -0.515591 0.872856 -0.811644 0.523529 0.228703 0.982153 -0.677414 0.264519 -0.482867 0.074823 0.769343 0.064887 0.846508 -0.579487 0.912862 -0.192366 0.957458 -0.841147 0.824914 -0.137811 -0.042107 -0.895717 -0.555669 -0.040986 0.460292 -0.456310 0.899269 0.483103 0.910590 -0.599197 -0.110843 -0.605000 -0.726342 0.077513 0.918529 0.502361 0.059666 -0.758885 -0.233119 0.576800 0.315937 -0.463777 -0.358313 0.162446 -0.043264 -0.445451 0.970080 -0.085806 -0.286597 0.794994 0.776382 0.671295 0.899276 -0.779286 -0.369691 0.359568 -0.235596 -0.470422 -0.157328 -0.325006 -0.069619 0.731829 0.069994 0.204039 -0.190658 -0.011477 -0.293600 0.869008 0.229637 0.473281 0.445808 -0.454425 -0.990496 -0.912506 0.708020 -0.033760 -0.357956 0.678100 0.880434 0.355446 0.473094 0.656816 0.026742 0.372370 0.877530 0.657050 -0.268062 -0.358067 -0.813372 0.574610 0.316927 0.117009 0.306439 -0.613079 -0.678952 -0.884219 0.375443 0.027448 0.984789 -0.394919 -0.499271 0.430596 0.150655 -0.489767 0.518091 -0.141324 0.476473 -0.839865 -0.463224 0.356907 0.515581 -0.990130 0.013723 -0.457677 0.382240 -0.108747 -0.800627 -0.885822 0.533186 -0.613999 0.688788 -0.149887 0.503010 -0.004773 0.237034 0.824058 0.111008 -0.387522 -0.148494 0.095797 0.217558 0.352234 -0.473606 -0.631787 0.862467 -0.955515 0.226889 0.338940 -0.795381 0.763665 -0.304153 0.720200 0.773535 0.709570 -0.737477 0.155774 -0.399178 -0.538104 0.269953 -0.865991 -0.152103 -0.041259 -0.015878 -0.649093 0.953969 -0.778844 -0.825036 0.064977 -0.166366 0.026470 -0.839226 -0.948808 -0.621295 -0.312832 -0.580595 -0.758828 -0.268348 0.646294 0.580111 -0.063729 0.409959 -0.724042 -0.343528 0.183494 0.985528 -0.081006 -0.660732 -0.413650 0.380890 0.609221 -0.279641 -0.771213 -0.432038 0.704481 -0.420306 -0.478069 0.925637 -0.245342 0.586907 -0.240730 0.781128 0.747681 -0.189538 -0.840167 -0.565151 0.229867 -0.598996 0.166501 -0.123839 0.981116 -0.897227 -0.713880 -0.742926 -0.240756 0.469614 -0.757399 0.678239 0.808883 -0.171049 0.059129 0.418104 0.549310 0.287916 0.986066 0.253791 0.867609 -0.492004 0.179427 -0.377732 -0.905096 0.938698 -0.596604 0.842585 -0.250840 -0.436771 -0.722566 0.979027 -0.035767 0.443936 -0.144812 -0.054651 0.546708 0.141309 0.202422 -0.694047 -0.389077 0.445024 0.984191 -0.580195 -0.726025 0.043320 0.837909 0.823285 -0.668764 0.823975 0.077076 -0.801154 -0.668029 -0.743497 -0.178887 -0.573125 -0.804799 0.224509 -0.730540 -0.055639 0.787737 -0.453105 -0.076613 -0.248030 0.990830 0.778575 0.697319 
0.537539 -0.080116 -0.100259 0.843491 0.530807 -0.655235 0.827683 0.950612 -0.381260 -0.128997 0.788521 -0.557974 0.202239 0.612496 0.519102 0.401085 0.944468 0.775605 -0.777802 -0.628657 0.970806 0.446707 -0.359197 -0.084833 0.234445 0.187698 0.838555 0.986415 0.178528 0.617130 0.683734 -0.283934 -0.462986 -0.416525 -0.440442 -0.932179 -0.071759 -0.612760 -0.981567 0.546981 0.258243 0.806954 0.989007 -0.539517 0.419451 0.508109 0.861568 0.363918 0.283714 -0.916234 0.735261 0.254521 0.530473 -0.623936 -0.830312 -0.235082 0.563761 -0.991757 -0.248667 -0.257711 0.625373 -0.564934 0.458355 -0.837614 0.018542 -0.982087 -0.769793 0.946782 -0.594847 -0.751360 0.493763 0.663397 -0.944405 0.482770 -0.876121 0.475045 -0.009121 0.985447 -0.161037 -0.725406 -0.930787 -0.425776 0.529115 0.599686 -0.049712 0.698803 -0.635397 -0.485951 0.707045 0.115936 0.256338 0.332418 0.551002 -0.285306 0.494804 -0.430456 -0.267393 0.725011 -0.483674 0.137760 0.973652 -0.989911 -0.198843 -0.970754 0.492860 -0.074963 0.504291 -0.516261 -0.089516 -0.656745 -0.241667 -0.020303 -0.082521 -0.712553 -0.420618 0.867767 0.986250 -0.056014 -0.618184 0.693295 -0.940079 0.638154 0.025713 0.610923 -0.647152 -0.479483 -0.819533 0.085455 -0.754471 -0.303206 -0.776785 -0.780820 -0.293117 0.024372 -0.751574 -0.800257 0.949409 0.752718 -0.316519 -0.140107 -0.904027 0.441814 0.839589 0.013452 0.729261 -0.581029 -0.118781 0.715511 0.362957 0.263034 0.408806 0.422878 -0.098811 -0.565481 0.033802 0.254037 -0.044964 0.214269 -0.660509 0.200565 0.911062 -0.437294 0.419745 -0.382055 0.587079 0.668171 -0.182312 0.536487 0.420889 0.501169 -0.603620 0.516862 -0.057017 -0.764031 -0.469687 -0.327756 -0.345060 0.411532 -0.612245 -0.982103 -0.325433 0.796561 0.440775 0.575755 -0.768920 -0.525423 -0.170208 0.186116 0.688846 0.169283 -0.613319 0.599908 0.731990 0.806425 -0.782146 0.319068 0.474597 0.035542 -0.144444 -0.104514 -0.463289 0.251936 -0.587653 0.479694 0.487905 -0.057339 -0.848061 -0.857155 -0.645807 -0.460306 -0.839258 0.028760 -0.663744 0.601518 -0.395485 -0.432664 -0.923905 0.434307 0.753452 0.764941 -0.396410 -0.859868 0.364849 -0.664421 0.946558 0.582703 0.654647 0.421154 -0.381756 -0.489797 -0.683360 0.154955 0.762138 -0.271013 -0.365350 0.250043 0.671648 -0.213411 0.392888 -0.974159 0.326283 0.553630 0.054601 0.662538 0.155148 0.659116 -0.770126 0.231243 0.093422 0.983326 -0.003816 0.697012 -0.876542 -0.638967 -0.967409 -0.929984 0.943736 0.687239 0.491170 -0.438020 -0.802559 0.807810 0.716935 0.959580 -0.463203 -0.648415 0.209623 -0.791554 0.138173 -0.397489 -0.765713 -0.535544 -0.843859 0.288888 -0.873005 0.311290 -0.051996 -0.643131 -0.457467 -0.958574 -0.659806 0.538717 0.738438 -0.536348 0.899750 0.771029 -0.466332 0.843485 0.458268 -0.975162 -0.594535 0.655709 0.832647 -0.877600 0.615289 -0.630556 -0.526015 -0.175088 -0.422110 0.612158 0.427423 -0.187823 -0.923386 0.583564 -0.898935 -0.796391 -0.105146 0.049069 -0.439522 0.437386 0.090495 -0.099328 -0.023897 -0.171067 0.364324 -0.124148 -0.400038 0.897992 -0.280663 -0.941770 0.922830 0.124802 0.713940 0.755477 0.247202 0.329229 -0.875079 0.721187 -0.845859 -0.297189 0.333345 0.581564 0.514988 0.409960 0.165128 0.616053 0.613569 -0.940019 -0.334878 -0.825954 0.497367 0.755617 0.074718 -0.526530 -0.415451 -0.560958 0.349322 0.184512 -0.662966 -0.931340 0.242742 -0.740136 0.193462 -0.043318 -0.984659 -0.559335 -0.714090 -0.859738 -0.838148 -0.559949 -0.156926 0.495197 -0.978385 -0.641938 -0.094843 0.186743 0.974115 -0.481275 0.246724 -0.360763 -0.307229 -0.255909 -0.605146 0.767490 0.217561 -0.020597 -0.793468 -0.433116 -0.836085 -0.456434 -0.364457 0.406657 -0.196570 0.829006 -0.636662 -0.181229 -0.730330 -0.350751 -0.040967 -0.568478 0.089300 0.802107 0.926719 0.110915 -0.839831 -0.168125 -0.702342 -0.865716 0.350601 0.544381 -0.226479 -0.956628 -0.711528 0.168375 0.810862 0.506033 -0.852222 -0.982606 -0.927083 -0.688307 -0.439040 -0.291540 0.718350 0.364390 -0.462534 -0.918311 -0.816839 -0.192864 -0.269062 0.142195 0.238658 0.820238 -0.055698 0.165377 -0.068847 0.104471 0.997252 0.228811 0.238755 0.347853 -0.226808 -0.987723 0.391225 0.061664 0.180652 0.202087 -0.432302 0.328430 0.219480 -0.359385 0.640124 0.780440 0.349075 0.358474 0.144830 0.886541 0.440163 0.327991 -0.306323 -0.828900 -0.529814 0.932336 0.991338 0.414487 0.097712 -0.077509 -0.481042 0.094965 -0.848698 0.757713 -0.557182 -0.075506 0.769990 0.834043 0.986159 -0.049359 0.036130 -0.446143 -0.720928 -0.744390 0.194471 0.919195 -0.963950 -0.456454 0.277669 0.180880 -0.569912 -0.282168 -0.491129 0.123765 -0.111068 -0.020943 0.056101 -0.119730 -0.606456 -0.846187 0.802761 -0.087498 0.248778 0.954064 -0.329785 0.691596 -0.121442 -0.559795 0.525638 -0.135283 0.390846 -0.438232 0.418573 0.669918 -0.182622 -0.386955 0.589113 -0.146572 0.156591 -0.133218 -0.965693 0.586679 0.584614 -0.456822 -0.289556 -0.526454 0.522235 0.766544 0.353816 0.915779 0.920357 0.156578 -0.171719 0.169135 0.110641 0.498496 -0.139269 0.989199 0.938700 -0.613631 -0.146084 0.329546 -0.051863 -0.727511 -0.000536 0.765515 -0.114466 -0.411423 -0.381058 -0.957875 0.455359 -0.346750 0.628804 0.039972 0.196428 -0.660752 0.513518 -0.281337 -0.894208 -0.132666 -0.365558 -0.973851 -0.976088 0.462723 0.195284 0.134553 -0.038781 -0.943985 0.123752 -0.100081 -0.557616 0.977668 -0.770534 0.390522 -0.749843 0.228929 0.156037 0.135691 0.817506 0.774979 0.177816 0.272864 -0.571771 -0.193380 -0.687163 0.624657 0.145867 0.826355 -0.656679 0.251659 -0.306311 -0.022237 0.277808 -0.282399 -0.559514 -0.526907 0.852155 0.401705 -0.470892 -0.024093 -0.698375 -0.028508 -0.046425 -0.468910 -0.637986 0.203733 0.760020 0.518051 -0.660576 0.577525 0.293030 0.517240 -0.149610 0.721259 -0.676140 0.163227 0.345916 0.469727 -0.010418 0.689237 -0.278614 0.683271 -0.333000 0.999195 -0.599127 0.107486 -0.527712 -0.746973 -0.490809 0.001395 0.228934 -0.189184 0.972888 -0.817491 0.341906 -0.665098 0.386242 0.101926 0.852953 0.725665 -0.320549 0.145982 0.242905 0.529841 -0.132759 0.566765 -0.306932 -0.786842 0.036492 0.682650 0.902395 0.757878 0.365921 -0.430605 0.757073 0.766794 0.676881 -0.770639 -0.980179 -0.813927 0.230756 0.248755 -0.003111 0.203644 0.431264 -0.661205 0.538546 -0.182494 0.440721 0.391498 -0.456829 -0.879828 -0.462519 0.786076 0.650013 0.404722 0.352841 -0.656919 0.617880 -0.610667 -0.974269 0.520275 -0.852788 0.391652 -0.910331 0.904285 0.158446 0.766551 -0.866354 0.178267 0.952623 0.364402 -0.572979 -0.050488 -0.431954 0.858285 0.288307 -0.893408 -0.324209 -0.270973 0.498090 0.218962 -0.150801 -0.964429 0.005039 -0.500788 0.440293 -0.642120 -0.157707 0.058173 -0.252787 -0.131976 -0.421553 -0.105575 -0.740324 -0.331883 -0.201290 0.418122 -0.565332 -0.067644 -0.403611 -0.612709 -0.703242 0.023410 0.336803 -0.135196 -0.118304 -0.374891 -0.028604 0.557487 0.354137 -0.530514 -0.223551 -0.796664 -0.494943 0.781488 -0.297452 0.945350 -0.860632 0.544841 0.003523 -0.113419 -0.587135 0.581971 0.781007 -0.327458 -0.749913 -0.420283 -0.909336 -0.315245 0.512073 -0.312947 0.072046 0.808832 0.710463 -0.591152 -0.326364 -0.407841 0.033958 0.645033 -0.850354 -0.611906 -0.885481 -0.073905 -0.408570 -0.380424 -0.292417 0.293977 -0.435074 -0.153049 -0.161182 0.568449 0.733532 0.251684 0.150420 0.514539 0.924225 0.400507 -0.905744 -0.985111 -0.914738 0.606329 -0.298058 0.157308 0.415161 -0.587594 0.566156 -0.911203 0.004565 -0.399886 0.733830 0.154211 -0.011792 0.848349 -0.919694 0.579638 -0.532075 -0.212111 -0.126385 0.032852 0.634840 0.712434 -0.398699 0.368373 -0.035883 0.751721 -0.117089 -0.111657 0.152228 -0.022833 -0.096768 0.237491 -0.416503 0.605175 -0.605201 0.998658 -0.982419 0.960955 -0.912545 0.022145 -0.438931 0.821285 -0.823644 0.549277 0.669634 -0.743338 0.128915 -0.862441 0.044551 -0.997470 0.170411 -0.320609 0.714964 0.771712 -0.952236 -0.320918 0.523433 -0.069325 0.567425 -0.324339 0.907843 -0.529343 0.913152 -0.508660 -0.924168 -0.692049 -0.510002 -0.906588 -0.731094 -0.422547 0.115558 -0.170025 -0.601262 0.291914 -0.620748 -0.931627 0.548576 0.508168 -0.794068 -0.406873 0.510698 0.376343 0.272518 0.225662 0.148055 0.320282 0.904744 -0.328512 -0.749043 0.472168 0.347149 -0.841200 0.942825 0.260301 -0.349861 -0.981343 0.568251 0.140137 -0.887931 0.837157 0.717590 0.227627 -0.332868 -0.883672 -0.480459 0.046385 -0.815299 -0.931884 -0.445448 -0.609367 -0.338757 -0.934750 0.766976 0.933761 0.290912 -0.084969 0.254043 0.195656 0.586518 0.505000 -0.332176 -0.066333 0.663800 -0.389350 -0.806032 -0.686061 -0.370693 0.762219 0.454076 -0.258624 0.599376 0.171666 0.969004 -0.733492 0.287995 -0.511456 0.312893 0.472696 -0.443339 0.867445 0.863329 0.217904 0.932695 0.630305 0.151665 0.223607 -0.454664 -0.594292 -0.580736 -0.868146 0.910708 0.087088 0.065521 0.574508 0.697738 0.259489 0.888447 -0.672955 0.021708 0.342523 0.068421 -0.378916 -0.485810 0.037425 -0.112407 0.802185 0.525969 -0.799514 0.274881 -0.917370 -0.932069 0.138210 0.300534 -0.999374 -0.231485 -0.547801 0.224234 0.313851 -0.142093 0.643497 0.445705 -0.231386 -0.269415 -0.488773 -0.656878 -0.571677 0.770716 -0.768431 -0.244633 -0.207576 0.574093 0.823789 0.413509 -0.911717 -0.138787 -0.698899 0.890467 -0.612817 -0.498413 0.165348 -0.530188 -0.430482 -0.696442 0.770346 -0.429856 0.072073 -0.777455 0.794378 -0.614076 0.080452 0.437875 0.831629 0.849066 -0.831540 -0.657144 -0.807812 -0.403218 -0.886428 -0.576243 0.352150 -0.094004 0.997850 0.175938 -0.680495 -0.913868 -0.962848 -0.379394 0.976600 -0.575666 0.122193 0.141948 -0.105853 0.691711 0.445506 -0.335507 -0.738145 -0.482421 -0.112962 -0.943767 -0.096497 0.967490 0.494107 -0.264868 0.816556 0.662567 0.077989 -0.991256 -0.740651 0.191561 -0.567499 0.611499 -0.902443 -0.569649 -0.212563 -0.582938 -0.483517 -0.175411 0.037669 -0.506917 0.248924 -0.840138 0.635030 -0.856929 0.851574 0.080536 -0.192436 -0.886571 0.598115 0.694602 -0.830338 -0.498382 0.662092 0.663769 0.236751 0.478648 0.326336 -0.685261 0.487391 0.585685 0.506300 0.919892 0.197184 0.603858 -0.649757 0.984622 -0.979080 -0.133274 -0.190789 0.058589 0.359808 -0.941865 0.218451 -0.005161 -0.798794 0.070025 -0.924625 0.008770 0.183454 0.673490 -0.296628 0.353116 -0.824892 -0.634536 0.016885 0.411859 0.844111 -0.656779 0.726598 0.331503 0.928907 0.232898 0.251395 0.126091 -0.163244 0.601638 0.110713 -0.142324 -0.531636 0.919924 0.916265 0.828172 0.978059 0.134717 -0.176989 -0.820735 -0.795258 -0.101615 0.188035 0.388196 -0.428125 0.891407 -0.258689 -0.253017 -0.743129 0.758196 -0.841158 -0.899018 -0.898582 0.885440 0.432485 -0.969676 0.118339 -0.316120 0.156415 0.955095 -0.714482 -0.732872 -0.187229 -0.246119 -0.812948 -0.270963 -0.417947 -0.834889 0.863753 0.405064 -0.655624 -0.931505 -0.696551 0.532411 0.456691 -0.124676 0.423818 -0.801998 0.622308 0.680689 0.956198 0.781150 0.781672 -0.942384 0.666590 0.214157 -0.912059 -0.215071 0.898036 0.244356 -0.259976 -0.816446 0.511484 0.552795 -0.062565 0.698536 -0.718168 0.519488 0.863648 -0.854415 -0.075448 -0.791976 -0.785920 0.228001 0.740436 0.670771 -0.896675 0.164254 0.868773 0.725633 -0.155057 0.824971 0.506783 -0.373385 0.882587 0.173373 0.840771 0.970528 0.958302 0.738807 0.214883 -0.301674 0.922361 -0.273633 -0.748879 -0.140204 -0.575096 -0.467047 -0.620716 -0.711449 -0.321462 0.303836 -0.503424 -0.107382 -0.468164 -0.762989 -0.436611 -0.364839 0.401265 -0.567839 -0.639206 -0.753792 -0.742868 0.867577 -0.127177 -0.860281 0.040950 -0.286406 -0.889753 -0.000748 -0.547598 0.325130 0.697578 -0.625237 -0.948502 0.948699 0.234559 -0.523598 -0.518348 0.613843 -0.235047 0.160190 -0.082321 0.261529 -0.947191 0.449516 0.498540 -0.383803 -0.915323 -0.100195 0.048359 -0.554529 0.146013 0.305491 -0.686952 -0.981164 0.445211 0.353997 -0.267570 0.555458 -0.646751 0.184831 -0.119412 -0.949173 0.559594 -0.067914 0.999526 -0.205847 0.408487 -0.518822 -0.592003 -0.826560 0.641368 0.325676 0.434969 0.694176 -0.224808 -0.066492 -0.689626 -0.140132 0.833313 0.358732 0.305339 -0.020674 -0.335776 0.618387 -0.001839 -0.890566 -0.027616 0.730591 0.664892 0.325633 -0.084578 -0.454520 0.376460 -0.524984 0.477565 0.375985 0.269169 -0.113947 0.857163 0.677166 0.059493 0.498531 0.002842 -0.505538 0.192707 0.778034 0.427970 0.503081 -0.362098 0.261283 -0.138187 0.943241 -0.759391 0.526037 0.561628 0.238771 0.635471 -0.465987 -0.030638 0.300363 0.859646 0.884784 0.845842 0.236106 -0.640200 0.323408 -0.387909 0.628969 -0.790539 -0.530746 0.306135 0.268954 0.967785 -0.691023 0.763415 0.160492 -0.912989 0.191385 -0.336427 -0.275087 -0.547331 0.525386 -0.331845 -0.306722 0.051423 -0.770217 0.932048 -0.313106 -0.236204 -0.098590 0.987257 -0.376558 -0.213806 0.833100 0.859547 0.145994 0.156507 -0.528362 -0.225037 0.365968 -0.059107 -0.918901 -0.365078 -0.091322 -0.609924 -0.601663 -0.930830 -0.522913 0.589722 -0.267257 0.202000 -0.957609 -0.741871 0.870155 -0.264331 0.309552 -0.900062 -0.332283 0.996446 -0.136266 0.569127 0.983703 0.487176 -0.644679 0.816803 0.346723 0.501314 -0.026690 0.818361 -0.723722 -0.660722 -0.240746 -0.642624 -0.025800 0.667932 -0.252548 0.372536 0.737101 0.224539 -0.037741 -0.530156 -0.573460 0.004649 -0.272027 -0.703305 0.740318 -0.962476 -0.603367 -0.591965 -0.966030 0.260367 0.977162 -0.982326 -0.252458 -0.667518 0.834476 -0.905735 0.833797 -0.192214 0.912627 -0.889926 0.147065 -0.328119 -0.532550 -0.878736 -0.660188 0.214903 0.493801 -0.923086 -0.560558 -0.543941 -0.453243 -0.134018 0.460709 0.274730 0.162677 0.201027 0.312254 0.559309 0.609061 0.346225 -0.180324 0.586223 0.363898 0.567219 0.918706 0.198375 0.661484 0.752503 -0.993839 0.574111 0.862577 0.153226 -0.754008 -0.669973 0.274490 -0.414196 0.544930 -0.231710 -0.337282 0.984372 0.224350 0.209475 -0.149646 -0.314942 -0.515795 -0.986969 0.886085 0.796459 0.572340 0.495146 0.142684 -0.607984 0.081370 -0.493418 0.959235 0.000075 0.704957 0.620720 -0.247422 0.711118 0.194831 -0.384845 -0.135656 0.440822 -0.054818 -0.861166 -0.973374 -0.509888 -0.092876 -0.310656 -0.525516 -0.868526 0.898819 0.324838 -0.183468 -0.616976 0.337869 -0.297383 -0.820517 -0.089791 -0.802237 0.322167 0.302226 0.279133 0.828750 0.261461 -0.720792 0.533707 -0.117820 0.031786 0.244825 -0.922989 0.646941 -0.890831 0.517833 -0.407877 -0.751997 0.544460 0.082235 0.155127 -0.766196 0.556719 0.286600 -0.867377 -0.118442 -0.896868 -0.484353 -0.780573 -0.194251 -0.304870 0.129636 0.003512 -0.982703 -0.568138 -0.717355 0.846047 0.693323 -0.438147 0.379754 -0.424497 0.593638 -0.375421 -0.347486 0.240579 -0.266252 -0.829653 0.832702 -0.018250 0.714807 -0.085063 -0.863123 0.948611 -0.528344 0.423478 -0.918766 0.353214 0.526610 -0.403119 0.572641 -0.667641 0.292011 -0.297723 0.335871 0.309309 0.134139 0.618516 0.155356 -0.172538 -0.819631 -0.464890 0.402965 0.774007 0.159689 -0.944521 0.014586 0.893437 -0.774174 -0.152712 -0.124813 0.940634 0.762224 0.012064 0.889245 -0.766119 -0.564458 0.970479 0.587095 0.962152 -0.432640 0.159736 -0.705489 0.859372 0.862013 0.630382 0.168681 -0.003848 0.248899 -0.675963 0.823614 0.429267 -0.140853 0.226578 0.203275 -0.981164 0.282057 -0.782139 0.912273 0.507883 0.065148 -0.212540 0.448517 -0.172627 0.799524 0.337762 0.061253 -0.764934 0.308241 -0.351652 -0.802782 0.875601 0.808084 -0.508271 0.734973 0.670097 -0.877889 -0.096347 -0.333751 0.371010 0.227690 -0.510137 -0.199723 -0.913163 0.716441 -0.996448 -0.894328 -0.001501 -0.778588 -0.982055 -0.493618 0.286560 -0.194595 0.954899 -0.886067 -0.395070 0.292661 0.175186 -0.160004 -0.399099 0.823534 0.037214 -0.523498 0.631618 0.528942 -0.788525 0.301714 0.651054 0.115128 0.967964 0.022063 -0.657182 -0.542174 0.822341 -0.570345 -0.825732 0.825892 -0.464673 0.172766 -0.952695 -0.446727 0.679148 0.333865 0.358678 0.634047 0.447798 0.963607 -0.073292 -0.377016 -0.196397 0.527609 -0.553482 0.840817 -0.995889 -0.921864 0.369759 -0.784414 0.379850 0.020813 0.330715 0.347814 -0.957124 0.673533 0.805640 0.865217 -0.896812 0.979908 0.691109 -0.361485 0.152674 0.738414 0.191788 -0.168177 0.072279 -0.449534 -0.534130 -0.479923 -0.485927 0.392578 0.143061 0.317676 -0.079813 0.589578 0.158493 -0.075702 0.667714 -0.471748 0.139885 0.047564 0.549065 -0.529401 -0.604622 0.591941 -0.855868 -0.798982 0.457158 -0.752680 -0.819074 0.148268 -0.114165 0.333600 -0.113319 -0.922377 -0.834577 0.958960 -0.371911 -0.368707 -0.520963 0.142162 -0.976129 0.622097 -0.540162 -0.055942 0.211675 0.618331 0.868356 -0.120611 -0.853417 0.008241 0.926953 0.695649 0.478840 -0.677669 0.287590 0.622973 -0.476651 -0.255252 0.870293 -0.295726 0.893016 -0.243872 -0.962126 -0.220303 -0.166249 -0.796703 -0.261343 0.461840 -0.165410 0.217694 -0.395998 -0.141540 -0.160209 0.063840 0.802518 -0.948534 -0.317829 0.670873 -0.069145 -0.171245 -0.320886 -0.142191 -0.475597 -0.842046 0.180140 0.811993 0.780927 0.703488 -0.443258 0.651219 -0.592237 -0.550243 -0.592652 -0.554363 0.229455 0.241099 -0.351067 0.968112 -0.297061 0.483523 0.185805 0.306940 -0.658017 -0.974404 -0.629219 -0.855499 -0.922938 0.052952 0.815374 0.007917 0.881707 -0.505512 0.865726 -0.593890 -0.347558 0.045866 -0.781896 -0.566631 -0.250646 -0.225155 -0.915411 0.157117 0.224603 -0.508064 0.602753 -0.545943 0.733035 -0.748313 -0.577831 -0.564026 0.735210 0.607974 0.742914 -0.922807 0.633569 -0.886305 -0.778307 0.710631 0.166647 -0.962932 -0.281452 0.048353 -0.468444 -0.415726 0.454463 0.183998 0.630140 0.672567 0.617367 -0.620506 -0.552588 0.701956 0.536611 0.672015 -0.806108 0.139364 -0.873928 0.926927 0.391051 -0.451760 -0.637099 0.126261 -0.843786 -0.894185 0.203453 0.789784 -0.780490 0.425147 0.500415 0.386156 0.462214 -0.781037 -0.565490 0.993770 -0.196763 0.888973 0.177768 -0.566623 0.561540 -0.204864 -0.187129 -0.991048 -0.502908 -0.650518 0.680967 -0.309016 0.488846 0.807039 -0.382088 -0.120103 -0.644721 -0.019187 -0.993843 -0.488507 0.086628 0.209611 -0.698723 0.306138 -0.365243 0.801692 -0.307706 -0.903028 -0.979345 0.126804 -0.909259 -0.176108 0.015777 0.268510 0.257269 -0.422683 -0.936355 -0.929859 -0.413731 -0.439263 -0.580377 -0.732764 0.251721 0.908469 -0.925726 0.869632 -0.211634 -0.570447 -0.149555 -0.205477 -0.058953 0.937073 -0.995866 0.242324 0.243211 -0.361109 0.044016 0.935505 -0.264137 0.064671 0.062308 -0.173396 0.888563 -0.921915 -0.904886 0.145832 -0.344598 -0.841241 0.215973 0.241671 -0.280505 0.635596 0.508907 0.971216 0.544064 0.583181 0.840849 -0.667570 -0.987266 -0.308706 0.126953 -0.046219 -0.371633 0.131087 -0.803895 0.871577 0.769978 0.240120 0.807082 -0.494160 -0.695209 -0.130610 0.332444 -0.806647 -0.052525 0.427558 0.339186 0.602877 0.586316 -0.444842 -0.155452 -0.694188 -0.809246 -0.646545 -0.722972 0.734818 0.936635 -0.882123 -0.932752 0.949370 -0.190830 0.194201 -0.096849 0.437537 -0.674712 0.099255 0.309114 -0.904734 -0.660624 0.116195 -0.398894 -0.355834 0.985586 0.933551 -0.162480 -0.066939 0.361108 -0.823295 -0.464062 -0.052575 -0.268136 0.380486 0.253237 -0.077382 0.733940 0.530265 -0.342564 0.670576 0.648141 -0.275315 0.619945 -0.542688 0.918886 -0.476904 0.894848 -0.755826 0.622351 0.203962 -0.660560 0.961727 -0.679842 -0.059453 -0.394107 -0.694257 -0.125903 0.443413 0.238804 -0.764794 0.620119 0.774741 0.182631 -0.648017 0.155227 -0.564133 0.274600 -0.110833 0.966132 0.932037 -0.440257 0.614273 -0.343279 -0.820312 -0.928415 -0.424393 -0.297215 0.966433 -0.180218 -0.674864 0.170395 0.159222 -0.713137 0.490553 -0.900231 -0.107243 0.796296 -0.026134 -0.663830 0.035100 0.209071 0.956288 -0.190158 -0.608298 -0.691729 0.965069 -0.172431 0.582871 -0.145764 -0.206299 0.514908 0.413979 -0.592026 -0.828370 0.593667 -0.520441 -0.252763 -0.703548 -0.554008 0.567019 -0.378412 0.616388 -0.273759 -0.091549 0.106941 -0.173991 0.801208 -0.096763 0.799875 -0.862623 0.938337 0.008947 -0.906334 -0.251821 0.400649 -0.598063 -0.286752 -0.771782 0.984808 0.567483 0.021919 0.499717 -0.018538 0.429893 0.671346 -0.424870 0.909453 -0.581417 -0.128418 -0.644555 0.985602 0.493170 0.971833 -0.288157 -0.598379 0.078774 0.537852 -0.797171 0.982011 0.337727 -0.659794 0.920349 -0.653326 -0.566128 -0.331473 0.747322 -0.164191 0.381775 0.975540 -0.179383 -0.050742 -0.002541 -0.679666 0.930721 -0.572647 0.991680 -0.494149 -0.663195 -0.589737 0.377432 -0.307750 -0.604135 -0.129398 -0.335917 0.107708 0.272223 0.742857 -0.354439 0.475051 0.724869 0.983288 0.815257 0.645217 -0.670038 -0.750871 -0.686255 -0.922716 0.084938 0.695520 -0.947176 0.905555 -0.355222 0.050284 -0.774111 -0.424501 0.477636 -0.782431 0.081350 0.814442 -0.372168 -0.541218 -0.493308 0.023698 0.329384 0.170776 -0.868594 -0.398393 -0.086367 -0.223033 -0.923342 -0.361498 -0.239746 0.891916 -0.716281 0.090216 -0.858955 -0.402536 0.167501 0.225983 -0.707017 0.220325 0.131538 -0.062238 -0.729391 0.357427 0.513261 0.748245 0.574995 -0.405389 0.562687 -0.797172 0.053393 -0.930621 0.226525 -0.617223 0.240155 0.357931 -0.015616 -0.846212 -0.865102 0.061042 -0.207710 -0.104848 -0.047042 0.076009 0.985368 0.094003 0.673472 0.152869 -0.680014 0.966456 -0.626806 0.451524 -0.095783 -0.356197 -0.191050 -0.582522 -0.607952 -0.616054 0.012089 0.954735 -0.413227 -0.934519 -0.975886 0.813298 -0.551742 0.264268 0.171229 0.432642 0.418056 0.306127 -0.506316 -0.789654 -0.798721 0.446643 0.286354 -0.813352 -0.459355 -0.040173 0.339517 -0.139369 -0.073717 0.712711 -0.687845 0.830500 -0.643487 0.121105 -0.752022 -0.251439 0.505050 0.260067 -0.296704 -0.908176 0.325548 -0.272590 0.905122 0.773806 0.991678 0.076351 0.206448 0.409734 -0.617522 0.700133 0.620080 -0.416242 0.146775 -0.093566 -0.229594 0.687421 0.866261 -0.890078 -0.451948 -0.207457 0.822633 -0.139793 -0.376957 -0.820854 0.981312 -0.128979 -0.072293 0.486362 -0.868912 0.631003 0.578185 0.456636 -0.641587 0.483307 0.230442 -0.649909 -0.440341 -0.563109 0.759824 -0.057863 -0.862977 0.379904 0.525895 0.283798 -0.713662 -0.703700 -0.028781 -0.847401 -0.593778 0.519271 -0.054858 -0.771145 -0.620522 0.568186 -0.591999 -0.639211 -0.560793 0.335709 0.847151 -0.429705 -0.033288 0.425337 -0.973069 0.325125 -0.091356 0.257373 0.675215 0.468303 0.694264 0.435039 -0.589560 0.831287 -0.185056 0.936335 0.115086 0.101282 -0.767365 -0.913695 0.253881 -0.361143 0.605576 -0.800976 -0.132287 0.985054 0.767209 0.275714 -0.654157 -0.793584 -0.388577 -0.807005 -0.223289 0.578135 0.618331 -0.196357 -0.096741 -0.473024 -0.938984 -0.421526 0.995278 0.755280 -0.986486 -0.594282 0.586567 -0.171543 -0.657947 -0.298347 0.929740 -0.425312 -0.212042 0.183621 0.213545 -0.606466 0.382644 -0.918742 -0.621412 0.149854 0.356972 -0.275569 0.356270 0.968395 -0.082574 -0.867019 0.546529 -0.464243 -0.063376 -0.550211 0.062733 -0.002360 0.028263 0.058011 -0.247080 0.041777 0.463729 -0.660512 0.870234 0.805782 0.041141 0.799974 -0.619530 0.829099 -0.016406 0.594015 -0.777367 -0.633761 0.675272 -0.398779 0.516092 0.032244 0.325652 -0.127638 0.000639 -0.756922 0.005343 -0.452832 -0.221165 0.941967 -0.003044 0.841568 -0.060393 -0.974781 -0.100421 0.692527 0.066996 -0.636692 -0.967985 -0.062770 -0.830910 0.073156 -0.262796 -0.450440 -0.097745 0.720798 -0.856425 0.124888 -0.912964 0.818847 0.726109 0.603129 -0.148909 0.051761 -0.524509 0.851730 0.294839 0.480834 -0.601102 -0.926326 0.422801 0.395854 0.915241 -0.637592 0.421074 -0.185180 -0.945064 -0.511931 0.178128 -0.913049 0.425300 0.347218 0.160107 -0.837497 0.896778 -0.937638 0.883301 -0.959647 0.187250 0.970338 0.859200 -0.086641 0.573466 -0.289708 0.965121 -0.951043 -0.437979 0.259960 0.529791 -0.039081 0.333634 -0.047408 -0.643227 0.248875 0.315000 0.777847 -0.936305 0.369936 -0.734084 0.241823 0.456887 0.691216 -0.410958 -0.383006 0.853719 -0.514180 -0.320644 0.737020 -0.473827 0.866606 0.707358 -0.614626 -0.220035 0.280824 0.095665 -0.254914 0.329781 0.657686 -0.994954 -0.140428 -0.381395 0.338679 0.812164 -0.024621 -0.412446 0.127163 -0.246774 -0.348751 -0.502901 0.019142 0.893073 0.953986 -0.289642 -0.517886 -0.429020 -0.435923 -0.032066 0.250335 -0.698903 
0.494108 0.116941 -0.991544 0.879481 0.896906 0.289280 -0.024854 -0.358008 -0.380939 -0.367167 -0.352962 0.478633 0.251438 0.985717 0.290797 -0.773183 -0.426728 -0.582040 -0.019958 0.224521 -0.084940 0.999184 0.117593 -0.130955 -0.290458 0.599708 0.440025 0.273619 -0.432358 -0.309640 0.574717 -0.938251 0.807301 0.583172 0.941230 0.704207 -0.127548 -0.083623 -0.653801 0.491514 0.549209 -0.006763 -0.029853 -0.199353 -0.021046 -0.739056 0.027464 0.552226 -0.321096 -0.992493 -0.223253 0.593964 -0.993309 0.894341 -0.536991 -0.283767 0.494048 0.903034 0.989852 -0.938310 -0.406606 0.564569 -0.876561 -0.599305 0.147741 -0.935330 -0.895098 -0.979807 -0.018953 -0.548898 0.511707 -0.469744 0.444339 -0.518146 0.330903 -0.576707 -0.257202 -0.641632 0.975519 0.421701 -0.634126 -0.247734 0.015665 -0.627435 -0.353393 0.478674 0.088798 -0.859345 0.381708 0.078650 -0.797655 0.975102 -0.356781 -0.674215 -0.624203 0.790960 -0.609545 -0.519300 0.811153 0.371501 -0.068199 0.322860 0.901757 -0.623860 0.804714 0.232661 -0.200567 -0.452489 0.591028 -0.225048 0.969213 0.956902 0.527219 -0.015122 -0.670533 -0.826174 -0.536448 0.418265 -0.685519 0.845260 -0.503085 -0.483174 0.820362 0.140134 -0.157389 -0.803840 -0.068906 0.233066 -0.323141 -0.257753 -0.395433 0.608660 -0.934892 -0.493675 0.984800 0.869821 0.738985 -0.215767 -0.582667 0.330014 0.559186 -0.613454 0.286916 0.086404 0.371424 0.616383 0.260230 0.834976 0.034648 0.574711 0.680236 0.531564 -0.908463 0.500598 -0.328302 -0.065852 0.696758 0.602792 -0.832786 -0.626383 -0.654961 -0.228218 0.982277 -0.589853 0.278106 0.967077 -0.720032 0.017092 -0.248690 -0.302699 -0.652895 -0.689504 0.083847 0.634021 0.396900 -0.544729 0.250404 -0.342869 -0.709753 -0.714947 -0.768158 0.970483 0.816616 -0.676621 0.471081 -0.511686 0.257528 0.167839 -0.908894 0.424742 0.541456 -0.563854 -0.803477 0.523733 -0.153707 0.474630 0.490810 0.126261 -0.508278 -0.757880 0.823563 -0.161173 -0.447384 -0.092590 -0.527152 0.949517 0.362681 0.723253 -0.393353 0.652928 -0.991695 -0.161511 0.623411 0.824922 0.161868 0.094492 -0.686764 -0.580604 -0.737669 -0.595658 0.844138 0.803786 -0.159512 -0.959339 0.327519 0.686781 0.515291 -0.181671 -0.186958 -0.992988 0.060449 -0.363395 -0.154161 0.613066 0.544014 0.318687 0.562583 -0.093305 0.041940 -0.830770 -0.440377 0.050246 0.007719 -0.816967 -0.124833 -0.830413 0.277525 0.188404 -0.411017 0.539856 0.592746 -0.566879 0.343642 -0.566766 -0.526218 -0.328839 -0.879985 0.989072 0.489490 -0.066942 0.996085 -0.450061 0.569663 -0.158076 -0.836995 0.113677 -0.839389 0.725588 -0.979628 0.202551 0.894818 -0.420005 -0.747203 -0.097463 -0.236972 0.127964 0.072124 -0.959447 -0.683632 0.661107 0.580409 0.909114 -0.905773 -0.075949 -0.657652 -0.431991 0.595212 -0.537636 -0.442919 0.084702 0.395421 -0.446834 0.634641 -0.034916 0.395090 0.797646 -0.921239 0.555701 0.523234 -0.900867 -0.241748 0.418052 -0.320872 0.011049 -0.679411 0.442156 -0.860987 0.392713 0.482710 -0.544619 0.053819 0.063119 -0.635505 0.148047 0.987170 -0.293157 0.716056 0.582381 0.169206 -0.726863 -0.332917 -0.435372 -0.173697 -0.698276 0.529712 -0.778607 -0.900629 0.608472 0.777093 0.622605 0.707605 -0.464655 0.040657 -0.613267 0.546394 0.361245 0.828890 0.685407 -0.246042 0.311600 -0.859212 0.807777 -0.625281 -0.494717 -0.044176 -0.638112 0.212126 -0.328120 0.944270 -0.618668 -0.054983 -0.388647 -0.054040 0.771320 -0.086923 -0.524329 0.992712 0.012448 -0.915856 0.769805 -0.364947 0.791749 -0.694849 0.675709 -0.821518 0.851545 0.036955 -0.992628 0.536952 0.790912 0.318972 0.677740 0.598690 0.693690 -0.816977 -0.445486 -0.944421 0.395148 0.226393 0.999849 0.776480 -0.828590 -0.388798 -0.277560 0.942729 0.524279 0.198112 0.935442 -0.463273 0.282255 0.705247 0.171780 0.074004 -0.989602 -0.152511 0.252487 0.861943 0.884443 0.259859 0.398895 0.675356 -0.421169 0.076635 0.274045 -0.727479 0.259658 0.828559 -0.671900 -0.345194 0.054952 -0.672051 -0.568713 0.226362 -0.060849 0.153727 0.169091 -0.536570 -0.648161 0.104533 0.000157 0.634094 -0.190220 -0.828064 -0.291902 -0.179822 0.019425 0.960585 -0.317879 -0.096132 0.220444 -0.918984 -0.420776 0.799275 0.157651 0.853269 -0.928204 -0.582691 0.681828 -0.600104 0.072116 -0.263220 -0.272155 0.503403 0.963142 0.666996 -0.342870 0.132233 -0.869574 0.008968 -0.763234 0.130582 -0.356938 0.046547 0.302518 0.351160 0.866725 -0.678057 0.311745 -0.451154 0.225812 -0.467811 -0.370138 0.805036 -0.668536 0.787513 0.658305 -0.596740 -0.795178 0.340133 -0.196844 0.276938 -0.923087 0.531001 -0.219660 -0.959945 0.197997 0.437470 0.172288 0.328423 -0.553562 0.409055 -0.540995 0.089500 -0.544399 0.761523 -0.559340 -0.677674 -0.916533 0.752405 -0.128828 0.309278 -0.715406 0.501033 0.114314 -0.383942 0.288546 -0.227381 0.019318 0.493369 -0.887248 0.822474 -0.229693 -0.810335 0.353475 0.550647 -0.770280 -0.448527 -0.011883 0.402008 0.879895 0.434555 -0.188937 -0.661100 -0.475945 0.266664 -0.899576 -0.035285 0.588990 -0.816110 -0.282879 -0.539838 0.493169 0.001715 0.961195 -0.392518 0.617773 0.249742 0.380101 -0.362909 -0.256889 0.492853 -0.540435 0.513417 0.682517 0.813041 0.064064 0.912237 -0.635487 -0.947819 0.314245 -0.755591 0.486736 -0.874692 -0.416691 -0.989208 0.391972 -0.316267 -0.024493 -0.019037 -0.132377 0.692628 0.441125 -0.639208 -0.305658 0.402320 -0.031726 -0.687885 -0.347938 -0.651625 -0.050794 0.395173 0.841228 0.408772 -0.091410 0.523746 0.221812 0.972654 0.435983 0.586326 -0.975165 -0.249772 0.830734 0.511572 -0.124464 -0.585957 0.522363 -0.732491 0.097776 -0.502130 0.248471 0.965400 -0.809502 -0.310404 -0.673808 -0.115160 -0.908084 0.294466 0.196956 -0.256022 0.642841 -0.853838 -0.860849 0.484069 0.554934 0.047740 0.007815 -0.223254 0.020394 -0.556202 -0.636928 0.045229 0.194026 -0.806194 -0.443199 -0.930438 -0.392151 -0.920836 -0.662929 0.705626 -0.422966 0.585542 0.671026 -0.232468 -0.724862 0.997217 0.652372 -0.632946 0.291683 -0.150673 0.111032 -0.065476 -0.004511 0.250183 -0.581407 -0.449577 -0.702077 0.426408 0.327169 0.318317 0.870206 0.690241 -0.636453 0.064232 0.884047 -0.079652 0.133794 -0.508104 -0.000488 0.470865 -0.802478 0.576546 0.056408 0.868547 -0.655923 0.331546 0.865764 0.996449 0.698601 0.157447 -0.154224 -0.190367 -0.908029 0.841266 -0.940184 -0.489435 -0.608311 -0.642261 0.936973 0.718858 0.676056 0.807179 0.409099 -0.960397 -0.128589 0.293145 -0.040049 -0.994794 0.785041 0.959462 0.476071 0.982563 0.536008 -0.467521 0.851111 0.880085 0.864025 0.716875 0.876534 0.562626 -0.125677 -0.277690 -0.627741 -0.033706 -0.436424 -0.567926 0.476859 -0.044735 -0.210187 0.413832 -0.325877 -0.534131 0.221011 -0.916779 -0.494528 -0.907578 0.376367 0.465423 -0.902373 0.161408 0.424885 0.573698 0.143971 -0.039107 -0.893823 -0.004918 -0.159022 0.970202 -0.288043 -0.282488 0.532828 0.586279 0.439822 0.905086 -0.447427 -0.996602 -0.662839 -0.970568 -0.041337 0.126974 0.443263 0.632786 0.592843 -0.335726 0.716008 -0.901684 -0.243305 0.092374 0.563739 -0.145677 -0.746218 -0.011376 -0.571979 0.397753 0.949516 -0.465802 -0.607166 -0.209506 -0.495600 0.104791 0.508006 -0.962772 -0.308930 -0.052172 0.942314 0.243643 -0.048774 -0.720525 0.273075 0.909890 0.406448 -0.283662 0.542676 -0.000708 0.380612 0.258683 0.097608 -0.862692 -0.648943 -0.338654 -0.008370 -0.395161 0.649970 0.419651 -0.997408 0.599486 0.953849 -0.604573 -0.610020 -0.541752 0.500218 0.897986 -0.504524 -0.808712 -0.154186 -0.562210 0.434932 0.797040 -0.282735 -0.291993 0.706930 -0.876287 0.424345 0.249606 0.123005 -0.195043 -0.491711 -0.779387 -0.057735 -0.140653 -0.118041 0.933895 0.464186 -0.468071 0.353546 0.466778 -0.868585 0.307394 0.862205 -0.478605 0.765643 0.362423 -0.580619 -0.738881 0.553711 0.265195 -0.301091 -0.011358 0.062236 0.416174 0.696649 -0.230834 0.539887 0.120994 -0.981228 -0.337108 0.925951 -0.472939 -0.116496 -0.131784 0.386408 0.765463 -0.197889 -0.149406 -0.702608 -0.844343 -0.682628 -0.571193 0.463051 -0.820423 -0.049798 0.228694 0.541999 0.369583 0.489813 0.095710 -0.365222 -0.811278 -0.915648 0.697014 0.604895 0.781001 -0.533820 0.144782 -0.098005 -0.515048 0.807674 -0.172054 0.012013 -0.308822 0.696163 -0.601580 -0.543358 -0.501726 0.249014 -0.245966 -0.346069 0.566386 0.182840 -0.883018 0.745962 -0.866958 0.345676 0.287961 0.502625 -0.164511 -0.616329 -0.862596 0.024210 -0.531977 0.834418 -0.370894 -0.750976 -0.699402 0.773888 0.151019 -0.214450 0.581562 0.978965 0.797562 -0.727260 0.675128 -0.804018 -0.270618 -0.826599 0.444996 0.483416 -0.172668 0.011382 -0.333744 -0.055686 -0.242656 -0.200702 -0.710010 -0.954695 -0.698076 0.125479 -0.571024 -0.560672 -0.850311 -0.103001 -0.726254 -0.221205 0.146023 -0.425656 -0.447317 -0.702958 0.359893 -0.865756 -0.723993 0.157455 -0.593016 0.951135 0.353438 0.136366 -0.875464 -0.201566 -0.380218 -0.048132 0.809815 0.286038 0.896183 -0.432841 -0.914664 -0.813827 -0.387536 -0.612740 0.311652 0.041441 -0.173412 0.461341 0.938440 0.100333 -0.759864 0.084463 0.674677 -0.207182 0.381504 0.034570 -0.072937 0.657511 -0.807975 0.334047 0.608646 0.545463 -0.529587 0.733182 -0.656104 0.090195 -0.314950 -0.846288 -0.623767 -0.418767 -0.279129 -0.538431 -0.232594 0.333336 -0.151171 -0.920943 -0.625224 0.675416 0.540398 -0.686784 -0.224250 0.780533 0.397679 -0.549573 -0.426648 -0.220817 0.484996 0.500414 -0.563305 0.677022 -0.165539 -0.954659 0.222484 0.304874 0.778523 0.566381 -0.604931 -0.536427 0.720092 -0.228698 0.044806 -0.559036 0.232871 0.812211 0.774299 -0.918301 0.891268 -0.850925 0.757116 0.431666 -0.537709 -0.467135 0.212200 0.859970 -0.016708 0.785552 -0.360846 -0.531712 0.285966 0.075848 -0.854690 -0.879573 0.121189 0.367794 0.425301 -0.100289 -0.065825 0.820371 0.363284 -0.345733 -0.408327 -0.591910 0.095231 0.824543 -0.779698 -0.130470 0.906243 -0.888430 0.018606 0.663359 0.543236 0.480897 -0.803776 -0.244564 0.340867 0.179516 -0.459012 0.980021 0.647804 0.826954 0.055869 0.793114 0.947381 -0.822942 0.160909 0.372682 0.076769 -0.904917 0.193053 -0.559946 -0.250649 0.784726 -0.151856 0.844582 0.609269 0.068445 -0.285888 0.515512 0.180015 0.732718 0.178871 -0.276749 0.213615 0.375095 0.478688 -0.445518 -0.445389 -0.980325 -0.465497 -0.797585 0.846629 0.590373 0.995529 0.794009 0.767431 0.156438 0.166692 -0.155800 0.251521 -0.640256 0.284253 -0.999128 -0.855530 -0.867603 0.845454 0.753739 0.200842 -0.440434 0.269251 -0.619142 -0.707716 -0.551879 0.104109 0.505899 0.823216 -0.417203 -0.939618 -0.622173 -0.397528 -0.405115 -0.419758 -0.550899 -0.814742 -0.424229 -0.756890 0.952688 0.732208 0.409802 -0.203112 -0.016271 0.769546 -0.918858 -0.015398 0.914016 -0.786461 -0.169944 0.667755 0.414381 0.389622 -0.062994 0.795239 0.681906 0.385127 -0.100652 0.187805 0.208343 0.482144 0.248187 0.586170 -0.915384 0.843072 -0.833589 -0.466283 -0.971671 -0.257818 -0.223173 0.981018 -0.525610 -0.813371 -0.222094 0.458119 0.956175 -0.140953 -0.557279 0.870191 0.072586 0.272777 0.537946 -0.513033 -0.337602 -0.525048 -0.717794 -0.655696 0.860079 0.181554 0.532109 0.068422 -0.336302 -0.219704 -0.345409 -0.251685 -0.376633 -0.178998 0.282032 -0.348303 0.563184 -0.941141 -0.367286 -0.962426 -0.754511 0.410620 0.495694 -0.798336 -0.730333 0.938415 -0.928145 0.342253 0.211191 0.609802 0.829221 0.873590 -0.915247 -0.888573 -0.782106 0.944832 0.292980 0.750003 0.013254 0.956679 -0.469701 0.667845 -0.295007 0.153667 -0.511152 0.987025 0.805363 -0.947968 -0.954116 -0.561922 -0.910394 -0.708627 0.848698 0.585300 -0.506963 -0.881635 0.523715 -0.435107 0.460618 -0.265094 -0.825306 0.289839 -0.391504 -0.740552 0.401265 -0.173610 -0.795720 -0.305754 -0.423607 0.217534 -0.349076 0.106692 -0.114621 0.355917 -0.739642 0.374227 0.342943 -0.934278 0.426259 0.388827 -0.496201 0.515865 0.680200 -0.647503 0.101165 -0.826763 -0.529138 -0.375120 -0.261870 0.931480 0.359786 -0.087176 0.221319 0.968282 0.172271 -0.377415 -0.205329 0.376551 0.316831 0.371064 -0.405916 0.967755 -0.522244 0.479463 0.323672 -0.261886 -0.146310 -0.333385 -0.196164 -0.720051 -0.944558 0.307635 0.795814 0.735642 0.660132 -0.103021 0.908879 -0.869006 0.521859 -0.352992 -0.937525 -0.118355 0.559832 0.283794 -0.150073 -0.267897 0.906379 0.644599 -0.891346 0.223209 0.015663 -0.297262 0.190964 0.493419 -0.817798 -0.485363 -0.768467 0.035892 0.181251 0.035369 0.315841 0.236693 -0.656996 0.111655 -0.027665 -0.996863 -0.991366 -0.118786 -0.865869 0.530493 0.528222 -0.803394 -0.587862 0.088054 0.480400 0.262065 0.820158 0.386779 -0.093336 0.928812 -0.390012 0.922327 -0.368450 0.800952 0.415746 -0.186248 -0.684411 0.647279 0.849644 0.496840 -0.317352 0.165484 -0.266467 0.025652 -0.722861 0.705868 0.028789 -0.714228 -0.412918 0.162920 0.816265 -0.884695 0.359526 -0.771597 0.203359 -0.160074 0.490469 0.023516 -0.773296 -0.602867 -0.047672 -0.163308 -0.680540 0.583878 -0.362356 0.735205 -0.602370 -0.046767 0.382484 -0.752726 -0.549927 -0.934868 0.412758 0.183606 0.090784 0.689897 -0.110525 -0.880427 0.975669 0.476557 0.282493 0.791934 0.591861 -0.357981 -0.979662 -0.204780 0.481945 0.510807 0.818737 0.708649 0.907939 -0.228935 -0.454659 -0.772601 -0.645057 0.182985 0.962604 -0.247428 -0.863782 0.345088 -0.000154 -0.413709 0.410219 -0.587396 0.769897 -0.498997 -0.897500 -0.340628 -0.379424 -0.921831 -0.864071 0.903069 0.870104 0.727791 -0.454913 0.890441 -0.476989 -0.972968 0.401248 -0.658253 0.735681 0.309187 0.112812 -0.718978 0.536586 0.467755 0.464007 0.499190 -0.779673 0.600225 -0.155723 0.220173 -0.813484 -0.745504 0.632777 0.956413 -0.244501 0.735277 -0.384215 0.376075 0.813446 -0.248285 0.279144 0.683550 -0.520495 0.824231 0.573991 0.002516 0.851263 -0.024761 0.344263 0.586944 -0.715574 -0.542925 0.867966 0.821012 0.924830 0.331973 0.320201 -0.854843 -0.067802 -0.835522 0.365330 0.118714 -0.581025 -0.001894 0.075127 0.174474 -0.266617 0.690913 -0.449451 -0.453170 -0.557373 0.829693 -0.769620 -0.077868 0.653924 0.804371 0.924648 0.505187 -0.220390 0.268911 0.092131 0.064035 0.725987 -0.039903 -0.114953 0.650817 -0.707931 -0.794752 0.795974 0.224267 -0.630273 0.161303 -0.657020 -0.211298 -0.840590 0.418108 0.963176 -0.107207 0.109020 -0.486275 0.439623 0.551647 -0.656582 0.670002 -0.526221 0.997342 0.474373 -0.601573 0.502529 -0.746018 0.667339 -0.405340 0.318018 0.393326 0.554757 -0.796935 0.044143 0.846826 -0.591687 -0.159884 0.071092 -0.221960 -0.998581 0.414073 0.566741 -0.839171 -0.167820 0.529917 0.053622 0.941200 -0.956358 -0.506755 0.492848 -0.612940 -0.836753 0.966627 -0.615598 0.637620 -0.634945 0.886932 0.891602 -0.967606 -0.518408 0.209620 0.425719 -0.963652 0.412684 -0.530138 0.883174 0.820997 0.309978 -0.045734 -0.400963 0.311398 -0.631661 -0.834222 0.472227 0.200520 0.695695 -0.474151 0.141720 0.739337 0.019093 -0.365432 -0.873603 0.182340 -0.398805 -0.489200 -0.180040 -0.033751 -0.602269 -0.288438 -0.001357 -0.120677 0.921182 -0.575638 -0.084329 0.333866 -0.105776 -0.201155 0.154863 -0.795798 0.753112 0.753900 0.515600 -0.878549 0.919678 -0.012173 0.321971 0.615373 0.513675 -0.536309 0.354710 -0.467231 0.098259 0.481108 0.715109 0.699453 0.991907 -0.464931 -0.334297 -0.610361 0.246631 0.664346 0.268962 0.167813 -0.911292 -0.815367 -0.498321 -0.017067 -0.016522 0.656542 0.187135 -0.263410 0.410443 -0.297265 -0.141959 0.330121 0.690562 -0.819989 -0.054506 0.204237 -0.356298 -0.699796 0.737006 0.741961 0.781312 0.452115 0.441414 0.773219 0.987184 -0.892883 -0.837143 0.233816 0.771463 0.431819 -0.598372 0.860171 0.616452 -0.096693 -0.156896 -0.400070 -0.440150 -0.969761 0.336519 0.970293 -0.267026 -0.805440 0.300413 -0.576464 -0.625428 -0.754093 0.627774 0.018274 -0.453889 0.364780 -0.239765 -0.672577 -0.183105 -0.798351 -0.899358 -0.195920 -0.691233 -0.736501 -0.962105 -0.919770 0.695318 -0.560476 0.940401 0.311770 0.342831 -0.216495 0.911699 0.902681 -0.186255 0.248219 0.872974 0.546719 0.442779 0.173387 0.970256 0.817351 0.419295 0.598030 -0.164376 0.965406 -0.037190 0.595859 -0.707171 0.779705 0.797508 -0.606529 -0.416215 -0.893725 -0.343030 -0.378320 -0.813495 -0.647712 0.061204 -0.873094 0.664057 -0.595965 -0.089588 0.575756 -0.693283 0.724156 -0.176025 -0.820310 0.270876 -0.733246 0.353078 0.241131 -0.915896 -0.227627 -0.160839 -0.080271 -0.262221 0.801971 -0.484412 0.030608 0.581676 -0.686903 0.424078 -0.834540 -0.580628 -0.918952 -0.212859 -0.394123 -0.566664 0.848345 -0.267217 -0.902607 -0.747620 0.643195 0.673149 -0.440903 0.367351 -0.502876 -0.261213 -0.361773 -0.236121 -0.908135 0.879358 -0.152017 -0.135762 -0.281481 0.767712 0.602016 -0.479510 -0.716700 -0.367376 -0.897835 -0.403603 -0.943298 -0.732374 0.015769 -0.862250 0.054767 0.621645 -0.428914 -0.096889 -0.645572 -0.331521 0.155492 0.997623 -0.658371 0.714588 0.364974 -0.161247 -0.546624 -0.996800 0.602632 -0.454759 0.882559 -0.549385 0.409479 -0.398922 -0.781673 0.011495 0.121568 -0.498373 0.644119 0.223733 0.098024 0.700821 0.491359 -0.886208 0.838572 -0.453875 0.735437 -0.590342 0.449237 -0.910135 0.078137 -0.395272 -0.912512 0.419766 -0.680683 0.452462 -0.741481 -0.227307 0.455662 0.861151 0.317934 0.338221 -0.688235 -0.272588 0.939299 -0.469908 0.738907 0.060866 0.031719 0.383026 -0.715401 -0.870258 0.083847 0.775958 -0.756466 -0.077581 -0.677917 0.978971 0.332077 0.771320 -0.931163 -0.589786 -0.623951 -0.843675 0.829980 -0.304635 0.608786 -0.911502 0.468058 0.064449 0.949649 -0.214008 -0.597331 -0.738586 0.513404 -0.658032 -0.208494 0.252311 0.402834 0.823225 -0.364663 0.687433 0.952967 0.719184 0.463392 -0.803499 -0.358397 0.785475 -0.824528 0.973679 0.556795 -0.755691 -0.616107 0.932844 -0.599366 -0.786127 -0.371791 -0.990580 -0.697629 -0.903733 0.073869 -0.747980 -0.117742 0.476538 -0.486566 -0.604338 0.818506 0.304940 0.647973 0.221340 0.128165 -0.716690 -0.091226 0.081132 -0.997506 -0.627835 0.277632 -0.355904 -0.842360 0.453105 -0.382224 0.714435 0.697413 0.001669 0.647279 -0.901953 0.215542 -0.724513 -0.892533 0.517913 -0.628246 0.181336 0.769933 0.254013 -0.342126 -0.716633 0.649675 -0.523620 0.588308 0.297648 0.697720 -0.283527 0.580958 -0.393506 0.797604 0.583452 -0.021341 0.075237 -0.772452 0.136299 -0.471658 -0.154676 -0.149266 -0.774245 0.846993 -0.501987 -0.676198 0.062534 -0.226500 -0.568731 -0.419553 0.145255 0.612604 -0.649620 -0.600733 -0.729522 -0.366253 -0.951058 -0.253143 -0.777945 0.346590 -0.555423 -0.061472 -0.072452 0.051071 -0.263868 -0.489000 -0.970270 0.811369 -0.261452 0.166029 -0.660289 0.583872 -0.983237 -0.434535 0.430865 -0.485224 -0.110733 -0.506601 0.288276 0.320536 0.073846 -0.566469 -0.066860 0.424226 -0.167202 0.203618 -0.942026 -0.118259 0.950476 -0.719971 -0.771669 -0.604947 0.218556 0.155879 0.446124 0.954688 0.666879 0.475853 0.766057 -0.594573 -0.358118 -0.894232 0.989298 -0.341355 -0.328766 0.420163 0.173421 0.560501 0.913562 -0.538303 -0.118963 -0.012592 -0.104772 0.814177 -0.588365 0.728026 0.017796 -0.530392 -0.390234 -0.031728 -0.250363 -0.161903 0.363324 0.968193 0.993976 -0.190552 0.922882 0.660855 -0.714698 0.688939 -0.933718 -0.072816 0.794707 -0.944420 0.585828 -0.534059 0.475743 -0.240751 -0.973559 0.389306 0.220946 -0.092522 -0.623286 -0.883827 -0.278344 -0.211651 0.844199 0.739452 0.257957 -0.546035 -0.292277 -0.992406 0.292063 -0.928952 0.975787 0.286039 -0.119504 0.898669 -0.053106 0.165797 0.587608 0.013176 -0.907019 0.382315 0.068757 0.678809 0.848255 -0.455500 -0.561942 0.874697 0.933806 0.659004 -0.217825 -0.689480 0.775178 0.503831 0.098868 0.619377 0.243283 -0.643175 -0.926658 0.951006 -0.635581 0.365405 -0.977947 -0.659794 -0.348556 -0.097451 -0.761125 0.598338 -0.931654 0.826483 -0.388486 -0.838673 0.208797 0.680271 0.840136 0.057053 -0.775229 -0.721805 -0.068251 -0.841424 0.937199 0.713924 -0.530904 0.712377 0.217755 0.567964 0.331753 -0.538962 0.924790 0.405095 -0.587956 -0.710791 -0.229500 -0.565903 -0.370585 0.421944 0.336646 -0.131710 0.020282 0.404992 -0.305227 0.631796 0.566320 0.903570 0.312067 0.406456 -0.039377 0.536838 0.684651 0.892372 0.695414 0.621850 0.606297 -0.835489 0.334226 -0.175948 0.732475 -0.334021 0.285090 0.657264 -0.928925 0.697133 0.946473 -0.158425 -0.868770 -0.424112 -0.736482 0.467876 0.444178 0.283800 -0.127131 -0.861049 -0.084403 -0.560812 -0.957479 -0.772336 0.845644 0.003144 0.764502 0.530295 -0.104484 0.459916 0.152145 -0.498188 0.624427 -0.513629 0.325864 0.356902 0.152350 -0.389046 0.014166 0.223425 -0.691913 -0.039361 -0.935001 -0.560682 0.536527 -0.671482 0.907194 -0.019294 0.612318 -0.219937 0.119656 -0.472085 0.219251 0.162177 -0.244421 0.064896 -0.834679 -0.479919 -0.404809 0.060837 0.979997 0.747335 0.562649 0.604424 -0.766294 -0.111487 -0.038675 0.386056 0.499467 0.975491 -0.390519 0.807555 -0.063869 -0.325519 -0.753128 -0.527342 0.002999 -0.845934 0.453364 -0.384683 -0.065871 -0.426980 0.143232 -0.846620 0.735198 0.898811 0.218276 0.900519 -0.581109 0.813466 -0.038645 -0.601112 0.560802 -0.475996 -0.996688 0.794508 0.412518 -0.035363 0.180564 -0.088015 -0.059871 0.790045 -0.280460 0.876259 -0.535474 -0.033588 -0.651083 0.467525 0.120479 0.802281 -0.917158 -0.945392 -0.624698 0.226074 -0.792012 -0.889501 0.124884 0.426264 -0.988982 0.543775 0.239730 -0.027627 0.942663 -0.199468 0.496377 0.945975 -0.404960 -0.091105 -0.089388 0.775604 0.820880 0.850741 0.565650 -0.459580 0.727000 -0.969824 0.506833 -0.924083 0.497701 -0.372689 0.878199 0.580542 -0.318081 -0.746500 -0.193384 -0.110093 -0.636000 0.931500 -0.683829 -0.624983 0.475275 0.555901 0.347390 0.417939 -0.643567 -0.156232 0.363914 -0.048527 0.752663 -0.725474 -0.272923 0.573543 -0.874733 -0.707273 -0.886037 0.852267 -0.677097 0.620796 0.928184 0.820603 -0.751893 0.806383 0.401145 -0.069974 -0.940117 -0.792239 0.819934 -0.576117 -0.860739 -0.863895 -0.201100 0.614537 0.692006 -0.853709 0.032476 -0.951561 -0.009942 -0.603610 -0.000088 -0.257279 -0.329084 0.726989 -0.683736 -0.203817 -0.980284 -0.569773 -0.351550 -0.657382 -0.948977 -0.423366 -0.836779 -0.700870 -0.616983 0.564367 0.229156 -0.557100 0.772128 0.049090 -0.133217 0.911389 0.185195 0.665684 0.525925 -0.122799 0.811974 -0.441599 -0.074360 -0.197968 -0.045210 0.925552 0.544753 0.625706 0.652541 0.861017 -0.578111 0.672257 -0.708756 0.070339 -0.985124 -0.657733 0.646973 -0.821903 -0.358603 -0.970010 0.742464 0.870553 -0.527110 0.514592 -0.080357 0.339673 0.425980 -0.895162 0.005357 -0.048094 -0.017961 -0.182669 0.510307 0.907679 0.619363 -0.534903 0.833231 0.164117 -0.909197 0.485772 0.025134 -0.487308 0.158030 0.316378 0.583031 0.172905 0.658645 0.230004 0.351003 -0.699957 0.259993 0.093466 -0.829404 0.732883 -0.391942 0.090240 0.072556 -0.965962 0.195078 -0.922087 -0.014056 -0.822883 -0.104756 -0.503749 -0.915205 -0.485393 -0.038652 0.918026 0.678724 0.052151 0.403798 -0.296142 0.564843 -0.438172 -0.979763 0.147874 0.734733 0.678882 -0.622123 0.085736 0.978925 0.637870 -0.820798 -0.850479 0.370753 -0.212740 0.239760 -0.556691 -0.178702 -0.565162 -0.478778 0.807243 -0.388046 0.416466 -0.696507 -0.303250 0.931074 0.264841 -0.385224 0.609798 -0.683009 -0.981426 -0.686344 0.881835 -0.419598 -0.666107 0.029708 -0.684865 -0.987225 0.407586 0.400870 0.991699 0.045456 0.580072 -0.858780 -0.583790 -0.632668 0.380980 -0.140481 0.188630 0.815818 0.380741 -0.004127 -0.572228 -0.202793 0.299366 0.124522 -0.271719 -0.435793 0.739297 -0.661921 -0.118802 0.757871 -0.348265 -0.236967 -0.661727 -0.014372 0.792741 -0.346593 -0.001598 0.200327 -0.945723 -0.009898 -0.754217 0.634349 0.131322 -0.338007 -0.998319 -0.487699 0.521512 0.190312 -0.671881 -0.097747 -0.813815 -0.244109 0.699461 0.485551 0.880413 -0.572258 -0.950242 0.619710 -0.234180 -0.069044 0.377581 0.417555 0.693989 0.715854 -0.596817 0.486730 -0.630739 0.401585 -0.312943 -0.576462 -0.608313 -0.067160 -0.942113 0.523008 0.594833 -0.940431 -0.964690 0.116345 0.249880 -0.636571 -0.981402 0.436065 0.119320 0.718059 -0.078384 -0.000267 -0.854200 -0.028626 -0.380557 -0.088379 0.902330 0.997024 -0.670824 0.596318 0.712878 -0.267642 0.083048 -0.917862 -0.866057 0.770105 -0.494324 -0.474370 -0.297055 
-0.436437 -0.951361 -0.702222 -0.376868 -0.916052 0.414123 0.873012 -0.552623 0.432721 0.309078 0.566698 0.150780 -0.769306 -0.433569 0.296580 0.202067 0.185874 -0.791799 0.104397 0.182898 -0.462624 -0.299285 -0.104225 0.269734 0.783763 -0.022086 0.403678 0.553867 0.483590 0.929308 -0.743188 -0.952847 0.977947 -0.445410 -0.329715 -0.938105 0.968712 -0.456703 -0.490727 0.401433 0.852375 -0.924030 -0.447787 -0.916932 -0.357599 0.848793 0.285135 0.828275 -0.943007 -0.610468 0.011173 -0.405631 0.090247 0.906948 0.864104 -0.125991 -0.115138 0.267782 -0.572123 -0.631548 0.197090 -0.315311 -0.584396 0.175037 0.239278 0.085889 0.236932 0.207990 0.629186 0.746205 -0.390577 0.481561 0.822175 0.161636 0.564629 -0.535424 0.010429 -0.150236 -0.707149 0.067422 0.239296 0.304024 0.661791 -0.670457 0.210972 0.525895 0.203552 -0.904166 -0.206324 0.631429 -0.535714 0.990766 -0.683882 -0.120110 0.165803 0.555396 0.965780 -0.597265 -0.236613 0.594966 -0.851060 0.372810 0.076527 0.971115 -0.465554 -0.358844 -0.564309 0.544875 0.490920 -0.271458 -0.387703 -0.269784 -0.967434 -0.725912 0.059759 0.243538 0.799983 -0.736688 0.339372 -0.406341 0.894741 0.803658 -0.415574 -0.789141 -0.316452 0.750229 0.766255 -0.350672 -0.847036 -0.470358 -0.755706 -0.698097 0.902452 0.320821 -0.726982 -0.563102 0.961977 -0.291291 0.981774 0.452897 0.437251 -0.405929 -0.816887 0.469816 -0.131841 0.242872 -0.286646 -0.331858 0.506184 -0.947273 0.261801 0.400925 0.856385 0.846227 0.611785 -0.460067 0.596455 0.378040 0.189261 0.749419 0.907682 0.433555 -0.948677 0.810134 -0.245624 -0.675659 -0.752968 -0.283647 0.033050 -0.771194 -0.830751 -0.529700 -0.177123 -0.647637 0.940116 0.691035 0.595235 -0.346529 -0.640823 0.101419 -0.293803 0.620978 -0.497655 -0.437418 0.467204 -0.885871 0.102516 0.063660 0.492169 -0.708223 -0.186921 0.399851 0.725332 -0.135598 0.209985 -0.520292 0.188743 0.457017 0.196061 -0.778208 0.685823 0.365310 -0.307908 -0.491300 0.717673 -0.367791 -0.800265 0.312908 0.285680 -0.441088 -0.585673 0.991877 -0.820111 -0.083328 -0.445541 0.647094 0.030801 0.656975 -0.289247 -0.477030 0.948752 0.523832 0.922821 0.674084 -0.611766 0.132806 -0.846208 0.576977 -0.410177 0.349853 0.798769 -0.724354 -0.284836 -0.509139 -0.215654 -0.567163 0.123070 -0.015919 0.745744 -0.591250 0.542992 -0.839929 -0.599373 0.722882 0.076743 -0.044913 0.369975 -0.892456 -0.387938 -0.919272 -0.369486 -0.439187 0.604561 -0.446665 -0.765103 0.992795 0.686141 -0.611310 0.569771 -0.724037 0.738543 0.368540 -0.448391 -0.546293 0.859401 0.335955 -0.113457 -0.017528 -0.679964 -0.367712 0.391221 0.863028 -0.207641 0.791849 0.585910 0.869102 -0.253065 -0.044115 0.976647 0.358997 0.036613 -0.392839 0.919810 -0.358826 0.160496 -0.845292 -0.366032 -0.153363 -0.456603 -0.796261 0.122600 -0.718060 0.572279 0.674210 -0.264353 0.431680 0.010165 0.622190 -0.585848 0.330201 -0.745522 0.805373 0.193229 0.046837 0.597222 -0.220862 -0.084061 -0.655843 0.735023 -0.107414 0.703154 -0.228364 0.499747 0.622964 0.412810 -0.339757 0.777672 -0.953222 0.506880 -0.678931 -0.749483 -0.370520 -0.396991 0.822797 -0.696310 0.338656 0.254477 0.313855 -0.039154 0.668629 -0.355944 0.215323 0.474002 0.837285 -0.737840 0.071225 -0.383577 0.178099 0.415382 -0.648554 -0.929315 0.118536 0.123082 0.570432 -0.258500 -0.464108 -0.769325 -0.480828 -0.417330 0.737554 -0.159759 -0.166812 -0.632965 0.443250 -0.344016 -0.329275 -0.218094 0.910461 0.984580 0.742752 0.579090 -0.371365 -0.041925 0.053093 -0.534080 0.220235 -0.875683 0.082343 -0.601666 0.539699 0.433789 -0.530981 -0.341765 -0.443129 -0.960549 0.399735 0.092763 -0.729874 0.918906 0.675434 -0.992320 -0.240853 -0.491379 -0.625285 -0.797604 0.164605 0.045439 -0.015698 0.075066 0.030019 -0.272946 -0.345843 0.658654 0.685129 0.707249 -0.875426 -0.094636 0.831566 0.206917 0.303698 0.371265 -0.359294 0.772718 -0.970500 0.197577 0.812169 0.429235 -0.709660 -0.917706 0.348141 0.965774 -0.910026 -0.892712 -0.525605 -0.535311 -0.690316 0.639000 0.510128 0.293986 -0.285933 -0.459853 -0.978960 0.368223 -0.801199 0.706169 0.075472 -0.676625 -0.388467 -0.092961 0.530292 0.915231 -0.721696 -0.829002 0.687949 -0.692196 0.368575 0.500117 0.737039 0.658915 0.582411 0.085180 0.624689 0.672386 0.192468 -0.900917 -0.862926 0.502152 0.738084 0.647202 -0.203862 -0.547850 -0.812651 -0.182822 0.820374 -0.613850 -0.476653 -0.104154 -0.290474 0.134880 0.802885 -0.760182 0.050111 -0.918811 -0.589184 -0.261941 -0.611007 0.779391 -0.761824 -0.873968 0.438306 0.820587 0.211212 0.062994 0.492973 -0.596320 0.162078 0.630047 0.905832 -0.099839 0.277250 -0.298030 0.352312 0.464599 0.519148 0.172685 0.850749 -0.957505 -0.931469 -0.439725 0.177374 0.871416 -0.199907 -0.772515 0.952605 0.210909 -0.034456 -0.658402 -0.009700 0.203720 -0.532370 -0.571394 0.024308 0.678842 0.491600 -0.482719 -0.917478 -0.346322 -0.852672 0.988353 0.553839 0.424578 -0.309677 -0.093849 -0.110823 -0.790529 -0.921164 -0.260074 -0.748034 -0.852632 0.300201 0.429340 -0.981216 -0.899706 0.656825 0.971389 0.311204 -0.377631 -0.687013 -0.698496 0.826090 -0.219383 -0.269890 -0.149603 -0.540541 -0.778290 0.367678 -0.458019 -0.124612 0.515006 -0.469665 -0.570772 -0.060417 0.220658 0.335379 0.828760 0.430129 0.414215 -0.431314 0.682095 0.561583 0.868887 0.111435 0.580367 0.969181 -0.231739 0.551755 0.280385 0.390630 0.864742 0.581889 0.216720 -0.354641 -0.688001 -0.932883 0.104818 -0.466291 0.434795 0.646799 0.409098 -0.050200 -0.822866 0.838326 0.889384 0.397792 0.173705 0.718143 -0.172079 -0.412080 -0.713171 -0.489984 -0.850497 -0.844284 0.621451 0.729870 -0.875103 -0.610288 0.281625 0.405282 0.780342 0.146367 -0.012829 -0.002938 0.791725 0.299170 0.064179 -0.103456 0.832879 -0.501027 -0.456657 0.241976 0.448774 -0.279523 0.080302 0.338157 -0.881731 -0.745993 0.056301 -0.053810 -0.158073 0.343130 0.456206 -0.008570 0.498846 0.077657 -0.278701 0.623743 0.467369 -0.997076 0.029025 0.247711 0.149291 -0.983804 -0.755227 -0.058984 0.315365 0.308951 0.837560 0.148244 0.807925 -0.619097 -0.609780 0.256699 0.101380 0.470522 -0.405144 0.219649 0.724529 0.651157 -0.834162 -0.433544 -0.005713 0.622044 0.557885 -0.506867 -0.300299 -0.720815 -0.883124 -0.832930 -0.717891 0.145901 0.414781 0.431399 0.162097 0.659554 -0.627585 -0.522538 -0.031495 -0.790025 0.625706 -0.223570 -0.409123 -0.984074 -0.966872 0.692257 0.486449 -0.372015 -0.088095 0.210978 -0.720858 0.077744 0.777433 0.273429 -0.300212 0.335319 0.766562 0.399489 0.614503 0.883438 0.566559 0.896612 0.029339 -0.018660 0.328011 -0.808564 -0.359106 0.700426 -0.331102 0.609399 0.910401 -0.705396 -0.614171 -0.498721 -0.689469 -0.581042 -0.806464 0.796979 0.046942 0.105441 0.007957 0.326084 -0.816815 -0.214610 -0.400488 -0.117027 -0.879291 -0.633926 -0.717537 0.735212 -0.750488 0.849022 0.631824 0.278851 -0.169638 -0.040165 0.470288 0.471256 -0.339738 -0.860814 0.080656 -0.429337 -0.566210 0.466485 0.071941 -0.255679 0.885442 0.265477 -0.458700 -0.067616 -0.629082 0.549258 -0.741532 -0.445897 -0.665352 -0.142020 0.437076 -0.544643 0.224054 0.719539 -0.809431 0.473567 0.568561 0.822394 -0.247582 -0.601077 -0.217771 -0.777295 0.870179 0.442490 -0.638109 -0.049165 -0.986847 -0.204318 -0.582680 0.085094 0.540003 -0.697238 -0.649429 -0.918697 0.235146 -0.278511 0.630561 0.493614 0.275592 0.965209 -0.648405 -0.287332 -0.579434 0.575649 -0.567793 -0.388865 0.049216 -0.999232 -0.566471 0.801633 -0.600309 0.215758 -0.975661 -0.730130 -0.341752 -0.613770 0.220705 -0.328599 0.181912 0.638025 0.756496 -0.278085 0.940787 -0.892933 -0.196782 0.175933 -0.171444 -0.566221 -0.330453 -0.895852 -0.601013 0.021142 -0.183183 -0.180447 -0.403209 0.249024 0.430689 0.646007 0.249791 0.864217 0.447640 0.649482 0.079975 0.471979 0.919352 0.738223 0.858210 0.140057 -0.590376 0.040122 -0.221918 -0.833880 0.762036 -0.281131 -0.726813 -0.434746 0.894802 0.101743 -0.000967 -0.435651 0.205892 0.398020 0.585491 -0.977292 -0.782427 -0.817717 0.271732 0.648262 0.828290 -0.478477 0.512479 0.275930 -0.828995 -0.407545 -0.252091 -0.909643 -0.669322 -0.393881 0.230414 -0.259698 0.646241 -0.991504 -0.093578 0.408277 -0.272635 0.179609 0.973532 -0.377834 -0.718648 -0.027436 0.186515 0.487243 -0.629415 -0.227993 0.509952 -0.411842 -0.045710 -0.218316 -0.763580 -0.217421 0.303207 0.748900 -0.941491 0.474213 -0.658646 -0.193581 0.564570 -0.327968 0.412538 -0.205016 0.412334 0.058779 -0.196520 -0.681244 -0.532944 0.530845 0.498364 -0.559412 -0.846989 0.779716 0.413152 0.339526 0.266960 0.783737 -0.888467 -0.223089 -0.628105 0.065823 0.558595 -0.391685 0.848402 -0.138198 -0.642785 0.906911 -0.663985 -0.301431 -0.286670 0.900585 0.370601 -0.874132 -0.304431 -0.217066 0.184647 0.499049 0.101690 0.651703 0.029894 -0.399946 -0.907710 0.182905 -0.620229 0.505442 -0.477569 0.646730 0.289179 -0.366035 -0.576359 0.661074 0.699788 0.982237 -0.730612 0.548190 -0.155961 -0.373397 0.455101 0.180054 0.325172 -0.831569 0.080639 -0.304228 -0.705701 0.776208 0.478707 0.478945 0.275257 -0.419603 0.130648 -0.694849 0.180451 0.222938 0.488055 0.560222 -0.271620 -0.989513 0.206952 -0.982441 -0.355549 0.630593 0.678633 -0.655761 0.612830 0.948021 0.892429 -0.543131 -0.425376 0.347530 0.636923 0.899796 0.515961 -0.282439 -0.404432 0.810260 -0.506231 -0.925725 0.289205 0.769026 -0.345328 -0.580146 -0.925824 0.835123 0.642792 0.562232 0.395345 -0.628828 0.572719 -0.397703 -0.611269 -0.782830 -0.767110 -0.932636 -0.438591 0.845720 -0.984615 -0.546162 -0.697411 -0.409990 0.801367 0.939511 -0.510194 0.317328 -0.342927 0.085374 0.127588 0.150842 0.159649 -0.583206 -0.080133 0.814321 -0.163353 -0.005956 0.649444 -0.520561 -0.443724 0.044789 -0.149389 -0.871006 0.647086 0.239342 -0.653836 0.879976 0.306706 -0.092427 0.725695 0.322092 0.361411 -0.971716 0.912102 0.162778 0.967795 -0.598093 -0.519893 -0.375132 0.487282 0.607695 0.775710 -0.353069 -0.975511 -0.304423 -0.538748 -0.138864 0.689621 -0.889304 0.340575 -0.754103 0.155484 -0.808814 -0.625109 -0.197430 0.430528 -0.278945 -0.317454 -0.262765 0.628629 -0.591759 -0.940673 -0.009960 -0.563475 0.971428 -0.847182 -0.595680 -0.626665 -0.367075 0.029188 0.860617 -0.759380 -0.195102 -0.492452 -0.734891 0.500475 -0.031201 0.126245 0.190095 0.079495 -0.533180 0.435992 -0.765021 -0.341994 0.810883 0.037549 -0.911466 -0.468061 0.720095 -0.174231 -0.839433 -0.871664 -0.114904 0.150607 -0.435139 -0.143476 0.303425 -0.030819 0.229859 0.936350 0.998369 0.090476 -0.823029 -0.196733 0.598024 -0.557920 -0.696258 -0.433177 0.568325 0.493837 0.646318 -0.964855 -0.070171 0.881297 -0.306849 -0.259287 -0.081153 -0.218315 0.272651 -0.361058 0.607454 0.433219 -0.232722 -0.507450 -0.416174 0.332139 0.349074 0.887251 -0.698680 -0.421067 0.823602 -0.700310 0.669409 -0.999428 0.102957 0.267433 -0.557348 0.406698 0.834256 -0.989023 -0.099464 0.480574 -0.953878 0.830365 0.361872 -0.260727 -0.428922 -0.719281 0.520958 0.843729 -0.080339 0.128413 0.276948 0.686939 0.620963 0.860773 0.019077 -0.029964 0.748025 0.320397 0.548970 0.571626 0.620087 0.218379 0.572199 -0.276956 -0.514188 -0.985149 -0.870258 -0.679932 -0.974172 0.030278 0.800643 -0.928051 -0.139357 0.162515 -0.188778 0.431721 0.443233 -0.667820 0.275450 -0.637106 0.460593 -0.447603 -0.950167 0.081556 -0.586829 0.068910 -0.948408 -0.838804 -0.610693 0.600562 0.732822 -0.990606 -0.181060 0.305021 -0.267562 0.304752 0.319871 -0.137820 0.624821 0.345699 0.892458 0.425463 0.417649 -0.246899 -0.412022 -0.771129 -0.815178 -0.968788 -0.438949 0.460272 -0.605894 -0.978356 -0.987330 -0.556062 0.103200 -0.574160 0.512848 0.154792 -0.412964 0.902156 -0.244646 -0.680142 0.911550 0.574294 0.624879 -0.356012 -0.120954 -0.055250 0.506168 -0.496133 -0.709551 0.398627 0.929331 0.708098 -0.848272 -0.482691 0.936969 -0.663450 -0.451480 -0.501980 0.796822 -0.057374 -0.480336 0.809492 0.386565 0.622864 -0.764668 -0.100587 -0.222344 -0.177632 -0.198431 0.533010 0.142226 -0.286881 0.107304 -0.232895 0.357107 0.986350 0.711855 -0.136724 -0.509783 -0.997696 -0.738098 -0.580452 0.710402 -0.586370 -0.063143 0.647371 -0.249820 0.485377 -0.854609 -0.452998 -0.571997 -0.334945 -0.643506 0.814568 -0.712081 -0.408174 -0.286019 0.065576 0.414195 0.515550 -0.401414 -0.443579 -0.771331 0.705889 0.323526 0.585776 0.692240 0.035380 -0.550949 -0.817543 0.037684 -0.289047 -0.397995 -0.251914 0.124583 0.538862 -0.604544 0.874764 0.024239 -0.459153 -0.578234 0.452242 0.205902 -0.221740 0.266810 0.493822 0.370087 0.980791 -0.440602 -0.215719 0.496340 0.157983 0.340702 0.725009 -0.136127 -0.335772 0.310785 -0.443888 0.699608 0.759836 -0.261431 -0.262708 -0.529211 0.340574 0.485378 0.595373 -0.120564 0.880835 0.470136 0.903675 -0.578318 0.891902 0.355917 0.627584 -0.329838 -0.377273 0.121406 -0.959751 -0.396482 0.680804 -0.175470 -0.900142 -0.161213 -0.834767 0.824867 0.702660 -0.170539 0.135651 -0.741228 -0.470931 -0.104513 -0.002659 0.266361 0.366276 -0.662084 -0.248261 -0.038351 0.217352 -0.367427 -0.568215 0.121026 0.054255 -0.676313 -0.523057 -0.318160 -0.006151 0.099670 0.803246 0.034098 0.703187 0.484050 0.858629 0.803045 -0.677163 -0.976139 0.627912 -0.974503 -0.146678 -0.236437 -0.715731 0.382391 0.659050 0.281611 -0.351249 0.025326 0.619527 0.400490 0.986975 -0.163122 -0.966936 -0.581240 0.957904 0.087319 -0.257553 -0.565153 0.769159 0.736296 0.534517 0.572405 -0.229606 0.237704 0.056454 -0.370977 0.040750 0.379292 -0.347116 -0.331339 0.404789 0.506206 0.432225 0.689058 -0.111403 0.091275 -0.029331 0.537348 -0.883399 -0.409805 -0.062162 -0.896424 0.427073 -0.029098 -0.477664 0.384978 -0.941779 0.264783 0.819825 0.827380 0.001079 0.354342 0.399784 0.771473 -0.407953 -0.543761 -0.599505 0.632796 0.835531 0.053379 -0.698542 0.240319 -0.440415 0.733683 -0.070623 0.448182 -0.175043 0.900046 -0.014470 -0.058441 -0.509759 0.923368 0.045135 0.917315 -0.105730 0.567471 0.302293 -0.047509 -0.167747 0.122118 -0.220129 0.833332 -0.523540 -0.820345 0.604805 0.068507 -0.364106 -0.994700 -0.298696 -0.528575 0.058679 0.002761 0.711744 0.618265 -0.263556 -0.358879 0.066447 0.561402 -0.458833 -0.948023 -0.497040 0.031409 0.975345 0.548095 -0.051277 -0.130385 0.115566 -0.748984 0.822106 0.947819 0.373134 -0.398023 0.781151 0.849594 -0.218367 0.385956 -0.081899 0.417527 0.391256 0.619404 0.888952 -0.550065 -0.377834 0.600696 -0.931800 0.358610 -0.758183 0.134647 -0.079988 -0.217016 0.186623 0.422972 0.814393 0.161968 -0.028933 -0.236884 -0.968417 -0.913367 0.014132 0.853689 -0.965548 -0.612734 -0.544333 0.815603 -0.763140 0.237299 0.201559 0.154961 -0.345174 -0.407185 -0.225635 -0.456222 0.042751 0.396531 -0.855527 0.110951 -0.244859 -0.613710 -0.754402 0.675152 0.169274 0.432221 0.098124 -0.016333 -0.405811 -0.930809 0.746783 -0.374228 -0.844176 -0.239085 -0.520538 -0.809724 0.148180 -0.064872 -0.994121 0.385040 -0.827572 0.207439 -0.460000 -0.172746 0.800254 0.314365 0.371031 -0.156995 -0.289104 0.515505 0.953956 0.466037 0.901795 -0.800447 0.141190 0.071069 0.631774 -0.760686 -0.945264 -0.774036 -0.691495 0.801519 -0.148264 -0.535672 -0.437567 0.331198 -0.345396 0.710614 -0.733674 -0.339517 0.095654 -0.561246 0.867922 0.635654 0.266008 0.668176 -0.049980 -0.362961 -0.488819 0.660916 -0.847457 -0.534863 0.126953 -0.945662 -0.335310 -0.731857 0.125407 -0.703535 -0.492543 0.180143 -0.477571 -0.184039 -0.018338 0.374165 0.280290 0.544095 -0.294637 0.934894 0.254709 -0.028311 -0.404622 -0.649638 0.410443 -0.536700 0.986017 -0.323550 -0.868524 -0.063964 0.313489 -0.357343 -0.403048 0.466033 0.107794 0.723905 0.520371 0.772484 0.992048 -0.354222 -0.931051 -0.500495 0.825921 -0.408622 0.315466 -0.192417 0.965542 -0.404244 -0.648323 -0.329095 -0.469350 0.606386 0.642594 0.126028 0.956748 0.053037 0.589327 0.942765 0.729488 0.720803 -0.121199 0.042977 -0.636540 0.475753 -0.490990 0.471254 0.199658 -0.970619 0.243739 0.191707 -0.324841 0.312688 0.691211 -0.498920 0.904066 0.006677 0.308663 0.869608 0.602434 0.660340 -0.459487 -0.866916 0.266726 -0.816893 0.259112 0.223474 0.236145 -0.151561 0.166239 -0.034368 -0.430757 -0.954960 -0.991391 -0.067297 0.520794 -0.482381 -0.596043 -0.279548 -0.453000 0.647696 0.912158 0.222159 -0.039616 0.603370 0.723239 -0.135550 -0.389953 0.031901 -0.265942 -0.787519 -0.307759 0.274571 -0.654435 0.958967 0.457678 0.604676 0.182442 -0.306177 -0.546885 -0.651319 0.659456 0.022358 -0.606279 0.668065 0.955061 0.914515 -0.814316 -0.640982 -0.365033 -0.267316 -0.993285 -0.452875 0.954843 -0.032901 -0.849505 0.678082 0.831548 -0.239458 -0.290017 -0.434394 -0.026977 0.402224 0.840177 0.318588 0.361192 0.297856 -0.076736 -0.456367 0.991679 0.376379 -0.107686 0.651134 -0.601263 0.286036 0.319199 -0.646202 0.200551 0.504883 -0.287183 0.835518 -0.762433 -0.280469 -0.617357 -0.807590 0.686630 -0.466862 0.870492 0.518178 0.293680 -0.419525 -0.916216 -0.733297 0.982699 0.923961 0.585291 0.343891 0.221817 -0.491445 0.887524 0.213496 0.884935 -0.220162 -0.135370 -0.716328 -0.934126 -0.816170 -0.362530 0.266425 0.688713 0.350287 0.101942 0.926280 -0.930182 0.484585 -0.881309 0.756447 -0.982276 0.989183 0.274626 0.311404 -0.430342 0.358410 0.578107 -0.447643 0.282371 0.163399 0.896248 -0.495812 0.671954 0.783771 0.717684 0.556889 -0.436390 -0.417685 0.840561 -0.370517 -0.233856 -0.521969 0.895908 -0.545143 0.828318 -0.002149 -0.618862 0.898135 -0.517564 -0.500171 0.654583 -0.499841 -0.510989 -0.070792 0.811563 0.058669 -0.712382 0.389671 0.611026 0.569989 -0.446931 0.507273 -0.925822 -0.774977 0.291045 0.791862 0.781912 0.854654 -0.625823 0.622473 -0.515862 0.140321 -0.899496 -0.619954 0.595178 0.928821 0.377897 0.976316 0.826957 0.860332 -0.523856 0.481539 -0.639508 -0.034845 -0.589252 -0.827945 -0.976176 -0.301634 0.561726 0.634850 -0.731645 -0.885205 0.142124 -0.657467 -0.660181 -0.566832 -0.865605 -0.878269 -0.712177 -0.491429 0.744203 -0.228040 0.648892 0.844707 0.152006 0.244070 0.773528 -0.470097 0.220386 0.600485 -0.609765 0.696530 0.082024 -0.249273 -0.338315 0.492772 -0.077217 -0.314490 -0.808862 -0.515491 -0.679640 -0.540506 -0.400696 0.462484 -0.197974 -0.060877 0.895652 -0.063579 0.060854 -0.816525 0.444992 -0.194943 -0.044565 0.093884 -0.350236 -0.892559 -0.662046 -0.576708 -0.362656 0.558340 -0.976223 0.027580 0.254870 0.105801 0.778307 0.916556 -0.401427 -0.298910 -0.397935 -0.210288 0.185599 -0.077574 0.249205 0.784903 -0.615091 -0.948769 -0.275974 -0.719439 -0.012347 0.784879 -0.535964 -0.567355 -0.410064 0.419471 0.526529 0.239700 0.526912 0.864484 0.662992 -0.835744 0.422824 0.686769 0.191836 -0.322306 -0.207429 -0.029857 -0.405750 0.391144 0.671233 0.196315 -0.819144 -0.143168 -0.881259 0.430061 -0.358266 -0.496350 0.481292 0.365760 -0.215789 -0.531055 0.150639 0.248247 -0.098410 0.740576 -0.332283 -0.571881 -0.019724 -0.805371 -0.707397 -0.356731 -0.641114 0.715427 -0.669962 0.550722 -0.606879 0.122608 -0.479135 -0.012630 -0.486248 -0.807902 -0.816315 -0.305392 0.048930 -0.697574 -0.875332 0.690664 -0.193924 0.605960 0.056425 0.590287 -0.925095 -0.792936 -0.161467 -0.023505 0.947640 0.506251 0.404614 -0.072084 0.700880 0.697217 0.571184 -0.940234 0.412644 0.901222 0.610487 0.805764 0.023831 -0.868647 -0.206865 0.537583 -0.676549 -0.023180 -0.767809 0.372381 0.279246 -0.643141 0.063045 -0.914679 0.962820 -0.880530 0.675608 -0.962275 -0.673466 -0.485859 0.014220 -0.725826 -0.979608 -0.581167 0.202090 0.721272 -0.883950 -0.226726 0.781038 0.528694 -0.325504 0.391525 0.334458 0.698327 0.522878 -0.872407 0.235910 0.846328 0.104413 0.468101 0.218709 -0.616342 0.824961 -0.718246 -0.531020 0.787780 -0.598776 -0.855412 0.825505 -0.272242 -0.341271 -0.160275 0.001932 -0.320879 0.258558 -0.795979 -0.599607 0.374609 -0.022705 -0.818569 -0.096698 0.651792 0.572956 -0.762240 0.350119 0.095834 -0.634647 -0.413971 -0.057838 0.469765 -0.945870 -0.839129 0.853424 0.879091 -0.557374 -0.677597 0.666871 -0.156150 -0.533009 0.492377 0.571608 0.125721 -0.667898 -0.426460 0.804842 0.590660 -0.222439 -0.794765 -0.034731 0.754856 -0.613334 0.868571 0.406648 0.95