-0.233322 0.305150 0.776163 0.711274 0.827894 0.394112 0.262986 0.537156 0.400644 0.052777 0.744025 0.537796 -0.431815 -0.957717 0.847887 -0.397324 -0.481520 -0.119052 -0.186247 -0.835286 0.244268 0.307008 -0.953273 0.238791 -0.330081 0.338948 0.735159 -0.163286 -0.553550 0.555272 -0.493165 0.213128 -0.139577 -0.717002 -0.075598 -0.311684 0.677110 -0.812612 -0.774528 0.077754 0.240166 0.969497 -0.384450 0.808351 -0.988220 -0.536562 -0.588974 -0.469740 0.344386 0.224779 -0.305026 -0.411346 -0.468214 -0.258298 0.827445 0.201706 -0.919350 0.562604 -0.961580 -0.472900 0.117876 -0.454745 0.740228 0.978298 -0.171748 -0.335370 -0.333385 -0.494638 -0.147982 -0.107913 0.583116 -0.907816 -0.138416 -0.801334 0.900534 -0.126636 -0.337896 -0.688439 0.403625 -0.993510 0.536339 -0.901401 -0.404856 -0.931874 -0.159699 -0.577412 0.269831 -0.079049 0.985192 0.308251 0.448050 0.103068 0.853506 0.188278 0.081366 -0.318242 0.852908 0.747981 0.187120 -0.295074 -0.359932 -0.229764 -0.202890 0.501652 -0.031098 -0.302356 -0.624984 0.631006 0.009205 0.778641 0.637496 -0.454456 0.877240 -0.767361 -0.386330 -0.282459 -0.344772 0.883501 0.638491 -0.359580 0.191752 0.086542 0.743487 0.045258 -0.725180 -0.175146 0.727016 -0.872272 -0.427165 -0.085864 -0.167346 0.212903 0.684372 0.629764 -0.285445 -0.346726 -0.672592 0.089571 -0.715720 0.336613 -0.131788 0.921776 0.882157 -0.254548 -0.845585 -0.504173 0.462993 -0.190357 -0.620672 0.101485 0.450062 0.571081 -0.811974 0.193550 -0.383661 -0.537154 -0.981597 -0.656645 -0.409426 -0.408762 0.257492 0.423228 0.804141 -0.058136 0.052992 -0.481304 0.595139 0.380401 0.608267 0.879419 -0.282986 -0.523521 0.801195 -0.400829 0.221932 0.955610 0.094998 -0.315075 -0.234748 0.474326 0.786410 -0.784685 0.045407 0.974436 0.408864 0.661746 -0.562718 0.427268 -0.994898 0.027856 -0.981494 0.262593 -0.548916 0.822647 -0.795542 0.504076 -0.658657 0.799596 -0.115523 0.949610 0.679015 0.601491 -0.573910 0.480210 -0.799338 0.648021 0.435819 0.295660 -0.667054 -0.798928 -0.230014 -0.880644 -0.583614 0.815393 -0.906208 0.825251 0.477139 -0.468926 0.252518 0.482241 0.558931 0.271025 -0.255166 -0.989985 0.093672 -0.050708 0.514091 0.435015 -0.251112 -0.601432 0.384625 -0.572097 -0.999941 0.810714 0.908112 -0.799279 0.458736 0.343932 0.496381 0.791682 0.545003 -0.733633 0.911038 0.961390 -0.918240 -0.995169 0.786641 0.558900 -0.464095 0.039159 0.041141 -0.905164 -0.689816 0.785975 -0.895149 0.403855 -0.264734 0.618942 -0.161130 0.484154 -0.982489 -0.776505 0.912057 -0.982431 -0.965790 0.820169 -0.781710 0.492946 0.164101 0.714671 0.284628 -0.290896 0.981038 0.195666 -0.329506 -0.937202 0.200497 -0.542865 0.621698 0.736402 0.496294 -0.337161 0.831238 0.806477 -0.551187 0.936089 0.210333 0.184080 0.555031 -0.950797 -0.331766 0.572542 -0.727302 -0.419709 0.590111 -0.693092 -0.599540 0.808402 0.799853 0.564561 0.523072 0.084481 -0.726334 0.504110 -0.719853 -0.055840 0.566909 0.480644 0.401295 0.188607 0.217046 -0.102411 0.851446 0.048284 -0.295934 -0.699741 -0.015627 0.914399 0.484339 -0.460596 0.963602 -0.847427 -0.888054 -0.763700 -0.267136 0.702057 -0.456792 0.133324 0.510459 -0.656939 -0.302114 0.033531 0.427542 -0.028449 -0.462358 0.707690 0.915711 -0.895450 0.188334 0.317006 0.293157 -0.594620 -0.785405 0.144603 0.453664 -0.081339 0.444862 -0.561963 -0.166940 -0.070799 -0.022559 -0.203338 0.081773 0.089387 0.032962 0.814637 -0.208556 0.576170 -0.052038 -0.698097 0.919231 0.645847 0.335434 0.346773 -0.382602 0.873075 0.054463 -0.466890 0.977626 -0.757203 0.850116 0.270783 -0.351823 -0.935289 -0.584614 -0.898159 -0.016628 0.860248 -0.460122 0.816431 -0.210552 0.517319 -0.386907 0.871222 -0.393295 0.646055 0.685859 0.398149 0.222224 -0.366179 0.700052 0.141455 -0.720332 0.035486 -0.511772 -0.102934 -0.091438 0.542691 0.430176 -0.113813 0.785488 0.280292 -0.843029 -0.566335 0.345002 -0.427644 -0.464495 -0.671626 -0.567396 0.075383 -0.855195 0.222053 -0.407299 -0.242102 0.093275 0.199407 -0.596047 -0.220866 -0.402444 0.626178 0.412955 -0.702391 -0.232367 0.692623 0.333095 0.255861 -0.410311 -0.758344 -0.201447 -0.980135 0.127844 -0.415959 0.300157 0.284814 0.017705 -0.354840 0.857171 0.553210 -0.026466 -0.710225 -0.371407 0.118339 0.511828 0.221294 0.876237 -0.394898 -0.579299 -0.719809 0.384236 0.018257 0.906368 -0.202809 0.315866 -0.325999 -0.510186 -0.351039 0.929863 0.079503 -0.109383 -0.271585 0.099368 -0.981539 0.312456 -0.600475 0.303275 -0.669839 0.044685 0.160446 0.883371 -0.981782 0.450221 -0.488036 0.136557 -0.037952 0.733259 0.012795 0.567151 -0.846040 0.292985 -0.048613 0.172217 0.199354 0.748578 -0.511917 0.873355 -0.761608 0.137043 0.803218 0.317894 -0.972340 -0.468367 -0.582738 -0.953879 0.844089 -0.183212 0.349396 -0.825750 0.861472 -0.490159 -0.942378 0.879691 0.960062 -0.430414 0.016248 -0.077889 -0.697156 -0.970958 -0.510739 -0.543196 0.322027 0.440648 0.629021 -0.478619 0.189226 -0.882896 -0.605264 0.427618 0.254147 -0.802047 -0.254488 0.281807 -0.270413 0.162775 0.327928 -0.426324 0.979562 -0.322676 -0.252074 0.841035 0.187166 -0.194452 0.720725 0.147228 0.375134 -0.263027 -0.930661 0.677978 -0.233985 -0.441400 -0.865218 -0.911958 0.999249 0.763803 -0.390577 0.188475 0.880907 0.004159 -0.383907 0.135054 0.202113 0.361605 -0.583139 0.931699 -0.475620 0.744790 -0.494625 -0.496058 -0.577886 0.253301 -0.655023 0.609280 -0.941151 -0.934298 -0.243492 0.433983 -0.197325 -0.174154 0.111960 0.568690 0.384446 0.246742 0.656733 0.383695 0.010545 -0.733844 -0.427830 -0.108548 0.270315 0.188262 -0.973494 -0.527572 -0.450132 -0.556633 -0.595873 0.074248 -0.811843 -0.090498 0.578190 -0.389729 -0.837197 0.923167 -0.780450 -0.778348 0.988869 -0.023942 0.655634 -0.208456 0.801904 -0.232405 -0.639766 0.186350 -0.985663 -0.983033 -0.429955 0.024883 -0.716878 0.142215 0.916335 0.553438 -0.669523 0.942840 -0.974135 -0.119655 -0.613792 -0.570008 0.954592 -0.425636 0.339494 0.532782 0.184635 0.502297 0.455949 0.404186 0.723949 0.444818 -0.619756 0.379583 -0.763638 -0.817852 -0.852822 -0.403404 0.368498 -0.838484 -0.386437 0.938543 0.186398 -0.103315 0.080758 0.102733 -0.549877 0.411235 0.045574 -0.524012 -0.708420 0.431781 -0.094020 -0.753828 -0.993855 -0.754527 0.778955 0.190780 0.747770 0.234904 -0.405034 0.471719 -0.320278 -0.024790 -0.148698 -0.083916 0.157357 -0.001519 0.512680 -0.474144 0.159996 -0.873758 -0.535601 -0.653605 0.022927 0.545157 0.449128 0.473050 -0.043607 -0.505299 0.949038 0.247973 0.926482 -0.144983 0.494145 0.932628 0.100491 0.273100 0.123408 -0.151739 -0.491996 0.718374 -0.680020 0.187726 -0.306416 0.171283 -0.896190 0.850941 -0.830237 0.616490 -0.623203 0.329760 0.742732 -0.158804 0.676154 -0.234341 -0.613647 0.125282 -0.761291 0.342746 0.619984 -0.812253 -0.409282 0.546466 0.042764 -0.915136 0.479094 -0.856745 0.357964 -0.397498 -0.008484 0.865967 -0.679124 0.311496 0.053693 0.014460 -0.517222 0.157503 -0.134598 -0.347459 -0.226008 0.242199 0.982301 -0.483276 -0.916605 0.658455 0.282384 -0.530252 -0.216263 0.521093 0.812493 -0.596279 0.708839 -0.596788 0.950187 -0.248397 -0.511925 0.429281 -0.105142 0.846039 -0.968217 0.886374 0.712006 -0.647341 0.197869 -0.234301 0.367120 0.680647 0.923202 -0.767479 -0.666811 -0.302805 0.474720 -0.684511 0.213919 0.558114 0.973945 -0.503698 -0.972138 -0.242318 -0.982605 0.840355 0.161403 0.726235 -0.756433 0.111590 -0.522162 -0.268358 -0.459130 0.372696 -0.422319 -0.427347 0.259070 -0.710313 -0.074688 -0.543061 0.055386 -0.707568 -0.862414 -0.021412 -0.475047 -0.529226 0.675783 0.999673 -0.213736 -0.110298 0.557788 -0.239792 0.386004 0.585650 0.517890 0.403400 0.426005 -0.320707 0.129634 0.669572 0.790883 0.607472 -0.598786 -0.668247 -0.019831 -0.021105 -0.095594 -0.760762 0.268582 0.829718 -0.303823 -0.676031 -0.877849 -0.166237 0.302557 -0.352896 0.304537 -0.021660 -0.353223 -0.909199 0.868042 -0.795435 -0.148990 0.254046 0.790214 -0.631100 -0.342554 0.216219 0.048193 0.787080 -0.114209 -0.160925 0.394553 0.287006 0.170828 -0.625279 -0.734099 -0.924766 -0.386041 0.534483 0.904953 0.310136 0.858452 -0.972897 -0.856101 0.161009 -0.325793 0.448436 -0.860651 0.320984 0.539237 -0.992610 0.525549 -0.609753 0.261437 0.315763 -0.240853 0.918882 -0.468017 0.807339 0.705963 0.417774 -0.353586 0.100515 -0.295220 0.817243 0.475236 -0.029319 0.892477 -0.910804 -0.494836 0.797429 0.399332 -0.636384 0.824532 0.543231 0.524625 -0.501261 -0.008333 0.663974 0.819724 -0.469096 0.671364 0.345273 -0.078849 -0.067199 -0.338964 0.680298 -0.148317 0.193019 0.487637 -0.442354 -0.389207 -0.865948 0.658161 0.315573 0.951294 0.133397 -0.713746 0.843771 0.222593 -0.208582 0.641200 -0.378075 0.155034 0.465733 -0.834844 -0.320341 0.964472 0.156823 -0.656367 0.784196 0.687727 -0.985003 0.129468 -0.391122 -0.052202 0.790504 -0.710824 0.799482 -0.016477 0.776813 -0.642873 0.594316 0.910865 -0.984711 -0.090112 0.862159 0.148686 0.196142 0.705930 -0.628721 0.987560 0.347130 -0.006796 0.142594 -0.187137 0.158359 0.822254 -0.222665 -0.684818 -0.834113 -0.438469 -0.997091 -0.819116 0.690999 -0.388213 0.128682 0.481503 -0.099037 -0.071837 -0.534974 -0.322223 0.285291 -0.940658 -0.411358 0.300579 -0.030770 -0.549199 -0.550735 -0.834628 -0.843269 -0.179456 -0.847067 0.503862 0.813748 0.295527 -0.683275 -0.027893 0.117781 0.094060 0.287289 0.283668 0.655591 0.290198 0.464551 0.346590 0.901985 -0.406767 -0.171907 -0.197052 0.521397 0.293119 0.480725 -0.193312 0.352461 -0.930633 -0.892733 -0.678309 -0.479832 -0.443468 -0.512936 -0.323101 0.377077 -0.360003 -0.819239 0.190825 0.935524 -0.502514 -0.837068 0.053305 0.591546 0.450221 -0.663028 0.247137 -0.259581 0.801523 -0.406273 -0.357596 -0.605243 0.421820 0.445352 0.916153 -0.285061 -0.073923 -0.277159 -0.932600 -0.004557 -0.169892 -0.610908 0.515611 0.386640 -0.123844 -0.807490 -0.236283 0.516152 -0.626729 0.954542 0.451676 -0.129243 -0.882526 -0.495020 -0.537697 0.567695 -0.158047 0.709440 -0.691886 -0.356524 -0.696833 -0.049482 0.038233 0.724987 -0.604130 -0.045614 -0.560074 0.321947 0.677227 -0.492674 -0.682610 -0.492665 -0.103582 0.833001 0.893976 0.772574 -0.974489 -0.342307 0.288726 -0.601218 -0.387765 -0.259598 0.269539 -0.270291 0.245382 0.731842 -0.702595 -0.912665 0.441282 -0.394481 -0.269189 0.744449 0.556037 0.769044 0.469436 0.951908 -0.276570 0.909362 0.273854 -0.599343 -0.583312 0.591244 -0.092007 0.313106 0.424245 -0.198031 0.085680 0.449755 0.459662 -0.625594 0.848537 -0.928103 0.114808 0.118076 -0.198394 -0.639810 -0.150082 0.099011 -0.552475 -0.708800 0.704530 0.178336 -0.964351 0.260567 -0.052620 0.505085 0.212475 0.670810 0.414446 -0.513671 -0.928533 0.831134 -0.922427 -0.020540 0.144241 0.501818 0.781428 -0.770079 -0.048427 0.241090 -0.395673 -0.199890 0.312987 0.719135 0.918186 -0.885407 -0.920675 -0.231896 0.213604 -0.473150 0.059304 -0.081867 0.705186 0.094953 -0.821299 -0.347435 -0.399963 0.391175 -0.676625 -0.985517 0.877505 -0.605158 0.845618 0.955078 0.374301 -0.010142 0.456896 0.155730 0.219779 -0.591531 -0.603180 0.824106 0.208579 0.709807 0.543240 0.126765 0.824400 0.622565 0.894869 0.038003 -0.850585 -0.045827 0.956137 0.854601 -0.950875 -0.865163 -0.492834 -0.350837 0.526013 -0.169459 -0.336354 0.403517 0.225383 -0.490736 0.358595 -0.400316 0.499122 -0.184509 0.755414 -0.281099 0.223960 -0.847766 -0.456994 -0.567461 0.862040 -0.913754 0.559304 0.686440 0.708811 0.454173 -0.275556 0.858226 -0.591654 -0.319420 0.712827 -0.542529 -0.184582 -0.780007 0.106634 -0.658570 0.050533 0.770280 0.744948 -0.724084 -0.720457 0.103543 -0.124400 0.778665 0.919034 -0.368986 -0.502434 0.142993 -0.216752 0.040572 0.575532 -0.354712 0.126819 0.134836 -0.668272 -0.164370 -0.410990 0.056172 -0.306144 -0.002644 0.736752 -0.593317 0.454827 -0.447830 -0.373324 -0.438539 -0.106400 0.677209 -0.668260 -0.361452 0.953125 -0.388716 0.742091 -0.171275 -0.610051 0.661125 0.459739 -0.112485 -0.195882 -0.757013 0.928087 -0.620350 -0.111725 0.054906 0.514487 0.220004 0.890536 -0.896504 -0.723825 -0.415608 0.100852 -0.987072 -0.008924 -0.444321 -0.434903 0.617752 0.117139 0.458698 0.294961 0.448880 -0.902754 0.248086 -0.939836 0.839337 -0.923188 -0.549887 0.500462 0.536551 0.337628 -0.695420 0.779538 0.265715 -0.315770 -0.332187 -0.679379 -0.801283 0.887817 -0.788843 -0.697787 -0.836008 -0.204450 0.403065 -0.823080 0.786625 0.958744 -0.257983 0.404377 0.075883 -0.799285 -0.300662 -0.475237 -0.702039 0.947424 -0.415073 -0.862702 -0.975765 0.035039 0.637760 0.560786 -0.627333 0.942340 0.340324 0.638382 -0.373430 -0.991863 0.959003 -0.174714 0.895954 -0.829840 0.127499 -0.940054 -0.034290 -0.469436 -0.763134 -0.247665 -0.510692 -0.021117 -0.843288 0.565191 0.179598 -0.143951 -0.910046 0.477559 -0.196527 -0.325120 0.614857 -0.172292 0.709920 0.252617 -0.611505 -0.917413 0.194956 0.728819 0.720969 0.821526 0.736956 0.679972 -0.353188 0.632910 0.850133 0.774311 0.692856 -0.184158 -0.695125 0.929722 0.568177 -0.205817 -0.091395 0.724889 -0.640626 -0.911798 -0.419062 -0.550672 0.565761 0.384411 0.124208 0.180618 -0.787880 -0.165872 -0.566765 -0.399386 -0.083285 0.628191 -0.670567 -0.362316 0.449717 -0.933611 -0.682344 -0.903471 0.699299 -0.832211 0.870840 0.392155 -0.016369 -0.824284 0.321877 -0.448192 -0.030101 -0.769519 -0.723303 0.329273 -0.681316 -0.142365 0.778601 0.884445 -0.757954 -0.097190 0.065063 -0.545834 0.736938 0.498298 0.054780 -0.346348 0.126489 0.384213 0.291336 -0.423793 0.450602 0.608993 -0.327264 0.149900 0.776781 -0.456424 -0.457945 -0.239588 -0.280708 0.863932 0.312220 0.689191 -0.905587 0.588917 0.018464 -0.586903 -0.553447 -0.202934 -0.702458 -0.311401 0.699875 0.362605 0.142765 0.436813 -0.139097 -0.802455 -0.909535 0.987393 0.581758 0.381802 -0.436401 0.032359 -0.009206 0.236335 -0.817740 -0.232425 0.779911 -0.275685 0.527988 -0.500797 -0.411753 -0.159792 -0.811606 -0.317340 -0.570874 0.206858 0.095757 -0.124322 -0.996076 0.393299 0.564278 0.703799 -0.244096 -0.292957 0.140612 0.616807 -0.095412 0.231078 0.604200 -0.513654 -0.387121 -0.832200 0.518705 0.603674 0.404135 0.700965 -0.628751 0.184045 -0.574720 0.899237 0.683248 0.013526 -0.260555 0.871642 0.696186 0.168571 0.078500 -0.208057 -0.955751 0.082424 -0.814758 0.608527 -0.213777 -0.058854 -0.684431 0.926836 -0.442046 0.220157 0.157914 -0.837846 0.706503 0.770793 -0.670046 0.225208 0.374466 0.734088 -0.073827 0.745715 -0.081866 0.351452 0.644952 -0.398618 -0.635021 -0.615603 -0.526977 -0.938835 0.552968 0.551523 -0.146892 0.597217 -0.366053 0.038351 0.205744 0.420171 0.979497 0.521313 0.347006 -0.462549 -0.258530 -0.495080 -0.300395 -0.552027 -0.724287 0.029559 0.673181 0.650179 -0.236353 -0.400646 0.395895 0.681781 0.950806 0.040847 -0.716838 -0.684215 0.425244 -0.243815 -0.623050 -0.021788 -0.692291 0.230058 -0.424572 -0.058344 -0.731591 0.781172 -0.638174 -0.752094 0.302485 0.708833 -0.214643 -0.956045 -0.786247 0.484962 -0.508072 -0.510535 -0.485479 -0.834891 -0.860355 0.278168 -0.235538 0.535539 -0.040052 -0.284732 -0.423614 0.243110 0.031053 -0.998370 0.999296 0.408002 -0.020158 -0.692996 -0.361940 0.555270 0.248660 -0.093531 0.336442 0.610486 0.154375 -0.361073 0.319319 0.939732 -0.317118 0.533072 0.424693 0.174810 -0.977463 0.939214 0.339918 -0.837818 0.217382 -0.895619 0.697721 -0.822670 -0.180351 -0.725893 0.420440 0.850702 -0.724262 0.419736 0.258705 0.255579 0.726740 0.896765 -0.189151 -0.024600 -0.196766 -0.852709 -0.414114 0.957609 -0.213782 0.905205 0.897340 0.469100 0.438277 0.322034 -0.356091 0.460814 0.261248 0.983828 0.622995 -0.521371 -0.911792 0.320717 -0.344041 -0.092142 0.594824 -0.923601 -0.241440 0.870562 0.496134 -0.982735 0.126141 0.222874 0.914030 0.936990 -0.801726 -0.282736 -0.915718 -0.215839 -0.325127 -0.129500 -0.310634 -0.427787 -0.660401 -0.872357 0.894247 -0.016492 0.588457 0.155495 -0.032664 0.211452 0.634124 0.055544 -0.467831 -0.709917 0.963402 -0.873007 -0.633519 -0.278038 0.997554 0.862616 -0.260773 0.123695 0.085490 -0.346744 0.060685 0.283765 0.370520 0.144967 -0.932074 -0.954607 -0.984533 -0.242708 -0.382394 -0.644934 -0.115065 -0.488148 0.338574 -0.526608 0.667347 -0.694090 0.684845 0.301471 0.361454 -0.782986 0.591553 0.324857 -0.655993 0.958035 -0.953181 -0.658439 0.820651 -0.213954 0.465256 -0.093859 0.439302 -0.474058 -0.810094 -0.190178 0.670909 -0.742168 -0.144785 0.686375 0.015124 0.472820 -0.958559 0.900059 0.984673 0.380015 -0.626549 0.652020 0.685925 -0.941704 -0.046510 0.047380 -0.724691 -0.454956 -0.627764 -0.380684 -0.496921 -0.580945 -0.039123 -0.676271 0.205101 -0.573867 0.229870 -0.355597 -0.047925 0.419776 0.454225 -0.377016 0.677608 -0.690561 -0.690641 -0.307269 0.782260 -0.649200 -0.407210 0.766932 0.730815 -0.033759 0.418952 0.416741 0.024537 -0.627558 -0.535880 0.299846 -0.082515 -0.163644 0.919162 0.420564 0.255412 -0.119961 0.744293 -0.539487 0.306172 -0.025836 0.104916 -0.741752 -0.606060 -0.440860 -0.118768 -0.928452 -0.131420 0.190591 -0.235721 -0.349161 0.541391 0.357069 -0.582229 0.272206 -0.676690 0.836723 -0.311053 0.347847 -0.790835 0.153067 -0.352307 0.126650 0.989424 -0.433145 -0.452786 0.244835 0.446894 -0.708492 0.705348 -0.246933 0.265672 -0.189736 0.011315 0.659612 0.369404 0.892546 0.731160 -0.762016 0.083137 -0.504561 -0.111177 -0.375472 0.852508 0.306595 0.896734 -0.824181 0.143318 -0.414319 0.523666 0.352482 0.738749 -0.828641 -0.520867 0.728172 -0.261786 0.026347 -0.026992 -0.814892 0.317855 -0.321644 -0.061825 -0.416474 0.488619 0.949490 -0.756862 -0.141976 0.842036 0.974298 0.096008 -0.074827 -0.530263 0.984831 0.549701 -0.677755 0.291426 0.446435 -0.501937 -0.565256 -0.967883 -0.978271 0.787226 0.770865 -0.806912 -0.733641 0.499038 -0.068698 0.292706 -0.527955 0.116410 -0.389440 0.150401 -0.945415 0.194087 -0.360980 -0.995925 0.437225 0.497044 0.846111 0.411522 -0.406948 -0.228716 0.881259 -0.422117 -0.679015 -0.796496 0.869308 0.767420 -0.298432 -0.695948 0.799537 -0.276703 -0.908722 0.570402 -0.083616 -0.642363 0.069440 0.847686 0.650342 0.541485 -0.035904 -0.739098 -0.308113 0.018681 0.454989 0.330907 0.022756 -0.107787 -0.172049 -0.131133 -0.696264 0.421003 0.640151 -0.815005 0.998885 0.961135 -0.611501 0.868194 0.728555 0.090067 -0.827754 0.528092 0.813364 -0.736476 0.098495 -0.270252 -0.378840 -0.832065 -0.422566 -0.728498 0.709420 0.541530 -0.467595 -0.598693 -0.439789 0.987393 0.732214 0.582967 -0.120393 -0.439835 -0.548166 0.183343 0.981167 -0.908016 0.368338 0.980053 -0.946880 0.756837 0.848247 0.781675 -0.153096 -0.979507 0.309767 -0.339733 -0.715983 -0.591738 0.390015 -0.094823 -0.423803 0.967449 0.176679 -0.714383 0.508979 0.709084 -0.313076 -0.930811 0.696478 -0.580863 0.652156 -0.423916 -0.020698 -0.896010 0.759427 -0.039530 -0.804026 0.127765 -0.059477 -0.750906 -0.115398 -0.211231 -0.969232 0.731506 -0.190738 0.340536 -0.608227 0.093279 0.748797 0.781788 0.998456 -0.675006 0.749237 0.175135 -0.389389 0.258216 -0.115781 0.297534 0.327405 -0.419303 0.716672 -0.020439 0.156781 -0.304026 0.083551 -0.083792 0.656444 0.279525 -0.956027 -0.403033 0.528619 -0.071425 0.385736 0.559387 -0.339920 -0.805002 -0.100077 0.051853 0.288277 -0.351280 -0.166359 0.286732 -0.026286 -0.417122 -0.538133 0.584325 0.841094 0.346086 -0.118141 0.168499 0.926783 -0.401469 -0.851940 0.083564 0.294505 0.231611 0.999773 -0.049051 -0.488864 -0.956254 0.547915 -0.960245 -0.027680 -0.066349 0.599142 0.632401 0.128649 -0.500935 -0.315746 -0.583074 0.147785 0.517895 0.703658 -0.878501 -0.899226 -0.834474 0.705823 0.941868 0.511612 -0.412318 0.110367 0.438395 0.186213 0.258427 -0.478041 -0.519282 -0.509961 -0.478268 0.431666 0.001175 -0.434522 -0.020418 0.040930 0.537798 0.913233 -0.359928 0.170199 0.041882 0.139137 0.854453 0.458808 -0.713078 0.372349 0.162466 -0.591580 0.473122 0.327992 -0.885757 0.414990 -0.160396 -0.298075 -0.474643 -0.722001 0.888138 0.783784 -0.200042 -0.631144 -0.726177 0.321690 0.800522 0.274998 0.887168 -0.219896 -0.684072 0.424966 -0.306664 -0.044000 -0.404835 0.735218 -0.904863 -0.550382 0.194026 -0.617942 0.821966 -0.643508 -0.209522 0.295089 0.684484 -0.095278 -0.289921 -0.475912 0.606647 0.235436 -0.197913 0.494785 0.019220 0.602045 0.863641 0.293043 -0.076264 0.664164 -0.431960 -0.189097 -0.555733 -0.116032 -0.764131 0.137604 0.839968 -0.168966 -0.127178 0.935105 0.280651 -0.933152 -0.682837 0.102618 -0.576659 0.107642 -0.602294 -0.892175 -0.987637 0.107785 -0.368087 0.619010 -0.656780 0.434000 0.113796 0.362440 0.036046 -0.022563 -0.344517 0.959781 -0.358400 0.223523 -0.229316 0.085868 -0.892509 0.006553 -0.776528 0.947460 0.837587 0.096294 0.882565 0.118238 0.163142 -0.800272 -0.779144 0.586483 0.307370 -0.381438 0.694308 0.319733 0.726347 -0.673778 -0.061257 -0.930433 0.760222 -0.947461 0.432007 -0.203732 0.029976 -0.912510 -0.243951 0.671576 0.311013 0.526733 -0.242556 0.418505 -0.466714 -0.019084 0.365964 -0.629126 -0.922790 0.248529 0.489112 0.240352 0.448257 0.709968 -0.173165 -0.244374 -0.671470 -0.478857 -0.924641 -0.945123 -0.152635 0.014103 -0.875555 -0.392413 0.066642 0.556452 0.403854 -0.903382 0.643942 -0.840097 0.768194 -0.045044 0.686636 -0.474362 -0.626539 -0.780078 0.506554 0.739425 -0.409204 0.583764 -0.012046 -0.920092 -0.175885 -0.563789 0.789876 0.650950 0.191837 -0.881594 -0.827907 0.267196 -0.826717 0.019458 -0.718701 -0.702272 0.627045 0.347940 0.854180 0.030899 0.444558 0.498122 0.190802 0.212752 -0.546922 -0.122562 0.738391 -0.173462 0.097360 0.244945 -0.434037 0.688156 -0.171291 0.553917 0.768064 0.652824 0.990128 0.557940 0.303774 0.181965 0.676346 0.475868 -0.550839 0.849629 -0.504674 -0.269540 -0.852643 -0.877629 -0.921600 -0.998464 0.153270 0.522958 0.499658 -0.655929 -0.264289 0.952736 0.221509 -0.525899 -0.220726 -0.681131 0.719046 0.345238 -0.992975 -0.452245 -0.100845 0.775089 -0.799421 -0.110718 0.333029 0.504353 -0.928753 0.009374 -0.019779 -0.479592 -0.140997 0.475547 0.250867 0.006360 0.597917 0.329267 0.007896 -0.248813 -0.147774 -0.492446 0.095258 0.587936 -0.539710 -0.683233 -0.937963 0.239565 -0.364364 0.781084 -0.415198 -0.357338 -0.671162 0.483957 -0.582249 -0.470583 -0.626760 0.750779 -0.966230 -0.555513 -0.239846 0.013991 -0.035106 0.619157 -0.510462 -0.784238 -0.374483 -0.912545 0.545029 0.633413 -0.161358 -0.602745 -0.859033 0.933900 0.985191 -0.398743 -0.749333 -0.952772 0.840822 -0.113697 0.828312 -0.574376 0.528965 -0.842850 0.909581 0.946716 -0.313433 -0.717179 0.697495 -0.279662 -0.272693 -0.542351 0.734329 0.692202 -0.923194 -0.776134 0.907964 -0.297677 -0.688679 0.452993 -0.664265 0.149963 0.850248 -0.523298 0.083862 0.835438 0.077959 0.334529 0.882667 -0.081219 -0.779168 0.710978 0.344405 0.749797 0.868129 0.253986 0.696513 -0.445304 0.536807 0.394008 0.275034 -0.735886 0.851656 0.009362 0.956316 0.928462 0.233229 0.864280 -0.369215 0.544550 0.317272 -0.033480 -0.305488 0.167520 0.443222 0.778374 0.002958 -0.478819 0.112904 -0.114375 0.439963 0.333736 -0.403397 -0.215632 0.083533 -0.535268 -0.961646 -0.219954 0.019428 0.575161 -0.825946 -0.705538 0.839275 -0.974289 0.303824 0.795591 0.954173 -0.462947 0.659871 -0.415042 -0.918397 -0.022857 0.551478 -0.223885 -0.855337 -0.005300 -0.445511 0.147621 0.515881 0.667393 -0.966754 -0.044157 0.001129 -0.370151 0.740211 -0.915337 0.094581 0.778565 -0.135291 -0.885991 0.353727 0.038763 -0.591529 0.193002 0.064473 0.712295 -0.011406 0.018646 -0.750652 -0.351535 0.603604 -0.669049 0.625608 0.155081 0.107066 0.770271 -0.850219 0.661556 -0.082108 0.665662 0.328949 -0.048862 -0.378494 -0.669922 0.580987 -0.638283 -0.585259 -0.324432 -0.859718 0.279450 -0.210423 0.494009 -0.681787 0.198048 -0.312989 0.382686 -0.089657 0.675605 -0.598668 0.159691 -0.675931 -0.995064 0.490643 0.949677 0.160018 -0.402291 0.719948 0.309799 -0.740736 -0.362161 -0.024539 0.588213 0.588977 0.596966 0.918291 0.169964 0.958683 -0.666968 0.845531 -0.901035 0.612482 -0.364892 0.592974 0.930695 0.833155 -0.720015 0.313381 -0.256502 0.955590 0.714713 0.903190 -0.720341 0.719650 0.393832 -0.770664 -0.120333 0.991541 
0.949283 -0.810534 -0.749194 -0.412877 0.164927 0.839019 -0.823900 -0.238107 0.757310 0.346063 -0.279424 -0.909657 0.191595 -0.180459 0.702825 0.826702 -0.587484 0.633519 0.659858 -0.307499 -0.053100 -0.596644 -0.351909 -0.338386 -0.693454 -0.072250 -0.618737 0.700378 0.157086 0.260931 0.691920 0.106369 0.450397 0.942725 0.693491 -0.384676 0.781744 0.869591 0.377217 0.539055 0.215654 -0.902207 0.629397 -0.592751 -0.082666 0.332222 -0.766049 0.329850 -0.034259 0.893809 -0.977649 0.912642 -0.702834 -0.329558 -0.425745 -0.396288 0.598191 -0.044481 -0.695910 -0.244723 -0.783550 0.996010 0.861646 0.666846 0.938735 0.555137 -0.717830 0.720479 0.424728 0.659386 0.259534 -0.359618 0.757179 -0.111069 0.047631 -0.325487 -0.778847 0.281582 -0.995637 0.186894 0.175391 -0.973286 0.099536 0.472557 -0.302844 0.673791 -0.923731 -0.704653 -0.370690 -0.619641 0.050624 -0.154241 -0.623632 -0.087730 -0.487394 -0.684897 -0.532593 -0.205224 -0.964417 0.892135 -0.545838 0.295116 -0.467483 -0.788659 -0.815953 0.580148 -0.114145 -0.594800 -0.138270 -0.109782 0.592094 -0.962879 -0.083068 -0.308371 0.509678 0.614088 -0.634580 0.585947 0.909435 -0.005270 0.966306 -0.039941 0.840490 -0.657326 0.872328 -0.646905 -0.342222 -0.660265 0.147871 -0.306640 -0.768131 0.602033 0.988476 -0.235614 0.813374 -0.827477 -0.655466 -0.300771 -0.422277 0.206264 0.589447 -0.830183 0.243385 -0.493621 -0.138554 -0.246936 -0.879533 0.226866 -0.660989 -0.970098 -0.778403 -0.694684 -0.010040 -0.937914 -0.352009 -0.137712 -0.584818 0.305768 0.202023 0.563053 0.999129 0.433893 0.165086 0.987605 -0.801721 -0.021540 -0.839872 -0.457188 0.677689 -0.262148 0.749076 0.267136 -0.092332 -0.007539 0.773516 0.769114 0.745525 0.893982 -0.004019 -0.915465 0.923884 0.217578 -0.610148 -0.086156 0.279664 0.037842 0.776133 0.694846 -0.656389 -0.021844 0.257899 -0.657261 -0.587951 -0.577015 -0.669656 -0.389673 0.401445 -0.509527 0.153140 0.079134 0.228324 -0.097784 -0.653729 -0.864007 0.894677 -0.880214 0.905107 0.640202 -0.986231 -0.098912 0.724737 0.937653 -0.881334 -0.885411 -0.148503 0.398330 0.152431 -0.372371 0.093175 0.496042 0.605785 -0.648926 0.838781 -0.982166 -0.225941 -0.830874 -0.371839 -0.824496 -0.340402 0.781301 0.254638 0.887923 -0.316483 0.600909 -0.976085 -0.421807 0.720695 0.929022 -0.781605 0.734464 -0.169890 0.943132 0.672117 -0.051225 -0.942279 -0.476387 -0.652895 0.210152 0.151243 0.440280 -0.293806 -0.242972 0.791354 -0.455024 -0.225138 -0.434587 -0.285899 0.403023 -0.259083 0.373700 0.184324 0.995555 0.261622 0.867840 0.596464 0.285537 -0.553966 0.317159 0.214559 -0.335571 0.051623 -0.955331 -0.392439 -0.276261 -0.006555 -0.334718 0.247353 0.340550 0.875434 -0.601405 -0.219170 -0.418372 0.155623 -0.427815 0.126604 0.930485 0.137598 0.840705 0.333508 0.878514 0.214405 -0.482168 0.874069 -0.523973 -0.614328 0.470533 0.761564 -0.168294 -0.212309 -0.023877 0.496134 0.839314 0.020792 -0.896305 -0.436946 -0.985763 -0.231023 0.810406 0.354787 -0.355589 -0.790998 -0.864383 0.226039 0.364625 -0.292199 -0.647358 0.295110 0.845399 -0.806653 -0.371381 0.723913 0.407752 0.146450 0.597983 0.883779 0.532122 0.068515 0.645343 -0.636172 0.856206 -0.378534 0.859962 0.695521 0.642258 0.963657 -0.741426 0.656496 -0.267366 -0.931020 0.011282 0.377044 -0.722018 0.146899 -0.396917 0.642607 0.854701 -0.044275 -0.062282 0.700100 0.149072 0.566336 0.424013 -0.443176 -0.287213 0.021996 -0.559397 -0.755091 -0.909489 -0.914054 -0.391263 0.946717 -0.292588 -0.531301 0.642238 -0.650330 -0.567644 0.900812 -0.993834 0.164990 0.969792 0.017448 -0.457966 -0.752225 -0.835653 0.145117 0.890382 -0.980952 -0.899158 -0.171900 0.719148 0.249915 -0.605564 0.143161 0.806739 0.107223 -0.834843 -0.752658 0.352132 -0.744332 -0.666713 0.960868 -0.797614 0.040699 -0.570433 0.844624 0.390369 -0.138077 0.745436 0.396535 -0.973088 0.715228 -0.586017 -0.431054 0.963003 -0.421669 0.714063 0.853385 -0.402621 0.814905 -0.318516 -0.683473 0.064820 0.075920 0.459688 -0.128441 -0.816857 0.624846 0.118900 0.535274 0.880514 0.452188 0.496143 -0.917100 -0.507113 0.925709 0.927524 0.883256 -0.212368 0.672960 0.279791 -0.185456 0.388188 0.693774 0.383490 0.351191 -0.727895 0.097553 0.204575 -0.130516 -0.087541 0.886060 0.186011 0.977278 -0.038020 -0.354301 -0.151163 0.145123 -0.729455 0.967737 -0.319603 -0.848941 0.419925 -0.823461 -0.766041 0.912812 -0.897751 -0.838518 0.796067 -0.110119 0.834442 0.075859 0.704425 0.222630 -0.230367 0.087915 -0.426179 0.041738 -0.814532 0.778396 0.911221 0.097927 0.664456 0.097232 0.075205 -0.373565 0.742931 0.924042 0.771558 -0.986525 0.891779 -0.548045 -0.835466 0.311704 -0.371506 -0.601507 0.224516 -0.269257 -0.440025 0.020583 0.620624 -0.605583 -0.903558 0.325048 0.617047 -0.133925 -0.587037 -0.809132 0.907812 -0.401569 0.969264 0.819034 0.696358 0.633719 -0.083735 -0.228437 -0.739846 -0.340804 -0.304395 -0.968288 -0.327329 -0.412616 -0.516333 -0.162795 0.899089 0.112161 0.235698 0.123604 0.842904 0.795673 -0.855812 0.463528 -0.809910 -0.759370 -0.211424 0.807137 0.106704 0.201540 0.998005 0.014517 0.799971 0.967268 -0.166450 0.496328 0.600988 0.749816 -0.732109 0.861142 -0.590988 -0.036504 0.892854 0.081683 0.550880 -0.623478 0.918888 0.449969 0.488683 0.154586 -0.426427 0.331587 -0.049741 -0.282239 -0.204885 0.140348 -0.041610 0.583692 -0.052515 -0.934905 -0.214769 -0.054510 0.079611 -0.414798 -0.087242 0.913161 -0.918470 -0.486254 0.662977 -0.650578 -0.625112 -0.928012 0.312918 -0.732258 0.153671 -0.136202 -0.355736 0.072559 -0.686234 -0.867053 -0.772855 -0.112661 0.464534 0.177404 0.605100 -0.740351 -0.682248 -0.436510 0.843341 0.265237 -0.371415 -0.371428 -0.789273 0.708196 0.213774 0.123485 0.621357 0.295304 0.637231 0.284334 0.644726 -0.987881 0.356322 -0.042357 -0.720138 -0.490007 0.821441 -0.075875 0.582552 -0.864793 0.057072 0.809697 0.022547 -0.478394 -0.012899 -0.372353 -0.218745 0.304853 0.191137 -0.375404 -0.429910 0.819722 0.253168 -0.219183 0.527918 -0.533058 0.904303 0.149275 0.762247 0.541534 -0.566391 0.406972 0.553653 0.789931 -0.635384 0.833515 -0.700076 -0.813943 -0.242360 0.882476 -0.678736 0.814712 0.692173 0.343811 -0.663681 -0.320726 0.971458 0.117574 0.984127 0.162596 0.742170 -0.445783 -0.017682 -0.004661 0.335034 -0.489764 0.462281 0.239337 0.659511 0.224527 -0.219129 -0.906880 -0.368500 -0.665476 0.883051 -0.003884 -0.831962 -0.817025 0.182173 -0.074321 -0.934549 0.503437 -0.259609 0.757624 -0.152752 0.076710 -0.563102 -0.181293 -0.805716 -0.578975 0.981302 0.936454 -0.024758 -0.036380 -0.068208 -0.689724 0.473856 -0.605927 0.549612 0.133368 0.618601 -0.669517 0.226488 -0.749899 -0.334993 0.109539 0.246217 -0.166955 0.292514 -0.571611 0.758724 0.357965 0.931827 -0.500885 0.115589 -0.220925 0.575825 0.552488 0.597782 0.770108 0.973512 0.579084 0.706562 -0.051246 -0.457295 -0.361645 0.259030 -0.983439 0.032428 -0.191358 0.149929 -0.348972 0.139125 -0.623583 -0.098871 0.804132 0.485957 -0.852654 -0.362822 -0.221529 -0.424265 -0.604098 -0.863564 -0.492439 -0.104983 0.252026 0.286636 -0.529159 -0.195487 -0.115582 -0.759050 -0.221974 -0.536498 0.947512 0.726780 0.006207 -0.414134 -0.014190 0.022768 0.618294 0.794452 -0.827303 -0.730678 -0.066423 -0.450886 0.170451 -0.262291 -0.964929 0.317797 0.374887 -0.186458 0.893532 0.770789 -0.050022 -0.598907 -0.334195 -0.797997 0.687730 0.136647 0.006517 -0.427852 0.377596 0.784543 0.035651 0.325108 0.511322 -0.958142 0.910974 -0.502868 0.064626 0.529268 -0.708416 0.237323 0.798590 0.225161 0.786437 -0.030958 0.962870 0.821507 -0.713161 0.337757 -0.364951 -0.819629 0.108546 0.585027 -0.418536 0.774351 0.787030 -0.730806 -0.089002 -0.206453 -0.158658 -0.711406 -0.421911 0.876992 0.613702 -0.910588 0.918850 0.524676 -0.413456 -0.016524 0.053944 -0.121873 -0.779202 -0.147466 -0.896712 -0.992765 0.821576 -0.933842 0.828742 -0.891585 0.403916 -0.536209 -0.711214 -0.487538 -0.951182 -0.129750 -0.713187 0.835848 0.139444 0.197811 -0.370605 0.980785 0.486405 0.207484 0.857778 0.100107 0.296896 0.776628 -0.375217 0.883439 -0.239896 0.678726 -0.238434 -0.019098 -0.468739 -0.135146 -0.011863 -0.647164 -0.068987 -0.183121 -0.538749 -0.665071 0.280670 -0.249963 -0.152610 0.329488 0.620286 0.134203 0.165335 -0.240270 -0.667986 0.794730 -0.259485 0.818419 0.002214 -0.401707 -0.081474 -0.700890 -0.625079 0.543308 -0.817451 0.135025 0.222035 -0.055885 -0.884073 0.753295 0.808969 0.104063 -0.893868 -0.260018 0.920942 -0.432617 0.074911 0.201612 0.317420 0.922301 -0.468901 -0.062294 0.056505 0.696435 0.697436 0.388519 0.491165 -0.562048 0.206938 -0.506622 0.036245 -0.874536 -0.207512 0.411166 0.668773 -0.024963 -0.453809 -0.109193 0.919152 -0.337882 -0.355898 0.728121 0.766181 -0.249766 -0.531897 0.687123 0.317617 0.543014 -0.111265 -0.364963 0.465316 0.419834 0.572743 -0.478179 0.116269 0.270180 0.910340 -0.392566 0.708131 0.117278 0.100812 -0.255624 0.242743 0.893300 -0.844457 -0.088485 -0.131663 -0.298266 0.802323 -0.212512 0.363852 -0.553575 -0.484391 0.130034 0.196659 -0.016287 -0.182843 -0.485723 -0.473273 0.705892 0.149314 0.992043 0.125726 -0.277943 -0.486136 -0.758005 0.992237 -0.575796 -0.150571 0.700368 0.541482 0.950241 -0.555256 -0.215775 0.843541 -0.399713 0.695740 -0.288122 0.302022 0.498063 0.499366 -0.334126 0.944488 -0.985025 0.795907 0.141147 -0.001312 -0.386936 0.655424 0.525415 -0.681044 -0.195263 0.517458 0.444682 0.526794 -0.968678 0.686678 0.519031 -0.544474 -0.463893 0.219399 0.997009 -0.513652 0.664143 -0.218766 -0.670111 -0.735569 -0.523026 0.041766 0.566452 0.975037 -0.458868 -0.767674 0.919525 -0.443893 -0.971767 0.060672 0.554795 -0.358702 -0.283904 0.080210 -0.039746 0.520833 -0.402331 -0.595064 0.047627 -0.371009 -0.908386 -0.433342 0.084517 -0.372279 0.786057 0.081526 0.114069 0.450200 0.862759 0.443957 0.714631 -0.660267 -0.514276 0.281083 -0.685230 0.026856 0.513409 -0.765705 0.582963 0.541643 0.294967 0.137759 -0.817060 -0.988938 -0.782031 0.143194 0.531895 -0.184362 0.548130 -0.420478 0.444629 0.639744 0.146181 -0.470854 -0.732535 -0.067762 0.610671 0.381534 -0.617562 0.473431 -0.174509 -0.902931 0.813164 0.311215 0.378152 -0.872066 -0.661929 -0.108438 -0.637772 0.921034 -0.566796 0.657195 0.058793 -0.383855 0.668257 0.276762 0.759339 0.200152 -0.907600 0.307470 0.779674 0.537029 -0.052786 -0.074145 -0.933826 0.214679 0.858092 0.676846 -0.403787 -0.759469 0.150276 0.421704 -0.662400 -0.036560 -0.267081 0.715752 0.091373 0.070989 -0.392686 0.453601 -0.007976 0.040519 0.110796 -0.949183 0.656663 -0.220947 0.327579 0.416003 0.979205 0.419979 -0.276528 0.758879 -0.042993 0.670686 -0.315266 0.023182 -0.114635 -0.457174 -0.299973 0.481578 -0.216643 0.850304 -0.096718 0.120957 -0.186257 0.636200 -0.163291 0.905117 -0.292810 0.444024 0.358718 0.699213 -0.515458 -0.530486 0.750030 -0.858794 0.248567 0.077609 0.557208 0.227772 -0.502412 -0.719320 -0.013349 0.454595 0.951366 0.671385 -0.522223 -0.163269 -0.785789 0.177805 -0.681691 -0.002432 0.028108 0.221590 -0.881475 0.841851 -0.142209 -0.044766 0.746968 0.564980 -0.600742 0.105686 0.264193 -0.116200 0.575200 0.014224 0.025005 -0.176233 -0.908167 -0.417787 -0.948461 -0.410579 -0.137106 0.038190 -0.955984 -0.185740 -0.290425 -0.478207 0.650991 -0.076214 0.699598 0.969300 0.921353 -0.272294 0.190890 -0.960122 -0.430443 -0.951319 -0.004888 -0.683475 0.613661 0.394370 0.422211 -0.122146 -0.721831 -0.002588 0.892078 0.303175 0.821179 0.983910 0.885388 0.872719 -0.426669 -0.251718 -0.089091 -0.382653 0.562541 0.620484 0.139140 0.213532 -0.455731 -0.161262 0.182832 -0.534377 0.566444 -0.626278 -0.494499 -0.863998 -0.577597 0.500613 -0.547473 -0.963936 -0.105017 0.874739 -0.086082 0.173152 -0.127850 -0.194004 -0.523673 -0.306670 -0.210093 -0.638286 -0.433952 0.363238 0.109996 0.476957 0.980585 -0.327463 0.097440 0.119725 0.886069 0.641710 0.958464 0.068901 -0.892668 0.524908 0.442624 -0.387167 0.660910 0.865027 -0.886554 -0.886563 0.901091 0.008429 0.988175 -0.184991 -0.818419 -0.139674 0.621005 -0.342093 0.553655 -0.589088 0.019622 -0.880297 0.774149 -0.870382 0.596660 0.754734 -0.197845 -0.305900 -0.125541 -0.311776 -0.664190 -0.167077 0.757125 -0.556858 -0.642169 0.199749 0.055975 -0.981259 0.064776 0.169421 -0.867823 -0.034134 -0.822150 -0.879647 0.780875 -0.640570 -0.019322 0.401880 0.017337 -0.465667 0.812792 -0.963041 -0.345963 0.586941 -0.833424 -0.749303 0.341675 -0.031269 -0.055203 -0.783865 0.656955 0.280607 0.049058 0.414080 0.723749 0.406889 -0.386171 -0.220276 0.425630 0.678605 0.949145 0.557807 -0.355529 -0.873006 0.678160 -0.574653 -0.513576 -0.341162 0.827227 0.503761 0.193172 0.640019 0.540720 0.847208 0.226960 0.707296 -0.902095 -0.431364 -0.323973 0.042702 -0.215229 -0.667018 -0.676691 0.833829 0.747063 -0.952942 0.240718 -0.639108 -0.173218 -0.333652 -0.960503 -0.224074 -0.775845 -0.316031 -0.097079 0.902315 0.109316 0.389345 -0.438847 -0.063457 -0.106894 0.754324 -0.423438 -0.566173 0.601533 0.803522 -0.858877 0.699438 -0.627842 -0.182850 -0.257860 0.156929 0.150133 0.065449 -0.009242 -0.102804 0.112506 -0.768524 0.258088 0.939288 -0.102176 0.297586 -0.284786 0.121979 0.981554 0.618135 0.024294 0.090870 0.007480 0.585446 -0.972587 0.900586 0.339771 -0.396026 -0.665587 -0.058697 -0.592504 -0.524464 -0.359259 -0.220346 0.292686 0.382881 0.936583 -0.557181 -0.551671 -0.072659 0.340014 0.560836 0.158816 -0.401897 0.500124 -0.943360 0.895688 -0.784662 0.178619 0.877243 0.833473 -0.797087 -0.031887 -0.159048 0.788359 -0.004475 -0.258462 0.128130 0.599499 0.075951 -0.930567 -0.993005 0.551486 -0.289826 -0.213350 -0.155828 -0.906946 -0.276768 0.286991 -0.458616 0.650573 -0.372995 -0.897781 -0.190611 0.225108 0.602343 -0.133970 0.120796 0.817681 -0.955351 -0.001962 0.651154 -0.752439 0.966151 -0.507894 -0.964079 -0.038324 0.233644 0.164050 -0.438825 -0.690405 0.233483 -0.431829 0.861081 0.943657 0.354821 -0.294746 -0.963288 -0.921947 0.992244 -0.421905 0.728626 -0.380750 -0.319685 -0.461985 0.844357 -0.717342 0.404045 -0.034847 -0.899661 0.448694 0.963191 0.751493 0.696255 0.929342 -0.756401 0.732176 -0.108981 0.477243 -0.103774 0.452194 0.786838 -0.870291 -0.979635 0.647919 -0.926634 0.375186 -0.646827 -0.889922 0.453239 -0.654583 -0.311827 0.181864 -0.035333 0.368488 0.719880 -0.190976 0.651146 0.123925 0.774177 0.751485 -0.427382 0.737368 0.502977 -0.731127 0.666711 0.746576 -0.998951 -0.442271 0.223819 -0.102725 -0.990077 0.010657 0.026984 -0.969712 -0.341424 0.100350 0.405474 0.011749 0.210428 -0.141288 0.357166 0.898602 -0.959423 -0.678168 0.267090 0.760457 0.130856 -0.081765 -0.115619 -0.094967 -0.330280 0.457000 -0.357598 -0.827302 0.725873 -0.690887 0.919274 0.726922 -0.133158 0.143092 -0.375803 -0.123235 -0.846251 0.651181 -0.092947 -0.187675 -0.248468 -0.687473 0.824073 0.961960 0.171240 0.181239 0.860562 0.211817 0.503071 0.127651 -0.027727 -0.366072 -0.954113 0.856655 0.538961 -0.284393 0.313654 -0.818637 -0.111695 0.039527 -0.509524 -0.192422 -0.233550 0.357317 0.950671 0.390647 -0.765918 -0.895581 0.041828 0.141136 -0.083256 0.793360 0.453663 -0.259183 0.755320 -0.375097 0.922056 0.615882 0.836719 0.425128 -0.256467 -0.191007 -0.940945 -0.210580 -0.334353 0.598017 0.505027 0.979302 0.779380 -0.606668 0.018829 -0.730145 0.200910 0.785279 0.627173 0.151581 0.175925 0.861255 0.256000 -0.782247 0.002391 -0.827255 -0.988887 -0.543946 -0.086438 0.766433 0.080957 -0.164382 0.382315 -0.082324 -0.739255 -0.874152 0.726669 -0.680199 -0.084732 -0.607684 0.917818 -0.579705 -0.628382 0.697197 -0.186373 0.390446 0.967053 -0.985463 0.175725 0.594225 0.166118 -0.648350 0.455480 -0.577881 -0.430596 -0.542129 -0.405137 -0.419483 -0.086074 0.508425 -0.653050 0.994883 -0.655957 0.729265 -0.087441 -0.395212 0.855113 -0.360772 -0.075411 -0.229618 0.031544 -0.157593 0.190677 0.403161 -0.460396 -0.995696 -0.206392 -0.493343 -0.981158 0.969333 -0.899118 0.184960 -0.679017 0.556363 0.607079 -0.109613 -0.985766 -0.798058 0.470904 -0.071840 0.710367 0.817854 -0.076958 -0.945590 0.547119 0.835601 -0.340802 0.402232 -0.525171 0.583788 -0.827386 0.506373 -0.573806 0.363291 -0.090465 -0.034201 0.367595 0.703143 0.472455 0.386436 0.672475 0.573338 -0.428604 0.993459 0.129700 -0.821525 -0.116154 0.143934 -0.619583 -0.645250 -0.927906 -0.909216 -0.827396 -0.004863 -0.854806 0.719723 -0.169262 -0.195607 0.121955 0.305567 -0.611820 0.294569 -0.188059 -0.185626 -0.342140 0.721475 0.780173 -0.974545 0.424618 0.252628 0.411891 0.097093 -0.174034 0.983288 0.090552 0.955666 -0.838237 0.974398 0.099600 -0.457820 -0.670852 0.171695 -0.367035 -0.498249 -0.833169 -0.221841 -0.778526 -0.002430 0.582551 0.343430 -0.696863 0.970731 -0.362001 0.115078 -0.214894 0.295859 -0.163447 -0.434722 0.321314 -0.738829 0.817907 -0.266794 0.358264 -0.356128 -0.283506 -0.551184 -0.400462 -0.121743 -0.576787 0.699139 0.420437 -0.247639 -0.129167 -0.946598 0.254113 0.037665 -0.168439 0.475587 -0.964766 -0.585888 -0.180983 -0.661629 -0.615157 0.457016 0.453449 0.169949 -0.247125 -0.709998 0.735227 -0.925810 -0.448827 0.553134 -0.192604 0.909436 -0.802994 0.523890 -0.641748 -0.203456 -0.597853 -0.218535 -0.504317 0.822584 0.533826 0.366516 0.875986 -0.212061 -0.595819 -0.292454 -0.736474 -0.560585 0.121658 0.082543 -0.222213 0.506501 -0.460441 -0.768764 -0.323550 0.292434 -0.478762 -0.588323 0.366624 0.072411 0.964810 -0.825980 -0.018153 -0.838184 0.697910 0.340099 -0.041639 -0.899944 -0.878436 0.454044 0.922640 0.655390 -0.179440 0.798626 -0.556671 0.224741 -0.493828 -0.293145 0.664156 0.627830 0.789398 -0.558057 0.134331 -0.671044 -0.326821 0.810780 0.621391 0.194417 -0.777543 -0.011985 -0.733172 -0.812732 0.162035 0.248674 -0.650916 -0.140056 -0.411227 0.307445 -0.039999 -0.289663 -0.238511 -0.117359 -0.634273 0.582048 -0.318733 -0.190944 -0.193211 0.187439 0.515911 -0.529054 -0.184731 0.305309 -0.087111 0.949600 0.634265 0.586068 0.760380 0.255655 -0.219515 0.982837 -0.756330 0.047312 -0.829895 0.405705 -0.704013 -0.480811 -0.734351 -0.115240 0.826634 0.225650 0.595097 -0.411878 -0.891709 0.960824 -0.829829 -0.210442 -0.230120 -0.023040 0.976997 -0.714209 0.447906 -0.207734 0.591100 -0.639206 -0.258134 0.225365 0.946862 -0.497754 -0.518980 -0.272653 -0.514916 -0.275310 0.774659 -0.344811 -0.869605 -0.929355 0.174378 -0.603955 -0.044595 0.001011 0.621695 -0.449499 0.589134 0.729986 -0.488675 0.759305 -0.480455 0.281205 -0.263735 -0.503458 0.566997 -0.815830 0.288808 0.158096 -0.455035 -0.969325 -0.616539 -0.508173 -0.467079 -0.135518 0.219173 0.018004 0.589172 -0.006168 0.673193 0.719567 0.064477 -0.152429 -0.884388 -0.980118 0.848582 0.737307 -0.429616 0.437716 0.467293 0.081709 0.197021 0.986838 -0.637086 0.933285 -0.516620 0.929911 -0.882544 0.772188 0.088007 -0.337579 0.802863 0.471469 0.154247 -0.664216 -0.664050 -0.626579 0.353788 0.925122 0.367253 0.026981 0.644690 -0.568270 0.874552 0.760302 -0.548388 0.723134 0.497608 0.021996 0.160850 -0.035099 -0.896295 -0.642129 -0.048261 -0.533381 -0.708844 0.435119 -0.603470 -0.591388 0.207307 0.484537 0.071033 0.010170 -0.043994 -0.774720 0.345954 0.291956 -0.401299 -0.300258 0.217078 0.965954 0.726723 -0.138232 -0.602316 0.601275 -0.377930 -0.150704 0.324409 -0.880322 0.871291 -0.514741 0.084580 0.974996 -0.156870 -0.963681 -0.558385 0.134286 0.471437 -0.161855 0.542898 -0.321256 -0.677318 -0.386069 0.688914 0.278687 -0.160789 0.034868 -0.429357 0.437912 0.734610 0.787722 0.403866 0.461333 -0.350510 0.801550 0.062607 0.271560 -0.349154 -0.612984 0.391238 -0.477863 -0.127725 -0.524182 -0.502867 0.715405 -0.487864 -0.061252 -0.150309 0.983574 0.776892 -0.607411 -0.337682 -0.900426 0.006520 -0.648767 0.378261 0.845731 0.386101 0.948905 0.283644 0.120710 0.736627 -0.312490 -0.417957 -0.613884 -0.510940 0.644650 0.657676 0.139905 -0.968334 0.048914 0.662042 -0.096058 0.524732 -0.840825 -0.380653 -0.963132 0.097923 0.469038 -0.979558 -0.125185 0.861627 -0.317240 -0.025611 -0.131853 0.033993 -0.647349 -0.286122 -0.579907 -0.698445 0.997522 0.540804 -0.961818 -0.314968 -0.877154 -0.575702 0.174091 0.767497 -0.918025 -0.686003 0.799163 0.130889 0.976039 -0.296895 -0.344379 -0.864786 0.322452 -0.307511 0.233137 -0.208511 -0.287069 -0.892048 -0.346884 0.395692 0.082341 0.521263 -0.570315 0.434992 -0.764859 -0.150222 0.736547 -0.767337 -0.609418 0.774729 -0.082305 -0.486572 -0.800973 -0.908214 -0.719075 -0.718999 -0.594217 -0.919912 0.411890 -0.618179 -0.216807 -0.932489 -0.482965 -0.894356 -0.240000 0.750172 -0.102866 0.472931 0.858123 0.550250 -0.131377 -0.059536 0.071513 0.298308 -0.624544 0.306654 -0.851914 -0.887997 0.539317 -0.461333 0.886731 -0.542988 0.052095 -0.914242 -0.451202 0.333020 -0.633241 -0.045420 0.413108 0.778649 0.336402 -0.803699 0.846160 0.853437 -0.698055 -0.393840 0.603609 0.199079 -0.920908 0.461732 -0.250671 -0.052285 -0.597804 0.820842 -0.753978 -0.222348 0.127496 -0.605892 -0.110345 -0.333187 -0.067225 -0.223614 0.123825 0.984870 -0.137856 0.672622 0.317891 0.228903 -0.372797 -0.269001 0.007553 0.963605 -0.072700 -0.146287 0.817042 0.229245 0.459873 0.420650 -0.571675 0.538965 -0.117618 0.177654 -0.513320 0.284579 -0.001505 -0.267298 -0.937769 -0.874009 0.126810 -0.048114 -0.207196 -0.940415 0.728272 0.916629 -0.955545 -0.409584 0.589251 0.362346 0.819319 -0.783546 -0.906655 -0.173128 -0.819941 0.020645 0.680584 0.997100 -0.750110 0.140458 0.417750 -0.321785 -0.320577 -0.699867 0.855868 0.166102 0.584711 -0.145636 0.898804 0.646942 -0.019645 0.025614 -0.401173 0.773160 0.085199 -0.672901 0.689788 0.129654 -0.082485 0.279040 -0.508000 -0.263166 0.495494 -0.414655 0.563705 0.675552 0.605990 0.244290 0.672653 0.855880 -0.615253 0.090403 -0.465905 0.064170 0.390536 -0.610037 -0.769728 -0.024753 0.244327 -0.870924 -0.377811 -0.775318 0.154691 0.221016 0.997842 -0.760111 0.548115 0.687630 0.369543 -0.534370 -0.033331 0.861543 0.202464 -0.537837 -0.553112 -0.233830 -0.862284 -0.947122 -0.989541 0.810368 0.908758 -0.604793 -0.099229 -0.557148 0.459377 -0.708693 -0.167185 0.689649 0.266554 -0.922858 0.818725 0.888743 -0.698176 -0.026584 0.109759 -0.700334 0.213305 -0.342126 0.987296 -0.417151 0.123505 -0.046035 -0.555608 -0.674031 0.416128 -0.108720 0.092138 0.553844 -0.055842 0.102598 0.364212 -0.147084 0.497804 -0.735017 0.295768 -0.042819 -0.443710 -0.871416 -0.353170 0.822844 -0.794274 -0.534445 0.711587 -0.492450 0.438971 -0.178654 -0.192784 -0.347724 0.479220 -0.205488 0.235125 -0.397275 0.748477 0.679517 -0.071307 0.164605 -0.429203 -0.979169 -0.281551 0.514955 0.123429 -0.917339 -0.632129 -0.378767 -0.652356 0.663639 0.578414 -0.096065 0.792223 -0.774756 -0.273221 0.997949 -0.309201 -0.561634 -0.494501 -0.870231 0.259712 0.312715 -0.217955 -0.261068 -0.892773 -0.982830 0.341656 0.855703 0.696687 -0.729650 0.020309 -0.732516 -0.708819 0.738757 0.782439 0.414610 0.821418 -0.849690 -0.964157 -0.830938 0.813949 0.614257 0.072997 0.606172 0.839501 0.799776 0.604120 -0.469701 -0.761858 -0.890381 -0.339931 0.497853 0.422334 0.442114 -0.763215 0.529561 0.459285 0.578442 0.385264 0.155972 0.848791 -0.594427 0.423455 -0.860028 -0.855670 0.205894 0.554582 0.965749 0.356204 0.590426 -0.865189 0.170153 0.204683 0.207808 -0.223676 0.044184 0.007584 -0.619555 0.574483 0.245725 -0.509936 -0.765448 -0.256421 0.912398 0.676666 -0.019636 0.441959 0.135951 -0.441194 -0.172776 -0.708078 -0.592403 0.232797 0.715378 -0.452430 0.377127 -0.078728 -0.897848 0.342876 -0.722524 0.692578 0.477687 0.447629 -0.102739 -0.314506 -0.776047 0.941444 0.693078 -0.395603 0.515927 -0.061197 0.094461 0.750479 0.682382 0.006859 0.427146 -0.337254 -0.551181 -0.436904 0.221552 0.276042 -0.144981 0.629150 -0.491161 -0.429603 -0.823281 0.885966 0.491669 -0.721129 0.228842 0.769145 0.971449 -0.293471 0.216774 -0.131290 0.392023 0.440726 -0.189846 0.085101 -0.954876 -0.673919 -0.976096 0.139585 -0.923439 0.706286 -0.853556 0.503706 -0.630967 -0.404737 -0.933197 0.590585 0.871305 -0.078178 0.219735 -0.619855 0.492218 0.396454 -0.733889 -0.016113 0.675325 0.494953 -0.246968 0.646775 -0.798518 
0.969806 -0.484516 0.593505 0.410532 0.325638 -0.321395 0.455656 0.651720 -0.297490 -0.404760 0.728280 -0.591204 -0.258316 0.231986 -0.222171 0.336947 0.298789 -0.631586 0.208253 -0.779389 0.588149 0.588397 0.712829 -0.015397 0.854508 -0.303284 -0.340072 0.349461 0.449748 -0.693297 0.550943 0.419554 -0.177813 0.144448 -0.169914 -0.852174 0.823053 -0.714258 0.799545 -0.474437 -0.119018 0.527826 -0.065641 0.622666 -0.240188 0.712187 -0.040386 -0.941399 -0.919399 -0.832133 -0.720788 0.668750 0.756264 0.992041 -0.346647 0.610772 -0.311243 0.313281 -0.039766 -0.861494 0.619983 -0.488823 0.558060 -0.557829 0.655624 -0.611854 -0.410004 0.478677 -0.326112 -0.610458 -0.995760 0.554870 0.917368 -0.061401 0.177536 -0.322820 -0.349214 -0.862850 -0.264219 -0.268612 -0.694983 0.014993 -0.599862 -0.938719 0.007034 0.053490 0.672053 0.695791 -0.633229 -0.367713 0.834297 0.986754 0.143464 0.392356 -0.571075 -0.200912 0.780502 0.018922 -0.722235 -0.545610 0.408463 -0.717995 -0.990741 0.325831 0.220604 0.186795 -0.996989 0.871390 0.323945 -0.261208 -0.397222 0.628962 0.753785 0.002915 0.690242 -0.239181 -0.943594 0.362295 -0.543390 -0.576823 0.994582 -0.709094 -0.590069 0.138045 0.683262 -0.161144 0.937133 0.463765 0.857778 -0.785101 0.918154 0.266241 -0.503096 0.927413 -0.407928 0.717508 0.114209 -0.404917 0.588898 -0.561846 0.333875 -0.808324 -0.932885 0.087660 0.194591 0.757357 0.848479 0.250997 0.119652 -0.694912 0.674173 0.114234 -0.404006 -0.915896 -0.747720 -0.720743 -0.077039 -0.810587 0.743021 -0.219261 -0.595689 0.661176 -0.953020 -0.098785 0.588589 -0.360948 -0.381277 -0.297202 0.234135 -0.792378 0.140951 -0.431990 -0.600702 0.208067 0.655670 0.593889 -0.034576 0.504149 -0.155114 -0.914923 0.809237 -0.480941 0.199311 -0.594769 -0.396836 0.451590 -0.315512 0.526124 0.641003 -0.572491 -0.693137 -0.954686 -0.911315 -0.646157 -0.053470 0.677274 -0.007105 0.565253 -0.619928 -0.772970 0.772875 0.521023 -0.204959 -0.827828 -0.270911 -0.549289 0.766061 0.694513 0.954860 -0.389053 0.779590 0.764097 0.130007 -0.021099 -0.830671 0.733170 -0.569509 -0.146183 0.259295 -0.928506 0.281326 0.566158 -0.883192 0.370011 0.920000 0.063338 0.047285 -0.087105 -0.371409 0.427357 0.139925 -0.598534 -0.051620 0.934966 -0.426362 0.677469 -0.614323 -0.660300 0.371982 -0.659463 -0.049353 0.151572 -0.895366 -0.919346 -0.869527 -0.726037 0.813824 -0.439036 0.127780 0.073119 -0.367542 -0.590894 -0.360724 -0.250733 0.779118 -0.440723 0.812605 -0.173597 0.472172 -0.558804 -0.746240 -0.387903 -0.157338 0.202140 -0.452937 0.416300 -0.120391 -0.067260 0.756000 -0.748409 0.273278 -0.293353 0.403164 0.377912 -0.212699 0.533637 0.651875 -0.398875 -0.905399 -0.220345 0.674244 -0.272941 0.188761 -0.686479 0.476326 -0.032121 -0.127203 0.288931 0.794282 -0.655031 0.730126 -0.951958 -0.042933 -0.427212 0.250181 0.504130 0.989088 -0.870210 -0.563130 0.745088 -0.618619 0.710148 -0.548264 0.784545 0.088060 0.239037 0.318182 -0.260065 0.840162 0.412783 0.519590 0.514407 -0.860158 -0.291649 0.827927 0.616168 0.676230 -0.299276 -0.094902 0.470511 0.045694 -0.364775 0.518553 -0.997240 0.208013 -0.231266 0.506891 0.197101 -0.101476 0.943761 -0.057811 0.279905 0.653909 0.393925 0.064450 -0.258031 -0.367038 -0.617368 0.481904 -0.526875 0.795414 0.001494 0.987531 0.935256 0.709844 0.815458 0.551424 0.386074 -0.483817 -0.543478 -0.143415 0.561876 0.091747 -0.624862 0.564637 -0.700240 0.143872 0.071528 0.496861 -0.957603 0.015289 -0.560950 0.322302 -0.330802 0.832975 -0.613248 0.411167 -0.534062 -0.230616 -0.106930 -0.060938 -0.435202 0.894564 -0.073407 -0.499946 0.604408 -0.257948 -0.948522 -0.009518 0.258234 -0.492000 0.847067 -0.179889 0.599747 -0.777794 -0.615252 0.899507 0.366078 0.456275 0.396368 0.408475 -0.528436 0.835418 -0.269224 0.140761 0.668393 0.117529 -0.448072 -0.865669 0.886912 0.444998 0.073393 -0.548290 0.339563 0.999987 -0.048236 -0.056029 -0.257961 0.003242 0.934453 -0.999727 0.511243 0.781521 -0.179616 0.110990 -0.996274 0.205131 0.010497 0.369804 -0.338593 -0.593135 -0.221721 0.132970 -0.757717 0.509055 -0.726268 0.910676 -0.373416 -0.174340 -0.954992 -0.486504 -0.729342 0.118401 -0.034794 0.610221 0.118388 0.916970 -0.445808 0.860426 -0.079788 -0.511355 0.860699 -0.568545 -0.729835 -0.318917 0.542446 -0.726109 0.886214 -0.447057 0.643695 -0.452379 -0.040192 -0.578026 0.680591 0.202092 0.931029 0.954323 0.112768 -0.442387 -0.220017 0.157776 0.071108 0.050641 -0.723823 -0.963686 -0.339139 0.394565 0.953284 0.215053 0.254991 -0.126503 0.703698 0.115690 0.304952 0.973863 0.796773 -0.152602 -0.752246 0.682988 0.400341 0.891450 -0.769392 -0.639851 -0.686576 0.911199 0.562241 -0.755547 0.865522 -0.324991 -0.197935 -0.354495 0.832785 0.873173 0.696146 -0.891039 0.909487 -0.642993 0.503526 0.862772 0.572060 -0.241483 -0.263732 0.275758 0.874208 -0.958780 0.249621 0.670981 -0.111382 0.497375 0.353969 -0.711041 0.388825 0.584577 -0.350891 0.702248 0.495776 -0.788650 0.946701 0.361299 -0.113641 -0.251234 -0.993196 -0.280857 -0.378061 0.702950 -0.171895 -0.468573 -0.940043 -0.668369 -0.605801 0.632017 0.090148 0.130467 -0.092224 -0.035644 0.171687 -0.842604 -0.364663 -0.939695 0.654772 0.989306 -0.650735 0.043597 0.573883 -0.001627 -0.254155 0.069659 0.209723 -0.307454 -0.569042 -0.903918 0.441312 -0.562238 -0.184775 -0.936748 -0.859288 0.643330 -0.405322 -0.799331 0.974961 -0.011123 0.832687 0.065109 -0.880656 -0.259538 -0.970535 0.291031 -0.102141 -0.335197 0.351337 -0.447370 -0.345891 0.700601 0.596227 -0.772008 -0.301026 -0.657928 0.297651 0.908697 0.034618 0.728609 -0.995221 -0.524070 -0.833629 -0.179996 -0.460818 -0.692917 -0.536667 0.133860 -0.492248 -0.561706 -0.877263 -0.659562 0.503404 -0.757919 0.080900 0.532869 0.533112 0.978759 -0.802328 -0.115551 -0.468611 -0.148219 -0.414950 -0.872384 0.079772 0.284024 -0.530312 -0.622577 0.192721 0.504306 -0.893968 0.197500 0.980236 -0.727597 -0.982496 -0.480582 -0.420514 -0.519163 0.653278 0.087237 -0.080868 0.776015 0.427676 -0.577465 -0.981904 -0.491424 0.955404 0.551208 -0.512665 -0.846924 -0.564343 0.018724 0.004857 0.020707 0.146341 -0.915371 -0.695269 0.616029 -0.537948 0.497453 0.120335 -0.431916 -0.305047 0.100571 -0.159513 -0.287544 0.619989 0.419972 0.193294 0.273267 -0.492790 -0.887575 0.049282 0.934885 -0.465040 0.067378 -0.556538 -0.509635 -0.381413 -0.069203 -0.356559 0.054244 0.949521 0.648297 -0.925049 0.095862 0.732926 -0.620317 -0.288109 -0.805022 0.877135 0.832226 -0.236938 -0.427912 -0.067203 0.603548 0.284545 -0.447214 0.023520 -0.522162 0.826052 0.530730 -0.409737 -0.124666 0.465616 0.125224 0.942712 0.909077 0.615588 -0.438701 -0.160126 -0.740971 0.615543 -0.210605 0.907327 0.690494 0.885257 0.640253 -0.929823 -0.402853 0.835231 0.947312 -0.570627 -0.401707 -0.480600 0.362170 -0.798159 0.803945 0.914955 0.225361 -0.718217 0.741008 -0.243909 -0.127954 -0.383658 -0.778293 0.997270 -0.440946 -0.869216 0.612858 0.120354 -0.029342 0.871888 -0.264103 0.760053 0.779214 -0.573609 0.645310 0.419467 -0.503432 -0.757542 0.254698 -0.556120 -0.328170 0.852991 -0.036719 -0.966000 -0.945168 -0.232774 0.948955 0.280193 0.049009 0.689963 -0.963716 0.921055 -0.693695 -0.742009 0.918325 -0.134641 -0.611225 0.531184 0.985713 0.359433 0.403071 -0.278391 0.119486 0.182286 0.148000 -0.235204 -0.398247 0.644569 0.007254 0.856451 -0.911551 0.679084 0.709442 0.051730 0.713084 0.764274 0.818955 0.662040 0.044467 -0.132036 0.352002 0.080751 -0.210981 0.658307 0.338743 -0.292656 -0.476334 0.727518 -0.761472 -0.490621 0.086951 0.641599 0.230988 -0.793562 -0.176115 -0.621011 -0.028766 0.425638 -0.976443 0.978488 0.282089 -0.887994 0.657572 -0.008469 0.163736 0.370657 -0.244195 -0.017309 0.032697 0.800272 0.850655 -0.615301 -0.118977 -0.360326 -0.956994 -0.780234 0.347018 -0.433328 0.947284 0.585546 0.076051 0.034235 0.227145 -0.692960 0.240673 -0.948971 -0.313971 -0.788093 0.476667 -0.290414 -0.809605 -0.241244 -0.178408 0.847968 0.750286 0.985328 0.218625 -0.493909 -0.031981 -0.748679 -0.693638 -0.181326 -0.363980 0.187385 0.458348 -0.320974 0.407151 -0.194634 0.245699 0.354435 -0.609088 -0.678250 -0.611330 0.618057 -0.371210 0.629343 0.669086 0.314819 0.841250 0.145753 -0.975595 -0.968354 0.904509 -0.154003 0.879614 0.654795 -0.168674 0.098238 -0.839114 0.799345 0.349560 -0.532752 -0.381981 0.985580 0.654633 -0.923633 -0.335394 0.061784 -0.118267 0.910305 -0.583781 0.272645 -0.767945 -0.195111 -0.109299 -0.139155 -0.565768 -0.440213 -0.824336 -0.724518 0.705540 -0.799931 -0.692872 0.610049 0.046066 -0.813258 0.264843 0.877391 0.284980 0.425729 0.676736 -0.365460 0.892977 -0.705245 -0.379880 0.547611 -0.628878 0.284726 -0.390605 0.252854 0.195030 0.025614 -0.474501 0.427085 0.830503 0.416200 -0.712070 -0.735264 0.975987 -0.536406 -0.459782 0.681528 -0.336337 -0.152654 0.291576 0.709728 0.034088 -0.443580 0.587120 -0.680932 0.982149 0.263856 -0.046392 0.875126 0.558611 0.573728 0.422737 0.929732 -0.141547 -0.967868 0.182587 -0.946516 0.057746 0.708086 0.480569 -0.111750 0.124286 0.768500 0.152985 0.100273 -0.767906 0.693203 -0.218199 -0.104244 -0.459451 -0.926623 -0.394515 0.574638 -0.370203 -0.807396 0.893706 -0.388054 0.456460 -0.152686 -0.512928 0.015071 -0.578958 0.909809 -0.055197 0.279496 0.941941 -0.872610 0.332980 -0.000313 0.835475 -0.186451 0.887937 -0.040239 -0.417951 0.040922 -0.939965 -0.185858 -0.265875 -0.158165 0.709899 0.274674 -0.084787 -0.684617 -0.150688 0.545009 -0.492013 -0.256982 -0.843045 0.964447 0.590332 -0.355974 -0.020482 -0.988626 -0.446165 0.924321 0.290870 -0.504224 -0.948289 -0.376150 0.495462 0.887186 0.437399 0.383399 -0.153052 -0.980553 -0.575679 -0.093018 -0.166410 0.158446 0.748818 -0.456512 -0.566880 -0.335970 -0.141129 0.282432 -0.790960 0.366859 -0.974550 -0.634006 0.331306 0.615783 0.010021 -0.689176 0.627157 0.563856 -0.764854 -0.081973 -0.940369 -0.713143 0.541877 0.555094 -0.825957 -0.020724 -0.061507 0.020991 -0.001277 0.362813 0.927973 0.832313 -0.478741 0.676791 -0.624199 -0.045621 -0.659178 0.234673 -0.763189 -0.450139 -0.398469 -0.737738 -0.084144 0.932838 0.878044 0.925876 -0.756338 0.505201 0.489732 -0.521192 -0.576771 0.549363 -0.234336 0.965105 0.104456 -0.060292 -0.055619 -0.957051 0.960698 0.943104 0.405762 0.888672 0.775417 0.927021 0.565463 -0.848782 -0.118599 0.906285 0.385891 0.118212 -0.543854 0.987422 0.380473 0.372001 0.920260 0.258518 0.297878 -0.836078 -0.236281 -0.212390 -0.357271 0.186947 -0.663027 0.408394 0.152053 0.441429 -0.651899 -0.903566 0.484378 -0.691200 -0.960461 -0.109860 -0.802528 0.814956 -0.182838 0.762935 0.966174 0.698562 0.669219 0.352065 -0.183226 -0.874635 0.339487 -0.802752 0.497367 0.259747 0.455765 -0.204756 0.423669 -0.780516 0.582854 -0.933602 0.406432 0.919826 0.474792 -0.441515 0.361255 0.822893 -0.345081 -0.154367 -0.868307 -0.305543 0.735774 -0.670835 -0.490587 -0.447064 -0.907901 -0.524413 -0.748502 0.761319 0.827652 0.068272 0.886684 0.167139 0.265520 0.384050 -0.573114 -0.278715 -0.820705 0.850555 -0.059231 0.762149 0.916953 -0.652799 0.681975 0.391745 -0.094314 0.043230 0.214638 0.560605 0.888864 0.346331 -0.744938 0.624637 0.675496 -0.235525 -0.822427 0.767595 0.240062 -0.570929 0.528914 0.067714 0.497343 0.415598 -0.765147 -0.237137 -0.200352 -0.338261 0.484148 -0.021057 -0.487706 -0.575083 -0.258908 -0.570753 -0.227881 -0.576934 0.820991 0.677805 0.466297 0.035629 0.238409 0.355160 -0.618040 0.493471 -0.020202 -0.942544 -0.742054 0.157371 0.825051 0.498008 0.586441 0.353966 -0.434277 0.083784 -0.230436 -0.199424 0.846647 0.569212 0.462315 0.330795 -0.451845 0.974609 0.755712 0.289247 -0.596144 -0.472169 0.712313 -0.775153 -0.794365 0.178610 0.260476 0.444044 -0.466230 0.642436 -0.062484 0.513568 0.699892 0.195462 -0.329062 0.524944 -0.306530 -0.742620 -0.121090 0.259193 0.341164 0.648473 -0.940231 0.187811 0.217685 0.522084 -0.481395 0.765840 0.496694 -0.725683 0.055087 0.900549 -0.197852 -0.232600 -0.874603 0.007783 0.946010 0.385873 -0.548172 -0.520219 0.028309 0.389343 0.993349 -0.271798 -0.415195 -0.335713 -0.746854 0.278276 -0.078333 0.132055 -0.462531 -0.737169 -0.219472 -0.402762 0.450641 0.998213 -0.880678 0.969247 0.764054 0.616016 -0.756436 -0.180859 0.516565 0.045712 0.586541 0.641962 -0.946504 0.532551 0.027834 -0.494677 -0.987668 -0.943856 0.894667 -0.994320 -0.215655 -0.520528 -0.330033 0.037491 0.757748 0.591634 -0.830454 -0.704783 0.854465 -0.049926 -0.107545 0.305106 -0.051712 0.011777 0.274353 -0.287659 -0.372207 0.517917 0.531482 -0.855642 -0.436370 0.118022 0.786319 -0.382875 -0.349426 -0.185846 0.122449 -0.337095 -0.129703 0.017115 -0.331414 0.654643 0.496588 0.338553 -0.307867 0.254336 -0.069813 -0.138321 0.549553 -0.215348 0.811754 -0.557992 -0.910242 -0.239959 0.453785 0.364112 0.472382 -0.918423 -0.117971 0.003864 -0.774065 0.445658 -0.878114 -0.987746 -0.937216 -0.227540 -0.173592 0.185232 0.435365 0.696706 -0.797652 -0.896049 0.351348 0.698936 0.442504 -0.956518 -0.046729 -0.627309 -0.094839 -0.497176 0.157343 -0.283086 -0.055168 0.247101 0.476956 -0.601383 -0.388787 -0.050662 -0.519806 0.493242 0.953201 -0.293871 -0.061100 -0.924912 -0.281616 0.001684 -0.152453 0.544792 -0.813083 -0.717088 0.241498 -0.610735 -0.613137 -0.407154 -0.911800 0.829366 -0.363673 0.041472 -0.797943 0.541488 0.544296 0.359400 -0.741597 -0.510872 -0.393499 0.735358 -0.112256 0.217714 -0.315304 0.367938 -0.289044 -0.362102 -0.925933 0.649856 -0.287015 -0.207549 -0.348460 0.560532 -0.662757 -0.161543 0.843444 0.578740 0.227721 -0.769693 -0.828414 0.315922 -0.940327 -0.192086 -0.642607 -0.738270 -0.650598 0.901689 0.621130 -0.392195 -0.609183 -0.772369 -0.656837 0.278561 0.445345 0.027859 -0.353500 -0.843699 0.665757 -0.279433 0.806157 -0.621258 0.513018 -0.542302 0.939274 0.850261 0.296154 0.782718 0.429002 -0.476124 -0.986975 0.600588 0.839797 -0.927302 -0.591498 -0.802809 -0.665572 -0.242096 -0.901120 0.955558 0.365708 -0.510303 -0.816811 0.708872 0.768258 0.628534 -0.263269 -0.585242 0.784835 -0.597512 0.135325 0.590992 -0.218770 -0.351656 -0.951310 -0.279496 -0.501395 0.344844 -0.496778 0.927606 0.868720 -0.483752 0.528194 0.708517 -0.411054 0.936696 0.905708 -0.076626 -0.305401 -0.995412 -0.121068 -0.939692 -0.505715 0.062120 0.769180 -0.737457 -0.309346 -0.494090 -0.322699 -0.524511 -0.091602 0.812626 -0.933519 0.689628 -0.539030 -0.884830 -0.589868 -0.040426 0.460014 -0.086646 -0.112819 0.328734 0.429601 -0.584625 0.037251 -0.981453 -0.647929 -0.057041 -0.058079 0.046670 -0.052453 0.820853 0.106978 0.441832 -0.117027 -0.123842 0.704375 0.573627 0.382068 -0.618324 -0.950884 -0.709533 -0.805698 -0.884404 0.980094 -0.344728 -0.769234 -0.609774 0.614846 0.690781 0.303580 -0.497973 0.019515 -0.266818 -0.082598 -0.943234 -0.248271 0.269473 -0.000275 0.693650 -0.683857 0.947272 0.514504 0.423122 0.389104 -0.602523 -0.700721 0.093479 0.971104 0.681348 0.475155 -0.979780 0.971814 0.669457 -0.864183 0.951909 -0.675271 -0.633417 -0.657865 0.939575 -0.942636 0.645715 -0.558398 0.076878 -0.621103 0.359004 0.133644 0.130626 -0.371523 -0.866631 -0.175724 -0.055379 -0.919358 -0.661220 -0.632258 0.469746 -0.263743 -0.332978 -0.436774 -0.292639 -0.651630 -0.961619 -0.272418 -0.679816 0.707838 -0.136602 -0.727907 -0.967432 0.229981 -0.385772 0.972143 0.287345 -0.740057 -0.586254 -0.635776 -0.361160 0.772750 0.497868 0.769466 -0.598773 0.631237 -0.406258 0.345848 0.711879 -0.067478 0.713591 0.181625 0.668779 -0.619387 0.744851 -0.623860 -0.271018 0.783232 0.103722 0.049166 0.491071 0.967120 0.321259 0.523638 0.197101 0.935487 0.495782 -0.515553 -0.804570 0.909527 -0.151330 -0.165730 0.682277 -0.653462 -0.396264 -0.916496 0.977775 0.197478 0.429353 0.689654 -0.870000 0.142944 -0.128720 0.798778 0.523556 -0.383869 -0.825082 -0.747461 -0.600637 0.278640 0.301705 0.890434 0.245760 -0.377036 0.414072 -0.557139 -0.441549 -0.090146 -0.072693 -0.246119 -0.180619 0.775978 0.588151 -0.498342 -0.877485 -0.808114 -0.414838 -0.899709 0.389364 -0.985485 0.789945 0.519364 0.157459 -0.338776 0.318142 -0.318985 0.277355 0.493060 -0.066446 0.676718 -0.228300 -0.764741 0.567152 -0.982540 -0.141777 -0.018776 -0.539679 0.416675 0.891078 0.387628 -0.829444 -0.289541 0.163606 0.758707 0.212117 0.286121 0.950593 0.797279 0.386412 0.339957 0.811794 0.176357 -0.140679 -0.030747 0.837581 -0.822537 0.650268 0.114936 0.670523 -0.416178 -0.208345 -0.557776 -0.180919 -0.641193 -0.540316 0.677304 0.340031 -0.079996 0.093979 0.231109 -0.692367 0.264535 0.941568 0.471239 0.023242 0.153685 -0.242640 -0.026165 -0.049035 -0.856228 -0.686208 -0.237241 0.320129 0.173113 0.732012 0.157710 0.350576 0.382281 -0.727354 0.021099 0.966103 0.064301 0.463323 -0.214816 0.423108 0.923006 -0.537512 -0.236861 -0.156989 0.556467 0.994248 0.150643 -0.178998 0.935817 -0.378118 0.844244 0.089502 0.379242 -0.181922 -0.959533 0.523014 0.131870 -0.196774 -0.156857 -0.695017 -0.464762 -0.999147 0.655559 0.917519 -0.726500 -0.323342 0.883621 0.337801 -0.860019 -0.331195 -0.239092 -0.937013 0.131293 0.524047 -0.094002 -0.312240 0.518296 -0.943359 0.508762 0.454112 -0.321477 0.353006 -0.456385 -0.942234 -0.828916 -0.415919 0.580780 0.302954 0.387307 -0.576076 0.607938 0.922546 -0.575223 0.263497 0.840065 -0.301723 0.940155 0.723686 -0.963923 -0.919864 -0.607509 -0.203014 -0.856877 0.523784 -0.678967 0.049121 -0.788456 0.839329 0.105762 0.720306 0.293441 0.784285 0.073312 0.837056 0.842051 0.244396 -0.578863 0.422832 -0.452650 0.808445 0.846755 -0.844712 0.730990 -0.728468 0.418785 0.571055 -0.030191 0.358940 0.294741 0.005887 0.439075 0.687232 0.802873 0.582199 0.211016 -0.876094 -0.368681 0.422561 0.963235 0.737081 0.142867 0.256676 0.521367 -0.783821 0.093732 0.363418 0.460575 0.514869 -0.213750 -0.992074 0.323314 -0.366995 -0.836786 0.054304 -0.095462 0.581998 -0.374641 0.874347 -0.059062 0.920101 -0.119766 -0.619987 0.607333 -0.316894 0.962212 -0.181651 -0.192988 -0.406469 -0.759090 -0.229753 -0.669388 0.383777 -0.973077 0.851979 0.599957 0.120655 0.215398 0.060532 -0.364476 -0.998353 0.068458 0.958838 -0.365347 0.231671 0.013142 0.539190 -0.186330 0.638502 0.413537 0.754607 0.558603 -0.706230 -0.865379 0.165935 -0.023123 -0.903167 0.984285 0.783889 -0.309636 -0.774805 -0.445864 0.020976 0.608972 -0.418941 -0.127044 0.208929 0.701714 -0.911647 -0.730539 -0.662762 -0.909999 0.337919 -0.703924 -0.275347 -0.430409 0.309219 -0.736157 0.383260 -0.052279 0.677380 0.137868 -0.493677 0.971151 0.272489 0.672259 -0.051972 0.369321 0.656543 -0.268084 -0.940315 0.881738 0.286052 0.080661 0.490711 0.867111 0.953617 -0.300360 0.568825 -0.958030 -0.030899 0.906063 -0.868029 -0.692979 -0.797861 -0.143376 -0.123389 0.511357 0.120467 -0.740128 -0.540922 -0.202152 0.397740 -0.034599 -0.231001 -0.329772 -0.362341 0.717026 -0.960451 -0.705797 -0.551058 -0.900766 -0.824059 0.734994 0.179896 0.666652 0.602105 0.133512 -0.633708 0.170930 0.175482 0.335394 0.076992 0.307453 0.642414 0.279131 -0.835923 -0.480974 -0.209512 0.284544 -0.221102 0.249566 -0.917608 -0.823363 -0.785033 -0.148609 -0.153135 -0.147374 -0.431583 -0.113585 0.146829 0.017359 -0.014351 0.322770 -0.247646 -0.834455 -0.010578 -0.645541 0.299057 0.355714 0.525389 -0.525461 -0.308892 -0.397619 0.781992 -0.666478 0.881512 0.946069 -0.147452 -0.328000 0.230613 0.631445 0.921566 0.313005 0.808082 -0.863468 -0.835604 -0.345052 -0.010842 -0.267187 0.541363 -0.864013 0.750172 -0.472988 0.458757 -0.497474 -0.307443 -0.551821 -0.143016 0.991614 0.803893 -0.617627 -0.533847 -0.505000 -0.015246 -0.751855 -0.171478 -0.133734 -0.805785 0.681069 0.538266 0.424828 0.312515 0.459832 -0.262167 0.120597 0.596364 -0.097771 0.775545 -0.414478 0.635042 0.316907 -0.278491 0.385214 0.843919 -0.819734 0.887739 -0.463524 -0.371556 -0.255276 -0.471910 -0.567663 0.127097 -0.005757 -0.072663 -0.888149 0.242388 0.755859 -0.021883 0.436603 0.436928 -0.483617 -0.138569 -0.250557 0.976215 0.599264 0.870040 0.572579 -0.498507 0.645584 -0.841899 -0.863465 -0.037508 -0.120390 0.521748 -0.193589 0.059876 0.409487 0.342887 0.688320 -0.845789 0.870977 -0.879343 0.281307 -0.134780 0.047994 0.393158 -0.892392 -0.196147 -0.628725 0.544211 -0.759219 -0.112341 -0.594358 -0.009777 -0.136126 -0.995095 -0.139737 -0.563547 -0.493602 -0.494153 -0.405446 -0.357067 0.468339 0.474165 -0.835319 -0.725250 -0.465959 0.574168 0.617637 -0.777639 0.728379 0.488614 -0.656982 0.009686 -0.646166 0.391012 -0.597156 -0.538558 -0.805135 -0.225880 -0.994347 -0.564354 0.661778 -0.588705 0.425869 -0.474348 -0.583800 -0.713868 -0.037895 -0.077402 -0.208021 0.556659 0.565531 -0.739683 0.030824 0.730212 -0.464933 0.564865 0.304380 -0.847296 0.787226 0.032759 0.641319 -0.869756 -0.957555 0.995153 0.521256 -0.554711 -0.543405 0.716121 0.219409 -0.537752 -0.848233 -0.118813 -0.126457 0.577636 0.406839 0.289744 0.863767 -0.631056 -0.787658 -0.344254 0.925604 0.777873 -0.083937 -0.043572 0.508085 0.451130 -0.478708 -0.187535 0.603835 -0.691482 0.845224 0.245153 -0.561238 0.887669 0.240306 0.960019 -0.667042 0.696901 0.676140 0.552366 -0.840850 0.827907 -0.566447 0.032693 0.405542 0.840392 -0.677564 0.269309 -0.790663 -0.465222 0.925055 -0.865060 -0.687348 -0.158882 0.091368 0.820737 -0.707751 0.612660 -0.366798 0.896084 0.921178 -0.521574 0.141237 -0.640059 -0.633906 -0.618457 -0.680040 -0.300948 -0.921556 0.996100 -0.748582 -0.762406 0.824007 -0.315029 0.270287 0.229549 -0.474636 0.592723 -0.501142 -0.265300 -0.872498 -0.576086 -0.130359 -0.559847 0.265032 0.961008 -0.739110 0.557281 0.573668 -0.105908 0.453365 0.494847 0.372518 -0.405398 0.854787 0.738612 -0.023855 -0.825253 -0.562336 0.054589 -0.829153 -0.310918 0.292183 0.994853 0.374054 -0.437530 0.224402 0.899417 -0.844807 0.723260 -0.365882 -0.717305 -0.852826 0.503758 -0.277152 0.412206 0.464767 -0.016262 -0.030513 0.038435 0.877829 -0.577148 -0.466719 0.250347 0.017453 -0.611931 -0.011041 0.993598 -0.437185 0.426623 0.048187 -0.266338 -0.884295 -0.659630 -0.271485 0.489759 -0.097160 0.952917 0.389176 0.058033 0.676177 -0.976706 0.340728 0.823352 0.527052 -0.936424 0.235558 -0.008181 0.047313 -0.794955 -0.969746 -0.074857 -0.372104 -0.436465 -0.824510 0.645350 -0.048396 0.164449 0.638948 0.514419 -0.408928 -0.312865 -0.751919 -0.293223 0.027505 -0.023404 -0.803464 0.930345 -0.070487 0.585712 -0.011622 -0.394310 0.609006 -0.670894 -0.570958 0.136058 -0.607318 0.664600 -0.872123 0.439996 0.869645 -0.841869 -0.634862 -0.502459 -0.278334 -0.459372 -0.857109 0.673269 0.705077 0.781838 0.187688 -0.703851 -0.531027 0.435769 0.002927 0.496477 -0.587635 0.199463 0.426822 0.341878 -0.214825 -0.584800 0.947569 -0.605819 -0.255693 -0.623389 0.530239 0.136989 -0.958789 0.658117 -0.423016 0.910855 0.816247 -0.057877 -0.591604 -0.462087 0.482751 -0.448713 -0.788818 0.187828 -0.666875 0.398871 0.483977 -0.197902 -0.165360 -0.513096 -0.701425 0.247006 0.686367 0.725398 -0.411116 -0.528458 -0.859402 -0.463547 -0.134277 -0.115095 -0.086936 -0.604038 -0.978106 -0.045725 -0.945921 -0.401122 -0.134870 0.870326 0.541001 0.273526 -0.591761 0.023752 0.824813 -0.380578 -0.788420 -0.842062 -0.981707 0.695558 -0.039964 -0.147067 -0.817538 0.258611 -0.900061 0.868829 -0.015991 -0.311177 -0.659629 0.124607 0.225277 0.206094 -0.990488 -0.861659 0.602056 -0.968594 0.092615 0.656135 -0.369716 0.957745 0.526461 -0.828715 0.231271 0.934700 0.195037 0.056084 -0.445878 0.406617 0.214022 -0.427585 0.102175 -0.825942 0.425348 0.284637 0.432670 0.525287 0.153465 -0.583321 -0.785889 0.493836 0.541286 0.439387 -0.300071 0.550799 0.577728 -0.698015 0.582205 -0.329657 0.958120 -0.787511 -0.371912 0.484582 -0.616226 0.859359 0.419282 0.578811 -0.084557 0.973404 -0.014571 -0.870535 -0.454181 -0.912396 -0.696476 0.971167 0.372240 0.736193 0.496454 -0.474294 -0.847128 0.710565 -0.980459 0.694159 0.149952 -0.280529 0.244957 -0.272320 0.021456 -0.172838 0.398023 -0.020423 0.039651 -0.973889 -0.535842 0.423425 0.885470 0.883440 0.002237 -0.199087 0.856844 0.987665 -0.069622 -0.597337 -0.924731 0.233902 -0.626170 0.447510 -0.029904 
0.870285 0.973215 0.122968 0.580850 0.992757 -0.182873 -0.269198 -0.287773 -0.937916 0.458482 0.733684 -0.110754 -0.143496 -0.286740 0.928897 -0.117385 0.177418 0.352322 -0.231915 0.060858 -0.645442 0.568998 -0.082298 -0.657776 -0.500623 0.320366 -0.582507 0.733279 0.694196 0.865003 -0.296626 0.564481 0.838218 0.826342 0.145330 0.830974 -0.356531 0.876132 -0.456798 -0.294447 0.334614 -0.723115 0.594799 -0.808882 -0.009855 0.523695 0.073733 -0.832437 -0.123983 0.841818 0.228422 0.230575 0.410816 -0.853876 0.572799 0.910193 0.466490 0.990292 0.643472 0.160686 0.855295 -0.653154 -0.274834 0.693513 -0.826811 0.870497 0.524487 -0.183342 0.746629 -0.932311 0.522211 0.081243 -0.655426 0.117009 0.272361 0.334720 -0.359296 -0.653906 0.502283 0.516721 -0.812087 -0.269295 -0.252703 0.598729 -0.123171 -0.679904 0.508922 -0.656681 -0.689612 0.152394 0.504004 -0.834317 0.499240 -0.770829 0.859196 0.672429 -0.900332 0.383683 -0.510913 0.846297 0.451372 -0.988702 -0.072460 0.795946 0.128307 -0.800099 0.130666 0.769012 -0.454005 -0.367050 0.285733 -0.266093 0.363655 -0.966970 -0.667364 -0.759516 -0.646875 0.841558 -0.416197 -0.336487 -0.006048 -0.912193 -0.170804 -0.506807 -0.683022 -0.311608 -0.834378 -0.583354 -0.927925 -0.345291 -0.737057 0.523447 -0.333993 0.190482 0.319393 0.794314 0.390383 -0.549941 0.563326 0.936378 0.083009 -0.150941 -0.329715 -0.553337 -0.117911 0.002922 -0.312853 0.235214 -0.155520 0.270950 0.898727 0.838433 0.358757 -0.272077 -0.668375 0.675735 0.416315 -0.502753 -0.907619 0.488389 0.151957 -0.644677 0.011836 0.817964 0.545806 -0.668771 0.612278 -0.063811 -0.218712 0.175604 -0.127433 0.864297 -0.975337 0.542852 -0.689039 -0.093248 -0.454226 -0.001892 -0.858034 0.390254 -0.730943 -0.959307 0.228687 0.627814 -0.231383 0.560312 0.303549 -0.815068 -0.942441 0.395930 0.673321 0.209516 0.751253 -0.314843 0.027480 0.297058 0.016386 -0.360242 -0.766753 0.797674 0.815362 0.105814 0.661971 0.840025 -0.351334 0.972931 -0.253222 0.194440 -0.028961 -0.111256 -0.415307 0.240097 -0.070563 0.813380 -0.132089 0.698054 0.373692 -0.828540 0.882986 0.431251 0.567389 0.556306 -0.359233 0.318642 -0.758537 0.668247 -0.384300 0.257849 -0.691995 -0.151052 0.055523 -0.876633 0.954761 -0.282506 0.963392 -0.396573 -0.309575 -0.289830 0.797867 0.661464 0.598914 -0.617440 -0.098439 -0.471649 -0.804060 0.769472 -0.773595 0.569632 0.940931 -0.890610 0.000883 0.508321 0.665697 0.641651 -0.173037 0.907160 0.309898 0.442663 0.165009 0.617902 -0.708389 -0.779469 0.741269 -0.753628 -0.061975 0.704661 -0.150200 0.628450 -0.585169 -0.352334 0.289914 -0.986256 0.030227 -0.808525 -0.457905 0.226167 0.960946 -0.231500 -0.204201 0.901878 -0.122109 0.796682 0.410198 -0.456413 0.438333 -0.762839 -0.549253 -0.251769 0.679825 0.615756 -0.633867 0.971435 0.836287 -0.892598 -0.782192 -0.225688 0.812063 0.067608 -0.597239 -0.773106 0.715274 0.692675 -0.759361 -0.254499 0.884150 -0.217266 0.971667 0.845096 0.551234 -0.232534 0.746973 -0.570875 -0.435851 0.157172 -0.027288 -0.997518 0.394333 0.423459 -0.249287 0.074157 0.039215 0.116846 0.045593 -0.124498 0.224248 0.263401 0.649813 0.036312 -0.668992 -0.947426 0.263206 -0.953718 0.745249 0.503845 -0.208217 0.629399 -0.713421 -0.236550 0.474495 0.837813 0.530916 0.221468 -0.733062 -0.904935 -0.621360 0.239650 -0.902453 0.772972 -0.336891 -0.151740 -0.152870 0.702324 0.965106 0.892723 -0.422175 0.189355 0.156124 -0.772361 -0.774333 0.487132 -0.719787 0.488873 0.533414 -0.974537 -0.007282 -0.674803 0.654862 0.279297 0.088647 0.129356 0.117110 -0.380437 -0.649176 0.384047 -0.285371 -0.270536 -0.376303 -0.187824 -0.497564 0.286806 0.660436 0.349566 -0.010870 0.625543 0.242289 0.566955 -0.185102 -0.601588 0.794594 0.040565 0.885544 -0.925193 -0.470563 0.418958 -0.899730 0.522155 0.744155 0.755131 -0.198548 -0.167198 -0.115513 0.918562 0.452365 0.235312 0.302609 -0.833006 0.964775 0.926306 -0.020830 -0.532789 0.213112 -0.360394 0.816777 -0.797758 -0.734851 0.059066 0.769198 0.080047 0.457478 0.563792 -0.879389 0.343022 0.638599 -0.349951 -0.238020 0.738869 -0.827796 -0.493865 0.494000 -0.026344 0.338937 -0.621512 -0.107783 -0.208698 0.613799 -0.805174 -0.041705 0.578574 -0.878867 0.937465 -0.954214 0.334245 -0.422929 0.862563 0.536487 -0.157780 -0.078371 0.305685 0.922267 -0.620893 -0.130523 -0.957122 0.722130 -0.491924 -0.307073 -0.515890 -0.753055 -0.134869 -0.009755 0.740945 0.838787 -0.670818 -0.880568 -0.268995 0.120483 0.733232 -0.074169 -0.921221 0.311806 0.046964 -0.983757 0.357592 -0.618791 -0.406685 0.220155 0.917696 0.435535 -0.858216 0.223381 0.357802 -0.479108 -0.907142 0.400680 -0.756979 -0.399066 -0.906393 -0.272869 -0.152121 -0.041261 0.717376 -0.411176 -0.202474 -0.953442 -0.291744 0.528531 0.167041 -0.558512 -0.545638 0.245819 0.753294 0.501325 0.262063 0.110886 0.882534 0.855377 -0.668958 0.800230 0.290912 -0.527174 0.023611 -0.351286 -0.006282 0.116470 -0.950606 0.236739 0.717404 -0.856999 0.963870 -0.434717 0.101740 0.681246 0.154107 0.899266 0.727804 0.862363 0.427797 -0.105156 -0.696149 0.882159 -0.859336 -0.942854 0.383484 0.402726 0.168032 0.266018 0.258104 0.499073 0.066248 -0.450984 0.971899 -0.910140 0.197729 -0.034383 0.206329 0.247123 -0.797644 -0.076267 0.390124 -0.833774 0.489016 -0.508137 0.847472 -0.356877 -0.608871 0.575276 -0.494514 0.818926 -0.529879 -0.190662 0.701085 -0.389216 -0.133517 0.084569 -0.986489 -0.965485 -0.649413 0.271614 0.533589 0.416836 0.820630 0.505488 0.506696 0.018359 -0.528895 -0.286975 -0.734518 -0.326539 0.636758 0.655605 -0.160312 0.125774 -0.852531 -0.312840 0.768897 -0.461402 -0.737564 -0.725616 -0.642476 -0.267443 0.083721 -0.941391 0.343341 0.950205 0.143178 0.356852 0.984720 0.493765 -0.371534 0.518309 -0.089399 -0.550904 0.023797 -0.582703 0.467455 0.494902 0.130321 0.732937 -0.831637 -0.232920 0.388542 0.008050 0.892854 0.536011 0.695210 0.661751 -0.925391 0.957647 0.936134 -0.567867 -0.309797 0.019856 -0.509258 -0.966456 -0.029940 0.633920 0.390396 -0.045219 0.127685 -0.981138 -0.526911 -0.961714 -0.532042 0.496886 -0.544417 0.935413 -0.008212 0.585904 0.668350 0.160151 -0.647016 0.056892 -0.831799 -0.754162 -0.407097 0.863411 0.907589 -0.332489 0.821058 0.843723 0.099644 -0.488739 -0.136421 0.590387 -0.455195 0.833639 0.224307 0.935202 -0.211580 -0.648008 0.954064 0.261509 -0.609722 -0.577978 -0.241605 -0.154139 -0.642565 0.750183 -0.568234 -0.974215 -0.089667 -0.215250 0.082677 0.078534 0.030587 0.675580 -0.058055 -0.061824 -0.656909 -0.236997 -0.218101 0.442736 0.274264 0.645478 0.033122 0.819070 0.479118 -0.742571 0.754272 -0.732462 -0.390579 0.708335 0.529047 -0.000301 -0.869643 -0.712558 0.845560 -0.512208 -0.962376 -0.722674 -0.486423 -0.052043 0.062075 0.596254 -0.973509 -0.907337 0.271834 -0.031563 0.030839 0.614925 0.731440 0.812738 0.057661 0.005704 0.458216 -0.909217 -0.175226 -0.062666 -0.651788 -0.420954 0.204872 -0.042368 -0.712619 -0.266082 0.957331 -0.582262 0.021360 0.802891 -0.094469 0.058984 -0.919783 0.419108 -0.993058 0.142292 0.015363 -0.966567 0.234955 -0.712803 0.001870 -0.734206 0.902122 -0.266690 -0.921468 -0.040217 0.739014 0.536749 0.050566 -0.436211 -0.525917 0.398777 0.142834 0.678954 -0.643591 0.430216 -0.587127 -0.686259 0.847954 0.434233 -0.883368 -0.246515 -0.506783 -0.803151 -0.827407 -0.499841 0.339141 0.187955 -0.466408 -0.425903 0.475152 0.535461 -0.160109 0.377274 -0.731229 -0.081577 -0.662944 -0.992215 -0.544828 0.387622 -0.428426 -0.070745 -0.213601 0.714408 -0.391791 0.142809 0.144624 0.021082 0.456549 -0.007422 -0.544685 0.573181 0.746063 -0.051468 0.770030 0.918655 0.448691 0.109171 0.106611 0.982283 0.683268 -0.418237 0.517744 -0.476841 0.959037 0.786515 0.441582 -0.703907 0.794300 0.896754 0.683715 -0.634126 -0.173991 -0.529886 -0.919717 0.434218 0.612923 0.224907 -0.544700 0.069472 -0.782515 -0.089385 -0.357347 0.963548 0.859147 -0.587317 0.882203 0.307838 0.521854 -0.011186 0.290120 0.205123 0.570576 -0.192136 0.728281 0.529613 -0.405621 0.169863 0.825706 -0.611320 0.066617 0.509421 -0.245446 0.892626 0.979535 -0.165163 0.326844 0.592457 -0.940256 0.782144 -0.338071 -0.722771 -0.307242 0.304582 -0.759223 -0.448095 0.717265 -0.877021 0.859743 0.239120 0.111793 0.149863 -0.555758 -0.317631 0.957728 -0.827476 -0.788018 -0.447893 0.342387 -0.962312 -0.059213 -0.590996 0.547108 0.695341 -0.698370 0.526643 -0.469822 0.628474 0.119101 -0.410078 0.410617 0.781030 -0.132849 -0.896624 0.085612 0.107928 -0.344719 -0.197123 0.230908 -0.484976 -0.958003 -0.657299 0.664888 -0.513761 0.025070 0.622615 -0.341237 0.237052 -0.825278 -0.998850 0.274740 0.115509 -0.589846 -0.178152 -0.189150 -0.288216 -0.651509 0.341029 -0.659742 0.467592 0.930951 0.750875 0.248622 -0.201898 0.854251 -0.665766 0.906031 -0.490468 0.137111 0.136938 0.024557 0.179108 0.479639 -0.310555 0.665348 -0.495292 -0.687940 -0.675890 0.741760 -0.513217 -0.674740 0.016500 0.602292 -0.264585 0.838348 -0.586858 0.447199 -0.813160 0.754171 0.787457 0.654432 0.685122 0.538333 -0.096946 -0.516776 0.392584 0.237288 -0.610745 0.902116 -0.625601 0.526193 -0.073327 0.553508 0.005831 0.616118 0.218855 0.510540 0.928178 0.542966 0.252300 -0.585039 0.868226 -0.731200 -0.982747 -0.396359 -0.892851 -0.569605 -0.949160 -0.706011 -0.815435 0.838297 0.948421 0.869687 0.376629 -0.148525 -0.647089 -0.230787 -0.911237 -0.257835 -0.328671 -0.536838 -0.731642 0.598002 -0.983330 0.274189 0.214120 0.235525 -0.215271 0.142299 -0.221510 -0.962971 0.557259 -0.353284 -0.694171 0.574512 0.250357 -0.587022 -0.995094 0.301197 -0.293033 -0.810529 0.139494 -0.344613 -0.940842 -0.483877 0.506862 -0.587931 0.285336 0.595624 0.154234 0.956665 -0.941213 0.422592 0.554668 -0.924544 -0.303219 -0.231212 0.310981 0.481509 0.911087 -0.910528 0.518538 0.468346 -0.263812 0.824368 0.042858 0.986545 -0.762654 0.047764 0.287742 -0.055688 0.237236 -0.572765 0.599699 0.296394 -0.056642 0.106561 0.708463 -0.771306 -0.297814 -0.137304 -0.814641 -0.239028 -0.714712 0.740027 -0.163572 -0.017931 -0.491185 -0.852591 -0.536422 -0.580098 -0.763119 0.982117 0.888248 -0.026931 0.806484 -0.068895 -0.040386 -0.956170 0.978870 -0.752644 -0.011858 0.216105 -0.325409 -0.412159 -0.487501 0.617949 0.694403 -0.779038 0.846643 -0.603412 0.083658 -0.967997 0.157560 0.368946 0.772030 0.993989 -0.648985 -0.719155 -0.858602 -0.185407 -0.299254 -0.621721 -0.203290 -0.411006 0.351348 -0.396806 0.520099 -0.689038 -0.352976 0.498969 -0.441683 0.635166 -0.284926 0.232908 -0.776993 0.227573 -0.149142 0.917410 0.448535 -0.302499 -0.686002 -0.467807 -0.270496 0.471559 0.901139 -0.498467 0.465547 -0.747846 -0.217622 0.606945 0.066747 0.483124 0.985224 0.863456 -0.927882 0.336572 -0.533350 0.592217 0.647533 0.113674 0.091185 -0.794150 -0.251160 0.806259 0.438759 -0.028153 0.033832 -0.710383 -0.110743 -0.517633 -0.012882 0.203256 0.014560 0.716621 -0.325186 -0.084301 -0.781845 -0.859638 0.167853 0.000532 0.747307 -0.765400 -0.516344 0.732531 -0.901944 -0.444226 0.069102 -0.435294 -0.852009 -0.283364 0.678380 0.239176 -0.077514 -0.572780 0.045435 -0.638755 0.399067 -0.920732 -0.349138 -0.711675 -0.438365 0.637979 0.491580 0.576195 0.354600 -0.833605 -0.508106 0.572755 -0.693244 0.659747 -0.426712 -0.945937 0.894347 0.056944 0.786594 0.992403 0.612718 -0.144304 -0.442891 0.760709 0.572332 -0.764511 -0.000115 -0.505182 -0.337291 -0.954680 -0.143937 -0.938224 -0.875412 0.506925 -0.649899 -0.313777 0.144904 0.841681 -0.737582 -0.500496 -0.991924 -0.245687 -0.927741 -0.685168 -0.585940 -0.354453 -0.631105 -0.691593 0.702491 -0.844511 -0.699190 0.315209 0.011185 -0.142081 0.075918 -0.416483 0.093408 -0.924197 0.078335 0.756116 -0.878877 0.934398 0.817892 -0.754289 0.441323 -0.832007 -0.068066 -0.413773 -0.990326 0.194353 0.085731 -0.982250 0.948666 0.157990 -0.667418 -0.637274 0.803537 -0.298522 -0.328867 0.506028 -0.143033 -0.028057 -0.178762 0.868152 0.829862 0.897156 -0.548331 -0.076730 0.972959 0.530004 -0.320614 -0.905918 0.464403 -0.502721 -0.660207 -0.094275 -0.334728 0.271728 0.491952 -0.325054 -0.533920 -0.422317 -0.307304 -0.585254 0.735673 0.025279 -0.222528 0.539210 0.726756 0.448605 0.045239 -0.416277 -0.579451 0.866476 -0.548125 -0.749589 0.763632 -0.096455 0.173681 0.736591 -0.566451 0.853068 0.830673 0.897951 -0.649654 -0.829534 -0.196323 0.015618 0.442194 -0.704371 0.690564 0.908274 -0.126688 -0.616740 -0.676980 -0.391015 0.408538 0.100492 -0.851805 0.135294 -0.450902 0.193434 0.719018 -0.030353 0.059911 -0.829107 0.220058 -0.176457 0.074437 -0.606261 -0.439866 0.507986 -0.753193 -0.609193 0.405938 -0.402847 -0.438727 -0.790386 0.612771 -0.996533 -0.494757 0.303334 0.911741 0.378555 0.686594 -0.765239 0.987540 0.095132 0.335253 -0.864265 -0.769574 0.884351 0.329170 0.949444 -0.146002 -0.610919 -0.879663 -0.925944 0.212624 0.194774 -0.532205 0.772757 -0.297239 -0.285398 -0.836436 -0.891302 0.311755 -0.275163 -0.681687 -0.075475 -0.271696 -0.176444 -0.772141 -0.359956 -0.797889 0.914453 -0.125195 -0.810349 0.009585 -0.789942 -0.674614 0.240012 -0.905591 0.654556 0.189456 -0.051593 -0.956363 0.309793 0.022463 0.256260 -0.495433 0.490258 0.029018 0.207328 -0.795141 0.192582 0.316026 0.516614 0.917419 0.634339 -0.558861 -0.354278 -0.542105 -0.331001 0.285767 -0.339994 -0.416548 -0.839428 -0.150344 0.593037 -0.629370 0.175043 -0.166951 -0.534961 -0.170401 -0.977495 0.413446 -0.126765 0.332297 -0.564091 -0.870504 0.836864 0.926166 0.158513 0.044192 -0.868974 -0.648905 -0.639783 0.647639 -0.731486 0.994556 -0.911221 -0.085764 -0.547549 -0.242223 -0.799998 0.112456 0.341229 -0.639426 0.962113 -0.065733 -0.268796 0.137155 0.767316 0.196243 0.966754 0.789820 -0.390311 -0.160010 0.122117 0.045598 -0.030515 -0.041019 -0.028236 -0.872002 -0.996827 0.102790 -0.520907 -0.636610 -0.249571 -0.252393 -0.642054 -0.160792 0.661843 -0.189603 0.596985 0.861845 0.922853 -0.061785 -0.777581 0.884966 0.872481 -0.046377 0.022121 0.639797 -0.850134 -0.011125 0.429617 -0.240445 0.828865 -0.448266 0.805153 -0.201650 0.510715 -0.223083 -0.073652 0.513888 0.879707 0.405441 0.877278 -0.369864 -0.846952 -0.764776 0.469344 0.814890 0.045621 0.066329 0.676736 -0.031527 -0.995457 0.899155 -0.146561 0.877024 -0.147222 0.875560 0.516821 0.002644 -0.135565 -0.053562 0.762200 -0.306700 0.498172 0.567353 0.491650 0.008887 -0.655730 -0.582002 -0.477225 -0.776023 0.823439 -0.599947 -0.145887 0.976487 -0.364723 -0.676544 0.791377 0.680897 0.389785 0.468113 -0.350629 0.394328 0.367268 0.502810 0.271353 -0.779954 0.378370 -0.211826 0.222690 -0.757195 0.734612 -0.015110 -0.063895 0.232784 -0.447757 -0.572245 -0.758329 -0.103487 -0.154247 -0.235554 0.120490 -0.330808 0.164499 0.974603 -0.354321 0.799776 -0.701941 -0.562944 0.480673 0.687844 0.905169 -0.869957 0.082172 0.272437 0.632853 -0.646475 0.492483 0.011223 0.141699 -0.284827 0.254027 -0.123689 0.700063 -0.809868 -0.890905 -0.747694 -0.382113 -0.649233 0.148820 0.463640 0.115213 -0.730690 -0.867168 -0.720287 -0.756087 -0.221490 -0.920512 -0.458028 0.215566 0.560161 -0.770184 0.120736 0.690205 0.311988 -0.606827 0.323058 0.665514 0.885655 -0.665720 -0.192787 -0.399171 0.588308 0.683524 -0.699108 0.778440 0.792619 -0.446802 -0.603673 -0.856614 0.702018 0.859967 0.258600 0.971327 0.992798 0.538312 -0.784760 -0.228691 0.617801 -0.242788 0.986875 0.177962 -0.012972 0.107611 -0.131834 -0.700984 0.500783 -0.808776 0.964530 0.386438 -0.474496 -0.228258 0.987267 -0.886188 -0.544734 -0.711841 0.892251 -0.752114 -0.158643 -0.711422 -0.608728 -0.456625 -0.851455 0.649872 -0.485298 -0.858657 0.188184 -0.270058 -0.087348 -0.194015 0.487154 -0.100473 0.983946 -0.525818 -0.992862 -0.147887 -0.226802 0.507921 0.043336 -0.262272 -0.105641 0.568840 0.509471 -0.118374 0.682652 0.964737 0.169785 0.574903 -0.787377 -0.988858 0.863482 -0.396105 -0.445484 -0.987973 -0.746233 0.069219 -0.846629 0.441951 0.799161 0.066023 -0.752064 0.286315 0.965550 -0.768118 0.760498 0.972687 0.083995 -0.466304 0.480608 -0.872669 0.271424 -0.625033 0.696172 -0.219105 0.256593 0.378824 -0.254368 -0.573623 -0.046273 -0.041745 -0.562481 -0.182791 0.562150 -0.007965 -0.170764 0.815917 -0.938746 -0.017393 0.257868 0.860415 -0.951370 0.505804 0.146731 -0.985821 0.737687 -0.092772 0.986866 -0.178318 0.440924 0.467474 -0.050987 -0.287652 0.842441 -0.354815 0.493243 0.099033 -0.975991 -0.761125 0.525411 -0.022264 0.197130 0.962929 0.794946 -0.240720 -0.045035 -0.375818 -0.424803 0.016219 0.606789 0.833065 -0.123366 0.655419 0.338869 -0.976635 0.669598 0.076556 -0.069407 0.656464 0.898237 -0.628483 0.123939 -0.152749 0.083865 -0.033620 0.492436 -0.422892 -0.934587 0.516445 -0.184017 0.590824 -0.505819 -0.986887 0.553753 -0.710873 -0.227608 -0.491282 -0.086691 0.347589 0.524936 -0.479902 0.180653 -0.598430 -0.824484 -0.480478 -0.575065 0.845114 0.596078 0.355528 0.501579 0.494316 0.727045 -0.374483 -0.658434 -0.189090 0.591897 0.834002 0.388018 0.657310 0.350446 -0.795999 0.248134 0.844627 -0.782886 -0.198113 -0.866246 -0.010494 0.310605 0.047062 -0.662906 -0.164458 0.567160 0.517748 0.237112 0.742676 -0.962730 0.662047 0.587791 0.633348 0.017575 0.089369 0.127664 -0.255380 0.714887 0.469230 0.555530 0.306784 0.303232 -0.056452 -0.035906 -0.346322 0.147549 -0.787772 -0.501695 0.364663 0.014115 -0.367941 -0.645831 -0.675280 0.679122 -0.308737 0.160262 0.246282 -0.790989 -0.602626 -0.011042 -0.753719 -0.940579 -0.423252 0.879629 0.076996 0.666118 0.007293 0.821616 0.381004 -0.523477 0.377145 -0.312212 0.779755 -0.679307 0.651882 -0.566566 0.468243 0.864111 -0.068261 -0.167095 -0.121774 0.563798 0.187074 0.202946 0.242920 0.878337 -0.636792 -0.510799 -0.912652 -0.239417 0.478159 -0.666371 -0.179996 -0.945092 -0.786742 0.897000 0.721025 0.220551 0.718615 0.102030 0.697075 0.095761 0.789818 0.476830 0.416454 0.441700 0.910264 -0.115303 0.305811 -0.157997 0.717602 -0.815963 -0.594199 -0.095324 0.386983 0.648721 -0.216987 0.750192 -0.862078 -0.129639 -0.489226 0.616081 0.203990 0.330778 0.670989 0.417248 0.227777 0.392014 -0.362200 -0.053607 -0.505956 -0.665126 -0.957847 -0.716138 0.811705 0.458607 0.725562 0.721968 -0.656696 0.031372 -0.436029 -0.939094 0.215409 -0.030228 -0.034418 -0.397608 -0.381507 0.748595 -0.647416 -0.243585 -0.381044 -0.136642 -0.627503 0.822946 -0.805864 -0.956514 0.240194 0.421913 0.435500 0.877993 -0.631694 0.929544 -0.787132 -0.589541 -0.786595 -0.975428 0.869066 0.938967 0.746540 -0.787630 -0.029661 -0.689489 -0.726725 -0.814251 0.280283 0.238857 -0.211859 0.898776 -0.012548 0.140725 -0.344809 0.606407 -0.995916 0.027688 0.429353 -0.801780 0.071173 -0.330453 0.620133 -0.493327 -0.452460 0.988439 -0.563783 -0.239593 -0.601102 -0.350378 -0.215020 -0.732035 -0.411411 -0.468480 -0.519666 0.558928 -0.157969 -0.246390 0.744677 -0.877686 0.992467 -0.467182 -0.978910 -0.020082 0.673543 -0.323719 -0.413674 0.677627 0.703969 -0.984321 0.875846 -0.224858 -0.314775 0.495979 0.281815 0.232765 0.484419 0.718032 0.993173 0.883317 -0.632346 -0.221848 -0.848719 -0.043758 0.309672 -0.368384 -0.484829 -0.848297 0.385226 -0.740153 -0.725983 0.377692 -0.207335 -0.704893 -0.642389 -0.533792 -0.028612 -0.056063 -0.856165 -0.324643 -0.040384 -0.980318 0.450498 0.644841 0.515661 -0.267687 -0.122394 0.000080 -0.549655 -0.129221 -0.116604 -0.182001 0.648931 0.034678 0.774241 -0.041397 0.666294 -0.710589 0.110306 0.051519 -0.450741 0.384323 -0.570788 0.341924 0.679430 -0.213177 0.808133 -0.349182 0.730759 0.951968 0.326175 -0.309625 0.971649 -0.223327 -0.664784 0.487310 0.508987 0.212822 -0.512610 0.959332 -0.916399 0.370786 -0.222670 0.732533 -0.594536 -0.448429 -0.308864 -0.928243 -0.159017 0.801442 0.123277 0.390242 0.185765 0.552488 -0.267834 -0.134804 -0.660689 -0.459702 0.516014 -0.929930 -0.507734 -0.157811 -0.239555 -0.536085 0.618862 0.095661 0.951225 0.127849 -0.691517 -0.561385 0.087181 -0.607916 0.809401 0.864511 -0.875383 -0.785135 -0.583918 -0.184247 -0.713377 0.257065 -0.382805 0.409899 -0.352693 0.802960 -0.037612 0.379472 -0.331844 0.301699 0.919770 -0.815830 0.371769 -0.587964 0.026359 -0.867786 -0.124048 -0.354779 0.227875 -0.172823 0.773070 0.536358 0.265792 -0.139749 0.928443 0.075193 -0.275238 -0.946940 0.290059 0.140844 -0.131188 0.576681 -0.602091 0.486007 -0.013419 0.045215 0.288968 0.948969 -0.575312 0.957124 0.250667 -0.655542 -0.858706 -0.377564 -0.243505 0.167653 -0.245350 0.632446 0.812874 0.982525 -0.540377 0.585944 0.518883 0.725415 -0.553805 0.447325 -0.199391 0.170956 0.500385 -0.909333 -0.688200 -0.630803 0.667349 -0.290291 0.855205 -0.346070 0.754924 0.144173 -0.397102 -0.820388 0.101296 0.853565 -0.475930 0.242591 -0.523999 0.280565 -0.589756 0.230651 -0.086989 -0.776882 0.213176 0.372634 0.809062 -0.267941 0.098049 -0.744744 -0.820616 0.898658 0.426212 0.679769 0.989325 0.738012 -0.951034 0.656674 -0.552279 0.904171 -0.689396 -0.797355 0.048344 -0.086498 -0.617743 -0.850360 -0.232933 -0.093673 0.392231 0.243068 -0.813108 0.802474 -0.526281 0.099903 -0.974408 0.686895 -0.527463 0.834654 -0.581046 0.570587 -0.910090 -0.401662 0.469245 0.516122 -0.721893 0.458570 0.254134 -0.672927 0.115244 0.701855 -0.768756 0.425848 0.904501 0.279588 -0.660650 -0.713242 0.429228 0.106417 0.193085 -0.178541 -0.650515 0.379978 -0.376067 -0.176795 -0.520119 -0.350475 -0.489900 -0.047582 -0.515822 -0.070946 -0.476996 -0.425912 0.527392 0.992249 -0.909790 0.805498 0.450819 0.344345 -0.867429 -0.433937 0.046200 -0.636185 0.991911 -0.049299 0.643403 -0.668739 0.237459 0.072631 0.437678 -0.569455 0.894090 0.787163 0.810522 -0.481977 -0.389632 -0.709597 0.167547 0.120468 0.242821 0.651726 -0.950478 0.765825 -0.774186 0.576914 0.758074 -0.683975 0.382412 0.208893 0.660370 0.514983 0.774956 -0.293430 0.878799 0.766867 0.657271 0.522202 -0.901872 -0.105270 -0.405167 0.535806 0.325275 -0.511078 0.322970 0.135797 0.006945 0.933338 0.426200 -0.825508 0.053807 -0.330979 0.826218 0.103329 -0.565154 -0.947967 -0.319757 -0.807080 -0.631943 -0.937346 0.401813 -0.971573 0.577638 0.176769 -0.265004 0.456436 -0.056364 -0.607733 -0.021362 0.041764 0.286998 0.573471 -0.422430 -0.387728 -0.937607 0.900540 0.748069 0.069338 0.833878 0.174269 0.243831 -0.112315 0.843290 0.070049 0.991014 -0.721865 0.122082 -0.328744 -0.528945 0.490139 -0.266089 0.872867 0.518565 -0.688451 0.049636 -0.746438 0.767985 0.993272 -0.354171 -0.253377 0.035036 0.932827 -0.679906 0.612606 -0.454901 -0.617513 0.513147 -0.706832 0.451825 0.347025 0.467437 -0.304344 -0.765290 0.310727 0.765705 -0.774276 0.588862 -0.112214 -0.103020 -0.940083 -0.622075 0.630891 0.932784 0.896490 0.942440 -0.017580 -0.849948 0.710425 -0.024308 -0.204119 -0.542953 -0.989272 -0.271292 -0.222859 0.623335 0.273807 0.159628 0.136481 0.566975 -0.388547 -0.516494 0.034413 0.307108 -0.281784 -0.654860 0.072813 -0.056060 0.934002 0.960599 0.840921 0.993919 -0.661476 0.471812 0.926703 -0.764986 0.414252 -0.090876 -0.614933 0.124676 0.884816 0.180948 0.581724 0.895544 0.909656 -0.641135 0.518879 0.183462 0.518493 -0.344640 -0.249562 -0.870055 0.138866 0.784850 0.437054 0.857083 -0.870010 -0.490133 -0.198977 -0.936009 -0.529534 -0.358056 -0.942090 -0.191009 -0.886244 0.984613 0.044005 0.528008 -0.106263 0.429072 -0.347316 -0.221447 -0.389981 -0.765593 -0.325903 -0.480325 -0.406728 -0.807025 0.703137 -0.888235 -0.151665 -0.546425 -0.758290 0.987201 -0.761575 0.678764 0.844284 -0.631585 -0.811369 -0.354693 -0.567594 -0.340903 0.287251 -0.509684 0.468088 0.401007 -0.525070 -0.487907 -0.070985 0.368667 0.941164 0.581698 -0.852780 -0.448817 0.816106 -0.178683 0.070858 -0.590622 0.014292 -0.226005 -0.478857 0.862627 0.227570 -0.237147 0.849829 0.465995 -0.558383 0.694113 0.834410 -0.369752 -0.660580 -0.733184 0.289345 0.626671 -0.242867 -0.242568 0.027678 0.232062 0.269525 0.956693 -0.399271 0.210689 0.538391 -0.252051 0.761872 0.354497 0.569266 -0.167269 0.763875 -0.416442 0.606726 -0.714982 -0.553815 -0.165704 0.047871 -0.703986 -0.699708 0.489488 0.990127 -0.865298 -0.880265 -0.670453 -0.598482 0.409080 0.956219 0.158651 -0.833488 
-0.016103 -0.609287 0.436037 -0.059410 -0.008558 -0.353274 -0.521019 0.739391 -0.591401 0.833478 0.308657 0.241330 0.597353 0.892215 -0.151944 0.882371 -0.661600 0.682352 -0.069758 -0.365586 0.982644 -0.580271 -0.375459 -0.882654 -0.460535 -0.045912 -0.481136 0.948545 -0.089693 0.677514 -0.884943 0.894204 -0.931773 0.551094 -0.165206 0.059670 -0.802179 0.313775 -0.200939 -0.393580 0.147253 -0.892282 0.847749 -0.255394 0.999933 -0.304195 -0.373023 -0.661667 -0.621843 0.557219 -0.027253 -0.639199 0.976948 0.597288 -0.521854 -0.483587 -0.448624 -0.002990 -0.535042 0.461684 -0.325476 -0.419985 0.355888 -0.257248 -0.868891 -0.809318 0.802421 -0.671070 0.504457 -0.398518 -0.064650 -0.348289 -0.290800 -0.216901 0.396317 -0.290867 0.478904 -0.976706 0.047465 0.857061 0.580513 -0.979788 -0.782138 0.557462 0.617500 -0.303992 -0.926125 -0.831124 0.693018 -0.461167 0.630560 -0.632458 0.118848 -0.013552 0.110294 0.249957 0.177130 -0.087285 0.578888 -0.318413 0.514198 -0.485763 0.333297 -0.776602 0.297336 -0.270386 -0.067470 -0.223760 -0.247091 0.979996 -0.366699 -0.666578 -0.999792 -0.148837 0.890884 0.617708 0.547171 0.964759 0.786584 0.240188 -0.496408 0.417144 0.607731 0.622441 -0.596408 -0.281975 -0.127602 0.580721 0.630741 -0.548715 -0.737692 0.144938 -0.034477 0.595605 0.368336 -0.737141 -0.674780 -0.699134 0.039100 0.078128 -0.719138 0.672401 0.411551 -0.718930 -0.476437 0.302435 0.898777 -0.929266 0.267194 0.685361 0.310922 0.770787 0.102505 -0.081347 0.393227 0.506097 0.636678 -0.734375 0.086818 0.267419 -0.283090 0.349126 -0.587643 0.682433 -0.055268 0.780693 0.945293 0.269951 -0.918441 -0.015608 -0.651920 -0.637579 -0.343207 0.759630 -0.356509 0.180356 0.062065 -0.457732 0.251090 -0.670741 -0.772370 -0.437988 -0.899954 0.330135 0.480665 0.493273 -0.163768 0.117343 0.758898 0.923050 -0.615238 -0.524192 0.272176 -0.202881 -0.841758 -0.783093 -0.422188 -0.896466 0.486859 -0.340629 0.087926 0.834938 0.021792 0.744719 0.594569 0.665283 -0.074925 -0.343366 -0.792449 -0.823835 -0.014107 -0.564819 -0.261823 0.085939 0.765316 -0.781158 -0.420788 -0.398453 0.336185 -0.661890 -0.475403 0.720947 -0.186082 0.796773 -0.481934 -0.027841 -0.986320 0.095878 0.075694 0.500539 0.755250 -0.836380 0.335477 -0.222958 0.908339 -0.069954 -0.557675 -0.166586 0.586680 -0.350123 0.009579 -0.427427 0.085057 0.747755 0.658512 -0.149627 0.966597 -0.762276 0.451921 0.302782 -0.424167 0.976518 0.023730 0.389751 0.773290 0.541796 -0.638089 0.786970 -0.362326 0.437604 0.287509 -0.607076 0.601224 -0.377014 0.169966 0.509563 0.553032 0.612291 -0.657023 0.139712 -0.737833 0.352556 0.712285 0.347225 0.100311 0.370796 -0.802402 0.066908 0.608520 0.649519 -0.630309 -0.815647 0.626036 0.393420 0.574104 0.399327 -0.064784 0.936014 0.186297 0.572891 0.373619 -0.526194 0.965815 -0.025157 0.096793 0.135781 -0.515594 -0.350175 -0.251928 -0.172617 0.789536 0.010239 -0.820062 0.501821 -0.642536 0.280249 -0.127383 -0.444938 -0.652842 -0.518863 -0.795419 -0.283152 -0.334510 0.830617 -0.889731 -0.760407 0.229944 0.045485 -0.824392 -0.583759 -0.381624 0.549226 -0.109953 -0.415809 -0.475931 0.986839 0.719971 0.008475 -0.363336 -0.531957 0.835857 -0.573800 0.478282 -0.984205 0.928021 0.835746 0.296045 -0.199362 -0.609192 0.643202 0.281775 -0.404611 -0.639949 0.947264 -0.573994 -0.529680 -0.813142 0.655950 0.515805 -0.637534 -0.927810 -0.865819 0.911692 -0.037763 -0.281629 -0.564239 -0.050923 -0.561657 0.444236 0.585741 -0.093614 0.280093 -0.988059 -0.615332 0.295889 0.939963 -0.779586 -0.408067 -0.259399 -0.388778 -0.764864 -0.977625 0.206612 -0.404813 0.969640 0.632618 0.065506 -0.843502 0.288567 -0.418689 -0.481037 0.360758 -0.284508 -0.569344 -0.677005 0.433863 -0.133583 0.272072 0.872206 -0.689347 -0.142187 -0.221409 0.590746 -0.130245 0.163259 -0.113366 -0.190283 0.383673 0.478568 0.550318 0.994896 0.713704 0.572693 0.201507 -0.691110 0.542333 -0.165875 0.374396 0.698831 -0.877307 0.955707 -0.782206 0.483451 -0.328801 -0.351550 0.806446 -0.894938 0.514866 0.078518 0.977267 0.825519 0.936331 -0.244141 0.416265 -0.193914 0.919118 -0.697101 0.615803 0.302791 0.781467 0.166120 0.297687 0.495170 -0.261186 -0.500805 0.804061 -0.718853 0.333320 0.178457 0.979977 0.456013 0.134164 -0.802229 -0.060537 0.805363 -0.153779 -0.254091 0.910424 -0.638913 0.824427 0.887692 -0.813394 0.760758 -0.356450 0.602871 -0.433156 -0.437332 0.905770 -0.817354 0.865460 0.687236 0.348767 0.163147 0.182407 -0.912420 0.662342 -0.013533 -0.631273 -0.004338 -0.835076 -0.651296 -0.548326 0.299089 -0.453524 0.391137 0.104451 0.392696 -0.862954 0.014876 0.753783 0.961473 -0.097433 0.940389 0.722231 0.546118 0.543260 -0.710925 -0.891214 0.449029 -0.528279 0.974245 0.136266 0.820488 0.137392 -0.681328 0.908068 -0.200266 0.305140 -0.723205 0.795396 0.470064 -0.374500 -0.752930 -0.230847 0.171975 0.638207 0.873604 -0.435329 0.775253 -0.111520 -0.681545 0.736726 0.791048 -0.741156 0.458957 0.337165 0.802103 0.748031 0.445951 0.251133 -0.780248 0.420197 -0.612602 -0.959760 -0.442411 -0.293929 0.948309 0.357323 -0.988789 -0.774896 0.152718 0.481275 -0.149396 0.399788 -0.749573 -0.977421 0.037995 -0.875968 -0.412750 -0.186752 0.012512 -0.094295 -0.450026 -0.196441 0.164549 -0.991069 -0.859275 -0.033348 0.756962 0.586676 -0.782215 0.976715 0.006872 -0.394817 -0.983045 0.564461 0.311254 0.965264 -0.078216 0.322464 -0.809632 -0.925498 -0.196261 0.040971 0.474290 0.054167 0.063550 -0.487715 0.178198 0.650800 0.325533 -0.809290 -0.443495 0.875507 -0.005731 0.721054 0.884438 0.134994 -0.312294 0.641400 -0.278330 -0.094509 0.618115 0.728542 0.510674 0.635070 0.293003 -0.178072 0.600334 -0.785214 -0.855608 0.790701 -0.710712 -0.051869 -0.168327 0.763578 -0.997702 0.895223 -0.724137 0.180496 0.546023 0.601395 0.371207 -0.897472 0.476902 -0.634524 0.823582 0.361340 0.500470 -0.488712 0.002739 -0.777861 0.416779 -0.379146 0.950681 -0.072547 -0.744076 0.243684 0.749380 0.856257 0.458470 0.893773 0.646959 0.747758 -0.158096 -0.521369 0.511336 -0.155798 -0.626146 0.787199 -0.975301 0.919877 0.388594 0.395905 -0.977595 -0.134504 0.761381 0.845986 -0.773164 0.261851 -0.642726 0.229575 0.483990 0.774053 0.850429 0.434671 -0.298495 -0.893647 -0.321645 -0.549114 0.962610 -0.863175 -0.655342 0.609568 0.884583 0.186563 -0.911800 0.395918 -0.969235 -0.537947 0.183117 -0.944536 -0.618070 -0.428289 0.451369 -0.595666 0.437207 0.212750 -0.749679 0.664043 -0.525398 -0.392405 -0.106382 0.958592 -0.618352 -0.255953 0.393263 0.083153 -0.149601 -0.928382 0.534039 -0.186991 -0.791557 0.878697 -0.577422 -0.906974 0.065260 -0.489223 0.488944 0.096025 -0.027170 -0.327939 0.151488 0.354760 0.243772 -0.397142 0.759095 -0.319021 0.815608 -0.990585 -0.654978 -0.709790 -0.382990 0.238640 -0.751199 -0.001342 0.982686 0.642065 -0.918189 -0.166915 0.713683 0.615849 0.646095 0.922126 0.494546 -0.931328 -0.984849 -0.440194 -0.420551 0.504095 0.655831 0.552280 -0.823844 -0.192681 -0.092960 0.419929 0.410177 -0.333865 -0.899092 0.225785 -0.324450 -0.554070 0.515994 0.292560 0.684570 0.764796 -0.708782 0.667256 0.406860 -0.626971 -0.499659 0.120543 0.988878 -0.853564 0.042669 0.483425 -0.784892 0.057820 -0.956769 -0.205443 -0.438084 0.699061 -0.653163 -0.261928 -0.493620 0.253877 -0.842000 0.916557 0.920012 -0.741092 0.142342 -0.404438 -0.295162 -0.341664 0.888122 -0.610592 -0.576869 -0.820660 -0.943337 0.829991 -0.447631 -0.442995 -0.049465 -0.458753 -0.296560 0.993204 -0.975329 -0.081452 0.051024 -0.932098 0.713106 0.612939 0.766963 -0.940057 -0.648989 -0.726656 0.313820 -0.490988 -0.810099 0.233832 -0.232080 0.332242 0.829394 0.472758 0.990578 0.717516 0.862166 -0.586291 0.896856 0.918829 -0.756299 -0.550775 -0.524166 0.194235 -0.009529 0.179274 0.187439 0.015143 -0.902178 -0.761537 0.083045 0.810928 0.851402 -0.149992 0.870870 -0.797587 0.123352 0.184691 -0.288575 0.313252 -0.581477 0.479345 -0.354505 -0.752083 -0.047897 -0.363927 0.965433 -0.185732 0.049782 0.862289 -0.266903 0.293482 -0.688486 0.208931 -0.512282 0.301985 -0.611795 0.675156 -0.682872 -0.513973 0.913619 0.400172 -0.703046 0.765021 -0.749820 -0.832175 0.967434 0.373532 0.352515 -0.321141 -0.313216 0.771038 -0.841797 0.332279 -0.981045 0.110306 0.968351 0.984388 0.924574 0.018133 0.846677 -0.342329 -0.688385 -0.841809 0.866602 -0.200667 0.460176 -0.745193 -0.525511 0.777303 -0.259166 -0.611892 0.177476 0.037788 -0.846871 0.427656 0.205613 -0.879437 -0.198812 -0.441872 -0.200579 0.487972 -0.670833 -0.042376 -0.179749 -0.651878 -0.932070 -0.211398 -0.667490 0.992504 0.806735 -0.820813 -0.349825 -0.881649 -0.662622 -0.483223 -0.082317 0.797553 -0.228415 0.392172 0.574856 0.512418 0.780280 -0.247668 -0.449794 0.933409 -0.820012 0.755819 -0.946028 -0.018825 -0.686052 -0.146607 -0.530853 -0.356886 0.811017 0.289398 -0.008764 0.878947 -0.922000 0.323746 0.871451 0.884736 0.502933 -0.478374 -0.996914 0.840310 0.038404 -0.079231 0.637864 0.809988 -0.687058 0.212720 0.322407 -0.906778 0.965052 0.872613 -0.973369 -0.854960 0.628433 -0.919397 0.126215 0.942380 -0.066004 0.595363 -0.414505 -0.254987 -0.115239 0.576731 -0.376040 -0.037239 -0.099524 -0.504588 -0.152503 -0.596591 0.017038 -0.149417 -0.756280 -0.944558 0.771352 0.881583 0.865430 -0.915706 0.094303 0.187837 -0.822484 0.059355 0.060450 -0.795853 0.204395 -0.311117 -0.715250 -0.669390 -0.368737 0.218746 0.925973 0.216757 0.963759 -0.189267 -0.206512 -0.412280 0.773494 0.693964 0.083131 -0.379009 -0.902627 -0.899831 0.471574 -0.658907 -0.844389 0.242926 -0.777324 -0.978959 0.327219 0.316979 0.208878 0.504735 -0.623666 -0.730672 0.708882 0.580729 -0.041790 0.993632 0.911339 0.589473 0.212377 0.837312 -0.193770 0.176136 -0.351955 0.599718 0.763856 -0.578461 0.293682 -0.153013 0.042530 0.391056 -0.052844 -0.485896 0.732149 0.102767 0.757030 0.954825 0.123808 0.084249 0.271805 -0.667314 -0.411016 0.648139 -0.397987 -0.702134 0.228869 0.560224 -0.708502 0.140208 0.149697 0.503875 -0.022481 0.955927 -0.319989 0.625564 0.555645 -0.556133 -0.952896 -0.150672 0.290854 0.089634 -0.759616 -0.761990 0.603738 0.972533 0.340777 0.360768 0.927359 -0.535415 -0.554982 0.199163 -0.202730 0.034002 -0.152697 0.399283 0.331868 -0.923828 -0.040493 0.623366 0.216379 -0.890796 0.127241 -0.806101 -0.934869 0.807252 0.819463 0.620776 -0.748881 0.866567 -0.529896 0.541973 -0.043799 -0.289512 0.779983 -0.440060 -0.316979 0.120760 0.920708 -0.389620 0.585344 -0.634274 0.809543 -0.617386 0.399728 -0.343154 0.781898 -0.268404 -0.266982 -0.258595 -0.645038 0.949397 -0.149391 0.482203 -0.856704 -0.084260 0.289455 0.962759 -0.463484 0.540574 0.829326 0.006620 0.082547 -0.214473 0.717108 -0.137470 0.345467 -0.599870 0.983290 0.266175 0.010509 0.568634 0.631901 -0.179947 0.951249 0.031628 0.476899 0.733146 0.763224 -0.790084 -0.525449 -0.881814 -0.840687 0.325160 0.600388 -0.697391 -0.759100 -0.110157 -0.734631 -0.222584 -0.569583 -0.905305 0.784036 0.512964 -0.119778 0.501144 -0.624506 -0.774311 0.901274 -0.641217 0.491864 -0.088217 0.927417 0.123764 0.731836 0.878666 -0.844607 0.208735 0.611812 0.918617 0.418651 -0.913637 -0.963197 0.577965 0.411523 0.637191 0.880574 0.652423 -0.472966 -0.854057 -0.570161 -0.042549 -0.759363 -0.786125 -0.529586 0.120859 0.715019 -0.154092 0.346548 0.616293 0.204691 -0.161588 -0.471923 0.132108 0.962177 -0.740087 0.010774 -0.882431 0.468648 -0.377414 -0.963814 -0.112701 -0.291050 -0.927011 -0.534737 -0.879527 0.710180 -0.654163 0.772896 -0.762787 -0.508220 -0.797265 0.194664 -0.267583 -0.583390 0.665078 0.853277 -0.868371 -0.489014 0.199825 0.747922 0.715676 -0.961763 -0.724001 -0.152215 -0.999586 -0.464088 0.858559 -0.882017 -0.995441 -0.518855 -0.845831 -0.108142 0.190095 -0.772843 0.357121 0.310568 0.937337 0.702959 0.083464 -0.825450 -0.805261 0.286199 0.369214 -0.072844 0.702809 0.034292 -0.219567 0.834438 0.545278 0.980258 0.582360 0.260954 -0.981505 0.858359 -0.891261 -0.981091 -0.605729 0.967297 -0.863108 -0.601170 -0.551558 -0.708939 0.290688 0.638537 -0.481782 -0.352190 -0.050895 -0.544445 -0.649232 -0.967431 -0.369895 -0.454493 0.318768 0.999320 0.472663 0.021578 0.033612 -0.746904 -0.143984 -0.421111 -0.766645 -0.561624 0.839843 -0.748150 -0.703265 0.948582 -0.729241 -0.308994 0.915879 -0.592349 0.089836 -0.635679 -0.301288 -0.619476 -0.997142 0.216930 0.028333 -0.048037 0.672485 0.379102 -0.015468 -0.697410 0.924609 -0.696700 -0.698090 0.397272 0.324878 0.335521 0.650369 -0.819107 0.914411 0.883723 -0.380731 0.754254 -0.864427 -0.083996 0.702836 -0.593668 0.607009 0.618715 -0.186017 -0.303155 0.983036 0.512695 0.077369 0.985894 -0.270376 -0.894298 -0.062144 -0.597891 0.484804 0.922388 -0.295301 0.409413 -0.774311 0.006609 -0.193315 0.550566 -0.657869 -0.542947 0.731460 -0.743459 -0.659223 -0.649271 -0.989205 -0.523650 0.266732 0.713631 -0.117318 -0.126258 0.332346 0.696665 0.570587 0.315382 0.209360 -0.352044 0.301276 0.938984 -0.246342 -0.760868 -0.658907 -0.761539 -0.838480 0.045793 0.647874 -0.612791 -0.947598 -0.545441 0.937775 -0.605467 -0.088388 0.669235 -0.348926 0.252389 -0.980037 -0.338131 0.728738 0.286696 -0.624500 -0.388580 -0.839563 0.707846 -0.691914 0.731024 0.023228 0.517445 -0.621020 -0.675496 0.456429 0.132637 -0.436364 0.797523 0.371099 -0.274844 -0.156685 0.018973 0.112365 -0.104283 0.473532 0.050140 0.290250 -0.614856 -0.280625 0.941324 0.637532 -0.260661 -0.396807 0.366271 -0.973966 -0.021307 0.977691 -0.813528 -0.313461 -0.714223 0.917496 0.709767 0.803222 -0.703525 -0.965729 0.259651 0.429113 -0.402093 0.057174 -0.199789 0.323063 0.900490 0.819184 -0.564572 -0.203793 0.292716 0.485568 -0.913543 0.677859 -0.795057 -0.972220 0.315392 -0.055718 -0.369027 -0.318337 -0.029684 0.609666 -0.340646 0.156788 -0.703795 -0.054869 0.074284 -0.994027 -0.251647 0.370759 -0.959756 -0.991996 -0.200128 -0.361850 0.065178 0.600083 0.961213 -0.034333 0.419267 -0.603359 0.761874 -0.288017 0.882209 0.848331 -0.610157 -0.912847 0.876112 0.705234 0.031435 -0.492915 -0.613103 -0.998249 -0.883249 0.046251 0.158538 -0.587043 0.991381 -0.767178 -0.581071 -0.260266 0.603581 -0.540827 -0.252263 -0.596548 0.097324 0.812915 -0.996465 0.058537 -0.221417 0.422803 0.455178 -0.459543 -0.865214 0.337388 -0.611211 -0.475372 0.424540 -0.735100 -0.770137 -0.544025 -0.228015 -0.383241 -0.542274 -0.111263 0.663010 0.616264 0.301693 0.654391 0.849086 0.720623 -0.605876 0.452667 -0.820204 0.141862 0.856119 0.277119 -0.045223 0.859654 -0.664344 0.733360 0.282457 0.790835 -0.726183 0.417243 0.128222 -0.337394 0.941872 -0.447237 -0.072494 -0.828266 0.008738 0.699492 -0.211507 0.466463 -0.411772 -0.548497 0.082727 0.889922 -0.894106 -0.068187 0.610544 -0.499981 -0.615520 0.790340 0.641881 -0.759401 0.067459 -0.403342 -0.899747 0.403116 -0.669982 0.382711 0.193950 -0.396165 -0.200046 -0.677827 0.266441 -0.258175 -0.125065 -0.806052 -0.086441 0.883673 0.893439 0.702053 0.350137 -0.518332 -0.846444 -0.567136 -0.628411 -0.740550 0.364677 0.982134 -0.240531 0.749157 0.772474 -0.598651 0.989756 -0.160067 -0.001993 -0.909990 -0.756951 0.328025 0.472720 0.436999 0.931860 -0.727326 0.759172 0.198302 0.014499 -0.365893 0.392250 0.928059 -0.482219 0.285689 0.630111 0.867917 0.767357 0.783667 -0.699218 -0.861054 -0.956882 0.665459 -0.878920 -0.197414 0.414616 0.893554 0.203935 0.404373 -0.266513 -0.798058 0.494382 -0.023464 0.529967 -0.032898 -0.586464 0.461828 0.239776 -0.827292 -0.339870 -0.745724 -0.193185 -0.947621 -0.817666 0.324596 0.338068 0.812446 0.192513 0.105425 0.596113 0.493295 0.244371 0.639230 0.158754 0.365452 -0.558183 -0.426630 0.259006 0.645752 0.977742 0.992493 0.847694 0.472124 -0.030971 0.377662 -0.560773 0.382565 -0.160510 0.679003 0.555273 0.499619 0.933279 -0.637912 0.551999 -0.884387 0.686684 -0.109933 0.928058 -0.120803 0.995492 0.524171 -0.627509 0.239863 0.163401 0.531245 -0.394685 0.605218 -0.895385 0.864321 0.250970 -0.917643 0.856813 0.098664 0.554482 -0.174157 -0.523674 0.993708 -0.791592 0.315816 0.672711 0.763681 -0.184564 0.605990 -0.874231 -0.632566 0.721602 0.812452 0.257501 0.649660 -0.308351 0.252993 0.173831 0.064140 -0.507144 -0.662767 -0.404615 0.098171 0.942451 -0.300001 -0.037509 0.193421 -0.217644 -0.180695 -0.707915 -0.663162 0.645148 -0.231589 -0.669454 0.853556 -0.915772 -0.996743 0.617237 -0.100337 0.609247 0.743005 0.267097 0.330849 0.555457 -0.475402 -0.019490 -0.752894 0.777591 -0.845659 0.311246 -0.729553 -0.508426 0.906631 0.368618 -0.565976 -0.393369 -0.668891 0.627445 0.388987 0.150414 0.919530 0.725825 -0.204438 -0.312058 -0.943629 -0.350883 -0.227831 -0.940372 -0.733646 0.671832 0.668875 -0.990641 -0.061070 -0.000275 0.564817 0.463528 0.980234 0.811923 0.241119 -0.865425 0.123169 0.511566 -0.373851 0.029800 -0.119816 0.060174 0.636431 0.211293 -0.312381 0.025418 -0.638293 -0.392851 -0.248757 0.157268 0.295090 -0.192386 0.806386 -0.932740 -0.132758 -0.927260 0.739092 -0.463883 -0.917901 -0.321979 0.535842 0.646916 -0.858451 0.516076 0.458839 0.382668 0.650651 -0.417992 -0.105766 -0.723199 0.611809 0.774417 0.336974 0.248240 -0.014290 -0.975407 -0.726342 0.347417 -0.368258 0.024900 -0.495315 0.926832 0.832514 -0.688929 0.994092 -0.300244 -0.616189 0.733184 0.235873 -0.534090 -0.588795 -0.228285 -0.887175 -0.447246 -0.712209 0.571664 0.935422 0.938442 -0.846327 -0.170344 -0.784757 0.765481 -0.395926 0.552217 0.013721 0.589784 0.576810 0.287378 -0.062800 -0.791448 -0.687721 0.441885 -0.864616 -0.855207 0.752956 -0.870524 -0.155451 -0.863233 0.862659 -0.919578 -0.397324 -0.726136 -0.147863 -0.284498 -0.173381 0.139928 -0.712834 -0.237959 0.078370 -0.559161 0.591697 0.293613 -0.793680 -0.804229 -0.154170 0.220041 0.785554 -0.577359 -0.492581 -0.277245 -0.368807 -0.180302 -0.835360 -0.233423 -0.035509 0.917596 -0.103947 0.809039 -0.945637 -0.241288 0.889461 -0.342960 0.032577 -0.258402 0.372541 0.859195 0.881525 0.659708 -0.378764 -0.040105 -0.899454 -0.787067 -0.746491 -0.693134 -0.591296 0.099339 0.526907 -0.805742 0.521980 -0.965674 -0.082988 -0.846828 -0.145976 0.081652 -0.080251 0.818515 -0.000751 0.815802 0.627554 0.053612 -0.425486 0.517016 0.710651 0.607091 -0.741387 0.083193 0.466287 -0.859861 -0.257100 -0.912477 0.100034 -0.156554 -0.699544 0.353543 0.150312 -0.290840 -0.547118 -0.322781 -0.096582 0.974862 -0.288455 0.820430 -0.871966 0.565569 -0.097917 0.047784 0.384084 0.901331 -0.136414 0.011639 -0.045057 0.438100 -0.471345 -0.334406 0.045192 -0.212732 0.748787 -0.488522 -0.072593 -0.508313 -0.400999 -0.972559 0.335133 -0.100543 0.380984 -0.514555 0.608617 0.833866 0.162665 -0.487965 0.808728 0.874210 -0.667535 0.936763 0.439779 0.234548 -0.015454 -0.176136 0.135879 0.848132 0.835503 -0.909178 0.286232 -0.635843 -0.243584 -0.668576 0.151425 -0.494797 -0.157098 -0.921168 -0.003110 0.441903 -0.893727 -0.667977 -0.658640 0.487257 -0.182531 0.949977 0.321124 0.980133 -0.537988 0.129852 0.854343 -0.205523 0.066614 0.294122 -0.970976 -0.948839 -0.882014 0.164903 0.899293 0.953489 0.255726 0.185525 -0.682354 -0.987858 0.516949 0.469072 -0.482655 -0.640149 0.547904 0.514235 0.801754 0.654177 0.846258 -0.856886 0.141435 -0.336273 -0.906910 -0.537442 -0.356140 -0.444898 0.592410 -0.501797 0.349578 -0.340976 0.792325 0.378603 -0.289815 0.910311 -0.456494 -0.390522 0.863800 0.799232 0.795003 -0.818554 0.811373 0.311951 0.650518 -0.671282 0.671802 0.198422 0.842954 0.473556 -0.147401 0.689212 0.616670 0.994033 -0.647062 0.709760 -0.543408 -0.003202 -0.735138 -0.950998 0.495001 0.614440 -0.291974 0.287327 -0.006957 0.418211 0.197638 0.536549 -0.972311 0.061438 0.335780 0.822691 0.242885 0.147154 0.134642 -0.106598 0.475872 -0.193555 -0.908176 0.318826 -0.719999 -0.055577 0.008037 0.896670 -0.061544 0.360976 0.606430 0.395047 -0.642226 0.871292 0.444049 0.852776 0.485732 -0.847925 0.140102 -0.521225 0.570286 -0.662260 -0.984677 0.597974 0.399179 0.351104 0.420665 -0.357937 -0.501743 -0.444692 0.535465 0.974129 0.361752 0.627289 0.292955 0.641753 -0.428288 -0.699007 0.538423 0.510168 0.661968 0.144853 -0.094785 -0.980257 0.016145 -0.650736 0.872518 -0.498123 -0.498661 0.012621 -0.019349 -0.928375 0.350361 -0.004025 0.669600 -0.250460 -0.652922 0.090265 0.391603 -0.154664 0.645573 -0.072932 -0.180535 0.007325 -0.445642 -0.887580 -0.350921 0.126070 -0.586587 -0.812498 -0.363763 -0.924619 0.332355 0.541452 -0.904876 -0.651500 0.890717 0.967642 -0.149623 -0.607944 -0.019737 0.831029 -0.536319 -0.669376 -0.172997 -0.866720 0.080164 0.174082 0.223546 -0.528233 -0.980583 -0.130882 0.398835 -0.161117 0.876444 0.953193 -0.048697 -0.474478 0.079263 0.364716 -0.286976 0.715500 0.440097 -0.954621 0.256952 0.535221 -0.606120 0.147669 0.502864 0.244257 0.539725 -0.516873 0.075286 -0.996595 -0.186248 0.902289 -0.863314 0.893916 0.076371 0.360231 -0.634317 0.095788 -0.770650 0.764518 0.934671 -0.894206 0.717711 -0.114026 -0.368684 -0.203026 -0.749310 0.344340 -0.487526 0.690787 0.389720 0.769427 0.226008 0.783599 -0.082904 -0.271128 0.027856 -0.543180 0.211999 -0.896858 -0.539774 -0.974249 -0.994569 -0.403089 0.919667 0.081802 0.957143 -0.714651 -0.822410 -0.813507 -0.950132 -0.887739 -0.707714 0.767579 -0.001765 -0.076397 -0.435447 0.248925 -0.732057 0.077027 -0.060288 0.657663 -0.153546 -0.834280 0.441262 0.763549 -0.105408 -0.530881 -0.779631 -0.893409 -0.427739 -0.319405 -0.867658 -0.422308 0.277506 -0.947991 0.659494 0.234649 -0.662642 0.837084 0.421142 -0.612774 0.949345 0.713428 -0.845195 -0.052420 -0.362969 -0.280642 -0.803495 -0.095026 0.796385 0.136216 -0.437364 -0.357162 0.301936 -0.996101 -0.593613 -0.803472 -0.526982 -0.373243 -0.696881 0.045278 0.307351 -0.564539 0.622970 -0.415142 -0.512530 0.282464 0.819507 -0.175172 0.119548 0.240648 0.212054 0.068893 -0.045924 0.366858 -0.983527 0.591107 -0.913784 -0.787022 -0.503919 0.882601 0.349194 0.058717 -0.474561 -0.348870 0.062616 -0.068173 -0.152342 0.535634 0.558583 0.150777 -0.419088 -0.134065 0.586239 -0.796118 0.450792 -0.926291 0.486346 0.270299 -0.101463 -0.394106 -0.489053 -0.889410 0.674787 0.465024 0.477449 0.691261 0.056131 0.563665 0.904238 0.552211 0.446266 0.253432 -0.389072 0.971705 0.904562 0.673544 -0.096468 -0.247780 0.209178 -0.537885 0.902998 0.790090 0.328050 0.489237 0.993972 -0.221158 0.562946 0.480319 -0.950859 -0.538518 -0.913787 -0.439912 -0.427927 0.761000 -0.974888 -0.950478 0.452261 0.081243 0.613186 0.356499 -0.366546 0.059452 -0.390069 0.244383 0.031157 -0.485506 -0.082073 0.934689 0.266714 -0.872895 -0.603196 0.169712 0.917195 0.724853 -0.341051 0.911168 -0.496305 -0.778106 0.391486 -0.447164 -0.316623 0.477699 0.112925 0.255449 0.238700 0.138037 0.304971 -0.309039 -0.780720 -0.081843 -0.952540 -0.147266 0.977609 -0.342609 -0.902883 0.008767 0.171885 0.015044 -0.056544 -0.561401 0.142149 0.340259 0.608311 0.059344 0.065113 -0.732740 -0.029488 0.568808 -0.510845 -0.638002 -0.878356 0.172531 0.839698 0.234569 -0.572020 0.078398 -0.627395 0.732951 0.769358 -0.408115 -0.348892 0.816818 0.444619 -0.371282 -0.525790 0.541736 0.637484 0.646095 -0.443221 -0.419060 -0.915306 0.698928 0.921199 0.693006 -0.241727 -0.013688 0.960266 0.728785 -0.444880 -0.550580 -0.909217 -0.323236 0.621952 0.930481 0.911333 -0.950068 0.008878 -0.716062 0.782883 -0.221764 -0.124177 -0.566008 -0.404945 -0.679558 0.062709 0.069265 0.862178 -0.299806 -0.284640 -0.581043 0.281134 -0.199946 -0.882114 0.202333 -0.506940 -0.123842 -0.811354 -0.546674 -0.395057 -0.256234 -0.097254 -0.304275 0.420530 -0.475302 -0.373794 0.331863 -0.425370 0.635084 0.615801 -0.642487 -0.586679 -0.508375 -0.208496 0.008375 -0.187933 0.854214 -0.922360 -0.325755 -0.445592 -0.207000 0.093202 0.835541 0.593054 0.211087 0.037875 -0.913886 -0.912754 0.226520 -0.460561 -0.307812 0.970286 0.442186 0.387914 0.390816 0.966883 -0.985880 -0.277321 -0.458487 0.649204 -0.661520 -0.100974 -0.937476 -0.169895 0.690530 0.070900 0.642172 0.544744 0.148540 -0.683584 -0.900849 0.941540 0.409618 0.934693 0.534594 -0.379295 -0.027432 0.620707 -0.292049 -0.800912 -0.839853 0.400139 -0.830626 0.602332 -0.211947 
0.560191 0.569216 -0.197828 -0.717130 -0.889271 -0.548624 -0.378650 0.009755 -0.486100 0.451455 -0.299715 0.584800 0.093626 -0.754971 -0.266661 0.410043 -0.655820 -0.325121 -0.180340 -0.721127 -0.790527 0.440366 0.251441 0.830180 -0.851683 0.450529 0.990327 0.548455 0.619904 0.592659 -0.663492 0.180094 0.161875 0.138680 0.462964 0.272604 0.590056 -0.915686 -0.717641 -0.896044 0.535769 -0.017356 0.688755 -0.370605 0.227673 -0.577905 -0.960562 0.571853 0.096974 -0.140902 0.850726 0.306446 -0.700536 0.102167 0.136626 -0.552220 -0.447304 0.126953 0.996236 -0.827400 -0.280388 -0.667256 0.352694 0.881487 0.471424 -0.184342 0.154091 0.061480 -0.100029 0.436449 0.165435 -0.564260 -0.580907 -0.145810 0.065135 0.646766 0.276285 0.104573 0.218619 -0.626741 0.963671 0.069345 0.679705 -0.736865 -0.828488 -0.183669 -0.289085 -0.275792 0.943283 -0.292849 -0.103192 -0.337105 0.039895 -0.750498 -0.455619 -0.488681 0.065159 0.698472 0.572798 0.965130 0.134922 -0.261767 -0.599129 0.554015 0.592424 0.466006 0.200781 -0.131291 -0.429421 -0.580600 0.241967 -0.465750 0.488746 -0.078328 -0.202615 0.660258 0.738003 0.508300 -0.615534 0.681286 -0.784549 0.281274 -0.655819 0.255346 0.530775 -0.111437 0.766665 -0.404066 -0.412965 0.339463 -0.438935 0.721956 -0.922304 -0.038065 0.275971 0.670120 -0.572059 -0.523248 -0.461171 -0.001480 -0.103847 0.780796 0.532770 -0.615102 -0.297531 -0.669845 -0.954844 -0.559529 0.838455 -0.570378 -0.878242 -0.946094 0.710896 -0.534061 0.309253 0.241671 0.354501 0.075918 0.837605 0.941536 -0.584619 -0.601330 0.663492 -0.506923 0.360605 -0.060537 -0.836803 0.788546 0.416216 -0.297974 -0.212934 -0.687632 -0.517178 -0.680165 -0.302733 0.185291 -0.350010 -0.257578 0.625762 -0.511555 0.172044 0.747520 -0.457649 -0.117060 -0.786541 0.851604 -0.875389 0.567960 -0.072478 0.962216 0.509496 0.342903 -0.639114 0.172988 0.835980 0.721491 -0.887549 0.999177 0.510037 0.528667 -0.298797 -0.702898 0.841035 0.184025 -0.383062 -0.461698 -0.630684 0.266928 0.280724 0.995079 0.755373 -0.547231 0.742599 -0.702276 0.335709 0.956057 -0.850671 0.460319 0.524018 0.076851 0.422535 0.033513 -0.580247 0.783421 -0.793499 -0.744267 0.504912 -0.681047 -0.745090 0.014949 0.847620 -0.043887 0.312051 0.688655 -0.859862 0.928989 -0.773043 -0.490546 0.195917 0.507682 -0.495468 -0.048710 0.960450 -0.752869 0.249014 0.296159 -0.796811 0.398343 -0.243521 0.727206 -0.524807 -0.820986 -0.239281 -0.105054 0.962435 -0.032779 0.150679 0.467347 0.286174 0.405589 -0.517704 0.133793 -0.638298 0.794347 -0.177551 -0.498161 0.723336 0.049406 0.011293 -0.080747 -0.442913 0.515826 0.870542 -0.482462 0.762957 0.119556 0.813697 0.966146 -0.482101 -0.429825 0.693352 -0.006908 -0.250811 -0.545929 0.888039 -0.288376 0.421292 0.038718 -0.821029 -0.292534 -0.555693 -0.338733 0.841259 -0.193991 -0.544386 -0.336293 0.307848 -0.821050 0.713113 -0.680858 0.098202 -0.729800 0.834968 -0.031256 -0.212262 0.597925 -0.911699 -0.398565 0.564070 -0.393800 0.171610 0.257422 0.599292 0.920799 0.711493 0.487331 -0.367577 0.132785 -0.473951 -0.188605 0.840251 -0.029644 0.472662 0.681509 0.776365 0.928276 -0.654783 0.084213 -0.892775 -0.941670 0.403355 0.205427 -0.671469 0.238323 -0.825828 0.116269 -0.163752 -0.737527 0.717704 -0.599682 -0.131327 -0.110686 0.657740 -0.532035 -0.189887 0.369233 0.955296 0.442536 -0.497982 -0.518655 -0.746069 -0.657732 0.451702 0.726593 -0.976222 0.228067 0.654868 -0.631005 -0.687720 0.762093 -0.572675 0.715635 -0.032479 -0.244144 -0.046042 0.141693 0.872125 0.790206 0.404165 0.589828 -0.809477 -0.727162 -0.520858 0.848263 -0.259197 0.289255 0.217496 -0.303901 -0.268209 0.719514 0.177444 -0.014278 -0.938218 -0.370854 -0.287685 -0.914440 0.857213 -0.632817 -0.545445 -0.830507 -0.870723 -0.118120 0.885128 0.096798 0.637736 -0.160914 -0.761510 0.509861 -0.370708 0.642655 0.099690 -0.180185 0.915493 0.578832 -0.331921 -0.343704 -0.131913 0.885575 0.352395 0.599878 0.605089 -0.470160 -0.414400 0.666871 0.158986 0.297916 0.752432 0.016199 0.665099 -0.793013 0.185692 0.794376 0.088867 0.070820 -0.108826 -0.273396 0.909907 0.129664 -0.763535 -0.460801 -0.227681 0.336154 0.359014 -0.312188 -0.085014 -0.972907 0.344108 0.783073 0.912668 -0.303497 0.382951 0.517756 0.226343 0.968551 0.184628 -0.614671 0.266467 -0.062941 0.401528 -0.068434 0.144046 -0.412780 -0.274058 -0.767087 0.658040 0.617115 -0.040483 0.567947 -0.253221 0.195982 -0.892855 0.519098 -0.467864 0.466160 -0.793090 0.447122 0.493253 0.551018 0.230195 0.405920 -0.752479 -0.386854 -0.076323 0.473864 -0.418303 -0.891696 0.859193 0.848164 0.045363 0.260721 -0.220270 -0.810591 0.847940 0.505672 -0.577677 0.505980 0.122787 0.381840 0.073927 0.869566 -0.422178 0.181072 0.388664 0.109958 -0.352768 0.595573 -0.442920 -0.859515 0.146591 0.787275 0.546405 0.394113 -0.599580 -0.529919 -0.132023 -0.017883 -0.421614 -0.272830 -0.169719 0.623749 0.987891 0.610010 0.813158 0.835832 0.115682 -0.764519 0.341812 -0.761531 0.617321 -0.584261 -0.891965 -0.804857 0.596811 0.496698 0.305101 -0.755957 0.092272 0.862181 -0.615472 -0.761137 0.649456 0.930932 0.632976 -0.950123 -0.598986 -0.499047 0.031994 -0.020601 0.228124 0.862275 -0.396852 0.216015 0.472285 -0.583693 0.051846 -0.412033 -0.348212 -0.606342 -0.173564 -0.730891 -0.190603 -0.065530 -0.535748 -0.593792 -0.568831 0.769353 -0.349749 0.523440 0.631535 0.034779 0.762304 0.280991 -0.034289 0.395280 0.330867 0.366725 0.896233 -0.637139 -0.653876 0.124357 -0.774864 -0.050728 -0.659628 0.697420 0.365579 0.392218 -0.714613 -0.982633 0.785876 0.111823 -0.713524 -0.404727 -0.953706 -0.249272 0.001481 -0.522538 -0.479919 0.651732 -0.999097 -0.848384 -0.313490 0.763207 0.432607 0.652221 0.158486 -0.236526 0.018946 0.054720 0.126335 0.365070 -0.820923 0.351470 -0.685657 -0.480552 0.048891 0.679922 0.911666 0.334278 0.697289 0.697543 -0.553899 0.983764 -0.707184 -0.507605 -0.265508 0.294297 -0.030143 0.254573 -0.053972 -0.029240 0.406189 0.632539 -0.266033 -0.161205 0.284760 0.892453 0.602269 -0.696294 -0.052827 -0.271396 0.668777 0.126249 -0.919926 0.983119 0.645698 0.128965 0.663041 0.557364 -0.536756 0.360330 0.254907 -0.090655 0.344094 0.547722 0.401740 -0.921414 -0.157981 -0.628402 0.333159 0.788047 0.342358 -0.260652 0.420586 -0.923676 0.578143 -0.294654 0.968778 0.180413 0.009053 -0.084049 0.909017 -0.322171 -0.957800 0.989091 -0.339051 0.687898 0.118056 -0.676010 0.245262 0.581300 0.684319 -0.499832 -0.509355 0.028414 -0.952110 0.892385 0.107000 -0.110091 -0.736017 -0.559841 -0.322043 0.606340 0.179507 -0.901457 0.682665 -0.242350 -0.196111 0.651442 0.938063 0.812942 -0.432607 0.847080 -0.509229 -0.390407 0.836171 0.151720 -0.702509 -0.045773 0.475710 0.542752 -0.464473 0.160029 -0.957080 0.026171 -0.811557 -0.909189 -0.081444 0.295442 -0.019280 0.182539 0.735601 0.658677 -0.211121 -0.084892 0.757220 -0.528456 0.672758 -0.438891 -0.877014 0.610821 -0.625949 -0.309620 0.457900 -0.135177 0.299973 0.294071 -0.983458 0.597463 -0.751702 0.492252 0.140215 -0.216176 -0.347719 0.183135 0.809996 -0.159276 0.273946 -0.271448 -0.863834 -0.745334 0.911091 0.871767 0.913343 -0.300029 -0.213125 0.670563 0.171515 -0.540367 -0.768328 0.294501 -0.929546 -0.394277 0.984881 0.528354 0.470546 0.284853 -0.177575 0.487088 -0.117684 0.070723 -0.020660 -0.977468 0.854547 0.631621 0.205667 0.664543 -0.527655 -0.520387 -0.606905 -0.391489 -0.265721 -0.695813 -0.519722 -0.352378 0.004157 0.267153 -0.681816 -0.824328 0.726785 -0.450144 0.470173 0.797239 0.155579 0.455054 0.325593 -0.373875 -0.260092 -0.851982 -0.886787 0.622224 0.218741 0.092553 0.644755 0.073288 -0.275826 -0.149578 -0.262169 0.196519 0.330035 0.130926 0.805030 -0.935686 0.435113 -0.714692 -0.288064 -0.560730 0.552460 0.030120 -0.385058 0.279246 0.579976 -0.914884 0.076485 -0.264444 0.540170 -0.597922 0.361681 -0.719923 -0.449904 0.474893 0.902301 0.768837 -0.432554 0.547057 -0.157875 0.291621 -0.602521 0.579956 -0.511860 0.727514 -0.289118 -0.706831 0.791829 -0.854005 -0.421523 -0.496235 -0.414735 -0.869063 0.533885 0.200207 0.410183 0.113862 0.285323 -0.513332 0.849417 -0.174507 -0.111254 0.211098 0.105570 0.438842 -0.314009 0.007871 0.207679 0.253438 -0.445072 -0.950197 -0.454942 -0.047593 0.629759 0.033198 -0.320079 -0.659359 0.326367 -0.528250 -0.513364 0.904844 -0.024485 0.071901 -0.964218 -0.490600 -0.727891 0.445965 0.623262 0.557431 0.932633 0.472679 -0.617076 -0.178622 -0.316223 0.488494 -0.739780 0.369768 -0.503635 0.467899 -0.376794 0.051293 0.517702 0.168264 -0.996301 0.147462 -0.798538 -0.316380 0.488103 0.527829 0.155370 0.974739 0.432674 -0.869115 0.046641 0.468455 -0.359715 0.318749 -0.085580 -0.736453 -0.123819 -0.152947 0.736226 0.259105 0.668432 -0.579997 -0.252401 0.928652 0.789771 0.243964 0.396550 -0.587023 -0.704744 -0.085747 0.581242 -0.701044 -0.938286 0.782704 -0.017424 0.549817 0.310533 -0.862054 0.524556 -0.256793 -0.731169 -0.428803 -0.788338 -0.090884 0.889946 0.126082 0.172663 -0.233873 0.973136 -0.091111 -0.974769 0.641567 0.328892 -0.227170 0.570219 0.118663 -0.983207 -0.033231 0.531640 -0.687950 0.881022 0.112882 -0.388995 0.942736 -0.104415 0.593581 0.492553 -0.793882 0.731528 0.017109 -0.050675 -0.999641 0.588306 0.160987 -0.090524 0.478252 -0.712931 -0.917861 -0.755621 -0.739795 -0.008972 -0.730390 0.901772 -0.680080 0.042440 0.471991 0.438583 0.059233 -0.561239 -0.029777 0.371283 -0.680217 -0.916896 0.982288 -0.737481 -0.021310 0.575870 0.755072 0.184808 0.307398 -0.227818 -0.865867 0.307757 -0.639512 0.295119 -0.782767 0.838740 0.582189 -0.700628 -0.916881 0.842394 0.290400 -0.647271 0.744166 0.610319 0.395169 0.216157 0.048902 -0.545598 0.654918 -0.980875 0.825684 0.974700 -0.897771 0.807973 -0.762781 0.080919 0.383842 0.992291 -0.734273 -0.308760 -0.235527 -0.600141 0.998997 0.124961 0.694979 -0.783771 -0.036299 0.277168 -0.484399 0.046820 0.119561 0.806001 0.399548 -0.136273 0.416321 -0.205283 -0.920116 -0.534777 0.249119 0.734802 -0.515652 0.074803 0.709502 -0.413423 -0.117224 0.946721 0.667496 -0.733382 0.939013 0.933223 -0.042143 -0.296514 -0.666918 -0.043146 0.828447 -0.971939 0.173084 -0.207853 0.305229 0.688685 0.838967 -0.575210 0.494686 0.238515 0.288517 -0.088993 -0.966768 0.368401 0.376229 0.282351 0.103203 0.860577 -0.642846 -0.187295 -0.552846 0.239929 -0.240574 -0.885350 0.506547 -0.301561 -0.952127 -0.535595 0.401925 -0.619044 0.421259 0.230372 -0.590983 -0.405658 -0.977481 0.714246 -0.716973 0.861486 -0.860964 0.777713 0.100001 0.427552 -0.311280 0.133233 -0.204047 -0.935051 -0.584416 0.899156 0.925526 -0.227262 -0.288140 -0.627320 -0.987333 0.471287 -0.512670 0.519215 -0.830274 -0.464796 0.983619 0.571650 -0.083841 0.404878 -0.197978 0.325176 0.999220 -0.175459 0.039421 -0.717753 -0.313973 0.178457 -0.940040 0.786028 -0.393990 -0.251320 -0.080739 0.401963 -0.186371 0.334845 0.301119 -0.260845 -0.892417 -0.987021 0.111835 -0.879749 0.484266 0.599166 0.639465 0.653991 -0.865631 0.623085 0.225642 0.050528 0.027962 -0.972336 -0.624296 0.027182 -0.147796 0.415125 0.309430 0.538231 -0.406418 0.369390 0.324259 0.199592 -0.881930 -0.756480 -0.398445 -0.068302 0.578365 0.902674 0.670853 0.685948 0.915653 -0.217312 0.806199 0.399919 -0.618146 0.445664 0.053910 -0.483777 0.068749 -0.720448 0.566751 -0.903289 -0.692785 0.942455 0.123893 0.159420 0.357580 -0.566677 -0.302349 0.951163 0.802713 -0.978090 0.150755 0.920782 -0.734571 0.752310 -0.147519 0.843794 0.654983 -0.476666 0.529742 0.570636 0.306022 0.335941 -0.029445 0.687876 -0.218395 -0.975535 -0.795901 0.850353 -0.695983 0.770850 0.947064 -0.388768 0.713305 0.070957 0.770652 0.070886 0.504280 -0.531697 0.022049 0.306993 -0.509787 -0.827197 0.227775 -0.244358 0.925113 -0.919744 -0.400564 0.580097 -0.396410 -0.870822 0.150733 0.909612 0.465119 -0.878712 0.597488 -0.753277 -0.854247 0.801587 -0.902924 -0.550230 0.572438 -0.955860 0.061003 0.285743 0.115097 -0.168345 -0.643371 -0.380622 0.299958 0.378677 0.926371 0.790171 0.551481 0.154146 -0.454187 0.476594 0.234401 0.145249 0.056691 0.837991 0.274427 -0.792576 0.747602 -0.260455 -0.671288 0.345091 -0.013731 -0.525535 0.146678 0.083345 -0.075765 -0.280884 0.127485 0.985238 -0.995141 -0.757418 -0.183107 -0.638512 -0.138040 -0.883149 0.740165 -0.211670 0.907022 0.291646 0.942476 -0.547165 -0.231760 0.176877 0.598084 0.824931 0.014868 -0.127489 -0.967646 -0.237530 0.612057 -0.638934 -0.892439 -0.401675 -0.164469 0.254239 0.681670 0.759767 0.973354 -0.190845 0.745005 0.978213 0.051737 -0.438102 -0.660299 0.913696 -0.321251 -0.920133 -0.297973 -0.414228 0.371513 -0.355498 0.038607 -0.860247 0.821379 -0.363308 0.964684 -0.163753 0.509203 0.997039 0.598717 0.121260 -0.641895 0.706277 0.719585 0.193636 -0.039484 0.401255 -0.046597 -0.066130 -0.789590 -0.301592 -0.087916 0.262147 0.260305 0.251785 0.175843 0.939055 0.331652 0.877870 -0.475173 -0.296835 -0.477628 0.563434 -0.157082 -0.656248 -0.799874 -0.192397 0.179998 0.709329 -0.195359 -0.221285 -0.169412 0.162746 -0.515007 -0.449826 -0.643618 0.445509 0.951429 0.309785 -0.620621 -0.838161 -0.991807 0.291463 0.423986 0.268498 -0.456752 -0.400171 0.207553 0.874900 -0.522301 0.732380 -0.421935 0.000071 0.295813 0.420983 0.343823 0.495939 -0.771414 -0.476179 0.205267 0.033227 0.302537 -0.964144 -0.804026 0.787530 -0.413970 -0.447644 0.233038 -0.462541 0.862141 0.612418 -0.300702 0.870333 -0.096119 -0.876717 0.138831 0.447129 -0.276888 -0.653616 0.322029 0.200812 -0.921236 0.900094 -0.799117 0.374577 0.321077 0.544706 -0.129484 0.549664 -0.931473 -0.924217 -0.417109 0.371064 -0.888361 -0.221136 0.158594 -0.302331 0.331220 -0.608368 0.235127 0.193361 -0.995951 0.934425 0.063694 -0.092070 -0.942292 -0.797475 -0.644941 -0.219179 -0.451090 0.677088 0.981632 -0.372327 0.577182 -0.817485 -0.997749 -0.101741 0.727221 -0.127233 -0.552077 0.795748 -0.051450 0.030814 0.166812 0.060189 0.809678 -0.674594 0.757858 0.140898 -0.282962 -0.007015 -0.665741 -0.278913 -0.072590 0.397953 0.629017 -0.014881 0.600479 0.984076 0.765939 -0.850612 0.661163 0.747572 -0.222938 0.238345 0.930087 -0.220688 -0.863396 0.657308 0.652079 -0.415474 0.453056 -0.399371 0.615340 -0.380132 0.660818 0.425018 -0.054726 0.418676 -0.434084 0.662312 -0.588339 -0.099825 -0.616601 0.339072 -0.701872 -0.987584 -0.675810 0.898607 0.996492 -0.909870 -0.952004 0.657655 0.837701 -0.174943 -0.104000 0.767788 0.604370 0.032604 0.425096 0.256449 0.617130 -0.121848 0.857078 0.232470 0.498020 0.517896 -0.342512 -0.556705 -0.063428 0.223404 -0.894393 0.348233 -0.876420 -0.510994 -0.312695 -0.578292 -0.498578 0.011495 -0.679685 -0.502086 0.101624 -0.631689 -0.844431 -0.060674 0.193368 0.051569 -0.292886 -0.202262 -0.915827 -0.867791 -0.945813 0.701303 0.010361 0.911264 -0.066227 -0.491618 0.429160 0.591261 -0.048323 -0.634269 -0.185334 0.057283 0.713964 -0.061755 0.546289 -0.598731 0.359953 -0.952289 0.412764 0.680268 -0.454375 -0.485612 -0.951421 -0.298806 0.453714 0.241947 0.752763 -0.839172 -0.960315 0.836936 -0.706963 -0.906129 0.538239 0.303399 -0.994865 -0.527988 0.811781 0.434295 -0.936726 -0.236543 0.800026 -0.122061 0.820741 0.513991 0.816185 0.367030 0.915260 0.176138 0.414742 0.328024 -0.143594 0.960367 0.842412 -0.095015 -0.338439 0.296126 -0.853068 -0.585675 0.456954 -0.813383 -0.748739 0.749991 -0.719512 0.789500 0.053390 -0.714376 -0.738488 -0.134829 0.719919 -0.675214 0.628628 0.519945 0.202726 0.449369 0.033936 0.018910 -0.183601 -0.050805 -0.804952 -0.768859 -0.722781 0.051454 -0.808492 -0.880369 0.956439 -0.146930 0.415757 -0.896629 0.267394 -0.127289 -0.710013 0.518655 -0.377297 -0.429524 0.308155 0.676093 -0.143901 0.569668 -0.458736 -0.423982 0.894454 -0.830108 -0.904037 0.097179 0.619261 0.129899 -0.883910 -0.564339 -0.920906 -0.688863 -0.333198 -0.643687 0.362591 -0.141690 -0.524056 0.319030 0.711380 0.891701 0.422400 -0.021226 -0.235587 0.712388 -0.502571 0.387115 -0.717137 0.805585 0.063208 0.138963 0.375253 0.604472 0.714981 0.269706 0.774364 0.810944 -0.633114 0.393625 -0.059157 -0.517024 0.829286 0.019937 -0.205887 -0.503912 0.376249 -0.843296 0.354398 0.852193 0.475734 0.065778 0.743895 -0.101866 -0.955448 -0.491693 -0.389478 -0.458019 0.895423 -0.106615 -0.652434 -0.041369 -0.967652 0.722818 -0.436897 0.747329 -0.007475 -0.662533 0.558273 0.359411 0.731093 -0.500885 0.842386 0.560379 0.519052 -0.363501 -0.943533 -0.104698 -0.206797 0.410865 -0.252505 -0.731063 -0.523358 -0.508610 0.167071 -0.478806 -0.000303 0.777593 0.063175 -0.104880 -0.329021 0.410741 0.853751 -0.296673 0.133559 -0.583146 -0.549344 -0.873917 -0.245679 -0.991072 0.485494 -0.514586 -0.491956 0.327880 -0.954207 -0.972904 0.964379 -0.897740 -0.077603 -0.242418 0.513125 0.669892 0.026519 0.989767 -0.838718 -0.806409 -0.489039 0.160979 0.971184 0.574136 -0.943901 -0.357838 -0.015123 0.909849 0.345489 -0.881564 -0.673297 0.796144 -0.755481 0.081024 0.805073 0.730013 0.566438 -0.686883 0.057893 0.612231 -0.659787 0.022272 0.714491 0.262610 0.779855 0.227615 -0.067498 -0.193626 0.217383 0.093785 -0.000036 0.728344 -0.745236 -0.028852 0.302480 -0.689138 0.613310 -0.712643 -0.779288 -0.041201 -0.594208 -0.452586 -0.245056 -0.349689 0.628438 -0.439984 -0.619676 0.194876 -0.126867 0.438217 -0.192893 0.213346 -0.539510 -0.478402 -0.524044 -0.759656 0.749213 0.408458 0.046718 -0.033404 -0.497757 -0.953317 -0.305060 -0.242994 0.017831 0.997420 0.067869 -0.368859 -0.715223 0.288580 0.589940 -0.309431 0.835994 -0.655116 0.340880 0.464433 -0.095100 0.721205 -0.340691 0.778033 0.159422 0.466416 -0.008621 0.619912 0.988013 0.467334 0.860256 0.737226 -0.124207 -0.093025 -0.296178 0.378035 -0.046343 0.398761 -0.864959 0.971488 0.396181 0.202910 -0.397371 0.680958 -0.508510 -0.807431 -0.628473 -0.672515 -0.462547 0.712407 0.791917 0.442353 0.433612 -0.548774 0.220386 -0.406965 0.917642 -0.788235 -0.787053 0.905655 0.679099 -0.926797 0.642882 -0.445108 -0.019822 -0.653296 0.932927 0.933835 0.745465 -0.932032 0.905322 0.141646 0.270878 -0.492049 -0.177396 0.762368 -0.299480 0.194131 -0.910147 0.237973 -0.093462 0.881770 -0.319674 -0.659850 -0.667003 0.900712 -0.066815 -0.749361 -0.887523 0.146131 -0.843706 0.791576 0.219335 0.799176 -0.653532 -0.800488 -0.854121 -0.720605 -0.866653 0.891344 -0.652637 -0.961331 0.032991 0.618242 -0.453379 0.855595 0.380610 0.247141 0.049725 0.470463 -0.514886 0.956263 0.352233 0.165439 -0.703587 0.685230 0.066151 0.229598 0.935868 0.178628 -0.624271 -0.907837 -0.029796 0.595064 0.891339 0.316671 0.794576 -0.962782 0.596066 0.927923 0.928562 0.943430 0.966593 -0.038447 0.561671 -0.486787 -0.182852 -0.057719 0.760354 0.866873 -0.587256 -0.754533 0.823136 0.764977 0.410907 -0.880451 0.450207 -0.522942 0.349147 0.386075 0.655685 0.724877 0.478238 -0.374111 0.319941 0.369576 0.942560 0.114517 0.406794 0.538627 0.042440 0.335357 0.482056 0.009033 -0.703090 0.043728 0.522246 0.114058 0.986009 0.282600 -0.019070 -0.601247 0.528067 -0.195934 -0.836270 -0.061026 -0.076384 0.613936 0.416032 -0.727237 0.000012 0.071717 0.997640 -0.521751 0.697606 0.317581 0.847826 0.640167 -0.567902 0.254620 0.178794 0.474538 -0.410023 -0.339150 -0.516429 -0.113113 0.704577 -0.994183 -0.999056 0.690586 0.288417 -0.018125 -0.910661 -0.183516 0.785941 -0.746932 0.755459 -0.290443 0.867005 0.171491 -0.017680 -0.132984 -0.756792 -0.020040 0.345266 0.940814 -0.702459 0.193092 0.580981 -0.270360 -0.552288 -0.240225 -0.795822 0.037689 0.420624 -0.312251 0.924575 0.125202 -0.306434 0.925520 -0.184212 0.981983 -0.092605 -0.094874 -0.201532 -0.306664 0.158195 -0.446074 0.402893 0.025199 0.725417 -0.614787 0.892216 0.968625 0.365174 0.237481 0.909439 0.662715 -0.569427 0.490420 -0.607645 -0.121715 -0.749805 -0.403467 0.915973 0.670819 0.284282 0.840549 -0.203979 0.977848 0.766068 0.611809 0.959831 -0.326537 -0.483065 -0.241701 0.366799 0.675130 0.312225 -0.230308 -0.299671 0.037642 0.154905 -0.407455 0.006267 -0.479921 0.830026 -0.084294 -0.817206 -0.739401 -0.593874 -0.424851 0.138884 -0.343680 0.171682 0.054857 -0.672861 -0.544037 -0.104595 0.123160 -0.566189 -0.338527 -0.265031 -0.606358 0.334936 0.251904 0.151941 -0.298265 -0.072966 -0.535834 0.471427 0.627363 0.501807 -0.373668 -0.780092 -0.491926 0.146411 -0.950065 0.423780 0.329205 -0.689466 0.829905 0.904354 0.449417 -0.513774 0.076036 -0.495726 -0.186635 0.532000 0.399679 0.936525 0.965811 -0.938847 -0.328506 -0.640547 0.396089 0.923399 0.511394 -0.902176 -0.149567 0.975560 0.569250 -0.522204 0.477367 -0.804418 -0.302295 0.985441 0.341993 -0.252361 0.409221 -0.328802 0.058173 0.239126 -0.424448 -0.492410 0.725352 0.651588 0.011864 -0.461283 0.183588 -0.588457 -0.524758 0.149399 -0.527304 0.146736 0.508852 0.868785 0.070135 0.020246 0.966609 0.920568 -0.004195 0.535859 -0.601636 -0.526828 0.731441 0.096069 -0.541387 0.073434 0.843708 0.867834 0.744632 -0.098119 0.106960 -0.679816 0.409471 -0.167689 0.971772 -0.578665 0.371028 0.155360 -0.167122 0.846270 -0.695242 0.305574 -0.006993 0.813610 0.174359 -0.936858 -0.166144 0.140967 0.983710 0.829661 -0.323174 -0.617926 -0.697167 -0.591733 0.478143 -0.238554 0.481701 0.321851 -0.370720 0.226333 -0.776268 0.736240 0.546516 0.633203 -0.431448 0.518288 -0.945462 0.939580 -0.326352 -0.112584 0.785850 -0.021594 -0.807010 -0.221144 -0.207984 0.367349 -0.158002 0.625872 -0.491684 -0.174292 0.455533 0.185142 0.207782 0.758366 0.593409 -0.314075 -0.480188 0.075110 -0.992224 0.149092 -0.698558 -0.768491 -0.114667 0.847959 0.864712 0.453884 0.366247 0.919250 0.393464 -0.960106 -0.193334 0.179313 0.018300 -0.000344 0.958170 0.810316 -0.632995 -0.199833 0.436188 -0.124679 0.625875 -0.108279 -0.939538 -0.166343 -0.349914 0.653871 0.519582 0.169899 -0.271019 0.527358 -0.681009 0.030423 0.758866 0.204324 -0.121618 0.623578 -0.341792 -0.755372 0.542828 -0.948329 -0.715477 -0.650505 0.230985 0.302823 0.349151 0.189154 0.113139 0.716156 0.989322 -0.450673 -0.408523 0.615197 0.441047 -0.348060 -0.551146 -0.908866 -0.694189 0.968435 0.261032 0.034792 0.495793 0.580023 -0.934785 0.254660 -0.215653 -0.056403 -0.121762 0.442554 0.188226 -0.578934 0.494226 0.472748 -0.229439 -0.274789 -0.224429 -0.880287 0.914365 0.888710 0.835869 0.903687 -0.561963 -0.572654 0.518883 0.879084 0.079286 0.967737 0.970217 0.385097 0.936172 0.231250 -0.580111 0.431965 -0.188727 -0.514895 -0.313375 0.595619 0.428702 0.564863 0.038174 -0.383072 0.985929 -0.467600 -0.910324 -0.243510 0.257610 -0.134753 -0.123797 0.171975 -0.246043 -0.287928 0.075662 0.191993 0.139418 -0.405455 0.071077 -0.781296 -0.437718 0.041294 0.603801 -0.501545 -0.727456 -0.976310 0.930420 0.083816 -0.491206 -0.382956 -0.320564 0.937496 -0.818093 0.717610 -0.445577 -0.832164 -0.749990 -0.355901 -0.075674 0.507620 0.509346 0.800529 -0.320405 -0.736697 -0.487400 0.755257 0.455296 0.652018 -0.650197 -0.473628 0.870722 -0.087915 0.567667 0.474522 0.410540 0.840210 0.498212 0.340960 -0.075974 -0.992994 0.958004 0.603462 0.944502 -0.860089 0.321072 -0.501075 -0.692253 0.571082 0.143025 0.232073 0.078702 -0.347629 0.032602 0.758297 -0.084327 0.545202 0.513555 -0.629031 0.197220 0.863357 -0.102659 0.067941 -0.224557 -0.534992 -0.457536 -0.814017 -0.694782 -0.959325 0.526942 0.229244 -0.952319 0.484946 -0.167293 0.992183 0.624857 -0.846221 -0.508891 0.932604 0.724861 0.634133 0.164677 -0.196437 -0.713496 -0.802721 -0.438140 0.202177 0.742480 -0.924585 0.573146 -0.060300 0.938772 -0.529513 -0.992358 -0.285785 -0.064506 -0.449895 -0.099803 0.240712 -0.409219 -0.572861 -0.530044 -0.361538 0.912085 0.302663 -0.369355 0.536943 0.456442 0.121754 0.469547 0.181303 -0.244113 -0.365776 0.984865 0.042391 -0.168498 -0.453275 -0.755432 -0.426017 -0.377860 0.817714 0.513683 -0.439088 -0.711799 0.521324 0.275126 0.223695 -0.928570 -0.824676 -0.535593 -0.337790 -0.397537 -0.065636 0.300672 -0.485451 -0.762973 0.931318 -0.948509 0.693469 0.053072 0.521038 -0.125229 0.808959 -0.844739 -0.140364 -0.148649 -0.013237 0.406361 0.095919 0.560746 -0.971499 -0.086367 
0.074429 -0.410587 0.201833 -0.404246 0.864539 -0.574472 -0.332817 -0.960137 -0.110065 0.329393 -0.357674 0.824299 -0.369935 0.156874 -0.938674 -0.438617 0.208365 0.754794 0.614455 -0.270597 -0.370434 0.423414 -0.115336 0.489202 -0.725235 0.871428 -0.104437 0.370683 0.432174 -0.075936 -0.715684 -0.493397 0.513476 0.486149 0.102356 0.378015 0.911677 0.769540 0.417878 -0.198388 0.098933 -0.939796 -0.374089 0.728998 0.217078 -0.312763 -0.709619 -0.574556 -0.557968 0.904836 0.154846 0.071597 0.328250 -0.960489 -0.439201 0.603015 0.910938 0.456362 -0.026302 0.343112 -0.619575 0.258014 0.849715 0.893902 -0.255837 -0.047928 0.271917 -0.344160 -0.278389 -0.310205 0.457453 0.820544 -0.250001 -0.916636 0.549542 0.967077 -0.229399 0.839923 -0.607479 0.212632 0.744759 0.547367 -0.715771 0.073010 0.586878 -0.154972 -0.323976 0.497816 -0.698610 0.649723 -0.159072 -0.318185 -0.092263 -0.309357 -0.424283 0.651900 0.642715 0.847634 -0.692260 -0.635674 -0.462571 0.765192 -0.815130 0.287428 0.848556 0.734412 0.254505 -0.380843 0.574335 0.647026 0.831790 0.319095 0.194393 -0.883981 -0.607896 -0.218730 -0.038953 0.068129 -0.720914 0.262437 -0.282149 0.120014 0.944252 0.625588 0.810658 -0.480031 0.277488 0.453372 -0.632397 0.585227 0.817698 -0.094968 0.350420 -0.997432 -0.807540 0.198976 0.736980 0.446965 0.818133 0.311316 0.093991 0.649923 -0.369590 -0.711617 0.765942 0.022514 0.069654 -0.273011 -0.909357 0.348740 0.989426 -0.191506 -0.531246 0.933678 -0.565918 -0.720588 -0.546353 0.711569 0.732785 -0.178750 0.296797 0.550483 0.726282 -0.352783 0.553051 0.918742 0.846193 0.290031 0.365707 0.664326 -0.398653 -0.540302 0.314249 0.231757 -0.251919 0.080190 -0.745728 0.817735 0.807179 -0.655085 0.166475 0.796605 0.153409 0.635230 0.730282 0.587491 0.914642 -0.816071 0.299060 0.647426 0.005179 -0.404143 0.197909 -0.268539 0.243074 -0.249040 -0.349797 0.089267 -0.959008 -0.984090 -0.246408 -0.357661 -0.524393 -0.932159 0.874096 0.223689 0.148031 -0.871633 0.041424 -0.044790 -0.526718 -0.792101 -0.248185 0.626691 0.843128 -0.517903 0.214182 0.757770 -0.333973 -0.486758 0.405196 0.671206 0.109099 -0.396895 -0.597334 -0.647827 0.354065 0.052869 0.441440 0.395057 0.068779 -0.804968 -0.962605 0.544386 -0.737127 0.911491 -0.231926 0.410904 -0.960142 0.809498 -0.633886 -0.486860 -0.982603 0.117929 -0.860169 0.860525 0.600027 0.354013 0.618295 -0.733947 0.867255 0.023491 0.937259 -0.023646 0.626596 -0.660075 0.328527 -0.019339 0.392794 -0.230033 -0.624282 -0.538427 -0.035001 -0.586887 -0.994041 0.227872 -0.675396 -0.225967 -0.361224 -0.635538 -0.416469 0.004890 -0.122397 -0.399072 -0.877181 0.017434 -0.538547 0.722846 -0.628553 -0.920253 0.988899 -0.761298 0.103238 0.926158 0.215056 -0.270166 -0.733917 -0.456416 0.710495 0.658877 0.313551 -0.913787 -0.879550 -0.721450 -0.500675 -0.873592 0.506422 -0.176071 -0.099559 -0.854803 0.188392 0.483972 0.150087 -0.934005 -0.915100 0.272907 0.083429 -0.453647 -0.004248 0.454876 -0.373900 -0.015349 0.693578 0.729338 -0.089191 -0.091366 -0.540828 0.176891 0.452218 -0.830333 -0.164232 -0.234232 -0.744121 -0.043782 0.044318 -0.244795 0.082626 -0.449260 0.579134 0.983068 -0.304063 -0.232474 0.467040 0.846024 -0.166480 0.551940 0.118931 0.916949 -0.901708 -0.885317 0.371825 -0.275608 0.099334 0.065402 -0.546270 -0.989857 0.974037 -0.087098 0.187034 0.426254 0.082569 -0.977198 -0.807977 0.338448 -0.020980 0.236341 -0.906347 -0.938354 0.787081 0.672787 -0.955286 -0.516982 -0.559688 0.511753 -0.670958 0.273832 0.063693 0.447973 0.190781 0.161986 0.562656 -0.437394 0.886378 -0.338010 0.628008 -0.659892 -0.327868 0.602045 0.253010 0.859166 0.028299 -0.664421 0.881968 0.220322 0.674027 -0.139012 -0.543337 0.767680 -0.077366 -0.756256 0.440466 -0.032652 -0.273239 0.880779 -0.520899 0.055803 0.154611 0.542795 -0.496224 -0.654608 -0.295219 -0.933568 -0.092002 -0.408841 -0.271578 -0.463994 -0.068733 0.400554 -0.861949 -0.815722 0.259720 0.166350 -0.480143 0.141689 -0.613328 -0.806116 -0.997323 -0.156665 0.961564 -0.074689 0.087079 0.402030 0.892659 0.813841 0.282809 -0.628240 -0.130356 -0.562580 0.914555 0.373420 -0.217188 -0.380664 0.439852 0.690809 0.210495 -0.831726 -0.773185 -0.858238 0.568828 -0.635134 -0.673960 -0.171451 0.531216 -0.154104 0.970237 0.917888 0.039781 0.972914 -0.238776 0.001344 -0.101775 0.848303 -0.596626 -0.209116 0.662144 0.686183 0.162644 -0.468212 -0.876397 0.077199 0.905208 -0.093586 0.696535 0.345060 -0.402776 -0.092970 0.513334 -0.175961 0.048792 0.082163 0.188906 0.374831 0.910712 -0.279878 -0.779272 0.880949 -0.361990 0.260508 0.853863 0.399234 -0.738147 -0.247912 0.247537 -0.334773 0.542972 -0.090320 -0.648590 -0.294384 0.441468 -0.524987 0.782816 0.346676 0.381427 0.479351 -0.308264 0.978651 -0.613619 -0.794930 -0.197310 0.435173 0.287233 0.991596 -0.189996 0.197945 -0.288282 0.030732 0.078893 0.349728 -0.708760 -0.067244 -0.251038 -0.446907 0.684844 0.996499 0.218320 0.227816 -0.093821 0.569730 0.933432 -0.652353 -0.955257 0.716247 0.694323 0.426170 0.195598 -0.613941 0.404822 0.581979 -0.408871 -0.792488 0.017152 0.878362 -0.800892 0.827156 0.076306 -0.089174 -0.142113 -0.844800 -0.739446 0.149128 0.087956 0.009516 0.702220 -0.227200 0.006014 -0.079460 -0.999384 0.912193 -0.509730 0.934048 -0.740160 -0.464986 0.650295 0.954163 0.961184 -0.154107 -0.659779 0.366006 -0.572128 -0.068650 0.573518 0.445024 -0.190288 0.772626 0.272180 0.886018 -0.316549 -0.869933 -0.958782 -0.055995 0.279195 0.129174 0.953521 -0.018585 0.901974 -0.040465 0.901955 0.902590 -0.128272 -0.607774 0.836638 0.131568 -0.072761 0.486933 0.085731 -0.111577 -0.667174 0.425952 -0.745571 -0.239302 -0.642698 0.827946 -0.794278 0.167014 0.600572 0.477902 0.053032 -0.715976 0.607969 0.094250 0.228029 -0.112836 -0.776577 0.181549 0.868579 -0.874602 -0.858916 0.770535 -0.972013 0.012812 -0.837240 0.864625 -0.855620 0.090000 0.351558 0.230111 0.978423 0.684384 -0.343937 -0.767148 -0.554917 0.013365 -0.939201 -0.349195 -0.819621 0.661371 -0.871293 0.233411 0.945394 0.736676 -0.672340 0.173423 -0.376160 -0.448916 -0.645028 -0.507581 -0.323519 -0.503944 -0.737046 -0.295531 0.508868 -0.574286 -0.430906 0.653249 0.515714 0.920652 -0.116640 0.494137 0.605036 0.539423 0.726989 -0.949882 -0.447212 0.787788 -0.299077 -0.266833 0.449159 -0.170370 0.966577 0.394553 -0.433693 -0.705763 -0.432024 0.190147 -0.154679 -0.077052 0.682566 0.521802 0.419004 0.945520 -0.773729 -0.072128 -0.628766 -0.204635 -0.418879 0.886948 -0.283983 0.464481 0.381085 -0.678948 0.003904 0.108075 -0.628829 0.556691 -0.104137 0.072094 -0.710142 -0.654979 0.901724 -0.743565 0.739574 -0.531969 -0.449327 -0.692451 0.658178 0.395994 0.230497 0.340744 -0.082204 -0.350499 0.286264 0.144067 0.577373 0.657499 0.939432 -0.841505 0.544447 -0.344551 0.622975 -0.074468 -0.023499 -0.373121 -0.966393 0.347672 -0.816430 -0.070531 -0.580234 -0.526572 0.274491 -0.678510 -0.270137 0.014064 -0.210479 0.280535 0.321614 -0.552301 -0.323471 -0.447889 0.788444 0.594325 0.201612 0.074708 -0.261607 -0.221015 -0.267793 -0.322175 -0.062520 -0.723347 0.333274 -0.439545 0.202186 -0.690225 0.187334 0.235792 0.657447 0.370904 -0.834738 -0.922787 0.844332 0.439752 -0.601297 -0.425805 -0.546183 0.188224 0.854730 0.775430 0.635924 -0.468741 -0.672459 0.424367 -0.874415 0.529152 -0.500925 -0.136023 -0.691863 0.231282 0.541802 0.245617 0.507935 -0.124924 0.806072 -0.289879 0.184851 -0.006595 0.945913 -0.157703 -0.635691 -0.888825 -0.080490 -0.791359 0.550927 0.318213 -0.217164 -0.995256 -0.493563 -0.362434 0.780174 -0.857640 0.168825 -0.892285 0.566728 0.294410 0.636867 -0.934197 -0.841613 0.945005 0.297085 0.700189 0.190622 -0.194980 -0.424735 -0.003306 0.515141 0.760115 0.990099 0.461054 -0.397588 -0.645592 0.572229 0.521922 -0.436951 0.123156 -0.159865 0.345885 0.127900 0.346571 0.983450 -0.091926 0.488932 0.152275 0.015789 0.055659 -0.553315 -0.347343 0.121463 -0.394928 -0.402339 -0.581453 -0.694739 0.788283 0.223568 -0.119474 -0.215023 -0.261291 -0.359359 -0.224924 -0.800237 0.243053 0.129484 0.771992 -0.235024 0.692533 -0.104852 0.605110 0.038418 -0.976951 -0.048318 0.021868 -0.068877 -0.559386 -0.825856 0.946912 0.496273 -0.379171 -0.400431 -0.382264 0.225901 0.197230 0.036283 0.531162 -0.014487 -0.740149 -0.588313 0.770490 -0.001441 0.052328 -0.454434 0.198322 -0.704618 0.675049 -0.029686 0.060357 0.367583 0.865462 -0.334532 -0.594000 0.888511 0.617150 0.427869 -0.180366 -0.942237 0.602012 -0.233454 0.554037 -0.777159 0.366115 -0.828228 0.448742 -0.436655 0.208055 -0.020097 0.548859 0.467906 0.391591 0.319349 -0.533535 -0.556081 0.864914 0.664787 -0.260700 0.539964 -0.364899 0.799658 -0.092454 -0.499436 -0.534874 0.313547 -0.610925 -0.917725 -0.258585 0.208708 -0.859961 -0.656572 0.975255 0.694075 -0.433731 0.341370 0.865847 -0.984989 0.904715 0.073903 -0.005086 0.453574 -0.458191 -0.613496 -0.227078 0.008274 -0.169577 -0.362164 -0.326939 0.569723 -0.822200 0.308163 0.369381 0.085346 0.808726 0.834507 -0.601107 -0.802199 0.916782 0.140308 0.406509 -0.943179 0.483736 0.381764 0.750896 -0.949995 -0.276867 0.616743 -0.934985 -0.372152 -0.309354 0.059929 -0.918578 0.232454 0.446433 -0.145656 -0.759272 -0.723143 0.492180 -0.086210 0.846580 0.669980 -0.778048 0.215961 -0.244674 -0.969322 0.050468 0.154218 -0.771521 -0.032750 -0.705474 0.634988 0.024071 0.778262 0.016752 -0.225033 0.828267 0.739885 -0.608290 0.893282 -0.632267 0.082355 -0.046789 -0.550845 -0.685190 -0.600355 0.303498 -0.444462 -0.323499 -0.204322 0.469328 -0.476919 -0.534342 0.691280 0.739042 0.220984 0.721958 -0.210489 -0.624798 0.950437 0.756761 -0.330272 0.585425 -0.219168 -0.552010 -0.397823 0.555798 -0.723743 -0.657938 0.947508 -0.830461 -0.290205 0.029863 0.122750 0.158949 0.344672 0.522395 -0.537552 0.900210 -0.801104 0.258126 0.369538 -0.278023 0.723784 0.060818 -0.538981 -0.055232 -0.217224 0.250530 0.319969 -0.266787 0.007291 0.989697 -0.681361 0.788122 -0.562312 -0.079184 0.343920 -0.286056 0.262877 0.291428 -0.116517 0.972672 -0.678709 -0.993767 0.131621 0.665963 0.528628 0.594069 0.566174 0.727524 -0.147805 -0.064288 -0.550499 -0.424021 0.996530 -0.089480 0.520747 -0.220694 -0.838950 -0.159284 0.512520 0.168341 -0.169587 0.831158 -0.043537 0.268101 -0.248026 -0.699616 0.982045 -0.985149 0.591812 -0.134471 0.987523 0.913103 -0.128238 0.119144 0.579066 -0.599610 -0.286786 0.145240 -0.872086 0.565409 -0.919048 -0.422585 -0.858612 -0.922519 0.487935 0.662135 -0.143212 0.648985 -0.497149 -0.630693 -0.182674 0.333264 -0.799535 0.773789 -0.398635 -0.047561 -0.925827 -0.416589 -0.032710 0.665985 0.448939 -0.045186 0.579087 -0.679298 -0.926042 0.158153 -0.278908 -0.212828 -0.696607 -0.150994 -0.647420 -0.615655 0.426421 -0.506032 -0.538174 -0.085644 -0.843897 0.318614 -0.436659 -0.341046 0.687921 0.380667 0.992218 0.888386 0.154457 -0.406416 -0.159175 0.228630 0.176994 0.808116 -0.105386 -0.374066 -0.237071 -0.526298 -0.053365 -0.163113 0.631855 0.667727 0.624059 0.935248 -0.483267 0.976639 -0.680407 0.943154 -0.529392 -0.218581 -0.142490 -0.373289 -0.899967 0.420851 0.285665 0.787953 -0.198481 0.277884 0.676340 0.955975 0.871467 -0.482835 0.184605 0.048461 -0.674719 -0.920781 0.674395 0.088210 -0.447079 -0.378969 0.925098 -0.815225 -0.711242 0.549157 -0.879977 -0.194509 0.525796 -0.560384 -0.251354 0.996404 0.221035 0.606156 -0.376885 0.321068 0.027008 0.908780 0.109021 0.828526 0.186663 -0.214640 0.784501 0.058130 0.302526 -0.030894 -0.893408 0.627806 0.048325 0.780987 -0.283983 0.601246 -0.597982 -0.358885 0.786021 -0.309225 -0.809729 0.906045 0.496267 0.716067 -0.654339 -0.755088 0.712471 0.566696 0.851068 -0.664415 -0.112237 -0.121924 -0.755635 0.996784 -0.293398 0.431028 -0.217856 -0.508896 -0.510841 -0.915330 0.460210 -0.404249 0.712476 -0.491465 -0.623262 -0.571507 -0.890219 -0.221245 0.069608 0.895802 0.469531 0.259879 0.801846 -0.034203 -0.024054 -0.852493 0.210710 -0.311584 0.714203 0.061778 0.024002 -0.398034 0.939854 0.268367 -0.401250 -0.353544 -0.300605 0.380894 0.137560 0.188554 0.465564 -0.402230 0.784305 0.178040 0.106305 -0.838957 0.606534 0.216085 -0.060202 -0.323859 0.111887 -0.590671 0.936020 -0.086266 0.375126 -0.088034 0.061241 -0.414164 0.600383 -0.224557 0.647614 -0.375616 0.377409 0.587468 0.892751 0.976159 -0.766076 -0.407854 0.357053 0.371484 0.780700 -0.177383 0.969254 0.565005 -0.999343 0.075559 0.726047 0.607191 -0.708356 -0.334155 -0.716668 0.403531 0.075173 -0.780647 -0.682735 -0.549701 0.131319 0.378505 0.036135 -0.268299 -0.846051 -0.316251 0.356085 0.531358 -0.728783 0.248836 0.507517 -0.494859 0.840982 -0.135430 0.876625 0.621682 0.687187 0.845879 0.186687 0.687844 -0.078562 -0.087266 0.295035 0.213082 0.578579 0.578368 -0.383387 -0.346247 0.797720 -0.066123 0.104052 -0.070961 -0.687617 -0.859813 0.660740 -0.533668 -0.176064 0.016826 0.997690 0.095153 -0.734338 0.505206 0.600294 -0.893355 -0.630224 0.476919 0.728327 -0.943037 0.322798 -0.084986 0.744807 -0.755764 0.827748 0.039842 0.457317 0.406327 -0.381791 -0.926070 -0.939921 -0.584070 0.007807 0.164131 0.344969 0.320190 0.304318 0.005709 0.786522 -0.871746 -0.977465 0.784212 0.223407 -0.711802 0.289418 -0.176299 -0.605158 0.659194 -0.699380 -0.876831 0.716157 0.623418 0.038183 0.460963 0.867654 -0.134069 -0.499195 0.324971 -0.727742 0.119015 0.398901 -0.667663 0.534945 -0.593291 0.496468 -0.120087 0.726899 -0.199214 0.885623 0.513421 -0.070959 0.908158 0.297633 -0.847553 -0.803644 -0.412949 -0.023852 -0.408802 -0.753755 0.276768 -0.285633 0.962402 -0.099815 0.752550 0.423365 -0.232161 -0.381519 0.924171 -0.907190 -0.109262 0.043185 0.491711 0.223075 -0.421870 0.898420 -0.280456 0.458043 0.625319 0.520330 0.343666 0.138740 -0.550629 0.251824 -0.563627 -0.398182 0.448180 0.023423 0.577966 -0.960622 0.269668 -0.145267 -0.246255 0.232070 0.754919 -0.493706 -0.344564 -0.477242 0.124775 -0.420394 -0.384432 -0.984487 0.622791 -0.892720 0.238589 -0.799079 -0.994300 0.958132 0.658964 0.631018 0.478462 0.002630 -0.230242 0.927833 -0.745545 0.206131 -0.470349 0.702634 -0.770446 -0.892384 0.742012 0.499223 -0.037650 -0.504243 -0.268707 -0.282732 0.002051 0.386729 0.240026 -0.873174 0.966335 0.855594 -0.857660 0.589126 0.962874 0.380928 0.790047 0.968573 0.339061 0.449012 0.599591 -0.182477 -0.548358 -0.630650 -0.254644 -0.293903 0.575481 0.275007 -0.591269 0.805035 0.382623 -0.849257 0.304258 -0.655028 -0.353501 -0.964449 0.062241 0.648551 0.422280 -0.697733 0.775377 0.388615 -0.842139 0.917717 -0.022259 -0.879266 0.298645 -0.232212 -0.910693 -0.362294 -0.783201 0.688899 0.455229 -0.331559 -0.941752 -0.799416 0.374538 0.633729 0.475591 0.783269 0.438765 -0.141786 0.934012 -0.256977 0.203187 -0.419489 -0.221426 -0.734573 -0.770938 -0.799146 -0.432306 -0.995562 0.589468 -0.274446 0.922155 -0.432791 -0.153712 0.220800 0.334997 -0.064405 0.858505 0.551796 -0.375506 0.313734 -0.779763 -0.317258 0.514318 0.594775 -0.683528 -0.010091 0.378044 0.755236 0.848123 0.312055 -0.501741 0.051310 0.892566 0.276833 0.316737 -0.878372 0.477687 0.884431 -0.873934 0.067155 -0.390015 -0.951779 0.634364 0.456274 0.269021 -0.030639 -0.608131 0.127526 -0.478843 0.016363 -0.558740 -0.258605 0.699106 0.955579 -0.663830 -0.984423 -0.054512 0.714214 0.770813 -0.206389 0.026269 -0.730928 0.844922 -0.081164 0.545905 0.161659 0.040464 0.023591 0.046090 0.166530 -0.909254 0.656075 0.214751 0.725110 0.112349 -0.516227 -0.305529 0.504218 0.611299 0.215628 -0.479418 -0.947441 0.957023 -0.780313 -0.991862 -0.706807 -0.764736 -0.046374 -0.992593 -0.993922 0.747237 0.033676 -0.724850 0.592159 0.952511 0.821055 -0.246182 -0.007025 -0.155354 0.799908 -0.840495 -0.064607 0.455983 0.374257 -0.339497 -0.431668 0.858029 0.354974 -0.927449 0.469328 -0.429397 -0.406868 0.521887 -0.472374 -0.187180 0.530025 -0.179182 0.048084 -0.516349 -0.171775 0.054162 -0.769112 0.861901 0.329312 0.823047 0.814412 0.150366 -0.423135 -0.192613 0.995012 -0.623227 -0.033108 -0.069595 0.832756 -0.658851 0.590908 -0.598912 -0.800822 -0.054118 -0.526361 0.668506 0.516485 0.066771 0.190394 -0.955889 0.879591 -0.279581 -0.135071 -0.072325 0.204070 0.693154 0.981837 0.434958 0.555055 0.311148 0.258006 0.369467 -0.538486 0.834870 -0.823145 -0.543473 -0.788357 0.143747 0.386932 -0.955601 0.484896 -0.022160 -0.554513 0.684074 0.923722 -0.080875 0.352580 0.440207 0.985897 -0.457026 0.484318 0.865488 0.263393 -0.650753 -0.206837 -0.532537 -0.957598 -0.225001 0.902422 0.597457 -0.913853 0.160428 -0.033076 -0.452338 -0.004702 0.143779 0.004188 0.206941 -0.712475 -0.608880 0.251340 0.772421 0.368960 0.696826 0.456496 0.292682 -0.384048 -0.190924 -0.267111 -0.398152 0.352050 -0.782793 -0.532664 -0.384556 -0.433546 0.260498 0.082907 -0.391144 -0.964502 -0.014671 -0.793688 -0.878355 -0.854244 0.173236 -0.330693 0.141054 -0.682985 0.673495 -0.652005 -0.395460 -0.935385 0.599335 -0.623038 0.433575 0.296161 0.833457 -0.273744 0.912113 -0.357467 0.459145 -0.486039 0.994584 0.676352 -0.018703 -0.389973 -0.757194 -0.758205 0.692934 -0.148338 -0.722707 -0.321737 0.057974 -0.601062 -0.175981 -0.768789 0.068245 0.965073 -0.451774 -0.258261 -0.686931 0.152766 -0.193646 0.912403 0.529728 -0.760071 0.208564 0.363185 -0.033814 0.120677 -0.994282 -0.574669 0.634638 -0.999698 -0.898317 -0.384066 -0.389671 -0.655511 -0.142270 -0.696737 0.196151 0.135022 -0.018474 -0.745874 0.533960 0.805545 -0.514663 -0.397795 0.770618 0.033562 0.343944 -0.916313 -0.813672 -0.849701 0.996090 0.716056 -0.609772 0.204654 0.079240 0.356413 -0.674669 0.084959 0.781744 0.959969 0.085260 0.883427 -0.424097 0.695589 -0.772083 0.433632 0.998852 0.424068 -0.431345 -0.019622 0.678194 -0.897385 -0.214077 -0.836470 -0.295180 -0.443459 0.197092 -0.951236 -0.359772 0.383420 -0.800937 -0.363682 0.099476 -0.410709 0.840972 -0.821284 0.945704 -0.833697 0.263675 0.727448 -0.873729 -0.651065 0.610875 -0.297826 -0.955476 0.838792 -0.864194 -0.956623 0.262860 -0.295539 0.023754 -0.058946 -0.192924 0.809677 0.104584 0.511896 -0.633782 -0.698324 0.560660 0.006446 0.685097 0.759723 0.642763 -0.215428 -0.650986 0.483735 -0.036712 -0.705282 0.650038 -0.773037 -0.977833 0.776309 -0.424102 0.633042 -0.521517 -0.379578 0.471834 -0.385710 -0.336201 -0.265306 0.318751 0.687553 0.675748 -0.874173 0.497230 -0.219668 0.637723 0.863449 0.082008 0.198384 -0.130106 -0.232895 -0.041893 -0.487343 0.551677 0.307121 0.996392 -0.485034 0.601840 0.646430 -0.258071 0.624006 0.422739 0.317827 0.257048 0.901222 0.938249 -0.271118 -0.484488 -0.397952 0.463577 0.834263 -0.710398 0.139325 0.960090 0.786832 0.919657 0.597813 0.650281 0.001665 -0.203803 -0.479825 0.768770 0.754304 0.032832 0.320447 0.061426 0.029224 0.835413 -0.336735 -0.324346 -0.422659 -0.712729 -0.901607 0.895168 0.544320 0.999616 0.833418 -0.726798 -0.484872 -0.564534 0.736779 -0.650609 -0.274933 -0.123897 -0.690519 -0.488100 -0.204240 0.907294 -0.837820 0.797425 -0.296509 -0.317645 0.566195 -0.542204 0.715187 -0.113358 0.519221 -0.255589 -0.277946 -0.817513 0.420065 0.299396 -0.530242 0.518459 0.194564 -0.985922 0.518074 0.027982 -0.712720 -0.966798 0.463448 -0.975941 -0.617407 -0.811485 -0.099837 -0.307927 -0.299585 0.695923 -0.400633 -0.137405 0.493347 0.302859 0.544950 0.059542 0.760654 0.260137 0.946183 0.279876 -0.995452 -0.331762 0.462362 0.424613 0.967634 0.932120 -0.056929 0.162198 0.946198 -0.538854 -0.809820 -0.766521 -0.505652 0.653628 -0.742462 -0.123059 0.842143 0.157700 0.569014 -0.457442 -0.146377 -0.831618 0.405153 -0.653030 0.471240 -0.049897 0.406512 0.231894 -0.789761 0.352695 -0.488230 -0.785213 -0.979067 0.974132 0.639400 0.988567 0.906253 -0.417529 0.150765 0.852451 0.043617 0.340944 -0.914071 0.537965 -0.005428 -0.656533 -0.585094 -0.163285 0.501167 0.983920 0.379273 -0.645210 -0.847698 -0.215574 -0.298240 0.623542 0.734528 -0.891728 -0.144564 0.944768 0.460968 0.367206 -0.840446 0.481901 0.341339 0.798954 0.470468 0.247591 -0.618575 -0.378768 0.100042 0.425042 0.962176 0.185971 -0.036993 -0.043252 0.529438 0.377913 0.793463 0.030606 0.361833 0.172736 0.385396 0.514135 0.957161 -0.912844 0.137677 0.691689 -0.804572 0.993114 0.636457 0.656395 0.360320 0.796011 0.138296 -0.298341 0.594965 -0.391236 0.949250 0.976391 0.229996 0.049292 0.401433 0.192172 -0.764737 -0.635560 -0.851079 0.764702 0.742353 0.942384 -0.204693 0.104187 0.115119 -0.819297 -0.381678 0.072280 -0.732141 0.755999 -0.236030 -0.536714 0.749113 -0.599573 -0.880318 0.109433 -0.803562 0.257978 0.811092 0.791403 0.866742 0.760342 0.767794 0.096738 -0.190366 0.169227 -0.711090 0.044898 0.533667 -0.562170 -0.190401 0.276021 -0.619786 0.604907 -0.619793 0.495333 0.785610 -0.001470 -0.432387 -0.946532 -0.245471 0.331583 -0.483245 -0.496358 0.732010 -0.363563 0.613075 0.928448 0.894414 0.424167 0.719851 0.761156 0.184509 0.487645 -0.142106 0.994143 -0.343128 0.146804 0.039041 -0.809461 0.584634 0.848640 0.466560 0.964848 0.453547 0.846767 0.460181 0.239157 -0.154703 -0.972205 0.292625 0.599826 0.359378 0.809380 -0.896532 0.091387 -0.554183 0.716543 0.019835 -0.659769 0.140710 -0.260314 -0.898613 -0.674781 -0.772668 -0.040719 -0.680637 -0.115796 -0.893916 0.358404 0.074743 0.690718 0.207044 -0.458697 0.655567 -0.339409 -0.611929 0.115748 0.899748 0.233368 0.143542 0.192374 -0.166807 -0.497080 0.001754 -0.063339 0.594307 0.447570 -0.346796 -0.385857 0.787801 0.793914 0.353829 0.889189 -0.880867 0.581161 -0.151531 -0.561504 -0.534635 -0.045446 0.796899 0.540108 -0.354728 0.003943 -0.918589 -0.699161 0.664535 -0.530518 0.416586 0.564283 0.702850 -0.439871 -0.243343 -0.463957 0.063049 0.758410 0.472704 -0.342644 0.205981 -0.874092 0.271499 -0.006218 0.919822 -0.374672 -0.117029 -0.961045 -0.793511 0.731440 -0.522549 -0.328147 -0.314006 -0.725650 -0.788038 0.331266 0.278294 -0.706627 0.632105 -0.057172 -0.237145 0.048691 -0.492889 -0.534296 0.608820 0.263768 0.001747 -0.328131 0.022178 -0.525549 0.329225 -0.771841 -0.399640 -0.399277 0.221941 -0.479818 0.226051 -0.895088 -0.440863 0.432539 0.836352 0.036588 -0.895607 -0.477655 0.310938 -0.683646 0.853611 -0.410768 -0.390273 0.485716 0.532060 0.372582 -0.465593 -0.960829 0.838287 -0.856773 0.302939 -0.159966 -0.184904 -0.674883 0.314486 -0.855680 -0.446724 0.914845 -0.254956 0.775217 -0.564973 0.971095 0.880128 -0.005836 0.403634 0.716480 -0.969248 0.508027 -0.761174 0.341690 0.824381 -0.907563 0.930922 -0.565891 0.578153 0.462982 0.806691 -0.887439 0.502153 0.644978 -0.744212 -0.194908 -0.514988 0.070884 0.130209 0.799498 0.215205 0.683485 0.714343 0.960248 0.458702 -0.850630 0.931343 0.338830 0.143534 0.334977 0.055310 0.174285 -0.156996 0.294136 -0.484025 -0.332615 0.386573 -0.553103 0.101494 -0.035273 0.909878 -0.091815 0.077287 0.412031 -0.446837 0.333075 -0.782876 0.038176 -0.596041 0.347333 -0.162326 0.619164 0.030818 -0.447983 0.579412 -0.510481 -0.298613 0.510755 0.828350 0.844920 -0.154268 -0.116340 0.019206 0.688736 -0.822204 0.535181 -0.643879 0.564369 0.982077 0.457615 -0.470904 0.891956 -0.634200 0.606383 0.303987 -0.081036 -0.060542 0.521111 0.957140 0.343418 -0.131557 -0.205187 -0.037418 0.899261 0.346830 -0.458006 -0.611220 -0.951783 -0.947251 -0.782870 0.893137 -0.101519 0.100790 -0.087658 -0.412784 0.278586 -0.552477 -0.056663 -0.157045 -0.570400 -0.599048 0.372050 -0.678444 -0.233247 -0.021567 0.625543 0.685717 0.917892 0.146654 0.642856 0.261309 -0.984903 -0.562331 -0.776109 0.914358 0.784499 -0.234115 -0.696862 0.832716 -0.181366 -0.479732 0.725853 0.717114 0.621058 -0.361805 -0.695669 -0.100357 0.085718 0.247668 0.742598 0.515319 0.648621 0.114648 0.836875 -0.584627 -0.906918 0.462418 -0.898910 -0.989027 -0.390928 0.743946 0.272282 -0.375831 -0.818385 0.496173 -0.461473 0.966115 -0.737942 -0.158334 0.798831 0.080692 0.361934 0.524684 -0.202194 -0.017008 -0.837121 0.102137 0.882635 0.248597 -0.650195 0.625233 -0.236084 0.998426 -0.260118 -0.399209 -0.586201 -0.167037 -0.936792 -0.485111 -0.156064 -0.327720 -0.741165 -0.883781 0.296450 -0.559549 
0.612392 0.834977 -0.593434 0.874450 -0.323357 -0.794604 -0.044858 -0.961424 0.730080 0.752948 0.021568 0.892959 -0.144915 -0.095797 0.141556 0.204890 -0.470564 0.905472 0.203315 0.269318 -0.493737 0.617114 -0.897719 -0.430529 -0.867996 -0.053783 0.241752 -0.609161 0.062436 -0.461799 -0.168710 -0.325172 -0.626822 0.237855 -0.450721 0.049821 0.443252 0.504421 0.088397 0.173332 0.257369 -0.890035 0.066291 -0.887547 0.014168 -0.792153 0.317343 0.543604 -0.886681 -0.479342 -0.187078 -0.380418 -0.862227 -0.084798 0.189053 -0.730224 0.861420 -0.569195 -0.339385 -0.076144 -0.030994 0.491905 0.598684 0.342184 -0.270239 -0.852037 -0.607995 -0.826988 0.652383 0.480402 0.346344 -0.090248 0.590367 -0.587365 0.022205 -0.395465 -0.379518 -0.660452 -0.851861 -0.266199 -0.139794 -0.038939 0.353383 -0.002021 0.876263 -0.457564 0.267755 0.737683 -0.026759 0.928371 -0.338461 0.942247 0.420276 -0.739777 0.284431 -0.849964 -0.591814 0.676436 -0.676951 -0.939431 0.156838 0.669393 -0.029679 -0.252795 -0.917972 0.992526 0.351740 -0.297490 -0.667926 0.499880 0.436311 0.192280 -0.539059 -0.210306 -0.809741 -0.662796 0.332131 0.458014 -0.925113 -0.694628 0.386385 -0.263575 -0.752381 -0.193340 -0.003352 0.532050 -0.043303 0.404834 0.208486 0.279746 0.465403 -0.634676 -0.050861 -0.564276 0.112530 0.031167 -0.571750 -0.535730 0.733676 -0.239676 0.964150 0.169988 0.952604 -0.574910 0.959682 -0.857137 -0.237706 0.291813 0.600877 -0.162819 0.597185 -0.012738 0.573606 0.844805 0.793922 -0.429746 0.376855 -0.249381 0.975087 -0.414659 -0.969635 0.440490 -0.049334 -0.020497 0.876213 -0.936805 -0.989330 -0.695537 -0.472535 0.744347 0.064787 -0.508385 -0.085666 0.017391 -0.083295 -0.125984 0.160254 0.678999 -0.834170 -0.238869 -0.483820 0.763015 0.748392 -0.910214 0.607819 0.542314 -0.339960 -0.015326 -0.707066 -0.364873 0.570016 -0.676702 -0.924383 -0.479319 0.302802 0.951830 -0.416123 0.313472 -0.743706 0.111342 0.057818 0.321080 0.602957 0.972153 -0.661529 -0.480338 -0.153831 0.498725 -0.801339 0.011999 -0.740145 -0.285159 -0.224987 -0.991753 -0.195373 -0.617167 0.550562 0.464667 0.367507 0.843495 -0.900206 -0.062478 -0.833206 -0.824589 0.458204 0.469595 -0.872758 -0.957920 -0.216933 -0.616465 0.153422 0.840886 0.704616 -0.243621 0.813038 -0.956913 0.276041 -0.340793 0.541811 0.474702 0.671206 0.801666 -0.810457 -0.553781 0.809914 -0.005829 -0.170948 0.360476 -0.541162 -0.803442 0.203971 -0.441368 0.134081 0.370765 -0.265957 -0.407716 -0.159640 -0.138715 -0.365635 0.623427 0.244820 0.787786 0.464313 -0.050565 -0.455835 0.277351 -0.007478 0.820206 0.936558 -0.465667 0.294908 0.607764 -0.664002 0.484393 -0.946095 -0.854170 -0.521452 -0.116996 0.506389 -0.062540 0.079593 -0.289640 0.496092 -0.786326 -0.918875 -0.769865 -0.194042 -0.078515 0.091420 0.440323 -0.455087 -0.663761 0.228109 -0.990775 0.285675 0.772274 0.286577 -0.721803 0.592480 0.223135 -0.187470 -0.112612 -0.169101 0.148530 -0.628160 -0.115117 0.294444 -0.149538 0.767917 -0.199167 0.787922 -0.152489 0.511193 0.284014 0.061185 0.592318 0.514148 0.867143 -0.486197 -0.394432 0.307456 0.058602 -0.058401 -0.464645 0.067721 -0.772738 -0.692370 -0.645702 -0.494487 0.900296 0.577653 0.318000 -0.212502 -0.591667 -0.533335 0.159558 0.293435 0.761183 -0.989980 0.061353 -0.437984 0.797942 0.908863 -0.926791 0.081956 -0.029952 0.665528 -0.403896 -0.162809 -0.820669 0.201672 -0.855343 0.238047 -0.856521 -0.319768 -0.694011 -0.629039 -0.011918 -0.339493 -0.123359 -0.111588 -0.761840 -0.805150 0.676131 -0.353287 -0.338410 -0.164311 0.940148 -0.577227 -0.154324 0.001312 -0.015431 -0.356569 -0.089856 0.057778 0.725387 0.880192 -0.276694 -0.678509 -0.282607 -0.097196 0.523173 -0.137961 -0.859316 0.666788 0.542492 -0.553107 -0.962176 -0.469426 0.107399 -0.085536 0.418986 0.345560 0.109315 0.095117 0.992272 0.770905 0.930806 0.932421 -0.806322 -0.223485 -0.066079 0.178467 0.420166 0.844286 -0.763535 0.145773 0.724698 -0.040009 0.467484 -0.557700 0.862848 -0.009133 0.304560 -0.996248 -0.342271 -0.152948 -0.549355 -0.304472 0.377425 0.557825 0.609797 -0.203609 -0.096591 -0.280789 0.891648 -0.104232 -0.509934 0.822314 -0.171923 -0.316287 -0.401164 0.761999 0.862161 -0.980859 0.606504 -0.901154 0.164988 0.331202 0.058837 -0.367527 0.773502 -0.078315 0.623340 0.078063 -0.074563 -0.718931 0.925115 0.376083 -0.023378 0.302740 -0.065873 -0.413360 -0.900648 0.837731 0.305972 0.991080 -0.266392 0.796208 0.813614 0.561905 -0.519877 -0.587337 0.324124 -0.657497 -0.568122 -0.069372 -0.558651 0.596693 -0.738390 0.499966 -0.770881 -0.964793 -0.578134 0.852679 0.113395 0.347308 -0.866252 0.038438 -0.276821 0.110150 -0.658970 0.657298 0.696790 -0.559472 0.495249 0.002982 -0.568318 -0.771143 -0.200809 -0.754704 0.790762 0.279313 -0.342040 0.114886 0.621817 0.089838 -0.954486 -0.936834 -0.313295 -0.692656 0.563352 -0.083956 -0.657323 0.985223 -0.231277 0.456071 0.332531 -0.097528 -0.505419 -0.944078 -0.987158 -0.164169 0.713440 0.709853 0.276433 0.208689 -0.287246 0.707895 0.437326 0.511806 0.953284 0.228308 -0.208661 -0.388629 -0.656806 -0.586845 0.701209 -0.611292 -0.523744 -0.612307 -0.304168 -0.960547 0.303737 0.038653 -0.975105 -0.927319 -0.505200 0.357427 -0.024848 -0.010619 0.413348 -0.012005 0.825212 0.126788 -0.302152 0.101645 -0.664523 0.410683 -0.190241 0.773023 -0.077292 -0.236829 0.001332 0.714047 0.374542 0.344526 -0.872798 0.075751 0.733234 -0.396476 0.463664 -0.570714 -0.356804 -0.232379 0.468015 -0.331908 -0.159872 0.962595 -0.974702 0.815259 -0.047811 0.438867 -0.196551 -0.222592 -0.434345 0.501297 0.879052 -0.098868 -0.088020 -0.311341 -0.326065 0.834468 0.451762 0.675413 0.548735 -0.173476 0.020013 0.675938 0.902275 -0.246753 -0.720539 0.365939 0.182533 -0.077342 -0.866440 -0.349453 0.590750 -0.026138 -0.386638 0.616268 -0.210683 0.565558 0.055135 0.592766 -0.657034 0.620790 0.094063 -0.777981 -0.478078 -0.993957 -0.089169 0.196078 0.840731 -0.637187 -0.128435 0.389443 0.189117 0.891358 0.065184 0.091498 -0.355175 0.344865 -0.542450 0.827357 -0.732477 -0.408890 -0.522096 0.858273 0.564972 0.091198 0.474320 -0.645931 -0.343395 -0.470400 0.947055 -0.000209 -0.849535 0.041118 0.221810 -0.327613 0.047161 -0.867359 0.868465 -0.112107 -0.504546 -0.259970 -0.722641 0.684791 -0.368392 0.342763 -0.223598 0.276433 -0.312371 0.233952 0.103790 -0.044848 0.825063 0.581695 -0.186575 0.390035 -0.327039 -0.712035 0.744324 0.329786 -0.182359 0.691306 -0.670642 -0.032115 -0.267723 0.551326 0.640493 0.779658 0.684028 0.508958 -0.332449 -0.820518 -0.751011 -0.055090 0.864272 -0.119408 -0.712546 -0.359546 -0.843190 -0.024773 0.874627 0.260820 0.930455 0.699690 -0.157485 -0.256121 0.089724 0.515476 0.031845 -0.165952 -0.154738 0.849485 -0.474573 0.174840 -0.182409 0.257924 -0.273772 -0.541916 0.037583 -0.589744 0.967043 0.705134 -0.410262 -0.783968 -0.349956 -0.545990 0.096629 -0.062282 0.094685 0.253659 0.913021 -0.030802 -0.485741 0.843256 -0.331219 0.356989 -0.412644 0.758726 -0.127530 0.619200 -0.407226 0.717732 0.468686 0.118201 -0.107428 -0.713723 -0.624086 0.618580 -0.255859 0.413633 -0.970944 -0.288596 0.118842 -0.381205 -0.072564 0.768887 0.072805 -0.975935 -0.293395 -0.832510 0.277723 -0.380374 0.136802 0.792202 -0.536898 0.805803 0.149196 0.050458 0.564529 -0.978335 -0.330342 -0.842697 0.739397 -0.861656 0.275504 -0.368030 -0.575379 0.651630 -0.749230 0.168982 0.065338 -0.720308 0.880166 -0.816039 -0.101600 -0.192178 0.953068 0.971426 -0.168113 -0.340327 -0.861085 -0.890390 0.279299 0.275717 0.901812 0.742401 0.081316 0.050787 -0.207361 -0.354026 0.072673 0.462518 -0.196648 -0.187930 0.600862 -0.921143 0.444039 -0.974517 0.730487 0.694809 0.194465 -0.204175 0.974635 0.074851 -0.019994 -0.126744 0.882673 -0.066927 -0.155318 -0.285440 0.592746 -0.016403 -0.175831 -0.127955 -0.740686 -0.274019 -0.385553 0.340835 0.776989 0.407306 0.986884 -0.150478 -0.130397 -0.209984 0.661516 -0.529315 -0.130907 0.105771 -0.503832 -0.400420 -0.199420 0.690633 0.395405 -0.224784 -0.234516 -0.624589 0.648271 -0.352064 0.308264 -0.506921 0.362716 -0.098770 0.476751 -0.813114 0.773275 0.736066 -0.087133 -0.612278 0.076900 -0.310144 0.795028 0.063784 0.539518 -0.335148 0.854020 0.201249 0.135537 -0.276887 -0.692980 0.631705 0.322693 0.107600 0.322338 -0.281902 0.882816 -0.912178 0.093508 0.531287 -0.264022 -0.598008 -0.975559 -0.901440 0.303002 0.500972 -0.714640 0.076498 0.237258 0.198448 0.464220 -0.685842 0.888304 0.259247 0.377942 0.427821 0.924099 0.231963 -0.371138 0.059416 0.954856 -0.063985 -0.308658 0.277769 -0.956310 -0.986320 0.995866 0.926506 -0.898499 0.089375 0.457793 -0.162520 0.491367 0.482234 -0.063825 -0.205411 -0.016574 0.221755 0.871087 -0.779316 -0.579797 0.335307 -0.465158 -0.691494 -0.405446 0.912785 0.736327 -0.481347 0.144747 -0.634602 0.578290 0.099823 0.301488 -0.730469 -0.622628 0.344957 -0.716909 -0.626557 0.271683 -0.615187 0.462833 -0.270524 0.222293 -0.045800 -0.788290 -0.841533 0.748789 0.195135 0.380005 0.619657 0.415601 0.800351 -0.044817 0.950663 -0.891069 0.549737 0.863448 0.845259 -0.931609 0.008195 -0.789344 0.646681 -0.891982 0.512144 0.916312 -0.514390 -0.142678 -0.800376 -0.140932 -0.870995 -0.415564 -0.678099 -0.141519 0.806729 0.276101 0.070191 0.965196 0.024890 -0.734672 0.345418 -0.355233 0.681148 0.145843 0.599883 0.631592 0.254554 0.149467 0.495194 0.100033 0.218078 -0.496546 0.310689 -0.135241 -0.388528 -0.177167 -0.218929 0.097082 0.680113 -0.019526 0.955930 0.808940 0.565056 -0.721949 -0.332359 0.371860 0.554151 0.737832 0.337056 -0.420958 -0.996841 -0.317526 0.223809 0.684308 0.828317 -0.176241 0.316119 0.083092 0.973446 -0.188621 -0.816875 0.191524 0.314833 0.493814 -0.943717 0.926305 -0.683353 -0.162646 0.023387 0.996802 0.818048 -0.020464 0.805962 0.383179 0.257576 -0.526618 -0.245182 -0.188482 -0.788688 -0.907906 0.390780 -0.785407 -0.225432 -0.385411 0.898901 -0.397114 0.438348 0.215020 0.685871 0.411573 -0.973821 0.868882 -0.396757 0.341232 0.362917 -0.340399 0.267537 0.679564 0.496955 -0.709077 0.676366 0.315003 0.270460 0.482328 -0.301818 -0.471953 0.955931 0.453221 0.339785 -0.832635 0.545315 -0.269435 -0.618042 -0.680117 0.345154 -0.719141 -0.077231 -0.216499 0.495880 -0.391253 -0.804705 0.522279 -0.522151 -0.201387 -0.136490 0.840600 0.457994 -0.869173 0.520129 -0.044841 -0.578030 0.196696 -0.729827 0.692430 -0.320975 -0.031645 -0.779523 -0.365051 -0.578623 0.560042 -0.197900 0.966671 -0.709248 0.184278 -0.713226 0.635980 0.465137 0.209543 -0.580519 -0.038983 0.818290 -0.385224 -0.516705 -0.703861 0.413389 0.346806 -0.863095 -0.128397 0.477853 0.657235 0.826773 0.899823 -0.146069 -0.903055 0.592253 0.532956 0.065300 0.812730 -0.832089 0.486876 0.372992 -0.029769 0.453767 0.663818 -0.845491 0.740466 0.299578 0.619426 -0.050137 0.719134 -0.419337 -0.231626 -0.665944 0.063958 0.064513 0.747445 -0.589236 0.201275 -0.381172 0.888396 -0.141567 -0.554399 0.788365 0.712585 -0.457234 0.380693 0.245541 0.608066 0.193423 0.413452 0.094942 -0.433586 -0.616317 -0.451291 -0.769768 -0.461808 -0.710751 0.530030 -0.842161 0.239333 0.249310 -0.261498 -0.992293 0.583365 0.802460 0.072220 0.330810 -0.786777 -0.726362 0.949858 -0.898160 0.132291 -0.604321 0.890279 -0.155125 -0.061555 0.270798 -0.909804 -0.453709 -0.535826 0.503715 0.641431 0.030808 0.887551 -0.809838 0.261015 -0.574410 -0.520809 -0.209150 -0.416638 0.718524 -0.959840 0.322008 0.726451 0.623745 0.124543 -0.201329 -0.045445 0.337767 0.072308 -0.095587 0.439606 -0.795401 0.300091 0.329885 0.049475 -0.761464 -0.399143 0.139891 -0.214953 0.065251 -0.356241 -0.573500 -0.903941 -0.468690 -0.383338 0.357100 -0.042947 0.096072 -0.851830 0.540635 -0.185184 -0.811450 -0.137282 -0.458733 0.812295 0.987237 0.339738 -0.233370 0.324808 -0.587974 0.671045 -0.235535 -0.383305 -0.028821 -0.905698 0.666101 0.209670 -0.304788 -0.194008 0.994717 0.760407 0.449895 -0.578563 0.856686 0.981280 0.038098 0.213786 -0.061667 -0.865829 0.361956 -0.521032 -0.051013 0.550506 0.341686 0.490254 0.362801 0.328948 -0.169808 -0.870350 -0.346024 0.242439 0.800913 0.418610 0.859285 -0.227733 0.513129 0.525605 0.982157 -0.791495 -0.668183 0.977094 0.969132 0.781788 -0.601470 0.825819 0.763068 0.436599 0.039425 -0.298819 0.570579 -0.598659 0.180150 -0.480434 0.951846 -0.478164 -0.990179 0.314707 0.850984 -0.159987 0.444297 -0.495241 -0.917402 0.245431 0.923589 0.941957 -0.982302 0.436719 0.467562 0.999854 0.645224 0.799379 0.976948 0.614356 0.581167 -0.624521 0.440175 0.344235 0.812107 -0.520220 -0.954363 0.382907 -0.118660 0.226007 0.902693 -0.166593 0.748063 0.912734 -0.851726 0.599067 -0.247032 0.592791 -0.895953 -0.164360 -0.161778 -0.972363 -0.222403 -0.144081 0.464354 -0.754934 -0.144401 0.109358 -0.955682 -0.167498 -0.276285 0.625524 0.208116 -0.835890 -0.030070 0.020087 -0.356330 0.015357 -0.596860 0.525230 -0.758416 -0.694092 -0.641363 0.989648 -0.781358 -0.493089 0.588715 -0.028390 -0.900298 0.692762 0.807250 -0.062076 0.720399 -0.415154 0.793843 0.184754 -0.169995 -0.350383 -0.705667 -0.125457 0.482339 0.018268 -0.499752 -0.309461 0.182378 0.470188 0.710847 0.826268 -0.514235 -0.885938 0.351498 -0.272651 -0.580030 0.710135 -0.283003 -0.361388 -0.782954 -0.694292 0.610173 -0.683307 0.998467 0.417472 0.254673 0.718873 -0.997691 0.048295 -0.096593 -0.167897 0.698059 0.197960 0.706866 0.180472 -0.783772 -0.792886 0.871011 0.398606 0.677302 0.581858 0.224874 -0.836933 0.695920 -0.423628 -0.109584 -0.884110 -0.713492 0.607413 -0.245498 -0.496446 0.913125 -0.635275 -0.179697 0.911600 0.782197 -0.925025 0.630473 0.784516 0.123491 -0.465900 -0.383161 -0.178376 0.732060 -0.676294 -0.997904 0.948287 -0.469180 0.873107 0.346893 -0.791879 0.454965 -0.428233 -0.628812 0.150885 0.148139 0.261604 0.266766 0.434427 -0.131203 -0.978942 0.938126 -0.217857 -0.613997 -0.241497 -0.306257 -0.831801 -0.166522 -0.675785 0.952715 0.956969 -0.141685 -0.430446 -0.221407 -0.409626 -0.106740 -0.219311 -0.461338 0.424080 -0.346204 0.885555 0.632201 -0.891239 -0.542677 -0.996611 0.259646 0.605462 0.264994 -0.473579 0.040109 -0.865988 -0.452301 -0.021691 -0.083845 -0.066298 0.736813 0.609897 0.101901 -0.429709 0.934112 0.054616 -0.472739 -0.207573 0.624171 0.305854 0.382802 -0.482569 -0.913466 0.921244 0.941291 -0.259882 0.806945 0.573712 -0.150901 -0.735658 0.577101 -0.891255 0.869803 -0.157905 -0.364833 -0.090088 -0.023894 0.182866 0.888222 0.892261 -0.883432 0.625034 0.502158 0.218469 -0.804675 0.436270 -0.726914 -0.277414 -0.771303 0.897257 -0.971560 0.611499 -0.585312 -0.885017 0.532963 -0.643802 -0.144678 0.339981 0.929910 0.704421 0.604323 0.507011 0.813167 0.474127 -0.650894 -0.551666 -0.615961 0.325212 0.631200 -0.727740 0.217473 0.747768 0.897285 -0.280589 -0.033983 -0.907600 -0.844173 0.239323 -0.184794 -0.615401 0.136579 -0.156354 0.996098 0.551267 -0.041371 0.529060 0.907465 0.813951 -0.130958 0.837375 0.518373 -0.526635 0.344386 0.331539 0.947491 0.693492 0.779873 -0.668470 0.018705 0.411073 -0.396210 -0.763822 0.158840 -0.498915 -0.044191 -0.874923 -0.406295 0.111711 0.364400 0.408910 0.496310 -0.499020 -0.747443 0.492408 -0.947753 0.211186 0.021468 0.959712 0.025137 0.890510 0.797087 -0.456490 -0.636134 0.141253 0.874829 -0.688853 -0.165109 0.654922 -0.357103 0.853671 0.065994 0.246687 -0.910151 -0.775165 0.747772 0.045658 -0.650088 -0.658524 -0.842631 0.714312 0.750387 0.653679 -0.784708 -0.997056 0.146087 -0.732462 0.214129 -0.832444 -0.772750 -0.760733 -0.941934 -0.975662 -0.217224 -0.578059 0.165811 -0.342175 -0.266692 -0.999223 -0.687253 0.376204 0.854448 0.378742 -0.377109 0.944297 0.603576 -0.629337 -0.010045 0.953488 -0.287860 0.147324 0.667800 -0.537473 -0.199007 0.882872 -0.534750 0.946871 -0.849444 0.679600 -0.885353 -0.622119 0.918866 -0.827287 -0.597782 -0.298357 -0.405346 0.568029 0.359468 0.327961 0.568806 0.672215 -0.295834 0.423254 0.050957 0.327057 0.367551 -0.345466 0.697721 -0.642494 -0.391978 -0.590140 0.504830 -0.724177 -0.127613 -0.694166 -0.841085 0.337857 -0.747075 -0.690455 0.017457 -0.632428 -0.312574 -0.063677 -0.459715 0.089644 0.637966 0.134938 -0.342327 -0.002566 -0.537100 -0.773520 -0.330350 0.167065 0.649724 0.720387 -0.506097 0.017064 -0.624933 -0.808157 0.374790 -0.016837 -0.398297 -0.120380 0.258986 0.474090 0.185454 0.417901 -0.188052 0.438379 0.727446 0.829405 0.805951 -0.585128 -0.234272 -0.653764 0.504516 -0.596305 0.481174 -0.837811 0.401129 0.944074 -0.611332 -0.929221 0.111139 -0.961598 0.791386 0.605261 0.055687 -0.833473 0.797104 -0.569523 0.149690 -0.601192 0.310098 -0.591324 0.872898 -0.504448 0.826576 -0.315154 0.933931 0.554022 -0.485749 0.739882 0.968888 0.279840 -0.914022 0.473270 0.683626 0.567291 0.635599 0.084803 0.511365 -0.975733 0.155581 -0.377496 -0.937330 -0.053033 -0.772235 0.118356 0.113494 -0.975130 0.548834 -0.736817 -0.576322 -0.141069 -0.328141 -0.703424 0.354483 -0.501565 -0.018578 0.288414 -0.947542 0.495673 0.028295 -0.978648 -0.224348 0.114413 0.494762 -0.540674 -0.318296 0.130361 0.544129 -0.806931 0.154628 -0.300290 -0.184427 0.217298 0.646677 0.043338 -0.664346 -0.239829 0.068208 0.884488 0.023355 0.491885 -0.256581 0.695213 0.788461 -0.902098 -0.806351 -0.230117 0.386315 -0.753893 -0.734444 -0.585389 -0.732541 0.041208 0.529023 0.762220 0.500534 -0.789273 -0.107419 0.044663 -0.596204 -0.952791 0.744374 0.219369 0.264507 0.391051 -0.737293 0.600161 -0.848778 0.330915 0.484648 0.174577 -0.177200 -0.771933 -0.130210 -0.388739 -0.674031 0.063439 0.381144 0.712284 0.309546 0.646700 -0.873106 0.577004 -0.312091 0.655918 0.339225 -0.811557 0.866645 -0.768194 0.233107 -0.729559 -0.720985 -0.022520 0.489811 0.543522 -0.631468 0.752518 0.143683 -0.480246 0.083433 -0.371669 0.694331 0.906233 -0.143602 -0.435879 -0.482505 0.182367 0.627561 0.898639 -0.105349 -0.062893 0.545339 0.021545 -0.485889 -0.766752 -0.322537 0.853336 -0.578309 -0.455892 -0.914858 0.654798 -0.185451 -0.635843 -0.367722 -0.695640 0.907679 0.000810 -0.943123 0.051361 0.520564 0.140310 0.679692 0.214895 0.046544 -0.463909 0.779016 0.564038 0.718458 0.406577 0.462677 -0.386892 -0.656317 0.008016 0.634654 -0.142206 0.241264 -0.687884 -0.288870 0.662955 -0.143776 -0.203728 0.317753 0.670773 0.160429 0.950031 0.975133 0.068108 -0.049159 -0.967990 -0.880531 -0.528596 0.172321 0.799161 0.686299 -0.781136 -0.664748 0.465315 0.782902 -0.946291 -0.128108 0.245579 -0.333182 0.215575 -0.746404 -0.698529 -0.926630 0.494860 -0.386412 -0.215500 0.157816 0.469812 0.580772 -0.524431 0.140585 -0.258799 -0.574400 0.115717 0.809308 0.376440 0.147727 0.928777 0.847845 -0.679952 0.727938 0.534144 -0.461088 -0.936810 -0.000541 -0.678186 -0.883101 0.871351 0.567394 -0.216283 0.086926 0.820990 0.085188 0.160296 0.315850 0.698776 0.944796 -0.526334 0.168587 0.525568 -0.050766 -0.690828 -0.733231 0.374834 0.424889 -0.923923 -0.248726 -0.427383 -0.995146 -0.400881 -0.107335 0.732793 -0.866737 0.431577 0.795983 0.132722 0.753391 0.912882 0.004074 0.320785 -0.303401 -0.909000 0.141775 0.781787 0.251296 -0.542375 0.480563 0.196092 -0.068710 -0.350850 -0.278340 0.880524 -0.041678 -0.011572 0.255358 -0.616789 0.064505 -0.993367 -0.044172 0.069360 -0.394248 0.848492 -0.197848 -0.260985 0.280069 -0.401865 0.871738 0.033460 -0.488983 -0.124189 -0.645755 0.207615 -0.033189 0.496020 -0.010598 -0.781892 0.953644 -0.530035 0.414200 -0.115065 0.119115 -0.864141 -0.234541 -0.922563 0.124287 -0.979182 -0.539352 -0.811207 -0.972550 0.416476 0.258152 -0.366798 0.264968 -0.939696 0.372217 -0.454963 -0.341561 0.243955 0.578497 0.169456 -0.880234 0.932742 -0.622929 0.086578 0.428762 0.366473 0.304685 0.382406 0.836439 -0.281115 -0.732659 -0.044446 -0.145256 0.032800 0.032992 0.979031 0.053618 0.493640 -0.832176 0.081068 -0.089884 0.425976 0.714270 -0.824915 0.486281 0.086487 -0.279878 -0.855280 -0.669558 -0.701381 0.314175 -0.549791 -0.768639 0.691246 0.536786 0.660124 0.057720 -0.158529 0.042530 -0.105842 0.560356 0.309871 0.849713 -0.584900 -0.657329 -0.117296 -0.605869 0.396289 -0.623656 -0.438045 -0.522643 0.286461 0.987932 -0.808373 0.461545 0.474212 0.278114 -0.818333 0.618932 0.608557 -0.519714 -0.066893 -0.941235 -0.288352 -0.375647 0.595552 -0.628229 0.682073 -0.562977 0.414301 -0.423769 0.997379 -0.275828 -0.574057 -0.587521 0.066844 0.308648 -0.193389 -0.536867 0.684992 0.368566 -0.059511 -0.028547 0.356498 0.132116 -0.567002 -0.169290 -0.589770 -0.385335 -0.550358 -0.981213 0.094952 0.382749 -0.922448 0.806599 -0.992899 0.673104 -0.821629 0.689174 -0.889873 0.592672 -0.734595 -0.892494 -0.683156 -0.308652 -0.480014 0.383688 0.999996 0.326597 0.846821 0.684988 -0.304837 -0.212690 -0.343559 -0.948340 0.919426 0.089440 -0.117630 -0.670343 0.704105 0.332012 -0.651556 -0.200943 -0.285240 -0.574004 -0.394344 -0.278138 -0.900900 -0.215973 -0.588964 -0.790772 -0.623301 -0.323559 -0.683266 -0.306457 0.367789 -0.163280 -0.922769 0.367786 -0.836684 0.924052 0.052774 -0.141521 -0.288638 0.709216 -0.089861 -0.369212 -0.201345 0.792510 -0.039555 -0.497239 0.124522 0.308888 0.301818 0.839282 0.734885 0.907474 -0.438856 0.833985 -0.308499 -0.027820 -0.956788 0.068200 0.648621 -0.640054 0.761743 0.016411 0.196666 0.838974 -0.615804 0.359982 0.763026 0.436970 -0.781538 -0.525612 0.146186 0.128601 0.105175 0.944842 -0.078889 -0.934380 -0.552398 -0.954368 0.374508 0.749420 0.884914 0.109393 0.656894 -0.553941 -0.056622 -0.651605 0.418239 -0.013410 0.416594 0.066860 0.346537 0.178337 -0.916730 -0.456797 0.017311 -0.532533 0.903186 -0.219664 0.904437 -0.878353 0.254724 0.050623 0.250248 -0.640101 -0.004535 -0.828642 -0.574481 0.443067 -0.783009 0.800028 0.192487 -0.898095 -0.090579 -0.150619 -0.452036 0.852799 0.197776 0.966202 -0.160611 -0.385630 0.033062 -0.814074 0.792707 0.116333 -0.270871 -0.189983 0.583799 -0.367685 0.590354 0.488236 -0.246038 -0.154923 -0.461141 -0.995791 0.204977 0.534324 -0.824432 0.630496 -0.022608 -0.607441 0.430524 -0.830121 -0.505536 -0.660055 0.019260 0.042428 -0.807257 -0.782964 0.008630 0.032133 -0.168594 -0.958308 0.218059 -0.375887 0.158025 0.947188 0.434130 -0.258176 -0.420498 0.024484 -0.769940 0.333464 0.869561 -0.231080 0.337673 0.074538 -0.696756 0.513241 -0.294966 0.280636 0.905800 -0.864442 0.450515 -0.599737 -0.524497 -0.530225 0.442691 -0.331754 -0.313189 -0.548679 0.700378 0.518218 -0.506987 -0.081563 -0.857669 0.651038 -0.134375 0.576461 -0.607138 0.445127 -0.399055 -0.377078 -0.221410 -0.529494 0.391841 -0.883737 0.545044 0.695085 0.629504 -0.749922 -0.024279 0.535304 -0.614364 -0.573764 0.935567 -0.138862 -0.103989 0.378258 0.529384 0.582822 0.829579 0.229763 0.101040 -0.677408 -0.851800 0.243370 0.973630 0.013824 -0.180169 -0.633508 -0.541049 0.420776 -0.010587 0.237541 0.891282 -0.618746 0.353805 0.436325 -0.923661 -0.016691 0.686403 0.052060 -0.481387 -0.927961 0.478296 -0.545820 -0.066822 -0.625693 0.832438 -0.537438 0.957129 0.662017 0.692325 0.058169 0.984610 0.840525 -0.698460 0.958240 -0.145651 0.121371 -0.675269 0.313300 -0.457853 0.314144 -0.449159 -0.566572 0.695399 0.904646 0.869754 0.771738 -0.112045 0.556157 -0.176201 0.406568 0.628196 -0.697905 0.860748 -0.438626 -0.323598 0.693186 0.023936 -0.366469 0.355203 -0.283739 0.691700 0.339813 -0.443214 0.993240 0.298053 0.411135 0.114611 0.622784 -0.275565 0.656758 -0.063072 0.275276 -0.909814 -0.367673 0.179922 0.959940 -0.595935 -0.932123 0.516097 0.227864 0.474444 0.144293 0.529958 0.335192 0.705668 -0.793640 0.028378 -0.270396 -0.160109 -0.616419 0.445865 -0.468409 0.723394 -0.997349 -0.475168 0.021447 0.413786 0.639443 -0.355769 -0.861779 0.296201 0.581159 0.413497 0.386387 -0.786515 -0.406581 0.346327 -0.382450 -0.338704 -0.137576 0.845414 -0.864259 -0.993283 0.375372 0.470933 0.712385 0.581732 -0.500689 -0.558011 -0.578377 -0.117108 0.887854 -0.046786 -0.393714 0.890505 0.478046 0.627733 0.304291 0.117489 -0.728036 0.442512 -0.586310 0.853122 -0.143991 0.800077 -0.933392 0.449428 0.146404 -0.315842 -0.889275 -0.991172 -0.470428 -0.753535 -0.984455 0.904944 0.717398 0.727930 0.486676 
-0.783292 -0.830081 0.908299 0.099600 -0.942227 -0.138486 0.705886 0.948278 -0.660440 0.333619 0.252569 0.457048 0.605583 -0.304920 0.870738 0.458705 0.551090 0.670815 0.525312 0.000518 -0.182782 -0.790530 0.111242 -0.173954 -0.260958 0.357708 -0.158409 -0.356014 0.075105 -0.430479 -0.869337 0.291813 -0.260560 -0.961038 -0.608586 -0.202787 -0.099525 -0.902700 -0.254510 0.240035 0.430919 0.998059 -0.302917 0.036501 -0.306861 -0.432179 -0.504794 -0.755771 -0.761364 -0.979481 0.244747 0.055854 -0.770011 -0.644011 0.881899 -0.030969 0.713697 -0.276510 0.613018 -0.211198 0.293011 0.743680 -0.919384 -0.967549 0.782642 -0.527971 -0.170337 -0.316883 -0.430671 0.575154 0.923152 -0.999752 0.573213 -0.379765 0.036749 -0.733648 0.188056 0.531955 -0.489419 0.426692 0.552474 0.755328 -0.517454 0.782463 -0.888683 -0.635555 -0.248506 0.825014 0.087936 -0.635488 -0.386184 -0.619053 -0.891808 -0.305568 -0.586603 0.890834 0.166461 0.243061 -0.426049 0.735790 -0.181785 -0.502897 0.736037 -0.608573 0.117339 -0.227214 -0.342221 -0.694605 -0.695258 0.168361 0.732087 0.857216 -0.076311 -0.785367 0.639679 0.035006 -0.420922 -0.608827 -0.139980 0.667014 -0.244315 0.473837 -0.952039 -0.136123 -0.831731 -0.538642 -0.245288 0.334730 0.704419 0.328663 0.070519 -0.477366 0.825766 -0.193443 -0.085939 -0.056895 0.579343 0.571840 0.248500 0.884085 -0.259799 -0.019413 0.741301 0.663889 0.195220 0.380980 -0.301105 0.774299 0.772153 0.558916 0.441313 -0.472162 0.032753 0.489273 0.391716 0.201021 0.950631 -0.853573 -0.464249 0.655051 0.475090 0.606270 -0.822316 0.300856 -0.587173 0.091745 -0.756039 0.992171 -0.336415 0.492461 0.876256 0.403786 -0.526952 0.617556 0.067675 0.668268 -0.001464 0.766570 0.442566 -0.229311 0.325486 -0.116121 0.298527 -0.641761 -0.626848 -0.309758 0.559260 -0.676216 -0.163330 -0.904989 0.978834 -0.688240 0.701281 -0.843482 0.612616 -0.885892 0.248263 0.856577 -0.893721 0.911848 0.349037 0.982534 0.315634 0.822085 0.600091 -0.616691 0.490353 -0.401373 -0.850121 -0.067080 0.369316 0.475365 0.816799 -0.332158 0.833604 -0.810049 0.358085 0.392864 -0.486265 -0.805246 0.487875 -0.507431 -0.493486 0.189156 -0.350912 -0.880870 0.303264 0.897351 0.975706 0.409543 0.809199 0.324744 0.392078 0.124833 0.146829 -0.007832 0.508142 -0.362818 0.590795 0.658021 0.570102 -0.039889 0.133386 0.386900 0.627953 -0.033010 0.576851 -0.013962 -0.640146 -0.909414 0.180792 0.847728 -0.416845 0.687306 0.036884 0.232243 0.806436 -0.659852 0.129594 0.782142 0.749692 -0.061207 0.106886 0.141769 -0.936374 -0.746285 -0.866062 0.571767 -0.109104 0.724733 0.229788 -0.539002 -0.315157 -0.636826 0.847898 -0.687204 0.330164 0.424750 0.298834 0.690018 0.515336 -0.520374 0.537746 -0.901509 -0.833067 -0.425370 0.330734 0.973369 -0.085221 -0.539672 0.755511 -0.335530 0.399121 -0.137603 0.806239 0.462747 0.116111 0.940177 0.034514 -0.992992 0.664909 -0.735698 -0.531994 -0.650247 -0.372524 -0.684096 -0.337451 0.957640 0.740654 0.961383 0.647658 0.255990 -0.558991 0.185404 0.354481 -0.392058 0.760034 -0.314785 -0.418689 -0.325187 0.145543 -0.663178 0.339283 -0.455336 0.199219 0.145522 -0.992589 -0.684670 0.085699 0.041925 -0.677662 -0.249392 0.306227 -0.209656 0.100361 0.933704 0.106248 0.762910 0.891344 -0.153098 0.724293 0.539002 -0.897108 -0.834698 -0.275594 0.457372 -0.226756 -0.515559 -0.857413 0.354555 0.159254 0.288131 0.691377 -0.501463 0.832795 -0.109405 0.644059 0.840206 0.205925 -0.270242 -0.117869 0.528263 0.480366 -0.811642 -0.681393 -0.419273 -0.877939 0.424856 -0.656363 -0.986595 -0.728243 -0.932070 0.552407 -0.625351 -0.766768 -0.723186 0.832021 0.006476 -0.238746 0.974609 -0.638969 0.920508 0.262739 -0.947593 -0.580955 0.095534 -0.056997 -0.936896 -0.064260 -0.851072 -0.207138 0.817870 0.677192 -0.726772 -0.993772 0.995799 -0.146044 -0.871711 0.420654 0.197593 -0.858306 0.692412 0.265523 0.694102 -0.932939 0.498755 0.970915 0.899082 -0.494769 -0.267830 0.873691 -0.133739 -0.347323 0.136431 -0.081331 0.071722 -0.768035 0.861672 0.134826 0.167705 -0.989400 0.927688 -0.014425 0.687791 -0.799084 -0.008197 0.683590 0.054872 0.120092 0.104244 -0.747535 0.261786 -0.203344 0.517988 -0.044112 -0.136283 0.016742 -0.073197 -0.237201 0.521973 0.658973 -0.363509 -0.611766 -0.688350 0.772922 0.306903 0.383372 -0.995113 0.168575 -0.481802 0.172591 0.179174 -0.554114 -0.841834 -0.133034 -0.353198 0.149969 -0.449444 0.701674 -0.729939 0.654800 0.954139 0.531847 -0.548544 0.472126 -0.512265 0.315173 -0.511131 0.414539 -0.922027 -0.989158 0.073511 -0.285537 -0.600924 0.385162 -0.512615 0.705979 -0.231466 -0.507728 -0.125446 0.286732 0.664863 -0.946272 0.732618 0.823029 -0.079306 -0.620579 -0.027002 0.471249 -0.918906 0.243059 0.126049 -0.964767 -0.225094 0.577505 0.507359 0.262641 -0.107321 0.996228 -0.322820 -0.029349 -0.992930 0.750691 0.685115 -0.593854 0.135853 -0.827500 -0.887875 0.904387 -0.335229 -0.013321 0.191119 -0.670366 0.040407 -0.076262 -0.847337 0.961101 0.303158 0.125661 0.432351 0.384253 -0.631280 -0.441600 0.419486 0.143626 -0.864095 -0.073155 -0.593733 0.028584 -0.076927 0.083447 0.999235 -0.069857 -0.165861 0.684350 0.336288 0.969992 0.856849 0.448413 0.874379 -0.478380 -0.564907 0.065499 -0.148746 0.475500 0.989236 0.003918 0.436601 0.292395 -0.870422 -0.131048 -0.323352 -0.501702 0.427352 -0.903866 0.641924 0.563258 0.022979 -0.951809 -0.408158 0.946052 0.131639 -0.408923 -0.123806 0.965778 -0.724574 -0.787517 0.935770 -0.867724 0.660896 0.810149 -0.346104 -0.904011 -0.124353 0.505150 0.571489 -0.135116 -0.490932 0.008090 -0.842721 -0.361354 0.877042 -0.166074 0.136945 0.304394 -0.069940 -0.221131 -0.132348 0.953038 -0.172940 0.459493 0.899090 0.958699 -0.949430 -0.224716 0.924477 -0.674004 -0.012233 0.860247 -0.541728 -0.351337 0.670396 0.112168 -0.255348 -0.453957 -0.382682 -0.683860 0.410927 0.126386 0.324231 0.568206 0.765033 0.201273 -0.597868 -0.098023 -0.494333 0.332192 0.680846 0.373319 0.285230 -0.492093 -0.167187 0.184321 -0.533394 -0.116617 0.959605 -0.608917 0.209379 -0.052628 -0.748670 0.667651 0.596035 0.921726 -0.220181 -0.659313 -0.532231 0.397137 -0.343173 0.878696 -0.476477 0.981058 0.446901 -0.711444 0.182331 0.849033 0.190534 0.687998 0.181225 -0.128620 0.061317 -0.533544 0.379286 0.894129 0.650776 0.845892 -0.222488 0.610381 -0.763025 0.986891 -0.442247 -0.511695 0.654541 -0.846212 -0.589969 -0.565640 -0.505525 -0.122201 0.831497 0.151303 -0.243505 -0.644980 0.132361 -0.796604 -0.356424 -0.685309 -0.947570 0.834110 -0.997311 0.233655 -0.294510 0.064006 0.700111 -0.915224 -0.041865 0.350887 0.930668 0.735647 -0.038731 -0.832356 0.722538 0.519022 -0.344051 0.377080 0.672810 0.065979 0.811440 -0.832715 0.943778 0.642937 0.318588 -0.299727 0.997957 -0.549051 -0.096330 -0.358467 -0.234360 -0.043900 -0.524357 -0.231671 -0.810245 0.181133 0.832335 0.889866 0.265909 -0.209530 0.240754 0.196577 -0.473882 -0.797978 0.364221 -0.751344 0.721044 -0.979831 0.625735 0.393854 0.086149 0.437175 0.561140 0.029927 0.080111 -0.120272 0.730201 0.078068 0.330676 -0.366129 0.719601 -0.903684 0.589970 -0.804756 -0.135355 0.779726 0.376377 -0.303020 0.669592 -0.357714 0.487451 -0.089654 0.838863 -0.986432 0.112368 0.203084 -0.737776 -0.166587 0.223254 0.887959 -0.772733 -0.690598 0.325134 0.788407 0.339329 -0.594754 -0.331865 0.069530 0.483314 0.998811 0.703401 0.202915 -0.904873 0.293371 0.398160 -0.040227 0.073097 -0.225463 0.656753 -0.257311 0.416823 0.144204 0.653035 0.255686 0.157772 -0.234597 -0.541229 0.419996 0.598816 0.682024 0.307956 0.826083 0.991427 -0.366910 0.614490 0.330756 0.038336 -0.717375 -0.599714 -0.478350 -0.718564 -0.896313 0.724565 -0.623436 0.397058 0.122725 0.336336 -0.529845 0.897262 -0.006911 0.212844 0.314085 -0.862707 -0.134122 -0.430228 0.295065 0.631282 0.028542 -0.284939 0.230098 -0.289433 -0.976983 0.056181 -0.298007 -0.343893 -0.329328 -0.967250 0.694442 -0.046703 -0.566964 -0.783908 0.234734 -0.463277 0.940657 0.611297 0.933781 0.063382 -0.052366 -0.596065 -0.039356 0.940723 0.616779 -0.725271 -0.921984 -0.517343 -0.155499 0.373081 -0.886061 0.873043 -0.911858 0.344037 -0.416390 -0.888841 -0.599782 0.285603 -0.232734 0.070890 0.318353 -0.538292 -0.975813 0.751389 -0.322201 0.258921 -0.711888 -0.381544 -0.129782 -0.778108 0.681838 0.817852 -0.374172 -0.357519 0.758575 -0.757394 -0.082790 0.836591 -0.274736 0.761711 0.209672 -0.160797 0.634754 0.297815 -0.816760 -0.781637 0.408974 -0.416542 0.503967 -0.823761 0.654348 -0.177681 -0.362053 0.678536 -0.426292 0.315746 -0.062544 -0.138180 0.934202 0.807675 0.083712 0.616040 0.625526 0.709540 -0.741479 0.384101 0.952146 0.175731 0.220692 -0.322590 -0.062558 -0.569635 0.516612 -0.427805 0.728179 0.699852 -0.209441 0.137153 -0.716690 -0.705475 0.313392 0.937658 0.116845 0.951339 0.616194 0.690553 0.267085 -0.446349 -0.447627 0.201287 -0.638675 0.636085 -0.182673 0.986852 0.345624 0.075848 0.370953 0.297770 -0.748421 -0.408354 0.975180 0.189021 0.022010 0.491792 0.761216 -0.249811 0.191644 -0.448225 0.887342 0.474954 -0.153700 0.200734 0.412613 0.963144 0.152073 0.028807 0.653697 -0.580842 0.582457 -0.793930 0.620445 0.943782 0.842154 -0.562228 0.930634 0.187779 0.513619 0.301587 -0.514451 0.765198 0.893233 -0.539271 -0.045781 -0.084757 0.952521 -0.284565 0.665432 0.144165 0.267209 0.552774 -0.380881 -0.886491 -0.246492 -0.968268 -0.923347 0.905581 0.060538 0.730350 -0.675261 -0.357004 0.936420 0.945183 -0.413222 0.778574 -0.617045 -0.482588 -0.033647 0.896574 0.818999 0.451902 0.661772 0.712232 0.912630 -0.384009 -0.372526 0.865151 0.331426 -0.707094 0.009316 -0.401365 0.845681 0.628435 -0.287856 -0.400811 0.660166 -0.211203 -0.495230 -0.279295 -0.480852 -0.170492 0.363700 -0.544432 -0.225308 0.950478 -0.765858 0.157647 -0.532110 0.200495 0.054221 -0.713111 -0.347603 -0.284006 0.999121 -0.434973 0.331985 -0.373405 -0.569822 -0.336589 -0.080499 0.439494 0.262046 -0.234818 0.067928 0.974190 0.364371 -0.271905 -0.237012 0.869141 0.448799 0.282135 -0.301351 -0.187500 0.737703 0.473341 -0.237022 0.971845 -0.369012 0.230869 0.172341 0.685209 0.517758 0.824737 -0.598797 0.516879 -0.610236 0.733188 -0.856526 -0.180058 -0.603402 0.062975 -0.740564 0.658644 0.828157 0.327364 0.632835 0.192528 -0.944541 -0.604178 0.061669 0.504258 0.677958 0.760318 -0.683242 0.415661 0.233659 0.079737 0.387506 0.864647 -0.689395 -0.440153 0.549856 0.828363 -0.615416 0.951059 0.345242 -0.225651 0.684246 0.488716 0.594291 -0.919155 -0.448309 0.853727 0.739489 -0.620152 0.181091 0.372324 0.572376 0.236550 0.768146 -0.365955 -0.259191 0.446103 -0.605637 0.057567 -0.138236 0.628022 -0.862696 -0.750730 0.492670 -0.552091 -0.190883 0.042526 -0.723728 0.193701 -0.006415 0.621514 0.968050 -0.322169 0.110229 0.562341 -0.241324 0.661920 0.416068 -0.501835 -0.958231 -0.402841 0.870488 0.614145 0.833709 0.638634 -0.751809 -0.425482 0.084737 -0.357446 0.632085 0.946501 -0.729424 0.769389 -0.804228 0.763246 -0.782703 0.004889 -0.194228 -0.506431 -0.801410 0.799356 -0.884917 -0.833360 -0.522813 0.225312 0.728980 0.235863 -0.112767 0.145048 0.734027 -0.070999 0.742207 0.604516 -0.456853 0.575916 0.243150 -0.208663 -0.849566 -0.672113 0.433891 0.782519 -0.725611 0.704467 0.551908 -0.529840 0.467713 0.769205 0.475049 -0.726515 -0.737226 0.673639 -0.927159 -0.622143 0.840279 -0.449972 0.603169 0.569259 0.785890 -0.509598 -0.285693 0.519918 0.419403 -0.543487 0.124433 0.962550 -0.967570 -0.632417 -0.246113 -0.817136 -0.304530 -0.812222 0.965383 -0.030141 0.892245 0.517290 0.440019 0.359958 0.286495 -0.084932 0.633443 0.549269 -0.411293 0.706284 0.927126 -0.571015 -0.743688 0.530295 0.998244 -0.957798 -0.979304 -0.287449 0.562120 0.440099 0.169064 -0.313447 0.402649 0.201494 0.054136 -0.843464 0.384357 0.749606 -0.655687 0.349740 -0.280535 -0.763442 -0.132970 -0.840516 0.596517 -0.846475 0.074552 0.229960 0.702794 0.663259 -0.063757 0.629920 -0.907756 0.192555 0.160215 -0.909512 0.234757 0.180911 -0.196961 -0.203123 -0.378990 0.972104 0.483430 -0.976341 0.173597 -0.462434 -0.819806 -0.442045 -0.712828 -0.475493 0.907695 0.006637 -0.238934 -0.225275 0.166121 -0.642418 -0.071750 -0.759327 0.587542 -0.368955 0.903931 -0.476214 -0.739035 0.996175 0.716341 0.421179 -0.913336 -0.048902 -0.397910 -0.110297 0.747975 0.223100 -0.138193 0.231405 0.246758 -0.964596 0.768971 0.426952 -0.406641 -0.943856 0.951460 -0.498946 0.062781 -0.287474 0.275779 -0.771098 0.070108 -0.795971 -0.530425 -0.342350 -0.164926 -0.626494 0.181436 0.096039 -0.630319 -0.102224 -0.482782 -0.543655 0.848874 0.119308 0.346048 0.596849 -0.657593 -0.792145 -0.171747 0.589165 -0.756741 -0.402776 0.016118 -0.163382 -0.346632 -0.032422 0.337672 0.716149 0.680103 -0.386549 0.945051 -0.249789 -0.182520 -0.585375 0.407861 0.652554 -0.211869 -0.410703 -0.251407 0.157812 0.487073 0.265810 0.614157 0.335947 -0.614882 -0.039794 -0.067204 -0.272475 0.168060 0.761049 -0.683310 0.411319 -0.641726 0.332808 -0.752063 0.011642 -0.699614 0.585609 -0.272209 0.980489 -0.800940 -0.327159 -0.269300 0.016540 0.087466 -0.861439 -0.330906 0.875597 -0.272142 0.417686 0.033410 -0.785069 -0.316504 -0.352433 0.550879 0.068614 0.607773 -0.516325 0.796139 -0.224167 -0.755276 -0.887171 -0.812848 -0.397002 0.445637 -0.564910 0.614640 0.746023 -0.979301 -0.657569 0.726512 -0.780241 0.015272 -0.542789 0.236298 -0.897262 -0.404227 0.905392 0.978335 0.323631 0.323078 0.011745 0.538562 -0.993425 0.659312 0.089441 0.075189 0.267085 0.573116 -0.128672 -0.957082 0.817841 -0.015843 -0.769930 -0.579161 -0.570205 -0.334840 -0.964521 -0.824182 -0.314141 -0.622091 0.902329 -0.094383 0.393181 -0.640459 -0.858084 0.495919 -0.044687 -0.952692 0.474255 -0.721056 0.370386 -0.514000 0.817506 0.376961 -0.854688 -0.093053 -0.547850 0.412397 -0.519937 0.323478 0.455314 -0.702096 -0.692364 0.685385 -0.281257 -0.262569 -0.649455 -0.245778 -0.086752 0.036403 0.132131 -0.184422 0.942021 -0.474688 0.175119 -0.916063 -0.978768 -0.869568 -0.868755 0.495486 -0.590624 0.501631 0.981486 -0.773118 -0.121408 -0.873202 0.133830 0.330743 0.539194 0.613893 -0.345779 -0.005491 0.911797 -0.038143 -0.320107 -0.369460 0.699287 0.030438 0.384761 -0.387464 -0.933159 -0.483108 0.428113 -0.991138 0.042205 -0.396768 -0.907201 0.063436 -0.266336 -0.775956 -0.441078 0.143040 0.725675 -0.459592 0.369923 -0.395733 -0.332794 -0.496248 0.935010 -0.793600 -0.882355 -0.410769 0.200909 -0.970558 0.551087 0.880802 -0.340018 0.250375 -0.088760 -0.955257 0.862910 -0.021919 -0.438365 0.291024 -0.013056 0.603840 0.894256 0.079743 -0.332724 -0.372080 0.303786 0.226199 0.770960 0.029461 0.766607 0.140883 0.633729 -0.566187 0.644635 0.568739 -0.359787 0.762280 -0.842031 0.841122 0.791722 0.709057 0.721924 -0.548296 -0.040569 -0.366836 -0.503553 -0.177659 0.611246 0.058083 -0.886635 -0.401811 -0.338077 -0.992379 0.677932 0.329199 -0.364459 -0.018282 -0.444602 -0.593499 -0.988820 -0.677995 0.547383 0.644908 -0.244182 0.192018 0.213647 0.396031 -0.045702 0.371616 0.237154 -0.253979 0.080673 -0.040922 0.197725 -0.959896 0.592242 0.694172 -0.137555 0.203488 -0.247745 -0.024190 0.801677 0.414178 -0.016569 0.479609 -0.256623 0.618971 -0.538673 0.298775 -0.974528 -0.527493 0.620781 0.572856 -0.882585 -0.623401 -0.235126 0.331063 0.772630 0.719172 -0.297321 0.009784 -0.534807 0.783352 0.968861 0.662918 0.823456 0.561103 0.357090 -0.314099 -0.235409 -0.890655 0.661711 -0.433732 0.523523 -0.354858 -0.954123 -0.733100 -0.735886 -0.492796 0.565676 -0.710414 -0.020289 0.186456 0.862441 0.097127 0.563055 -0.372685 -0.571811 0.335685 -0.653512 0.130868 -0.654531 -0.188319 -0.085780 -0.685670 -0.525401 -0.262324 0.875433 0.831689 0.423577 -0.359975 0.941034 0.085288 0.206293 0.464557 0.730430 0.252170 0.731458 0.994544 0.759374 0.297134 -0.715870 -0.260914 -0.516410 -0.853429 0.836212 -0.953355 -0.226113 -0.735598 0.382330 0.120374 0.395270 0.727798 0.932055 -0.690510 -0.957872 -0.593346 0.047166 0.917561 -0.761657 -0.529257 -0.442414 -0.820623 0.556031 0.763879 0.643935 0.286462 0.016048 0.375393 0.281005 -0.224577 -0.327474 0.565135 0.514508 0.156116 0.711706 0.350721 0.202760 -0.514407 0.615122 -0.414910 0.605967 0.010393 -0.687112 0.538022 0.319883 -0.644984 0.944676 -0.632951 -0.727423 -0.816981 -0.162208 -0.169837 -0.637603 -0.606176 -0.405959 -0.993668 0.680285 0.610090 0.381724 -0.038710 -0.614488 -0.945750 -0.473575 0.900020 0.210366 -0.761868 0.250741 -0.586873 -0.276276 -0.134137 -0.001783 -0.670309 0.876256 0.311105 0.867713 0.196139 0.666121 0.812390 0.563188 0.938698 0.995409 -0.599020 -0.231139 -0.642194 -0.205196 0.362902 -0.635862 -0.524911 -0.027008 0.745862 0.436379 0.358504 0.800112 0.962805 0.258525 0.010479 -0.799064 -0.490734 0.423605 -0.075340 0.375129 -0.578178 0.254352 0.251385 0.732927 0.122065 -0.552476 0.399047 -0.065545 -0.989288 0.337745 -0.070136 -0.588308 -0.893395 0.287670 0.206495 0.469508 0.651807 0.681584 -0.557501 0.397669 0.117963 0.801004 0.197781 0.080768 0.059528 -0.791740 0.281704 0.568794 0.631865 -0.793636 -0.056077 -0.946313 0.460716 -0.804692 0.786614 -0.417219 -0.357168 0.185661 0.517235 -0.346457 -0.476594 -0.552901 0.065235 -0.369989 0.734769 -0.728270 -0.900481 0.386576 0.953315 -0.457982 -0.215755 0.071278 -0.656978 0.982026 -0.847954 0.402550 -0.809714 0.433749 -0.028656 0.822151 0.640114 0.915267 0.875838 0.100830 -0.889425 0.662452 0.683610 -0.246594 -0.151887 0.200846 0.406949 0.371519 0.647945 -0.527815 -0.998470 0.382714 -0.256085 -0.898951 -0.230711 -0.302770 -0.356933 0.553534 0.768507 -0.013911 0.535560 0.920553 -0.611361 0.725846 0.354302 0.359982 0.547997 -0.005584 0.275249 0.423836 -0.904754 0.385824 0.086288 0.778856 -0.860770 0.934401 -0.020298 0.546179 0.305920 -0.372353 -0.981636 0.307450 -0.989639 -0.237721 0.408499 -0.220350 0.459509 -0.948434 -0.666816 0.228016 0.037655 0.868744 0.148569 0.426294 0.594590 -0.497129 -0.213724 0.142587 0.497287 -0.938474 -0.433577 0.592533 0.447349 0.652711 0.371389 0.586579 0.587112 -0.648909 0.132759 -0.106968 -0.021262 0.151123 -0.799518 -0.010902 0.913401 0.608981 0.768748 0.372910 0.660548 -0.898068 -0.399074 -0.301797 0.970676 0.749495 -0.875503 0.565266 -0.747634 -0.089227 -0.292147 0.749653 -0.027701 0.274276 0.342186 -0.580352 -0.073014 -0.286426 -0.993773 -0.485902 0.064665 0.138986 0.407130 -0.956597 -0.709892 0.607612 0.032501 -0.796490 0.216593 -0.198751 0.576420 -0.122859 -0.096819 -0.822654 0.575344 -0.126144 0.926840 0.699840 -0.560878 -0.820794 -0.389386 0.146975 0.928859 0.582912 -0.578750 0.271044 -0.997440 0.348237 0.984619 -0.991213 0.862335 0.049284 0.147773 0.269465 0.092687 0.437881 -0.122922 -0.874813 0.641391 -0.906329 -0.073564 0.217811 -0.029188 0.829617 0.395156 -0.453844 -0.296527 0.321997 -0.754004 0.142595 0.501203 -0.143390 -0.710430 0.430061 -0.560478 -0.289179 -0.298894 -0.557918 -0.940942 -0.314275 -0.549131 0.921393 0.735009 0.598642 0.190858 -0.172305 0.036523 -0.932064 -0.047117 -0.322086 -0.838393 0.879319 0.895725 0.132419 0.708936 0.290881 0.678575 -0.587591 -0.387122 0.924571 0.555005 -0.885920 -0.218819 0.844575 0.544142 0.220703 -0.444604 -0.754753 0.662785 -0.385546 -0.069028 -0.886346 -0.464153 -0.334019 0.712296 0.726705 0.493676 -0.251181 0.794641 -0.553441 0.426733 0.956248 -0.674123 0.322458 0.088667 -0.965187 -0.386660 -0.232758 -0.552777 0.226217 -0.308187 -0.997772 0.340298 0.472994 0.846803 -0.115561 -0.306304 -0.597801 0.129687 -0.643519 0.016653 -0.939341 -0.529865 0.552499 -0.273360 -0.817569 0.279205 -0.779684 -0.068750 0.073846 -0.333126 -0.642016 0.030094 -0.007248 0.680442 -0.881238 0.027565 -0.706218 -0.113996 0.474788 0.519999 0.577817 0.477016 -0.139704 0.050810 0.323819 0.744736 0.744507 0.726018 -0.125578 -0.899012 -0.257329 -0.064919 -0.428877 -0.704830 0.661721 -0.246447 0.574375 0.882037 0.684803 -0.351779 -0.451089 -0.957213 0.678315 0.541662 0.723229 0.797077 -0.430772 -0.982990 -0.316920 -0.955984 0.537009 -0.739103 0.521032 -0.602694 0.311708 -0.155149 -0.857959 0.056214 -0.429131 0.016463 0.157202 0.313539 0.951545 0.728325 0.608710 0.613266 -0.518122 0.183084 0.495302 -0.833319 0.831305 -0.955787 -0.790532 0.509621 0.585875 0.932697 0.306697 -0.844897 0.949707 0.989778 -0.800881 0.486717 -0.749325 0.720150 0.884022 0.562382 -0.434999 -0.973937 -0.381403 0.135869 0.042527 0.775799 -0.550591 -0.005929 0.504124 -0.941882 -0.392663 0.986002 0.241203 -0.897361 -0.847317 0.072508 -0.853148 -0.637849 -0.417872 0.732727 -0.705151 0.888826 0.887830 -0.755444 0.878604 -0.913051 0.731273 -0.870722 0.807099 0.615295 0.691661 -0.627900 0.641358 -0.689743 0.507969 -0.316115 -0.913944 0.957378 0.677956 0.590180 -0.984504 -0.714707 0.576181 0.256699 -0.612068 0.728864 -0.670793 -0.465216 -0.908984 -0.088665 -0.732488 -0.614135 -0.199839 -0.844658 -0.369579 -0.321235 -0.757709 -0.638307 -0.191957 -0.950610 0.976988 -0.500296 -0.578510 0.618346 -0.190039 0.929460 -0.697769 -0.103982 0.886838 0.980188 -0.513803 0.902334 -0.734519 -0.937621 0.159033 -0.346587 0.791243 0.488240 0.188198 0.882259 -0.600425 0.455710 -0.731876 0.199736 0.611052 -0.101456 0.878501 0.853343 0.260238 -0.313456 0.902733 0.237226 0.186248 -0.675776 -0.144427 0.996209 -0.746316 0.157804 -0.107774 -0.859478 0.137992 0.378424 -0.957144 0.403473 0.440803 0.201889 -0.943114 0.232046 -0.309871 0.245084 0.114305 0.089705 -0.299206 0.382429 -0.710559 -0.688155 -0.719027 -0.832058 -0.834812 0.541211 -0.145514 -0.932078 -0.221563 -0.959267 -0.607855 0.634010 -0.963058 -0.354171 -0.208186 -0.070831 -0.213650 0.929805 -0.692407 -0.170794 0.333278 0.748395 -0.968905 0.390164 -0.019559 -0.278775 -0.364752 -0.905254 0.810929 0.336042 0.477175 -0.899630 0.647888 0.758148 -0.731688 0.813076 0.299359 0.122798 0.880997 -0.922204 0.163531 -0.726857 0.711806 0.200473 -0.081029 -0.496380 -0.870358 0.705321 -0.566575 -0.562765 -0.465473 0.766703 -0.814370 -0.434377 0.156868 0.166070 0.286847 0.792116 0.260816 0.097777 0.128158 -0.262009 0.198147 -0.223954 -0.503861 0.466459 -0.410878 0.795498 -0.410744 -0.529881 0.873295 0.752787 -0.256738 0.585101 -0.046740 0.662233 -0.911279 0.082902 0.367554 -0.477854 0.520137 0.902082 -0.711150 0.705767 -0.532296 0.445718 -0.128163 0.754552 0.237834 -0.867346 -0.147671 -0.634008 -0.129355 -0.949525 0.142038 0.366784 0.516934 0.731160 0.162282 -0.893810 -0.798721 0.035577 0.858977 -0.055459 -0.379322 -0.187762 -0.393226 -0.290601 0.895140 0.974328 0.231546 0.415277 0.876409 0.520396 0.121044 -0.655886 -0.033887 0.992881 -0.901334 -0.796053 -0.874465 -0.049006 -0.430060 -0.003821 0.001470 0.711978 -0.637037 -0.481596 0.443138 0.525245 -0.375406 0.644417 -0.439178 -0.516429 -0.411042 0.181501 0.295809 0.195731 0.890900 0.190949 0.170059 0.122445 -0.393773 0.046468 -0.357159 0.727271 0.390582 0.608954 0.720152 0.489248 0.812902 0.845687 -0.559758 -0.617159 -0.158134 0.441712 -0.905181 0.204829 0.960116 0.537957 -0.269926 -0.415291 0.182374 0.290897 0.068280 0.771331 -0.527603 -0.635911 -0.032937 -0.636703 0.555039 -0.862878 0.485743 -0.838735 0.183590 -0.871417 0.888536 -0.425827 0.737538 0.608688 -0.936579 0.550440 0.454375 -0.496337 0.933281 -0.703759 0.945375 -0.971900 0.501070 0.905491 0.566057 -0.768856 -0.509800 -0.251570 0.522041 0.558480 -0.480238 0.994438 0.922570 0.486824 -0.642264 0.477609 0.623946 0.843478 0.638874 -0.192464 0.972062 0.527410 0.381709 0.709600 0.136098 0.445129 0.260039 -0.409527 0.948792 0.193320 -0.113287 0.894167 0.221420 -0.612217 0.799658 -0.212523 -0.381073 -0.710142 0.535907 -0.859032 0.848338 -0.944331 -0.864593 0.770908 0.542493 -0.506858 0.248516 0.166439 -0.663380 -0.112610 0.973975 -0.691318 -0.585199 0.355684 -0.981718 0.550899 -0.199187 0.278321 -0.858628 -0.250394 -0.528359 0.028085 -0.356227 0.693061 0.415868 -0.556569 -0.519463 -0.965205 -0.266712 -0.983556 -0.824237 -0.418373 -0.927887 -0.688830 -0.647466 0.614606 -0.195688 0.601051 -0.218955 0.140932 -0.511559 -0.244980 0.449614 -0.096758 -0.889296 0.467896 -0.545859 -0.088482 
-0.253783 -0.404487 0.661123 0.217857 0.623598 -0.695104 -0.089082 0.039466 -0.251673 0.391455 0.074261 0.481615 0.407900 0.250025 -0.936758 0.480013 0.561194 -0.584224 0.094619 -0.634493 -0.983173 0.875664 0.506439 -0.494732 -0.369316 -0.043947 0.408510 -0.258611 -0.576051 0.862651 0.652906 0.170166 -0.541836 0.314029 -0.611977 -0.918238 0.618925 0.298942 0.121227 -0.632748 -0.309603 -0.804511 0.848867 -0.901703 0.445513 0.912109 0.578310 0.006708 -0.672115 -0.327071 0.372214 -0.655288 -0.451407 -0.121347 -0.150020 0.179277 0.834707 -0.741510 0.920666 -0.741344 -0.878858 0.573572 0.428822 -0.420695 -0.112398 0.816846 -0.338933 -0.493473 0.115787 0.782294 -0.126221 0.806184 0.977783 -0.277354 0.904481 0.423296 -0.365245 0.482790 -0.569996 -0.037360 -0.844281 0.802218 0.307351 -0.295689 -0.319129 -0.842669 0.883588 -0.484422 -0.584178 0.804254 -0.225766 -0.463037 0.377826 -0.796944 0.116269 -0.734572 -0.980099 0.777336 -0.228045 0.135689 0.559630 0.645734 -0.058127 0.537413 -0.631620 -0.153647 -0.039291 0.003135 -0.670857 0.390713 0.965775 -0.515138 0.192932 0.273126 0.189174 0.873803 0.430457 0.072762 -0.610619 0.846279 -0.122984 0.163614 -0.616757 -0.745157 0.366670 0.499511 -0.479729 0.386572 0.276847 0.292225 -0.477740 -0.163523 -0.062041 0.464133 -0.626110 0.306339 -0.689514 0.334600 -0.690526 -0.360371 -0.274687 -0.724751 0.124492 0.918245 0.548375 -0.686335 0.792048 -0.021167 0.386428 -0.818572 -0.174888 -0.736556 0.345042 0.208354 -0.481713 -0.288287 -0.292134 0.038557 -0.901716 0.984713 -0.669217 -0.379455 -0.178810 0.268742 -0.915323 0.195080 -0.424918 -0.604837 -0.470320 -0.115444 0.034793 0.254993 0.159805 -0.840715 0.173237 -0.291820 -0.527050 -0.034715 0.687013 0.859378 0.146713 -0.487876 -0.877179 -0.508245 0.720479 -0.358892 0.203468 -0.571656 0.679665 0.301753 -0.586943 -0.989552 0.922297 0.234247 0.279190 -0.993025 -0.570674 0.854272 -0.597862 -0.040994 -0.261172 0.436931 -0.786002 0.898633 0.596216 0.387236 -0.393187 -0.930834 -0.647479 -0.706174 0.928543 0.499234 -0.194050 -0.948635 0.990989 -0.473571 -0.307527 0.194457 -0.045227 -0.627862 -0.503790 0.367830 -0.617414 -0.581493 -0.397923 0.661776 -0.574518 0.031403 0.516048 -0.172380 0.990409 -0.745125 -0.735449 -0.795593 -0.846492 0.860766 0.591643 -0.239679 0.929932 0.944164 0.054147 0.858475 0.443397 0.860097 0.909840 0.434386 -0.613475 -0.397688 -0.371157 0.341298 -0.025550 0.125053 -0.290872 0.357036 0.543560 0.311205 0.018812 0.969042 -0.657392 -0.465140 -0.203339 -0.666983 -0.210265 0.061212 -0.462576 -0.056757 -0.078021 -0.870933 0.703564 -0.148089 -0.926769 -0.242289 -0.289614 0.516629 -0.382193 -0.379775 -0.048985 0.004333 0.222538 0.579859 -0.654369 -0.803012 -0.295088 0.054759 0.554024 -0.751528 -0.634036 -0.427165 -0.782486 -0.291428 0.107695 0.014175 0.041589 0.897430 -0.924613 0.579013 -0.159327 -0.002634 0.708080 -0.455762 0.849277 0.781312 0.301949 -0.440338 0.297941 0.919756 0.179888 -0.751044 -0.075911 -0.597575 0.828815 0.269720 -0.400587 -0.466273 -0.675521 -0.846564 -0.217801 -0.309557 -0.273728 -0.000288 0.399015 0.833967 -0.986113 -0.559396 0.731397 -0.910725 -0.980383 -0.427930 0.086640 0.727697 0.116308 -0.064083 0.509009 -0.581743 0.495579 -0.193051 -0.661987 -0.324533 0.055905 0.262102 0.077892 -0.115280 -0.468178 0.677305 0.418447 -0.143699 0.830741 -0.799355 0.546744 -0.442987 0.200357 -0.054242 -0.609020 0.214245 0.386362 -0.877624 0.303519 0.405979 -0.305553 -0.609840 0.133676 0.810755 0.326077 -0.357316 -0.770988 -0.178344 0.449634 -0.432975 0.497123 -0.494461 0.829128 -0.424985 0.390259 -0.639051 -0.747680 -0.191294 0.217250 -0.916939 0.009351 -0.236006 -0.359926 -0.790291 0.709752 0.031054 0.423953 0.096114 0.153430 -0.272528 -0.497907 0.847877 0.117632 0.635768 0.658632 -0.556291 -0.721547 0.887644 0.265365 0.728087 -0.545330 -0.237512 -0.766374 -0.716203 0.337503 0.623885 -0.355253 0.589824 -0.567408 0.861997 0.672885 0.441943 -0.374010 -0.687041 0.651652 -0.664257 0.344013 0.075605 0.431857 -0.502557 0.803078 0.933950 -0.654680 -0.079290 0.569718 -0.996048 0.364418 0.848171 0.891596 -0.370217 0.576258 -0.653734 0.392271 0.809884 -0.369937 -0.270226 0.433769 0.274810 -0.680402 0.866361 0.136806 0.992483 0.308304 0.762797 -0.694558 -0.040044 -0.901460 0.649455 -0.964439 0.530396 -0.853101 0.838638 0.464346 -0.507781 -0.240652 0.034064 -0.503829 -0.876233 -0.117765 -0.612232 -0.246450 -0.541508 -0.265966 -0.854179 -0.731624 0.364097 -0.124405 0.702145 -0.361094 0.195194 0.568506 0.775713 0.187677 -0.123191 0.538510 0.493119 0.836765 0.637049 0.142574 0.872326 0.167446 0.289473 0.710964 -0.368208 0.781692 -0.529687 0.665856 -0.722137 -0.405921 -0.451909 -0.334369 0.347629 0.006583 0.399664 0.493450 0.274959 -0.236239 -0.630954 -0.022896 0.402667 0.564239 -0.454390 0.178380 -0.248084 0.422419 -0.283110 -0.754965 0.259185 -0.646061 0.387609 0.131510 0.521385 -0.322918 -0.157525 -0.846823 -0.541226 0.312787 0.819033 -0.263363 0.906867 -0.632877 0.402268 0.254496 0.373707 -0.198068 -0.252054 -0.351334 0.565693 0.116992 0.625770 -0.031639 -0.318769 -0.828620 -0.853259 0.433147 0.593799 -0.136369 0.678181 -0.147016 0.217570 0.065791 0.984494 -0.261045 0.742873 -0.173031 -0.107868 -0.798353 -0.860243 -0.288836 -0.061715 -0.953376 0.078287 -0.659447 0.301119 -0.548006 0.142485 -0.950935 0.100660 -0.291821 0.166057 -0.273570 0.676540 0.847288 -0.102190 0.823281 0.280434 -0.508391 -0.313089 -0.041384 0.344593 0.904481 -0.975593 0.329087 -0.356564 0.767280 -0.843943 0.535568 0.968927 -0.704186 -0.753268 -0.092788 -0.657563 0.325020 0.247765 0.643557 0.777014 -0.609749 0.692622 -0.122327 0.098429 -0.141321 0.604103 -0.225031 -0.294033 -0.498087 -0.401750 0.986401 -0.006478 0.285161 -0.054983 -0.661885 0.189642 -0.030576 0.667202 0.833079 -0.263296 0.823259 0.368647 -0.294369 -0.880927 0.615379 0.612843 -0.538490 -0.059602 -0.139392 -0.894933 -0.282588 0.250859 0.797689 0.595085 -0.650712 -0.343632 0.199188 0.124257 0.362335 0.701101 0.722506 0.348736 -0.305378 0.007667 -0.706247 0.032737 -0.802690 0.263177 -0.300061 -0.969612 0.999881 -0.476802 0.399035 -0.294488 -0.357729 0.014414 -0.681645 0.103781 0.954812 0.178963 0.208847 -0.327776 -0.570179 0.006536 -0.732691 -0.220891 0.662904 0.466497 0.903366 0.025238 0.167597 0.625873 -0.626026 0.862220 -0.366460 -0.332273 -0.105044 -0.169150 0.930904 0.594895 -0.138762 0.930785 -0.881907 -0.739727 -0.363703 -0.239636 0.274687 -0.045349 0.864145 0.229499 -0.866386 0.072992 0.901723 -0.436565 -0.920472 -0.830968 0.342545 0.742432 0.635529 0.245911 -0.232330 -0.196874 -0.128217 0.141644 -0.334655 0.505323 0.809371 0.560302 -0.663827 0.740275 0.155197 0.197412 0.671059 0.273291 0.457685 -0.692644 -0.966345 -0.267628 0.262007 0.897800 0.961871 0.395621 -0.029208 0.863594 0.959057 0.050320 -0.967375 0.301601 -0.207248 0.668154 -0.452488 0.560422 -0.528720 0.419296 -0.297935 0.136625 -0.075381 -0.488564 -0.303073 0.260792 -0.748290 0.852125 -0.541796 0.922770 0.125415 0.915889 -0.769874 0.159070 -0.351739 0.492133 0.056870 -0.389869 -0.112245 -0.972337 -0.526275 -0.153188 0.077983 -0.493649 -0.851587 0.870735 -0.825495 -0.304075 0.431157 -0.354215 -0.884779 -0.866778 0.782410 0.039840 -0.355343 -0.520663 -0.699368 -0.103632 -0.668538 -0.241164 -0.180862 0.456877 -0.325276 0.049264 -0.384053 0.322985 -0.458603 0.672818 0.933116 0.429151 0.700481 -0.593158 -0.724037 -0.221536 -0.086808 -0.575624 -0.350801 0.087697 0.120301 -0.919645 0.733482 0.235522 -0.786423 0.515892 -0.724638 -0.141766 0.995229 -0.424006 0.754602 -0.673309 0.334829 -0.426260 0.783568 -0.990446 0.623003 -0.600485 0.332538 -0.835600 -0.927667 0.265655 0.593552 0.772814 0.672496 0.869515 -0.448723 -0.414311 -0.706109 0.200476 0.673386 0.414192 0.280831 0.406868 -0.350287 0.494408 -0.077240 -0.074925 -0.647358 -0.082011 0.501069 -0.892756 0.244680 -0.164102 -0.319016 0.028248 -0.154548 -0.696013 0.427763 -0.822010 -0.531613 0.500096 0.443645 -0.938061 0.272909 0.116141 0.931454 0.824186 0.701830 -0.774656 0.024662 0.375216 0.639536 -0.694507 -0.217916 -0.710751 0.799901 0.704844 0.214324 -0.847457 -0.377167 -0.284607 -0.740213 0.867513 0.551291 -0.059229 -0.104240 -0.603258 0.244758 -0.676477 -0.425268 0.713146 0.823619 -0.981623 0.775085 0.096528 0.134518 0.706538 -0.079286 -0.163652 0.931882 0.945376 -0.788436 0.571418 -0.749131 -0.006352 0.860667 -0.949230 -0.301508 0.074991 -0.796687 0.321325 0.790384 -0.536900 0.188838 0.341674 0.403871 -0.915402 0.738417 -0.351370 -0.591879 -0.686851 -0.638225 -0.768261 -0.668474 -0.863140 0.328267 0.466044 0.843398 -0.751019 -0.697608 0.775280 -0.805643 -0.486044 0.346698 -0.554774 0.507604 0.207365 -0.504004 -0.793904 -0.717644 -0.300691 0.527422 -0.927260 0.162409 -0.283741 0.414414 -0.433720 -0.199143 0.152831 0.214910 0.208978 0.465980 0.576685 0.440718 0.797506 0.713545 -0.231015 0.263550 0.556943 0.017966 0.565942 0.332223 0.212323 -0.920102 -0.321079 0.657550 0.587503 0.886286 -0.846454 0.793599 -0.831358 -0.147145 0.321021 -0.758618 -0.984736 -0.962720 0.655796 -0.418456 -0.161863 -0.191373 0.796454 -0.952884 -0.725393 0.373139 0.487833 -0.927887 0.086684 -0.743182 0.335663 -0.356373 0.274784 -0.098395 0.975851 -0.512893 -0.018497 -0.345228 -0.855343 -0.430994 -0.458942 -0.701798 -0.637395 -0.290299 0.151057 0.683625 -0.048917 0.166321 0.720905 -0.393121 0.747866 -0.440958 0.415506 0.544320 -0.393842 0.690114 -0.082541 -0.906009 0.762227 -0.995857 -0.649191 0.097890 -0.352230 0.625593 0.999494 -0.376379 -0.887300 -0.019002 0.278393 -0.742643 0.550003 0.819451 -0.444440 0.912608 -0.470848 0.706617 0.596233 0.480234 -0.127062 0.317139 -0.912887 -0.379196 0.876181 0.502620 -0.834877 -0.517661 0.192733 0.082582 -0.423670 -0.045040 0.086725 -0.072861 -0.947150 0.734495 -0.447267 -0.947656 -0.641884 -0.334567 0.033342 0.636509 -0.077210 -0.416655 0.455960 0.478350 -0.504047 0.985111 0.184966 -0.907813 0.465345 -0.942096 0.409325 0.552459 -0.321292 0.285506 0.055078 -0.156169 0.767845 -0.752188 0.926413 -0.655825 0.202772 0.013138 0.271315 0.255622 -0.252366 0.824047 0.307966 0.105750 -0.510520 -0.658692 -0.257742 0.412270 -0.075347 -0.801782 -0.109380 0.420607 -0.816671 -0.924414 0.512793 0.648674 -0.866509 -0.077882 0.201133 -0.187801 -0.792376 -0.743789 0.656030 0.975470 -0.495977 0.582443 -0.680355 0.706795 -0.404418 0.590960 -0.037583 0.343215 0.415007 -0.729616 -0.551035 0.904488 -0.388308 0.191223 0.316758 0.536346 0.389441 -0.792622 -0.043048 0.572770 -0.717036 -0.530255 0.221444 -0.583546 0.391863 -0.577423 0.228653 0.599488 -0.321212 -0.115317 0.574958 0.182811 -0.532874 0.894603 -0.110394 0.062708 0.485563 0.852024 -0.594077 -0.099429 -0.877592 -0.145112 -0.194942 -0.265900 -0.953889 -0.878184 -0.729555 0.435552 -0.670806 0.227397 0.008321 -0.387842 0.697143 -0.770235 0.028612 0.089006 -0.347658 -0.742735 -0.311506 0.331130 0.141948 -0.736548 -0.486059 0.609074 -0.841945 0.403547 -0.328218 0.643618 0.255571 0.077706 -0.455811 0.377979 0.932594 0.349247 -0.887922 0.978705 0.471063 -0.617476 0.414257 0.800257 0.609921 -0.577421 -0.587585 0.307064 -0.347656 0.441027 -0.603930 0.304686 0.698292 0.084564 -0.364185 -0.159760 0.348016 0.149756 -0.550685 0.506071 -0.446697 0.121097 0.149690 0.808874 -0.801197 0.693879 0.186853 -0.868603 0.043126 0.298931 -0.889898 -0.485811 0.681455 0.524359 -0.685554 0.291377 0.946938 -0.273139 -0.401559 -0.400718 -0.832112 -0.005489 0.903968 0.866181 -0.920925 -0.460217 -0.293579 0.427092 0.689539 0.155735 -0.066837 -0.757157 -0.723168 -0.917147 -0.948283 -0.524365 0.776731 0.238570 -0.392968 -0.180143 -0.462499 -0.282866 0.334046 -0.781044 -0.758506 0.648492 0.510333 -0.811568 -0.624646 -0.891227 -0.212286 -0.456758 0.103284 -0.308318 -0.590577 0.182359 0.231466 0.115844 -0.390549 -0.078995 -0.728421 0.542614 0.163847 -0.451589 0.625467 0.215564 0.024046 0.402198 -0.545866 0.631078 -0.777945 -0.008365 -0.651787 0.556100 0.210591 -0.410294 0.204593 -0.279076 -0.221862 0.579946 -0.170303 0.565853 -0.876812 0.932982 -0.742465 -0.467389 0.115341 0.489000 0.648454 0.724792 -0.589995 0.920033 0.267406 0.573853 -0.531555 -0.107127 -0.210583 0.492491 -0.704930 0.243551 0.123570 -0.482875 -0.764815 0.471782 -0.926775 0.445776 -0.938511 0.277818 -0.833300 -0.160373 -0.142236 -0.003602 -0.594520 -0.019047 -0.070620 -0.336986 0.513564 -0.955279 -0.847985 0.162018 0.769513 -0.437980 0.082052 0.036919 -0.864127 0.550496 0.929791 -0.074710 0.042987 -0.775138 -0.831160 -0.833443 -0.258013 -0.595974 0.638339 -0.184788 0.849802 0.699828 -0.906969 -0.983498 -0.460545 -0.049205 0.012900 -0.055065 0.931748 0.942280 0.607949 0.445312 0.987001 0.759964 -0.392670 0.756513 -0.678016 0.689382 -0.206568 -0.542144 0.239878 -0.276777 0.383146 -0.717135 -0.051915 0.551986 -0.550578 0.690072 0.956012 -0.912238 -0.494716 0.805814 0.787590 -0.401685 0.822316 -0.672956 0.549110 -0.164783 0.271979 0.480858 -0.222504 -0.120072 -0.073830 -0.235503 -0.360108 0.533499 -0.478990 -0.038124 0.222881 0.314442 0.419732 -0.537241 -0.962334 -0.197122 -0.254376 -0.014249 -0.645136 0.195047 -0.324177 -0.689124 0.282808 0.181108 -0.883310 0.070398 0.779423 0.939006 0.397443 0.328533 -0.225778 -0.330578 -0.190609 0.551719 0.549350 0.735560 -0.683784 -0.810759 0.269060 -0.162774 0.151117 -0.508059 -0.848332 -0.429151 -0.045300 -0.810666 0.373727 0.700324 0.175085 0.728591 -0.104629 0.850908 -0.960533 -0.821821 0.032015 -0.843844 0.248577 -0.188562 -0.904838 -0.353980 -0.860029 -0.130615 0.315441 -0.050639 -0.578897 -0.135209 -0.315078 -0.262681 0.054032 0.953981 0.574545 -0.794851 -0.554078 0.726213 -0.224002 0.400621 0.915546 -0.850276 0.100945 0.090631 0.878315 0.996316 -0.058462 0.917782 -0.825505 0.973553 -0.926062 0.423072 -0.215009 -0.830899 -0.930908 -0.075038 0.038485 0.384533 0.874323 0.459588 -0.750676 -0.440755 -0.803093 0.303356 -0.486774 0.771452 0.508505 -0.040852 0.497665 -0.715497 -0.640231 0.413211 -0.565773 0.460714 -0.496158 -0.687458 0.457031 0.445380 -0.769676 0.631526 0.418933 -0.695737 0.054598 -0.796075 -0.526637 0.123690 0.128887 0.511848 -0.491776 0.003210 -0.028563 -0.242452 0.562454 0.168344 -0.939096 -0.924320 -0.060204 0.569409 0.034827 -0.562539 0.853911 0.394597 0.850672 -0.711862 -0.144689 -0.645487 -0.399319 -0.687658 0.799893 -0.168995 0.943867 0.218827 0.135267 -0.001534 0.422751 0.608630 -0.877844 -0.448362 0.120478 -0.369621 0.554848 -0.908085 0.387927 0.117302 0.260259 0.448831 0.192981 -0.799945 0.018239 -0.772191 -0.362484 -0.127849 0.622405 -0.511812 0.160289 -0.522283 -0.157299 0.760970 -0.209942 -0.357405 -0.408026 -0.266075 0.861421 0.727241 0.732391 0.284173 0.335872 0.854547 0.835811 -0.543650 -0.515074 0.390658 -0.451735 0.872853 -0.492040 0.808524 0.321683 0.700942 -0.991420 -0.660077 0.928750 -0.353904 0.212073 0.551156 0.134284 -0.627638 -0.971128 0.976985 -0.866668 -0.181069 -0.380420 -0.274694 0.552856 -0.518999 -0.547453 0.285247 0.765174 0.788419 0.139794 0.600985 -0.755231 0.624720 -0.008356 -0.206966 0.497573 0.499604 -0.398441 -0.180744 0.200545 -0.389861 0.159178 0.129296 0.256235 -0.628748 -0.319549 -0.609482 -0.256386 -0.290676 -0.632496 -0.123055 0.528254 -0.012916 0.602251 0.081110 0.468085 -0.945202 -0.633642 0.233259 0.843218 0.506151 -0.165755 -0.912013 0.130871 0.825888 -0.118979 -0.371556 0.325492 0.482580 0.447699 -0.473963 -0.907281 -0.393122 0.655332 0.348953 -0.021871 -0.664216 0.739472 0.721743 0.045108 -0.893025 -0.401312 -0.426638 0.094059 -0.799060 0.654473 -0.437856 -0.744262 -0.979170 0.795404 -0.901044 0.526982 -0.370352 -0.813058 -0.342147 -0.544464 0.067964 0.286296 0.781028 -0.449456 -0.266004 -0.692935 -0.356738 0.340874 0.962397 0.992215 -0.680997 -0.701819 0.731687 -0.959254 0.343288 0.838662 -0.360565 0.916651 -0.067279 -0.159626 0.571123 0.494866 0.096112 0.591954 0.290269 0.195068 0.118935 0.919917 0.382010 0.776788 -0.624547 -0.550026 0.063084 -0.843519 0.000517 0.797080 -0.536454 0.643780 0.137954 -0.574058 0.635995 0.456957 -0.275877 0.367682 0.497703 -0.932588 0.206344 -0.862862 0.984062 -0.860934 -0.022488 0.555186 0.633931 -0.926376 0.147139 -0.075799 0.268692 -0.733926 -0.155882 -0.349298 -0.957138 0.219571 0.100676 0.105946 0.376052 -0.898807 -0.096974 0.839598 0.744973 -0.959020 -0.734460 0.380968 0.497937 -0.010337 -0.251350 -0.004360 0.057075 0.954995 0.132778 0.041137 -0.905939 -0.889710 -0.403677 0.727992 -0.816086 0.743462 -0.347807 0.452606 -0.990464 0.496310 -0.896692 -0.947602 -0.284119 0.203984 0.158345 -0.908067 0.305177 -0.938629 0.931531 0.050151 -0.897649 -0.802929 -0.568881 0.600289 0.186734 0.179769 -0.404071 -0.756191 0.134764 0.728707 0.284946 0.228825 0.838997 0.881269 -0.043183 -0.977089 0.624731 0.609009 0.475517 0.634267 0.105320 0.578825 0.686665 0.821201 -0.217191 -0.154990 0.913135 -0.912014 -0.093619 0.844666 0.138137 0.008733 -0.958263 0.569256 -0.390979 0.228471 -0.250975 0.204951 0.472280 0.883789 -0.066342 -0.242773 0.112613 -0.227345 -0.361504 -0.930570 -0.204435 -0.736773 0.678439 -0.728918 0.897494 -0.216241 0.849907 0.584159 -0.395040 -0.367284 -0.570831 -0.481905 -0.279298 0.335551 -0.637240 0.858839 -0.655716 -0.595503 0.428095 -0.046695 0.632968 -0.822880 -0.841744 0.105249 -0.939091 0.091913 0.862476 0.173522 0.864568 -0.499029 0.242952 -0.339867 -0.235802 -0.078609 -0.068785 -0.338308 0.705150 -0.218878 -0.754148 -0.689890 0.413838 -0.324979 -0.171795 -0.865459 -0.989428 0.190965 0.993380 -0.645145 0.595462 0.421475 0.308160 0.228430 0.598595 0.466416 -0.666321 0.659503 -0.441671 -0.803845 -0.166975 -0.577103 -0.302874 -0.924023 0.083030 0.461324 -0.002631 -0.985755 -0.876984 -0.297481 -0.204632 -0.631132 0.012629 -0.790794 0.043889 0.840834 -0.656253 0.054461 0.031798 -0.662873 0.409316 -0.372740 0.758601 -0.282524 0.855690 0.357196 -0.816108 -0.810631 0.016699 -0.257779 -0.614476 0.849725 0.165118 0.082650 0.925702 -0.751852 -0.456026 -0.076929 -0.737607 -0.333010 0.625589 0.057761 0.035858 -0.361782 0.266967 -0.920253 -0.520948 0.610714 0.134208 0.510850 0.947841 -0.456476 -0.861890 0.706442 0.261001 0.993801 0.063638 0.444893 -0.816830 -0.919662 -0.812886 -0.431306 0.930062 0.352232 0.651344 0.855764 0.600380 -0.804682 -0.221165 0.862773 -0.137692 -0.595575 -0.079466 0.898167 0.042643 -0.812498 0.977914 0.521695 0.798216 0.112122 0.032545 0.746057 0.655647 0.170655 0.452500 -0.083353 0.164456 -0.483862 -0.638460 0.347626 -0.403524 -0.451346 0.916320 -0.473462 0.900886 0.567664 -0.617697 0.501266 0.762982 0.161138 0.364039 -0.374710 0.565562 -0.715426 -0.476544 -0.391795 -0.527925 -0.498630 -0.870100 -0.729708 0.613493 0.162445 -0.983651 0.269140 -0.666900 0.468848 -0.814213 0.497557 0.984986 -0.452673 -0.154817 -0.418538 0.095981 -0.238497 0.108000 -0.003132 -0.670833 0.490303 -0.501866 -0.907851 -0.348559 0.862173 -0.282562 -0.782997 -0.853253 0.240895 -0.174792 -0.381178 0.742265 -0.044892 -0.110887 0.355758 -0.882446 -0.094538 -0.375102 -0.549346 -0.625690 -0.189315 0.948211 -0.640703 0.358012 -0.206606 -0.059241 -0.546007 0.554897 -0.951241 0.450861 0.884064 0.539062 0.948995 0.976213 -0.809497 0.811167 -0.306349 -0.592494 0.957914 0.934546 0.232715 -0.423264 0.676812 -0.812177 0.465849 0.032570 -0.694623 -0.628688 0.657468 -0.243969 -0.254378 -0.531848 -0.295759 0.104918 0.826164 0.497635 -0.954323 -0.719843 0.052532 -0.905564 0.731018 -0.063403 0.633499 0.680013 -0.087190 0.824002 0.491180 0.606461 -0.768492 0.449094 0.541007 0.464223 -0.974170 0.217819 0.652046 0.491680 -0.749611 0.957422 0.862991 0.907857 -0.286547 -0.391387 -0.623991 0.417694 0.713532 -0.797827 -0.084671 0.759209 -0.517669 0.967862 0.853645 -0.786651 -0.095542 0.487144 0.893362 0.817268 0.311145 0.384542 0.423729 0.542653 -0.166364 -0.035264 0.006876 -0.140533 -0.817445 -0.341078 -0.648853 -0.567056 -0.383656 -0.785862 -0.659199 0.329797 -0.177249 -0.283190 -0.252509 -0.463717 -0.081017 0.662820 -0.704508 0.401314 0.630682 -0.850863 0.614663 -0.464860 0.636281 0.508025 -0.647592 -0.052574 -0.107433 0.776137 -0.509920 0.726203 -0.259127 0.496956 -0.414330 -0.076572 -0.844123 -0.063183 0.356372 -0.227779 0.150955 0.697173 -0.897983 0.973706 -0.586017 -0.150492 -0.490011 0.332966 -0.487671 -0.194520 -0.265720 -0.856989 -0.045382 -0.651056 -0.321849 -0.409102 0.856968 0.030560 0.538325 -0.250465 -0.193303 -0.971596 -0.524261 0.547570 0.525360 0.061409 -0.529002 0.681237 0.998226 0.827371 -0.546542 0.149180 0.524544 -0.444525 0.122886 0.938527 0.404983 0.632875 0.271493 0.917312 -0.561645 -0.994226 -0.939677 0.392973 -0.645283 -0.261526 0.983871 -0.788314 0.769034 0.522196 -0.038779 -0.424269 0.550600 0.436960 -0.876699 0.075960 -0.501631 -0.405701 -0.242803 -0.503405 -0.578330 0.210655 0.645775 0.946214 0.766130 -0.231339 0.884741 0.171114 -0.598464 0.156234 0.088426 -0.160109 0.162008 0.148749 -0.767136 0.516726 0.887223 -0.783265 0.728411 0.656257 0.738931 -0.310367 -0.768012 0.289531 -0.873407 -0.644712 -0.634508 -0.375038 -0.050413 0.122689 0.121556 0.371257 -0.666656 -0.232669 0.317471 -0.900526 0.535992 0.202212 0.270587 0.937528 -0.641553 -0.640987 -0.222581 0.520455 0.507762 0.010284 0.037181 0.394985 0.227019 -0.234408 0.051242 -0.034050 0.455225 0.283230 -0.744518 0.581818 0.638518 -0.379027 -0.793220 -0.411894 0.743662 0.328336 0.959363 -0.922994 -0.904333 0.276834 -0.823520 0.631660 -0.520954 0.447067 0.569188 -0.162507 0.806080 -0.653393 -0.642052 0.313842 0.356891 0.395128 -0.291173 -0.416090 -0.839279 0.760069 0.549860 0.615945 0.043299 0.805341 0.197763 -0.318183 -0.573685 0.404543 0.269923 -0.830023 -0.267121 0.229286 -0.753017 -0.171454 -0.493880 -0.576538 -0.539794 -0.014834 0.870529 -0.970607 0.822659 0.676610 -0.623999 -0.819393 -0.009548 0.732891 0.575735 0.699279 -0.683199 0.736456 0.459349 0.866661 0.352401 -0.497352 0.672002 -0.449835 0.184465 -0.901683 0.954707 -0.545612 -0.731706 -0.312414 0.683673 -0.484723 0.516132 -0.810207 -0.061261 0.976338 0.174959 -0.190731 -0.994268 -0.002382 -0.514122 -0.618268 0.178225 0.476330 -0.885377 -0.246039 0.175610 -0.568576 -0.509583 -0.365042 -0.701916 0.842818 0.137606 0.970086 -0.607017 -0.677929 -0.931597 -0.652310 -0.223541 -0.663303 0.035276 -0.539868 -0.148026 -0.448591 -0.350075 0.790713 -0.472253 0.824884 -0.400018 -0.466522 -0.177497 0.085860 -0.084790 -0.999272 -0.437809 0.029833 -0.245311 0.737800 0.461257 0.245105 -0.627242 0.759342 0.087923 0.510364 0.729428 0.480906 0.832435 0.797832 0.828596 -0.391106 -0.865471 -0.136128 0.069026 -0.013497 0.415281 0.718951 -0.222784 0.943027 0.543835 0.377198 -0.523494 -0.633662 -0.536941 0.391716 -0.632934 0.025249 -0.578451 0.121754 -0.236950 0.882807 -0.633141 0.135808 0.642149 0.454782 -0.353828 0.371577 -0.064312 -0.521393 0.169409 -0.235716 0.087501 0.303938 0.628155 -0.843474 -0.709559 0.043436 0.875477 0.067657 -0.013537 0.419312 -0.555145 0.462969 0.785650 -0.092086 -0.145315 -0.847285 0.933163 0.276234 0.274470 -0.303787 0.159041 0.641329 0.832021 -0.198810 0.096112 -0.521807 -0.827233 -0.968200 -0.043200 0.342176 -0.203917 -0.955700 -0.353887 -0.575761 -0.799174 -0.063446 0.467675 -0.923697 -0.995789 -0.545862 0.495615 -0.550934 0.917107 0.281265 0.356980 -0.228208 0.433980 0.290143 -0.951974 -0.291550 0.986356 0.207068 -0.650221 0.818377 -0.991742 0.445890 -0.703431 -0.818976 0.477690 0.253369 0.523200 -0.726227 0.297669 -0.830687 -0.301988 0.498496 0.105867 -0.834313 0.574799 0.110078 -0.380175 0.070414 0.559144 -0.463068 -0.648321 -0.083876 0.308724 0.785659 -0.793733 0.356750 -0.505892 -0.807377 -0.436182 -0.156113 -0.989000 -0.427925 -0.710222 -0.692431 -0.246900 0.767468 0.560938 -0.723700 -0.958759 -0.141392 -0.554387 -0.260747 -0.642897 0.551480 -0.095061 0.931902 -0.338443 0.524764 0.002316 -0.779299 -0.938304 0.353995 0.136825 0.370419 0.139653 0.343092 -0.272831 0.633762 0.535716 0.290987 -0.522351 0.546716 0.863063 -0.232573 0.854285 -0.383838 -0.465105 0.415223 -0.107538 -0.423865 -0.726169 0.338075 0.315388 -0.369065 -0.110446 -0.779673 -0.437163 0.551111 
0.745091 0.565153 0.771813 0.806787 -0.080852 -0.091362 0.177206 -0.941199 -0.748270 0.904376 0.692563 0.787445 0.195363 -0.829788 0.334161 0.058425 -0.062361 0.188446 0.674588 0.472534 -0.396330 -0.432951 -0.951331 -0.122499 0.905124 0.364058 0.508436 -0.205322 0.584385 -0.928727 -0.654210 0.329476 0.636426 -0.882398 0.136263 -0.444426 0.026240 -0.686530 -0.385625 0.277970 -0.782155 -0.693061 0.065415 0.413208 -0.522849 -0.600424 -0.528367 0.414790 0.588022 -0.853779 -0.112676 -0.808308 -0.286730 -0.064007 0.069193 -0.381605 -0.699949 -0.422372 0.413073 0.884436 -0.351099 0.758862 0.213912 -0.714673 0.876465 -0.649825 -0.159099 -0.097295 -0.336355 0.455276 -0.819326 -0.118510 0.762215 0.246090 -0.705302 -0.760634 0.645666 -0.233668 0.654156 0.233688 -0.087447 -0.458520 0.425380 0.625823 0.477473 -0.505427 -0.755782 0.777524 0.072201 0.657291 0.661959 0.721102 0.416153 -0.124129 -0.993571 0.292618 0.226047 -0.152670 -0.804677 0.889692 -0.697393 -0.624003 -0.228818 -0.935179 0.622087 0.065881 -0.695813 0.267753 0.832213 0.958343 -0.498559 -0.255235 -0.500178 0.926821 -0.629411 0.977295 -0.578606 -0.385194 0.754819 0.493596 -0.727903 0.416778 0.214698 0.688250 -0.707350 0.221128 -0.019132 0.518696 -0.931542 0.176191 0.408388 -0.628935 0.552188 -0.820429 -0.564114 0.174275 0.245452 -0.259927 -0.557973 0.077664 -0.301584 -0.056532 0.822430 0.198238 -0.129710 -0.806982 0.175533 0.291684 -0.192175 -0.069648 -0.214720 0.079922 -0.652870 0.999979 -0.231828 -0.360220 0.221106 0.749040 -0.841524 0.289565 -0.074769 0.566865 0.660630 -0.522582 0.746436 -0.903484 0.651693 -0.008113 -0.163411 -0.906280 -0.930449 0.535005 0.037189 0.891981 -0.266756 0.907479 -0.915001 0.908777 0.199163 -0.107176 -0.160871 0.984443 0.972745 0.186260 0.984422 -0.259083 0.826039 0.205528 -0.510043 0.984516 -0.504907 0.415188 0.551380 -0.844277 0.892606 0.297816 -0.747761 0.544299 -0.710297 0.088828 0.638020 -0.640746 -0.376167 -0.324792 -0.748765 0.357077 -0.417313 -0.663766 0.265854 0.781850 0.229057 -0.895017 0.766293 0.201803 0.291243 0.750715 0.942720 0.117282 -0.043757 -0.567323 0.101798 0.451336 0.847865 -0.346822 0.607058 0.740471 0.950994 0.859297 0.284771 -0.759303 -0.051875 -0.077210 -0.400049 0.571958 0.597999 -0.148814 -0.070965 -0.819314 0.187419 -0.805111 0.962536 -0.583523 -0.700127 0.728829 0.618280 0.591116 0.479543 0.561000 -0.291602 -0.564214 0.993677 0.810196 0.887122 0.841542 -0.536626 0.494180 0.582013 -0.585632 0.353477 -0.133216 -0.344935 -0.698398 0.789574 0.255016 0.873560 0.387573 -0.893798 -0.197405 0.568258 0.293621 -0.002515 0.530794 0.710098 0.297358 0.259623 0.328378 -0.111526 -0.260834 -0.110623 0.596872 0.174951 -0.116946 0.407068 0.062073 -0.275403 0.870442 -0.443747 -0.693390 -0.715190 0.909730 0.173394 -0.060125 -0.788668 -0.037032 -0.805109 -0.915108 -0.649459 -0.698908 -0.112513 0.918799 0.594713 0.884972 0.449593 0.304811 0.182330 -0.290784 -0.366811 -0.929196 0.448381 0.522566 0.667675 -0.376667 -0.594379 0.074743 0.685406 0.130217 -0.054815 -0.758341 0.436827 0.229995 -0.848612 -0.389779 -0.830129 -0.637280 0.573189 -0.635239 -0.552388 0.923730 -0.334146 0.335099 0.842529 -0.739433 0.220071 0.292122 0.565379 -0.597599 -0.998662 -0.801432 -0.526796 0.449719 0.721134 -0.859120 -0.926948 -0.873245 0.215623 0.758458 0.256972 -0.839192 -0.999884 -0.306200 0.390804 -0.848495 0.304021 0.560674 -0.485775 -0.122790 0.925436 -0.038163 -0.199060 -0.408710 -0.703065 -0.356531 -0.148143 0.517006 0.935591 -0.582764 0.919407 0.936929 -0.384196 -0.607389 0.386648 -0.663062 -0.466509 0.459700 -0.536307 0.749114 0.218158 0.720665 0.909923 0.218274 -0.585535 0.300727 0.369779 0.718486 -0.138599 0.884004 -0.404304 -0.213163 -0.154160 0.396636 0.378127 0.142776 -0.959895 -0.770016 -0.340218 0.975696 -0.352780 -0.420811 0.912625 0.263023 -0.028200 0.299273 0.599961 0.505291 -0.241028 -0.936346 0.254405 0.977130 0.784319 0.164328 0.195404 -0.801216 -0.534945 -0.434817 0.917270 0.326456 -0.550813 -0.487034 -0.886707 0.295027 0.909602 0.491419 -0.562197 0.949707 0.721403 0.097585 0.925403 -0.631377 0.676773 0.838028 0.631646 -0.351427 0.137300 0.231607 -0.846136 0.896273 0.295260 0.408270 0.873403 0.079579 -0.427402 0.068807 0.278363 0.037652 0.633990 0.195633 -0.635892 -0.916823 0.708599 -0.522600 0.378204 0.618201 0.968820 0.816007 0.567908 0.690223 -0.086409 0.493311 -0.941154 -0.409635 0.331339 0.690491 0.238938 -0.531361 -0.077902 0.392802 -0.635088 -0.782641 -0.198928 -0.761685 0.296938 0.373670 0.307121 -0.424699 -0.588678 -0.058889 0.770934 -0.224570 0.024288 0.479533 0.252830 -0.597508 0.097734 0.221650 -0.781501 -0.334358 -0.088127 0.132090 -0.841047 -0.029282 0.722454 0.490292 -0.338790 -0.038608 0.958931 0.583308 -0.645806 -0.676157 0.800667 0.155266 -0.437843 0.097604 -0.471064 0.869279 0.672905 -0.059742 -0.189610 0.443839 0.715688 0.834678 -0.076628 -0.031482 -0.762830 -0.978894 -0.809832 -0.544332 -0.313251 0.102040 0.587758 -0.154298 -0.927241 0.310212 -0.664006 -0.266032 -0.728395 -0.705075 -0.682724 -0.374201 -0.381232 -0.882057 0.781066 0.180925 0.215547 -0.689998 0.050204 -0.111547 0.250260 0.860594 -0.667708 -0.034052 0.695272 0.255664 0.934466 0.932442 0.276771 -0.875367 -0.611890 0.963519 0.226674 0.975868 -0.190779 0.299432 0.286081 0.145215 -0.966600 0.557685 0.440139 -0.649323 -0.816516 -0.941093 -0.531381 0.964550 0.239832 0.684167 -0.725448 -0.709964 -0.427380 0.524812 -0.849371 -0.095088 -0.509240 0.845901 -0.839424 -0.574775 0.778343 0.437347 -0.450142 -0.833547 0.400866 0.776532 -0.857679 -0.789913 0.075964 0.428402 0.355302 0.109365 -0.013913 -0.204559 0.460041 0.169571 -0.145652 0.928661 0.134121 -0.905820 0.612827 0.408673 -0.615784 -0.814553 -0.066515 -0.465155 0.090359 0.424245 -0.619254 0.250935 0.849470 -0.840911 -0.311718 -0.600672 -0.674458 -0.910852 -0.824140 -0.532137 -0.700765 0.251825 0.896264 0.654537 -0.638811 -0.117649 -0.550021 0.821230 -0.948077 0.304327 0.749891 0.186044 0.398507 0.362718 -0.405282 0.782723 0.548165 0.528203 -0.682431 -0.361476 -0.047552 -0.301685 0.889459 -0.198082 -0.142596 -0.422260 0.201246 0.182946 -0.333112 0.377107 0.650809 -0.033876 -0.371069 0.547073 -0.379339 -0.009880 -0.570575 0.070640 -0.188649 -0.518653 -0.625033 -0.438759 0.667391 0.773474 0.923959 -0.737891 0.556198 0.472125 0.790312 0.873766 -0.889352 -0.257241 -0.427918 -0.999893 0.544677 0.429486 -0.422153 -0.254077 -0.387568 0.244736 -0.876970 -0.736759 -0.789141 -0.248039 0.810315 -0.168480 0.742082 -0.760261 0.902160 -0.446568 -0.278914 -0.722873 0.114673 -0.611522 -0.949399 0.038633 -0.349413 0.606798 -0.489243 -0.559102 0.480565 -0.378594 0.183658 -0.947354 -0.378487 -0.271665 0.482132 0.199360 0.474258 -0.905436 -0.555904 0.597288 -0.642194 -0.345045 -0.650751 -0.831880 0.486475 -0.908669 -0.592140 0.388635 -0.355237 0.128946 0.665762 0.759436 0.517424 0.716363 -0.201931 -0.831990 0.323161 0.308826 -0.391092 -0.196274 0.930232 0.792566 -0.143628 -0.448255 -0.479099 -0.661495 0.751105 0.995159 -0.566931 -0.804800 0.592447 -0.209125 -0.149844 0.941696 -0.041005 -0.663369 -0.966973 0.366855 0.725267 -0.322211 -0.504199 0.391029 -0.562775 -0.986775 0.107392 0.235294 -0.818765 -0.569447 -0.455879 -0.209857 0.234279 -0.525647 -0.417291 -0.909349 0.026098 0.103610 -0.570844 -0.222797 0.098769 -0.137775 -0.027597 -0.308785 0.653100 0.822559 -0.367089 -0.387905 -0.840810 -0.334062 0.978950 0.884456 0.343727 -0.525249 0.275485 0.780953 -0.512025 -0.617124 0.016247 -0.330790 -0.186571 0.560368 0.459353 -0.952292 -0.965279 -0.957937 -0.861641 0.060819 0.145673 -0.432485 0.838022 -0.755559 0.429740 -0.189575 -0.064343 0.082840 -0.367017 0.568568 0.694935 -0.207827 -0.765494 0.673885 -0.323371 0.578233 -0.851364 0.952114 0.359185 -0.363389 -0.665010 -0.624568 0.305821 0.148420 0.935801 -0.234825 0.196128 0.970522 -0.192763 0.334487 0.031341 0.952910 0.902003 -0.130638 -0.802649 0.331743 0.679787 0.133008 -0.585417 -0.687229 -0.298425 -0.890481 0.104944 -0.063919 0.783404 0.781573 -0.485686 0.932040 0.733687 0.873499 -0.431349 -0.931323 -0.751068 0.874472 0.217097 -0.815268 -0.360353 -0.586775 -0.844746 0.446884 0.747712 0.186595 0.399794 0.649715 -0.944043 0.597145 -0.018542 0.735744 -0.269848 0.396042 -0.951485 0.431728 0.505560 0.153459 -0.632191 0.288964 -0.064969 -0.117878 0.221004 -0.331282 -0.244379 0.789655 -0.262604 0.004553 0.664127 0.954493 0.189285 -0.696226 -0.632282 0.344539 0.750658 -0.884570 -0.468867 0.150452 0.765145 -0.412910 -0.252403 -0.253397 -0.677166 0.477750 -0.857355 -0.628651 -0.090522 0.648205 0.524808 0.277286 -0.062831 -0.540161 -0.840592 -0.841827 0.128558 -0.084970 0.947829 0.865954 0.919582 0.611956 0.820446 0.108867 0.915730 -0.811836 -0.546594 0.666389 -0.696406 -0.015461 -0.183159 -0.931261 0.571629 0.564439 -0.184658 0.894463 0.042188 -0.042013 -0.734188 0.951666 -0.393808 0.790620 0.228952 0.543361 -0.749540 0.388361 0.701535 0.379017 -0.696610 0.649363 0.244971 -0.777028 0.261319 0.065418 0.331839 0.177050 0.253582 0.785245 -0.156561 0.557176 -0.230216 0.660280 0.625916 -0.658588 0.224718 -0.558742 -0.764124 -0.733093 0.399245 -0.498312 -0.781427 -0.994563 -0.707692 0.447525 0.548798 -0.457232 -0.164115 0.250333 0.921786 0.139275 -0.100304 0.166757 0.362248 -0.838984 -0.767826 -0.305913 0.338066 0.485756 -0.520668 -0.818496 0.042932 0.249115 0.841784 -0.331152 0.590528 0.066502 0.110106 0.826403 0.333409 -0.490649 -0.671908 0.551981 -0.485212 -0.379600 -0.000494 -0.936414 0.163168 0.835392 0.313919 0.084954 -0.025333 -0.786384 -0.748290 -0.663085 -0.625368 -0.516116 0.031002 0.712697 0.969641 0.510334 0.894201 0.012573 -0.240551 0.735985 0.681421 -0.650023 -0.197513 -0.208473 -0.823620 -0.864104 0.300878 -0.495528 0.687877 0.815666 0.124872 -0.312617 0.879253 -0.711960 -0.477225 0.193172 0.372993 0.497442 0.406788 0.624703 0.834356 0.781419 -0.891412 -0.134642 0.494116 -0.921772 -0.624309 0.388318 0.090802 0.135140 0.124302 -0.227777 0.485117 0.926789 0.563750 0.661498 -0.937315 -0.135372 -0.834031 0.750562 -0.319705 0.290841 -0.562055 -0.440453 0.578881 -0.039280 0.752719 -0.048126 -0.541838 0.159507 -0.423422 -0.707482 -0.059073 -0.314835 0.157876 -0.564957 -0.236606 0.533567 0.823361 0.854195 -0.331293 -0.052337 -0.373582 -0.846175 -0.125548 -0.809832 0.815322 -0.062863 0.054796 0.981292 -0.312301 0.735091 0.272133 0.125644 -0.705362 -0.148986 -0.913635 -0.952642 0.802888 -0.455474 0.206865 -0.620535 -0.162956 -0.852208 0.064631 0.994920 -0.417165 0.828025 0.528487 -0.593804 0.682220 -0.802806 0.353859 -0.691362 -0.648981 -0.771689 -0.501194 -0.833659 0.165449 0.553603 -0.852367 0.853148 0.288694 0.419766 -0.021208 0.583332 -0.729220 0.065157 0.630690 -0.926332 0.609683 -0.162445 -0.546866 -0.553273 -0.014653 0.517764 -0.558353 0.568182 0.345789 0.970134 0.974378 0.028009 -0.832672 0.328237 0.336647 -0.481653 0.556549 0.835453 -0.315311 -0.278003 0.389056 -0.167678 -0.424855 -0.322251 -0.747912 0.553937 -0.738919 -0.477132 -0.380906 0.891771 -0.403464 -0.771223 -0.270673 0.049670 -0.324496 0.714674 -0.432566 0.117151 0.282857 0.913223 0.087285 0.257235 -0.058768 0.254613 -0.414528 -0.722121 0.772961 -0.857979 -0.886668 -0.542351 -0.135982 0.502387 0.289972 0.439163 -0.819863 0.542060 -0.006900 -0.558782 -0.935072 0.612194 -0.667010 -0.338535 0.840971 0.062316 0.711134 -0.483524 -0.223010 -0.721431 0.633627 -0.940153 -0.808208 -0.279088 0.317082 0.133023 0.975525 0.902554 0.410902 0.748485 -0.955426 0.524234 -0.793865 -0.091408 0.026621 0.496107 -0.652245 0.206758 0.038166 0.340855 0.647976 0.103095 -0.046950 0.980965 0.764559 -0.205979 0.043282 0.475694 0.310497 0.820272 0.754262 -0.055877 0.880119 0.946054 0.665035 0.197201 0.079077 0.640560 0.099755 -0.510021 0.389045 0.144329 -0.985787 0.595180 -0.947078 0.040834 0.091287 -0.599323 -0.752408 -0.870547 0.741532 0.895567 0.232548 -0.305418 0.876533 -0.002893 0.488603 -0.080186 -0.527199 -0.200901 -0.259914 -0.772937 0.743223 -0.379795 -0.826883 0.408258 0.817406 0.252194 0.048817 -0.082839 0.742174 -0.562137 -0.938510 0.756387 -0.966957 -0.885588 -0.202779 0.124329 -0.484912 0.044813 0.253782 -0.743379 -0.059620 -0.513670 -0.048798 -0.183087 0.483436 -0.560195 0.736727 0.956237 0.238904 -0.523187 -0.816700 -0.017873 0.097019 -0.643583 -0.609615 -0.085575 0.608611 0.439202 0.831586 0.350785 0.877065 0.893076 0.107171 0.910107 -0.992513 0.904392 0.034436 -0.477424 -0.050795 -0.711782 -0.220804 0.889585 -0.225452 0.730399 -0.293502 -0.742016 -0.829797 -0.556775 -0.785779 0.409108 -0.079961 -0.602479 -0.608765 -0.982943 -0.246062 -0.218381 -0.068518 -0.637451 -0.779179 -0.236932 0.713333 -0.902114 -0.343857 -0.179495 -0.992007 -0.336369 -0.275103 0.042430 0.186207 0.674102 0.330648 0.965403 0.563687 -0.894804 0.695802 -0.729814 -0.636820 0.866005 -0.286589 -0.422598 0.275113 0.633450 -0.025077 0.666347 0.650507 0.728861 -0.552034 -0.418011 -0.908590 -0.331212 0.345056 0.804744 -0.233327 -0.998800 -0.374751 -0.225333 -0.335169 0.350146 0.817096 0.851037 0.024248 0.147744 0.816440 -0.412065 0.252940 0.512242 -0.141879 0.616120 0.378247 0.571532 -0.806478 -0.346640 0.204982 0.168446 -0.680293 -0.144511 -0.102693 -0.232326 0.437477 -0.011283 0.436461 -0.217466 -0.206539 -0.796865 -0.216266 0.418710 -0.022199 0.448564 -0.231145 -0.205103 0.299602 0.793103 0.942641 0.116042 -0.618962 0.195581 -0.371716 0.239159 -0.188298 -0.993469 -0.189309 0.005224 -0.340108 -0.984327 -0.826331 -0.020401 -0.128839 0.070976 0.747273 -0.691361 -0.940306 0.183734 0.091173 -0.146845 0.386869 0.874907 -0.728135 -0.635330 0.323471 0.040720 0.159567 -0.376928 -0.166177 0.102208 0.739114 0.214861 -0.702210 -0.632602 -0.545980 0.109491 -0.626070 0.264711 -0.885285 0.033821 0.280384 -0.711616 -0.986580 -0.848454 0.359361 0.760693 -0.539816 0.419055 -0.055573 0.551357 -0.727791 -0.668704 0.426264 -0.455926 -0.304034 -0.250265 0.584794 0.855533 0.372807 -0.581383 -0.042259 0.111921 0.633478 0.255531 0.479320 -0.912502 -0.634978 0.853249 0.352210 -0.520263 -0.112929 -0.367406 -0.231879 -0.099509 -0.215860 -0.872518 -0.338816 0.244324 0.546537 0.605611 -0.204319 0.818746 0.936907 -0.778055 -0.637180 -0.367127 -0.028320 0.947614 -0.511594 -0.655513 -0.633769 0.446147 0.456408 0.999709 -0.298322 -0.064273 -0.912793 0.066699 -0.211023 0.439417 0.546436 0.676048 -0.927989 -0.685443 -0.423461 -0.143849 -0.557961 0.237723 -0.899525 0.988576 -0.156666 -0.103844 0.807322 -0.219759 0.118101 -0.829858 0.413114 -0.910219 -0.882244 0.901520 -0.565733 -0.516014 0.347667 0.890675 -0.516305 -0.950656 -0.173598 -0.429098 0.116044 0.615379 -0.989681 -0.337520 0.291426 -0.917670 -0.022962 0.867965 -0.061520 0.419077 0.105688 0.038955 0.407653 0.949022 0.935111 0.214975 -0.270736 0.053212 0.385117 -0.857622 0.142992 0.502873 -0.956102 0.577260 0.986860 0.391565 0.467935 -0.529445 0.440909 -0.705663 0.041457 -0.443047 0.909716 0.051776 0.219433 0.201142 0.134105 -0.803529 0.069107 -0.927415 0.615548 -0.825205 0.111540 0.023201 -0.876183 0.046651 -0.761824 -0.146919 -0.900137 0.623294 -0.004541 0.242855 0.126167 0.039357 -0.179885 0.113027 -0.569079 -0.711950 0.583582 0.871830 -0.417613 -0.374961 -0.571217 -0.507898 0.676814 0.648216 0.693245 -0.189081 0.844687 -0.237648 -0.116495 0.460234 -0.062853 0.995045 -0.516565 0.060965 0.041696 -0.278388 0.914046 0.141559 -0.655094 -0.090495 -0.615586 0.471073 0.948861 0.204529 -0.415900 -0.620217 0.492578 -0.832319 -0.748387 -0.925035 -0.207280 -0.319604 -0.432933 -0.530466 -0.671388 -0.739688 0.280453 -0.826701 0.022664 -0.836042 0.633533 0.959811 -0.840997 -0.883032 0.020776 0.200698 -0.161420 -0.065178 -0.657743 0.183486 0.844326 -0.273329 -0.345441 0.793188 0.931200 0.238658 -0.827030 0.423778 0.406340 -0.575417 0.498743 -0.800940 0.104979 -0.934189 -0.331407 0.433591 -0.673877 0.949047 0.606890 0.348787 -0.886996 0.240423 0.308598 -0.727993 0.357391 -0.670626 0.472705 -0.804028 0.264195 0.814963 0.379457 0.108522 -0.458367 -0.965984 -0.098291 -0.527167 0.272675 0.074680 0.896611 -0.320986 0.499263 0.395354 -0.121926 -0.395758 0.461165 0.546667 -0.962167 0.787288 0.495714 0.644723 0.136075 0.608718 -0.114854 -0.555327 0.880725 -0.757463 -0.225953 0.353430 -0.561492 -0.961758 0.168393 0.817966 0.146764 0.710026 0.851982 -0.951527 -0.817141 0.124656 0.123153 -0.920529 0.803671 -0.377585 0.474825 -0.318256 0.226657 -0.064010 -0.771589 0.264490 -0.276722 0.724125 -0.090787 0.859353 0.332843 0.794358 -0.695974 0.213568 -0.963105 0.078073 -0.433001 -0.524596 0.116315 0.735392 -0.706631 -0.736921 0.445418 -0.854649 -0.688448 0.628277 0.270008 0.434705 0.707748 0.073678 -0.942880 0.182573 0.755422 0.283778 -0.881436 0.983834 -0.451732 -0.158158 0.707959 0.457481 -0.298805 0.040802 0.251839 0.005221 -0.745630 0.288735 -0.916706 -0.178631 0.764138 0.199609 -0.443239 -0.942493 0.462688 -0.997822 -0.797141 0.774241 0.630456 0.472866 0.208946 0.338204 -0.453456 0.266066 -0.479223 -0.698033 -0.450156 -0.360659 -0.714199 0.098111 0.481183 0.993760 -0.444408 -0.817622 0.034562 0.807431 0.187599 0.288932 0.096166 0.270893 -0.889699 -0.139696 -0.529498 -0.332939 -0.082188 0.933190 -0.330760 0.120670 0.707431 -0.700304 -0.406464 -0.083624 0.637900 0.140081 -0.817558 -0.841323 0.442048 -0.267714 -0.201982 0.727848 0.830397 -0.720800 0.721608 -0.614011 -0.538422 -0.243831 -0.806579 0.649176 -0.954899 0.289587 -0.079931 -0.844598 -0.850109 0.390571 -0.177537 0.067702 0.323761 0.491703 -0.811627 0.031192 0.791399 -0.218091 0.947568 0.429298 0.921990 -0.869990 0.587975 0.364037 -0.137704 -0.614007 0.091886 -0.307306 -0.334807 -0.186507 0.078683 0.126770 0.569663 0.272104 -0.224054 0.614764 -0.438309 0.696015 0.770166 -0.288418 0.086586 -0.407371 0.779284 -0.589654 -0.915668 0.967657 0.441538 0.875731 -0.250434 0.389106 0.305029 -0.328444 0.519116 -0.106996 -0.964407 -0.618587 0.278997 0.127479 0.074106 0.944190 0.940972 -0.847211 0.070960 0.510635 0.424893 0.846906 0.125398 0.986584 0.542922 -0.104436 -0.301835 -0.370493 0.488192 -0.522551 0.039853 0.572524 -0.554894 -0.518609 0.448255 0.194672 0.870497 -0.246716 0.866227 0.389613 0.646288 0.901820 0.771026 -0.074715 0.029299 -0.154868 -0.130525 -0.029729 -0.002078 0.940435 -0.519095 -0.577185 0.787341 0.606304 -0.590602 0.330263 -0.498133 0.107564 0.959770 0.990060 0.585013 -0.000377 0.562584 -0.969881 0.481015 0.010839 0.224791 0.351512 0.764123 0.091018 -0.258875 0.410411 -0.007162 -0.487849 -0.664304 -0.977863 0.357284 0.205170 -0.007592 -0.644795 0.145605 0.473314 -0.221980 -0.067054 0.079618 0.187418 -0.736791 0.581485 -0.705018 -0.777021 0.571545 0.879995 0.222602 0.134129 0.910114 -0.296383 -0.855032 0.134905 -0.944872 0.909091 -0.774077 -0.203747 0.319501 0.218761 0.308405 0.655197 0.240899 -0.334312 -0.139633 -0.766693 0.020894 -0.994028 0.706621 0.798914 -0.061082 -0.213761 -0.013668 0.202127 -0.632276 0.281314 0.425106 0.939269 0.161309 -0.352292 0.073398 0.071423 0.351324 0.218366 -0.793672 0.406453 0.127457 -0.567749 -0.797294 -0.553041 0.651012 0.511111 -0.897844 -0.108089 -0.823201 -0.037477 0.125218 0.197693 -0.031505 -0.168161 -0.003393 0.907413 0.618078 0.982939 0.109540 0.985802 0.264253 -0.465354 0.925071 -0.574438 0.182354 -0.001531 0.496985 -0.466322 -0.783165 0.703314 0.940131 0.344293 -0.864435 -0.857163 0.791252 0.786577 0.653948 0.893407 -0.321512 0.830747 -0.144070 0.803706 0.028440 0.824425 -0.364454 -0.974953 0.731838 -0.746376 -0.992015 -0.158621 -0.760574 0.272238 0.376024 -0.835504 0.697800 -0.441622 0.162966 0.194786 0.092057 0.379801 -0.101901 0.032188 -0.275906 0.033664 0.175025 -0.484655 -0.179759 -0.171027 -0.591247 0.498729 -0.340280 0.264683 0.302435 0.688161 0.089108 0.937981 0.713208 -0.179053 -0.808396 0.721193 0.662325 -0.568970 -0.006569 0.038350 -0.404474 -0.308768 0.596728 0.758492 0.886017 -0.311216 0.138293 -0.215884 0.720972 0.862386 0.817780 -0.104003 -0.622268 -0.361979 0.724970 -0.213516 -0.863250 -0.615310 -0.948833 0.439185 -0.927149 0.140275 0.377166 0.786059 0.961222 0.568770 0.507252 0.623547 0.999800 -0.499317 -0.338103 -0.404674 0.191915 -0.741375 -0.646182 0.077932 -0.052591 0.492111 0.862048 -0.331619 0.354497 0.679829 0.564377 0.732229 -0.682150 0.289347 -0.481287 -0.545400 0.674037 -0.430120 0.893785 0.746888 0.710156 0.270951 0.532946 0.671378 -0.160280 0.040198 0.294925 -0.160480 0.540881 0.956822 0.434846 -0.267204 -0.784554 0.788664 0.810728 0.162855 0.280775 0.672776 0.831236 -0.364728 0.352604 0.395614 -0.632500 0.670454 -0.315039 -0.113786 -0.874946 -0.641003 0.456094 -0.981162 -0.894115 0.166250 0.289789 0.638831 -0.162372 -0.870491 -0.320971 -0.867447 -0.030970 -0.780089 -0.910626 -0.596124 -0.047294 -0.695179 -0.807460 -0.236566 0.467676 0.473315 -0.563791 0.298912 -0.891413 0.788814 -0.305474 -0.523913 0.459268 0.379486 0.362301 0.584321 0.738484 -0.181606 0.603160 0.844369 0.984644 -0.107051 0.483201 -0.177728 0.022458 -0.837770 -0.045176 0.991488 -0.617859 0.044199 -0.604636 0.334847 0.349019 -0.412096 -0.901720 -0.183304 -0.938781 -0.465510 -0.884392 -0.830195 -0.676696 -0.189866 -0.354108 0.782571 -0.810380 -0.991807 0.366892 0.928104 -0.173413 -0.029948 0.772473 -0.188769 0.863000 0.255674 0.633503 -0.114542 0.417904 -0.411673 -0.123054 0.800044 0.632526 0.272310 0.134891 -0.018455 0.860214 0.233171 0.798241 0.921432 0.767661 0.913849 -0.908763 -0.909035 -0.276018 -0.262870 0.873536 -0.086398 -0.254677 0.240428 -0.158294 0.571910 -0.789520 -0.385820 -0.616859 -0.926519 0.869853 -0.983356 -0.041061 0.287757 -0.395029 0.835885 0.087801 -0.762503 0.108195 -0.777308 0.219043 -0.031591 0.455864 0.017283 -0.110159 0.223525 -0.068868 -0.018922 0.314490 0.655114 0.718208 0.188026 -0.431283 -0.536469 -0.571546 0.410423 -0.964559 -0.361065 -0.975397 -0.581418 -0.287585 0.894456 -0.564774 0.671355 0.182213 0.040197 0.507240 -0.729986 0.277695 -0.384565 -0.507294 -0.503263 0.583844 0.948570 0.514021 -0.526316 0.172095 -0.554847 0.454763 -0.513415 -0.899733 0.172971 0.674610 -0.331016 0.636501 -0.896935 -0.920592 0.671942 -0.258001 -0.895990 -0.909476 0.454415 0.998466 -0.474250 0.125769 0.180680 0.565947 -0.366991 0.450694 -0.156358 0.248445 0.943400 0.340380 -0.167712 0.891970 -0.145599 0.305973 0.064065 0.299554 -0.239264 0.550650 0.399821 0.933706 0.225260 -0.931195 0.570208 0.328325 -0.851787 0.242150 -0.929676 -0.747777 0.332674 0.524738 -0.749310 0.858424 -0.349492 0.431369 0.424371 0.283517 -0.117937 -0.731987 -0.468038 -0.174537 0.608393 0.364250 -0.282566 -0.537206 -0.329777 0.781499 0.762347 0.430959 0.332148 0.162168 0.364665 -0.442592 0.230973 -0.065127 0.885733 0.379186 -0.822977 0.956056 0.631409 0.509697 0.480795 0.882099 0.368121 -0.868698 0.313468 -0.207508 0.414820 -0.804468 0.060505 0.946782 0.020995 -0.331102 0.311032 0.738429 0.131692 0.981255 0.519927 -0.105961 0.412214 -0.147925 -0.943793 -0.223121 0.409483 0.287180 0.711753 0.295216 -0.333633 0.888776 0.251272 -0.702224 0.398473 -0.267933 -0.820125 -0.233406 -0.136631 0.493344 0.559086 -0.721811 0.688875 -0.380408 -0.775029 -0.290130 0.288490 0.536003 -0.551701 -0.579818 0.517258 0.968226 0.314221 -0.070528 -0.179699 0.370428 0.706351 -0.770216 -0.342391 0.418104 0.525000 0.323975 0.306880 -0.223728 0.621751 -0.294647 0.508339 0.801627 0.471947 -0.628292 0.294970 0.031033 -0.350103 -0.016154 0.650625 -0.125132 0.693716 -0.060885 -0.589130 -0.857985 0.359297 0.928128 -0.889759 -0.326482 -0.142400 -0.069458 -0.956053 -0.436049 0.160326 -0.298444 0.982054 -0.314674 -0.974469 0.288934 0.461599 0.647282 0.994287 -0.030063 0.448909 0.466233 0.341645 -0.256121 -0.502734 0.991542 0.727725 -0.852109 -0.133590 0.421441 0.087006 0.277280 0.563455 -0.553697 0.205408 0.673696 0.119822 -0.936993 -0.395762 0.163768 -0.373042 0.764564 0.865324 -0.390988 -0.550110 0.890855 0.897946 0.911489 0.538137 0.892233 -0.118574 -0.012954 0.358466 -0.776928 0.730926 0.855732 -0.785386 0.458651 -0.996376 0.081024 -0.119909 0.090630 
-0.641696 -0.556453 0.536933 0.563712 -0.882757 -0.343246 0.626719 -0.278519 0.820523 -0.746323 -0.513955 0.685847 -0.137310 -0.064065 0.576701 -0.239364 -0.152576 0.114839 -0.347132 0.728851 -0.898115 -0.988666 0.951922 0.832811 0.867067 -0.833463 0.291462 0.870690 0.247561 -0.828447 -0.038680 0.605865 -0.384900 -0.501747 0.169577 -0.267657 0.155007 -0.203704 0.453824 -0.024470 0.049973 0.939868 -0.338624 0.912663 -0.124196 -0.761922 -0.326702 0.723228 0.352916 0.326167 0.452078 0.454802 0.337501 0.404001 0.287612 0.204568 0.570537 -0.420926 0.075258 -0.181902 -0.249373 -0.963422 -0.576037 0.365727 -0.465170 0.593539 -0.901930 0.689838 -0.610165 0.551893 -0.334633 0.439808 0.491762 0.326744 0.352471 -0.632435 0.564821 -0.974231 -0.909207 -0.082262 0.351936 0.542871 -0.627461 -0.310563 -0.053128 0.660152 0.894005 -0.482591 -0.760774 -0.030737 0.335507 -0.010147 0.005840 0.759470 -0.644420 0.540671 0.353009 -0.546350 0.230508 0.742844 -0.994457 0.895876 0.182653 0.497304 0.222620 -0.464876 0.864869 -0.212559 -0.439107 0.955662 0.705179 0.912829 0.498534 -0.922282 -0.397734 -0.554594 0.737870 -0.503729 -0.037185 0.977096 0.465534 -0.701678 -0.033051 -0.528626 -0.942208 0.322529 -0.987955 0.410802 0.776178 0.242554 0.153646 0.781721 0.138430 -0.663701 0.279025 -0.638951 -0.128577 0.143895 0.148490 0.432316 0.099557 -0.146331 0.345145 -0.401909 -0.068613 0.947411 0.043496 -0.330743 -0.556317 -0.993689 -0.353647 0.909217 -0.695367 0.613302 -0.619409 -0.637574 -0.064170 -0.607363 0.773227 -0.287992 0.635190 -0.073127 -0.506271 -0.226380 0.263172 0.772754 0.134669 -0.865405 -0.083351 -0.716841 0.566911 -0.983794 0.136828 -0.087944 -0.385703 -0.931784 -0.140533 0.657793 -0.262527 0.303150 0.664104 0.383826 0.212366 0.968738 -0.002873 0.592958 -0.668836 0.932957 0.985594 -0.895609 -0.355035 0.620785 0.031264 0.138694 -0.605595 -0.705563 -0.088551 0.529074 -0.570969 0.828098 0.812234 0.995942 0.844304 -0.050938 -0.092002 -0.541400 0.017278 0.767465 -0.883606 0.754750 0.070615 0.780498 0.138576 -0.717019 0.749236 -0.864297 0.875939 -0.919601 -0.931340 0.861533 -0.815210 -0.286375 0.482318 0.216055 0.852320 0.876722 0.510491 -0.236231 0.405796 0.939523 -0.408134 0.218030 0.935465 -0.563830 -0.832908 -0.156537 -0.105230 0.184370 -0.389072 0.011164 -0.060880 0.681542 -0.208338 -0.922304 0.964524 -0.459102 -0.786602 0.840463 -0.378703 -0.717941 0.701996 -0.193912 -0.004316 0.184313 -0.977858 -0.151996 0.061036 0.532634 0.611772 -0.533168 0.472156 -0.796361 0.684862 0.407621 -0.360191 0.851954 -0.748916 0.534579 0.036323 -0.137988 -0.454257 0.975443 -0.456446 0.337405 -0.946861 -0.491922 0.878303 -0.733463 -0.651460 -0.500400 -0.451404 -0.949464 0.305687 0.544280 0.234849 0.327830 -0.607717 -0.704115 -0.139537 -0.995944 -0.237283 -0.667381 -0.792305 -0.552421 0.740241 -0.152497 -0.700468 0.991324 -0.617918 0.335856 -0.146664 -0.072175 0.311299 0.396890 -0.734770 0.364437 0.904968 -0.856467 0.630974 -0.746492 -0.356867 -0.820430 -0.695956 0.948820 0.723849 0.538893 0.276649 -0.883867 0.834778 -0.862887 -0.879811 -0.402505 -0.530268 -0.672117 0.045073 -0.790028 0.175386 0.344606 -0.798703 0.557468 -0.319539 0.054633 -0.514706 0.991760 -0.548477 -0.249476 0.356197 -0.643510 -0.105944 -0.012828 -0.390002 0.537189 0.166741 -0.085958 0.486009 -0.109409 -0.547065 -0.237342 0.006723 -0.712287 -0.100229 0.126912 -0.114792 0.369503 0.454795 0.930281 0.579475 -0.369819 0.274887 0.780772 -0.812350 0.955348 -0.164595 -0.327057 0.947108 0.286927 0.423467 0.303306 0.643417 -0.682477 -0.709523 -0.746584 0.854712 0.457219 0.167458 0.340721 -0.652191 0.620393 -0.896621 0.354533 0.908106 0.003150 -0.518555 -0.206687 -0.627347 0.936240 -0.276405 0.952128 -0.433579 0.998481 0.732900 -0.245929 0.953830 -0.431695 0.427014 0.900938 0.855232 -0.149519 0.204244 0.498650 0.168005 0.494721 0.752065 0.022717 -0.048060 -0.080477 -0.636562 0.299750 -0.460084 -0.533182 -0.345718 -0.551979 0.469968 0.135727 0.241335 0.842621 0.071967 0.964929 0.794749 0.638388 0.963411 0.527650 -0.607541 0.917241 -0.904045 0.819473 0.818179 0.951187 -0.330045 0.022423 0.449837 0.837959 -0.482856 0.201902 -0.139324 0.469084 -0.878575 0.224114 -0.231166 -0.338659 0.690932 0.423116 0.109362 0.160900 -0.441157 -0.649303 0.003521 0.630811 -0.684373 -0.201730 0.269199 -0.720962 -0.674080 0.661658 -0.803722 -0.578126 0.481131 -0.985543 -0.626939 -0.848914 0.036880 0.822898 0.989046 0.554024 0.024800 -0.150278 0.023108 0.146226 -0.926164 0.791942 0.807567 0.764768 0.215058 -0.083071 -0.074332 0.773902 0.267627 0.929189 0.404712 0.583253 -0.272541 -0.326089 0.862291 0.053379 -0.664431 -0.941431 0.475253 0.816701 -0.926974 0.848314 0.967787 0.109906 0.671212 0.956832 -0.336070 -0.303988 -0.193446 0.687039 0.842238 -0.119610 0.478981 0.649805 -0.354841 -0.305961 -0.433266 0.570827 -0.532059 0.834361 0.500016 0.872653 0.417614 -0.772525 -0.453436 0.279905 0.280854 -0.117867 0.338475 -0.243893 -0.301166 0.411501 -0.395579 -0.333379 -0.478592 -0.724367 -0.376547 0.185338 -0.028355 0.430007 -0.127624 -0.186116 -0.689603 -0.648643 -0.536311 -0.044444 0.045396 0.030423 -0.473617 0.513336 -0.135216 -0.973601 0.385989 -0.717601 -0.746125 0.932554 0.562304 0.534729 -0.185313 -0.099221 -0.709165 0.513521 -0.687720 -0.104744 -0.819858 -0.166312 0.170889 -0.196405 -0.980974 -0.857466 -0.766398 -0.108598 -0.043582 -0.456001 0.242759 0.420107 0.499555 -0.711845 -0.549470 -0.974061 0.801491 0.315314 -0.947662 0.187481 0.597713 -0.693788 0.120034 0.160017 0.840941 0.934722 -0.939204 -0.868224 0.448243 -0.626924 0.027033 0.628385 0.206763 -0.802078 -0.568021 0.225789 -0.659544 -0.334419 -0.882809 0.296874 0.209581 0.359950 -0.283019 -0.290864 0.648105 0.167511 -0.264925 0.449596 -0.517176 -0.212587 -0.362923 -0.919463 0.093625 0.757111 0.240554 -0.065434 0.691833 0.301349 0.066342 0.140076 0.674425 -0.906625 -0.231540 -0.118812 -0.708704 0.200439 -0.893023 -0.368248 0.866021 -0.775832 0.928627 0.075601 0.584118 -0.354393 0.784737 0.232223 0.813118 -0.480188 -0.318181 -0.704058 0.307225 0.318896 -0.623521 -0.599151 0.076007 0.617033 0.335415 -0.232160 -0.081618 -0.598243 0.907916 -0.407193 -0.504868 -0.323624 0.473996 -0.213572 0.876815 0.580973 0.418181 0.742836 0.805141 0.346807 -0.181563 0.389260 0.992415 -0.396826 -0.378517 0.805532 0.122986 0.303302 -0.898525 -0.569789 -0.377802 -0.522046 -0.168940 0.698205 -0.905013 -0.833525 -0.533955 0.013370 -0.431767 -0.626039 0.606177 0.063364 0.050336 0.080173 0.849792 -0.072849 -0.338854 0.267973 -0.330013 -0.533713 -0.385220 0.488424 0.855547 -0.392805 -0.908402 -0.522970 -0.587273 0.214584 0.780332 -0.485798 0.644795 -0.597470 -0.007844 -0.524145 -0.899265 0.087143 -0.357669 -0.433220 -0.899487 0.210563 -0.059259 0.706690 -0.726073 0.991077 -0.213138 -0.876280 -0.081772 0.448008 0.391693 0.588215 0.914295 -0.993527 0.076639 0.769842 -0.386333 0.168237 -0.753128 0.026394 -0.617179 -0.972797 0.540596 -0.972384 -0.570267 -0.467248 -0.496529 -0.469532 0.619895 0.145802 0.097248 0.720408 -0.643635 -0.962011 0.427098 -0.369707 -0.970934 -0.786039 -0.245987 -0.052705 0.661969 -0.854295 -0.464490 0.576264 -0.847822 0.612148 0.346106 -0.234155 -0.219615 0.592978 0.792239 0.163206 0.620181 0.332835 0.190822 -0.950086 0.865587 0.694293 -0.419618 0.485482 -0.159904 0.677630 0.205890 0.196461 0.715620 -0.367011 0.826754 0.744686 -0.153051 -0.419234 -0.308020 -0.491082 -0.273529 0.227490 -0.914818 -0.121351 -0.160362 0.431288 0.644494 0.620023 0.024265 0.436733 -0.216770 -0.355554 -0.230432 0.974052 -0.305640 -0.364846 0.668345 0.274743 -0.879363 -0.491559 -0.047627 0.326527 0.704902 -0.332008 0.959516 0.531655 -0.587322 -0.193535 -0.887579 0.104658 0.315383 -0.161107 -0.667852 0.400565 0.717542 0.171786 -0.168148 0.362036 -0.208190 0.856118 -0.201232 0.575039 -0.499436 0.568336 0.549091 0.194924 -0.796510 0.217436 -0.530333 -0.675873 0.725877 0.422040 0.650654 0.430778 -0.909968 0.610170 -0.037566 -0.497290 -0.583365 0.074855 0.607369 0.732018 0.913748 0.939517 0.132582 0.631290 0.111303 0.964435 -0.006675 0.903113 0.820552 0.792094 0.478152 -0.678884 0.360430 0.027243 0.516040 0.563920 -0.755320 0.985707 0.888047 0.970556 0.407747 0.538700 0.401335 0.497779 0.148870 -0.636231 -0.999511 0.565505 0.438624 0.607857 0.297522 0.352372 0.547374 -0.569896 -0.016338 -0.341323 -0.605461 0.976987 -0.438210 -0.784908 0.769081 -0.960057 -0.463792 0.129510 0.067186 -0.947752 -0.306570 0.311866 -0.962045 -0.418523 0.282422 0.445702 -0.879823 -0.316243 -0.056520 0.269047 0.047526 -0.056031 -0.165448 -0.513850 -0.448173 -0.867926 0.838522 -0.900799 -0.437822 -0.177817 -0.242122 -0.043283 -0.200829 0.319669 0.171809 -0.431749 0.359612 0.708017 0.697762 -0.573202 0.760265 -0.608808 0.738664 0.798220 -0.027331 0.021086 0.243922 0.092846 0.704843 -0.812598 -0.638107 -0.247631 0.131371 0.196445 0.238519 0.683198 0.328518 0.077041 0.782399 0.890697 0.899224 -0.459723 -0.152586 -0.301606 0.859946 -0.980777 0.266646 0.219558 0.727239 -0.035592 0.646356 0.487504 0.355600 0.385019 0.285724 -0.671732 -0.593894 -0.470354 0.421114 -0.889051 -0.282952 0.783007 -0.136682 0.848419 -0.020549 -0.898163 0.531617 -0.692030 0.178878 0.314017 -0.801334 0.078102 0.854294 0.046080 0.776496 0.714240 0.065303 0.043142 -0.066202 -0.207458 -0.992450 -0.419846 -0.719954 0.363149 0.965173 0.565770 0.691417 -0.628721 -0.904584 0.112531 -0.517773 -0.187536 -0.104462 0.345546 -0.339117 0.874989 0.447383 -0.807499 -0.817041 -0.373740 0.506517 -0.618375 0.704362 0.360811 0.427705 0.480858 0.075051 -0.506992 -0.476000 -0.991151 0.285550 -0.468450 -0.410997 0.565596 0.894699 -0.445824 0.131366 0.586116 -0.074546 0.226782 -0.301352 0.407682 -0.960754 0.594186 -0.246773 -0.299871 0.469175 -0.799390 -0.107370 0.652134 -0.173130 -0.600853 -0.966241 -0.468768 0.759958 0.461465 -0.987910 -0.164991 0.954472 -0.463910 -0.156142 0.240022 0.067640 0.432861 -0.194382 -0.037661 0.987037 0.936985 -0.451545 -0.087509 0.163767 0.247103 -0.679827 0.203013 -0.158711 0.073400 0.903142 -0.689536 0.274010 -0.204229 0.962599 -0.899120 0.194918 0.996358 -0.367888 -0.045124 0.457823 -0.355798 0.789885 0.412295 0.180293 -0.366256 -0.347682 -0.752068 -0.933395 0.457936 0.210271 -0.946359 0.394921 0.758727 -0.033868 -0.441313 0.005830 0.286305 0.761700 0.847119 -0.640295 0.664841 -0.842417 0.633715 -0.539387 -0.879818 0.734595 0.655531 -0.883460 -0.633293 -0.389593 0.574363 0.010909 -0.599708 -0.013342 -0.808798 0.034036 0.638976 -0.560865 0.100641 0.096912 0.649406 0.154282 -0.508167 0.408133 -0.879585 0.050520 -0.586038 0.406720 -0.187780 -0.738919 0.766425 -0.522939 -0.581336 0.400139 -0.062326 -0.461154 0.134734 -0.406796 -0.344614 0.501441 0.203611 -0.770251 -0.487649 0.603904 0.216407 -0.296447 -0.362060 -0.144617 0.142687 0.738581 0.952295 -0.207907 -0.107137 -0.555872 -0.799774 0.013278 0.494648 -0.385812 -0.580002 -0.693133 -0.124731 -0.813578 -0.216072 0.293933 0.586562 0.721602 0.832779 -0.278704 -0.685194 -0.511834 -0.777262 0.518418 -0.282085 -0.264911 0.122321 0.934322 0.438641 0.760261 -0.210294 -0.418671 0.498842 -0.257999 0.373422 -0.608295 0.186129 0.573648 0.404983 -0.319223 -0.812164 0.824981 -0.012355 0.063106 -0.988597 0.771573 -0.642961 0.597965 0.493175 -0.810182 -0.680739 0.807981 -0.322016 -0.458001 0.326399 0.395899 0.277087 -0.551280 0.330221 -0.284271 -0.791019 -0.880073 0.297058 0.707823 -0.138072 -0.329520 -0.900472 -0.951943 -0.755871 0.504512 -0.271166 -0.568035 0.329493 0.716479 0.495071 0.340896 0.488052 0.852110 -0.061139 -0.018773 -0.958072 0.258122 -0.210791 -0.280088 0.800121 -0.884392 -0.884189 0.077208 -0.435672 0.446032 0.792937 -0.226691 0.565959 0.089995 -0.518868 -0.572113 0.760475 -0.419339 -0.524056 -0.995396 -0.914827 0.204778 -0.563431 0.414665 -0.078743 0.931640 -0.244439 -0.590690 0.783749 0.694422 0.390537 0.825678 -0.047456 -0.820254 -0.454410 -0.247335 -0.704646 -0.338599 0.829873 -0.140319 -0.892567 0.622811 0.632991 0.673391 -0.287194 -0.885877 -0.898722 -0.526718 -0.305216 -0.422778 -0.522114 -0.220043 0.782000 -0.085545 -0.805378 -0.296743 -0.153906 -0.049817 0.112567 -0.370157 -0.355396 -0.496896 -0.544479 0.597148 -0.317150 0.001111 -0.650187 -0.021796 0.662511 -0.820313 0.837885 0.769944 0.802498 0.470876 0.443336 -0.484696 0.584999 0.544614 -0.011415 -0.720217 -0.878164 0.466471 0.059739 0.903836 -0.619075 0.254361 -0.392907 0.227020 -0.795456 0.719660 0.856863 -0.150852 -0.777236 -0.687616 -0.553703 -0.094386 0.313495 -0.203890 0.883818 -0.023994 -0.024203 0.721703 -0.254050 -0.221706 0.192579 -0.810714 0.293598 -0.222422 0.733900 -0.717817 0.057361 0.855735 0.748654 -0.882900 0.759571 -0.870421 0.371461 -0.633336 0.356599 0.576005 -0.913676 0.213462 -0.574847 -0.690912 0.525846 -0.128551 0.214703 -0.160659 0.667559 0.098521 0.815347 -0.356644 -0.179775 -0.438703 0.421650 -0.987196 -0.249417 -0.284752 -0.209618 -0.515517 -0.002569 0.847742 -0.659781 -0.253915 0.964842 -0.900210 -0.124336 0.336303 -0.533546 -0.767737 -0.087692 -0.447222 0.445725 0.337461 -0.138134 -0.028429 -0.791090 -0.923431 0.810912 0.876469 0.175090 0.626259 -0.480175 0.995315 -0.812444 0.941475 -0.991881 -0.061861 -0.343277 -0.201500 0.422623 0.654154 -0.353758 0.762841 -0.599761 -0.388916 0.862631 0.275903 0.947387 -0.670915 0.508166 -0.140305 -0.118137 -0.046108 -0.802845 0.743729 0.925463 -0.593935 0.820298 0.736374 -0.717465 -0.004612 0.362633 -0.197640 -0.009297 0.550189 -0.256165 -0.001178 -0.511672 0.400558 0.797322 0.910950 0.054712 -0.556436 0.673792 0.454951 0.054648 0.536423 -0.269146 0.002036 0.865507 -0.760980 0.861731 -0.252630 0.192912 -0.941114 -0.508901 0.118374 -0.535048 -0.688603 -0.145251 -0.252514 0.306785 -0.782619 0.549846 -0.702512 0.767570 -0.706319 0.296309 -0.744102 0.694238 0.093631 -0.833152 -0.251050 0.537195 0.840640 -0.796099 -0.408156 0.377062 -0.065245 0.593879 0.242570 0.173775 0.455610 0.989940 -0.633313 0.514496 -0.518962 0.485061 0.979447 -0.207565 -0.660190 -0.273066 -0.900780 -0.442808 -0.723221 -0.603293 -0.675238 -0.429540 0.693017 -0.419340 -0.735301 -0.213352 -0.252492 0.013649 -0.676157 -0.411852 0.217550 -0.084313 0.965210 -0.847696 -0.490434 0.207780 0.326079 0.965176 0.197719 0.692766 0.479672 0.678758 0.177828 0.459119 -0.528808 0.517638 -0.813947 -0.429588 -0.925171 -0.537168 -0.032881 -0.600409 0.033293 -0.339864 -0.019750 0.297991 0.446784 0.727758 -0.688360 0.770627 -0.684094 0.529190 -0.313686 -0.718884 0.681494 0.195880 0.488896 0.007574 0.161055 -0.313385 -0.299660 -0.359273 -0.634627 0.878168 -0.900153 -0.163435 0.395805 -0.714100 0.406977 0.470635 -0.251268 -0.625904 0.870225 0.782025 0.034232 -0.149524 0.080016 -0.518984 -0.421766 0.391656 -0.748357 -0.105860 -0.079154 -0.062043 0.175256 -0.397660 -0.866163 -0.335848 0.609914 0.294892 0.350767 -0.689746 0.935620 0.716140 -0.811579 -0.964534 -0.447295 0.584227 -0.678634 0.959682 0.054861 0.070098 -0.666221 -0.074913 -0.147878 0.368011 0.775563 0.932138 0.849028 -0.646203 0.323794 -0.899329 0.247937 -0.755361 0.038628 -0.576807 -0.153021 0.172465 0.087345 -0.543107 -0.532643 -0.561887 -0.232854 -0.597023 -0.845747 -0.044432 -0.561557 -0.293042 -0.460206 -0.240191 -0.333359 0.594656 0.829906 0.000420 -0.480257 -0.317971 -0.631569 -0.704695 -0.385833 -0.782542 -0.350898 0.937960 -0.681871 0.897040 -0.817400 0.356758 -0.679767 0.029579 -0.470777 0.407578 0.486472 -0.003420 0.845691 -0.746382 0.399557 0.999944 0.209185 0.838000 -0.293098 0.748980 -0.402192 0.373543 0.343636 -0.572285 -0.626037 0.863378 0.109743 -0.257606 -0.841316 0.723910 -0.040148 -0.192214 0.661870 0.277981 -0.295174 0.844470 -0.365261 0.025059 -0.125951 0.163962 -0.567363 -0.639480 -0.839459 -0.721672 -0.385862 0.560098 -0.721728 0.823324 0.398098 -0.014825 0.572304 0.995906 -0.641282 -0.084061 -0.576380 -0.267320 -0.220683 0.533364 0.475074 -0.061999 0.257273 -0.565074 0.745787 -0.080856 0.712907 -0.549387 -0.236387 -0.652354 0.475671 0.637662 0.511608 0.908308 0.998183 0.672149 -0.813363 -0.387679 0.232248 -0.535091 -0.564355 -0.369655 0.450084 -0.992051 -0.373749 0.808801 -0.076112 0.049871 -0.458518 0.703205 -0.416765 -0.983444 -0.358794 0.840509 -0.548518 -0.613007 -0.240348 -0.835611 -0.162394 0.523266 -0.487964 -0.686723 0.160928 -0.976356 -0.778414 0.159110 0.695793 -0.591778 0.771431 -0.071959 -0.126868 -0.792924 0.558386 -0.676785 -0.784975 -0.815363 -0.867983 0.138912 0.234508 -0.326501 -0.157882 0.817743 -0.309945 0.483324 0.658252 0.141537 0.870317 -0.582096 0.305926 -0.292077 0.941170 0.817962 0.021200 0.102097 0.841606 0.242786 -0.738792 0.537399 0.651008 -0.967361 -0.534560 -0.475860 -0.760285 -0.976174 -0.152645 -0.545260 -0.791537 -0.020628 0.593652 0.442971 0.652870 -0.564230 0.260715 -0.657075 0.919094 -0.081033 0.484462 0.789411 0.336871 -0.209612 -0.502667 0.278041 -0.391651 0.518533 -0.619862 -0.550045 -0.238681 -0.358654 0.987354 -0.587672 -0.326015 -0.547206 -0.063533 -0.086299 -0.523380 0.783822 0.368440 -0.314917 -0.236806 -0.037907 -0.871946 -0.583935 0.397863 0.388769 -0.241010 0.316957 -0.692264 -0.756549 0.106367 0.644607 0.033839 0.603700 -0.077352 0.642188 0.122234 0.302786 -0.907857 0.883553 0.944132 -0.920503 -0.704119 -0.381883 -0.467709 0.232348 0.531818 0.008911 0.016171 -0.099742 0.693994 0.779365 0.862351 0.822049 -0.804570 0.260214 0.210818 -0.045581 -0.422829 0.518554 0.197870 0.683538 0.163161 -0.768291 0.287238 -0.914191 0.873897 -0.590528 0.388595 0.966040 -0.706975 0.332727 -0.954463 -0.411094 0.950844 -0.422171 0.821254 0.482662 0.586740 -0.162575 -0.617079 0.280734 -0.383210 -0.754728 0.102783 -0.187781 0.505486 -0.686399 0.766639 -0.917343 0.832154 -0.035491 0.766195 -0.004685 0.196218 0.053433 0.081124 0.070116 0.462905 -0.530281 0.036156 0.755931 0.802446 0.081694 -0.655163 0.753290 0.659522 -0.833909 0.235953 0.246262 0.003516 0.618873 -0.473004 0.620306 0.864146 0.629779 -0.567474 0.369632 0.943380 -0.800836 0.452289 0.775534 0.163674 0.218484 -0.229151 -0.640108 -0.728083 0.851973 0.430008 0.734822 -0.678308 -0.533836 0.490753 -0.875862 0.547857 0.835589 0.877428 0.207380 -0.998319 0.113380 -0.546358 0.005197 -0.267746 -0.019362 -0.374497 -0.403601 -0.389583 0.058029 0.966031 -0.446203 0.257194 0.418320 -0.670669 -0.579133 -0.363196 0.100180 -0.219241 -0.091280 -0.047847 -0.789233 -0.356458 0.273845 -0.323070 -0.865705 0.397983 -0.775212 0.969884 0.275411 0.432167 0.971565 -0.611209 0.885809 -0.023238 0.121045 -0.133553 0.602265 0.717445 0.476864 -0.339705 0.683476 -0.969339 0.917488 0.101796 -0.640008 -0.661644 0.738600 0.460172 0.119115 -0.352680 -0.587675 0.329881 0.290862 0.686171 -0.993188 0.425156 0.084154 -0.768400 0.395040 -0.640436 0.663767 0.366605 -0.251645 0.549576 -0.656633 0.869401 -0.583977 0.945632 0.586845 0.892887 -0.394073 0.270321 0.923548 -0.476585 -0.627883 -0.716460 -0.138229 -0.889283 0.743712 0.980886 -0.241963 -0.843963 0.310767 -0.951102 0.842208 0.317579 0.474055 -0.073638 0.549179 -0.130905 0.285926 0.212946 -0.764300 -0.965719 -0.237478 -0.420933 0.903682 0.178545 -0.475301 0.490527 0.071432 0.130626 -0.239152 -0.005020 0.654042 0.132966 0.278520 -0.484188 0.243683 0.022232 -0.503302 -0.998281 0.178270 0.807465 -0.949382 0.020478 0.125044 0.524672 0.946840 -0.325778 -0.606233 0.232765 0.887168 -0.370533 0.267047 -0.350310 0.208534 0.170729 0.828235 0.733233 -0.338744 -0.100333 -0.136140 0.422104 0.894647 -0.482099 -0.444930 0.173168 0.033714 0.798753 -0.804600 0.530412 0.800472 0.373670 0.337877 0.851090 -0.605852 -0.537080 0.375762 -0.659012 0.137143 0.769529 0.573753 0.024311 -0.601004 -0.159200 0.674001 0.607530 -0.988471 0.502236 0.340763 -0.327215 -0.598097 -0.795377 -0.905111 -0.703450 -0.277476 -0.350041 0.469718 0.756238 -0.551288 0.665118 0.286649 -0.750816 0.038789 -0.375474 -0.899726 0.432937 0.087447 0.476035 0.773924 -0.775411 0.245564 0.347677 0.248900 0.644560 -0.811523 -0.077099 0.252090 -0.799994 -0.574863 -0.407146 -0.127209 -0.172960 -0.202523 -0.032320 0.123590 0.520001 0.617639 -0.406691 0.276239 -0.933649 -0.741573 -0.437112 -0.684464 0.297216 0.187414 -0.584191 -0.269848 -0.725139 0.891845 -0.495923 -0.500550 0.137409 0.851754 0.748351 -0.218031 -0.959769 -0.328748 -0.965940 -0.759763 0.096389 -0.373086 0.113028 0.923429 0.424390 -0.919292 0.047020 -0.055609 0.698347 0.640328 -0.779370 0.764699 0.898755 -0.216482 -0.919766 0.195971 0.970932 -0.503956 0.926123 -0.754207 -0.612112 -0.569800 -0.254756 0.525297 -0.718046 -0.506406 -0.692733 -0.677815 0.164846 -0.658674 -0.437578 -0.738764 -0.031760 0.675450 -0.815335 -0.607370 0.756158 0.231685 0.337021 0.454505 -0.127987 0.557651 0.219204 -0.229232 -0.658831 0.299438 0.966739 -0.687898 0.795482 0.892862 -0.442105 -0.816630 -0.676938 0.303139 0.708668 -0.394984 0.796733 -0.984066 -0.072799 -0.038421 -0.642740 0.489623 0.222815 0.325500 0.165073 0.407480 0.718130 -0.078769 -0.360835 0.055152 -0.624264 0.511178 -0.387197 0.594941 -0.718053 -0.046028 -0.105621 -0.751314 0.266074 -0.310139 -0.858451 0.823969 -0.126769 -0.535389 0.127107 -0.418101 0.069627 -0.076160 -0.402167 0.996827 0.885420 -0.044906 0.486450 0.108235 -0.719406 -0.348477 -0.484285 0.998724 0.572754 0.154880 0.053876 0.948490 -0.333942 0.666679 0.543431 -0.051995 -0.379349 -0.562190 0.196691 0.886725 0.127671 0.338240 0.710694 -0.999098 0.802851 -0.162199 -0.417199 -0.127523 0.761641 0.180635 -0.130696 0.647061 -0.864271 -0.644246 -0.244704 -0.583677 0.007277 0.271011 -0.584953 -0.419969 -0.574108 0.468923 -0.471479 0.091950 0.135602 -0.928048 -0.960045 0.756253 -0.490238 0.236647 0.642977 0.637433 -0.425113 0.353671 0.638335 -0.622263 -0.808528 -0.778863 0.250215 0.953113 0.401772 -0.880481 0.600175 0.537500 -0.524727 -0.644529 0.953823 0.482551 0.626482 -0.631130 -0.937419 -0.947626 0.837793 -0.408897 0.144324 -0.026605 -0.336945 0.184279 -0.270352 0.172817 -0.579075 -0.627375 -0.189750 -0.004188 0.726296 -0.551415 0.373549 0.917768 -0.330279 -0.376236 0.870881 -0.928507 -0.256717 0.471056 0.608993 0.218556 0.826527 0.562816 -0.298893 0.453009 0.931686 -0.236312 0.505382 0.769480 0.354791 -0.350294 -0.257125 -0.982154 0.833985 0.472523 0.190663 -0.745090 0.845148 -0.999088 0.250722 0.571444 -0.550503 -0.375729 0.489212 0.119218 0.248035 0.360094 0.190711 0.991318 -0.168850 -0.200296 0.209874 -0.342323 -0.637480 0.910981 -0.889315 -0.705793 -0.325331 0.616068 -0.936313 -0.970540 -0.734226 -0.193438 -0.952694 -0.900242 -0.720915 0.237969 -0.645332 -0.875767 0.238882 0.605390 0.695677 0.688379 -0.770339 0.184890 -0.192403 0.477696 -0.455016 0.998308 0.469013 0.376133 -0.201988 -0.321113 -0.966190 0.160532 -0.410132 -0.855504 0.454739 0.264538 0.760563 0.518426 0.293998 -0.973663 -0.675012 0.341305 -0.873905 -0.395928 -0.420726 -0.519237 -0.271695 0.818155 -0.913847 -0.576017 0.506534 -0.684186 0.608872 -0.685869 0.793510 -0.846144 -0.687561 0.262523 0.529989 0.110451 0.941411 0.563799 -0.729017 -0.468721 0.708295 0.725723 0.795817 0.468858 0.244149 0.089815 0.495195 0.569136 -0.568880 0.621291 -0.826791 0.010393 -0.897946 -0.098486 -0.171451 -0.811793 0.325497 -0.664917 -0.495979 -0.065631 -0.350787 -0.702469 0.088225 -0.038348 0.560054 -0.381786 -0.927897 0.501465 -0.817986 -0.656914 -0.967256 0.890308 -0.931191 0.828560 0.359167 0.312958 -0.081625 -0.145638 -0.117906 0.349495 -0.524347 0.055302 -0.640112 -0.422293 0.956816 0.188437 -0.234086 0.282313 0.523519 0.269935 -0.783318 -0.827267 0.567466 0.304907 0.134385 0.127520 0.923121 0.206488 -0.371015 -0.894866 0.549575 -0.338272 0.995443 0.618384 -0.509711 0.354610 -0.068659 0.408664 -0.791028 0.813435 -0.241842 -0.315375 -0.131263 0.118046 0.262332 -0.174446 -0.693517 -0.971754 -0.892133 0.830002 0.298182 -0.675452 -0.997265 -0.134352 0.629455 0.137120 0.993168 0.552576 -0.656392 -0.377847 0.657710 0.893183 0.283881 0.653153 0.511567 0.774170 0.007762 -0.557092 0.182833 0.216734 -0.743657 0.940992 0.901359 0.125080 0.059038 0.163691 0.950634 0.365521 0.191937 
-0.941499 0.195523 -0.509881 -0.616951 0.198258 0.355766 -0.987496 -0.664621 0.348934 0.565080 -0.321013 0.971087 0.222790 -0.427830 0.254969 -0.124058 -0.916263 0.029138 0.883704 -0.473355 -0.788028 0.100438 -0.217012 -0.847037 0.001797 0.908068 0.212001 -0.834512 0.858702 -0.422478 0.357425 0.917203 0.773045 0.847544 -0.699748 -0.028696 0.203310 -0.687244 0.306683 -0.447756 0.877836 0.985670 -0.476668 0.100626 -0.442160 0.778300 0.976568 -0.358423 -0.192561 0.860272 0.168222 0.019410 -0.039289 0.951209 0.172374 0.962508 0.859278 -0.615625 -0.872004 0.717980 -0.038103 0.485422 0.635183 -0.265057 0.332965 0.935435 0.706247 -0.463725 -0.751808 0.012929 0.088520 -0.873972 -0.001401 0.611851 0.226654 0.556439 0.390151 0.203222 -0.801984 -0.802410 0.063495 0.366237 0.217000 -0.975794 0.317447 -0.610626 0.986714 0.176724 -0.226251 -0.885290 -0.105296 0.735647 0.600131 -0.470113 -0.529410 -0.066903 -0.534677 -0.823164 0.469372 -0.286485 0.189766 -0.442109 -0.160457 -0.811635 -0.830257 -0.933803 0.744804 0.559894 0.269419 0.942820 0.757484 -0.667086 0.309057 -0.025516 -0.642880 -0.373496 0.363858 -0.656167 0.803228 -0.862393 -0.541457 -0.302068 0.873254 -0.941325 0.227820 -0.656157 -0.008229 0.693143 -0.479320 -0.538857 -0.593342 0.710445 0.019034 0.246201 0.898810 0.188777 0.312398 0.643614 -0.251329 -0.418183 0.586434 -0.493845 -0.085268 -0.104509 0.480639 0.271851 0.521995 -0.155503 0.615685 0.325223 -0.017896 -0.925772 -0.976845 -0.144642 -0.867097 0.250975 0.199201 0.124674 -0.055882 0.719880 0.585817 0.350776 0.430326 -0.395148 -0.403024 0.329136 0.793629 0.909374 -0.027249 -0.457700 -0.508808 -0.440815 0.048454 0.405923 0.454676 -0.470907 -0.322225 -0.023329 0.373590 -0.706541 -0.698106 -0.644306 -0.632313 -0.674950 0.211051 -0.499410 0.576025 -0.589748 0.625264 -0.479857 -0.869868 0.211081 0.870918 0.560458 0.815933 -0.532105 -0.110406 0.609561 -0.622731 0.862345 -0.848139 -0.131540 -0.578470 0.200315 -0.725616 0.876206 0.729408 -0.047842 -0.147122 0.102998 0.245617 0.154772 0.458692 0.613304 0.479822 -0.330257 -0.886106 0.055846 0.079995 0.739158 0.575989 0.210128 -0.049761 0.446907 -0.229414 -0.233828 0.914802 0.660180 -0.624267 -0.707929 0.522525 -0.472405 0.160531 0.944055 0.727910 0.434915 0.820262 0.457318 -0.612927 -0.326861 -0.439684 0.632690 0.827911 -0.980992 0.245995 0.307733 -0.311248 0.359889 -0.636421 0.768747 0.099047 0.939568 -0.021125 -0.950713 0.386476 0.749461 -0.184541 0.301277 0.409641 0.191192 0.593348 -0.067834 0.718787 -0.246120 -0.123778 0.446696 -0.811206 -0.303516 -0.095986 -0.424132 0.369623 0.464331 -0.791442 0.197534 0.483339 0.454553 -0.494733 -0.827909 -0.185558 -0.131154 0.940838 0.913489 -0.191585 -0.080288 0.962776 -0.805110 -0.330827 -0.221765 0.496168 -0.921186 0.969427 0.089516 0.010981 0.688213 0.843396 0.887202 0.134910 -0.967810 -0.416314 -0.961076 -0.391942 0.953309 0.503255 -0.183384 0.150844 -0.013406 -0.728831 0.656111 0.158684 0.085611 -0.475043 0.099522 -0.000900 0.333372 -0.980766 -0.038124 0.528262 -0.311593 0.740111 0.024430 -0.232779 0.709538 -0.886054 0.778202 0.397751 0.957341 0.665404 -0.467340 0.989531 -0.750910 -0.428415 -0.402411 -0.797600 -0.925161 0.414205 0.353243 0.061433 0.685373 0.009354 -0.779882 -0.229016 0.534311 0.319640 0.770084 -0.132317 0.338874 -0.268040 -0.604055 -0.972719 -0.527929 0.420375 -0.205498 -0.818391 0.534321 -0.427296 0.579359 0.491662 -0.761892 -0.887980 0.481194 -0.512801 -0.316396 -0.921217 -0.310402 -0.241556 0.492987 -0.957159 0.819877 0.178360 0.052195 -0.960005 0.949344 -0.413494 0.359634 0.719428 0.454189 -0.301492 -0.548612 0.850135 -0.274211 -0.076540 0.270510 0.520291 0.105068 -0.195169 -0.907005 -0.315572 -0.703507 -0.668897 -0.203553 0.777687 -0.181699 0.480052 0.856470 0.507899 -0.761504 0.349457 0.550741 -0.941627 -0.472183 -0.397064 -0.901633 -0.522839 0.189442 0.458002 -0.803410 -0.356369 -0.843490 -0.352022 -0.506234 -0.117702 0.571438 0.764276 -0.597411 -0.323494 -0.430893 -0.504416 0.360933 -0.134400 -0.173313 -0.842619 -0.356713 0.644988 0.637433 -0.500243 0.152887 0.875928 0.849213 -0.296372 0.934301 -0.622969 0.306564 -0.967332 -0.145808 -0.503994 0.490670 0.050782 0.139637 0.647180 0.698760 0.633403 -0.470522 0.270197 0.397679 -0.067933 0.946703 0.966786 0.427651 0.307636 -0.167615 -0.745663 0.465017 0.475672 0.899325 0.102450 0.975429 0.052213 -0.021622 0.824642 0.755840 -0.087321 -0.798327 0.062404 -0.054652 0.055865 0.558410 -0.563982 -0.893353 -0.301953 -0.916803 0.805406 -0.668550 -0.387325 0.075603 0.729129 0.544743 0.022306 0.695915 -0.027607 -0.670057 -0.471700 0.226731 0.794960 -0.996028 0.126056 -0.102590 0.979401 -0.821732 0.875788 0.804044 0.934109 -0.211533 -0.994283 -0.003487 0.733815 0.061582 -0.445077 -0.830168 0.168228 0.252970 -0.746970 -0.026365 0.584420 -0.134295 -0.950762 0.313549 -0.589552 0.071544 0.009464 0.382841 0.401487 0.537764 -0.390428 0.196447 0.541736 0.735628 -0.906143 0.521137 0.913896 0.969645 0.325181 0.848005 -0.241888 0.330898 -0.155482 -0.508074 -0.607521 0.399441 -0.338241 0.560708 -0.347589 -0.085212 -0.465658 -0.763169 0.780494 -0.416420 0.550380 -0.809058 0.655125 -0.440156 0.573783 0.056612 -0.902393 -0.816645 -0.746941 0.639343 0.918983 -0.653084 0.160480 0.832879 -0.683439 -0.514339 0.680884 0.074673 0.816559 -0.474598 0.566599 -0.790962 0.924843 -0.771642 0.769746 -0.422746 0.143146 -0.695912 -0.185915 -0.076360 -0.112332 -0.635535 0.114582 -0.457207 -0.075691 -0.311636 0.599405 0.021916 -0.128281 0.852465 -0.338741 -0.209298 -0.800619 0.821740 -0.376420 -0.484058 -0.692599 -0.695536 0.590615 -0.876040 -0.170133 0.157215 -0.667001 -0.245290 0.385572 -0.897255 0.331964 -0.471281 -0.593167 -0.853950 0.452359 0.294501 -0.489485 -0.433060 0.837295 0.434824 0.255305 0.436700 -0.543260 -0.872976 0.289164 0.118000 -0.082275 0.488545 -0.060261 0.541305 -0.995513 0.247141 0.845770 0.595103 0.371101 -0.324363 -0.247683 0.704099 0.430347 -0.862110 0.806844 -0.237689 -0.333391 -0.786323 -0.091639 -0.881033 0.508178 0.418876 -0.314092 0.345473 -0.146299 0.941212 -0.217827 0.310441 -0.931764 -0.928663 -0.571559 -0.014039 0.559882 0.368180 -0.472734 0.564370 -0.384679 -0.626964 0.159472 0.986422 0.048673 0.911790 0.690521 -0.520981 -0.950321 0.497365 0.241330 -0.283712 0.711042 -0.850309 -0.164745 0.219221 0.568568 0.521163 -0.435307 -0.577731 0.462375 0.346866 0.732710 0.530610 0.418203 -0.838849 -0.483429 -0.021915 0.529331 0.043837 -0.457546 -0.855348 0.416873 0.701927 -0.868926 -0.534454 0.613716 0.821595 -0.055435 0.663395 0.318961 -0.814104 -0.620317 0.030003 -0.664413 0.214938 -0.750777 0.904155 -0.263899 -0.186083 -0.673576 -0.801525 -0.839217 -0.940867 0.729086 0.578986 -0.779716 -0.754344 -0.442930 0.749615 0.289494 0.099525 0.894268 -0.293633 -0.198549 -0.974658 0.171913 -0.584832 0.846937 -0.883522 -0.921437 0.165897 -0.697626 -0.541754 -0.804100 -0.362039 0.673184 -0.554876 -0.457884 -0.590715 0.259040 -0.131460 -0.392239 0.419823 -0.072327 -0.663154 -0.001191 0.147957 -0.417497 0.555879 -0.102427 0.871996 -0.344596 -0.208160 -0.421637 0.456855 -0.182818 0.750276 0.872023 -0.335881 0.866755 0.950586 0.830016 -0.830871 -0.591168 -0.974084 -0.192910 -0.917984 -0.528960 0.349206 -0.508699 0.730080 -0.782255 0.099062 0.149903 0.145418 0.435908 -0.851288 -0.706624 -0.981589 0.704591 0.190948 0.890407 -0.640005 0.982789 -0.531230 0.816850 -0.200030 -0.780953 0.688873 0.464089 -0.914199 0.639458 0.294105 -0.745070 -0.951710 0.320021 0.062019 -0.869694 0.791061 -0.588775 -0.378392 0.521141 -0.371030 0.720670 -0.328956 0.774389 0.156578 -0.180244 -0.932236 0.174989 -0.475653 0.258713 0.065396 -0.115658 0.241501 0.534166 -0.298809 -0.958528 0.753213 -0.609936 0.505561 0.839014 -0.970478 -0.200334 -0.906057 -0.922188 -0.880313 0.155963 -0.791881 0.910748 0.567187 -0.170273 0.431889 -0.803842 -0.449603 -0.897067 0.970546 0.706975 -0.077311 -0.961689 -0.118037 0.447036 0.297024 0.947359 -0.668622 -0.461475 0.481525 0.032569 -0.420003 0.234738 0.422633 -0.914442 0.073751 0.452156 -0.114776 0.167695 0.529968 0.004911 -0.676343 0.738087 -0.084341 0.890845 -0.432186 -0.652452 -0.912998 0.118210 -0.549518 -0.942451 -0.174815 0.373171 -0.904140 0.707148 -0.179793 0.392883 0.654507 0.151585 0.931409 0.136032 -0.815845 -0.488594 -0.629230 0.606788 -0.403036 0.444521 0.058944 0.482188 -0.387785 -0.411088 -0.512901 -0.064128 -0.673001 0.402758 -0.173283 -0.105188 0.750307 -0.086281 -0.986977 -0.799212 -0.028732 -0.161793 0.573959 0.067128 -0.454645 -0.605833 -0.539989 -0.800138 0.545752 -0.608580 0.335894 0.729907 -0.097174 0.706664 0.336696 0.499789 0.151185 -0.604360 -0.018023 0.763400 -0.015448 0.469076 -0.300727 0.311551 -0.128165 0.525990 -0.793637 -0.377859 -0.560291 -0.780614 -0.177070 0.410977 0.057593 -0.603111 -0.521896 0.602948 -0.208944 -0.061884 0.802810 -0.663192 0.329535 0.138705 -0.933285 -0.767639 -0.154631 0.403411 0.732150 0.996554 0.799050 -0.285872 0.759954 -0.216398 -0.816796 -0.540773 -0.904847 0.055039 0.985216 -0.698484 0.677180 -0.575075 -0.479099 -0.499890 0.835902 0.578494 -0.103001 -0.685994 0.181442 0.688055 0.252122 -0.015748 -0.975137 -0.418343 -0.877043 -0.908421 -0.185982 -0.031674 0.494989 -0.453832 -0.035120 0.294040 0.260296 -0.275166 -0.922358 0.443500 0.184060 -0.827206 -0.501461 0.169277 -0.525690 -0.824281 0.594202 -0.004789 -0.324171 0.430104 -0.426295 0.572828 0.744110 0.755147 0.260883 -0.003768 -0.260601 0.285746 0.577890 -0.137644 0.377325 -0.608092 0.830682 -0.127686 -0.061924 -0.204438 -0.833646 -0.801628 0.520395 -0.756004 0.641872 -0.295545 -0.583210 -0.859589 0.873732 -0.108900 -0.683870 0.467934 0.886311 -0.008041 -0.101962 -0.539984 -0.435213 -0.357851 -0.784837 0.825670 0.638381 -0.045437 0.111416 0.216271 0.816919 -0.511259 0.608178 0.647601 0.361055 -0.453745 -0.556837 0.527409 -0.255373 0.963558 0.771405 -0.613501 -0.331987 -0.811805 -0.473090 -0.458254 0.079295 -0.156960 -0.990320 -0.034393 0.835000 -0.092282 0.425623 -0.600213 0.549867 0.640786 -0.774543 0.188248 -0.404651 0.336873 -0.595482 -0.587732 0.825614 -0.987303 -0.940131 0.186670 -0.441048 -0.496968 -0.285921 0.303578 -0.533410 -0.514516 0.690078 0.134603 -0.326321 -0.783012 0.676348 0.752974 0.060028 0.686028 -0.281419 -0.104972 -0.406254 -0.855796 0.294814 -0.856387 0.784990 0.520271 0.331861 -0.619661 -0.142856 0.736379 -0.207393 -0.317242 0.749076 -0.147524 0.869428 -0.691972 0.355508 -0.416493 0.611606 0.822098 0.068991 0.301684 -0.043299 0.742670 0.518672 -0.366951 0.495644 -0.421300 -0.680923 -0.785775 0.473728 -0.087177 -0.641571 -0.231457 0.056436 -0.856581 -0.711186 -0.611703 -0.476242 0.145958 -0.875324 0.316366 0.828716 0.873752 -0.831158 0.698144 -0.818221 0.524350 -0.718349 0.793385 0.346448 0.350643 0.095069 -0.696852 0.093313 -0.386259 -0.063803 -0.411043 0.192441 0.255274 -0.196818 -0.333831 -0.831903 0.161611 0.434712 0.224533 0.305031 0.723526 0.612830 0.828789 -0.130516 0.737505 0.145155 -0.301800 0.611257 0.313996 -0.603656 0.793036 -0.161653 -0.322004 0.586422 -0.815206 -0.971362 -0.318509 -0.512057 0.121951 0.295232 0.424140 0.710908 -0.512327 -0.320586 -0.485910 0.153842 -0.152489 0.675702 -0.411446 -0.927956 -0.019268 -0.687921 0.684874 -0.190479 0.181563 0.422379 0.954676 0.879763 0.033637 0.268672 -0.723893 -0.173327 -0.892981 -0.045897 -0.586905 -0.708187 -0.017259 0.094585 -0.220244 -0.895308 -0.610183 -0.796104 0.815600 -0.122510 -0.116691 -0.670310 -0.968669 0.730820 -0.994608 -0.380115 0.802865 -0.013876 -0.068036 0.487739 0.795645 -0.886473 -0.089882 0.750321 0.993290 0.943755 0.018993 -0.730603 -0.229572 0.126012 0.223500 0.183522 0.417825 -0.793759 -0.721892 -0.802419 -0.689067 -0.332075 -0.598524 -0.873467 0.545414 0.284786 -0.543777 0.576746 0.015606 -0.538385 -0.803370 -0.181529 0.447739 0.128595 -0.693790 0.243384 0.242122 0.216328 -0.006294 0.235412 0.160083 -0.987301 0.504809 0.930510 0.138711 -0.271691 0.114033 -0.443464 -0.065451 0.392141 -0.245883 0.245482 -0.939935 0.155593 0.372015 0.605480 -0.559621 0.828237 0.182225 0.455985 -0.710148 0.378856 -0.725544 0.737591 -0.492550 -0.419334 -0.019024 0.749572 0.796994 0.974681 -0.015016 -0.042923 0.987380 -0.510207 -0.112413 0.126091 0.218101 -0.998380 0.682627 -0.847350 0.393761 -0.563256 0.398132 0.453826 0.592337 -0.229853 0.059306 -0.967284 -0.401615 -0.758469 0.488702 -0.111763 0.620387 0.763158 -0.374172 -0.872163 -0.656176 0.606804 0.877409 -0.859181 0.581485 -0.137607 0.097895 0.568865 0.352186 0.985483 -0.305044 -0.429713 0.987103 -0.622417 -0.277063 0.380864 -0.185673 -0.878930 -0.165310 -0.593336 -0.108783 0.893995 -0.560620 0.489601 -0.864474 0.928082 -0.622162 0.755913 0.691240 0.003666 0.883750 -0.964936 -0.389530 0.761159 -0.824117 -0.808044 -0.376448 0.273778 0.760821 0.975738 0.259261 -0.544223 -0.453976 0.246364 -0.166639 0.268961 -0.372773 0.647687 0.390031 0.461917 -0.945649 -0.718752 0.355912 -0.506269 0.770849 0.491439 -0.578187 -0.851313 0.247352 -0.886948 0.152354 0.131102 -0.851884 0.762824 -0.107739 -0.676001 0.954780 0.515813 0.597777 0.715601 0.491550 -0.142962 -0.828622 -0.962425 -0.896599 0.004739 0.306536 -0.269372 -0.347574 -0.303433 -0.807455 -0.293223 -0.022185 0.548457 0.200508 -0.251336 0.039896 0.622321 -0.102648 -0.712752 0.735373 -0.950295 0.418350 0.883490 0.812529 -0.689389 -0.792511 0.767309 0.826423 0.805265 0.482909 0.317974 -0.337697 0.654288 0.355548 -0.234296 -0.340974 -0.337916 0.496332 0.311452 0.358652 0.688877 -0.981771 -0.663533 0.237335 0.218738 0.085131 -0.722769 -0.158941 0.982483 -0.435521 -0.423568 -0.967812 0.982829 -0.540079 0.844717 -0.706561 -0.332590 0.612026 -0.880138 -0.527324 0.094935 0.437836 0.134979 -0.250778 -0.206616 0.900683 0.408249 0.455469 0.397015 -0.280299 -0.185879 0.085892 -0.262070 0.150588 -0.676773 0.956668 -0.764281 -0.399542 -0.202274 -0.781798 0.164937 0.374158 -0.749610 0.147766 0.834080 -0.904893 0.441205 -0.498510 0.707132 0.561067 -0.025835 -0.197933 -0.001097 -0.890856 0.551290 0.792288 -0.990174 -0.040462 0.247757 0.406841 0.679239 -0.938123 -0.507266 -0.582830 0.212465 -0.184039 -0.626162 0.448184 0.416419 0.171564 0.666386 -0.418644 -0.454278 0.916776 0.729122 -0.620198 -0.988117 0.170327 -0.118708 0.719015 -0.268606 0.855457 -0.478918 0.730298 0.964601 -0.927628 0.522585 0.974427 0.031911 -0.229658 0.381269 -0.288850 -0.167780 0.874002 0.128320 -0.955315 -0.310037 0.502157 0.492869 -0.893618 -0.326278 0.159255 -0.312261 0.219444 0.076031 -0.583139 0.599246 0.087913 0.587188 -0.519462 -0.193072 -0.681418 -0.664005 0.328010 -0.951121 -0.699404 0.400382 0.571465 -0.724977 -0.567707 -0.658193 0.656292 0.143443 0.174027 0.530295 -0.728237 0.218712 -0.779742 0.773920 -0.288419 -0.673359 -0.552358 0.870836 0.014379 0.667086 -0.053133 0.431240 0.266332 -0.965220 0.018427 0.746870 -0.158292 0.337009 -0.917135 -0.830281 0.385888 -0.616539 0.570101 -0.042647 -0.341516 -0.997606 0.299160 -0.685223 0.145837 -0.526813 0.845071 0.417599 0.691899 -0.934671 0.191520 -0.596520 -0.608030 0.639161 -0.725684 0.406349 0.306247 0.221182 -0.162411 -0.427422 0.255962 0.856017 -0.680552 -0.902329 0.193026 -0.597687 -0.732611 -0.421086 -0.214226 0.837490 0.536267 0.444258 0.839884 -0.164572 0.759035 -0.014279 0.308615 0.604106 -0.596679 0.000514 0.669435 0.594840 0.403994 -0.938595 0.234001 0.678309 0.467754 -0.459752 -0.100509 -0.694657 0.112826 -0.844546 -0.838640 0.432274 -0.746876 0.354386 0.834587 -0.479486 0.933300 -0.379639 -0.641996 0.469567 -0.935381 -0.802112 -0.695005 0.823653 0.183609 0.613610 0.427759 0.586930 -0.385876 0.097195 0.181770 -0.981883 0.158600 -0.584229 0.696427 -0.373646 -0.043981 -0.404082 -0.068302 -0.931154 -0.248628 0.093058 0.501120 0.004496 -0.552557 0.335707 0.525010 -0.619257 0.956067 0.883014 0.850310 -0.979314 -0.919098 -0.844695 0.844339 0.264511 0.768915 0.272099 -0.148559 -0.616961 -0.630707 -0.966789 -0.598843 0.527893 -0.551017 -0.902417 -0.845752 0.405002 -0.306499 0.085945 0.473848 0.444873 -0.820997 -0.025032 -0.550630 -0.373554 -0.689326 0.974380 0.007189 -0.733258 0.857393 -0.142501 -0.712572 0.938295 0.012804 -0.868233 0.202806 -0.218281 0.403866 -0.945752 0.164758 0.773159 -0.912541 0.565915 0.301052 -0.463558 0.663498 0.455300 0.941444 -0.643001 -0.458755 0.415292 0.801873 -0.279753 -0.609740 -0.748758 0.346693 -0.299066 -0.774378 -0.646118 -0.032324 -0.916985 0.211381 0.255103 -0.978690 -0.775815 0.386870 0.224117 0.005904 -0.209264 0.278364 -0.829338 -0.436105 0.365823 0.736577 0.864947 0.902265 0.400075 0.320247 0.843709 0.757074 0.861492 0.259001 0.558947 -0.418261 0.649261 0.810189 0.928432 -0.649805 -0.964189 -0.717686 0.317871 -0.881174 0.493695 -0.427026 -0.859864 0.717880 0.959845 0.364253 -0.276216 -0.249419 -0.357383 -0.105554 0.314475 -0.991560 -0.368977 0.179422 0.910706 -0.968902 -0.500331 0.754415 0.788173 -0.638839 0.013416 0.347120 -0.057100 -0.337323 0.157309 -0.128668 0.012873 0.193120 0.153646 -0.669256 0.311946 -0.352658 -0.096282 0.452083 -0.634778 -0.136437 -0.183664 0.089005 0.614143 0.458953 0.983452 -0.071381 0.467393 -0.385525 -0.891959 0.378099 -0.354427 -0.392290 0.132514 -0.566254 -0.031129 -0.854070 0.780866 0.911771 -0.191392 -0.061825 -0.216897 0.821480 -0.868705 0.936750 -0.847776 0.443242 -0.415909 0.055942 -0.104675 -0.050687 0.919505 0.711661 -0.961682 0.533648 0.170614 -0.978230 -0.537733 -0.361993 -0.363755 -0.429692 -0.983894 0.281818 0.178018 0.148620 0.715564 -0.853111 0.294550 0.496430 -0.941340 -0.896842 -0.565395 -0.158237 0.924638 -0.434099 -0.221488 -0.923138 -0.990857 0.362603 0.132804 -0.095533 -0.688084 0.052308 -0.383872 -0.649766 -0.414044 0.786742 -0.627996 0.048223 -0.575251 0.008249 0.618531 -0.559145 -0.709933 -0.203451 0.589475 -0.994369 -0.056562 -0.115974 0.502061 0.002097 -0.012817 0.936666 0.843860 -0.088178 -0.497433 -0.377627 -0.011317 -0.488290 0.984976 -0.878513 0.416177 -0.703108 0.173795 -0.967695 -0.352874 0.759752 0.819047 0.019131 -0.192025 -0.756204 -0.972621 -0.573495 -0.315349 -0.682554 0.223054 -0.725874 -0.676923 -0.833509 0.158152 0.825139 0.168589 -0.854665 0.761805 0.012449 0.057157 -0.735628 0.634821 -0.954160 -0.223918 0.619797 -0.832673 -0.807740 0.916689 0.341123 -0.775435 -0.436184 0.100874 -0.956388 0.582946 0.908849 -0.712592 0.610326 -0.664646 -0.027941 0.927772 0.558408 0.246186 -0.749151 0.724899 -0.595663 -0.924012 -0.106512 -0.450327 0.837793 0.905936 0.606829 -0.897835 0.540757 0.652670 -0.121753 0.160555 0.819997 0.070507 0.077244 0.161120 0.295072 0.641060 -0.738006 0.338684 0.224006 -0.829157 0.626092 -0.165668 -0.493803 -0.401848 -0.237896 -0.935395 0.844337 0.012953 0.789504 -0.751326 0.088941 -0.317008 -0.201653 -0.073266 -0.411072 -0.594824 0.028899 -0.870315 -0.942154 0.907147 0.290240 0.877843 -0.022346 -0.632516 0.038962 -0.727274 -0.991456 0.300956 0.611410 0.232550 0.471799 0.237502 -0.933119 0.977996 0.835654 -0.171015 -0.957399 0.679991 0.841939 0.832106 0.928665 -0.069120 -0.484903 -0.272988 0.857614 0.104025 0.132189 -0.113486 0.233710 0.190035 -0.206340 -0.476050 0.067877 0.771314 -0.108566 -0.893160 -0.955960 -0.100022 0.407796 0.655450 -0.867473 -0.120405 -0.107048 -0.800591 -0.142408 -0.271394 0.028394 -0.099807 -0.591404 -0.129668 -0.267702 -0.662738 0.801212 0.247396 0.064274 0.658826 -0.648579 -0.803537 -0.454660 0.585131 0.386497 0.339000 -0.890919 -0.545625 0.110315 0.000516 -0.438786 0.154355 0.900493 0.969010 -0.190196 -0.966979 -0.151395 0.702756 -0.767571 0.706197 -0.568638 0.260823 -0.393610 -0.160042 -0.868844 0.338688 0.177220 0.932368 -0.413916 -0.758506 0.591194 -0.062496 -0.562044 -0.863466 -0.477364 0.824454 0.475535 -0.368283 -0.721172 -0.414151 0.632233 -0.159958 0.740204 0.532726 -0.190948 -0.449992 0.565746 0.657658 -0.747235 0.798176 0.363854 -0.315873 0.058999 0.970244 0.524085 0.190155 0.308932 -0.298695 0.122522 0.895016 -0.057201 -0.286283 -0.167479 0.380755 -0.149749 0.355156 0.205209 -0.674214 0.986873 0.484037 -0.088365 0.619106 -0.675921 -0.348161 0.151832 0.133132 0.201847 -0.282422 -0.209210 0.454612 -0.484246 -0.845356 -0.861261 0.574753 -0.875112 0.662824 -0.235093 0.433821 -0.635870 0.887430 0.328837 0.306929 -0.398853 -0.838643 -0.312316 0.451398 0.516513 0.892893 0.777183 0.503387 0.376930 -0.311182 0.122492 0.701010 0.340657 -0.725676 -0.165858 -0.457496 -0.008098 0.624931 0.997117 0.507656 0.779575 -0.864144 0.082408 0.904463 0.798680 0.847316 0.338284 -0.837190 0.734745 -0.332879 0.469739 -0.664108 -0.171522 -0.842577 0.787289 -0.655008 -0.949684 0.564473 0.848378 0.427246 -0.746709 -0.029130 0.128256 0.593948 0.245194 0.962398 -0.863548 -0.762904 0.587329 -0.866431 0.744752 0.366905 -0.730576 -0.172840 0.271368 -0.931895 -0.325524 -0.390348 -0.769086 -0.590779 0.276773 0.700653 -0.254887 -0.894749 0.858076 -0.467597 -0.549758 0.908392 -0.903125 -0.701379 0.335638 -0.649834 0.269491 -0.536105 0.944114 -0.485315 -0.573707 -0.919434 -0.248219 -0.986378 -0.785865 -0.503467 0.380527 -0.516441 0.323693 -0.348105 -0.448336 0.998168 0.261547 -0.217422 -0.592611 -0.461680 -0.516769 0.152503 -0.356429 -0.658693 0.684905 0.093813 -0.750302 0.781780 0.392434 0.585337 -0.868054 -0.338075 -0.950769 -0.923940 0.176610 -0.524476 -0.843374 0.928391 -0.510854 -0.629240 -0.575077 0.869672 -0.145681 0.748616 -0.478433 0.405983 0.746784 0.783114 -0.811439 -0.845826 -0.678567 -0.328209 0.306676 -0.034996 0.013098 -0.008419 -0.941183 0.262796 -0.226638 0.451251 -0.151867 -0.094692 -0.886825 -0.102636 -0.018632 0.289785 0.372888 0.137993 0.218176 0.862034 0.508753 0.643099 0.731706 -0.636928 0.391715 -0.746727 0.769055 0.138499 -0.963613 0.957615 0.292673 -0.642180 -0.370593 -0.400651 0.322824 0.642505 0.590931 0.381641 -0.094699 -0.635707 -0.167108 0.753434 0.269600 -0.053933 -0.349202 -0.749032 -0.764148 -0.976314 0.388961 0.454028 0.885720 -0.102286 0.097127 0.617426 0.260786 -0.511158 0.870699 0.029841 0.627341 0.907085 -0.012544 -0.079986 -0.735095 0.616863 0.519363 0.587729 0.259368 0.110294 -0.030630 -0.835331 0.474587 0.802262 0.918103 -0.255813 -0.251671 -0.431099 -0.004845 -0.015819 -0.407412 -0.615884 -0.561792 -0.521692 0.281831 0.535335 -0.904266 -0.457383 -0.975823 0.966433 0.572458 0.651517 0.873518 -0.440086 -0.428469 -0.861577 -0.823223 -0.909105 0.726153 0.436145 0.201189 -0.304477 0.600814 -0.324224 -0.502215 0.518917 0.419963 0.246114 -0.912182 -0.584881 -0.769705 -0.319594 -0.200765 -0.331497 0.158713 -0.918934 -0.796162 0.254447 -0.376318 -0.771985 0.220880 -0.803860 0.879532 0.094398 -0.243946 -0.548936 0.232821 -0.067169 -0.458041 -0.041026 -0.631024 0.743148 0.654497 0.969789 -0.581076 -0.847718 0.488706 0.838887 0.398396 0.576524 -0.745994 0.628691 -0.743070 0.053241 -0.702806 0.415643 0.134306 -0.498967 -0.329910 0.757989 -0.270952 0.890970 0.954129 -0.391420 -0.014632 -0.289817 0.059644 -0.781811 0.643014 0.601603 0.177162 -0.988011 0.344751 -0.168341 0.981779 0.763674 -0.016059 0.470485 0.602561 -0.617663 0.047009 0.856567 -0.988972 0.303938 -0.090193 -0.691778 -0.280418 -0.955886 -0.190745 0.389672 0.802102 0.538303 0.280642 0.756231 -0.853117 -0.733990 -0.533587 0.206527 -0.515801 -0.890573 -0.191870 0.661361 -0.878584 -0.847119 -0.506979 -0.896805 0.916555 0.476962 0.573679 0.519116 0.859298 -0.379312 0.375683 0.870326 0.924626 -0.714509 -0.821452 -0.355792 -0.670396 -0.012197 -0.966120 -0.868294 -0.473894 0.314523 0.887937 -0.327012 0.580533 -0.645649 0.879515 -0.935268 -0.536223 -0.312355 0.726093 -0.414806 -0.159474 -0.780886 -0.311612 -0.242919 0.696075 -0.737932 -0.723803 0.555374 -0.117245 0.651880 0.425700 -0.192618 0.937371 0.604248 0.451590 -0.733025 -0.407949 0.485470 -0.601319 0.118157 -0.200008 -0.713382 0.791145 -0.619475 -0.359031 0.670660 -0.554743 0.104746 -0.641694 -0.828650 0.689940 0.198832 -0.609537 -0.621672 0.955912 -0.913462 -0.359604 -0.767891 0.641912 0.523151 0.883989 0.067612 -0.669467 0.821360 -0.328140 0.782122 -0.911665 0.263911 0.267592 -0.512984 -0.617932 -0.932416 -0.226365 -0.826787 -0.551891 
0.414603 0.843873 -0.106634 -0.480650 -0.797821 0.064715 -0.790710 0.401010 0.455178 -0.412382 0.356923 0.541717 0.228014 0.589032 0.183629 -0.248835 0.473021 -0.748759 0.081698 0.294382 -0.076899 -0.136180 0.382716 -0.812988 -0.868588 0.869733 -0.430920 -0.801004 -0.356633 -0.257708 -0.352895 -0.942029 -0.413835 0.540471 -0.422680 -0.211656 -0.394814 -0.213390 -0.810646 -0.939636 0.374228 0.546277 0.602081 -0.397758 0.135309 -0.214290 0.353407 -0.391670 0.036952 -0.564896 0.902712 0.960053 0.298924 0.285428 -0.852935 0.430336 0.155161 -0.283855 0.629333 0.798528 0.458437 -0.723562 0.856499 -0.955397 0.816909 -0.566181 -0.167053 -0.577905 0.220429 0.022301 -0.517541 -0.405343 -0.431423 -0.915459 0.196899 0.703886 -0.129749 -0.449695 -0.687784 0.907203 -0.014591 -0.785072 0.867255 -0.715666 0.500356 -0.985680 0.714670 -0.344483 -0.269534 0.344003 -0.545955 -0.811097 0.620441 -0.689456 -0.766494 0.437350 -0.255637 0.066452 0.859445 0.964792 -0.911247 -0.658096 -0.440551 -0.342670 -0.573555 0.756348 -0.638783 0.296696 -0.693347 -0.326567 0.203899 0.292062 -0.111639 0.071154 0.576396 -0.611283 0.085475 0.291066 0.044234 0.815940 -0.364931 0.498279 -0.995157 -0.744490 0.808822 -0.761651 0.692860 -0.446815 0.304801 0.552305 -0.482023 0.393554 0.894210 0.077426 -0.949115 -0.679345 -0.166226 -0.587899 0.617351 0.140427 0.085534 -0.178750 -0.567511 0.973895 0.892404 -0.991115 -0.637388 -0.022121 0.299952 0.406845 -0.206181 0.935021 -0.094876 -0.201338 -0.809469 -0.286053 0.037011 0.883392 0.267132 -0.658188 0.435697 0.785109 0.735367 0.329907 -0.137465 0.786251 0.650562 0.696309 -0.801648 0.267913 -0.163264 0.283887 -0.910838 0.269225 0.257781 0.981567 0.278110 0.620393 -0.040555 -0.421939 0.027238 0.753264 -0.486918 0.932362 -0.448074 -0.296386 -0.353691 0.588937 -0.412995 0.913441 0.930750 -0.977297 0.698550 0.666116 0.352609 -0.438915 0.452367 0.003171 -0.742606 0.650720 -0.728916 0.094130 -0.065393 -0.639754 -0.636645 -0.807612 -0.658187 0.641464 0.812781 0.301258 -0.780474 -0.159981 0.054522 -0.267392 -0.227619 0.606449 0.436221 0.418690 0.195386 -0.976773 0.332131 0.126136 -0.954071 0.030681 -0.207748 0.398539 0.591766 -0.755380 -0.598290 0.849160 0.895340 -0.327207 -0.056710 -0.170054 0.033039 0.306645 0.022334 0.374852 -0.051891 -0.164885 -0.323890 0.167635 0.675134 0.730632 0.900243 -0.552485 0.337081 0.336464 0.866206 -0.467533 0.359691 0.198337 0.658603 0.405620 -0.770983 -0.549145 -0.195841 0.820784 -0.304525 0.205868 0.669944 -0.409185 0.878661 -0.386766 0.420761 -0.088299 0.919879 -0.556905 -0.713447 -0.132011 0.278209 -0.037337 -0.964377 -0.046657 -0.306705 0.935866 0.400858 -0.969624 0.272330 0.267064 -0.437157 -0.367979 -0.534599 -0.778554 -0.962359 -0.305582 -0.327699 -0.158201 -0.484798 0.367776 -0.952332 -0.814854 0.958590 0.926329 -0.201620 0.379351 -0.161971 -0.281741 0.822446 0.124582 0.586248 0.100655 -0.912755 0.621871 -0.946002 -0.219461 0.557737 0.454857 -0.189085 -0.169932 -0.278079 0.373758 0.462089 0.187321 0.595204 0.499730 0.881739 -0.732495 -0.658471 -0.603059 0.635280 -0.610803 -0.417914 0.593871 -0.684475 0.380466 -0.026778 0.153555 -0.901275 -0.204333 -0.721863 0.684973 0.896322 -0.634619 0.306845 0.950321 0.145921 -0.135418 0.405177 0.956836 0.694650 -0.872902 0.330594 0.156738 0.314419 -0.074203 -0.343532 0.196158 0.193302 -0.002003 0.593099 -0.171418 0.387193 -0.824815 -0.577547 0.702719 0.555651 0.395675 -0.143727 0.654377 -0.808658 0.134410 0.339350 -0.912336 0.499791 -0.353806 -0.962015 -0.354288 0.510776 0.443162 -0.397452 0.205426 0.570260 0.933142 -0.637836 -0.115321 -0.141061 0.018632 -0.919163 -0.947759 -0.983371 0.673935 -0.119176 0.403822 0.849120 0.303277 0.106541 0.404771 -0.301048 0.962814 0.059148 -0.109706 0.097224 -0.601502 -0.022042 -0.402985 0.044692 0.015943 0.242727 -0.444532 -0.540895 0.845275 0.760894 -0.970635 0.778416 -0.876942 -0.085956 -0.362645 0.141690 -0.005119 -0.310404 0.158319 -0.331184 0.570420 -0.437859 -0.482064 -0.126304 0.668682 0.922707 0.572648 0.631495 -0.018145 -0.537058 -0.271281 0.380353 0.440900 0.325734 -0.574955 -0.543157 -0.431539 -0.019487 -0.084052 -0.586264 -0.258593 -0.054687 -0.807848 -0.135535 0.859357 -0.170492 -0.993845 -0.145762 0.519104 0.164474 0.523054 0.089524 0.726615 -0.959010 0.963220 0.395297 0.963698 0.535868 0.026792 -0.054447 0.998810 0.755512 -0.674094 0.439709 0.081246 -0.249049 0.896552 0.649707 0.731464 -0.187500 -0.936556 -0.527129 0.757813 -0.744404 0.337336 0.617171 0.085104 0.343491 -0.528591 -0.395792 -0.492034 0.994462 0.693731 -0.765419 -0.964547 0.656951 0.629877 0.999150 0.192820 -0.343330 -0.055297 0.191629 -0.587819 0.270609 -0.368661 0.493427 -0.978440 -0.472109 0.143134 0.753024 0.340391 0.206578 -0.774106 0.098205 0.462174 0.563230 -0.284625 -0.452722 -0.093278 0.186784 0.151485 0.414687 0.181246 -0.154784 0.649268 0.216699 -0.497832 0.279145 0.215849 0.694987 0.935815 -0.839448 -0.113383 -0.652004 0.431161 0.517956 0.841423 0.452721 -0.954153 -0.015443 0.205744 0.386238 -0.808865 0.431639 -0.515558 0.653309 -0.005131 0.199818 -0.799413 0.901591 -0.613398 0.352072 0.316278 0.567848 -0.802712 -0.034454 -0.215453 -0.300544 -0.755309 -0.999604 -0.605556 -0.819494 -0.839052 0.281060 -0.471498 0.592109 -0.200984 -0.630076 0.044830 -0.155138 0.354482 -0.749426 -0.768900 0.545617 0.682213 -0.284457 0.198926 -0.322918 0.915360 0.399513 -0.421327 -0.698038 -0.248416 0.894951 0.869810 -0.051127 -0.139503 -0.345643 0.648329 0.105188 -0.345246 -0.957228 0.285693 -0.184298 0.323833 0.814195 -0.592189 -0.877151 -0.815881 0.452642 -0.032289 0.538601 0.703216 0.198811 0.084218 0.385429 0.914354 -0.716856 -0.937489 0.829714 0.682656 -0.358816 -0.868324 -0.565759 -0.463865 -0.998514 0.383113 0.396631 -0.344156 0.031442 -0.498181 0.310597 0.074215 0.787512 -0.873700 -0.601953 0.601707 -0.465889 -0.479104 0.785827 0.986753 0.488607 0.324427 0.689968 -0.312582 -0.591355 0.075397 -0.398228 -0.308211 0.137908 -0.568514 -0.625555 0.779092 -0.436838 -0.191314 -0.684774 -0.435351 -0.808201 0.711857 0.220492 0.223241 -0.786324 -0.468910 -0.702544 -0.998811 -0.342611 -0.304497 0.602896 0.191500 0.216399 0.388722 0.178253 -0.294994 -0.286850 -0.131779 0.392424 0.121795 0.943618 0.994196 0.813583 0.081526 -0.574317 -0.811972 -0.139382 -0.011155 -0.003286 0.175844 0.553494 0.188513 -0.112298 -0.226014 -0.588246 0.101378 0.305076 -0.290791 0.102567 0.962465 0.404712 -0.294538 0.153965 -0.378889 -0.905815 -0.667782 0.326117 -0.192666 0.200439 -0.281459 0.929129 0.144058 -0.287262 0.742712 -0.774416 0.138420 0.930740 0.086202 -0.872735 -0.072546 -0.737953 0.680759 -0.884034 0.149749 -0.545255 -0.472280 -0.748873 0.759821 0.236929 0.353693 0.722286 -0.358358 -0.940844 -0.123749 0.262753 -0.846659 0.208469 -0.411130 -0.039325 -0.591091 0.307411 -0.110196 0.552967 -0.979852 -0.367484 0.778551 0.158569 -0.436744 -0.135247 0.285834 0.490710 0.126800 -0.033407 0.606676 -0.723451 0.421338 -0.865604 -0.472324 0.181158 0.371326 0.881369 -0.096556 -0.987033 0.940525 0.779696 0.275720 -0.906135 -0.011835 0.864590 0.054540 0.397074 0.172001 0.944344 -0.049959 0.192149 -0.423140 -0.271408 -0.649282 0.140117 0.593345 0.636552 -0.369173 -0.279855 -0.396855 -0.762497 -0.003306 -0.975518 -0.628100 0.524370 0.205641 0.743225 0.405739 -0.890915 0.756193 0.346263 0.888781 0.031913 0.440129 -0.123054 -0.103497 -0.505331 -0.725980 -0.931497 -0.560987 0.224061 0.260652 0.015873 0.952652 0.611370 -0.844010 0.545997 0.247922 -0.213184 -0.733857 0.851066 0.024320 0.262837 0.875549 0.396219 -0.212793 0.081189 0.139445 -0.807054 0.190275 -0.104363 0.539209 0.079055 0.927550 -0.020662 0.956001 -0.175947 0.474007 -0.769979 -0.107444 0.913020 0.454081 -0.846792 -0.071107 0.406734 0.764578 0.084883 -0.047269 0.012500 0.871699 0.218874 -0.136433 -0.103982 -0.518289 -0.260884 -0.707762 0.268918 0.820305 0.431682 0.461864 0.010580 -0.672680 0.001073 -0.910365 -0.745130 0.980412 -0.954364 0.078922 0.454418 -0.724343 0.971478 0.367438 0.729738 -0.875314 -0.703669 0.136472 0.889265 0.381214 -0.910797 -0.098235 0.252913 0.308077 0.765332 -0.851069 0.789788 -0.495553 -0.558831 0.058706 -0.675248 0.872851 -0.479430 0.335332 -0.799829 0.521643 0.424967 -0.544960 0.502055 0.470602 0.533962 -0.043527 0.746259 0.505440 -0.676088 0.475997 0.630126 -0.379757 -0.387532 0.519391 -0.998543 -0.298329 -0.578844 0.254370 -0.990252 -0.813512 0.403301 0.799535 -0.309065 0.844470 -0.141759 0.015688 0.717321 0.378811 -0.648980 0.917491 -0.099546 0.775986 -0.627468 -0.597490 0.246589 0.906494 0.358983 -0.007152 0.411934 0.682895 -0.531155 0.042061 -0.696862 0.081313 -0.438548 -0.695405 0.782984 -0.017392 0.558964 0.792732 0.169096 -0.037735 0.592267 0.860031 -0.193265 -0.549492 -0.124281 -0.475944 0.829319 0.226738 -0.558453 -0.270227 0.002724 -0.185921 0.132283 -0.750687 -0.279427 -0.508734 0.242161 -0.867493 -0.825839 0.711005 0.174568 -0.522701 -0.207682 0.736020 -0.218107 -0.424698 -0.281372 -0.659142 -0.631966 0.887724 0.303123 0.960301 0.747755 -0.890142 -0.589191 -0.376527 -0.366087 -0.759873 0.850212 0.075461 -0.030099 -0.147064 0.889540 -0.897816 0.102249 -0.389887 -0.406550 -0.655591 -0.257380 -0.232390 -0.944585 0.917188 0.244909 -0.152267 0.653208 -0.973198 0.423035 -0.628164 -0.632340 0.791069 -0.740440 0.670783 0.751370 -0.992686 0.780640 -0.837822 -0.369212 -0.585446 -0.597694 -0.519001 0.490014 0.372207 0.333935 0.379554 0.474390 -0.563816 0.989667 -0.932160 -0.219406 -0.267713 -0.164550 -0.163992 -0.350525 -0.919641 0.683741 -0.697317 -0.892839 0.106776 -0.325481 -0.525179 -0.102155 -0.065922 -0.854396 -0.350785 -0.058607 0.926244 -0.188607 0.572180 -0.659202 0.213699 -0.946820 0.830812 -0.414095 0.387115 0.210366 -0.939705 0.823299 0.200033 -0.871865 -0.396108 0.932320 -0.036415 0.439901 -0.418205 0.043945 0.123641 -0.115522 0.151106 -0.769583 0.558997 0.625927 0.128262 -0.506925 0.771531 0.777477 0.434468 0.697775 -0.411130 0.006648 -0.961428 0.802568 0.059828 0.869384 -0.611527 -0.553057 0.079751 -0.551232 -0.729758 -0.720216 -0.423096 -0.125866 -0.787896 0.540489 -0.685965 -0.206100 -0.415567 0.437676 0.678378 0.735539 0.668094 0.237375 0.361466 -0.203644 0.730451 0.132997 -0.426167 0.164919 -0.169228 0.162703 -0.828433 -0.130656 -0.034729 0.231395 -0.261272 0.353744 0.678338 0.818479 0.802512 0.948580 -0.901737 -0.620584 -0.177286 -0.689633 0.919905 0.136749 0.104266 -0.495661 -0.425575 -0.217356 -0.760122 -0.757481 -0.979981 0.601344 0.038875 0.750470 -0.265658 0.612707 -0.084611 0.565113 -0.224590 0.086956 -0.565543 0.740681 -0.681649 0.173186 0.094425 0.996689 -0.008336 -0.103063 0.945269 0.089927 0.276353 -0.232018 0.400294 0.196258 0.904731 -0.495440 0.700597 -0.520844 0.287204 0.940474 -0.278325 0.307224 0.541819 0.760549 0.057694 -0.723840 0.373257 0.973082 0.841274 -0.851333 0.060038 -0.724269 0.889347 0.378389 0.448917 -0.016228 0.375078 -0.559419 0.880709 0.320346 0.530508 0.157062 -0.911671 -0.069198 -0.646680 0.993060 0.435361 -0.946083 -0.527784 -0.277434 0.994391 0.193891 -0.970211 0.536210 -0.045560 0.087483 0.812370 -0.672303 0.060565 0.653644 -0.523636 -0.879397 0.929375 -0.634289 0.498992 0.378292 0.349483 -0.125930 0.818873 0.230192 -0.805584 0.349381 -0.612746 -0.717255 -0.719817 -0.259426 -0.724195 0.715544 -0.205509 -0.251979 -0.561890 -0.211118 0.941912 -0.532101 -0.674909 -0.103649 0.555382 -0.862539 0.224048 -0.384052 0.791106 0.700412 -0.263449 0.720481 -0.933877 -0.764457 0.098773 0.415606 0.109613 -0.082353 -0.354202 0.304030 -0.732972 0.033052 0.586775 -0.452789 0.773626 0.862580 -0.737244 -0.431883 -0.389399 -0.299134 0.356998 -0.447487 0.168765 0.682090 0.448864 -0.275852 0.819551 -0.327088 0.340095 0.610657 -0.626676 -0.923354 0.331138 -0.560553 -0.687811 -0.570089 0.855053 0.421803 0.347558 -0.499149 -0.274168 0.614586 0.533903 -0.687393 -0.838203 0.307530 -0.824813 -0.575447 0.875647 -0.214212 0.125419 0.232645 0.338301 -0.705816 -0.085265 -0.212835 0.018332 -0.265714 0.460077 -0.641573 -0.655057 0.833401 -0.564927 0.676081 -0.727152 -0.252738 -0.894008 -0.872099 -0.830935 0.453550 -0.371248 -0.105103 0.068136 -0.837345 0.207504 0.229933 0.470184 0.382691 0.654487 0.345831 -0.831521 -0.220094 -0.421524 0.506780 0.074090 0.493211 -0.706056 -0.907578 -0.772503 0.754021 -0.549151 -0.427560 0.587422 -0.114078 -0.751480 0.860270 0.633185 -0.645488 0.988170 0.802249 0.808062 -0.383078 -0.302853 -0.123802 -0.220423 0.904651 -0.893869 -0.750239 0.287342 0.760618 0.595592 0.455822 -0.459477 -0.825932 -0.037399 0.614613 0.667279 0.256546 0.707035 0.894776 0.010567 -0.842116 -0.532784 -0.402011 0.043806 -0.284264 -0.541741 -0.323010 0.070248 -0.553571 -0.520760 -0.121690 0.063351 0.176386 0.754508 0.842928 0.081037 0.860639 -0.907311 -0.631620 0.621256 0.688282 0.824201 -0.838221 0.862350 -0.213197 0.776392 0.529629 -0.956651 0.483427 0.424405 0.053916 0.641311 0.891621 0.651905 -0.314884 -0.392643 -0.889837 0.362107 0.677605 -0.443408 0.841346 -0.444085 0.619943 0.017733 -0.689577 0.462871 -0.901230 -0.828939 0.555561 -0.532850 0.792317 0.243842 -0.708649 0.954096 0.106192 0.078154 0.730489 -0.364179 0.121502 0.213916 -0.939774 -0.824582 -0.144774 0.951847 0.827322 0.540343 -0.440796 0.937486 -0.097550 -0.763191 -0.505922 -0.256204 -0.207276 -0.885979 0.761529 0.103147 0.576893 0.860299 0.274208 0.132453 -0.672551 0.066525 -0.623705 -0.381200 0.020621 0.482487 0.696953 -0.248890 -0.881692 -0.181544 0.965026 -0.821466 -0.006127 -0.179747 -0.869619 -0.178804 -0.639405 -0.310415 -0.241319 0.263045 -0.073606 0.252759 -0.993159 0.719119 0.366780 0.768369 -0.177735 -0.056327 0.628668 -0.903527 -0.923874 0.956117 0.162998 -0.547579 -0.425083 -0.816381 0.934908 -0.728130 -0.065270 -0.946784 0.090326 -0.100244 -0.768250 -0.915801 0.720008 -0.637868 -0.094605 -0.919397 0.051717 0.664076 0.343648 0.978112 -0.083165 0.350489 0.697230 -0.716384 0.118859 -0.480505 0.227289 -0.252473 -0.384032 0.303414 -0.296356 0.778966 0.755836 0.278561 0.962585 0.690744 0.550431 -0.102685 0.743960 -0.359243 0.797070 0.975710 -0.275044 0.517078 -0.662158 0.630351 0.597682 0.389559 0.294427 -0.058670 0.367671 -0.788737 -0.708181 0.064901 -0.505122 0.410678 0.584396 0.722167 -0.841795 -0.799636 0.025581 -0.138151 0.979330 -0.218583 -0.859590 0.941915 -0.527839 0.690841 -0.160770 -0.783879 -0.668402 -0.363700 -0.808169 0.056554 -0.846622 -0.470327 -0.313094 0.751060 0.919232 0.981333 -0.307610 0.286903 -0.807404 -0.015791 -0.648196 -0.312526 -0.605114 0.936199 -0.590359 -0.446909 -0.863437 0.435223 0.414940 -0.884107 -0.783360 0.555350 -0.942192 -0.311200 0.246191 -0.102962 -0.095079 0.577789 0.533337 0.096752 -0.365657 0.686715 0.626425 0.321249 0.437775 0.545657 0.302582 -0.869836 -0.167440 0.495178 0.114373 0.184363 -0.817348 0.509259 0.120562 -0.407707 -0.937650 0.257126 -0.972485 0.477290 0.373019 -0.755845 0.032640 0.430827 -0.067045 -0.721170 -0.672135 0.837876 0.856619 0.861202 -0.065372 -0.509038 0.547918 -0.438948 0.812211 -0.014308 -0.893291 0.114792 0.115857 -0.060732 -0.390030 -0.769770 -0.876369 -0.207378 0.739489 0.244194 0.384914 0.801840 -0.498680 0.412430 0.279130 0.874339 0.656585 -0.688230 0.305166 -0.410460 -0.409400 0.633031 -0.572584 -0.552781 0.494233 0.362044 -0.061819 0.042151 0.923096 -0.249608 -0.972157 -0.970195 0.865184 0.143700 -0.030927 -0.524846 0.373930 0.092705 0.267776 0.113419 -0.663101 -0.347310 -0.084741 -0.161782 -0.934880 -0.805611 -0.287443 0.721705 -0.493841 -0.982277 -0.688755 0.096760 0.650754 -0.261339 0.543979 0.144987 -0.899296 -0.517839 -0.812862 -0.976200 0.232553 -0.785019 -0.946395 0.097737 0.358681 0.022678 0.572891 -0.267389 -0.884618 -0.159333 0.846030 -0.547719 0.493357 -0.238711 0.290499 0.558477 -0.044322 -0.996944 0.280181 0.461837 -0.979220 0.591426 -0.441403 0.671534 -0.669913 -0.897424 -0.183479 -0.569209 -0.415264 0.003659 -0.545409 0.817289 0.218640 -0.491804 -0.084974 -0.422680 0.530874 -0.512083 0.309931 0.646256 0.328584 0.155961 -0.901463 -0.178059 0.917250 0.389036 -0.619582 -0.127072 0.392093 0.660599 -0.665235 0.412872 0.252025 -0.106639 0.084406 0.582112 -0.004063 0.900927 -0.987096 0.580674 -0.095414 -0.532505 0.397963 -0.876775 -0.024309 -0.687011 -0.299454 -0.493435 -0.199094 -0.989524 -0.847179 -0.870510 0.166437 -0.748642 -0.048569 0.083687 0.640395 0.331849 0.956614 0.032488 -0.007552 -0.708621 -0.554640 -0.755527 0.184740 0.529766 0.826585 -0.819322 0.430693 0.839489 0.761352 -0.664721 -0.693016 0.159315 -0.541496 0.282675 0.472304 0.159050 0.789239 -0.726790 0.169526 0.942061 -0.597299 -0.664037 -0.806581 0.354132 0.419650 0.833814 -0.314019 0.376264 -0.133698 0.678429 0.667643 0.311662 0.922902 -0.147617 -0.158572 0.749487 0.033061 -0.727879 0.588976 -0.205588 -0.392599 0.895960 0.953727 0.065905 0.178635 0.426031 -0.775045 -0.032126 0.699241 0.394481 -0.090065 -0.898058 0.730444 0.103354 0.456074 0.150094 -0.062833 -0.857946 -0.473642 0.803469 0.820483 -0.805999 0.115131 0.743385 0.046384 0.956559 0.492872 -0.920555 -0.771320 0.081848 -0.126143 -0.163919 -0.022192 -0.172416 0.901986 -0.843558 -0.746385 -0.873060 0.124316 0.952856 0.521421 -0.965749 -0.945202 0.251865 0.137604 0.510871 -0.598041 -0.925228 0.652926 -0.071684 0.878241 0.473409 0.122317 -0.006628 0.216793 -0.831299 -0.050069 -0.290335 -0.751855 0.178611 0.791513 0.122002 -0.985308 -0.230679 0.949587 0.916678 -0.074237 -0.796798 -0.956382 -0.949920 -0.843942 0.565039 -0.915670 -0.789144 -0.183096 0.221935 0.721727 0.218863 0.296707 0.374653 -0.852821 0.174947 -0.151938 0.269496 -0.831681 -0.935145 0.438197 0.118250 -0.225480 0.686342 -0.703139 -0.433967 -0.191656 -0.688447 0.335354 -0.242069 -0.771769 -0.738882 -0.038867 -0.728151 -0.688803 0.117191 0.836888 -0.604472 0.328046 -0.346208 0.617462 0.049773 0.872655 -0.085831 -0.575574 -0.980166 -0.910884 0.272488 0.289330 -0.742564 0.337343 -0.272473 0.375685 -0.888137 -0.586131 0.672546 -0.322104 0.222214 0.984099 -0.986750 0.980145 -0.787671 -0.725632 -0.058723 -0.515822 -0.414435 -0.941532 -0.678934 -0.018908 0.386514 -0.025141 -0.401445 -0.563712 -0.152486 0.512724 -0.139286 -0.132652 0.601840 -0.866798 -0.843322 0.859276 0.470544 -0.115794 0.234961 0.582407 0.298075 -0.092493 -0.739697 -0.479712 -0.108395 -0.726447 -0.499567 0.103934 -0.452079 0.441710 0.588113 0.133486 0.500178 0.909179 -0.885422 -0.113308 -0.115963 -0.286867 0.322980 0.731551 -0.774143 -0.816306 -0.401101 0.827697 -0.683105 -0.244422 0.686973 0.787439 0.639783 -0.078066 0.369846 -0.062142 0.829441 0.630149 0.458146 -0.278954 0.903703 0.958579 0.824981 -0.548377 0.400289 0.413093 0.585109 -0.099532 0.322272 0.699688 0.787160 -0.793691 -0.587179 0.110140 0.937860 -0.361322 0.293833 -0.463241 -0.533625 0.610729 0.292337 -0.846652 0.398168 -0.067880 0.075282 -0.231986 0.869978 -0.095277 -0.601836 0.328125 0.625769 -0.698134 0.286704 0.450750 -0.246510 -0.313006 -0.136157 -0.661401 0.587461 -0.813885 -0.961713 0.374621 -0.607576 -0.548892 -0.515239 -0.669715 0.089785 0.778594 -0.132956 0.556160 0.389323 -0.840619 0.709509 -0.212509 0.091502 -0.215209 0.555506 -0.038520 0.689514 0.953669 -0.710395 0.315284 -0.744464 0.576309 -0.233966 0.009026 -0.736697 0.629877 0.347625 0.850764 0.815992 0.385911 0.225385 -0.791583 0.837019 0.710146 -0.461299 -0.073196 0.488740 0.405746 -0.517036 -0.121937 0.565127 -0.807527 0.665555 -0.343372 -0.022736 0.221060 0.618108 -0.333222 0.174730 0.907713 0.982062 0.430265 0.484022 -0.251905 -0.560709 0.747325 -0.622028 0.786915 0.598089 -0.806036 0.172827 -0.176527 -0.597619 0.009846 -0.466381 -0.058918 0.936650 -0.977641 -0.653172 -0.580386 -0.099577 0.911954 -0.387913 -0.434023 -0.431417 0.589351 0.787037 -0.813309 -0.743871 -0.038233 -0.905595 -0.761810 -0.607968 0.578427 -0.013715 -0.168677 0.325752 0.364257 -0.381761 -0.076160 0.558221 0.791065 0.747313 0.960602 -0.199089 -0.719067 -0.098316 -0.262439 -0.696708 0.248512 0.157175 0.203715 0.160466 0.769262 0.769692 0.729049 0.358612 0.556729 0.915740 0.614741 -0.481504 -0.989855 0.852931 -0.089471 0.588572 -0.160784 0.741852 -0.085677 -0.796527 -0.639910 0.838163 0.761695 -0.848844 0.585477 0.722297 -0.047933 0.866409 -0.376019 0.689628 -0.830299 0.872493 -0.153198 0.373416 0.032959 -0.383936 0.143108 -0.237992 0.974677 -0.300163 -0.322251 0.589418 0.218334 -0.312106 0.442349 -0.871138 -0.723535 -0.718435 0.870714 0.190788 -0.514961 -0.769195 0.028952 -0.753267 -0.618040 -0.385572 0.969030 0.334027 -0.519163 -0.406989 0.023655 -0.349461 -0.534496 0.870457 -0.976046 0.498464 -0.513479 0.167062 -0.739528 -0.538802 0.866899 -0.061779 -0.949384 0.085233 0.626115 0.492965 0.214095 0.902580 0.774530 0.084809 0.093368 -0.740432 0.315614 -0.877680 -0.493698 0.697574 -0.263252 -0.524668 0.031601 0.217586 0.068343 -0.944744 0.868124 0.533848 0.925713 0.892079 0.032312 -0.587766 0.059141 0.292784 -0.126567 -0.073960 -0.768995 -0.075952 -0.988727 0.857120 -0.582987 0.225368 0.759700 -0.808457 -0.689822 -0.146932 -0.548889 0.625791 -0.024612 -0.042587 0.323366 0.712137 0.432745 -0.645033 -0.070277 -0.498911 -0.589777 -0.202153 -0.965064 -0.664064 -0.310074 0.067248 -0.251830 0.749067 -0.639968 0.621602 -0.324893 -0.408963 -0.454349 -0.313620 -0.551843 -0.037336 0.911749 -0.792143 0.154207 -0.778073 0.060925 0.605318 0.847718 -0.963687 -0.437269 0.171084 0.748450 0.995476 0.526050 -0.321827 -0.503435 0.936273 0.476020 -0.468499 -0.727792 -0.834054 0.598749 0.020378 0.915013 0.958782 -0.358019 -0.409880 -0.450181 0.187631 0.276501 -0.002024 -0.849705 0.188250 0.205832 0.304502 0.410176 -0.733243 -0.090179 0.257894 -0.696929 0.472552 -0.571022 -0.948479 0.468028 0.955028 -0.270306 0.964593 0.891301 -0.794286 -0.503905 -0.836491 -0.628340 -0.905156 0.183887 -0.713327 -0.946374 0.825868 -0.123206 -0.396556 0.013499 -0.846705 0.601420 0.163795 0.341544 -0.192747 -0.531703 -0.248280 0.074010 0.378118 -0.990386 0.377081 -0.149330 -0.561408 0.428602 -0.681301 -0.606380 -0.841704 -0.716708 -0.715079 -0.635990 -0.220614 -0.551570 -0.264330 -0.125769 0.632317 0.022344 -0.072144 0.458185 0.899138 0.531301 -0.528316 -0.947568 0.132721 0.635479 0.393976 0.939973 -0.896223 -0.854303 0.013983 0.481895 -0.844689 -0.608936 -0.667435 -0.406096 0.819666 -0.348737 -0.012476 0.977962 -0.065445 0.272444 -0.658028 0.713941 0.720874 0.077642 -0.411828 0.353191 -0.900014 0.516028 -0.188624 0.999124 0.047329 0.283061 -0.948444 -0.819951 -0.081460 0.445533 -0.879978 0.022317 0.591230 0.134005 -0.495789 0.746541 0.525069 -0.163224 -0.659556 0.344735 0.488039 0.327968 0.322697 -0.577406 -0.399588 0.664669 -0.863465 -0.678713 -0.257689 -0.275293 0.674478 -0.157703 -0.759265 -0.514146 -0.158579 0.288064 0.768915 -0.107022 0.468113 -0.312545 -0.661490 0.588136 0.709772 0.929740 -0.277859 -0.786017 0.676281 -0.752789 0.050759 -0.983275 0.591946 -0.461202 0.344693 -0.085358 -0.038608 0.945106 -0.420689 0.097927 -0.733608 0.321622 0.822635 0.940870 -0.836080 -0.936630 -0.573276 0.005341 0.351434 -0.804361 0.898318 -0.180452 -0.116906 -0.763171 -0.592317 -0.407134 -0.833431 0.129824 -0.193151 0.842849 0.377035 0.857607 0.859574 -0.031019 -0.603595 0.204268 0.883623 0.357797 0.149373 -0.537066 -0.544276 0.415765 0.784556 -0.721641 0.356635 0.948476 -0.658271 0.783360 -0.046183 0.693163 0.978999 -0.147865 -0.487290 -0.137907 0.088964 -0.079606 0.454959 0.255533 -0.949782 -0.738193 0.098382 0.427253 -0.880586 -0.042044 -0.603766 -0.484181 -0.837776 -0.720143 0.873616 0.311597 -0.257209 -0.670660 -0.272638 -0.472652 -0.392301 -0.916002 -0.524176 -0.050573 0.867357 0.429641 -0.357410 0.846356 -0.718224 0.155301 -0.291551 0.370740 -0.924306 -0.836592 -0.373727 -0.874087 -0.574785 0.724655 0.553166 -0.455370 -0.317389 0.949400 0.060449 -0.155165 -0.770743 -0.065935 -0.843568 -0.027952 0.263405 -0.116205 0.499395 0.871104 -0.032208 0.975219 -0.179469 -0.164850 0.404859 0.463122 -0.318494 0.686635 -0.381578 0.389955 0.057376 -0.305883 0.553363 0.683649 -0.179971 0.978579 0.408303 -0.626805 
-0.476791 -0.909086 -0.677405 0.583658 -0.064250 -0.448148 -0.482277 0.092182 0.523899 0.781128 0.975976 0.023295 0.652232 -0.056232 -0.001487 -0.527236 0.778918 -0.596627 0.935885 -0.539576 -0.909992 -0.445692 0.850380 0.147384 0.248424 0.403743 -0.168967 -0.931546 0.382322 -0.760664 -0.558351 0.905531 -0.669750 -0.235756 0.489188 0.266000 0.316095 -0.993089 -0.641819 -0.160005 0.788040 -0.665842 0.863289 0.440272 0.277926 -0.138197 0.913036 0.056844 0.265175 0.848921 0.517269 0.355184 -0.596771 0.367648 -0.497432 0.651653 -0.228609 0.333600 0.720106 -0.846287 0.572936 -0.838245 -0.940756 0.903187 -0.074001 0.548432 0.169186 -0.757906 0.555343 0.527368 0.082089 0.343383 0.861525 -0.054622 -0.216345 0.139452 0.807180 -0.303309 -0.803704 0.072356 -0.454388 0.713564 -0.572460 -0.051159 0.081213 -0.069893 -0.399506 0.852604 -0.736292 -0.679399 -0.993683 0.836644 -0.517644 -0.934439 0.739830 0.408355 0.613993 -0.090983 0.650449 0.169336 -0.563616 -0.267463 -0.487281 -0.702090 0.677915 0.296375 0.437361 0.485096 0.993066 0.633657 -0.442549 -0.461322 0.347221 -0.015009 0.487520 -0.571566 0.915098 -0.911986 -0.718962 -0.821194 -0.591386 -0.712645 -0.984550 -0.109030 -0.647084 0.755280 -0.700676 0.966908 -0.335704 0.949773 0.136245 0.100681 -0.317690 0.648964 0.398590 -0.639775 -0.054661 -0.164048 0.845321 -0.061595 -0.530391 -0.597228 0.477084 0.816830 0.387763 -0.035397 -0.754736 0.302862 0.052617 -0.473699 0.481667 0.461231 -0.186344 0.497117 -0.647800 0.166572 0.252397 -0.348475 0.133480 0.916693 -0.398702 -0.730275 0.017373 0.283608 0.918689 -0.584036 0.643834 -0.135972 0.251915 0.489155 0.802433 0.721524 0.891927 0.279517 0.538354 0.279690 -0.755880 0.783618 -0.417448 0.296737 -0.690081 -0.935780 -0.242033 0.123575 0.561337 0.110168 -0.709853 -0.186267 0.761692 0.423627 -0.269574 -0.637010 0.693353 0.747799 0.646598 0.612042 -0.836237 0.290432 -0.523930 0.415678 -0.220413 -0.721496 0.137202 -0.328486 0.558021 -0.324444 0.951204 0.802141 -0.540827 -0.466244 0.098877 -0.230908 -0.402024 0.856845 0.892668 -0.840688 -0.032988 -0.817185 -0.026955 -0.271295 0.606442 0.703471 0.091695 0.299795 0.451270 -0.261707 -0.088163 0.615033 -0.971275 0.387907 0.030712 -0.191688 0.666411 -0.832087 0.479825 0.224431 -0.156531 0.431029 0.026572 0.302642 0.964785 -0.874551 -0.928265 -0.437239 0.982294 0.964402 -0.277927 -0.050694 -0.852783 0.695118 0.678011 0.753659 0.398589 -0.230294 0.053454 -0.150141 0.507999 0.965290 -0.535107 0.536724 0.353197 0.495604 -0.654964 0.019608 0.663518 0.824861 -0.755961 -0.493013 0.255890 0.270611 0.809629 0.220675 0.396060 0.881364 0.783436 0.378354 0.845766 -0.494492 -0.672339 0.992983 -0.799374 -0.994328 0.746642 0.599215 -0.224623 -0.199905 -0.550926 -0.716623 -0.234614 -0.086033 0.820101 -0.881417 -0.590429 -0.834864 0.138191 -0.926911 0.989997 0.382230 -0.419924 0.245887 -0.347158 -0.610295 -0.533438 -0.951098 -0.728931 -0.750002 0.427256 -0.883165 -0.244494 0.754917 -0.890182 -0.043868 0.760588 0.856459 -0.444653 -0.464034 -0.343445 0.004421 -0.180658 0.421941 0.918388 -0.360557 0.540524 -0.672040 -0.195421 -0.321285 -0.598951 -0.205424 -0.939054 -0.018875 -0.959536 -0.286213 0.370830 -0.492974 -0.237311 0.641899 -0.242977 -0.810054 0.758734 0.512529 0.944862 0.868552 -0.531339 0.705451 0.725011 0.024008 -0.758584 -0.618434 -0.971571 0.060758 0.803507 0.946817 0.700201 0.344031 -0.725223 -0.495220 -0.977254 -0.324174 0.299357 -0.916308 0.656951 0.339821 -0.202521 0.027781 0.846846 0.560169 -0.330320 -0.396130 0.750114 -0.571586 -0.883601 0.694977 -0.703034 -0.414940 0.400427 -0.978023 0.609068 0.641844 -0.596456 0.637497 -0.297398 -0.792949 0.584314 -0.597197 0.551081 0.859091 -0.092416 0.573828 -0.465083 -0.793059 0.657520 -0.808133 0.546761 -0.545001 0.219648 0.393607 -0.984832 0.889328 0.997477 0.765282 -0.682258 -0.886124 0.460258 -0.385292 -0.301063 -0.139314 -0.363314 -0.691995 -0.497471 0.040229 0.945502 0.205131 0.247280 0.529816 0.607935 -0.201639 0.388907 -0.484482 -0.627811 0.923824 -0.277541 -0.970292 -0.884309 -0.730780 -0.515293 0.335338 0.662828 -0.500125 0.224666 0.660305 -0.734844 0.542408 0.774181 0.725415 -0.842884 -0.526882 -0.413899 -0.206198 -0.218878 0.088630 0.834031 -0.273376 -0.706238 0.081311 -0.743560 0.901696 0.879672 0.645347 -0.582785 -0.748139 0.569171 0.139674 -0.718431 0.684862 0.408894 -0.233724 0.020200 0.071722 0.266151 -0.755134 -0.267973 0.531307 0.787275 -0.493792 0.256722 0.944391 -0.020674 0.842823 -0.261807 0.760448 -0.068547 -0.427776 -0.512928 0.225215 0.653535 -0.256487 0.126911 0.533207 -0.611140 0.544126 0.785068 0.958031 -0.316200 -0.933363 0.642893 -0.907305 -0.167087 -0.336907 0.164416 -0.900936 -0.092040 0.896443 0.630371 -0.304766 -0.597349 -0.112907 -0.360375 0.381977 -0.270084 0.377818 0.142425 0.661369 0.950043 0.629498 -0.113416 0.603578 -0.626989 -0.986505 0.136786 -0.238129 0.557621 -0.078146 -0.280098 -0.758578 -0.011509 -0.637204 -0.665884 0.821404 0.025889 0.498533 0.920468 0.933848 0.394976 0.550839 -0.370917 0.797627 -0.562068 0.268708 0.179604 0.167848 -0.353474 -0.677970 -0.170783 -0.403431 0.951527 0.715801 -0.799852 -0.675462 0.729297 0.336933 0.086409 0.286918 -0.741213 0.806311 0.528340 0.247278 -0.830893 0.862456 0.068682 0.194995 0.360989 -0.010851 0.128844 -0.244035 -0.460012 0.757926 -0.446408 -0.022080 0.026634 0.733197 -0.854232 0.673160 -0.944774 -0.025015 -0.730270 -0.993246 -0.309213 -0.530123 -0.668709 -0.579917 0.806810 0.417700 0.707002 -0.934403 0.224011 0.235341 0.312875 0.393118 0.097798 -0.618443 -0.411886 -0.541214 0.370706 0.716957 0.214751 0.910694 0.474884 0.768343 -0.111386 -0.498482 0.501540 0.034382 -0.825322 0.556766 -0.990633 -0.555592 0.563520 -0.299846 -0.085715 0.894811 0.120237 -0.278905 0.312511 -0.172761 -0.213308 -0.463477 -0.937420 -0.900433 0.929641 0.160378 -0.518876 -0.482246 0.619164 0.851830 -0.765288 -0.166085 0.762524 0.709595 -0.397741 -0.348862 -0.788887 -0.896201 0.685519 -0.614209 0.660565 0.694887 -0.169801 0.224085 -0.604959 0.744483 0.118896 0.515278 -0.534422 -0.568593 -0.657483 0.252271 -0.032070 -0.594903 0.351838 -0.102429 0.565475 0.832962 0.415325 0.184640 0.684792 0.650037 -0.981445 0.447316 0.359632 -0.379186 -0.901547 0.570746 -0.275388 0.783973 0.956537 -0.614823 0.478860 -0.213265 0.609262 0.873900 -0.468782 -0.271842 0.389178 -0.003204 0.159565 0.731695 -0.750933 -0.872506 -0.863208 0.600905 0.025065 0.702268 0.433867 -0.559610 -0.113093 0.118659 -0.909573 -0.094538 -0.434025 0.450060 0.526276 -0.335572 0.020805 -0.749112 -0.551599 -0.022658 -0.363935 0.927261 0.764077 -0.754673 0.801161 -0.704705 -0.026515 0.190339 0.292092 -0.866950 -0.077966 0.541159 -0.739456 0.058827 0.142064 0.285609 -0.238905 -0.424069 0.725999 0.648002 0.694590 0.816427 -0.446536 -0.739435 0.266487 -0.920260 -0.075007 -0.712708 -0.669372 0.373394 0.264634 -0.033306 0.300655 0.028711 0.212021 0.101816 0.324006 -0.814494 -0.707845 -0.383902 -0.681444 0.214189 -0.842743 -0.420900 -0.726984 0.299320 0.864709 0.034110 0.875251 0.590708 -0.317888 0.569840 0.407135 0.235576 0.830405 -0.326378 0.315316 -0.244602 -0.039086 0.645945 -0.871208 -0.774452 -0.387362 0.429447 0.254259 0.824660 -0.468737 -0.421735 -0.989834 -0.176583 0.194363 -0.671279 -0.962394 0.351620 -0.092179 -0.689378 -0.349060 -0.227470 0.344733 -0.473809 -0.636762 -0.973155 -0.903969 0.770373 0.262421 0.926436 -0.556006 -0.422262 -0.318166 0.404908 -0.776318 -0.189374 0.630456 -0.163679 -0.759927 -0.115286 -0.339020 -0.228665 0.462979 -0.328854 0.594753 -0.342657 -0.000133 0.632359 -0.991038 0.907688 0.942981 -0.340098 -0.319782 0.287714 0.186093 0.043456 0.314559 0.282124 -0.186172 -0.423020 0.208561 0.257823 0.154718 0.890395 -0.337269 0.378400 -0.298979 -0.706814 -0.785279 -0.058906 0.177901 -0.124299 0.712429 -0.359120 0.546847 0.307182 0.298223 -0.453285 -0.060459 0.307185 -0.545597 -0.117478 0.967088 0.134621 -0.829764 0.153181 -0.821924 0.484795 -0.564695 -0.008095 -0.938225 0.643865 -0.750273 0.216493 0.534260 -0.087542 -0.405107 -0.764719 0.205644 -0.190386 0.176374 -0.616455 0.685316 -0.111197 0.024425 0.232163 -0.804015 -0.677353 0.778878 0.135526 0.629833 -0.766719 -0.981951 0.596920 0.367902 -0.811715 -0.249899 0.545978 0.673080 0.185406 -0.462117 0.734856 -0.170729 -0.212390 -0.048651 -0.636469 0.700068 0.546242 -0.401188 -0.094288 -0.644143 0.775186 0.289257 -0.958828 -0.336010 -0.686318 0.273335 -0.140025 -0.363671 0.052213 0.995501 -0.733838 0.285494 -0.986450 0.863082 -0.346604 -0.798165 -0.386818 -0.800626 0.874915 0.798588 -0.262744 0.609771 -0.372141 0.524867 -0.438880 -0.008610 0.224935 -0.892638 0.590202 -0.869353 -0.536781 0.365388 0.419904 -0.495609 -0.970622 0.733585 0.777726 -0.110647 -0.630086 -0.170060 -0.115145 -0.363924 -0.884566 -0.101596 -0.500842 -0.231170 0.100239 0.112340 -0.031797 -0.024846 -0.089072 0.705460 -0.415076 0.538787 0.230326 0.146044 -0.469823 -0.544739 0.253406 -0.879621 -0.414092 0.716625 0.485768 -0.994189 -0.778984 0.515146 0.739396 0.998742 -0.595501 -0.890689 -0.171318 0.289354 -0.254613 -0.055884 -0.812242 0.244545 0.712946 0.287997 -0.643115 -0.318851 -0.736849 0.267813 -0.613391 -0.151925 -0.193399 0.616936 0.994119 0.336778 -0.927804 0.247525 0.457157 -0.341896 -0.035850 -0.057075 -0.336085 0.185166 -0.541929 -0.596688 0.183908 -0.137429 -0.487378 -0.987410 -0.848075 0.258009 -0.043294 -0.660317 -0.497446 -0.330348 0.627680 -0.140561 0.350801 0.890831 -0.872748 0.737411 -0.261094 -0.066147 0.354346 -0.266975 -0.729369 0.426543 0.980551 0.727788 -0.915353 -0.055299 -0.329287 -0.251438 -0.870133 0.128785 0.151874 0.313775 0.991355 0.664496 0.326366 -0.856720 -0.077495 -0.716928 -0.517037 0.425059 -0.047276 -0.889358 -0.715502 -0.696474 -0.998527 -0.588250 -0.959064 -0.259621 0.345603 0.395283 0.473404 0.616233 -0.178175 0.453955 0.344021 -0.093528 -0.601344 -0.985265 0.655034 -0.471477 0.143519 -0.193092 0.842298 0.134875 -0.528596 0.168664 0.278155 0.393909 0.451736 0.761117 -0.181032 -0.595540 0.871760 0.103466 -0.292014 0.873232 0.515217 -0.251078 -0.386389 -0.139181 -0.855795 -0.912984 -0.522947 -0.033970 0.540971 0.821074 0.872502 0.939627 0.835809 0.527536 -0.531850 -0.020672 -0.665556 -0.689552 -0.885797 -0.194152 0.479112 0.392357 -0.800243 -0.069152 0.153475 0.018725 0.335308 0.025234 -0.877808 -0.956706 -0.101533 0.637408 -0.207783 0.512078 -0.501772 -0.063579 0.599093 -0.024720 0.902451 0.140064 -0.203646 0.774953 0.079691 -0.367837 0.302490 0.547840 0.611491 0.636934 0.858288 0.725693 -0.557219 0.337401 0.118051 -0.357462 -0.731751 -0.728475 0.661264 0.603557 0.296759 0.783456 0.646851 -0.804774 0.420864 -0.560932 0.707304 0.919091 0.375489 0.306397 -0.105628 0.277941 -0.553539 0.690726 0.052894 0.526152 -0.677112 -0.644616 0.073992 0.934379 0.992318 -0.067720 0.660073 -0.564901 -0.730319 -0.221877 0.077637 -0.462070 0.049649 -0.261099 -0.858513 -0.653592 -0.477643 0.788338 -0.458366 0.943221 -0.772594 -0.751062 0.862312 0.602896 0.555335 -0.243316 -0.119164 -0.998204 -0.552590 0.933731 0.527948 -0.229702 -0.710885 -0.398060 -0.295323 -0.718568 0.534221 -0.635250 -0.283469 0.803902 0.142873 0.794169 -0.658169 -0.807478 -0.466930 -0.516682 -0.461070 0.055427 -0.728343 0.080564 -0.001352 -0.500937 0.329502 -0.139040 -0.898041 -0.115163 0.617644 -0.017205 -0.113366 -0.934947 -0.083474 -0.585418 -0.164649 0.205640 0.016522 0.540028 0.487072 -0.449257 0.904778 -0.796396 -0.645356 0.047651 0.997772 -0.303524 0.240173 -0.469158 0.179794 0.779103 0.586269 0.451451 -0.140333 -0.415084 0.950514 -0.810831 0.445876 -0.947527 0.074007 0.063520 0.035268 0.960641 0.128573 0.951794 -0.624777 0.963925 0.157434 0.391745 0.503953 -0.355493 0.942487 0.408731 -0.151890 -0.702869 -0.543618 -0.154118 -0.006393 0.696554 0.376724 -0.826599 0.475657 -0.037007 0.624852 -0.664676 0.547909 0.575366 -0.475506 -0.006215 0.627839 0.598500 -0.942695 -0.336893 0.559141 0.185878 -0.385100 0.934364 0.149803 0.772335 0.326108 -0.346245 -0.583158 0.268595 -0.937514 0.264952 0.565727 -0.481132 -0.889166 -0.440667 -0.784578 0.487558 -0.267266 0.691079 -0.549449 -0.642414 -0.973597 0.998460 0.932952 -0.449103 -0.007755 0.560791 -0.850603 0.049550 -0.776103 0.708539 -0.764572 -0.161202 0.642902 0.385230 -0.388868 -0.030990 -0.961014 0.027974 -0.762395 -0.898528 -0.707074 0.803332 -0.379661 -0.596240 -0.637335 -0.164239 0.891318 0.095400 -0.473160 -0.658131 0.452986 -0.446756 -0.659671 0.385938 0.104141 0.332574 -0.053271 0.253538 -0.617876 0.170626 -0.037923 -0.382448 -0.990577 -0.395021 -0.997218 -0.379444 0.573989 -0.958232 0.648530 0.811595 -0.856760 0.941456 0.614926 -0.236421 -0.654784 0.977592 0.599341 -0.763466 0.072991 -0.873819 -0.421596 -0.474023 -0.320575 -0.081267 0.911915 0.783566 -0.748693 -0.141356 0.037104 -0.366569 -0.970730 0.999181 0.250982 -0.961307 -0.395840 0.253765 -0.340751 -0.821851 0.295532 -0.692222 0.989744 0.438772 -0.750766 0.604670 -0.797649 -0.405550 0.582262 0.801692 -0.169016 -0.344747 0.927873 0.409387 0.181231 -0.392702 -0.671880 0.093146 -0.609136 -0.420573 0.951790 0.427968 0.212858 0.981060 0.427149 -0.536159 -0.980247 -0.968691 0.717605 -0.320999 -0.790541 0.013138 -0.013220 -0.800798 -0.548090 0.236013 0.803873 -0.345739 0.830463 0.386135 -0.544047 -0.338553 -0.958612 -0.616173 -0.929166 0.222619 -0.008875 -0.601046 -0.684235 0.381989 -0.021618 -0.732444 -0.190043 -0.808760 -0.751385 -0.762894 -0.344919 -0.731632 -0.731585 -0.627314 -0.052630 -0.522126 0.385824 0.934149 -0.322923 0.837734 0.170163 -0.519051 -0.508005 0.000626 0.867084 -0.052052 0.662073 0.908472 0.331775 0.732907 0.131091 -0.677100 -0.868139 0.446856 0.704888 0.110243 0.714411 -0.485155 0.301483 0.963027 -0.248049 0.956564 -0.768605 0.020367 -0.670750 0.178765 0.498241 0.715073 0.112914 -0.824683 0.552807 -0.716923 -0.343734 -0.955199 0.283703 -0.476650 -0.007250 -0.054225 -0.568178 -0.675475 -0.321318 0.562912 -0.352576 -0.189457 0.009768 -0.647688 0.920786 -0.275821 -0.132842 0.222269 -0.312794 0.619109 0.178832 -0.081399 -0.360525 0.508082 -0.902634 -0.862284 0.223155 0.210280 -0.686967 -0.224038 0.493357 -0.030700 -0.179237 -0.222941 0.492650 0.813513 0.722834 0.924472 -0.861963 -0.598484 0.487384 -0.214539 0.212059 -0.502848 0.137774 0.132845 0.221332 -0.995068 -0.644886 0.908538 0.624040 0.533946 -0.172861 -0.736484 0.042028 -0.075495 -0.598768 -0.734817 -0.865216 -0.285735 0.041145 0.628141 0.683565 0.861907 -0.594800 0.176215 0.675420 -0.871965 0.100686 0.813457 -0.470449 -0.411929 -0.401081 0.741610 0.085223 0.736693 -0.125544 -0.693445 0.741624 0.229570 -0.784908 0.365665 -0.236484 0.042231 0.629180 0.805544 0.966736 -0.969588 -0.929273 -0.898479 -0.255323 0.111872 0.729662 -0.571759 -0.026221 -0.865138 0.604456 -0.350801 -0.737104 -0.294857 -0.537343 -0.207553 0.293213 0.061575 -0.465942 -0.621564 -0.201732 0.408513 -0.315009 -0.460107 -0.361917 -0.099917 0.905557 0.401599 0.942315 0.534737 0.207143 0.909051 0.565149 0.277870 -0.989429 -0.690174 -0.610259 0.740233 -0.261933 0.363520 0.875095 -0.657477 -0.987281 -0.862009 0.047666 -0.524624 -0.069561 -0.659121 0.536951 0.464496 -0.280685 -0.664780 -0.126990 0.404306 -0.124888 0.511093 -0.695610 -0.219330 -0.087309 -0.753295 -0.684593 -0.880166 -0.844244 0.880556 0.397703 -0.833673 -0.809619 0.787445 0.906560 -0.071551 0.150965 0.781655 0.270972 0.163684 0.919646 -0.681362 0.639060 -0.149915 -0.340483 0.176012 -0.685419 0.378833 0.511231 0.187591 -0.216861 -0.613656 -0.301316 0.087529 0.167013 0.611375 0.334233 0.482420 0.731209 0.489989 0.362976 0.128913 0.656316 0.553357 -0.083643 0.562876 -0.518194 -0.932678 0.344531 0.752778 0.231006 0.264177 -0.928584 -0.129933 -0.885738 -0.269067 -0.953922 -0.571157 -0.890235 0.557310 0.616435 -0.107096 0.943653 -0.684881 0.980433 0.110667 0.926494 0.314667 -0.406913 0.657703 -0.195344 0.956062 -0.213385 -0.539028 0.509420 0.702973 -0.976152 0.991226 0.770295 0.368379 0.744004 0.001301 -0.367444 0.815419 0.871368 -0.253182 -0.453648 0.917446 0.175661 -0.343882 0.474756 -0.207904 0.549022 0.418409 0.107215 0.529456 -0.470924 0.033708 -0.155878 0.122163 -0.308589 0.648778 0.078225 0.478027 -0.890251 -0.412355 0.180999 -0.866403 -0.421129 -0.048706 0.501975 -0.677126 0.952595 -0.865469 -0.861706 0.823963 -0.118651 -0.315354 0.741409 -0.942990 0.340764 0.216165 -0.150894 -0.110214 -0.365426 0.956321 -0.580758 0.163650 -0.009971 0.263364 -0.714188 0.681440 -0.087858 0.364037 0.159467 0.021891 0.951682 -0.659534 0.155488 -0.469447 0.291760 -0.342537 -0.146573 0.244355 -0.208005 -0.008279 0.068318 0.673343 0.676367 -0.190273 0.730354 0.017131 -0.974109 -0.420540 0.906917 -0.339535 -0.464219 -0.673841 0.824115 0.525810 0.589523 -0.890072 0.207250 -0.498335 0.473965 -0.633283 0.523556 0.425647 -0.292817 -0.320956 0.956200 0.998943 0.336507 -0.190373 0.243298 -0.871498 0.801348 -0.688384 0.801845 0.477715 0.121343 0.532199 -0.505154 0.147234 -0.888341 -0.598237 0.807700 -0.352561 -0.272078 0.631815 -0.826751 -0.682555 0.741743 0.380500 -0.180890 0.215708 0.747217 -0.657335 -0.358645 -0.545599 0.021709 -0.402445 -0.546656 -0.641784 0.407182 0.696642 -0.513282 0.208531 -0.991742 -0.711437 -0.313754 0.129601 0.820762 0.181092 -0.723164 0.932421 0.582855 -0.915465 -0.420139 -0.689223 0.716350 -0.246890 -0.371778 0.458093 -0.866390 0.447332 -0.326199 0.880827 0.789997 0.315156 -0.664773 -0.188294 0.912711 -0.211429 0.169923 0.319893 -0.514786 0.656641 -0.471576 -0.506528 0.945204 0.214670 0.623074 0.765966 -0.604238 0.899909 0.698388 0.978617 0.984444 -0.721752 -0.710606 0.700795 0.031358 -0.082384 0.158888 0.164968 -0.635052 0.832688 0.045795 -0.845055 0.147844 0.381023 -0.033349 0.060554 -0.830406 -0.863427 -0.619552 -0.345192 0.793214 -0.091128 0.148280 0.738418 -0.876459 -0.228646 0.504385 -0.480697 -0.328737 0.202772 -0.502081 -0.344293 0.481021 -0.212687 -0.643498 -0.487621 0.704929 0.515389 0.677347 -0.930124 0.348077 -0.276858 -0.775179 -0.504079 -0.895835 0.191472 0.556476 -0.726241 0.328045 0.936923 -0.071433 0.121259 -0.154205 -0.923153 -0.140322 -0.030664 -0.151800 -0.635938 0.488639 0.519463 0.566835 0.986558 -0.824830 0.047855 -0.226129 -0.468328 0.560234 -0.521200 -0.952939 0.237582 -0.451323 0.395139 0.960724 -0.226502 0.891060 -0.935111 0.964970 0.447535 -0.661352 0.293015 0.384459 0.267214 -0.585726 -0.769747 0.344061 0.273952 0.199589 -0.807739 0.638014 -0.311772 0.711725 0.204849 -0.325214 0.886895 -0.747296 0.448658 -0.581433 0.812939 0.927458 -0.534371 0.050521 -0.523866 0.860768 0.011245 0.249632 0.751827 0.076133 0.214602 0.199363 0.414781 -0.492383 -0.416179 -0.318005 -0.078109 -0.185925 -0.973944 -0.804157 -0.986336 -0.781682 0.833857 -0.298108 0.930042 0.038706 0.376679 0.816938 0.291411 -0.174664 -0.764495 0.104350 -0.247206 -0.298867 -0.845130 0.228929 -0.438099 0.166115 -0.521439 -0.686272 -0.757752 0.693163 0.513091 0.657029 -0.799221 -0.903087 -0.660976 0.122670 -0.089012 -0.634920 0.318514 -0.075348 -0.416602 0.152371 0.626544 -0.486560 -0.808923 0.003222 -0.669622 0.482488 0.828559 -0.434117 -0.413163 -0.418647 0.267016 -0.258293 0.810281 0.828917 0.907822 -0.711158 -0.857354 -0.849930 0.982004 0.655737 0.807099 -0.817216 0.752650 -0.853877 0.305454 -0.336363 -0.488797 -0.376032 0.588289 0.094601 0.776339 0.214833 0.608042 0.967416 -0.781945 0.938419 0.449904 -0.953386 -0.495698 -0.963259 -0.372033 0.771318 -0.221551 -0.561752 0.600235 -0.313729 -0.272910 0.742881 -0.163659 -0.290906 0.398618 -0.356561 -0.108122 0.151268 -0.210438 -0.802668 0.814905 0.300765 -0.178700 0.403194 -0.604633 -0.402362 -0.381973 -0.996592 -0.434946 -0.163918 0.941828 -0.985042 -0.117304 -0.553870 -0.948301 0.510663 -0.782552 -0.169852 0.948911 0.817684 0.516419 -0.323999 0.560565 -0.647241 0.385095 -0.040817 -0.003801 -0.723027 -0.889550 0.785761 -0.525695 0.925355 0.086526 0.295605 0.328549 0.481893 0.893244 0.946576 0.485301 -0.541702 -0.217342 0.427129 -0.526744 0.665354 0.873258 -0.475045 0.176017 -0.909294 0.355103 0.124928 0.908390 -0.128479 0.800929 0.468954 0.224280 0.186024 -0.571863 -0.779521 0.462997 -0.461413 -0.993760 0.937302 -0.536058 0.092766 0.232907 0.792491 -0.425341 0.126151 0.739067 -0.940040 0.584449 -0.478274 0.487089 -0.942296 -0.812920 0.360347 -0.417341 0.363097 0.451054 0.937762 -0.511975 0.359443 -0.190717 -0.711046 -0.171602 -0.966436 0.474978 0.256535 -0.745957 -0.062025 0.795122 -0.739717 -0.124723 -0.740936 0.353049 -0.891816 -0.948444 0.927708 0.234335 0.790623 0.987669 -0.181216 -0.687651 0.474757 -0.123512 -0.500571 -0.164895 0.459147 0.862526 -0.713842 0.396909 -0.649449 0.645602 -0.793808 -0.360495 -0.526001 -0.760245 -0.885517 0.730534 -0.506202 0.052457 0.525656 -0.245919 0.927734 0.784721 -0.892870 -0.964082 0.836276 -0.965162 0.270253 0.626900 -0.977493 -0.910963 0.939248 0.497264 -0.034475 -0.561323 -0.667631 -0.575328 -0.698797 -0.381473 0.821581 -0.348246 -0.735872 -0.972228 0.291259 -0.261872 -0.732472 0.405742 -0.531338 -0.238674 -0.541801 0.994318 0.515406 -0.614066 0.779039 0.622536 -0.578148 0.615315 0.657374 0.692105 0.242215 0.679881 0.781142 0.181463 0.177145 -0.253333 0.620141 0.509514 0.171339 0.921343 -0.871959 -0.007081 -0.426903 -0.607830 0.020692 0.864357 0.130297 0.288219 0.270098 0.598959 -0.950455 0.728298 0.593278 0.564952 -0.885769 0.372317 0.187488 -0.463917 -0.012368 -0.155138 -0.771811 -0.770153 -0.475256 -0.990669 0.411311 0.701889 -0.244002 0.031451 0.211403 0.927337 -0.047205 0.339444 -0.079743 0.525892 0.731614 0.940949 0.390249 -0.138089 0.229168 -0.339653 -0.539129 0.278713 -0.611355 -0.945851 -0.156335 -0.497123 0.426465 -0.968847 0.038960 -0.585902 -0.123985 0.267149 -0.356055 0.400759 0.276480 -0.944744 0.102648 -0.967521 0.086708 -0.685949 0.959816 -0.960497 0.653495 -0.119927 0.565395 0.385109 -0.178979 -0.044356 -0.752980 -0.949811 0.615991 -0.292109 0.328902 -0.995363 -0.237960 -0.827433 -0.492487 -0.811495 -0.796280 0.546474 -0.397397 0.079735 -0.186377 0.246548 -0.519506 -0.909897 0.301804 0.583141 -0.877419 -0.611488 0.897192 -0.917603 -0.571985 0.550687 -0.037530 0.993410 -0.064204 0.783491 -0.050946 0.182817 0.833680 -0.434955 0.890708 0.162583 -0.430318 -0.347253 0.335150 0.077195 -0.158748 0.538870 -0.376332 0.443855 -0.381395 0.437291 -0.309596 0.099099 0.527394 0.992208 -0.317760 0.649975 -0.619280 -0.420568 0.732372 -0.191265 -0.869881 -0.305158 -0.197855 0.065915 -0.521667 0.751198 -0.751269 -0.687987 -0.683757 -0.860561 0.474596 -0.114075 -0.207814 -0.190254 0.963120 0.633439 -0.651384 -0.413212 0.077294 -0.032779 -0.975921 0.767698 -0.933680 0.551472 0.759906 -0.251440 0.201447 -0.859374 0.327991 -0.066180 -0.050639 0.458110 0.628662 0.751506 -0.475975 -0.893005 0.502705 -0.227244 -0.580992 0.818948 -0.087805 0.893604 -0.295127 0.704382 -0.296650 -0.332007 0.337821 0.051966 0.254781 -0.584885 -0.980813 0.278859 -0.817187 -0.914493 -0.169668 0.942719 -0.165934 -0.968221 -0.916655 -0.837942 -0.034401 0.032706 0.620167 -0.405740 -0.215788 -0.855808 -0.298745 -0.713083 -0.083052 0.120263 -0.894135 0.829144 0.013867 -0.189262 0.533525 0.717216 0.478730 -0.128654 -0.230818 -0.266489 0.286461 -0.211630 -0.987630 0.469274 -0.126123 -0.157298 0.411993 0.707943 -0.125518 0.495338 0.870001 0.840080 -0.471956 0.490168 -0.565659 0.312257 0.634360 0.135595 0.599174 -0.448691 -0.744142 0.705038 -0.619548 0.269725 -0.484224 0.913978 -0.013059 0.994506 -0.214676 0.756124 -0.271983 -0.928215 -0.455507 -0.259612 0.541059 0.418370 0.583090 -0.046948 0.126313 -0.542428 -0.551610 -0.003686 -0.702348 -0.023566 -0.513518 -0.268008 -0.711309 -0.879158 0.867588 0.887864 -0.327849 -0.876554 0.592903 0.052603 0.393170 -0.891321 -0.033419 -0.619889 -0.896815 0.751906 -0.863765 -0.168797 0.823691 -0.319272 0.571591 0.364750 -0.900902 0.154681 -0.682198 0.225411 0.612253 -0.233808 -0.778275 0.909905 0.742626 -0.291794 -0.358103 -0.968683 -0.170951 -0.490515 0.919181 0.501200 -0.367069 0.512084 -0.446197 -0.973899 0.620763 0.520384 -0.593787 0.723948 0.272290 -0.457553 
/
-0.444849 0.095981 0.223176 -0.873258 -0.539269 0.322274 0.281423 -0.221467 -0.452316 -0.106324 0.544724 -0.230591 -0.196420 0.287350 0.477616 0.445477 0.318667 -0.693336 0.954962 0.237848 0.807864 -0.412107 -0.250068 -0.638333 -0.386006 -0.629305 0.882051 0.020206 -0.905357 0.154341 0.562654 -0.350206 -0.749678 -0.214171 -0.223464 -0.288947 -0.891897 -0.942041 0.489585 -0.344212 -0.048366 0.034310 0.425197 0.755214 -0.678340 -0.097188 0.200692 0.640327 0.209476 0.155654 -0.121825 0.017340 0.743547 0.628107 0.379007 -0.642459 0.998802 0.261059 0.377747 -0.906555 -0.584600 -0.059599 -0.256761 -0.334278 0.726230 0.519775 0.376775 0.834333 0.577733 -0.133640 -0.509879 -0.470632 0.900670 0.915317 -0.715418 -0.777670 -0.181870 0.485274 0.862657 -0.972394 -0.359072 -0.259168 0.044946 -0.615526 -0.631061 -0.576046 -0.257985 -0.632259 0.685013 -0.880238 -0.538814 -0.899587 0.060163 0.204425 -0.233865 -0.213607 -0.275801 -0.857090 -0.379274 -0.698067 0.009271 0.110847 -0.168700 -0.090059 0.026165 0.115882 0.132271 0.844294 -0.398844 -0.005072 0.871900 0.242084 0.735761 -0.083153 0.626558 -0.895300 0.340801 -0.631427 -0.527559 0.025813 -0.511665 -0.066373 0.126226 0.548497 -0.861948 0.892361 -0.665110 -0.137749 -0.964729 -0.044383 0.164184 0.044542 -0.933536 0.995484 0.954483 0.092628 0.111366 0.086754 -0.063078 0.712523 -0.918317 -0.191177 -0.045394 0.817443 0.725670 -0.418835 0.922143 0.066470 -0.050262 -0.605415 -0.907717 0.438072 0.328212 0.218509 -0.013430 0.466263 0.110870 0.321460 -0.671486 0.146142 -0.722923 0.492698 -0.809316 -0.656460 0.488182 -0.854833 0.436168 -0.400452 0.231922 -0.626909 -0.687929 0.313604 0.181913 0.266677 0.131048 -0.092417 0.847842 0.053191 0.974053 -0.202421 0.447776 -0.933664 -0.764348 -0.224012 0.284845 0.222221 -0.757749 -0.604285 -0.456319 -0.429234 0.541857 -0.179242 -0.936536 0.732541 0.164298 0.551646 0.877708 -0.399533 -0.848806 0.109630 -0.026443 -0.536735 -0.576766 -0.844529 0.729942 0.554282 0.063054 0.577784 -0.392527 0.037106 -0.624637 -0.944751 0.103442 -0.388985 -0.168763 -0.611712 0.833237 0.073488 -0.215997 -0.623082 0.644253 -0.674140 0.197676 0.707717 -0.941599 -0.638026 0.259362 0.936109 -0.037559 0.410556 0.045739 0.935998 0.873821 0.468973 -0.908531 0.603763 0.023255 0.154522 0.181547 0.630728 -0.808371 0.556911 0.685977 0.295071 -0.832074 -0.482787 0.683359 -0.998837 0.590701 -0.532638 -0.621919 0.234954 -0.206779 0.575757 -0.057329 -0.148378 0.937731 -0.797967 -0.212269 -0.099828 0.612590 0.833470 -0.163830 0.486411 0.302443 -0.072362 0.090174 -0.674302 -0.917840 -0.728278 0.956426 -0.726211 0.828633 0.642402 0.568860 0.996559 -0.840384 0.252218 0.997721 0.750317 0.719580 -0.624198 -0.014729 -0.487199 0.951559 0.927942 0.364423 0.889289 -0.870024 -0.847845 -0.210539 0.742566 0.985625 0.625631 0.228977 0.288068 -0.446731 -0.680849 0.613765 -0.364571 -0.409127 0.570191 -0.090782 -0.580495 0.212593 -0.521922 -0.583936 0.372209 0.730296 -0.586215 0.122526 0.449876 -0.210413 -0.892202 0.962677 -0.258855 -0.964260 0.327100 -0.369565 -0.834284 0.479255 0.419896 0.908281 0.464880 0.045527 0.137258 -0.247053 0.598796 0.456409 -0.633287 -0.765775 -0.952719 0.936903 0.143443 -0.533214 0.149497 0.621520 -0.117150 -0.478294 0.351816 0.296635 0.644232 -0.198308 -0.913778 0.752029 -0.235631 -0.172633 0.787769 -0.908531 0.457802 0.953485 0.570724 -0.122302 0.861766 0.035604 0.923225 -0.000976 0.788551 0.522020 -0.544567 -0.844736 0.756245 -0.497286 -0.907833 -0.100312 -0.030500 0.241664 -0.478792 0.852350 0.763369 0.873025 0.148985 0.407601 -0.325283 0.235206 0.159631 0.439086 -0.937427 -0.052600 0.530555 0.520375 -0.099115 0.101279 -0.601928 -0.237349 -0.863117 -0.678703 0.761675 0.925434 0.843317 -0.782893 -0.919302 0.599562 -0.280179 -0.827135 -0.500750 0.689321 0.414528 0.020459 0.541671 0.177898 -0.106516 -0.309345 -0.414501 0.568201 0.925861 0.745129 0.007286 0.988434 -0.307471 -0.462159 0.508809 0.593414 0.639120 0.906882 -0.643935 0.776004 -0.771821 -0.882260 0.701438 -0.928504 -0.665152 0.782136 0.671058 0.054669 0.955001 -0.829691 -0.256010 0.369529 0.190767 -0.714339 -0.452573 -0.915749 -0.023684 0.132925 0.652451 -0.097822 -0.121945 -0.340262 -0.109388 0.570584 0.197579 -0.600579 0.163998 -0.163300 -0.693697 0.520063 -0.387297 -0.465519 0.637803 -0.685859 -0.394023 0.972650 -0.903723 -0.722965 0.027319 -0.948723 -0.552656 0.771309 0.420806 0.638111 -0.943030 0.968233 0.722362 0.033286 0.101158 0.374814 0.935463 0.979213 -0.965448 -0.173925 0.549797 0.232131 0.225496 -0.286206 -0.931170 0.531799 -0.766143 -0.318467 -0.933720 0.871660 -0.004326 -0.327742 0.844311 0.091951 -0.050707 -0.128370 0.143228 0.396637 -0.357061 -0.435966 0.034748 -0.300092 -0.467733 -0.242889 0.733194 0.633425 -0.868076 0.668657 0.612637 -0.833524 -0.505268 0.162434 0.398607 0.720228 0.876228 0.467437 0.252027 -0.889914 -0.851030 0.318307 0.981746 0.144644 0.990565 0.826057 -0.763406 -0.060142 -0.302313 0.379822 -0.663505 0.340626 0.943856 0.371243 -0.959466 -0.523877 -0.871646 0.773728 -0.890453 -0.739722 0.442384 0.722185 -0.573246 0.937116 -0.115381 0.825360 0.657344 -0.239153 0.292797 -0.090629 -0.129067 0.441767 -0.772322 -0.147321 -0.413589 -0.781757 -0.321264 -0.176995 0.158100 0.376423 -0.797172 0.494595 -0.282952 -0.853316 -0.134162 -0.242418 -0.377193 -0.005808 -0.468691 -0.267646 0.254470 0.973694 -0.545461 0.681224 0.910810 0.339157 0.506584 0.568154 -0.899996 -0.200619 -0.522475 -0.029063 -0.758852 -0.294797 0.823616 -0.172441 -0.076555 -0.497648 0.650565 -0.918454 0.878775 0.853392 0.576141 -0.404177 -0.999924 -0.558022 0.353405 -0.377117 0.436170 0.884714 0.355237 -0.309360 0.858408 0.809775 -0.628137 0.769218 0.148933 0.878447 0.337372 0.248937 -0.322172 0.814897 -0.780126 -0.081024 -0.479900 -0.956509 0.746535 0.443545 -0.454157 0.397100 0.525091 -0.575382 0.250492 0.101231 0.020441 0.250568 0.543210 -0.626154 0.873451 -0.020620 -0.741440 0.228688 0.670019 -0.883032 0.038463 -0.958118 0.886186 -0.812604 0.920329 0.223559 0.436333 -0.401843 0.038455 0.656207 0.517134 0.558555 0.699698 0.263669 0.002100 -0.754459 -0.339231 -0.472809 -0.329841 0.911261 0.628422 0.690599 0.161830 0.171632 -0.935555 0.035281 -0.848989 -0.676995 -0.736032 0.821030 -0.560026 0.302431 0.862912 -0.673840 0.489827 0.783242 0.549719 -0.073841 -0.618601 -0.411826 -0.417633 0.898533 -0.853271 -0.717936 0.162202 0.148829 -0.472395 0.822971 0.676020 0.197764 0.734232 0.304442 -0.111637 -0.103938 -0.523927 -0.047192 0.931343 -0.372915 0.275814 -0.804689 -0.551885 0.715787 0.497742 -0.688973 -0.958053 -0.012431 -0.905731 0.591666 0.913728 -0.524332 -0.820160 -0.503905 -0.625799 -0.673431 -0.221841 0.536402 0.475398 0.305764 0.359373 0.151418 -0.496472 0.093605 -0.544140 0.391891 0.989667 -0.068066 -0.655300 0.921010 0.559018 0.620513 -0.883679 -0.992867 0.336300 0.614063 -0.681840 0.378247 -0.398368 -0.587571 -0.030087 -0.484640 -0.111903 0.149753 0.011455 0.262298 0.476322 0.789615 -0.201300 -0.048279 0.095379 -0.841927 -0.896861 0.598907 0.251679 -0.441001 -0.009202 0.241346 0.490933 0.335498 0.162356 0.049951 -0.043989 0.278677 0.057084 -0.707689 -0.107260 0.375244 0.670559 0.494372 0.787674 -0.359528 -0.990267 -0.324229 0.790225 0.021188 0.938069 0.266547 -0.189197 -0.263231 -0.781732 0.906182 -0.105158 -0.678593 0.505089 -0.853479 -0.119594 -0.504113 0.387867 -0.628661 0.831385 -0.449777 0.421290 -0.212604 0.828900 -0.521626 0.079707 -0.278360 0.853618 -0.249734 -0.783988 0.641292 0.390738 -0.774256 -0.682937 0.180963 0.246932 -0.744868 -0.552490 -0.942265 -0.008098 -0.334222 0.963917 0.886744 -0.012815 0.469005 -0.966735 0.867591 0.964892 0.421132 -0.761070 0.796278 0.971354 0.660220 -0.416326 0.800254 -0.861407 0.663381 -0.478106 0.992212 -0.586353 -0.262095 0.633504 0.804384 -0.036350 0.950567 -0.014653 -0.789418 -0.794300 0.432857 -0.731683 0.197602 -0.901365 -0.767766 0.084346 0.085819 0.701239 0.117611 -0.046590 0.666132 -0.461257 0.192340 0.462409 -0.489903 -0.147440 -0.953917 -0.689649 -0.008847 0.709464 -0.167755 -0.016635 -0.876890 0.570150 -0.383131 0.927495 -0.466200 -0.432563 -0.087159 -0.255618 -0.226863 -0.654302 0.012700 0.970738 -0.555667 0.244934 0.055084 0.530152 -0.053827 -0.827305 -0.516438 -0.387695 -0.288563 0.675902 -0.925286 0.221534 -0.471538 -0.879203 0.531885 0.519615 0.830261 -0.635870 -0.497020 0.953372 0.934280 0.119850 0.880866 -0.531920 0.687286 -0.206292 0.212463 -0.539577 0.139406 -0.774838 -0.568839 0.583738 0.470096 0.486245 0.113890 -0.583731 0.658940 0.597452 0.028575 -0.629623 0.273355 0.103289 0.591912 0.801817 0.224086 0.123797 0.321432 0.054348 0.487927 0.824412 0.007719 0.422207 -0.055738 -0.111414 0.890287 -0.368452 0.682293 0.102750 0.091971 -0.178301 0.327912 0.523132 -0.594563 -0.201991 0.009377 0.519327 0.214278 -0.331683 0.116779 -0.757147 0.038695 -0.609866 0.346142 -0.369393 -0.808050 -0.429772 0.754404 0.513382 0.624576 0.242331 0.337795 -0.367705 -0.335462 -0.717943 0.520881 -0.445174 -0.086395 0.203174 0.657576 -0.994424 -0.975127 -0.014512 0.528708 -0.569690 0.783497 -0.461915 0.949637 -0.002225 0.206403 0.066416 0.240627 -0.754902 0.456550 -0.413231 -0.124296 0.648501 0.156997 -0.369892 0.161883 -0.218427 0.872439 -0.500322 0.413869 -0.463022 -0.218265 -0.065250 0.091803 0.695340 -0.862076 -0.250621 0.700915 -0.837203 0.734867 0.229623 -0.406893 0.518364 0.767709 -0.457256 -0.483861 -0.025889 0.609160 0.756766 0.219209 0.065711 -0.656465 -0.905087 -0.285789 0.500533 -0.274978 0.876094 -0.717894 -0.402539 -0.624228 0.695975 0.134438 0.157507 -0.369276 -0.773758 -0.147154 -0.231352 -0.024379 -0.446239 -0.068555 -0.289511 0.783385 0.524552 -0.771147 0.551093 -0.932704 -0.255008 -0.474795 0.676457 -0.498242 0.744414 -0.257833 -0.154707 0.839327 0.456379 -0.654174 -0.435651 0.332473 -0.372068 0.161810 0.708245 -0.676093 -0.703752 -0.134248 -0.045369 -0.477510 0.718598 0.723279 0.498112 -0.727641 -0.345275 -0.791400 -0.944256 -0.820723 -0.562547 0.606838 -0.753427 0.182445 -0.867958 0.923030 0.684202 0.876456 -0.334803 -0.470505 0.715784 -0.878424 -0.124679 -0.719867 0.454049 0.503253 0.441943 0.162294 0.827160 0.738191 -0.971955 -0.218209 -0.739319 0.746643 -0.494929 0.758793 -0.980998 0.159795 0.967393 -0.925253 0.339072 -0.595154 0.681584 0.585645 0.587290 0.813627 0.508675 0.271493 0.690083 -0.826128 0.800988 0.405867 -0.704552 -0.323691 0.686000 0.749496 -0.820437 0.127942 -0.088210 -0.993277 -0.133867 -0.060165 -0.211486 0.126814 -0.313521 0.293585 -0.114393 -0.294519 -0.546620 -0.147000 -0.219772 0.792452 0.257846 -0.538188 0.378097 -0.154864 -0.724562 -0.113228 -0.883371 0.965522 0.060644 0.917617 0.371388 0.356091 -0.406074 0.057388 0.105588 -0.226511 -0.814670 -0.982622 -0.219788 0.051464 -0.042787 0.568726 -0.821722 0.643692 -0.137689 0.063885 -0.650827 0.315690 0.916885 0.129401 0.108142 0.174731 0.591213 -0.513761 -0.980133 0.866651 0.373011 -0.863504 0.832173 -0.566345 -0.945887 0.203561 0.789746 -0.351961 -0.739051 -0.104666 0.421528 -0.553720 -0.087288 -0.798260 0.497743 0.869925 0.770466 0.676021 0.513617 -0.367223 -0.260094 0.862790 0.948467 -0.343209 -0.007809 0.056609 0.831522 -0.416597 0.542849 0.851389 -0.549946 -0.084140 0.987885 -0.717773 0.349514 -0.958003 0.485788 0.139260 -0.309964 0.746737 -0.965406 -0.888436 -0.806983 -0.052694 -0.686696 0.690760 -0.182769 -0.916230 0.366781 -0.669152 -0.283453 -0.893313 -0.806362 -0.334986 -0.236521 0.185829 0.721624 -0.404999 0.769232 0.264472 -0.553611 -0.780714 -0.819668 -0.565726 -0.498487 0.529847 -0.523728 0.987301 -0.330893 0.166308 0.734038 -0.296299 0.277872 0.927055 0.651007 0.591177 0.617815 -0.531762 0.674947 -0.015404 -0.200914 -0.608506 0.091283 -0.007276 0.056509 0.854762 -0.821447 -0.221868 -0.550238 0.947785 -0.957395 -0.103848 -0.832929 -0.777063 0.330426 -0.331416 0.752784 0.806697 -0.344115 -0.578109 -0.026995 -0.610077 0.125592 -0.749122 -0.683022 -0.223401 0.842055 0.934793 0.244838 0.517002 -0.080611 -0.956076 0.908496 -0.989328 0.036649 -0.034995 0.865433 0.215202 0.743137 -0.684805 0.162987 0.785742 0.211347 0.330058 -0.991321 -0.458227 0.998643 0.761463 -0.651530 -0.345472 -0.816647 0.321476 0.044451 0.308946 0.572354 0.361429 -0.914455 0.414408 0.296222 0.330383 -0.068590 -0.784389 0.374308 -0.160094 -0.773717 -0.589044 0.804911 -0.908284 0.626158 0.548049 -0.593089 -0.210854 0.333791 0.618258 -0.880796 0.342470 -0.839969 -0.882154 0.103933 -0.491498 -0.227626 0.287286 0.829977 0.816825 -0.403768 0.402331 0.178255 -0.318223 -0.183261 -0.525523 -0.987840 0.748149 -0.309912 0.386468 -0.411944 -0.083630 0.797424 -0.607033 0.008086 0.423583 0.941016 0.414997 -0.787272 0.274807 0.033256 -0.668068 -0.382723 0.193287 -0.550222 0.721210 0.701789 0.222152 0.008497 0.531766 0.038978 0.604729 -0.065903 -0.782768 -0.713494 0.750836 -0.308291 -0.701334 0.498985 0.381797 0.685134 -0.912959 -0.701833 0.482558 -0.519992 0.306253 -0.093860 -0.578976 -0.278749 0.118868 0.695831 0.754506 0.450800 -0.686891 -0.052207 0.900578 -0.965681 -0.350418 0.122731 0.042816 -0.818652 -0.838292 -0.352455 0.115445 -0.621060 -0.065949 -0.133719 0.070649 0.232717 -0.634734 -0.547554 -0.082149 -0.547693 -0.249387 -0.599592 -0.067685 -0.943134 0.306549 0.353339 -0.221883 -0.574583 0.049171 -0.467377 0.876218 0.362279 0.480417 0.776796 0.396598 -0.870001 -0.100474 -0.560586 -0.688653 0.061235 0.086959 0.426792 0.440175 -0.978991 -0.706927 -0.489176 0.253726 -0.341661 -0.036730 -0.828423 0.110646 0.713883 -0.428015 -0.957039 0.770750 0.878534 0.396301 -0.451133 -0.696049 -0.554529 0.081490 -0.819831 0.807751 -0.438093 0.956965 0.204349 -0.308094 -0.143509 0.643763 0.003253 0.917726 -0.269279 -0.569956 0.357900 -0.248269 -0.276883 0.868725 -0.994543 0.381456 -0.168005 -0.822967 -0.507897 -0.454122 -0.250982 -0.464936 -0.683372 -0.372448 0.931365 -0.134505 -0.068496 -0.623164 0.946985 0.111673 -0.815413 -0.491108 0.068637 0.388936 0.200798 0.925128 0.032698 -0.795950 0.842854 0.763420 -0.365905 0.200755 -0.484850 0.357212 0.069479 -0.479393 -0.261331 0.901474 -0.302360 0.230771 -0.552648 0.446659 0.765836 -0.236020 -0.925789 0.697201 0.629474 0.005715 -0.925963 0.576459 -0.882613 -0.741376 -0.914649 0.186025 0.647560 0.286149 0.111153 -0.319742 0.490199 -0.045993 -0.556322 -0.875706 -0.845238 -0.041172 0.481506 0.224241 0.479435 -0.779825 0.125714 -0.822925 0.450946 0.573066 0.623734 0.216781 -0.662954 0.697945 -0.086018 0.966520 -0.296340 -0.011981 0.542980 -0.178953 0.246643 0.628331 -0.992928 -0.105797 -0.085520 0.118225 0.574461 -0.595321 -0.927768 -0.981861 -0.471027 -0.773007 -0.023033 -0.989521 0.451234 -0.543598 -0.769346 -0.423052 -0.366523 0.681600 -0.849985 -0.742789 -0.101619 -0.512940 0.955156 0.812363 -0.546419 -0.341184 -0.199618 0.996560 0.479863 -0.952975 0.624891 0.486934 -0.058772 -0.460629 -0.394841 -0.484311 -0.055951 -0.322610 -0.466172 0.473022 -0.095616 0.510795 0.483501 -0.644383 0.967197 0.714155 -0.067434 -0.399326 0.395755 0.082580 -0.142114 -0.705864 0.569641 -0.186959 -0.893501 -0.976779 0.471857 -0.093119 -0.980218 -0.048280 -0.046093 0.644673 -0.561346 0.895135 -0.815957 0.043813 -0.589176 0.128093 0.721203 -0.055348 -0.398885 -0.374413 -0.544553 -0.915384 -0.018796 -0.577355 0.798771 0.913770 0.023319 0.194526 -0.003650 0.881205 0.488662 -0.434009 -0.305754 0.595161 -0.410788 -0.833897 -0.497958 -0.391006 0.117823 0.455949 -0.746333 0.556477 0.351084 -0.562290 -0.399710 0.761908 0.565803 -0.678507 -0.293439 -0.833082 -0.052920 0.162008 -0.748466 0.928285 0.584653 -0.949695 0.842055 -0.392028 0.244831 -0.161595 -0.510823 -0.266507 0.404396 0.183423 -0.671346 0.993608 0.349526 -0.169304 -0.397398 -0.532651 -0.713355 -0.143731 -0.976174 0.637730 0.293980 -0.375884 0.399638 -0.140217 -0.054391 -0.893801 0.026701 0.892689 0.268207 0.278235 0.820974 -0.147140 0.328540 0.663029 0.460832 -0.426629 -0.498566 0.950009 0.306864 0.905830 0.133432 0.635518 0.899438 -0.517042 -0.533786 -0.497959 -0.049693 -0.247141 0.358310 -0.025867 -0.609411 -0.347710 0.598248 0.790227 0.512072 -0.456143 0.896426 -0.461227 -0.563453 0.164633 0.817007 -0.742479 -0.982507 0.145547 0.920550 0.478325 0.718918 -0.578016 0.428333 0.025782 -0.672186 -0.438235 -0.338700 -0.772748 0.044723 0.127513 -0.270707 0.995029 0.880373 -0.912397 -0.030838 -0.729039 -0.260107 -0.432590 -0.938812 -0.748035 0.111268 0.957614 -0.209262 0.547815 0.122247 -0.392255 0.805336 0.139739 0.753293 0.725885 -0.381936 0.472211 -0.852131 -0.953603 -0.502007 -0.524317 -0.391838 0.159293 -0.297065 0.652885 -0.713193 0.432228 0.647914 -0.832821 0.519831 -0.382924 -0.561860 -0.740276 0.184487 -0.500671 -0.488311 -0.704245 -0.543057 0.302426 0.843569 0.579189 0.910172 0.648905 -0.281071 0.663464 0.374790 0.336992 0.135675 0.522659 0.383390 0.633669 0.998342 0.991552 -0.207038 -0.298722 0.644436 0.079768 -0.866494 0.292351 0.246948 0.653337 0.909427 0.685088 0.913061 0.093913 -0.815583 -0.575251 0.389668 -0.358641 0.727176 0.233237 -0.779451 0.637347 -0.117858 -0.060523 0.300812 -0.743068 -0.723530 -0.563513 0.779592 0.659859 -0.929844 0.777934 0.651411 -0.136882 -0.520788 0.295847 0.942887 -0.387282 -0.411802 0.189834 -0.733946 -0.502375 -0.125078 -0.820885 0.591538 0.059339 -0.396136 -0.018794 0.700698 -0.668960 -0.785557 0.921247 0.968388 0.096585 -0.139276 0.269199 0.353517 0.137194 0.705687 0.133109 -0.202947 0.775843 -0.088957 -0.551536 -0.361039 0.390255 0.744311 -0.418152 -0.997028 -0.667491 0.771682 -0.730973 -0.169867 -0.353396 -0.551858 -0.578329 0.705943 0.052006 0.402877 0.406641 0.383046 0.617320 0.327888 0.351434 -0.286095 -0.811388 -0.379367 -0.932577 0.325806 -0.673680 0.200532 -0.877141 -0.897837 -0.888425 -0.428678 -0.258876 0.501830 -0.684367 0.322971 0.504802 -0.351858 0.094653 0.773829 0.478275 0.741257 -0.778030 0.899946 0.447200 0.273977 0.302824 -0.146159 -0.342977 -0.079856 -0.818271 -0.991543 0.634049 -0.629659 -0.370910 0.701472 0.696147 -0.044590 -0.097997 0.819005 0.057573 0.013578 -0.609673 0.798697 -0.484592 -0.294040 0.121668 -0.979791 0.354102 -0.783679 0.794038 -0.167623 0.957578 -0.983992 -0.267677 0.404778 0.289985 -0.964853 -0.741381 0.947008 -0.044709 -0.559652 0.955464 -0.410660 -0.189311 -0.415446 -0.709188 -0.493165 0.539964 0.192815 -0.674160 -0.402463 -0.793607 -0.283832 -0.603766 -0.278199 0.422128 0.517902 -0.257990 -0.223770 0.734223 -0.463952 0.608607 0.691802 -0.447943 -0.659069 0.096580 0.842042 -0.623922 0.355199 0.789050 0.331368 0.795547 0.744514 0.920708 -0.393764 -0.670932 -0.788480 0.113071 0.869033 0.404336 0.438911 -0.533430 0.610729 -0.844921 -0.137196 -0.667470 0.577207 -0.619294 0.074541 -0.646563 -0.885071 0.610589 0.962044 0.806731 -0.837354 -0.697025 -0.096689 -0.995312 -0.320948 -0.741490 0.793737 -0.989579 -0.945943 0.538251 0.931129 -0.339707 0.867319 -0.857351 0.773363 0.736352 0.546985 0.212274 -0.797079 0.157714 0.367353 0.065725 0.490245 -0.055440 0.446431 -0.435215 0.297997 0.561360 -0.824626 0.260041 0.368091 -0.661980 0.563016 -0.728598 -0.657292 -0.757932 -0.470088 -0.863555 -0.747511 -0.416031 0.674696 -0.816382 0.244261 0.542015 -0.673733 0.017625 0.278367 0.873252 -0.770101 0.481288 0.030967 0.597252 -0.452987 -0.478789 -0.458187 0.993443 0.085996 0.839810 0.554803 0.261370 0.099851 -0.077106 0.599390 -0.337133 0.194295 0.942098 -0.095065 0.724207 -0.921457 0.157424 -0.691824 0.753238 0.341042 0.552437 0.295253 0.667309 -0.429938 -0.426381 0.540561 -0.200039 -0.945093 -0.428473 -0.602787 -0.398080 0.092739 -0.060974 -0.404637 -0.821265 -0.221164 -0.849834 0.440105 0.878687 0.073060 0.039495 -0.458446 -0.732645 -0.018407 0.446489 0.991562 0.060136 -0.396087 -0.700262 -0.186626 0.944955 0.852175 -0.891373 0.612263 -0.577763 -0.317753 0.152824 0.222198 -0.262846 0.724351 0.619411 0.339074 -0.182910 -0.441563 0.934438 -0.004175 0.337273 -0.915396 -0.564070 0.215960 0.157664 0.475425 0.757514 0.425019 -0.542981 0.204003 0.416582 0.517155 0.807916 0.716320 -0.669471 0.752871 0.568495 -0.560844 0.365134 0.990732 0.121403 -0.482042 0.212930 0.858557 -0.757690 -0.167658 0.197631 0.059400 0.390779 0.132069 -0.944776 -0.271948 0.216673 -0.508846 0.944012 -0.625663 0.966580 0.701527 0.799356 -0.576402 -0.094470 0.215938 0.940753 -0.286554 -0.067742 -0.728718 -0.533683 -0.499247 -0.289561 0.831451 -0.508515 0.831842 -0.650590 0.704416 0.690399 -0.408281 -0.463242 -0.111970 0.651119 0.927537 -0.979901 0.706343 -0.344411 0.236771 -0.802502 -0.400398 0.611108 -0.835923 -0.698872 0.410464 -0.412324 0.206658 -0.373598 -0.471571 0.920104 0.558660 -0.200289 -0.613578 -0.940587 0.510150 -0.782127 -0.449101 0.341991 -0.432717 -0.744685 0.032390 0.159002 -0.207927 0.920420 -0.189879 -0.280391 0.940518 -0.483536 0.375199 0.177289 -0.286038 0.974800 -0.211602 -0.121961 -0.724071 -0.801138 0.465714 0.482587 -0.174736 0.994143 0.402691 -0.616076 -0.206146 0.789113 -0.556662 -0.695996 -0.993014 -0.005764 0.645995 -0.425732 0.249551 -0.321615 0.733270 -0.958376 -0.401195 -0.456609 -0.238767 -0.460677 0.059855 -0.863568 0.716612 0.773817 -0.888768 -0.494990 -0.348144 -0.612839 -0.296128 -0.882430 0.869747 0.529136 -0.888287 0.272438 0.913060 -0.094432 0.061551 -0.643602 0.209572 0.068537 0.350634 -0.144433 0.642805 -0.399815 0.533953 0.376075 -0.358191 -0.867242 0.919466 0.403042 -0.327919 -0.020679 0.539474 -0.611307 -0.246862 0.650706 -0.106297 0.404994 -0.962133 0.597575 0.522564 0.907614 0.126711 0.634277 0.180053 0.039771 -0.460155 -0.758397 0.396169 0.749417 0.310140 -0.253196 -0.395016 -0.047055 0.346989 -0.861063 -0.670980 0.988798 -0.728306 -0.751514 0.391840 -0.056225 0.227807 -0.068686 0.332468 0.980946 -0.417979 -0.773829 0.385939 -0.380113 0.823746 -0.091497 -0.472498 -0.049543 -0.457220 0.707554 0.990228 0.082625 0.949157 0.386397 -0.167958 0.259297 -0.866799 0.437026 -0.787758 0.480190 0.575962 -0.458738 0.468989 0.847657 -0.210252 -0.139171 -0.208568 -0.982445 0.792144 -0.876100 0.998501 -0.625836 -0.649929 0.384440 -0.005949 -0.826183 -0.707057 0.521553 0.124274 -0.164276 0.229107 0.114502 0.918349 0.178265 -0.499100 -0.249609 -0.562438 -0.365899 -0.812584 -0.350196 -0.885709 0.763379 0.191066 0.583280 0.611035 0.980815 -0.555891 -0.597533 0.998370 -0.763748 -0.473633 0.996871 -0.389584 -0.123562 0.381311 0.604468 0.050255 0.674255 0.126021 -0.825471 -0.490022 -0.644872 0.289031 -0.571673 0.533393 0.789931 0.178718 0.970955 -0.575969 0.366134 -0.379241 -0.461678 0.129512 0.811826 -0.878398 -0.259452 0.792640 -0.434289 0.143015 0.791010 -0.198037 0.669382 0.787881 0.412380 -0.454180 0.169192 0.016848 0.596075 -0.156553 -0.857131 0.770604 0.353425 -0.502003 0.059635 0.781752 -0.968610 -0.150435 -0.039531 -0.997655 0.273597 -0.673397 -0.376896 0.811919 0.456116 -0.565070 0.933521 -0.803337 -0.772430 -0.500768 0.339678 -0.981420 0.301195 0.009060 0.806461 -0.286425 0.554880 -0.024347 0.730422 0.150955 0.819100 0.873291 -0.078441 0.172525 -0.628712 0.981194 -0.045723 -0.597322 -0.169241 0.914746 -0.594977 -0.895644 -0.758650 0.028127 0.916275 0.697465 0.463056 0.849796 0.894128 0.690626 -0.650972 0.233807 0.709206 0.650223 -0.757133 0.515667 -0.636202 0.797747 -0.508679 -0.905780 -0.051298 -0.689579 0.967511 0.870260 0.482946 -0.661201 0.851454 -0.562778 -0.258523 -0.317786 -0.648031 0.146500 -0.213430 -0.406682 -0.825374 -0.297155 -0.709217 0.637683 -0.447360 -0.815088 0.328309 -0.098332 0.418718 0.037516 -0.448109 0.661585 -0.446817 -0.084311 0.459332 0.044504 0.009909 -0.591966 0.354925 -0.022580 -0.721706 -0.162130 0.316219 -0.870252 0.275093 -0.942304 -0.188038 0.627061 0.204196 0.598531 -0.779620 0.378822 -0.698624 -0.488837 0.016505 -0.145984 -0.303925 -0.655185 0.755685 -0.885207 0.382330 -0.692424 0.776378 0.935514 0.223265 0.235710 -0.019982 -0.766827 0.643744 -0.665058 0.210593 0.922038 0.172812 -0.473187 -0.948214 -0.552095 -0.415491 -0.136252 -0.925034 0.788705 -0.537721 -0.704654 0.167528 -0.236345 -0.193491 -0.815967 0.617671 0.502584 -0.471152 0.373356 0.617377 
0.904640 0.674394 0.393755 0.840154 -0.102412 -0.370535 -0.179882 0.130779 -0.733328 0.161651 -0.652037 -0.804753 -0.665536 -0.131815 -0.752967 -0.217631 0.459285 0.110781 -0.142665 0.247990 0.573060 0.152681 -0.584482 -0.663285 0.959190 -0.400449 0.954387 0.461773 0.128398 0.327743 0.079150 0.039576 0.008675 -0.527095 -0.113732 0.912871 0.102371 0.712977 0.050241 0.375580 -0.125372 0.398204 0.570827 0.209091 -0.727019 0.817860 0.991460 0.732266 -0.071359 -0.151205 -0.019744 -0.498298 -0.998524 0.395774 -0.161583 0.960666 0.995325 -0.207196 0.422439 0.123723 -0.879453 -0.498410 -0.836701 0.129222 -0.025505 0.049567 0.042093 -0.923134 -0.237456 -0.907666 0.452445 0.637172 0.490538 0.023272 -0.153737 0.763519 -0.158867 -0.162277 0.495785 0.769774 0.686518 -0.523959 -0.728525 0.687994 0.871815 0.109893 0.648660 0.867139 0.902697 0.071099 -0.009137 -0.976756 0.572689 0.154162 0.152465 -0.452816 -0.796271 -0.805442 -0.375951 -0.033727 -0.713108 -0.923505 -0.396555 0.777431 0.099767 0.449708 0.540950 0.940900 -0.712568 0.036735 0.710674 0.973950 0.512775 0.982149 0.661944 0.384590 0.092042 0.310604 0.251730 -0.005262 -0.618297 -0.757408 0.017982 0.954392 0.396754 -0.829553 -0.498424 0.600483 -0.634995 0.125625 -0.433244 -0.348103 0.202120 0.170202 -0.570672 -0.698113 -0.380090 0.970277 -0.757213 -0.092658 0.007012 0.953460 -0.118708 -0.480213 0.935609 -0.456764 0.904378 0.027651 0.853841 0.156107 -0.977611 -0.764456 0.398699 0.040371 -0.810064 -0.204546 0.210818 -0.308488 -0.604063 0.575823 0.817137 -0.037307 -0.772280 0.019257 -0.867105 -0.342952 0.321144 -0.247195 -0.372675 0.563930 0.660147 0.634337 0.517390 -0.458561 -0.845876 0.452999 0.084675 -0.941498 -0.519350 -0.061484 0.214609 -0.496961 0.174060 -0.386691 0.543410 0.363996 0.408762 -0.245773 -0.944492 0.804699 -0.669950 0.872646 -0.232607 -0.442230 -0.108098 -0.099713 0.214817 -0.786954 0.653092 0.842143 0.776976 0.313239 0.476480 0.294367 0.854678 0.630604 -0.252634 -0.060647 0.689106 0.228016 0.877869 -0.096285 0.731055 0.051929 0.517024 0.274465 -0.584075 -0.074214 -0.971308 -0.528567 -0.269515 -0.641258 -0.655921 0.497878 -0.083488 0.235981 -0.601835 -0.868671 0.449028 -0.948743 0.973472 0.226004 0.364497 0.449951 -0.479629 0.219175 0.080555 0.267737 -0.841472 -0.230339 -0.504247 -0.963603 0.673376 -0.773192 0.088325 0.190400 0.501273 0.504251 -0.883815 0.529965 0.975684 -0.153330 0.888707 -0.680237 -0.655452 -0.194781 0.555744 -0.257287 -0.063452 0.004772 -0.206030 -0.089981 -0.769224 -0.841533 -0.640029 -0.248853 0.377642 0.440526 -0.981116 0.536169 -0.789814 -0.485363 0.572566 0.883562 -0.258555 -0.339108 0.073962 -0.757282 -0.834858 0.190148 0.772683 -0.859174 -0.963182 0.661390 -0.539411 -0.618634 -0.533392 -0.983667 0.124079 0.403156 0.021105 0.918050 -0.686825 0.251881 -0.923483 -0.326854 -0.996972 0.454158 -0.886329 -0.978089 -0.009672 -0.676142 -0.463452 -0.437106 -0.792580 0.277993 0.223785 0.281382 0.520711 0.388927 -0.528470 0.293393 0.529753 -0.491652 -0.045217 0.990342 -0.110286 0.421391 -0.993325 -0.986207 -0.175453 0.027780 0.931843 0.137722 -0.720339 -0.991641 0.810867 -0.717311 0.462517 0.924539 -0.695400 -0.547155 -0.751604 -0.158852 0.015739 -0.544183 -0.880859 -0.760476 0.737199 0.639852 0.628451 -0.791271 -0.066755 0.158204 -0.282924 0.888028 0.148546 0.606790 0.309419 0.155221 0.620583 -0.866035 -0.816998 0.552426 0.271687 -0.537337 0.560785 0.082555 -0.254648 0.023302 0.007094 0.049953 0.476147 0.255490 0.891101 -0.508114 0.711307 -0.989758 -0.268590 0.448505 0.650094 -0.640139 0.657234 -0.416661 0.518065 -0.625690 -0.528633 -0.333389 0.981100 0.780786 0.821833 0.601684 0.914751 -0.995165 0.154109 0.186438 -0.532502 -0.285106 -0.731007 0.212850 0.738197 0.276087 -0.737198 0.214344 -0.468423 -0.846097 0.706230 -0.757117 -0.835855 -0.562360 0.691388 0.814239 -0.202499 0.348622 -0.602422 -0.684433 0.722932 -0.131055 -0.017822 0.704033 -0.350270 -0.195989 0.305716 -0.435519 -0.191154 -0.540174 0.750920 0.276343 0.174720 -0.980087 -0.510807 -0.087083 0.295999 -0.248004 -0.872739 0.827576 -0.094101 0.833492 -0.929541 0.070044 -0.728868 0.761847 -0.115717 0.068633 0.110470 0.281862 0.384200 -0.166598 -0.849194 -0.633622 -0.462565 -0.199463 0.170390 0.843152 0.365018 0.979235 -0.697023 0.115938 0.255579 0.477698 0.135851 0.744772 -0.609385 -0.568150 -0.503233 -0.482124 -0.740574 0.402666 -0.648633 -0.670115 -0.527290 -0.377501 -0.908267 0.356994 0.691133 0.202202 -0.361145 0.075333 -0.964396 -0.210338 0.441712 -0.426961 0.590199 -0.387899 -0.583809 -0.044783 -0.408664 -0.280832 -0.928846 0.846915 -0.803134 0.207005 0.591687 -0.412520 0.638855 -0.911546 0.105356 0.898281 0.491121 0.456724 -0.771834 0.963831 -0.920777 -0.680102 0.320825 0.770356 0.522101 0.959680 -0.154311 0.557705 -0.250658 -0.712599 -0.869256 -0.660459 -0.100498 -0.453065 0.294757 0.490838 0.266104 0.365912 0.337753 0.462969 -0.427083 -0.070560 -0.949550 -0.788229 0.017895 0.155806 -0.889948 -0.490985 -0.387470 -0.661782 -0.527154 -0.308247 -0.341884 0.793671 -0.537891 -0.819783 0.753351 0.307799 0.737922 -0.497307 0.595200 0.868666 -0.157766 -0.505299 -0.584398 -0.863008 0.985540 0.681705 0.502903 0.323293 0.144675 -0.924180 -0.747267 0.195125 -0.712408 0.270628 -0.649069 -0.602356 0.779643 -0.036539 -0.264138 -0.747511 0.655214 0.393979 -0.953840 -0.882677 0.574196 0.799511 0.425122 0.312118 -0.697796 0.020322 0.180784 0.144439 0.515023 0.596385 0.281430 0.500563 0.278090 -0.215666 -0.176145 -0.577235 -0.139846 0.076588 0.617890 0.147745 -0.652784 0.968820 0.545389 -0.873141 -0.067719 -0.718749 -0.620653 -0.412505 0.675230 -0.574493 -0.295181 0.249425 -0.774982 -0.870059 -0.438457 -0.472777 0.150262 0.742327 0.671661 -0.334715 0.338712 -0.046909 -0.834152 -0.383197 0.737425 -0.010297 0.039568 -0.402421 -0.933709 -0.342543 0.745324 -0.586493 -0.373722 0.290713 -0.459634 0.558559 0.571965 -0.080287 -0.853946 0.247195 0.345220 -0.149127 -0.503380 0.570239 -0.019186 0.058163 -0.902539 -0.868924 -0.199510 0.769122 -0.203639 -0.860798 -0.277786 -0.037791 -0.243995 -0.540361 0.951912 0.795573 0.057217 -0.981797 -0.546970 -0.197458 -0.568290 0.079308 -0.906745 -0.027924 -0.362133 0.665220 0.891789 -0.216079 -0.087586 0.237010 0.634794 0.409034 -0.192752 -0.384392 -0.532803 -0.095291 -0.253316 0.267687 -0.326168 0.543045 0.406889 0.396045 -0.494747 -0.837106 0.855684 -0.542835 0.958467 -0.087099 -0.524632 -0.588503 0.715443 -0.092922 0.490805 0.808698 0.879154 -0.871328 0.473918 0.770943 -0.087406 -0.613668 0.007953 -0.452612 0.795366 0.815202 0.162996 -0.737436 -0.280089 0.909680 0.530251 0.393743 0.452724 -0.062860 -0.210212 0.957978 0.100035 -0.354528 -0.584858 0.058501 0.558373 -0.109490 0.469998 0.273816 0.797588 -0.039197 0.082514 0.676742 0.089475 -0.443568 0.447685 -0.997931 -0.057236 -0.544362 -0.450543 -0.261870 -0.729160 0.712453 0.000693 -0.009249 0.622133 -0.469056 -0.615507 0.074857 0.468084 0.174281 0.032834 -0.431881 0.819753 0.447977 0.626621 0.378127 -0.661514 0.096619 -0.348057 -0.863926 -0.942578 0.734458 0.812815 0.146898 -0.709110 0.260500 0.148967 0.233653 0.716139 0.698424 0.971783 0.986978 0.410876 -0.027523 -0.022271 0.033009 0.503421 0.362222 -0.892134 -0.028495 -0.463497 0.140700 0.539624 -0.643743 -0.411323 0.166245 0.734384 -0.072837 -0.737136 -0.613673 0.063237 -0.679714 -0.879216 -0.123947 0.467184 -0.588326 -0.863447 -0.383849 0.645327 0.852692 -0.685426 0.617111 0.839670 0.725451 -0.410413 -0.182601 -0.241540 -0.906992 -0.820379 -0.133674 0.064513 -0.283876 -0.992974 -0.395862 0.072381 -0.404297 0.770382 -0.193235 0.522866 -0.966754 0.193092 -0.413897 -0.646468 0.313876 0.462156 0.820716 0.725550 0.598709 -0.563133 0.370877 0.451401 -0.248558 -0.012012 0.291071 -0.523108 0.577575 -0.891531 0.235352 0.670583 -0.711910 -0.898322 -0.264904 0.004215 -0.891297 0.339234 -0.923404 -0.295594 0.109616 -0.116639 -0.772728 0.142862 -0.923548 -0.186624 0.496395 0.390329 -0.724468 0.317111 0.115879 0.874241 0.753978 -0.513244 0.325642 -0.494580 0.474744 -0.383288 -0.017688 0.052319 -0.274818 -0.782336 -0.277098 0.013272 -0.680658 0.457999 -0.982513 -0.571954 -0.202768 -0.905917 0.132452 0.906849 -0.022556 0.359724 0.049711 0.053896 -0.826901 -0.453894 -0.555775 -0.551369 0.863217 0.560104 -0.677128 0.617195 -0.953140 0.648513 -0.877384 0.521604 -0.734774 0.104928 -0.426077 -0.009593 0.322592 0.296825 -0.996321 0.641934 -0.245176 -0.978834 -0.930020 0.552056 -0.884751 0.202432 0.458905 0.092693 -0.437844 -0.491384 -0.853411 -0.264745 0.054721 -0.409186 0.183886 -0.082062 -0.849082 0.506758 -0.464866 -0.802223 0.155271 -0.342251 0.719381 0.420496 0.762677 -0.706696 -0.589096 0.085270 0.590129 -0.585417 -0.272796 -0.655047 -0.564250 -0.202816 0.897009 -0.449001 0.999616 0.355914 0.643692 -0.438229 0.864530 0.790281 0.297026 -0.080749 -0.618904 -0.519088 0.837189 -0.467986 0.987670 -0.627677 -0.270209 0.142940 0.030073 -0.550828 -0.436563 -0.207250 -0.257524 -0.025660 0.878020 -0.667395 0.388924 -0.394776 -0.322442 0.824673 0.402408 -0.425432 -0.624328 0.402024 0.930482 -0.980636 0.963795 0.795011 0.809646 0.260821 -0.285738 -0.809259 0.741733 -0.448549 -0.277245 0.729402 -0.076225 0.452546 -0.127657 0.953847 0.901718 0.435780 -0.253403 -0.355806 -0.589880 -0.375383 -0.023201 0.799043 0.229841 0.654358 0.623717 -0.367751 -0.771075 0.999389 -0.965727 -0.840593 -0.981247 0.998067 0.954418 0.828398 0.258888 -0.331320 -0.980861 0.000621 0.220131 -0.258106 -0.269977 -0.856094 -0.805560 0.602366 -0.902247 -0.903842 0.038146 -0.155649 -0.259648 0.448266 0.468968 0.717151 0.247309 -0.301190 0.371509 -0.128974 0.331059 0.600434 -0.129586 0.365331 0.759841 -0.110833 0.363399 0.714259 -0.282435 -0.377713 -0.617061 -0.263295 0.622908 0.603070 0.478599 -0.647069 0.746976 0.673039 0.955297 0.844730 0.769197 -0.006557 -0.310919 -0.490452 -0.558292 -0.841951 -0.773301 0.689017 -0.143141 0.598208 -0.439957 -0.812083 0.198641 0.430458 0.553249 -0.041518 -0.680376 -0.083353 -0.327259 0.037190 0.538934 0.055680 0.773894 0.161842 -0.341250 0.252493 0.514773 -0.594274 -0.074468 0.470070 -0.749544 -0.305272 -0.536487 -0.060463 0.204277 -0.094779 0.097586 0.430976 -0.405762 0.954444 0.029183 0.154282 -0.857639 -0.772175 -0.415261 0.695610 0.186307 -0.095636 -0.387742 0.859048 0.941553 -0.848808 -0.085272 0.715447 0.313034 0.573478 -0.032059 -0.172194 0.979204 0.893472 -0.702124 -0.770340 -0.411799 -0.238611 0.169196 0.792477 0.666610 -0.733218 0.223453 -0.739152 -0.778774 -0.747364 0.415130 -0.636413 -0.519540 0.999869 -0.940802 0.666767 -0.095768 -0.328545 0.525815 -0.154214 -0.177353 -0.559457 -0.438767 -0.864319 -0.985979 0.529174 -0.036513 0.993224 0.422646 0.261364 -0.777116 -0.989153 -0.977248 0.392080 0.803324 0.689362 0.658862 0.026777 0.950211 0.880088 0.279413 0.365340 -0.756324 0.759873 0.365209 -0.697127 0.426641 -0.730558 -0.025671 -0.047544 0.115227 0.796976 0.392999 0.676461 0.932656 0.407019 0.205634 -0.103856 0.400244 -0.371720 -0.842493 0.623128 -0.360873 -0.819740 0.015208 -0.557549 0.869622 -0.325930 0.469228 0.819832 -0.445842 -0.251359 0.185173 -0.202167 -0.491486 -0.449618 0.100707 0.935154 -0.180177 -0.924965 -0.112390 0.935051 0.872011 -0.719391 0.611511 0.804667 0.687628 -0.182855 -0.299190 0.087872 0.445426 -0.141682 -0.289001 -0.915447 0.038577 0.726207 -0.472996 -0.091801 -0.599723 0.996232 -0.271969 -0.045566 -0.255128 0.913204 0.752268 0.253386 -0.536414 -0.147026 0.188540 0.283409 -0.071991 -0.923850 0.218460 -0.199980 -0.643241 -0.170028 -0.395313 -0.955613 0.647117 0.305497 0.132259 0.092543 -0.836185 0.843258 0.177095 0.202392 0.569465 0.704099 -0.889409 0.969742 0.700331 -0.161377 -0.075824 -0.554797 -0.248173 -0.323556 0.698589 0.215413 0.529418 -0.112870 -0.501178 -0.542573 -0.036720 0.717283 0.257447 0.320039 -0.452746 0.862134 0.364427 -0.805629 0.167631 -0.503314 0.286914 0.331446 -0.660056 -0.535991 -0.466162 0.909410 -0.831892 -0.355571 0.879152 0.868439 0.483052 -0.196672 -0.686357 -0.765122 0.479772 -0.987768 0.450291 0.009190 -0.100638 0.949113 0.466617 0.862642 0.666396 -0.275936 0.182681 -0.786350 -0.413802 -0.452892 -0.591979 0.753829 0.043794 0.694935 0.085275 0.383738 -0.841056 0.619112 0.293148 -0.672948 -0.736459 0.172300 -0.804508 0.746593 0.975627 -0.490865 0.981471 0.455399 -0.478633 0.431762 -0.535411 0.420729 0.380876 0.931206 0.283371 0.047271 -0.344729 -0.533948 0.260921 0.241469 0.013160 0.668942 -0.004703 -0.943045 0.363877 -0.919428 0.440693 0.522821 0.699685 -0.266159 0.849873 0.963226 0.906141 -0.954635 0.709819 0.881768 -0.445500 0.691290 0.337167 0.075867 0.123052 0.801756 -0.503405 -0.496072 0.732963 0.779966 0.551199 -0.611767 -0.753982 -0.187879 0.629702 0.259179 -0.518937 -0.375001 0.316134 0.844940 -0.294428 -0.243173 0.367761 -0.594744 0.490668 0.217635 -0.631518 0.396809 0.263000 -0.921699 0.278577 0.817500 0.769591 -0.384256 -0.106633 -0.107357 -0.582499 0.389962 0.396571 -0.849537 0.169928 -0.052230 -0.461303 0.415947 0.759890 -0.831601 -0.324875 -0.759046 -0.206602 0.991259 -0.914106 0.498970 -0.251914 0.453655 0.904226 -0.761246 -0.328710 -0.727292 0.635562 0.934290 -0.648991 -0.085861 0.751790 -0.879401 0.529883 -0.354844 0.013242 0.947384 -0.964882 -0.590187 -0.902153 0.205046 0.357582 -0.363456 -0.379007 0.117473 -0.195057 0.296118 0.358426 0.598341 0.287377 0.444320 0.097311 -0.964537 -0.102025 0.001536 -0.725783 0.569265 0.274244 0.909779 0.503555 0.625253 -0.176082 0.255344 0.745853 -0.646199 0.900501 -0.240905 -0.698815 0.935619 0.168908 -0.600968 0.140665 -0.473510 0.035576 0.761658 0.643963 0.840518 0.057776 0.002389 0.438859 -0.654846 -0.553290 -0.463830 -0.619383 0.344685 0.537706 -0.345167 -0.086050 -0.188049 -0.435388 -0.582496 -0.562796 0.388530 0.672849 -0.816943 0.742331 0.573350 -0.057848 -0.956484 0.508968 -0.888941 -0.557452 -0.350366 -0.362450 0.478123 -0.588708 -0.718487 0.318642 0.469068 0.283902 -0.242499 0.814222 0.730612 0.293671 -0.805161 0.075297 -0.168623 -0.150328 0.989246 0.643328 0.414284 -0.593249 -0.919468 -0.197186 -0.920400 -0.736411 -0.454855 0.652949 0.205740 -0.411339 0.161918 0.316800 0.031208 0.811551 0.954350 -0.490668 -0.777157 -0.764138 0.827974 0.691911 0.519764 -0.414525 0.506133 0.250376 0.879146 0.700971 -0.674327 -0.289477 -0.449357 -0.685081 -0.646149 0.964927 -0.278330 -0.565617 -0.232259 -0.198731 -0.302028 0.312886 -0.545782 0.903712 0.901546 0.616136 0.220512 -0.067245 0.427687 0.174862 0.442086 0.650530 0.410724 0.270060 0.342441 -0.069512 0.855535 -0.151427 -0.819135 0.734681 -0.450456 -0.493463 -0.554796 0.100187 -0.178544 -0.200945 0.065114 0.543126 0.233438 0.832855 -0.655605 0.931410 0.145740 -0.201386 0.835122 0.047286 -0.585250 0.055634 0.980041 0.842437 -0.769505 0.422127 0.492967 0.641219 -0.307813 -0.164593 -0.428292 -0.452278 0.683980 -0.247428 -0.717597 -0.766476 0.259110 -0.272393 0.333711 -0.919434 0.526662 -0.601175 0.623692 -0.239900 -0.768320 0.968087 -0.308491 0.377420 -0.233299 -0.473369 -0.575294 0.181451 0.582265 -0.595253 0.023888 0.812760 0.826875 -0.483146 0.453979 -0.480938 0.352261 -0.974313 0.066785 0.036242 -0.221740 0.349188 0.269766 -0.962631 -0.923205 -0.396523 -0.882065 0.603457 0.002303 0.741628 -0.636444 0.233982 0.709715 0.055065 -0.388598 -0.523584 0.581696 0.036109 0.657867 0.163960 0.440856 -0.318245 -0.023279 0.267731 0.198609 -0.569300 0.786794 -0.449129 -0.543613 -0.146422 0.587113 0.234647 -0.797234 -0.143121 0.272016 -0.720439 0.460356 0.389951 0.883018 -0.537341 0.131579 -0.753426 0.696641 -0.158706 0.301639 -0.691957 0.317710 -0.116665 0.344152 -0.024422 -0.952705 -0.214992 0.657333 0.024016 -0.947260 -0.144058 0.454716 0.839533 0.406813 0.911103 -0.306888 -0.006074 0.145750 -0.104122 0.850804 -0.582234 0.175439 0.311160 0.807717 0.058457 0.773819 -0.060704 0.305031 0.470460 0.780590 -0.393330 0.778503 0.098301 0.490004 0.122655 -0.926122 0.537300 0.907663 0.731211 -0.438685 0.960403 -0.412847 -0.983969 0.799936 0.993967 0.927134 -0.506952 -0.012108 0.072884 0.388926 -0.161303 0.490650 -0.435635 -0.850143 0.298367 0.622822 0.923675 -0.762337 -0.072147 0.394135 -0.981747 0.534523 0.172638 0.116554 0.024527 -0.704707 0.190432 -0.438173 -0.797044 -0.078357 0.123142 -0.836641 0.508797 0.139174 0.963295 0.502763 0.066308 -0.543657 -0.509345 -0.860808 0.845268 0.329352 0.629841 -0.590367 0.479209 -0.071792 -0.967544 0.402884 0.165871 -0.039691 -0.202981 0.184124 -0.505169 0.969657 -0.699322 0.519358 -0.735051 0.491110 -0.918815 -0.532095 -0.587246 0.204328 -0.368736 0.921550 -0.656499 -0.405441 0.424314 0.409809 0.050901 0.914969 0.549000 -0.103831 0.244321 0.178841 0.305803 -0.276470 -0.892951 0.338258 -0.873587 0.272920 -0.701433 -0.076568 -0.542956 -0.206602 -0.106911 -0.242278 -0.687244 0.158038 -0.751167 -0.606058 0.625943 -0.338413 0.598269 -0.742793 -0.416863 0.941771 -0.148235 -0.992549 0.351580 0.902666 0.922420 -0.099420 -0.201164 0.166741 -0.920579 -0.895362 0.890270 -0.813529 0.442897 -0.983316 0.459391 0.741464 -0.059884 0.916435 -0.465138 0.833205 -0.325842 -0.152382 -0.008757 -0.077010 0.241560 -0.382814 0.584577 -0.160171 -0.125607 -0.832286 -0.218400 0.726158 -0.824835 -0.866820 0.628825 -0.902415 0.033760 -0.572339 0.264325 0.113181 -0.467701 0.154595 0.299652 0.975196 0.171279 -0.240957 0.716659 -0.888605 -0.324522 -0.748479 0.944600 0.349635 0.099139 -0.064157 -0.727374 -0.659301 0.553029 0.857203 0.180528 -0.572578 -0.975083 0.962128 -0.846420 -0.799918 -0.904692 0.782405 -0.702333 0.129068 -0.789935 0.561992 -0.757751 -0.257636 -0.283413 0.541900 -0.282440 0.887866 -0.699057 -0.565781 0.999261 -0.023579 -0.314260 0.943861 -0.673944 0.784879 -0.120297 -0.401318 -0.874422 -0.567268 -0.544116 0.306106 -0.139846 -0.519199 0.268235 0.013734 -0.319117 0.363543 -0.203862 -0.021450 -0.507390 0.006204 -0.459458 -0.265141 0.748568 0.257129 -0.723240 -0.533872 0.144995 -0.422297 -0.099653 0.144256 0.554123 0.586087 0.088117 0.880179 0.370966 0.967821 -0.521139 0.496545 -0.599447 -0.065255 -0.197349 0.260706 0.415547 -0.929114 -0.725560 -0.903570 0.434429 0.070578 0.074980 0.927039 -0.923218 0.615522 -0.338102 0.825350 -0.127349 -0.061342 -0.708522 -0.982353 0.516361 0.191825 0.161903 0.070484 -0.222088 -0.749980 -0.049337 -0.851122 -0.782159 0.429524 0.645423 -0.381606 -0.635731 -0.551926 0.879100 0.779816 -0.481041 -0.846460 0.876246 0.953388 0.224119 -0.048773 0.880427 0.300901 -0.433251 -0.457675 0.126250 0.439400 0.480983 0.417728 0.457047 -0.002656 -0.390448 -0.381050 -0.932172 0.387464 -0.131030 0.018491 0.536342 0.086811 -0.551985 0.181765 0.705205 -0.187716 0.629838 0.584305 -0.407900 -0.851202 0.737846 -0.531653 -0.897814 -0.038036 0.419573 0.982613 -0.737135 0.986322 -0.475062 0.389115 0.425722 -0.994079 -0.193157 -0.117231 0.003265 0.416395 0.501719 0.071092 -0.196140 -0.629311 -0.910417 -0.659798 0.457501 -0.462402 0.521966 0.162706 0.349882 0.151805 -0.252989 0.941982 0.300602 -0.515143 -0.589671 0.402788 0.446822 0.829902 0.385401 0.709686 0.816225 0.910339 0.098802 0.241947 0.916260 0.905645 -0.875284 -0.080476 0.322040 0.626435 0.990617 -0.874100 0.997125 -0.919800 -0.533899 0.454625 -0.382202 0.988068 -0.382669 0.967680 0.139873 0.364343 0.909662 -0.559525 0.849200 -0.680009 0.843263 0.296021 -0.850106 0.228664 0.005708 0.966118 0.139002 -0.895491 0.208065 0.055262 -0.989846 0.332782 0.974786 0.332194 -0.040783 0.965403 0.458094 -0.043658 -0.954397 0.924195 -0.589033 -0.336599 0.912263 0.028299 -0.368920 0.052136 -0.607358 -0.459258 0.492611 -0.758158 -0.139266 0.335874 0.537863 0.010627 -0.435462 -0.456429 -0.023255 0.703540 -0.351920 -0.815189 -0.241198 -0.341766 0.517592 -0.266412 0.990429 -0.523191 -0.301009 0.448523 0.433151 -0.255406 0.372718 0.844119 0.407995 0.284981 -0.127582 -0.960925 -0.662883 0.265059 -0.420182 0.829727 0.506901 0.440551 0.165601 0.044764 -0.548822 0.730139 0.588335 0.427924 0.433679 -0.763585 0.612734 -0.807520 -0.105351 0.130326 -0.073931 -0.114922 0.607136 0.625060 -0.666399 0.040287 -0.630346 0.706318 -0.115594 0.777649 -0.008701 0.756823 0.816725 0.328416 0.021882 -0.603457 0.158144 -0.471217 0.837094 -0.676255 0.573547 -0.711728 -0.946117 0.161881 0.716196 0.487562 0.398296 0.328930 0.680042 -0.707054 -0.540743 -0.393889 0.178024 -0.933608 -0.768829 0.511624 0.106679 -0.399175 0.217943 0.991085 -0.621526 -0.790758 0.747909 -0.804801 0.537658 -0.230209 -0.408258 -0.304198 0.298574 -0.571164 0.019547 -0.127879 -0.282892 0.073430 -0.965998 -0.566696 -0.439008 0.432299 0.762234 -0.758966 0.725244 -0.778509 -0.152855 -0.096732 -0.712117 0.078316 -0.585108 0.394562 0.679142 0.632834 0.385648 -0.942384 0.842077 0.133556 -0.747185 0.379735 0.903347 -0.155443 -0.924463 0.201921 0.273392 0.095083 -0.925957 0.990500 -0.831487 -0.891955 -0.576196 -0.270495 0.540344 -0.813962 -0.029460 0.265588 -0.592472 0.817685 -0.831144 -0.304589 -0.103999 -0.416253 -0.910026 -0.424857 -0.783418 0.475621 -0.367241 -0.941342 -0.390823 -0.114426 0.438393 -0.487476 0.730131 0.513930 0.714446 0.003523 -0.390987 0.788488 -0.005977 -0.222474 0.896533 0.417827 0.507032 0.436877 0.603865 -0.522429 -0.297535 -0.988606 -0.704743 -0.128679 -0.293195 0.191258 0.455068 -0.203222 0.766401 0.671650 -0.727601 -0.600840 0.730308 -0.118423 0.284734 0.168702 0.394101 0.014865 -0.317369 0.108547 -0.981612 0.291645 -0.102965 0.012411 -0.930829 -0.206432 -0.569762 0.576203 -0.769555 -0.965897 -0.946225 -0.067090 -0.954503 -0.650969 0.804231 -0.247698 0.540289 0.259299 0.549080 0.306690 -0.069051 0.821480 0.705850 -0.338743 -0.296944 -0.009416 0.829959 -0.902843 -0.994551 -0.487410 0.205704 -0.976163 0.804235 -0.897261 0.036248 0.873406 -0.103693 0.466486 0.449609 0.126753 0.500589 0.503384 -0.940337 0.546086 0.852415 0.863894 -0.701612 0.392704 0.123193 0.847468 -0.300606 -0.945858 0.668948 -0.594756 -0.284601 -0.627996 0.395828 -0.454642 -0.530839 0.401277 0.057948 0.674865 0.425114 -0.137817 0.777604 -0.538639 -0.264411 -0.326088 0.927847 -0.814802 0.800664 0.428436 0.688582 0.860328 -0.025478 0.540997 0.724222 0.272909 -0.066299 -0.152585 0.120377 0.633095 -0.098443 -0.210675 -0.961661 0.616957 0.161329 0.434167 -0.837685 0.630490 -0.164556 0.220263 0.305355 -0.739442 -0.917554 0.082960 -0.278081 -0.181965 0.756871 -0.350234 0.003233 0.557536 -0.921798 -0.308185 0.417863 0.052723 -0.767188 0.142085 -0.674367 0.166513 0.989500 0.446010 -0.200393 -0.108942 -0.764665 -0.162054 -0.491986 0.396664 -0.727886 -0.329671 0.027154 0.107558 0.890592 -0.667490 0.368116 0.973038 0.415470 -0.909965 -0.208927 0.172341 -0.260199 0.794306 -0.270123 -0.181998 -0.513879 -0.852260 0.870726 -0.281067 0.289825 -0.803641 0.885446 0.279325 0.642369 -0.314947 -0.829617 0.877704 0.522999 -0.321603 0.274368 0.795113 0.348726 -0.698477 -0.097329 0.239318 -0.365967 -0.729213 0.212356 -0.950498 -0.639178 -0.996571 0.221843 0.100622 0.797735 0.951720 0.918625 -0.716144 -0.900541 0.789351 0.002789 0.389284 0.985709 -0.111765 -0.331390 0.628078 0.573288 -0.161008 0.505782 0.096288 0.517390 -0.219850 -0.108599 -0.133884 0.081673 0.794072 -0.894566 0.715706 -0.935141 0.317790 0.765208 -0.574320 0.321219 -0.012949 0.526303 0.118953 -0.061229 0.444928 0.402810 0.038230 0.234278 -0.594401 -0.572485 0.219987 0.293834 0.096124 -0.151935 -0.132878 0.935117 -0.646153 0.963410 0.452506 0.133997 -0.145189 -0.681378 -0.784330 -0.351118 -0.575944 0.931376 -0.286259 0.741846 0.696584 0.139421 0.063065 -0.316365 -0.334276 -0.817982 0.622406 -0.889348 0.584828 -0.339364 0.344930 0.990427 0.088151 -0.435083 0.284261 -0.815725 0.412982 -0.848617 -0.880608 0.766829 -0.885207 0.571898 -0.099174 -0.030397 0.890520 0.116496 0.618485 -0.685424 0.047872 -0.667774 -0.943578 -0.255544 0.471648 0.119487 0.428090 -0.862628 0.301505 0.050496 -0.751977 -0.113668 0.711132 0.592953 -0.123241 -0.200717 -0.842129 -0.838981 -0.016442 0.570853 -0.687598 0.102950 0.337682 -0.572805 -0.325153 -0.761491 0.396798 -0.434633 0.355005 
0.441061 0.305720 -0.171350 0.347510 0.362143 0.147333 0.244930 -0.944148 -0.424577 0.382307 0.783125 0.625919 0.204552 -0.756311 0.337052 -0.202494 0.120447 -0.863666 -0.044623 0.281467 0.119892 -0.473770 0.593869 -0.777158 0.863912 -0.978937 -0.102311 -0.897579 0.417861 0.463056 0.457426 -0.566856 -0.657000 0.860304 0.780654 0.279365 0.007637 -0.400189 0.335217 0.583060 0.556340 -0.307427 0.208980 -0.239107 -0.063738 -0.453969 0.558399 -0.943291 -0.317634 -0.486225 0.338175 0.802258 0.040005 -0.067956 -0.974900 -0.096083 -0.046893 -0.077211 0.006338 -0.629031 -0.614155 -0.536236 -0.195887 -0.271155 -0.675932 -0.415233 -0.991790 0.331705 0.184579 0.343427 -0.085235 -0.259081 -0.964000 -0.876256 0.501812 -0.027739 -0.330224 0.060211 0.028970 0.352141 0.573986 -0.632854 0.154399 -0.386009 0.299190 0.179499 0.517908 -0.747703 -0.897713 -0.475754 -0.376734 -0.511867 -0.011989 0.427379 0.216978 0.312079 -0.987854 0.225188 -0.356216 0.196725 -0.431386 0.558549 0.937644 -0.395386 0.682293 0.439456 0.576875 -0.647931 -0.500334 -0.394155 0.704210 -0.926347 -0.027009 -0.141391 -0.312356 -0.727820 -0.961893 -0.794448 -0.475522 -0.859605 -0.270202 0.147743 -0.371473 0.717809 -0.424878 0.845505 0.029888 -0.412731 0.070692 0.673672 0.783993 0.639306 0.232220 0.721637 -0.756080 -0.085487 0.161093 0.820795 0.266582 0.660760 -0.573360 -0.029208 0.734412 0.399631 0.829400 -0.577944 0.671811 0.867507 -0.372392 -0.803711 -0.992098 0.357406 0.344032 -0.363571 0.075215 0.919154 -0.518066 -0.894897 -0.493577 0.552626 0.778775 -0.709584 0.191932 0.010995 -0.987947 0.435852 0.925508 0.173146 0.256647 0.192090 -0.166094 0.683288 -0.837118 -0.431682 0.082918 0.992282 -0.009626 -0.245271 0.859789 0.617981 -0.048982 0.867692 -0.024612 -0.704950 -0.495879 -0.949397 -0.785796 -0.013946 -0.844294 -0.279373 -0.461320 0.934481 0.011043 0.730613 -0.054523 0.023096 0.166465 -0.129015 -0.803757 -0.576888 -0.936925 0.030149 -0.893600 -0.774043 0.598467 0.189318 -0.781761 -0.411159 0.944048 -0.921972 -0.793178 -0.104934 0.945720 0.182210 0.190115 -0.550159 0.232813 0.404319 0.435895 0.388519 -0.875054 0.974575 0.323000 0.135989 0.705188 -0.731523 -0.840914 -0.128347 0.139462 -0.644672 0.294765 0.202537 0.385477 0.401165 0.428494 -0.016056 -0.409516 0.646733 0.572785 -0.465469 0.724761 0.779607 0.429597 0.670481 -0.038184 -0.380288 -0.879678 -0.805371 -0.975968 0.556217 0.583148 -0.851022 0.530792 -0.093852 0.284967 0.235979 0.174625 0.444053 -0.892368 -0.685913 0.799381 0.402397 0.516624 0.184858 -0.196437 -0.054882 -0.831198 0.394046 -0.408150 0.741587 0.928578 -0.683388 0.521194 0.358175 0.987093 -0.516990 0.977887 -0.892586 -0.322361 -0.998081 0.663631 -0.739213 -0.849103 0.194423 0.166935 0.435864 -0.569598 -0.658440 -0.120083 -0.461966 -0.344353 -0.320702 0.940432 -0.827729 0.864157 -0.256006 0.117388 -0.967041 -0.861960 0.709238 0.774546 -0.933382 -0.974150 0.295740 0.424793 -0.987057 0.778749 0.402680 -0.879643 -0.543612 0.404599 0.783988 -0.282825 0.555496 -0.021589 0.884110 -0.008640 0.408813 -0.774330 0.871277 0.946847 -0.118683 -0.449425 0.887279 0.053588 -0.585268 -0.368727 -0.829024 -0.552309 -0.230686 0.880215 -0.777763 -0.164068 0.906065 0.517976 -0.739275 0.919007 0.296726 0.663404 -0.960636 0.753114 0.068003 0.823352 -0.529711 -0.376502 -0.198237 -0.645601 0.614858 -0.789424 -0.419930 0.486135 -0.842577 0.461387 -0.963291 -0.955297 -0.485025 -0.548559 -0.324024 -0.314049 -0.100868 0.445290 -0.433834 0.121368 -0.718778 -0.527770 -0.360656 -0.458054 -0.608762 0.936070 -0.794649 -0.569398 0.689184 0.273353 -0.746046 -0.840527 0.896851 0.055717 -0.486128 0.511709 0.266294 0.093942 -0.002156 0.423717 -0.444671 0.034553 0.468420 0.070305 0.485994 -0.855604 0.756256 -0.614874 0.589686 -0.677578 0.506494 0.870908 -0.205348 -0.854162 -0.587146 0.185890 -0.918092 -0.381795 0.616492 0.771092 0.891558 0.870446 0.930564 0.788409 -0.073836 -0.555563 0.300119 -0.807543 0.538379 -0.702037 0.616174 -0.906292 0.332516 0.084594 0.164013 -0.181490 0.228989 -0.079731 0.203636 -0.181325 0.242690 -0.289870 -0.310417 -0.962657 -0.144032 0.102437 0.223232 -0.062124 0.720641 -0.160276 -0.291032 0.612199 -0.289830 -0.360468 0.400609 0.636334 0.083969 -0.299273 0.828791 -0.377652 -0.001310 0.444965 -0.283944 -0.668794 -0.470442 0.880068 0.149716 0.758548 -0.199663 -0.646648 -0.422777 -0.956973 0.063482 0.266805 -0.919630 0.919450 -0.630758 0.303602 -0.142674 -0.910117 -0.856674 0.566294 0.702083 -0.146503 -0.794174 0.102691 -0.510170 0.289795 0.803419 -0.681379 0.912143 -0.197891 0.763586 -0.371802 0.133315 -0.706856 -0.491733 -0.716969 -0.948308 0.308604 -0.363617 -0.371085 0.351631 0.699865 0.895720 0.432001 0.619315 -0.735038 -0.264397 -0.523358 -0.645154 -0.121070 -0.957064 -0.943072 0.732426 -0.751237 0.159620 -0.777743 0.538558 -0.036962 -0.459123 0.450700 0.765147 -0.695537 -0.921101 -0.101538 -0.402393 -0.412835 0.181493 -0.350701 0.895769 0.817876 0.278214 0.247400 0.517741 0.173934 -0.320599 0.137056 0.438896 0.415005 0.613698 0.793742 -0.706066 0.656634 0.850670 -0.973639 0.905397 0.010290 -0.751383 0.443955 0.973328 -0.210505 -0.105345 0.738476 0.093958 -0.026446 -0.363062 0.691565 0.560719 0.818431 -0.659136 0.456488 0.636307 0.619078 -0.296112 0.154048 -0.206988 0.383290 -0.708896 -0.768092 -0.201706 0.904802 -0.974350 0.092229 0.561437 0.876320 0.118589 0.466834 -0.113390 0.367207 -0.089212 -0.140062 -0.843299 0.805443 -0.401586 0.250659 -0.221003 0.235351 -0.057776 -0.660284 0.053782 0.283087 0.796205 -0.309911 -0.097835 -0.499907 0.844136 0.695176 0.883383 -0.864759 0.927084 -0.318323 -0.959957 0.952734 0.773905 0.601480 0.829054 -0.107505 0.068313 -0.284336 -0.740299 0.979102 0.575602 -0.583597 0.784545 -0.825984 0.667061 -0.436458 0.409367 -0.390715 -0.096742 -0.536851 0.892373 -0.300537 0.153238 -0.205462 0.199556 -0.002626 -0.510286 0.082939 0.132615 -0.583202 0.764616 0.172658 -0.630468 0.538521 -0.225862 -0.801414 -0.568984 0.842451 -0.085750 -0.309283 0.821553 -0.510148 0.107120 0.606097 -0.336133 -0.225819 -0.830361 -0.926766 0.383467 0.072898 -0.463616 0.275839 0.772361 0.689621 -0.929623 -0.028083 -0.313004 -0.439909 -0.945144 0.819611 -0.023111 0.819471 -0.007731 0.346421 0.357993 0.766407 0.545008 0.789009 0.608858 -0.540742 -0.520274 0.430410 -0.050890 0.586846 0.036507 0.612977 -0.638972 0.206147 0.686211 0.744494 -0.720956 -0.777405 0.020333 -0.948595 0.912216 0.090710 0.023321 -0.400788 0.650800 0.078177 -0.581177 -0.372311 -0.102352 0.411092 0.974111 -0.744359 0.177499 0.519118 -0.955350 -0.213644 0.978376 -0.475623 -0.783234 -0.072515 -0.888777 0.253274 -0.459538 -0.527750 -0.540580 -0.773327 -0.783255 -0.261536 -0.550732 0.237078 -0.210131 -0.638515 -0.672212 0.813190 -0.039303 0.978588 -0.108632 0.379520 -0.393723 0.789016 -0.209388 -0.419612 -0.955343 0.968111 -0.900494 -0.910692 -0.245533 -0.922118 -0.386316 -0.028767 0.005367 -0.275093 -0.775494 0.545829 0.197157 -0.316073 0.772503 0.413902 0.422391 -0.778229 -0.349020 -0.787740 -0.416744 -0.021233 -0.974550 0.543952 -0.042645 -0.083182 -0.076528 0.563632 -0.294166 0.714085 -0.855980 -0.249509 0.682195 -0.756474 -0.160201 -0.563338 -0.678592 0.453483 0.407895 0.326774 -0.821610 0.632401 -0.127396 0.375547 -0.683672 -0.354894 -0.210551 0.738719 -0.133123 0.440428 0.950979 0.450133 -0.580805 0.976430 -0.005915 0.376550 -0.106752 0.917558 -0.059817 0.599082 0.631642 0.084203 -0.650427 0.313837 0.327728 0.189372 0.750499 0.649136 -0.357145 0.158394 -0.024089 -0.178756 -0.209204 0.848514 -0.803209 0.107124 -0.506380 -0.013760 -0.154157 0.360497 -0.573331 -0.203178 -0.189370 -0.154136 -0.226749 0.804715 -0.777586 0.666499 0.722273 0.162597 0.265580 0.353915 -0.753200 0.615153 -0.332247 0.574528 -0.195475 -0.581748 0.223664 0.447380 0.576647 -0.800425 -0.731376 -0.632558 -0.951911 -0.534584 0.474566 -0.458291 0.451656 -0.679591 0.902206 0.878325 0.117231 -0.287164 -0.275811 0.890482 -0.482448 -0.053397 0.556981 -0.760175 -0.890800 -0.177438 0.593740 -0.644001 -0.562285 -0.738507 0.930527 0.242240 -0.320255 0.154191 -0.310380 -0.743608 0.353766 -0.041756 -0.376166 0.401855 0.423660 -0.901600 0.943563 -0.124684 -0.581191 0.845770 -0.246359 0.536040 -0.441394 0.477829 0.426522 0.076158 -0.575568 -0.016497 0.315983 -0.466368 0.806065 -0.090277 -0.110369 -0.756220 0.171216 -0.179841 0.486020 0.850962 0.974350 -0.824360 -0.892647 0.328116 0.133885 -0.268812 -0.270029 -0.442455 -0.170412 -0.326466 0.432861 0.248397 -0.480696 -0.813498 -0.215563 0.077910 0.664331 -0.789041 -0.845932 -0.911237 0.194463 0.470051 -0.377605 0.000528 -0.620226 0.512026 0.244308 0.550991 -0.667815 -0.269672 0.401952 -0.693465 -0.094032 0.509306 0.634651 -0.960147 -0.759507 -0.635378 -0.402603 0.070081 0.038156 -0.969742 -0.681522 0.557460 -0.783240 0.102915 -0.364630 0.881090 0.313874 -0.210562 0.969853 -0.491663 -0.740511 -0.407752 0.508864 -0.360737 -0.895726 -0.246828 -0.809746 -0.563541 0.483500 0.592206 -0.257006 -0.610532 0.101511 -0.622355 -0.570679 0.342005 -0.257733 0.026718 -0.587914 0.780423 0.056976 -0.269436 0.337882 0.273736 0.833479 0.973252 0.154826 0.147353 -0.237310 0.124679 0.655690 0.022179 0.716927 0.164554 0.661442 0.821202 0.917726 0.851695 -0.742339 0.401226 0.443901 0.000655 0.790695 -0.454587 0.378300 -0.779985 0.887417 -0.879433 0.246734 -0.700497 0.900990 -0.696290 0.030067 0.238872 0.577446 -0.136454 0.212124 -0.267728 -0.989102 0.974814 0.856951 0.666588 -0.003007 0.573879 -0.168858 -0.341565 0.395080 -0.251131 -0.489869 0.652741 -0.849905 0.954032 -0.346604 0.940790 -0.500555 -0.968304 -0.839195 -0.613138 -0.847737 0.407539 -0.313635 -0.946747 0.711249 0.716432 0.292125 0.288695 -0.420023 -0.495751 -0.979033 -0.409124 -0.520937 0.877918 -0.742536 0.476057 0.451797 0.088606 -0.865508 -0.153123 0.837475 -0.355378 -0.500382 0.987571 -0.401346 0.153014 0.928361 0.098099 0.184710 -0.910834 0.484961 0.336973 0.496705 -0.828674 0.390226 0.207954 0.887758 -0.317650 -0.503351 -0.532265 0.186599 -0.482385 0.058611 0.665663 -0.604467 0.316075 0.141719 0.847330 -0.595318 0.276211 -0.305793 -0.757843 0.920833 0.193825 -0.770272 -0.480512 -0.653161 -0.841912 0.617586 0.531550 -0.752746 0.102547 -0.131477 0.743959 0.273873 -0.741252 -0.048087 0.161631 -0.058901 0.448562 0.629366 -0.872302 0.966178 -0.312023 0.793361 -0.638289 -0.995948 -0.064920 -0.790959 -0.591266 -0.788709 -0.096752 -0.349109 -0.867875 -0.902927 -0.119382 -0.348388 -0.556087 0.038706 -0.730801 0.975462 0.285960 0.371746 -0.156015 0.029920 -0.354381 0.102733 0.981833 0.807250 -0.956168 0.430395 0.436616 -0.828470 0.396573 -0.875407 0.964891 0.758284 -0.871355 -0.100028 0.967325 -0.462621 0.111263 -0.129427 0.188270 0.243388 -0.032354 -0.931112 0.895000 0.411559 0.107594 -0.835801 0.387022 -0.606446 0.535945 -0.768993 0.423474 -0.818436 0.333740 0.405307 0.988814 0.377572 -0.164298 0.425430 0.549102 -0.767726 0.550024 0.513994 0.990558 0.678669 -0.586035 0.957883 -0.783952 0.525228 -0.171544 0.404318 -0.231384 0.796102 0.473205 -0.336384 0.207661 -0.419201 -0.172185 -0.405317 -0.025646 -0.636240 -0.174311 -0.602172 -0.454676 -0.840571 0.803135 -0.465862 0.537001 -0.361163 0.959569 0.086104 -0.128889 0.509592 -0.399903 -0.138331 0.188261 0.014062 -0.180448 0.404309 -0.460710 0.648007 -0.191373 0.307906 0.444109 -0.718168 0.971522 -0.348229 -0.137369 -0.200663 0.246453 0.836985 0.163096 -0.927858 -0.765187 0.708420 -0.768428 -0.962052 -0.757441 0.768573 -0.323216 -0.797873 -0.145323 0.547895 0.711720 0.454774 -0.590436 -0.100019 -0.531164 0.229116 -0.695710 0.008127 -0.122877 0.112917 -0.683967 -0.678767 0.394749 -0.712445 -0.026997 -0.742619 0.086891 -0.780544 -0.905634 -0.750012 -0.708401 -0.670821 0.958408 -0.476829 -0.632874 -0.799034 -0.708256 0.043910 -0.596906 0.146420 -0.408194 -0.885187 -0.398806 0.001370 0.014794 0.070031 -0.769514 0.319084 -0.921842 0.107609 -0.567999 -0.605809 0.428842 0.826751 -0.318255 -0.598155 -0.915869 0.768637 -0.378698 -0.821503 -0.981376 -0.087099 -0.492324 0.977032 0.436072 -0.125198 -0.822002 0.727815 0.918712 -0.418908 -0.125764 -0.489482 -0.304095 0.475430 0.511888 0.710699 -0.454539 0.742374 0.029784 -0.376381 -0.150016 0.461785 0.017809 -0.721174 0.288536 0.699554 -0.319329 0.372667 0.468191 0.301973 0.551164 0.486815 -0.785126 -0.941161 0.463847 0.650946 -0.066359 0.641846 0.378761 -0.147646 -0.777062 -0.747003 0.362872 -0.081157 0.728427 -0.125240 -0.370457 -0.726112 -0.382866 0.659327 -0.102493 0.467118 0.121112 0.915316 0.745943 -0.590352 0.614870 -0.573385 0.782315 0.083061 0.728588 0.333478 -0.430123 0.943462 0.392318 -0.966276 0.594407 -0.674041 0.675570 -0.026832 0.178313 0.898508 0.226165 -0.458815 -0.182649 -0.045407 0.415945 0.446894 0.228481 -0.966920 0.106221 -0.874013 0.500197 -0.772668 -0.958697 0.246141 -0.363020 0.656173 0.672755 -0.580705 -0.260765 0.401343 0.752773 0.309111 0.344804 0.145091 0.342835 -0.060788 0.471050 0.018405 0.912380 -0.350636 -0.083087 0.138546 0.190549 0.734264 -0.906862 -0.393506 0.181158 0.321619 -0.360426 -0.712622 0.447606 -0.860229 -0.485289 0.488909 0.385912 0.151691 0.145083 0.058667 0.570986 0.884318 -0.539990 0.323759 0.193429 0.804814 -0.531150 -0.463736 -0.255974 0.939900 0.554669 -0.343594 -0.410736 -0.528418 0.794952 0.779813 -0.794154 0.888090 -0.613693 0.387004 0.209709 0.025881 0.674382 -0.342685 0.165652 -0.810907 -0.853776 -0.448436 0.340784 0.291307 0.610231 -0.088230 0.175625 -0.929760 -0.764471 -0.630946 0.875054 -0.295621 -0.094682 -0.380920 -0.355721 -0.540013 0.275487 0.233543 -0.068430 0.070438 0.013356 0.137416 -0.041472 0.399663 -0.475580 -0.831763 -0.574456 -0.801198 -0.174448 0.591196 -0.612104 -0.028224 -0.857240 0.728680 -0.736917 0.752990 -0.359550 0.438708 0.823231 -0.124021 0.807762 0.698285 0.580357 -0.286920 -0.682635 -0.775364 0.173067 0.592852 0.458180 -0.895364 -0.336710 -0.528464 0.242052 0.621819 0.871199 0.766472 0.790056 -0.703257 0.965274 -0.384392 0.887940 -0.646830 0.587384 -0.969300 -0.918150 0.850467 0.783690 -0.277701 0.289175 0.606921 0.598278 0.096937 0.305206 0.178635 0.810017 0.622571 0.403272 -0.016916 0.215423 -0.138549 0.087720 0.878714 0.332987 -0.670228 0.500532 0.204186 -0.903756 0.290588 0.500930 -0.938481 0.906195 0.388869 -0.585311 0.493579 0.419569 -0.503462 0.344046 0.203259 0.218838 -0.366779 -0.189820 -0.182884 0.730159 -0.884614 0.995751 0.540175 0.737957 0.399023 -0.476741 -0.046619 -0.739526 0.610979 -0.167906 0.593461 0.940752 -0.667374 -0.202353 -0.963004 0.623214 -0.701423 -0.901485 0.529409 0.687446 -0.486796 0.022988 0.107015 0.009742 -0.632966 -0.689726 -0.771420 0.000256 0.120454 0.045695 -0.269586 0.235840 0.041446 -0.729410 -0.026203 -0.559531 -0.206151 0.927178 -0.299057 -0.595172 -0.240728 -0.705596 -0.654420 0.091899 0.092051 -0.617423 -0.284887 0.390628 -0.518908 -0.755478 0.078074 -0.005705 0.267511 -0.814912 -0.995963 0.634545 -0.504638 -0.767383 -0.365199 0.615816 0.278312 0.365215 -0.148344 -0.680241 0.635805 0.825453 -0.239772 -0.570346 0.752631 0.461171 -0.165518 -0.488097 0.755575 0.180062 0.603802 -0.152373 0.562639 -0.681085 -0.761746 -0.956269 -0.436563 0.316328 0.038026 0.830947 0.501416 0.042064 0.465492 0.996778 0.274681 -0.899707 0.612595 -0.447007 0.465508 -0.535749 -0.127248 0.101313 -0.710296 0.632980 0.530967 -0.957665 0.094151 -0.634551 -0.445762 -0.150273 0.545512 -0.841960 0.697353 0.108151 -0.523046 0.935608 0.151882 0.040391 0.251936 -0.810092 -0.128662 -0.246648 0.231972 -0.663170 -0.249870 -0.493348 -0.562877 -0.637275 0.059645 0.902632 -0.173024 0.932397 0.003945 0.116679 0.565377 -0.465088 0.159014 -0.340471 -0.099639 0.713253 0.509255 -0.554127 0.871292 0.206609 0.554024 -0.651753 0.142216 -0.294094 0.388638 -0.605848 -0.104186 -0.740024 0.147504 -0.872214 -0.403194 0.897634 -0.365562 0.033930 -0.739641 0.694083 -0.063439 0.087334 0.626480 0.940506 -0.795986 0.191857 -0.524582 0.363028 0.851386 0.375779 0.076280 0.360641 0.821653 -0.052427 -0.432750 0.375677 0.295820 0.709466 -0.918417 -0.315542 -0.896382 -0.022603 -0.055566 0.251122 0.105183 0.541240 0.148756 0.739620 -0.424830 0.409114 0.433703 0.511731 -0.503552 0.060184 0.452237 -0.299538 -0.747959 0.927655 -0.936510 -0.896573 0.303435 0.139770 0.464068 0.125088 -0.912657 -0.968682 -0.499235 0.383163 0.740784 -0.417652 -0.932379 0.844403 0.559745 0.012054 0.095524 -0.335072 -0.446705 -0.755720 -0.595452 0.128465 0.653394 0.838252 -0.359804 -0.850158 -0.101565 -0.907567 -0.149696 0.150476 -0.979912 -0.086206 0.253903 0.323523 -0.946436 -0.282028 -0.551389 -0.859092 -0.250710 -0.050624 0.524071 -0.509926 0.531723 0.591692 -0.665523 0.091468 -0.396254 0.430001 0.756396 0.157041 0.674281 -0.839056 -0.714495 0.327675 0.999196 -0.074299 0.477517 -0.102369 0.018134 -0.672179 -0.951893 0.038223 0.241615 0.302010 -0.638254 0.295180 -0.980018 -0.189643 0.436087 -0.230728 0.759732 -0.039842 0.259346 0.291456 -0.448150 0.593823 -0.617076 0.155596 0.023824 -0.860680 -0.687364 -0.301895 -0.699736 -0.401858 -0.974220 -0.700540 0.523843 0.503297 0.197090 -0.458023 0.831118 0.245197 0.580200 0.072733 -0.452792 0.941946 -0.632087 -0.432810 -0.247697 0.804000 0.336462 -0.487965 -0.235842 -0.404192 0.803491 0.316008 -0.810369 -0.813585 -0.528396 0.213455 -0.674265 -0.215760 0.911560 -0.374001 0.382382 0.937340 -0.074542 -0.093775 0.440636 -0.877451 0.448202 0.271754 0.367746 0.028402 -0.655513 0.914954 -0.029652 -0.287600 -0.517856 0.722650 -0.483600 0.818606 -0.765315 0.280558 -0.585586 -0.961824 -0.403434 -0.395955 -0.775409 0.068170 0.817501 -0.449674 0.852410 0.729061 0.176325 0.234793 0.666401 -0.898217 -0.858982 0.107037 -0.775669 0.589220 -0.621208 0.592077 -0.382378 -0.276721 0.507031 0.587970 0.435678 0.989174 0.310620 0.952078 0.807780 0.545305 0.232636 -0.777806 0.583482 0.829203 -0.173761 0.808073 -0.102627 -0.356260 -0.641602 -0.250217 -0.627199 0.534723 0.984576 -0.960799 0.636506 -0.874407 0.146239 0.860837 0.714813 0.525030 0.452914 -0.667565 -0.751691 -0.040055 0.920404 0.683987 -0.050881 0.231024 0.636065 -0.243101 -0.223670 -0.131298 -0.020907 -0.640189 -0.302096 0.805332 -0.832116 0.595277 -0.550928 -0.473718 -0.654940 -0.178127 -0.938995 -0.670364 -0.138926 0.697511 -0.544771 -0.992687 0.558347 -0.829958 0.532343 0.011261 -0.497524 0.780652 0.971206 -0.577120 0.464639 -0.079675 0.653905 0.100705 0.677224 -0.569766 0.969407 -0.343682 -0.209954 -0.332689 -0.538350 -0.042071 -0.737412 -0.089278 0.484212 -0.392352 0.732595 0.545217 -0.062716 -0.406331 0.242727 0.392512 -0.399017 -0.198925 0.562554 -0.866674 0.812336 -0.934970 0.913978 0.783542 -0.512090 0.378618 -0.296133 -0.858185 -0.520677 -0.618909 -0.427951 -0.551271 0.037409 0.362095 0.116040 0.499059 -0.679976 0.378628 -0.590219 0.804236 0.986276 -0.857624 0.349453 -0.076440 -0.263955 -0.407820 -0.683928 0.337028 0.393255 0.878626 0.470354 0.205590 0.943656 0.384332 -0.010868 -0.568434 -0.237050 0.692999 -0.426619 0.242272 -0.925910 0.145431 0.691001 0.111499 -0.492474 -0.192958 -0.389443 -0.172450 -0.814330 0.020338 -0.368214 -0.828053 0.162714 0.981239 0.095507 0.898760 -0.426581 0.411579 0.235788 0.966673 0.290205 -0.293858 0.172264 0.233861 -0.909526 -0.838604 0.665428 -0.146577 0.854395 -0.761191 -0.904305 0.928485 0.384240 0.786697 0.039983 0.891766 -0.406261 0.650540 -0.280684 -0.220591 -0.329121 0.351102 -0.048644 0.833593 0.332341 -0.953138 0.732352 0.905759 0.458441 -0.031860 0.872433 -0.251353 0.674281 0.044696 0.982508 0.764755 0.206092 0.647936 -0.381822 0.060486 0.886745 -0.286126 -0.011029 0.270985 -0.499429 -0.971046 0.162750 0.094310 0.679495 0.882066 0.873718 -0.649627 0.233168 -0.174926 -0.816034 -0.434492 -0.128064 0.916318 -0.528732 -0.669622 -0.115542 -0.656300 0.079024 -0.441260 0.388396 0.061532 -0.676505 -0.405512 -0.290533 -0.058327 0.654974 -0.403788 0.655547 -0.356055 0.867197 -0.843882 -0.327101 0.029947 0.250428 -0.647606 -0.087987 0.124146 -0.297233 -0.854820 0.949220 -0.113267 -0.289311 -0.178844 -0.196949 0.181956 0.151534 0.687510 0.525656 -0.769442 -0.753751 -0.085948 0.292090 -0.430256 0.508540 -0.998443 0.511418 0.163515 -0.402231 0.166965 0.807460 -0.535034 0.323083 -0.519641 0.494913 -0.426489 -0.167248 -0.593075 0.697656 0.535519 -0.447894 0.646876 -0.577748 0.262795 -0.531968 0.225303 -0.555249 0.619566 -0.087187 0.970407 0.850124 0.159062 -0.115541 0.142214 0.728807 -0.607000 0.143771 0.240224 0.556514 0.741540 -0.592811 0.363974 -0.793494 0.730272 0.844332 0.701419 -0.696217 -0.322915 -0.891656 -0.998561 -0.787396 -0.339550 0.648316 -0.365144 0.923245 -0.883652 0.860159 -0.632005 0.735914 -0.227028 -0.661598 0.586038 0.932034 0.222861 -0.271748 0.660841 0.615861 0.872023 -0.098934 0.172375 0.613563 0.308255 -0.463651 0.820069 0.038527 -0.619319 0.521487 0.342310 0.057766 0.629832 0.343750 0.270370 -0.709718 -0.007934 0.905226 -0.786474 0.108414 0.765386 -0.418478 -0.155672 -0.461642 -0.080076 -0.569633 -0.529608 -0.857215 0.158619 -0.868767 0.758646 0.030641 0.032299 -0.068979 -0.355796 -0.659446 0.467370 -0.535727 0.379081 0.848051 0.985760 -0.278608 -0.094182 0.615592 -0.934858 -0.823812 0.905874 0.057207 -0.918586 -0.880600 -0.834379 0.846800 -0.299078 0.009949 -0.614842 0.620845 0.440316 -0.144450 0.763631 -0.401065 -0.013217 0.522277 0.629576 -0.980918 -0.546702 -0.726220 -0.640364 0.920668 -0.261947 0.738718 0.768720 -0.276186 -0.539890 -0.325463 -0.660594 -0.474749 -0.149275 -0.754721 0.582459 -0.067860 -0.635321 0.748080 -0.221060 0.065601 -0.241970 0.164097 -0.313554 -0.801654 -0.980353 -0.549923 -0.202720 0.006431 0.972353 -0.573143 0.025513 -0.574349 -0.299363 0.385150 -0.653680 0.438690 0.123868 -0.884961 -0.837496 0.583977 -0.210423 -0.498090 -0.890771 0.640302 -0.252811 0.691688 -0.427558 0.111868 0.439768 0.351381 -0.822531 -0.802203 -0.484521 -0.136085 -0.603857 -0.464874 0.313992 0.193423 0.541557 0.286346 0.620280 -0.432929 0.711997 -0.679083 0.952220 -0.941683 0.759607 0.076088 -0.826644 0.922112 -0.339934 -0.037067 -0.575979 -0.230706 -0.396765 0.171211 -0.539018 0.175677 -0.716921 0.900750 -0.472941 -0.539452 -0.901453 0.042537 0.324464 -0.505310 0.577664 -0.361544 0.688114 0.119221 0.924801 0.308394 0.686292 0.636798 0.629311 0.638512 0.695115 0.388918 -0.285400 0.868471 0.311030 0.374666 -0.168595 0.735051 -0.856040 0.434640 -0.093738 -0.395058 -0.389683 0.189341 -0.494308 0.137376 0.649889 -0.395761 -0.820087 -0.025647 0.098929 0.757577 0.612809 -0.212958 -0.123203 0.537610 -0.904564 -0.436911 0.174408 0.724747 -0.798399 -0.130477 0.113665 -0.083799 -0.262005 -0.575306 -0.709133 0.569399 -0.840254 -0.565173 0.004039 0.066008 0.039769 0.614356 -0.744651 0.545461 -0.248268 0.905238 -0.850300 -0.068355 -0.120409 0.248629 -0.310779 -0.507600 -0.964329 0.566019 -0.969990 -0.868893 -0.870892 0.204418 0.855854 -0.669291 -0.926058 -0.030482 0.246910 -0.188064 0.394213 0.537777 -0.618664 0.553959 0.972604 0.385375 -0.380034 0.012374 -0.000269 -0.124685 -0.442165 0.751463 -0.219447 -0.292465 -0.316892 0.660144 0.956164 0.372329 -0.847456 0.991835 -0.061653 -0.817446 -0.877058 0.067455 0.386972 0.978796 0.398164 0.460913 -0.051686 -0.354926 -0.727150 -0.657473 -0.817149 -0.345814 0.896485 -0.844545 -0.960440 -0.483548 0.167829 0.039292 0.391767 0.725664 -0.209245 -0.827680 -0.566801 0.473862 0.832464 -0.610637 -0.153809 0.985008 -0.618802 0.784538 -0.832439 -0.495860 -0.148007 0.554533 -0.517064 -0.749843 0.015446 0.431250 -0.104770 0.288296 0.773777 0.078081 0.942482 0.670262 0.233536 0.982042 -0.813286 -0.598635 0.021334 0.578481 -0.872971 0.812088 0.750801 -0.439772 0.285951 0.583265 -0.050409 -0.867859 0.568273 0.330789 0.916680 0.735834 0.834928 -0.231327 0.290367 -0.682136 0.018829 -0.694186 0.749114 0.914060 0.594110 0.522890 -0.007860 0.536591 0.193152 -0.774323 0.518634 0.379866 -0.372958 -0.460033 -0.041653 -0.245929 -0.647944 -0.290853 0.314299 0.638006 -0.707588 -0.736111 0.770148 0.860685 0.594678 0.686827 0.596519 0.429606 -0.544500 -0.113114 0.747470 
0.474329 0.192700 0.496584 0.388389 -0.213190 0.019474 -0.619470 -0.676599 -0.787374 -0.393794 0.842035 0.592492 0.233248 -0.617998 -0.449161 0.987318 -0.265942 0.259986 0.301617 -0.627936 0.552398 0.565506 -0.857789 0.413083 0.160184 0.829039 0.009601 -0.410210 -0.715461 0.896487 -0.662740 0.758868 0.089187 0.833844 0.147257 0.875997 -0.146682 0.527787 -0.800602 0.065944 -0.866007 -0.958567 -0.341564 0.367240 -0.576566 0.209275 0.354559 0.157492 -0.530740 -0.343825 0.529556 -0.978342 -0.778318 0.671767 0.434741 0.381866 0.500805 -0.555658 0.971656 0.785344 -0.659170 -0.691084 0.544212 0.430017 -0.857240 -0.308531 0.306014 -0.003922 -0.780744 0.505412 -0.937977 -0.646752 0.546844 -0.279541 0.720489 0.970279 0.929733 0.075047 0.127771 -0.601007 0.731223 -0.342674 -0.579348 0.952905 -0.670907 0.855392 0.334770 0.829898 -0.700265 0.306426 0.615242 -0.359436 0.615342 0.159454 -0.929419 0.758102 0.850923 0.376595 -0.245819 -0.929821 -0.117994 -0.183797 -0.576572 -0.571149 0.536662 -0.856084 -0.600871 0.466395 0.218964 0.526900 0.865388 -0.049813 -0.815774 -0.713960 -0.096909 -0.486681 -0.858567 -0.762138 -0.656783 -0.558833 0.544288 0.958459 0.081731 0.159630 0.117914 0.152312 -0.082268 -0.031163 -0.471093 0.671913 0.039016 0.410913 -0.511884 0.462444 0.839764 -0.975222 0.606360 -0.761107 0.491173 -0.174676 0.765792 0.356562 0.775511 0.950018 0.642602 -0.321397 -0.536663 0.784034 -0.083536 -0.193446 -0.774799 -0.539248 -0.234986 0.306933 0.620382 0.882927 -0.540755 -0.461886 -0.148235 -0.011848 -0.789973 0.890781 -0.600935 -0.301857 0.353225 -0.761172 -0.277078 -0.040415 -0.522279 -0.785905 0.784910 -0.756487 0.570657 0.560421 -0.806469 0.213259 -0.760976 -0.343132 -0.002707 0.155488 0.463422 0.222495 0.616240 -0.771564 -0.470573 0.236622 -0.888637 -0.011328 0.774736 -0.036872 0.976824 0.984763 -0.146091 -0.624112 -0.317094 -0.792866 -0.385284 0.405828 0.166719 0.092437 0.619923 -0.048371 0.335950 0.190580 -0.487950 0.529482 -0.596162 -0.248926 -0.813650 0.401131 0.906562 0.649772 -0.376374 0.522803 0.878208 0.153053 -0.240575 0.989572 -0.858275 -0.465840 -0.047301 -0.881451 -0.481077 0.806608 -0.505563 0.201829 -0.986258 0.109153 -0.392343 0.180461 -0.798410 -0.772420 -0.867911 0.537541 0.418159 -0.355861 0.067022 0.821997 0.395213 0.253372 0.223129 0.301775 -0.096856 0.846755 -0.175422 -0.218648 -0.000192 0.584002 -0.229076 0.141534 -0.881837 0.723624 0.260083 -0.362914 0.530232 0.754520 0.838915 0.543973 -0.136327 -0.553428 -0.275566 0.065263 -0.325849 -0.143477 -0.397196 -0.907690 0.500662 0.669826 0.914308 -0.104125 -0.076802 0.137437 -0.802350 0.826342 -0.015808 0.022228 -0.392305 0.984000 -0.393770 0.378619 0.125533 -0.275607 0.102242 -0.614384 0.361479 -0.367526 -0.859864 0.200395 -0.823553 0.003809 0.646966 -0.099119 -0.930928 -0.678882 0.757404 -0.328124 -0.586572 0.258066 -0.658298 -0.672264 -0.846059 0.264901 0.465173 -0.648408 0.091243 -0.550636 0.373819 0.698938 -0.566636 0.980050 0.077557 0.558897 -0.295557 -0.820201 0.944513 -0.934077 -0.187727 -0.915351 0.266317 -0.011280 0.088458 -0.086716 0.889602 0.157530 0.234402 0.647006 0.829406 0.647830 -0.094928 -0.828891 0.975566 0.059014 0.436009 0.440739 0.410605 -0.472748 0.890104 -0.215575 -0.773810 -0.676532 -0.235525 0.303747 0.882365 0.468918 0.483546 0.826879 0.534841 -0.704181 0.911528 -0.198842 0.284539 -0.000015 0.714442 0.174141 -0.842485 -0.051157 -0.178853 0.986921 -0.403327 0.726219 -0.841970 -0.427760 -0.214767 0.594039 -0.987021 -0.804162 -0.878708 0.903083 -0.019737 -0.652518 -0.773449 0.744737 0.651228 -0.891084 0.213655 0.134774 0.935795 -0.251504 0.430593 0.847322 0.549654 -0.284868 -0.152693 0.264095 0.889273 0.004823 -0.787061 -0.289580 -0.008256 -0.190388 -0.563361 0.149774 0.381852 0.221872 -0.256187 0.394831 0.417710 -0.134895 0.297914 -0.602027 0.212586 0.524464 -0.857290 -0.136185 0.633380 0.356365 0.998589 0.569175 -0.895139 0.429182 0.416497 0.654515 -0.855686 -0.736195 -0.081390 -0.966412 0.268627 0.131549 -0.255992 -0.739629 0.941161 0.180647 0.410145 0.323013 -0.597481 -0.846041 -0.282156 0.820229 0.019064 -0.984242 -0.781799 -0.768350 0.540222 -0.639089 0.095465 0.173603 0.717276 0.094054 -0.257222 0.822137 -0.476764 -0.840725 0.476652 -0.332450 -0.576920 -0.604738 -0.298862 0.691707 0.526811 0.445146 0.952079 0.467972 -0.374207 0.362224 -0.209015 0.028311 0.516183 0.508829 -0.151460 -0.464754 0.524587 0.066741 -0.233104 0.064810 0.427652 0.862361 -0.761588 0.144928 -0.043585 -0.018809 -0.032935 0.479651 0.140466 -0.556283 -0.852799 0.563546 -0.161021 -0.151661 0.255253 -0.634210 -0.706515 0.207332 0.833761 -0.080723 -0.430444 -0.375254 0.947589 -0.914261 -0.866425 -0.203872 -0.379015 0.658163 0.862870 0.387881 -0.277028 0.290522 0.250242 -0.038615 -0.564550 -0.793343 0.942575 0.402515 0.686308 0.083041 0.846232 0.833509 -0.353413 -0.314789 -0.318152 0.901840 0.051001 -0.024667 0.109172 -0.115238 0.894610 0.678728 0.509508 0.842199 0.764466 0.643084 -0.361673 -0.614549 0.301246 -0.498803 0.773332 -0.975781 0.791719 0.023574 -0.014397 -0.772832 0.230231 -0.071822 0.629684 -0.083462 -0.988781 0.475916 -0.249953 -0.342194 -0.838873 0.431895 -0.440354 0.212128 -0.592772 0.668818 -0.903110 -0.698162 0.347546 0.606398 -0.855963 0.112012 0.249482 -0.217636 0.497463 -0.449271 0.283561 0.270795 -0.425052 0.075280 -0.705631 0.560551 0.302448 0.524599 -0.511271 -0.067868 -0.558863 -0.500051 -0.591952 0.191184 0.157755 -0.430825 -0.376921 0.717401 0.781303 0.030307 0.386219 0.878193 0.332145 -0.266235 0.484591 0.476181 0.845777 -0.265926 -0.741454 0.343240 0.284803 0.542107 -0.385966 0.859750 -0.382614 -0.091597 0.420301 0.919835 -0.566998 0.909030 -0.148033 -0.125861 -0.591021 0.260014 -0.934677 0.566734 0.829190 -0.311598 0.284135 0.610492 0.718709 -0.329646 0.488685 0.050853 0.404119 -0.026723 -0.472965 0.249895 0.707350 -0.214420 -0.406865 -0.007847 -0.672313 0.207169 -0.148097 -0.054927 -0.884428 -0.727796 -0.135092 -0.451426 -0.818766 0.716875 0.422713 -0.409787 -0.023111 0.488036 -0.843053 -0.193921 -0.823562 0.441082 -0.583429 0.895147 -0.888564 0.905256 -0.054000 0.515554 -0.121467 0.473034 -0.234550 -0.414116 -0.741385 0.358584 0.578037 -0.413698 -0.434247 -0.570060 0.531375 -0.318675 -0.297856 -0.603717 0.229899 -0.116622 -0.886842 -0.347388 0.473591 0.090047 -0.859352 0.630538 0.896125 -0.682915 0.071620 -0.687303 -0.787768 0.183055 -0.782047 0.158232 -0.301390 0.096486 -0.368734 0.464059 0.682370 -0.110119 -0.177356 0.260407 0.476182 0.388397 0.690346 0.007557 -0.930277 -0.607510 0.403840 0.299622 0.275868 0.516998 0.952233 -0.250540 -0.392955 -0.907119 -0.620002 -0.496830 -0.590034 0.451617 -0.184133 -0.377802 -0.365327 0.033820 0.780430 0.333283 -0.869694 -0.588304 -0.202658 0.812676 0.301576 0.619986 0.073082 -0.222242 0.008383 -0.236571 0.785315 0.078106 0.155919 0.189155 -0.622273 -0.568212 -0.293847 -0.670040 0.181247 0.313198 -0.577159 0.561245 0.816368 -0.167193 0.012862 -0.367765 0.455006 0.647535 0.666055 0.235435 -0.019182 0.796361 0.647131 0.778160 0.609037 -0.051292 0.398146 -0.317881 0.726466 -0.593471 0.445548 0.511782 0.484635 -0.398533 -0.299063 0.862362 0.033255 0.407090 -0.807678 -0.785498 -0.279712 -0.384837 0.775747 -0.463344 0.447970 -0.211391 0.168891 -0.097024 -0.563855 -0.165054 -0.861589 0.416963 -0.368693 0.785543 0.195123 -0.759657 -0.265750 -0.406731 -0.077538 -0.539284 -0.000202 -0.631990 0.972498 -0.515567 -0.030523 -0.326565 -0.653206 -0.997269 -0.919475 -0.460884 -0.782767 -0.199186 0.154279 0.992980 0.337470 -0.397750 -0.218411 -0.493639 0.505226 0.217734 0.341308 0.643637 -0.365303 0.972614 0.429180 0.829820 -0.787042 -0.836570 -0.576912 0.135420 -0.375853 0.422886 0.503430 -0.403355 0.907319 -0.527093 0.270080 -0.745887 -0.524362 0.350605 -0.206771 -0.307129 -0.848581 0.947509 -0.314149 0.488889 -0.450241 0.467441 0.995251 -0.945015 -0.314825 0.336558 0.698622 0.319871 0.309172 0.127802 0.149691 0.522130 0.291233 0.572780 -0.342450 0.915379 -0.004334 -0.839020 -0.487976 -0.097015 -0.366114 0.782104 0.157098 0.109524 0.132710 0.950327 0.802395 0.284129 0.897836 -0.511753 -0.226982 -0.552405 0.955687 -0.231732 -0.497420 -0.359138 -0.895173 -0.798798 0.960734 0.413999 0.329004 0.110425 -0.063871 -0.379763 -0.316796 0.593679 -0.464384 0.678870 0.754658 0.047641 -0.418145 -0.611456 -0.170255 0.738953 0.498068 0.962455 0.689280 0.300464 0.246584 0.587117 0.788710 -0.980398 -0.965288 0.744398 -0.212130 -0.462708 -0.614740 -0.107304 -0.261506 -0.654007 -0.693305 -0.932501 0.456418 0.242824 -0.312264 -0.860378 -0.163497 0.223352 0.818492 -0.408839 -0.729007 -0.599653 -0.020294 0.100738 -0.860700 -0.522226 0.063193 0.828580 0.778238 -0.690224 0.415697 0.566948 -0.670622 0.450409 0.311345 0.117248 0.987700 0.696605 -0.990056 -0.273805 -0.957402 -0.683360 -0.206307 0.499016 0.559464 0.481429 0.638638 -0.604033 -0.295219 0.457131 -0.012871 -0.024227 0.857478 0.966834 -0.923489 0.996778 -0.555392 0.139704 0.825358 -0.777154 0.449480 0.241054 0.789793 0.778858 -0.308537 0.101139 -0.103894 -0.320837 -0.202256 -0.093950 0.405358 -0.159658 0.222689 -0.800949 -0.660641 -0.217846 0.680480 0.977997 0.178121 -0.614739 0.435128 -0.834751 0.361034 0.292606 -0.867916 0.437545 0.289383 -0.423308 -0.422751 0.114741 -0.200463 -0.973271 -0.644204 -0.410669 0.805587 0.047258 0.690470 -0.298307 0.726422 -0.511786 0.607742 0.131780 0.328556 -0.169568 0.330831 0.667915 0.612585 0.011312 0.645912 -0.209294 0.396573 0.081040 -0.044044 -0.242393 -0.626355 0.088039 -0.804848 0.663028 0.664731 -0.227598 -0.222231 -0.535732 -0.200869 0.133565 0.053599 -0.395282 -0.819177 -0.255932 0.306411 0.907245 0.232282 -0.085847 0.039025 -0.439162 0.744585 -0.630143 -0.771248 0.357171 0.381168 0.874664 -0.852123 -0.222259 -0.044296 0.103832 0.535348 0.329349 -0.808128 0.730500 -0.007623 0.856602 -0.497098 0.770147 -0.679130 0.302033 -0.096288 0.374469 0.906751 0.084535 -0.881463 0.213162 -0.008220 0.350819 -0.872685 -0.969194 0.911657 0.871900 -0.599337 -0.859590 0.229071 0.781831 -0.984926 0.376948 -0.440428 -0.029223 -0.519219 -0.905080 -0.699874 -0.327348 0.825420 0.292504 -0.470746 -0.671678 0.062650 -0.149875 0.630354 0.966362 -0.775406 0.537105 0.050897 -0.656869 -0.249733 -0.957322 0.693951 -0.122418 -0.926516 0.605608 -0.250518 -0.525854 0.746017 0.978554 -0.744023 0.761091 0.355502 -0.184451 -0.268132 0.836282 -0.089532 0.031995 -0.491066 -0.264112 -0.675502 0.038189 0.064209 0.387149 0.888313 -0.305436 0.353511 -0.887093 -0.768331 -0.595592 -0.543962 -0.018064 -0.552914 -0.850011 0.859518 -0.479431 0.755597 -0.391000 -0.005285 0.501614 -0.412446 0.250692 0.262705 0.943055 -0.933759 0.994573 0.779338 -0.023291 0.026568 -0.711728 0.712597 0.351066 0.326460 -0.223194 -0.261785 0.214774 0.471370 -0.908275 0.327681 0.703039 -0.503867 0.783719 -0.315025 -0.056781 0.933708 -0.455507 0.463788 0.689304 0.153493 -0.541497 0.190918 0.741047 0.709195 -0.546377 0.684102 0.775436 -0.551804 0.463440 -0.247855 0.474764 0.751711 -0.535258 -0.174170 0.078172 0.241548 0.564044 -0.707054 -0.287081 0.655770 0.620626 -0.584042 -0.848097 0.404345 0.100932 0.095121 0.338053 0.645425 -0.441091 0.027358 -0.201082 0.017412 -0.781724 -0.460035 -0.273393 -0.328101 -0.775933 -0.497957 0.120095 0.687507 0.254188 -0.405141 0.439218 0.718930 0.420689 -0.482610 -0.039521 -0.015266 -0.189665 0.673398 -0.359497 -0.569038 -0.910645 -0.207594 0.835307 0.190287 0.887527 0.173360 -0.164288 -0.553564 -0.799282 0.634630 0.463848 -0.581005 -0.825405 -0.809544 0.090894 -0.601338 -0.307501 -0.789011 -0.913831 0.946687 -0.194151 0.525387 0.665618 -0.773462 -0.957223 -0.373903 0.211272 -0.146888 -0.700506 0.851775 0.284073 -0.611151 -0.355819 0.119380 0.579137 -0.468292 -0.707259 -0.585151 -0.021856 -0.506541 -0.950520 -0.558007 -0.087546 -0.775925 -0.367552 -0.996652 -0.377263 0.324947 -0.785663 -0.291094 0.271634 0.020186 -0.765708 -0.062748 0.246723 -0.722931 0.563349 -0.542005 0.130181 0.862843 -0.690230 -0.585746 -0.748308 -0.046049 0.533635 0.830829 0.485659 0.826376 -0.754322 -0.536196 -0.680165 -0.704842 -0.094204 0.232289 -0.480767 0.538244 0.235637 0.141970 -0.136808 0.449974 0.850875 -0.865174 -0.529841 -0.914832 0.072078 0.716883 -0.637764 -0.364573 -0.825122 0.492417 -0.501730 -0.515352 0.906671 -0.250038 0.438599 0.440306 -0.419209 -0.075742 0.266682 -0.173531 0.388062 0.586516 0.121627 -0.706142 -0.181195 0.640860 0.832102 -0.945558 -0.217171 -0.304706 0.504415 -0.366296 -0.169880 0.974575 -0.281128 0.902198 0.691457 0.081109 -0.462375 0.866335 -0.426474 0.035895 -0.649017 -0.519803 0.785857 0.789582 0.920503 -0.633352 -0.286160 0.187185 0.193117 -0.898099 -0.226299 -0.685256 -0.604241 0.592506 0.955604 -0.772139 0.646948 -0.261567 -0.076845 0.151364 0.372138 0.753275 0.125938 -0.908990 0.655474 -0.182604 0.172118 -0.806901 -0.316269 0.745644 0.228994 0.034714 -0.774159 0.014851 -0.175704 -0.853656 0.381499 0.538136 0.333529 -0.425384 0.640037 -0.892770 -0.110639 -0.964204 0.699737 -0.155035 -0.736342 0.346685 0.583398 0.186813 -0.501951 -0.044464 -0.059911 0.623987 0.046546 -0.404438 -0.558617 -0.781336 -0.211339 0.125114 0.964308 -0.982345 -0.840172 -0.809851 0.032506 -0.015877 -0.663506 -0.585995 -0.477741 0.670023 -0.011379 -0.837704 0.777253 0.877982 -0.801908 0.476990 -0.277053 -0.538250 -0.176325 -0.693655 0.648563 0.321724 0.261880 -0.411348 -0.054289 -0.691574 0.184214 0.387094 -0.472910 0.972875 -0.487792 -0.508602 0.990530 -0.327965 -0.318453 0.023036 0.656159 0.018041 0.437041 -0.821582 -0.311936 -0.574338 -0.659286 -0.534683 -0.696356 -0.461194 0.942306 0.026591 0.000557 -0.234019 0.332936 -0.350880 -0.912295 -0.405184 0.237772 0.033415 -0.096758 -0.578014 -0.579491 0.430332 -0.605139 -0.067283 0.921730 -0.614608 0.604752 -0.396723 0.408428 0.260911 0.621318 -0.154531 0.439329 -0.690618 0.271131 0.780043 -0.225301 0.574776 -0.681150 -0.282995 -0.398633 0.319406 0.482986 0.934302 0.968526 0.570690 -0.470882 0.206298 -0.395894 0.432361 0.628284 0.024615 -0.137307 -0.976855 0.957332 -0.215577 -0.591463 0.562085 0.387700 0.816965 -0.177004 0.009019 -0.337566 -0.737675 0.318401 0.933565 -0.957631 -0.906901 0.508341 -0.638781 -0.189896 -0.890293 0.680625 -0.706910 -0.955991 0.649151 0.863780 -0.426872 -0.144551 -0.532114 -0.994512 -0.516267 0.492501 -0.131819 -0.493122 0.449834 0.652604 -0.084585 0.011918 0.040305 -0.267620 0.834914 -0.950677 0.394813 -0.902760 0.367724 0.328378 -0.860391 0.460823 -0.163281 -0.499173 -0.729073 -0.053574 -0.818547 -0.435983 -0.009564 0.830604 -0.572203 0.563563 -0.313947 -0.104316 0.569052 0.169787 -0.611815 -0.562767 0.676665 0.838019 -0.910163 -0.407920 -0.150063 0.130141 0.324460 -0.315148 0.179465 -0.280727 -0.217908 -0.452811 -0.952348 -0.078300 -0.991988 -0.115629 0.422528 -0.721061 0.830797 0.603980 -0.157044 -0.178767 0.434584 0.270754 -0.615204 -0.879363 -0.833562 0.953848 0.290424 -0.445377 -0.608919 -0.032911 -0.607358 -0.519083 0.559169 0.242579 0.611059 -0.116371 0.927431 -0.209476 0.602903 -0.290478 0.337712 0.650555 0.631223 0.345724 -0.465075 0.053750 0.624664 -0.634277 -0.342270 -0.532380 0.186955 -0.907685 0.738374 0.571751 -0.787048 0.904811 0.525599 0.503376 -0.540566 0.916680 -0.529535 -0.147924 -0.602403 -0.970366 -0.905345 -0.991344 -0.086737 -0.977914 -0.200820 -0.483834 -0.268392 -0.863108 -0.833280 -0.637169 0.482617 -0.298354 0.416581 0.107281 0.067369 -0.925689 0.574901 -0.745676 -0.833374 0.313274 0.826075 -0.620422 0.218086 0.351675 0.882954 0.677520 0.268354 -0.646581 -0.470404 0.665952 -0.616947 -0.375749 0.674608 0.296316 -0.353664 -0.526212 0.812482 0.377944 -0.389320 0.979203 0.740775 -0.906703 -0.319151 0.157356 0.200578 0.748217 0.231667 -0.224522 -0.997459 0.398293 -0.911248 0.828617 0.777871 0.306838 0.180291 0.660825 -0.015642 -0.551354 -0.985756 0.513954 -0.885403 -0.602702 -0.861795 0.789205 0.693614 -0.215459 -0.737007 0.506096 -0.837514 -0.126327 0.485299 0.903261 -0.033030 -0.833852 0.060617 -0.832453 0.914365 -0.707716 -0.056974 0.916906 0.690577 0.031778 0.745523 0.468449 -0.661384 -0.074186 0.129274 0.322974 0.374460 0.143518 -0.163072 0.489057 0.540816 -0.024867 0.278263 0.234430 0.759675 0.541255 -0.259474 0.922161 -0.585072 -0.774175 0.825421 0.381898 -0.608027 -0.113962 0.549446 -0.693662 0.178322 -0.507529 -0.776755 -0.131101 0.524249 0.968768 -0.662652 0.862865 -0.105418 0.466622 0.185840 -0.730958 -0.389860 -0.977232 0.758100 -0.849044 -0.002098 0.036362 0.385386 -0.242424 -0.422382 -0.874088 -0.320263 -0.007454 -0.648263 -0.494842 -0.625556 -0.256290 0.391196 0.923890 0.050048 -0.430481 -0.583639 0.273293 0.438418 0.940611 0.242061 0.775766 0.803476 -0.863357 0.242388 -0.010684 -0.594315 0.852528 0.012084 -0.836215 -0.996516 -0.990014 0.200147 0.388869 -0.232438 0.777765 0.514781 0.447299 -0.229689 0.866518 0.952457 0.144755 -0.389772 0.343654 0.068646 0.660277 0.913173 0.485007 -0.066430 0.351591 0.425618 -0.824369 0.127357 0.229094 -0.687726 -0.630255 -0.781590 -0.282040 -0.777727 0.230494 -0.118255 -0.774243 0.240480 -0.918108 0.614626 -0.991958 0.859657 0.129407 0.455341 -0.370032 -0.004074 0.407799 0.774724 0.606154 -0.248548 -0.156631 0.266430 -0.335375 -0.671624 -0.800000 -0.983784 0.753994 -0.624369 0.143573 -0.016912 -0.312094 0.513317 0.201498 0.405865 0.735590 -0.568008 -0.712390 0.961347 0.672472 -0.630498 0.575973 0.680514 -0.770840 -0.294619 0.135855 -0.140872 0.701306 -0.456346 -0.366148 0.307460 0.295106 0.477221 -0.426109 0.959731 0.805598 -0.226109 0.975947 0.559592 0.149522 0.119520 -0.457320 0.837428 -0.367163 0.744178 0.243293 -0.631572 -0.823830 0.530903 -0.670225 0.848641 0.900406 0.905748 0.529155 -0.870435 -0.388871 -0.334989 -0.011307 -0.687564 0.208665 0.622545 0.619896 -0.496229 0.099766 -0.806214 -0.536497 -0.094636 -0.032323 -0.560550 -0.535045 -0.882800 0.558970 0.007635 0.954628 -0.808193 -0.248187 0.197921 -0.439766 -0.072018 -0.271176 -0.109991 -0.223376 -0.370770 -0.204242 -0.694221 -0.241205 0.406887 -0.029210 0.747489 0.719322 -0.820546 0.370033 0.339218 -0.316774 -0.530200 0.533004 0.146728 0.375163 -0.499318 0.586178 0.840118 -0.382119 0.145147 -0.152247 -0.427491 0.336954 0.599566 0.770430 0.897189 -0.472452 -0.500746 -0.212802 0.304172 0.128484 0.582956 0.609951 0.887279 -0.010158 -0.419260 0.634768 -0.290836 -0.239805 0.004801 -0.951618 0.443420 0.474601 0.581386 -0.409852 -0.150236 -0.917932 -0.823674 -0.310118 -0.300051 0.321474 0.537635 0.272458 -0.341572 0.137201 0.042888 -0.444384 0.664749 0.542142 0.342814 -0.031079 -0.329374 -0.074230 -0.421128 -0.442095 0.915612 0.159612 -0.807327 -0.375223 0.919807 0.197474 -0.326841 0.363228 -0.327925 -0.745455 0.953376 0.521839 -0.663387 -0.870298 -0.788279 0.036562 0.451176 0.749356 -0.690980 -0.890396 -0.113443 0.351908 -0.334780 -0.448693 -0.105950 -0.991965 0.520228 0.564675 -0.066195 -0.900900 -0.877420 -0.150583 0.258712 -0.684747 0.474193 0.178519 0.512727 -0.852648 -0.458253 -0.815198 -0.598103 -0.504877 0.706641 -0.261490 -0.375174 0.918361 0.775072 -0.923998 0.667718 -0.915908 -0.814394 -0.445725 0.435999 -0.149174 0.105582 -0.669951 -0.141139 -0.374190 0.894724 0.792665 -0.275090 -0.982695 -0.357918 0.983622 -0.667442 -0.883724 0.162142 0.845286 -0.736372 0.703889 -0.969912 -0.334475 -0.800988 0.736728 0.404035 -0.176162 0.655090 0.179106 -0.100160 0.322807 0.263198 0.085445 0.877082 -0.300803 0.936271 -0.017336 0.029246 -0.204868 0.608475 -0.076029 -0.412203 -0.666615 -0.058725 0.229880 -0.682993 0.273834 0.346155 0.479149 0.119119 0.609783 0.183038 0.149207 -0.724692 0.382050 -0.114065 0.679343 -0.794112 -0.458975 -0.141551 0.105728 0.863832 -0.878353 -0.808827 0.740915 -0.179156 -0.872555 -0.276421 0.850090 -0.077424 -0.667946 -0.225940 0.510374 -0.334561 0.715336 -0.259747 -0.017554 -0.010831 -0.913591 -0.538405 -0.891711 0.696192 0.644633 0.257495 0.971500 0.026683 -0.856570 0.650842 0.232571 -0.315545 -0.490709 -0.661701 -0.451712 -0.369062 -0.470528 -0.710797 0.451781 -0.343083 0.012782 0.301871 0.579493 0.344836 -0.924069 0.089867 -0.989726 0.791267 0.830120 -0.007280 -0.219563 0.916529 0.454314 -0.111275 0.612721 0.098947 -0.853779 0.584221 -0.874370 -0.710349 0.235064 0.358201 -0.025894 0.744355 0.696500 0.522394 -0.624707 -0.774027 0.811597 0.827074 -0.117110 -0.175622 0.128945 -0.537617 -0.830786 0.204877 0.552250 -0.820512 -0.003856 0.382370 0.172208 0.776581 0.298900 -0.373478 -0.334694 -0.088379 0.725469 -0.188474 -0.504158 0.851099 0.101177 0.730906 0.209300 -0.924716 0.475260 -0.094199 0.597678 0.850553 0.131773 0.409275 0.677627 -0.985337 -0.766347 -0.193428 -0.522954 -0.597133 -0.988551 -0.970704 -0.417645 0.007593 0.411666 0.754563 -0.215826 -0.289434 -0.618915 0.449480 0.622187 -0.893445 -0.738994 -0.881972 0.957654 0.362184 0.848934 0.166954 0.437467 0.324194 -0.927245 0.035145 0.174748 0.204528 -0.555580 -0.147625 0.219191 -0.321927 0.658947 0.696237 0.080940 0.670396 0.725533 0.663295 -0.322010 0.137199 0.417857 0.462164 0.847765 0.798943 -0.088356 0.469952 0.905497 0.172650 0.587980 0.863151 -0.465167 0.436914 0.030105 0.972301 -0.238892 0.102860 0.007446 0.935856 -0.692612 0.451865 -0.211769 0.526580 -0.870062 -0.552822 0.222817 0.210878 -0.882426 -0.051650 -0.125828 -0.204436 -0.914451 -0.707970 -0.742272 0.933314 -0.909028 0.169371 0.403266 0.996469 -0.657979 -0.008754 0.859620 -0.123146 -0.571840 -0.110275 -0.150845 0.189268 0.992585 0.856601 0.125124 -0.700026 0.308466 0.913355 0.826554 0.438404 -0.639467 0.049371 -0.350719 -0.521893 0.997721 0.523454 0.273671 -0.916730 0.815483 0.531399 -0.983416 0.906455 -0.299230 0.419849 0.902925 0.042791 -0.588905 0.762545 0.919646 -0.160746 -0.347730 -0.231199 -0.971478 -0.355145 -0.374599 0.153646 -0.055171 0.933867 0.067001 -0.228617 0.372271 0.427533 0.820754 -0.978447 0.905640 0.818474 0.545006 0.179311 0.901744 0.360489 -0.289290 0.918328 0.266945 0.411480 0.338177 0.169869 -0.545729 0.749272 -0.067586 -0.626083 -0.411474 0.584684 0.142718 -0.382951 -0.770461 0.768119 0.770695 0.174368 0.701986 -0.162304 0.945751 0.074257 -0.734771 0.766505 0.095810 -0.829130 0.584979 -0.359184 0.350181 0.486723 -0.998695 -0.939109 0.405051 0.268250 0.472371 -0.256772 -0.561881 0.926642 -0.507500 0.370533 -0.699441 0.081026 -0.044784 0.443277 0.698075 0.184755 0.211396 0.468770 -0.640877 -0.086617 -0.693534 -0.695126 0.987640 -0.428305 -0.928621 0.083450 -0.257435 0.656358 0.724266 -0.907254 0.143081 0.725571 -0.846364 -0.451868 -0.006179 0.626007 0.291359 0.431939 0.552649 0.783859 -0.197528 0.853209 -0.135114 0.757688 0.296486 -0.437039 -0.057556 -0.492117 -0.968269 0.301567 0.421265 -0.661803 0.606441 0.408905 -0.090107 0.677821 -0.507645 0.652458 0.334178 -0.783380 0.745203 -0.522741 0.942191 0.898839 0.025391 -0.063989 0.524847 -0.683250 -0.632049 0.077496 -0.899390 0.170423 -0.069295 -0.034504 -0.071889 -0.772809 0.528457 0.870555 -0.264926 0.560188 0.172122 -0.843661 0.898385 -0.221437 0.565244 -0.191722 -0.543616 -0.942402 -0.539265 0.790562 -0.725782 -0.794062 -0.732179 -0.783591 -0.895222 0.293212 0.152420 0.629624 0.609962 0.520371 -0.292880 0.710572 -0.309206 0.637825 -0.323932 0.618905 0.865017 -0.795476 0.489460 -0.399910 0.764712 -0.338418 -0.243571 0.663097 0.440145 -0.678327 -0.528625 0.896529 -0.620729 -0.067890 0.687092 -0.346511 0.138049 0.954913 -0.130102 0.242827 0.248125 -0.977681 -0.127549 -0.141912 0.542690 0.579572 -0.431340 -0.766516 0.217397 0.244727 0.852390 0.082414 0.449252 0.341850 0.682504 0.213964 -0.996568 -0.561067 -0.122939 0.443577 -0.239394 0.348436 0.340107 0.139877 -0.719453 0.027199 0.793366 0.418596 -0.017888 -0.336736 -0.338578 -0.769763 -0.314417 0.533874 0.088325 -0.771726 0.113445 0.656984 -0.538242 -0.669158 -0.098288 -0.685852 0.413256 -0.649037 0.655997 0.095760 0.564927 0.659429 0.534693 -0.558012 0.103007 -0.704702 0.790424 -0.556886 0.435175 -0.929029 0.470312 0.228541 0.489566 -0.547576 0.891806 -0.849011 -0.317339 -0.422611 0.684862 0.770986 
-0.194337 -0.201551 0.427971 0.267421 0.129291 -0.670318 0.581709 -0.457560 -0.319213 0.237566 0.638306 -0.754427 -0.103005 0.172999 -0.312440 -0.999998 0.468156 -0.522015 -0.556884 -0.096669 -0.451044 0.913428 -0.868128 -0.961478 -0.634147 -0.976322 -0.810489 0.048514 -0.398933 0.874373 -0.180500 0.406730 -0.327319 -0.752530 -0.325850 0.801830 -0.422847 -0.744282 -0.655764 0.257798 0.493284 0.982401 0.503371 -0.609721 0.155259 -0.809069 -0.609719 -0.376585 -0.331084 -0.166603 0.526746 0.217871 -0.253175 0.658619 0.256393 0.112678 0.682297 0.445904 -0.838809 -0.716636 0.320277 -0.019309 0.690093 0.992957 0.228162 -0.635756 0.794788 0.805315 -0.380038 -0.860976 0.063113 -0.886754 -0.878575 -0.433516 -0.496475 0.276683 -0.242585 -0.106194 0.900098 0.426331 0.727203 0.426844 -0.355798 -0.525972 0.085463 0.900595 0.586705 -0.232240 0.346499 0.747897 0.051123 -0.333224 -0.271412 -0.258783 -0.340266 0.956750 0.105460 -0.545478 0.762065 0.725422 -0.406455 -0.174822 0.838668 -0.285030 0.391661 -0.657807 0.991653 -0.850924 0.235999 0.891751 0.575407 -0.036798 0.318596 -0.780391 0.437230 -0.595941 -0.879796 0.023935 0.171818 0.466704 -0.228168 -0.777058 -0.866520 0.500421 -0.035842 -0.206786 0.457171 -0.930381 0.247736 0.219235 0.795041 0.841281 -0.955587 0.633709 -0.443749 0.436074 0.975903 -0.452096 0.585150 0.211902 -0.560345 0.160557 -0.824896 0.758251 0.380166 0.612334 -0.837690 0.500370 -0.363731 0.334128 -0.032926 0.408101 0.557070 0.100554 -0.091478 -0.478771 0.893768 -0.634308 -0.409153 0.141504 0.584927 -0.614112 -0.017215 0.629340 -0.980402 0.539035 0.065414 0.995500 -0.913061 -0.349436 0.207402 -0.473406 0.811121 0.382506 -0.715155 0.191287 -0.005161 -0.552845 -0.308343 0.631108 0.781283 0.658731 0.039209 0.338353 -0.240715 0.947731 0.859582 -0.346947 -0.686577 -0.549571 0.794557 0.898350 -0.163683 -0.222658 0.527691 -0.144085 -0.683623 -0.406895 -0.148585 -0.596684 0.243669 -0.941183 -0.070090 0.054790 0.441322 0.214755 -0.753923 -0.563838 0.661910 -0.062267 -0.932730 0.443193 -0.403536 0.106479 -0.218454 0.355749 0.054210 -0.358872 -0.991198 0.367633 0.091557 0.803359 0.265983 0.927875 -0.419300 -0.206326 -0.216211 -0.102923 0.386779 0.635204 0.300393 -0.369552 0.694021 -0.769697 0.685239 0.135344 0.445058 0.931315 0.571505 0.106967 -0.130951 0.638775 -0.449840 0.465513 -0.254746 0.331706 -0.178739 0.799463 0.972834 -0.169937 0.167096 0.064392 -0.366579 -0.566921 -0.007734 0.214121 0.226753 0.776056 -0.888801 -0.386468 0.411260 0.411592 0.243980 0.105281 0.641895 -0.070781 -0.759375 0.086953 -0.139466 0.812130 -0.806080 0.729583 0.450905 -0.255920 0.195095 -0.803841 -0.924213 -0.983643 0.995623 -0.951379 -0.153581 0.162719 0.113013 0.479840 0.595797 -0.894721 -0.306038 -0.177450 0.881335 -0.194839 0.436082 0.292595 -0.783247 -0.319938 -0.602124 0.858647 0.609281 -0.361498 -0.054400 -0.530185 -0.549368 0.139520 -0.800602 0.901537 0.883600 0.394493 -0.902303 0.959387 0.410850 -0.906681 -0.991992 -0.742731 0.256038 0.121021 0.737109 -0.148165 0.226300 -0.568929 0.674386 0.107634 0.236232 0.110467 -0.599771 0.452984 0.790529 -0.201894 0.311632 0.399810 0.436607 -0.742768 0.869625 0.887239 0.396752 -0.930978 0.788777 0.280352 0.463515 0.886473 0.239739 -0.125635 0.979792 0.247746 0.131633 0.235830 -0.631233 -0.131257 -0.912334 0.595067 0.299814 0.762051 -0.297299 -0.463955 -0.127481 0.102930 0.989030 -0.336952 0.901036 0.300661 -0.937142 0.337643 0.557893 0.932483 0.224882 -0.045355 -0.998495 0.013659 -0.765003 0.465020 -0.099868 0.474735 -0.660615 -0.120075 -0.277519 0.471018 -0.884245 0.091248 -0.660239 -0.796580 -0.313685 0.639575 0.965472 0.389016 -0.824380 -0.162010 -0.508054 -0.835350 0.501038 -0.607018 0.465311 0.563896 0.730626 0.023204 0.496379 -0.044492 0.977849 0.497884 0.969167 -0.787154 -0.037096 -0.130701 0.687581 0.302289 0.749224 -0.589938 -0.226693 0.864978 0.501311 0.113068 -0.931601 -0.812374 -0.247357 -0.966130 0.576642 -0.071737 -0.128140 -0.931412 0.092913 -0.627102 -0.538430 -0.441776 0.936795 -0.807804 0.581429 0.433173 0.147704 0.559278 -0.068943 0.116871 0.772123 0.893961 0.986170 0.459704 0.196250 0.735394 0.869766 0.969557 0.600372 0.371077 0.082626 0.668771 0.558702 0.835269 0.702641 0.135344 -0.236468 -0.425498 0.203932 0.856445 -0.052600 0.665502 -0.585330 -0.115805 0.857698 0.996099 -0.682632 0.005402 0.555376 0.248425 -0.877727 0.327500 0.142386 -0.891557 -0.212796 -0.661364 0.843837 -0.343030 -0.691807 0.444209 -0.971954 0.390819 0.112980 0.586748 0.226088 -0.184379 -0.277908 0.989620 0.390123 0.926024 0.846066 -0.662477 0.591526 -0.739264 0.221718 0.449225 -0.743166 0.539086 -0.545373 0.812211 -0.212489 -0.423100 0.139710 0.929897 -0.314656 0.926914 -0.731467 -0.470820 -0.416117 -0.423274 0.973389 -0.388071 0.967546 0.086369 -0.801322 0.193634 0.901990 -0.079230 0.183254 0.292112 -0.153206 0.029320 0.629636 -0.561680 0.290056 -0.148646 0.887545 0.546890 -0.609560 -0.657827 0.359100 0.177951 -0.080927 -0.501190 0.107848 0.604417 -0.574276 0.376381 -0.866403 0.009607 0.953108 -0.893014 0.621536 0.920653 0.193355 0.820214 0.114287 0.095344 -0.259016 -0.702459 -0.612543 0.587778 0.326861 -0.982908 -0.973902 -0.383084 -0.131554 0.913644 -0.836194 0.258886 -0.744184 0.522907 -0.563164 0.174889 -0.978283 0.544684 -0.220694 -0.552559 -0.078935 -0.087097 0.457048 -0.125827 0.019889 0.078584 -0.205174 -0.786757 -0.101201 0.909113 0.308588 0.639782 -0.793346 0.696044 0.227560 0.533515 0.713136 0.253659 -0.849568 -0.418418 0.167303 -0.685762 0.840468 0.423119 0.837145 -0.722696 -0.401992 0.858861 0.821988 0.377314 -0.693698 -0.256946 -0.709783 0.763350 0.617227 0.310106 -0.158065 -0.587947 0.523350 0.740733 -0.678833 -0.168063 0.380516 -0.472179 -0.472019 -0.391924 -0.938663 -0.758882 0.861735 -0.788232 -0.177300 0.029037 -0.473994 -0.336832 -0.547844 -0.636849 -0.059529 0.050165 -0.777988 -0.237540 -0.572521 -0.471686 0.505513 -0.282304 -0.708335 0.122740 -0.972197 0.133599 0.534794 0.551153 -0.125668 0.855961 -0.616910 -0.745152 -0.616218 -0.088929 -0.137076 -0.554882 0.152189 -0.275341 -0.343113 0.974889 0.753696 0.182893 -0.361943 -0.794147 0.546044 0.578528 0.256017 0.768056 -0.659012 0.683496 -0.703630 0.846501 -0.598807 -0.411965 -0.030758 -0.571005 0.721634 -0.495965 0.980148 -0.404034 -0.640004 -0.636762 -0.149186 -0.256222 0.274309 0.713738 0.188896 -0.573502 -0.561603 0.845783 -0.598613 -0.807907 0.028675 0.039444 -0.602054 -0.425281 -0.382028 0.653963 -0.657225 -0.041040 0.337459 -0.360855 -0.194539 0.738652 0.227180 0.774703 -0.832353 -0.051186 -0.721262 -0.852205 0.544780 -0.361266 -0.488968 -0.604405 0.382511 0.785341 -0.890667 -0.428593 -0.788161 -0.452271 -0.582810 -0.386773 -0.260177 0.445865 0.652670 0.137768 -0.979416 -0.729358 -0.208269 -0.636641 0.229602 -0.870810 0.002504 -0.964937 0.867842 -0.770316 0.809765 -0.964511 0.178498 -0.911497 -0.816717 -0.276721 -0.272763 -0.305684 0.118873 -0.890251 -0.520343 0.228206 -0.318844 -0.308503 0.775935 0.098346 0.304723 -0.484242 -0.455789 -0.042607 0.653526 -0.435204 0.228036 -0.554743 -0.071845 -0.542363 -0.425553 0.930659 -0.507300 -0.557711 -0.839657 -0.697534 -0.522222 0.338842 -0.609031 -0.338939 -0.937880 0.118206 0.355377 0.180994 0.227955 0.835034 -0.590801 0.909111 -0.473469 -0.814865 0.007457 0.831254 -0.299107 0.551668 -0.211353 -0.645581 -0.883536 -0.983317 -0.200324 0.044619 -0.525680 0.374123 -0.024722 -0.032980 0.816412 0.135622 0.269486 -0.705810 -0.525536 0.660455 -0.044749 -0.463416 -0.221339 -0.689372 0.717577 -0.993384 -0.854338 -0.873223 0.915726 -0.327807 -0.688088 -0.076817 -0.496553 0.012804 -0.525148 0.292094 0.367223 -0.408684 0.308777 -0.833102 0.635935 0.783097 0.541021 -0.388787 -0.249883 0.357433 0.746835 -0.980397 0.651623 -0.778701 0.680058 -0.393125 -0.242118 -0.541281 -0.082497 -0.524540 -0.534665 0.063165 -0.397763 -0.618939 0.735358 -0.085852 0.304244 -0.761195 0.926953 0.779096 0.530899 0.294175 -0.629588 -0.160324 0.461074 -0.993653 -0.377227 0.002095 -0.382440 0.372891 -0.640472 -0.635605 0.392494 -0.988848 -0.414306 0.072552 -0.381974 0.343576 0.531272 0.535529 0.819036 0.996607 -0.401306 -0.578727 -0.622332 -0.665947 0.335422 0.681912 -0.427142 0.262374 0.461008 -0.896243 -0.443450 0.831420 -0.056567 -0.982377 0.837767 0.566206 0.019718 -0.544673 -0.060904 0.379247 -0.180278 -0.668409 0.390398 0.405416 0.404143 -0.991575 -0.251007 -0.064585 0.543954 -0.431971 -0.067979 -0.857352 -0.010698 0.309689 -0.523299 -0.675276 -0.008399 0.049558 0.587098 -0.547390 0.153315 -0.856353 -0.715970 -0.903252 -0.838730 -0.878203 0.662954 0.180989 -0.422876 -0.397950 -0.439765 0.396847 -0.066359 0.950633 -0.197737 -0.662216 0.959058 0.551255 0.273198 0.503012 -0.880716 -0.794780 0.645660 0.108586 0.514909 -0.877640 0.433310 -0.493490 0.171918 0.020407 -0.040880 -0.674767 0.164055 0.243150 -0.578019 0.325325 0.364947 -0.915065 -0.493686 0.942072 -0.313015 0.066549 0.338918 0.620626 0.017182 -0.858819 0.958410 -0.023760 0.692436 0.231608 -0.520748 0.811720 0.436828 -0.875088 -0.079694 -0.048263 -0.752728 -0.646384 0.458248 0.419190 0.374023 -0.582632 0.744424 -0.461922 0.660518 -0.833595 0.863403 0.025466 -0.748660 -0.630283 -0.032463 -0.061675 0.436266 -0.693545 -0.441049 -0.546552 -0.552364 -0.482639 0.429689 -0.859928 0.748969 0.908941 0.951792 0.185797 -0.966147 -0.127902 -0.862466 -0.718875 0.225714 0.595782 0.700315 -0.400263 -0.986850 0.444739 0.137814 0.673668 0.611144 0.001218 -0.300866 0.862484 0.370934 0.666671 -0.199190 -0.192800 0.973126 0.359761 0.260649 -0.579238 0.877122 -0.309663 -0.439166 0.626091 -0.400722 -0.487373 -0.188111 -0.366869 0.384725 -0.050577 -0.085744 -0.389562 -0.454795 -0.385429 0.210175 -0.441645 -0.940690 -0.652010 -0.767977 0.670454 0.349207 -0.068843 0.532939 -0.279858 -0.402172 -0.666252 0.527342 -0.429046 0.693509 -0.212009 -0.008284 0.570632 0.478328 0.552550 0.196723 -0.922394 -0.934823 -0.991388 -0.289262 0.449902 -0.041965 0.624993 -0.939660 0.503240 -0.760436 0.270515 -0.938405 -0.701125 0.618505 -0.706382 0.969329 -0.032288 0.224775 0.502267 0.687854 0.822603 0.836016 0.215196 -0.606444 0.529525 -0.996814 0.385272 0.100157 0.481514 -0.062177 -0.703120 0.559121 0.003000 -0.694508 -0.730142 -0.547099 0.263527 0.894852 -0.486758 -0.233233 -0.865584 0.783757 -0.171637 -0.566709 0.402262 0.121981 -0.597380 -0.630026 -0.653244 0.904887 -0.942172 -0.830641 0.740903 0.273023 -0.437085 0.270428 0.276210 0.948187 -0.629415 -0.242276 -0.113990 -0.332535 -0.683155 0.889010 -0.027043 -0.413297 -0.658089 -0.763516 -0.518445 -0.144847 0.003251 -0.384028 -0.361090 0.831614 0.049263 -0.958828 -0.046405 0.451882 -0.588854 0.300351 0.356769 -0.531026 0.469710 0.097673 0.741997 -0.967375 -0.631899 0.018207 0.980812 -0.261314 0.775931 -0.133178 0.406151 -0.907224 -0.244168 -0.620892 -0.320521 0.097744 -0.384408 0.161034 0.952897 0.618843 0.777006 -0.408193 0.450456 -0.173732 -0.367021 -0.595949 -0.721849 0.044124 0.704402 0.634920 0.513098 0.174111 -0.267407 0.255095 0.206736 0.100693 -0.726699 0.187548 0.839380 -0.950768 -0.945629 0.245531 -0.857992 -0.189797 0.624639 -0.178514 0.907947 -0.759769 0.982521 0.860844 0.859074 0.759526 -0.547349 0.309530 -0.414205 0.085629 0.713581 -0.136055 -0.870246 0.417983 -0.501135 0.642852 -0.407906 0.231458 -0.102053 0.798831 -0.667849 0.171248 -0.013621 -0.828469 0.220480 0.040750 0.417061 0.362488 0.850953 0.041700 -0.816026 0.758900 0.281931 -0.833505 0.619744 0.141004 0.926021 -0.927605 -0.549466 -0.488184 0.158025 -0.835885 0.375761 0.287778 0.582098 0.874626 -0.069370 -0.825807 0.106084 0.828577 0.973023 0.438235 -0.000175 -0.040598 0.609766 -0.779694 -0.999848 0.026827 0.582793 0.851105 -0.931472 0.766768 0.610005 0.350458 0.933262 0.229749 -0.508537 0.859284 0.302144 -0.058003 -0.628901 -0.539831 0.106113 0.746860 0.747947 -0.311789 0.621486 -0.321422 -0.137596 -0.272430 -0.492845 -0.164573 -0.834195 0.506980 0.794830 0.775571 0.727285 0.794982 -0.197602 0.310079 0.646086 -0.129074 0.076846 0.256091 -0.778616 0.010109 -0.514159 -0.287153 -0.130607 0.787985 0.654844 0.240492 -0.751846 -0.239043 -0.012648 0.996101 0.449168 -0.391161 -0.325321 -0.688428 0.336409 0.181833 0.146999 0.502214 -0.311187 -0.058171 0.277786 -0.583901 -0.263189 -0.919816 0.726177 -0.617103 -0.048890 -0.196976 0.638988 0.172494 0.813133 -0.875171 0.885342 -0.317475 0.912814 0.540186 0.923017 -0.839033 -0.698857 -0.089630 -0.842932 0.750311 0.519208 -0.168253 -0.938117 -0.144382 -0.986420 0.208882 -0.642168 -0.297606 -0.849289 0.635618 0.118492 -0.112478 0.715802 -0.155330 0.270419 -0.333088 0.647693 -0.090593 0.839406 0.460826 0.034236 0.724748 -0.856649 -0.052950 0.264934 -0.933631 0.108017 0.566077 -0.023262 0.265086 0.316388 -0.504053 -0.903167 0.378271 0.351564 -0.889587 -0.412847 0.709396 -0.187193 -0.262135 0.345014 0.931299 0.625387 0.060816 -0.224031 -0.104195 0.727728 -0.576338 0.805213 0.567135 0.884488 -0.160551 0.291882 -0.972161 0.786499 -0.443184 -0.905792 -0.105483 -0.877107 0.070947 -0.840398 0.439281 0.566893 -0.743565 -0.182449 -0.081542 -0.633151 0.404705 -0.372146 0.179655 -0.857431 0.972868 0.110954 0.767956 0.033685 0.886923 -0.336239 -0.238587 -0.689415 -0.531026 -0.671453 -0.804927 0.308423 0.620430 -0.777088 0.094922 -0.822754 -0.682879 0.989438 -0.699861 0.388067 -0.850959 0.739420 -0.045039 -0.594524 -0.443029 0.873418 -0.227675 0.961676 -0.498727 0.951980 -0.895755 -0.525859 0.062935 0.872200 0.507826 -0.050142 -0.464039 -0.730762 0.260443 0.004935 -0.402214 0.455516 -0.686642 -0.781785 0.678428 0.408280 -0.604539 0.995549 0.397718 -0.304400 0.383616 0.546759 -0.564980 -0.661424 0.952236 -0.008009 -0.788005 -0.275439 -0.046333 -0.286732 -0.323459 0.057912 0.187409 0.739476 -0.069888 -0.304766 -0.310666 0.466073 -0.035527 0.949776 -0.528992 0.562258 0.405292 -0.215633 0.780474 0.083720 -0.807353 -0.824065 0.079268 0.590365 -0.128465 -0.537116 0.137124 0.306556 -0.198539 0.089360 -0.701453 0.013456 0.813921 0.252214 0.726723 -0.509538 -0.689874 -0.085868 -0.770062 0.240238 0.609366 -0.080729 -0.293689 -0.426161 -0.130952 0.177319 -0.863903 -0.725660 0.961686 0.916571 0.358060 -0.845667 -0.907494 -0.562672 0.744698 -0.035959 -0.099788 -0.118178 -0.729403 0.701673 0.971182 -0.430856 -0.284871 0.785103 0.821358 -0.558148 -0.724435 -0.868516 0.355983 -0.494498 0.371721 -0.034651 0.424774 -0.921968 0.539188 -0.706179 0.255352 0.675285 -0.431839 0.217038 0.591856 0.926221 0.371370 0.684362 -0.636451 0.116068 -0.351597 0.263761 0.997891 -0.081000 -0.034566 0.969073 0.488144 0.680563 0.754176 0.309502 -0.877585 -0.970259 0.440986 0.478398 -0.464757 -0.187292 -0.556253 0.960017 -0.109260 0.982936 -0.746162 -0.853908 0.658221 -0.178000 0.363130 0.250077 -0.251780 -0.265500 -0.065561 0.111769 0.850568 0.582842 -0.624469 0.848459 -0.498157 0.340965 0.817532 0.989987 0.021528 0.571708 0.299489 0.143942 0.601449 -0.259525 -0.377660 -0.863308 0.553183 0.066088 -0.903291 -0.556077 0.049023 -0.649452 -0.409985 -0.292756 0.172547 0.953144 0.957321 0.920768 -0.312356 -0.108240 0.032537 -0.461788 -0.525397 0.408068 -0.613329 -0.023555 -0.250967 -0.795797 -0.033568 0.770560 0.775911 -0.734079 -0.085497 0.377360 0.006397 0.536843 0.514053 -0.440421 -0.397069 0.610762 0.003502 0.651954 0.961309 0.593517 -0.640802 0.133857 0.546661 -0.683481 0.054624 -0.765695 0.208280 -0.912839 -0.227482 0.682882 0.495229 0.159189 -0.340672 -0.755738 0.363392 0.625760 -0.985178 0.139304 0.891681 -0.070675 -0.483336 -0.101923 -0.533832 -0.969284 0.457657 0.069098 0.641478 -0.538841 -0.278948 0.602788 -0.945324 0.080250 -0.263355 0.601337 0.396769 0.791269 0.835642 -0.394951 0.878430 -0.391840 -0.712069 0.373660 0.767349 -0.052741 0.617921 0.130741 -0.426982 0.632743 -0.729956 -0.535301 -0.437932 -0.213292 0.362776 0.028236 -0.182575 -0.179567 -0.902665 -0.541097 0.281592 -0.181613 -0.938309 0.336268 0.898637 -0.201665 -0.062395 0.295406 -0.410396 -0.226753 0.900455 -0.531965 0.381407 -0.811614 0.841694 0.148755 0.135645 0.459616 -0.720504 0.708663 0.092359 -0.450459 -0.826638 0.654427 0.336249 0.536139 -0.317336 -0.846326 -0.643428 -0.220002 -0.387423 0.638164 0.598385 -0.325732 -0.025568 0.497021 0.472603 0.912038 -0.207573 -0.937792 -0.314715 -0.307118 -0.469757 -0.933308 -0.118731 -0.628063 0.215447 -0.983086 0.831553 0.494944 0.725577 -0.076088 -0.955516 0.898939 -0.421661 0.380734 0.435078 0.261003 0.534408 0.791650 -0.958999 -0.853015 0.429814 0.639386 -0.178747 -0.595753 0.136407 -0.706144 -0.683716 0.928835 -0.643936 0.001569 -0.378283 -0.113693 0.068261 0.502985 0.258244 -0.716292 0.519899 0.089797 0.778652 0.245476 -0.986291 0.823136 0.144415 -0.407952 0.203870 -0.420506 0.853051 -0.261723 -0.628856 0.894052 -0.114738 0.800958 0.533438 0.706515 -0.794795 -0.330154 -0.999629 -0.478511 -0.401320 -0.643565 0.523058 0.220397 0.242742 -0.408681 -0.276617 -0.499014 -0.124972 -0.756718 0.590783 -0.346321 0.488758 0.604491 -0.523184 -0.366827 -0.803461 0.680686 0.212667 -0.950409 -0.581037 0.583810 0.943643 0.304225 0.384768 0.477081 0.010740 0.589973 -0.853073 0.011111 -0.888538 -0.254393 0.367546 0.634520 0.966004 -0.389712 -0.774161 -0.310613 0.111274 0.100867 -0.067331 -0.297943 0.754546 -0.578573 -0.693452 -0.768638 0.054600 -0.496913 0.912048 -0.732733 -0.447322 -0.668989 0.851077 -0.503679 0.635236 0.235845 0.973403 -0.354025 -0.174182 -0.879670 0.657086 -0.062720 -0.134063 0.024633 -0.428200 -0.168059 0.634921 -0.202360 0.521329 -0.253805 0.898506 -0.546003 0.448251 0.653053 -0.124576 0.754799 0.884415 0.930024 -0.742113 0.796462 -0.802709 -0.189435 -0.872527 -0.951632 0.306886 0.762708 0.284214 0.280288 -0.591316 -0.889968 0.400618 -0.934230 0.047312 -0.733445 0.090403 0.619112 0.098496 -0.274677 -0.583248 -0.380175 0.471518 -0.684742 0.073822 -0.080231 0.968311 0.949246 -0.325431 0.852725 0.879270 -0.067545 0.649188 -0.923439 0.743020 0.776660 -0.875070 0.049906 0.539369 0.409143 -0.669806 0.948052 0.519175 0.730812 -0.986178 -0.433513 0.997366 0.104225 -0.814400 0.095862 0.829548 -0.397649 0.715687 0.301066 -0.082390 -0.210491 -0.779165 -0.114080 -0.261245 -0.104596 -0.261354 -0.381974 0.827859 -0.612166 -0.305413 0.570879 -0.835506 -0.180483 -0.379215 0.703863 -0.771340 -0.049021 0.651915 0.747835 -0.318209 0.665737 -0.685678 -0.320843 -0.230038 -0.500078 0.775019 -0.400490 0.102273 0.490706 0.900576 -0.980117 -0.719785 -0.878589 -0.094197 0.018970 0.016815 0.644449 0.636995 -0.155325 -0.967717 -0.668418 -0.584446 -0.803223 0.151099 0.036339 0.900639 0.379759 0.987318 0.552554 0.127593 -0.330892 0.218291 0.441916 0.348265 0.988253 0.941837 0.123284 -0.412236 0.044111 -0.386010 -0.511660 0.063994 -0.105795 -0.390249 0.969797 0.913174 0.626566 0.614246 0.550170 -0.528759 0.646529 0.881752 -0.113205 0.843306 0.032851 0.923133 0.743946 -0.587391 0.910451 0.296500 0.540203 -0.420440 -0.485209 -0.017882 0.927825 -0.496955 -0.076044 0.051109 0.090808 0.968066 0.665099 0.579148 0.032060 -0.440696 -0.811101 0.001857 -0.527522 0.815465 -0.383896 -0.977352 -0.713294 -0.737367 0.904400 0.173500 -0.894061 -0.062750 0.096634 0.849885 0.349860 0.007085 0.146385 -0.109938 0.586644 0.661176 0.872181 0.514469 -0.835779 -0.203864 -0.434422 0.255029 -0.235797 -0.769323 -0.165823 0.796263 -0.210019 0.023076 -0.201880 0.262459 -0.161459 0.414224 0.285107 0.125247 0.676857 0.189507 -0.701253 0.782797 -0.873243 0.395381 0.632682 0.476617 -0.597535 -0.220933 -0.633321 0.989110 -0.559757 -0.761140 0.503579 -0.395536 0.034996 -0.930843 0.859493 0.799199 -0.700166 -0.306330 0.595463 0.089815 0.716746 -0.606417 -0.647725 -0.444713 0.807807 0.637382 0.680534 0.484664 -0.173111 0.979280 0.267461 -0.046354 0.374661 -0.099857 -0.569737 0.777126 0.679210 -0.203058 0.766236 -0.880547 0.035802 0.269815 -0.276083 -0.929201 0.338972 -0.416590 0.869998 0.638807 0.277080 0.465461 -0.271378 -0.006174 0.859044 0.080897 0.549113 0.666851 -0.281721 0.229647 0.151515 0.545167 0.208927 -0.581024 -0.501187 -0.416412 0.319119 -0.070924 -0.639285 -0.001671 0.726019 -0.873049 0.117781 -0.238179 0.396766 0.841698 -0.167380 -0.264261 -0.574892 -0.297382 -0.625454 0.702188 -0.831922 0.103168 -0.303986 -0.972878 -0.815936 -0.754872 0.693972 -0.097657 0.474775 -0.154512 -0.552490 -0.316298 0.264464 -0.053676 0.267290 -0.416417 0.875400 0.628005 0.581912 0.601419 0.754956 -0.300307 -0.636760 0.151723 -0.458609 0.195859 0.887461 -0.033501 0.898477 -0.737993 -0.331313 -0.933445 0.365175 0.364701 -0.906323 0.549239 0.609829 0.787650 -0.548418 0.084603 -0.366863 -0.100907 0.768305 0.897601 0.845417 0.035595 -0.518816 0.720817 -0.336399 -0.936904 0.322236 -0.581443 -0.237211 0.685476 0.570279 0.304180 -0.118664 0.457741 -0.729321 -0.220187 0.719747 -0.060634 -0.153632 0.084922 -0.695933 -0.059955 -0.365839 0.913896 -0.272305 0.085743 -0.001501 0.360832 0.984836 -0.233196 0.258433 0.830252 0.802400 0.739617 0.551069 -0.534000 0.802712 -0.126695 -0.115443 -0.434499 -0.441219 -0.545164 0.869681 0.440117 0.912577 -0.859640 -0.780071 0.632324 0.079727 0.066297 -0.282754 0.383794 -0.993658 0.351407 0.297689 -0.265963 -0.562850 -0.703811 -0.905131 -0.578014 0.062993 0.353302 -0.747762 -0.134608 0.092919 0.803308 0.331393 -0.104369 -0.323387 -0.784050 0.461132 0.235394 -0.329214 0.330813 -0.324489 -0.416637 0.471174 -0.104559 -0.784313 -0.449100 0.961738 -0.067067 0.934694 0.968081 -0.715660 0.232384 -0.297882 -0.278509 0.528572 -0.203013 0.143477 -0.408435 -0.849711 0.395715 0.456957 0.243208 0.199023 -0.211650 -0.861161 0.875636 0.004299 0.599971 0.111030 0.675085 -0.069216 0.786541 -0.741553 -0.598042 -0.318018 -0.525866 -0.047141 -0.356280 0.407067 -0.112447 -0.388199 0.691408 -0.880064 0.313918 -0.587102 0.648508 -0.889095 0.556375 -0.759927 -0.738806 -0.047910 0.697030 0.504402 -0.848888 -0.514621 0.643241 -0.973252 0.489679 0.243212 0.137778 0.164763 -0.826004 -0.075681 0.423211 -0.424046 0.606301 0.897345 0.528813 -0.749979 0.304412 -0.583635 -0.138179 -0.004180 -0.463699 -0.824260 0.408718 -0.815190 -0.713355 -0.034908 -0.575118 -0.452160 0.917182 -0.878088 -0.947758 -0.931706 -0.392708 0.695482 -0.904958 -0.903030 -0.061306 0.232820 0.261734 0.112690 -0.842861 -0.315056 0.688644 0.763439 -0.417711 0.217457 -0.986540 0.886702 0.633822 -0.124718 -0.117479 -0.829877 0.051021 -0.708761 -0.645067 0.337667 0.256332 -0.220185 0.885506 0.173514 -0.098272 0.937748 0.241808 0.509019 0.633231 0.336850 0.605990 -0.428075 -0.430330 -0.132276 0.684615 -0.273192 0.552668 0.373259 -0.509752 -0.865043 -0.409284 -0.496292 -0.978341 -0.775463 0.378989 -0.095820 -0.605339 -0.569989 0.195419 -0.250407 0.767677 -0.548249 0.529408 0.653184 0.625265 -0.568864 0.590932 -0.132927 0.940155 0.224162 -0.796077 0.546145 0.796087 -0.226407 -0.586131 0.480702 0.500401 0.966537 -0.146039 0.990649 -0.898506 0.444676 -0.505644 -0.876847 0.669214 0.873346 0.027333 -0.936126 -0.696644 -0.777247 -0.186532 -0.928966 -0.325496 -0.657124 0.724217 -0.700232 -0.225988 0.315149 0.166841 -0.285832 -0.460689 0.370764 -0.739687 -0.664602 -0.855644 -0.325819 0.816100 0.644757 -0.359282 -0.329940 0.635406 -0.257788 -0.885263 -0.870238 -0.134635 0.783950 -0.996892 0.892698 0.847825 -0.693536 -0.884549 -0.338708 -0.622502 -0.210046 0.004169 -0.898285 0.089722 0.778181 0.416864 -0.743437 -0.507652 0.956175 0.627327 -0.247339 -0.708427 0.771683 0.426843 -0.892327 0.416440 -0.932439 -0.222267 0.051846 -0.190227 -0.107530 0.181608 0.675138 -0.323580 0.184715 0.567836 -0.475755 0.491179 0.683287 0.185537 0.868677 -0.526759 -0.810294 0.970392 0.562963 0.967887 0.387256 0.819526 -0.539765 0.343431 0.446853 0.212896 0.635005 0.218536 -0.360261 0.742678 -0.365024 -0.292700 -0.479589 0.686822 0.517072 0.412881 -0.131571 0.192210 -0.910699 -0.946855 -0.239954 -0.386454 0.544324 -0.556667 0.799083 0.413001 -0.083427 0.988789 0.383393 -0.520463 0.956676 -0.229351 -0.700937 -0.583089 -0.885919 0.745916 0.629807 0.749085 -0.035547 -0.730453 0.491763 0.599429 -0.023154 -0.987826 
0.286251 -0.506081 0.425055 -0.845320 0.686129 0.514356 -0.792175 -0.553825 -0.872098 0.752149 -0.110493 0.926985 0.165150 0.806081 0.915774 -0.451457 -0.714383 0.872450 0.319192 -0.415320 -0.710639 0.433273 -0.669403 0.919169 0.182358 0.295049 -0.811285 -0.325879 -0.105522 0.165561 -0.313705 -0.819271 0.659480 -0.888651 -0.664591 0.345609 0.625705 -0.456766 0.791783 0.753607 -0.704618 -0.318709 0.680592 0.460532 -0.512628 0.596366 -0.990925 -0.227011 0.468817 0.328267 0.357669 0.758178 -0.238460 0.688266 0.677346 0.943897 -0.016684 0.866062 -0.381982 0.877794 0.031623 0.304313 -0.941477 -0.308897 0.415662 -0.606068 -0.963289 0.041367 -0.062834 0.828495 -0.205026 0.232548 -0.490215 -0.524433 -0.306920 -0.002843 -0.928067 -0.297845 0.770146 0.540750 -0.969578 0.127815 0.298927 -0.208039 -0.183919 -0.023726 -0.264141 0.799397 -0.157665 0.353877 0.677191 0.873958 -0.341810 0.735714 -0.434939 -0.926149 -0.870354 -0.398228 0.115219 0.066812 -0.569733 0.910193 -0.700640 -0.059948 -0.614240 -0.007560 0.937209 -0.542307 0.694595 0.707355 0.998442 0.725017 -0.164829 0.297370 -0.483022 0.651252 -0.726356 0.252837 0.450649 0.115979 -0.393286 0.127840 -0.010063 0.264904 -0.136446 0.554998 0.338755 -0.006800 -0.843230 -0.546026 -0.939988 -0.412962 -0.635833 -0.640628 0.527090 -0.250073 0.351812 0.464299 0.207619 0.046408 0.171655 0.206062 -0.228575 -0.993175 -0.496569 0.288403 0.658077 -0.222925 -0.458760 0.108726 0.893054 0.147954 -0.763434 -0.117008 -0.587142 0.100120 -0.562010 0.751613 -0.906680 -0.405240 -0.794413 -0.846668 0.181798 -0.430246 -0.487296 -0.291112 0.319680 0.864516 -0.826813 -0.472700 -0.089076 0.344842 0.733361 0.682349 0.351667 -0.763207 -0.029248 0.009745 0.013868 0.511992 -0.881529 -0.093078 -0.340053 -0.644963 0.789914 0.072805 0.455156 -0.772096 -0.175582 0.548476 -0.177336 0.030005 0.701808 -0.995538 0.599759 -0.785488 -0.286651 -0.080561 -0.920972 -0.113463 0.446739 -0.010048 -0.768621 0.180100 -0.327699 0.583046 0.416893 0.643053 -0.407210 -0.569239 0.155045 -0.288739 0.337683 0.814992 0.066298 0.127597 -0.112204 -0.478546 0.355501 0.712214 -0.930070 -0.821836 -0.257781 0.771739 -0.817374 -0.658022 0.986251 -0.104025 0.261418 -0.934721 0.782512 -0.291843 0.055232 -0.986110 0.888258 0.727533 0.596936 0.305151 0.370586 -0.810273 0.735912 -0.474369 -0.099012 0.073595 -0.659378 0.967285 -0.798808 0.228419 -0.511261 0.556693 -0.059367 -0.441330 0.734857 0.682852 -0.669592 0.917483 -0.975169 -0.683341 -0.186542 0.286249 -0.618062 -0.404030 0.994406 0.437170 -0.390139 0.882664 0.164702 -0.793203 0.187814 -0.464712 -0.603476 -0.076274 0.060918 0.297511 0.997321 0.401541 0.264797 -0.801487 -0.370041 0.753536 0.755206 0.570592 -0.687795 0.490063 0.253445 -0.357386 0.407546 0.278276 -0.040728 -0.778996 -0.435476 0.341210 -0.183025 -0.441069 -0.221620 0.426835 -0.558406 0.943082 0.633632 0.629409 -0.521630 -0.969844 -0.446865 0.539289 0.327667 -0.449544 -0.059171 -0.407536 -0.251031 0.570788 -0.654000 -0.495825 0.141380 -0.341795 0.994238 -0.605175 0.300819 0.401784 0.673100 -0.739908 0.622788 -0.762375 0.601302 -0.560237 -0.203445 -0.620318 0.866598 0.238150 -0.677236 0.500230 -0.132442 -0.198865 0.530386 0.420693 -0.659577 -0.141946 0.971149 0.281252 0.450518 -0.279882 -0.147960 0.796518 0.224293 0.993421 -0.545277 0.218530 -0.611754 0.755542 -0.379686 -0.938654 -0.984366 -0.756898 -0.701029 0.616936 -0.317135 0.095526 0.996618 -0.450537 -0.666324 -0.680618 -0.950307 0.201234 0.120517 0.580080 -0.378073 0.460940 -0.561867 -0.406925 -0.257808 0.888651 0.313193 0.594232 0.685169 -0.462514 0.587653 -0.860108 0.756016 0.975899 0.895434 -0.623670 -0.962755 0.911068 -0.380568 -0.663784 0.528004 0.302297 0.431742 0.524621 0.851760 0.765418 0.844004 0.901453 -0.033347 -0.035480 0.481533 0.588579 -0.574540 0.919666 -0.818345 0.167652 0.808317 0.494848 -0.238116 0.493486 -0.967666 -0.650463 0.633378 0.788350 -0.674564 0.528813 -0.835321 -0.637319 0.439880 -0.215888 -0.301103 -0.032116 -0.913592 -0.869360 -0.507495 0.938168 0.896058 -0.663491 0.839621 -0.137289 0.301029 0.321154 -0.548710 0.726489 0.240820 -0.367055 -0.105859 0.049138 -0.872207 0.656025 -0.457376 -0.839873 -0.994437 -0.823997 0.948476 -0.669001 0.704815 -0.886844 -0.306320 0.144696 -0.102733 0.392577 -0.887420 -0.016324 0.523217 -0.394915 -0.078156 0.419275 -0.058406 -0.238535 -0.718015 -0.757377 -0.917380 -0.266725 0.969113 0.323440 0.366220 -0.136746 -0.627422 0.494013 -0.480721 -0.084798 0.654140 -0.475158 0.091205 0.602616 -0.144159 -0.203980 0.715772 0.549521 0.940715 -0.386961 -0.057901 -0.946705 0.596714 -0.534684 -0.341620 -0.481442 0.884591 0.599974 0.280024 -0.833424 0.842598 0.362643 -0.100149 0.811711 -0.313917 -0.733928 -0.325036 0.058661 0.760085 0.194244 0.973863 0.414225 0.719086 0.065068 0.016841 -0.425073 0.861088 -0.267387 -0.875552 0.801803 0.345651 0.066547 0.855098 -0.057634 0.531862 -0.486521 0.460924 0.416453 -0.886547 -0.259052 0.583029 0.956051 -0.896408 -0.517120 0.767762 -0.210325 -0.251048 -0.557274 0.848337 -0.490963 0.636970 0.822200 0.923262 0.356055 -0.112732 -0.059897 0.930982 -0.251644 0.672716 -0.944570 -0.449841 0.018367 0.121977 -0.594742 0.960733 -0.346161 -0.081264 0.421657 -0.929708 0.032189 -0.837394 0.653320 -0.011760 -0.733803 -0.863800 -0.243998 0.055872 -0.114848 0.198728 -0.095791 0.394189 -0.164303 -0.273591 0.317451 -0.808247 0.613677 -0.742446 -0.877265 -0.637967 0.930270 -0.821835 -0.087808 -0.051363 0.300142 0.317449 -0.090629 0.953981 -0.763814 -0.668972 -0.975728 0.268375 -0.506366 0.677593 -0.743385 -0.240169 0.813793 0.012617 0.815703 -0.301055 -0.788655 -0.280088 -0.906866 0.047042 0.446321 0.410586 0.238795 0.059998 0.668140 0.361530 0.422031 0.598410 0.539695 -0.665777 -0.452952 -0.160163 0.651672 0.456418 -0.206182 0.887858 0.787446 -0.181910 0.156233 -0.718920 -0.504317 0.412848 0.040911 -0.690524 -0.574535 -0.143386 0.008421 -0.363191 0.576527 0.101555 0.683851 0.022848 -0.487860 -0.077354 -0.917154 -0.819720 -0.715824 0.504877 0.778690 0.823871 0.839100 -0.674262 -0.336292 0.490772 0.782156 0.457526 0.378630 0.569603 -0.724384 -0.465137 0.850682 -0.228701 0.947711 -0.108407 0.080775 -0.626825 0.748208 -0.910805 0.009984 0.324734 0.190750 -0.306165 -0.652418 0.702890 0.616482 -0.569571 0.883170 0.900658 0.935306 0.661861 0.724529 0.774406 0.987599 -0.611763 0.265178 0.769755 0.845763 -0.356192 0.339358 -0.878621 0.178671 0.190040 -0.107322 0.126381 -0.918366 0.973453 0.499557 0.829842 -0.937352 -0.490459 0.154576 0.253398 0.203376 0.502159 -0.043712 -0.180142 0.932587 -0.160541 -0.279485 0.867893 -0.498681 -0.554956 0.642299 -0.511081 -0.166719 -0.092523 -0.741326 -0.320956 0.551285 0.598032 -0.199577 -0.270044 -0.211928 0.693102 0.856337 -0.130294 0.666555 0.355894 -0.300452 0.729203 0.865434 0.854124 -0.017400 0.068810 0.356282 0.938889 0.888668 0.288870 -0.221653 -0.390817 0.156762 0.279667 0.054227 -0.200939 0.768585 0.887508 0.706538 -0.972741 -0.433448 0.257822 0.625291 0.366976 0.987778 -0.586637 0.060078 0.844115 0.283069 -0.273368 0.200008 0.982617 -0.544165 0.065443 0.836741 0.438435 -0.865747 0.193023 0.377324 -0.977079 -0.518107 -0.844329 -0.367896 0.638655 0.435338 0.686331 -0.562284 0.203923 0.573839 -0.855746 0.231182 -0.859609 0.402076 -0.143527 0.507367 0.389854 0.269836 -0.432555 0.233969 -0.447095 0.294077 -0.566023 -0.464478 0.749912 0.499420 -0.627737 0.188347 0.633672 0.565286 -0.434329 0.656593 -0.952821 -0.278658 -0.711303 0.685834 -0.843320 0.975028 -0.876450 0.360602 0.548867 -0.732197 -0.408216 0.689258 0.669879 0.448257 0.196625 0.059733 -0.281907 0.764069 -0.706298 0.270998 0.058146 -0.272321 0.806520 -0.191942 -0.772902 -0.821218 0.996405 0.860771 0.744068 -0.437925 0.517364 0.791247 0.283417 0.806060 0.477081 0.440097 0.781088 0.600630 -0.199300 0.329955 0.868434 0.392484 0.019212 0.538313 -0.159259 -0.784163 -0.401954 0.558834 0.979906 -0.108252 -0.170168 0.038052 0.619427 -0.363649 0.846110 0.846525 -0.184866 0.842514 0.707296 -0.440798 -0.595410 0.224659 -0.649551 0.688007 0.030720 0.827530 0.128104 -0.188192 0.428160 0.928804 -0.858238 0.296594 0.321287 0.160975 -0.165093 -0.837972 0.376812 0.432953 0.720862 0.356718 -0.675299 -0.449306 -0.605230 0.944128 0.187045 -0.759120 0.790653 -0.997821 -0.916606 0.497948 -0.438619 -0.512016 -0.277393 -0.088170 -0.824009 0.753327 -0.260640 0.304095 -0.434865 -0.832480 0.232898 -0.293103 0.464113 -0.445814 0.867872 -0.700980 -0.283786 0.244684 0.731973 -0.562923 -0.398598 -0.943326 -0.012229 -0.003828 -0.999198 -0.825184 0.237052 0.791454 -0.823005 0.320446 0.289402 -0.261623 0.808430 -0.987990 0.650207 0.984420 0.765337 -0.610433 0.288515 -0.669528 -0.442913 -0.478586 0.037369 -0.978799 0.075600 -0.094759 -0.679779 0.791814 -0.850075 -0.947806 -0.771109 -0.248673 -0.891132 0.216661 0.747499 -0.890331 0.391477 -0.015450 0.901124 0.568472 -0.695004 0.190526 -0.693151 -0.886574 0.202536 0.957056 -0.902154 -0.032127 -0.653377 0.386361 0.298345 -0.096290 0.907775 -0.664286 -0.075089 -0.016626 0.240955 0.245131 -0.224812 0.390880 0.297325 0.004079 -0.857793 0.406193 -0.779260 0.889706 0.515863 0.612218 -0.125744 0.416986 0.180690 0.179252 -0.392488 0.487539 0.292678 0.810048 0.444595 0.390524 -0.222079 0.791218 -0.223115 -0.923735 -0.305071 -0.315340 -0.588021 0.619839 0.668034 0.652934 -0.135029 -0.556778 0.043814 -0.837704 0.447302 0.186021 0.568489 0.668042 0.075727 0.084352 0.280260 0.949983 -0.498662 -0.539050 0.129235 0.108850 0.948489 -0.578088 -0.081102 0.393084 0.812436 0.696819 0.184302 -0.410679 0.773084 0.879231 0.273980 -0.814937 0.499070 -0.057986 0.837997 -0.635959 0.385237 -0.118188 -0.473663 -0.167461 -0.932167 -0.905173 -0.499419 0.143559 0.179178 0.780840 0.093542 0.680516 -0.758210 -0.777223 -0.210633 -0.809721 -0.355311 0.708265 0.583363 -0.542875 0.405084 -0.232335 0.046446 0.178168 -0.353104 -0.679573 0.363232 -0.854033 0.262441 0.201229 -0.489992 -0.352322 -0.916959 0.036345 0.480217 -0.849126 0.131172 0.980797 0.294433 -0.689649 0.761638 -0.612025 0.990867 -0.996572 -0.389248 -0.219767 -0.806293 0.255441 -0.511502 0.777070 0.712566 0.893582 -0.455265 -0.240987 0.071751 0.191631 0.079439 -0.565017 0.337598 -0.658120 0.636212 0.847606 -0.010442 0.719253 -0.116048 -0.530225 0.870127 -0.984876 -0.549428 0.164560 -0.674526 -0.787790 0.552535 -0.683659 -0.784362 -0.836714 0.096574 -0.590656 0.418727 0.585073 -0.813586 0.131294 0.478655 -0.268851 0.890306 -0.449594 0.922780 -0.030254 -0.014612 0.260379 0.311626 -0.378399 0.107985 -0.698816 -0.659146 0.991936 -0.229040 -0.789019 -0.992940 0.221532 0.375540 -0.667465 0.433742 -0.071925 -0.351124 0.649379 0.091361 0.745450 -0.941276 -0.489911 0.330523 -0.754862 0.641383 -0.190822 -0.023713 0.531689 0.359583 -0.100933 -0.498566 -0.655028 -0.840554 0.813060 -0.033428 0.267431 -0.885755 0.307426 0.259367 -0.114796 0.518407 0.266427 -0.893264 -0.106053 0.598962 0.540478 0.822022 -0.752162 0.189858 -0.086616 0.993288 0.248581 0.423473 0.323811 0.493719 0.064855 -0.867011 -0.529994 -0.403456 0.492572 0.369073 0.097978 0.837544 0.528519 -0.088961 -0.195884 -0.204051 0.025284 -0.888458 -0.944684 0.910488 0.629949 0.321744 -0.982776 -0.476103 -0.079294 0.557703 -0.654081 0.168543 -0.252440 0.259303 0.161831 0.996141 -0.317224 -0.514358 0.489860 0.747631 -0.381370 0.959866 -0.655825 -0.888798 0.328939 0.442153 0.948746 -0.142543 -0.646808 -0.247138 0.653407 0.378476 -0.135595 0.708723 0.288964 -0.505646 0.030467 0.306189 0.018250 0.951172 -0.136109 0.364170 0.119716 0.611451 -0.376527 -0.718453 0.607593 0.306248 -0.232812 0.097453 0.053879 0.385818 0.057319 0.398054 0.497021 -0.613742 -0.159792 0.445767 0.243715 0.193400 -0.801371 -0.102878 -0.428124 0.063033 -0.394155 0.860840 0.557387 0.636312 0.167029 -0.424362 0.587484 -0.969080 0.939807 -0.292800 0.642371 -0.436720 -0.011254 0.249964 0.869528 0.755934 -0.652583 -0.076593 0.141753 0.404737 -0.678538 -0.361226 0.790995 0.161669 -0.915460 0.034710 -0.644930 -0.716831 0.931832 -0.073054 0.346202 -0.462323 -0.212214 -0.096410 -0.826011 0.954814 0.479227 0.761473 0.985734 0.419035 -0.531327 0.628106 0.982314 0.457419 -0.121930 0.851842 0.213353 0.225487 -0.224750 -0.644894 -0.369776 0.096711 -0.006120 -0.578781 -0.741619 0.078420 0.455929 -0.386550 0.361589 0.387761 0.540396 -0.292209 0.925439 -0.671818 0.611381 -0.900572 -0.717004 0.090608 0.860901 -0.731270 -0.490357 -0.670426 0.896836 -0.508043 0.786993 -0.225095 -0.656201 0.000346 -0.999607 0.119049 0.355452 -0.369384 -0.784240 -0.650669 0.051835 -0.525859 0.427751 -0.492236 0.087591 -0.210660 0.895525 -0.372013 0.497131 0.820964 -0.043831 0.108512 0.920391 0.239165 -0.800879 0.781292 0.507895 -0.291236 -0.889134 0.404731 0.200721 0.897858 -0.820364 0.544520 -0.101796 -0.819971 -0.336431 -0.746344 -0.189355 -0.120670 -0.397013 0.862480 0.353471 -0.969262 -0.629756 -0.558938 -0.179922 -0.734231 0.069049 -0.682790 -0.913267 -0.974782 0.425722 -0.992876 0.264382 0.624843 0.788416 -0.227723 -0.666393 0.899282 -0.822992 0.534328 0.797140 -0.643355 0.078848 -0.304656 -0.463326 0.742418 -0.051000 0.347319 -0.378253 0.551988 0.209799 0.975218 0.582726 0.580044 -0.583720 -0.597195 0.845813 0.485329 -0.279986 0.932546 0.510546 -0.854263 0.939670 -0.225072 0.770580 0.728086 0.547206 -0.895813 0.627367 0.724214 0.638514 0.424508 -0.919141 -0.282637 -0.880148 -0.382468 -0.540219 0.068852 0.964851 0.081528 -0.379160 0.174651 0.056746 -0.796434 -0.245306 0.473026 -0.393630 -0.399493 -0.041645 0.326385 -0.466947 -0.531099 0.472121 -0.527278 0.243829 0.242701 -0.799192 -0.208965 0.346888 0.828175 -0.484751 -0.014598 0.252683 -0.403892 0.702765 0.372535 0.213640 -0.837454 -0.558613 0.178491 0.244074 0.062227 -0.646858 -0.699180 0.265793 0.107836 0.773846 0.872163 0.708343 -0.267799 0.198548 -0.758604 0.201101 -0.329331 -0.285882 -0.555070 0.913370 -0.085074 0.235965 0.260258 -0.256899 0.751215 -0.754340 0.995784 -0.652677 0.948425 0.368319 0.560963 -0.889030 0.809706 -0.260546 0.355044 -0.128067 0.092596 0.655864 -0.862274 -0.799568 0.429710 -0.990111 0.908775 -0.838089 0.208437 -0.849829 0.363012 0.879106 -0.135711 0.807942 0.792476 0.779215 0.043908 0.052734 -0.477683 -0.204878 0.298394 -0.481899 0.142445 0.246818 0.886420 -0.296592 0.357789 0.696126 0.442862 -0.287168 -0.431941 -0.464542 -0.631304 -0.294215 -0.264110 0.798406 -0.284327 -0.355335 0.960317 0.924110 -0.205163 0.323329 0.803216 0.659126 0.131271 0.595692 0.438341 -0.824821 -0.351575 0.960658 -0.029699 0.946819 -0.521241 -0.887254 0.193637 -0.634821 -0.183846 -0.448574 -0.938695 -0.740984 0.264258 -0.370636 -0.205527 0.632955 0.335149 0.530363 0.431361 -0.949178 -0.824971 0.391678 0.974932 -0.030135 -0.284993 0.778147 -0.371009 0.846278 0.373839 -0.932667 -0.978543 -0.977736 -0.972009 -0.008241 0.969083 -0.493250 0.104505 0.162721 -0.128071 0.920659 0.714147 -0.066766 -0.820325 -0.021595 0.562598 -0.025852 -0.388640 -0.102253 -0.495488 -0.957279 -0.051431 -0.320460 0.434400 -0.076500 0.649406 -0.850594 -0.298353 -0.721603 0.995685 -0.924514 -0.654270 -0.982858 -0.902250 -0.626280 0.008900 -0.933166 -0.119530 -0.886595 0.229555 0.752399 -0.965936 -0.056299 -0.314367 -0.786261 0.922107 -0.751769 0.187888 -0.466533 0.145978 0.692399 -0.423812 -0.905454 -0.628060 -0.989412 0.018046 -0.978655 -0.840006 0.719693 -0.700258 -0.844321 0.795179 -0.354528 -0.827179 0.892930 0.019192 0.181721 0.959763 0.899662 0.295126 0.189318 0.652061 0.329191 -0.866981 -0.662306 0.542930 -0.944874 -0.414075 -0.269182 -0.411407 0.731903 -0.576783 0.164782 0.826449 -0.204843 0.175369 -0.155505 -0.183498 0.335364 -0.435811 0.116245 0.491043 -0.640632 0.761716 0.663864 -0.747702 -0.219092 -0.154415 -0.787939 -0.319429 -0.859289 0.401379 -0.667368 0.469902 0.534399 -0.329674 0.012832 0.589525 0.256251 0.743650 -0.821882 -0.011846 -0.833133 0.342900 -0.185397 -0.037976 -0.481731 0.659098 0.778527 0.853633 -0.776713 -0.105229 0.344676 -0.417345 -0.343512 0.008539 -0.165047 0.437396 0.854124 0.047014 -0.882033 0.994835 -0.551606 -0.549401 0.464736 0.982792 0.120925 -0.522432 0.572317 -0.622824 -0.778782 0.750435 0.365330 -0.611914 0.093335 -0.820067 0.350110 0.611604 0.839032 0.128637 0.465237 -0.937681 -0.976592 -0.190088 -0.355026 -0.320104 0.818452 0.479927 -0.882708 0.672575 -0.473058 -0.764741 0.667410 -0.024665 -0.314142 0.132146 -0.041872 0.806783 0.609715 -0.469555 -0.816041 0.830933 -0.719120 0.549290 -0.780981 0.374215 0.729223 0.569129 -0.014182 0.568255 -0.302235 -0.548945 0.630573 -0.278827 0.260967 -0.724453 0.401069 0.079419 0.755474 0.518362 -0.248006 -0.717584 0.753621 -0.580596 0.257751 -0.560521 0.551551 -0.784121 -0.753738 0.161265 -0.253676 -0.569778 -0.007801 0.027204 0.979511 0.211217 -0.598582 0.708735 -0.219654 0.387236 0.276989 0.478111 0.838291 -0.092437 -0.800716 0.099258 0.183110 0.600354 -0.821323 -0.061416 0.118715 -0.069329 0.221001 -0.127664 0.350075 -0.521248 0.311815 -0.098374 -0.305369 0.558077 -0.937109 0.440955 0.988299 0.055090 -0.531842 0.967810 -0.733693 -0.130424 0.676545 0.046653 -0.743187 -0.046466 -0.475236 -0.904896 0.861097 -0.275952 0.194362 0.044207 -0.675598 0.373039 0.982791 0.443117 -0.696290 0.203792 -0.684547 0.653786 0.682544 0.627268 -0.444588 -0.622826 0.185345 -0.381697 0.818129 0.173644 0.673394 -0.713713 0.141455 0.939701 0.155864 -0.182001 -0.013646 0.412676 0.771533 0.511118 0.507780 0.632630 -0.764834 -0.297858 -0.323163 -0.440432 -0.924819 -0.340372 -0.997315 -0.621109 0.863419 -0.681862 -0.967323 0.545963 0.945407 -0.411911 0.923137 0.130752 0.206393 0.741266 -0.695604 -0.120214 -0.972446 0.445851 -0.180513 0.183417 -0.736150 0.805841 -0.403907 -0.964617 0.316959 -0.896127 0.668013 0.552125 -0.193985 -0.655150 -0.888307 -0.118804 0.004477 -0.885622 0.260087 -0.132103 -0.567484 0.292764 -0.586140 -0.622077 0.880853 -0.663003 0.508675 0.087246 -0.921737 0.813071 0.967032 -0.894183 0.258922 -0.213481 0.289234 0.522772 -0.407640 0.885327 0.558156 0.909319 0.989200 0.226169 0.461443 -0.204785 0.571019 0.573136 0.676411 -0.424504 0.687514 -0.063502 0.443393 -0.879970 -0.770738 0.857253 -0.502048 -0.889885 -0.805750 -0.993373 0.197362 -0.727487 0.819699 0.164394 -0.621670 0.078621 0.950913 0.667564 -0.398607 -0.456726 0.552891 -0.840451 -0.547408 0.542091 0.385718 0.914035 -0.662694 -0.043264 0.487171 -0.986283 0.532233 0.174685 -0.049786 -0.024374 0.294714 0.179476 -0.167122 0.792667 0.289592 0.027128 0.799294 -0.513047 0.299641 0.618993 0.651347 0.677970 -0.302386 0.602261 0.345534 0.299007 -0.854466 -0.101575 0.458555 -0.401873 -0.559484 -0.155727 -0.487838 -0.222178 0.801010 0.999333 -0.208462 0.333242 0.174018 0.741753 -0.691132 -0.531268 -0.078771 0.141746 -0.738601 -0.789179 -0.831126 -0.939307 -0.302226 0.468515 0.679686 -0.650879 0.146485 -0.622700 0.951382 -0.507981 0.676306 -0.903084 0.390444 0.134862 -0.304957 0.830960 0.979135 0.207205 -0.391218 0.780145 0.206538 0.400320 0.113387 -0.619444 0.142073 0.422255 -0.150712 -0.936698 -0.435999 0.110687 -0.725878 -0.267124 0.171380 -0.028104 -0.798610 -0.148934 0.321018 0.347875 0.228366 0.272399 0.839894 -0.095328 0.369316 0.230338 -0.960466 -0.935642 0.061298 -0.981331 0.271563 0.670080 0.798813 -0.521899 0.070400 -0.087800 -0.141344 -0.787527 -0.665545 0.707944 -0.724225 -0.101543 -0.181369 -0.450102 0.631332 0.990011 0.521794 0.832722 -0.158923 -0.157188 0.180598 -0.930557 -0.884789 0.020492 -0.025885 0.484527 -0.749169 0.013649 0.548885 0.312129 0.032318 -0.179552 -0.017791 -0.168869 0.298549 -0.947390 0.743331 -0.842794 -0.734917 -0.922214 0.865150 -0.459142 -0.023757 -0.316219 0.090756 -0.392425 -0.326208 -0.387450 -0.559702 0.514869 0.455362 0.620895 0.584312 0.570573 -0.358612 -0.441573 0.055100 -0.107781 0.572076 -0.396015 -0.795652 -0.395607 0.424434 0.186557 0.435524 -0.277017 0.239167 0.178855 -0.119811 0.504250 0.256641 -0.254661 -0.954892 -0.767116 0.429119 0.135865 -0.159541 -0.897089 0.748415 0.280757 0.617780 0.203777 -0.098348 0.202092 -0.225650 0.543040 0.760519 0.829450 -0.564741 0.332595 -0.566565 -0.360394 0.936989 0.857869 0.826164 0.372513 -0.419148 0.065330 -0.448632 0.461041 -0.430420 0.808010 -0.793621 -0.385311 -0.959106 0.635498 0.750554 -0.118647 0.738410 0.498969 -0.837890 0.356190 -0.297254 0.063763 -0.441718 0.477096 -0.393197 -0.681199 0.306546 0.042062 0.651396 0.739981 0.681668 0.588385 0.597850 0.507832 -0.039102 -0.821298 -0.426838 0.512266 0.639742 0.142742 0.320276 0.846122 0.757431 0.361170 0.481620 0.507985 -0.757477 0.220030 0.006954 -0.595366 -0.423781 0.709699 0.468397 0.134501 0.186795 -0.924801 0.453302 -0.506659 0.117261 0.104698 -0.766678 -0.201071 -0.306917 0.831172 -0.693239 0.653981 -0.990126 -0.120077 0.166247 0.649616 -0.977335 -0.513477 0.495738 0.780096 0.847693 -0.022642 0.288081 -0.909783 -0.802613 -0.704965 -0.505150 -0.226394 -0.995266 0.963247 0.908107 0.191529 -0.961554 0.361409 0.684870 0.155707 -0.533893 0.918192 0.954637 0.159190 0.749364 -0.738603 -0.186829 0.759238 0.141320 0.979419 0.408854 0.163985 -0.534058 -0.095409 -0.055918 -0.686365 0.881949 -0.767837 -0.596148 -0.920664 -0.472802 -0.101298 -0.147058 -0.468068 -0.138051 -0.238951 0.723462 -0.099605 -0.877542 0.408332 -0.943897 -0.411435 0.326524 -0.989261 0.747755 0.075888 -0.727863 -0.439073 -0.164874 0.413457 -0.459654 -0.756021 -0.422558 0.006288 0.148570 0.521523 0.319923 0.030519 0.753687 0.723774 0.109855 -0.719115 -0.377524 0.962796 -0.187183 0.484425 -0.276155 -0.463721 -0.615179 -0.153697 0.944611 -0.559076 0.434868 0.271135 -0.548337 0.182624 -0.652976 -0.276201 0.743551 0.182149 -0.862744 -0.716104 0.426129 -0.285302 0.290184 -0.425301 -0.763779 -0.389894 0.605218 0.989908 -0.666119 -0.284927 -0.729207 -0.043643 -0.322131 0.083610 -0.559217 0.401714 0.619888 -0.174397 -0.751982 0.564499 0.266527 0.682886 -0.164365 0.718190 -0.134490 0.182659 -0.558011 -0.390940 -0.635192 -0.420755 -0.107043 0.790937 0.293943 -0.816860 -0.634364 0.530164 -0.206753 0.970854 0.520072 0.127128 -0.314073 0.790865 -0.916515 0.363796 -0.125526 -0.475732 -0.234490 -0.505637 0.349871 0.013528 -0.941138 -0.383602 -0.303586 -0.105503 -0.665412 0.561924 -0.922845 -0.223423 -0.829016 -0.558037 0.355823 0.063941 -0.767100 -0.350235 0.247082 -0.401464 -0.820070 -0.959672 -0.430610 0.700002 0.167456 0.255317 0.490866 0.250941 -0.380887 -0.634660 0.775209 0.384624 -0.140297 0.125080 -0.601848 -0.081435 0.741478 0.094566 0.813062 -0.923934 -0.343510 0.890217 -0.147356 -0.172526 -0.667819 -0.791534 0.891415 -0.434919 -0.141768 0.138497 0.163618 0.038161 0.178825 0.733008 -0.261837 -0.653718 -0.011675 -0.770971 0.597223 0.607439 -0.405630 0.372432 -0.007938 0.454073 -0.502488 0.390214 -0.627362 -0.761010 -0.515220 -0.814300 -0.684944 0.141270 -0.924083 0.167700 0.968744 -0.591902 0.376166 0.860160 -0.026821 -0.765603 -0.001343 -0.863203 0.272559 -0.822518 0.869805 -0.989278 -0.476236 -0.141870 -0.760249 -0.879013 -0.534431 -0.165879 0.493419 0.457631 -0.711807 0.990930 -0.152155 -0.339169 -0.770080 0.332625 -0.153470 -0.455024 -0.526105 -0.077552 0.712676 -0.557361 0.330546 0.088842 -0.697201 -0.696275 0.323239 0.301456 -0.559478 -0.404202 0.478938 -0.689673 -0.393480 -0.997298 0.168457 -0.153729 -0.876311 0.634026 0.680391 0.617107 0.091658 0.968584 0.608037 0.939503 -0.370585 0.837958 0.272128 0.475946 -0.617066 0.746022 -0.601607 -0.904390 -0.811338 0.728939 0.184452 -0.508540 -0.967336 -0.492309 0.792916 -0.526814 0.103489 0.271854 -0.216487 0.710008 0.274556 0.951970 -0.443721 0.398244 0.585997 -0.763330 0.015352 -0.322346 -0.794746 -0.376611 -0.382843 -0.165331 -0.538653 0.889285 -0.689385 -0.155719 0.635307 -0.290992 -0.060109 0.823969 -0.562053 -0.875658 -0.684571 -0.529390 -0.367967 -0.891655 -0.056204 0.735522 0.380199 0.727309 0.445530 -0.345245 0.679279 -0.998191 -0.947001 0.265276 -0.761521 0.068351 0.942930 -0.556266 0.691740 -0.439913 0.278403 -0.846913 -0.550629 0.589018 -0.002633 -0.915321 
-0.701974 0.937258 0.908647 -0.264027 -0.938400 -0.775924 0.206583 -0.306367 -0.667579 -0.849621 -0.570845 0.712620 0.877688 0.874685 -0.632625 0.556967 0.876495 -0.579626 -0.177757 -0.885026 0.488725 -0.234828 -0.441292 0.180464 0.325259 0.837112 0.333551 0.774631 0.426130 -0.669082 0.859309 0.724156 -0.731824 0.767956 -0.539871 -0.670224 0.992033 0.666713 0.023409 -0.675546 0.817092 0.452564 -0.962926 0.694781 0.327249 -0.595551 0.251748 0.203744 -0.175177 -0.926010 0.318718 -0.686452 -0.160837 0.877426 0.494013 -0.835578 0.714538 -0.172436 0.939053 0.140668 0.158482 0.798362 -0.135176 0.426658 0.566319 0.324953 0.756433 0.558351 -0.008334 -0.220158 0.882805 -0.191241 -0.767594 0.919880 -0.496461 0.559655 -0.675671 0.755287 -0.236601 0.149152 0.829277 -0.917883 0.462700 -0.331560 0.959543 -0.043287 -0.167138 0.674081 0.784276 -0.228085 -0.185252 -0.057242 -0.429723 0.679572 -0.630584 -0.863404 0.004525 -0.874151 0.694947 0.996192 -0.094309 0.577753 -0.195049 0.138097 0.497633 0.308490 -0.302248 0.821962 0.063777 0.461151 -0.028886 -0.106946 0.543268 -0.566185 0.561495 0.502811 0.390528 -0.605643 0.176892 0.174804 0.166272 0.991640 -0.882438 0.736550 0.671212 -0.513022 0.873146 -0.324262 -0.387173 0.568093 -0.328071 0.518518 0.145846 0.476880 -0.343385 -0.356521 -0.214630 0.354368 -0.534559 0.849147 -0.184481 0.436555 -0.257799 -0.641213 0.870370 -0.696304 0.861598 0.260898 -0.301947 0.038490 -0.564298 0.864325 0.030130 -0.446736 0.600875 -0.298658 0.040243 0.474020 0.377080 0.653070 0.042113 -0.950991 0.171588 -0.812041 0.525889 0.828203 -0.168562 -0.688741 0.182571 0.296879 -0.839594 0.998090 -0.266566 -0.097393 -0.643123 -0.396196 0.206303 -0.781525 0.864702 0.904356 0.256965 -0.699596 0.768681 -0.712905 -0.146332 0.369555 -0.011563 0.893911 -0.156424 -0.634483 0.546980 0.885689 -0.585474 -0.281432 -0.926352 0.940415 -0.453228 -0.094914 -0.748326 0.729343 -0.798035 -0.587921 0.727433 -0.064601 0.314686 -0.915690 0.539203 -0.479011 -0.697216 0.403905 -0.574655 0.559749 0.704309 -0.805974 0.846844 -0.442023 0.563581 -0.164719 -0.548113 -0.592844 0.200797 0.998868 -0.707155 0.615323 -0.282564 -0.633507 0.555738 0.264208 0.271580 0.807411 -0.006449 0.473545 -0.780510 -0.279016 -0.591056 0.534177 -0.194707 0.948147 -0.944834 0.108077 0.352052 -0.519489 -0.332173 0.056360 -0.325464 -0.485330 0.614337 -0.761883 0.349951 -0.933776 -0.354726 -0.449252 -0.934908 -0.061881 -0.833929 -0.217471 0.304613 0.721809 -0.953263 -0.423808 0.529220 0.040288 -0.950263 0.748710 0.761271 -0.541319 0.282887 -0.433436 -0.593172 0.338053 0.674642 0.758880 0.818564 -0.657532 -0.184760 -0.506900 -0.142861 -0.570423 -0.268782 -0.792910 -0.504199 0.376491 -0.242162 -0.439106 -0.685389 -0.076091 0.343422 0.619223 -0.354282 0.390159 -0.804585 -0.825062 -0.569554 -0.754848 0.923648 -0.808283 -0.296167 0.206536 -0.241718 0.110661 -0.455411 -0.567077 -0.130459 -0.636847 -0.224608 0.684781 -0.143747 0.632530 -0.885642 0.587471 0.839620 -0.389841 -0.036038 -0.402542 0.171053 0.278573 0.521367 -0.485525 -0.102204 -0.832915 0.904634 0.093211 -0.657976 -0.664920 0.338363 -0.734328 -0.473202 -0.957803 0.472208 0.285080 0.152858 -0.983204 0.718003 -0.977601 -0.620051 -0.506606 0.707180 0.236202 -0.874075 0.821538 -0.176328 0.965545 -0.568302 0.787634 -0.436997 0.602751 0.066207 -0.915630 -0.882774 0.964002 -0.748544 -0.978140 0.057213 -0.406521 -0.643059 -0.604423 -0.140849 -0.116261 -0.562227 -0.668641 -0.831182 0.590631 -0.651845 0.886821 0.613031 -0.271896 -0.619785 0.320211 0.964305 -0.493860 0.141749 -0.212023 -0.528315 0.573447 -0.424389 0.034688 0.176198 0.641818 0.119058 0.293425 0.605820 0.370513 0.315285 -0.336966 0.963992 0.672226 0.058610 -0.176856 -0.444036 0.496384 0.154502 -0.275217 0.087015 0.502657 -0.388396 -0.299954 -0.769239 -0.008181 -0.979743 -0.804934 0.497959 0.162006 -0.016957 0.969644 -0.264546 0.558654 0.004331 0.911652 0.200472 -0.876611 0.205077 -0.193707 0.493902 -0.479638 0.469326 0.457895 -0.807412 -0.472063 -0.718962 -0.251448 -0.975680 0.435541 0.473335 0.111335 -0.061802 -0.915062 0.811381 0.168959 0.076757 0.831638 0.364024 -0.425284 -0.006356 -0.652933 -0.455640 0.729097 0.905722 0.548691 0.640750 0.106194 0.672081 -0.154174 0.912487 0.165983 0.366188 0.381813 -0.376122 0.558776 0.909750 -0.095084 -0.692672 0.934070 -0.659543 0.780663 0.045406 0.278655 0.865601 -0.143213 -0.552387 -0.057641 -0.311576 0.811637 0.517075 0.682068 -0.841295 -0.938565 0.411166 -0.935573 0.610126 0.051915 0.170621 0.282207 0.897741 0.083108 -0.551810 0.263930 -0.535078 0.072067 -0.177294 -0.625328 0.976983 0.130034 -0.691258 -0.682560 -0.089303 0.354148 0.596095 -0.223702 -0.789066 -0.956292 0.718656 -0.100642 0.855345 0.235731 -0.418573 -0.985950 0.297166 0.992592 -0.921523 -0.092707 0.044508 0.249098 -0.810501 -0.057751 -0.667793 -0.362311 -0.793821 -0.202872 0.709757 0.028884 0.171800 0.686740 -0.841082 0.480542 -0.995820 0.069615 -0.165310 0.600275 0.845912 0.045624 0.643983 0.564569 0.944982 0.499328 -0.199700 -0.473591 0.513378 -0.902534 -0.480999 0.591856 0.004759 0.563509 -0.159046 0.194258 -0.494242 0.173160 0.831948 -0.288064 0.970289 0.541704 0.740821 0.142089 0.228444 0.899739 -0.377369 0.232624 -0.030647 0.457321 -0.167101 -0.184734 -0.497056 -0.523118 -0.620165 -0.552074 0.976210 0.180135 -0.025665 0.489589 0.277601 0.493336 0.081444 -0.717640 0.056845 0.922398 0.476618 0.562602 0.095558 0.308566 -0.725461 0.065847 -0.149730 -0.984641 -0.792064 -0.921286 0.915098 -0.169433 0.311338 -0.115549 -0.712112 -0.855763 0.699717 -0.209168 -0.378880 -0.920449 0.238759 -0.402670 0.259686 -0.786906 -0.913082 -0.462713 0.706430 0.168362 -0.180354 -0.236725 0.090760 -0.703736 -0.674123 -0.813681 0.604830 -0.399584 0.252166 -0.544900 -0.384225 0.460102 -0.466186 -0.469127 -0.709331 0.845152 0.415324 -0.421443 0.989389 0.115040 0.369389 -0.389491 0.194592 -0.391852 0.207839 -0.545723 -0.178759 0.294757 -0.008436 -0.472329 -0.536881 0.811210 0.290946 0.553879 -0.892525 0.616823 0.740198 0.712305 -0.782761 -0.007636 -0.832595 -0.166986 -0.547534 -0.298782 0.363887 -0.256865 -0.453630 -0.220790 0.321692 -0.464240 0.894251 -0.308919 0.146269 0.088842 0.299228 -0.645893 0.543120 -0.879530 0.648864 -0.465316 -0.351859 -0.888017 -0.654106 0.939087 0.665862 -0.546631 0.555910 0.406060 -0.834326 0.773149 -0.601576 -0.666921 -0.393837 -0.149111 0.034297 0.970049 0.594024 0.580668 -0.250740 -0.084285 -0.883572 -0.356490 0.606796 0.262696 0.732353 -0.093976 0.616804 0.275473 0.026494 0.265668 0.810157 0.674635 0.377651 -0.843949 0.613723 0.043513 -0.390579 0.169633 -0.550426 -0.224905 -0.057218 -0.152002 0.108174 0.548944 0.698887 -0.857529 0.518993 0.292911 0.723139 -0.731747 -0.791374 0.839566 -0.088237 0.815422 0.102263 -0.355884 -0.278553 -0.280934 0.919589 0.747941 0.984734 0.729746 0.422577 0.362385 0.885797 0.036299 -0.594101 -0.504783 -0.794068 -0.144527 0.270312 0.148714 0.703470 -0.621514 -0.302342 0.402357 -0.479043 -0.783349 -0.304732 -0.755904 -0.515096 -0.096106 -0.916337 0.396668 -0.280684 0.185925 -0.959216 0.440763 0.904992 0.960373 0.188704 0.889726 0.690119 -0.388719 0.252111 0.575916 0.647580 0.658010 -0.928867 0.853512 -0.486517 0.341446 0.002225 -0.783047 0.719931 0.699883 0.619310 -0.759111 0.916534 -0.685423 -0.515015 -0.598561 0.218471 -0.431353 0.798107 0.937787 0.754572 0.838891 0.378550 0.659564 0.799264 -0.432746 0.549290 0.489383 0.178535 -0.198598 0.065299 -0.173885 -0.540588 0.136432 -0.320373 -0.027106 -0.522122 0.681852 0.189847 -0.802191 0.381735 -0.190843 -0.561302 0.298269 0.123734 -0.076317 0.699708 -0.657795 0.492330 0.497815 -0.720008 0.246902 0.336706 0.658543 -0.093534 0.135970 -0.774203 -0.544243 -0.374647 0.404332 0.257158 0.690652 -0.769553 0.716570 -0.172916 -0.089927 -0.310536 0.304961 -0.408075 0.879312 0.502771 0.973660 -0.311532 0.941468 0.271929 0.812202 -0.134849 -0.028362 -0.845592 -0.642519 -0.530548 -0.565600 0.604383 0.806158 -0.907058 -0.489151 -0.057872 -0.681261 -0.033394 0.567480 0.723071 -0.776236 0.258132 0.953518 0.940334 -0.914784 -0.136409 -0.370202 0.390177 0.455517 -0.490890 -0.107052 0.429177 0.197578 -0.165584 -0.298894 0.009781 0.699567 0.672744 0.164188 -0.942952 -0.857804 0.598588 0.661430 0.948354 0.691530 -0.827720 -0.109518 -0.989731 0.138885 -0.542038 0.733340 0.362649 0.716094 0.686858 0.302983 0.801310 -0.449550 0.932782 0.191487 -0.994033 -0.558109 -0.915565 0.435144 0.639469 -0.081149 -0.863750 -0.350750 -0.381582 0.808994 0.813438 -0.324534 0.951190 0.412026 -0.663104 0.899544 0.103556 -0.490824 -0.209974 0.113825 0.648061 0.247989 -0.152834 0.010711 -0.035917 -0.465976 -0.686306 -0.234607 0.084474 -0.753525 0.956880 0.090441 -0.311633 -0.958685 -0.474416 -0.672164 -0.039834 -0.338166 -0.022914 0.578583 -0.529172 -0.209476 -0.745951 -0.577982 -0.797450 -0.409055 -0.678437 0.306106 0.100121 0.111589 -0.580069 -0.251818 -0.640423 0.267097 0.758893 0.323660 0.801121 -0.927413 -0.910947 -0.114405 -0.680938 -0.954067 0.976036 0.007429 -0.912752 -0.498380 0.335265 0.047414 0.163454 -0.687649 -0.374003 0.634283 0.102875 -0.119954 -0.943699 0.305425 0.470992 -0.622137 -0.388469 -0.428887 0.489452 0.031462 0.319295 0.849030 -0.701441 0.078188 0.172690 -0.900320 0.150775 0.261744 -0.014725 0.469837 0.307677 -0.038689 -0.522734 0.394925 0.462931 0.812532 -0.557661 -0.373615 -0.875117 0.068336 -0.739332 0.227758 0.948383 -0.683031 -0.466817 0.419374 -0.305168 0.144715 0.990487 -0.815715 -0.823823 0.309782 -0.966685 -0.525264 -0.612030 0.206005 -0.425584 0.538745 -0.532251 0.559692 0.008583 0.775426 -0.478997 0.485849 0.170351 0.983934 0.298381 0.612690 -0.389681 0.423264 -0.318973 -0.129013 -0.348978 -0.370591 0.187956 0.184205 -0.951216 0.882789 -0.671080 -0.960729 -0.932927 -0.494903 0.349053 -0.899612 -0.020167 0.737024 0.306393 0.554250 0.275769 0.774141 0.113941 -0.715648 0.549567 0.634944 0.770201 -0.280082 0.618877 0.068582 -0.667392 -0.770803 -0.508155 0.013635 0.100184 0.142867 0.643044 -0.711860 -0.672927 0.691828 -0.829072 -0.344007 0.731099 -0.761998 0.161090 0.080152 -0.661610 -0.859077 -0.182824 0.644783 0.695173 -0.907055 0.418924 -0.190886 -0.622704 -0.031508 -0.555942 -0.852503 0.688410 -0.937064 0.216078 -0.978982 -0.707868 0.707924 0.034653 0.392316 -0.149209 -0.322303 0.680456 0.177864 -0.630475 0.851384 0.833857 -0.899376 -0.910614 -0.005053 0.180777 -0.572224 0.135871 0.997952 -0.927442 -0.168957 -0.909103 0.491483 0.640158 -0.531807 -0.540026 -0.915784 -0.384310 -0.851616 -0.852848 0.831768 -0.830598 -0.560716 0.539692 0.204055 0.831600 -0.609517 0.881753 0.512055 0.568347 -0.748722 0.363439 0.402204 -0.648097 0.452825 -0.602849 0.532679 0.880601 0.533022 0.530631 0.953159 -0.635935 0.621528 0.444642 -0.995777 -0.910279 0.904616 -0.911561 -0.294590 -0.947000 -0.764410 -0.462822 -0.777597 -0.325126 -0.923130 0.426458 -0.493526 -0.532647 0.308211 -0.981471 -0.964301 0.559489 0.381969 0.437903 0.911392 -0.165206 0.835055 0.444071 -0.284605 0.368076 -0.025298 -0.331446 0.732141 -0.403769 -0.886804 0.736364 -0.314049 -0.982187 0.824803 0.391362 -0.929187 -0.939607 0.928540 -0.706784 -0.264732 -0.994590 0.719674 0.241741 -0.527237 0.027885 0.260271 -0.491538 -0.412626 -0.357761 0.946366 -0.501234 0.477033 0.781420 0.942837 -0.807572 0.149496 -0.082460 -0.139018 -0.118362 0.513770 -0.025822 -0.381998 -0.800278 -0.008009 -0.557195 0.591084 0.062804 -0.496802 0.519624 0.356020 0.238466 0.525033 0.075694 -0.519793 0.997796 -0.896421 0.740478 -0.493742 -0.309046 -0.617283 -0.547376 0.189720 0.859750 -0.765956 0.132557 -0.947822 0.383540 -0.949903 -0.086840 -0.734822 0.563867 0.887338 -0.116821 0.763589 -0.120670 0.325984 0.354672 0.942134 0.829182 -0.125704 0.298154 0.067648 -0.600671 -0.626152 0.547856 -0.602875 -0.522572 0.288334 -0.096616 0.168381 0.671051 0.356007 -0.641899 0.530801 0.590051 0.490658 0.582979 -0.026409 0.540755 -0.503861 0.238768 0.104622 -0.616523 -0.878052 -0.131789 0.262807 0.447932 -0.777117 0.204941 0.277114 0.097179 -0.496905 -0.655238 0.496509 -0.123057 0.892618 0.893634 0.354371 0.180951 -0.202982 -0.477248 -0.147998 -0.846975 -0.119147 -0.617197 0.743076 -0.628489 0.965782 -0.283334 0.912265 -0.538079 0.955435 0.016888 -0.154602 -0.922618 0.885099 -0.891795 0.525314 -0.892018 0.313146 -0.197572 0.205161 0.816240 0.147190 -0.298330 -0.306816 0.039808 -0.404696 -0.952446 -0.779241 0.392322 -0.429694 0.072761 0.545347 0.451158 0.455564 0.288423 0.822669 0.421346 -0.994911 0.734935 0.883267 0.960523 -0.248178 -0.271335 -0.962095 -0.363079 -0.163130 0.563219 -0.255097 -0.849984 -0.634353 0.950064 0.966256 0.512836 -0.348266 -0.340560 -0.447356 0.247039 -0.293006 -0.226597 -0.360639 0.277300 0.846164 -0.815292 -0.271542 0.301728 0.473131 -0.448873 -0.276926 0.478219 -0.713938 -0.393660 0.438743 0.037884 0.335005 0.476648 0.674805 -0.828125 0.039867 -0.580293 -0.678109 0.405514 -0.630229 -0.711853 -0.081650 0.021506 -0.052414 0.470994 -0.731456 0.654580 -0.755603 -0.092095 -0.068120 -0.909439 0.092613 0.660338 0.392288 -0.434256 -0.788535 -0.884638 -0.956037 -0.502473 -0.278297 0.482706 0.535411 -0.943292 -0.040646 0.210215 -0.771417 0.999221 0.629922 -0.449526 0.404734 0.999694 -0.161379 -0.676916 0.021199 0.786207 0.794078 0.289744 0.440787 -0.961525 -0.802351 -0.627334 -0.870964 0.290262 -0.966996 0.521324 0.856006 -0.755531 0.636686 0.899969 -0.258004 -0.641611 0.382675 -0.722594 -0.584903 -0.657971 0.487621 -0.356320 -0.658750 0.117543 0.194154 0.745985 0.117237 -0.967225 -0.930931 -0.861564 0.818981 0.863147 0.428180 0.259768 0.901622 0.625829 0.632435 -0.969342 -0.083909 0.665439 0.551982 -0.227903 0.909908 0.188669 -0.327933 -0.348096 0.547058 -0.945258 -0.070690 0.962154 -0.603229 -0.583069 -0.394165 -0.261979 0.534475 0.799989 -0.515994 -0.348288 0.832763 -0.446925 -0.209852 0.651745 -0.583778 -0.781672 -0.088487 -0.682156 0.844156 -0.456052 -0.651497 -0.239753 -0.790613 0.900485 0.532345 -0.880705 0.089153 -0.795589 -0.228802 -0.363789 -0.740847 0.700508 -0.401635 -0.344076 -0.882561 0.204200 0.393945 0.651914 0.004189 0.877951 -0.696375 -0.163048 -0.568975 0.093773 -0.511303 -0.152753 0.312101 0.400210 0.165092 0.156257 0.944158 0.513594 0.916505 -0.846455 0.414079 0.448849 -0.727160 -0.496768 0.653261 0.044038 0.139443 0.912414 -0.255454 0.737809 -0.431662 -0.138015 -0.057991 0.962283 -0.486101 0.946197 0.840234 -0.182475 -0.216851 -0.728741 0.911298 0.271846 0.118507 0.223399 -0.327943 -0.716402 -0.620344 -0.383785 0.797193 -0.703840 -0.230240 0.211272 0.745010 0.042599 0.714504 0.398270 -0.913363 -0.146052 0.310684 -0.168817 -0.408244 0.879022 0.693169 0.533765 0.841305 -0.792932 0.479962 0.681540 0.024593 -0.736888 0.952799 -0.064109 0.534958 0.071306 -0.840711 -0.792985 0.354904 -0.461055 -0.176770 0.152097 -0.164895 0.592989 -0.636631 -0.419885 -0.364411 -0.922127 0.978386 -0.277774 -0.068180 0.289070 0.553409 0.523577 0.168092 0.246578 0.057342 0.009398 0.453646 -0.462696 -0.309063 -0.521761 -0.199585 -0.356264 0.414129 -0.664627 0.715042 0.573418 -0.457612 0.069946 -0.887637 0.365617 -0.777958 -0.052531 -0.041393 -0.414589 0.527584 0.594195 -0.336716 0.505969 -0.683579 0.595104 -0.204961 0.869830 0.118681 0.963131 0.116409 -0.823977 -0.027471 -0.429945 -0.286674 0.663466 0.048293 0.513741 -0.692798 -0.537577 0.849114 -0.977757 -0.964159 -0.608498 0.092189 -0.851795 0.757119 0.314231 0.095673 -0.284274 0.899642 -0.376743 -0.690079 -0.437074 -0.870773 -0.373657 -0.841969 -0.075734 -0.503827 0.276712 -0.112603 0.612582 0.452734 0.859925 -0.817364 -0.833940 0.523391 0.230930 0.679802 0.830593 0.693352 0.528916 0.852836 0.729194 0.920418 -0.054975 0.877398 0.677538 -0.740744 -0.026929 -0.606736 -0.841101 0.596329 -0.296815 -0.278175 0.725555 0.329528 -0.120144 -0.350179 0.825701 -0.843433 0.537218 0.438282 0.609302 0.397143 0.620919 0.775362 -0.079466 -0.148152 0.455164 -0.248873 -0.454799 -0.015920 -0.396037 -0.725606 -0.095502 0.548988 -0.848208 -0.417964 0.808245 0.124864 -0.024700 0.967143 -0.278808 0.678485 -0.311032 -0.553253 0.008013 0.568824 0.096568 -0.166286 0.725391 -0.366214 -0.728004 0.334693 -0.969071 0.892915 0.110055 -0.048537 -0.255237 -0.434781 0.702590 0.289963 0.549299 -0.693446 0.564357 -0.546203 0.855542 0.716150 0.035833 0.663787 -0.158987 -0.988867 0.630930 0.562205 0.689619 -0.680101 -0.991047 -0.302368 0.888723 0.105521 0.531345 0.614114 0.739307 0.803342 -0.051193 0.770236 0.696256 -0.941138 -0.278301 -0.558981 -0.375919 -0.575711 0.730983 -0.826620 -0.269157 0.295340 -0.372823 -0.413615 0.011490 0.663010 -0.749828 0.852503 0.674143 0.881102 0.414708 0.363762 -0.798999 0.423661 -0.938606 -0.910276 -0.470818 0.592739 0.703838 -0.731512 0.396081 -0.347354 -0.961276 0.092337 -0.288492 -0.239577 0.533357 0.335589 0.184712 0.264339 0.508968 0.915555 -0.440321 -0.863855 -0.498060 0.571169 0.799155 -0.247888 0.423672 0.473299 -0.366786 -0.161620 -0.162939 -0.165785 -0.737959 -0.101545 -0.076061 -0.208778 -0.508806 -0.372223 0.059710 0.887275 0.280423 0.098434 -0.020387 0.991931 0.858857 -0.487031 0.327519 0.043569 0.777308 -0.163512 -0.040877 -0.663012 -0.027367 0.461063 0.908157 -0.228212 -0.786826 0.331829 -0.754913 -0.153612 -0.829791 0.082148 0.680603 -0.567751 0.980603 -0.395458 0.223472 -0.528203 0.232319 -0.716818 -0.640927 -0.487258 0.381616 0.338685 -0.495327 0.240473 0.851654 0.832192 -0.715958 0.628963 -0.331320 0.243165 0.965951 0.641313 -0.295772 0.874108 -0.586899 -0.082598 0.205936 -0.341812 0.763790 0.376145 0.740337 0.444393 0.808394 0.720940 -0.951065 0.031866 -0.807263 0.281255 0.315048 -0.448190 0.793997 -0.303335 0.890495 -0.701330 0.937138 0.742150 -0.869138 -0.778820 0.371113 -0.200459 0.464345 0.337063 -0.559146 -0.831428 0.211171 -0.146045 0.085974 -0.582893 0.512143 -0.150235 0.793252 0.252479 -0.705842 0.601647 -0.026581 -0.656907 -0.366487 0.166156 0.624348 0.948561 0.717966 0.418345 -0.354774 0.608462 0.717014 -0.417636 0.350611 0.847876 -0.196456 -0.278276 -0.352583 -0.732111 -0.941213 0.088271 -0.563539 0.269958 0.942226 0.522436 0.687065 0.454369 -0.627800 0.480318 -0.293152 -0.333642 0.081964 0.680267 0.009451 0.715478 -0.153576 -0.366201 0.664039 -0.435610 -0.947856 -0.690735 -0.827148 0.769158 -0.108370 0.523463 0.617034 0.695174 -0.754813 -0.735549 0.963063 -0.696025 0.352722 -0.600476 0.573933 0.294948 0.921959 0.260998 -0.250684 -0.705841 -0.258684 0.456165 -0.039483 0.823280 0.136432 0.969968 0.538758 0.982856 -0.396233 0.202797 -0.452754 -0.344089 0.512062 -0.279902 -0.574931 -0.596308 -0.756439 -0.957897 -0.901134 -0.511252 -0.693446 -0.938072 -0.207277 0.659276 -0.538548 -0.633344 -0.045776 -0.616589 0.627654 0.703540 -0.322429 -0.631030 0.159705 0.638088 -0.807750 -0.703863 0.608056 0.731008 -0.721008 -0.788176 -0.066196 -0.173762 -0.132266 -0.554133 0.546336 0.292803 -0.150442 0.789897 0.334906 -0.051576 -0.721355 0.641460 0.010352 0.071368 0.300736 0.471804 0.438024 -0.745040 0.855215 0.065677 0.958500 -0.467214 0.434647 0.118205 -0.829126 0.626897 0.414342 0.778930 0.357904 0.693334 0.990754 -0.708291 -0.480427 -0.141512 -0.262425 -0.934091 -0.848709 0.587134 0.855806 0.486197 -0.464443 -0.865549 0.127657 0.545909 0.205819 -0.571607 0.017713 -0.356157 -0.316647 -0.127072 0.709521 -0.358147 0.405713 0.144167 0.760058 0.576587 -0.228936 0.174400 0.355517 -0.871031 -0.132265 0.346271 -0.579323 0.387308 -0.795241 0.158253 0.453216 -0.643950 -0.254614 0.309022 0.842248 0.280944 0.443474 -0.030095 -0.173147 -0.350707 0.398298 0.844566 0.293136 -0.918349 -0.282507 0.002657 -0.276496 -0.876794 -0.853176 -0.516438 0.699793 -0.082112 0.657963 0.055310 0.046857 -0.474302 -0.598419 0.467534 0.913005 -0.393660 -0.374213 0.366222 -0.037609 0.371174 -0.324756 -0.195361 -0.347883 -0.881282 0.774544 0.478970 -0.231989 0.172842 0.323536 -0.938853 0.254492 -0.958971 0.063804 0.977996 -0.835765 0.210628 -0.538441 0.864029 -0.871484 -0.880478 -0.080661 0.175373 -0.354781 0.320920 -0.357093 -0.441775 0.927261 0.268695 0.924447 -0.110348 -0.360132 -0.400309 0.694290 0.291985 -0.281591 0.468834 -0.229044 0.486420 -0.358325 -0.905509 0.547567 0.896168 -0.864480 -0.388629 0.874164 -0.700245 0.821999 -0.664277 -0.836216 0.950515 -0.544755 0.083123 0.125888 0.100464 -0.595957 0.768795 0.658689 -0.668696 0.037490 0.583136 0.220955 0.677358 -0.817173 -0.084755 -0.030657 -0.098764 -0.615921 0.740299 -0.612344 0.025755 0.834790 0.935223 -0.078078 0.970310 -0.453406 -0.203914 -0.729935 -0.631407 0.131809 -0.566152 -0.680893 0.587054 0.516971 0.444995 -0.312482 0.921014 0.213790 -0.653793 -0.747683 -0.748720 0.929342 0.473273 0.928638 -0.887831 -0.611482 -0.102019 0.013404 -0.227403 -0.361721 0.401060 0.798352 -0.526931 0.336283 -0.279726 -0.556621 0.882877 0.516361 -0.286556 -0.748531 -0.351830 0.147292 -0.429423 -0.764776 -0.335737 -0.984428 -0.077259 -0.414723 0.229362 0.268948 -0.162406 0.480642 0.198290 -0.689133 0.409280 0.310459 -0.300615 -0.692740 -0.676137 0.471982 -0.054460 0.724923 0.270334 0.418609 0.061206 0.990608 0.861988 -0.055917 0.506968 -0.424568 0.195553 -0.844862 0.722724 0.766130 -0.609638 -0.613014 0.781702 0.313103 -0.027737 0.011064 -0.417949 0.809857 -0.508294 0.780341 -0.879276 0.900985 0.090800 -0.179892 -0.791754 0.414663 -0.707910 0.153785 0.139587 0.562424 -0.427606 -0.799207 0.553032 -0.565618 0.144876 0.060000 0.009814 -0.659571 0.215138 -0.267462 -0.893441 0.605500 0.119524 0.888260 -0.081396 -0.908213 -0.100676 0.500655 0.901644 0.391030 0.280996 -0.977632 0.292015 -0.628203 -0.157524 0.500261 0.786460 0.134567 -0.345953 -0.073953 -0.303009 0.226441 0.126840 -0.749978 0.660823 -0.728284 0.310023 -0.329363 -0.387855 -0.474839 0.403175 -0.281296 -0.869339 -0.477301 -0.393035 0.049265 -0.385514 0.506289 -0.450080 -0.483870 -0.102681 0.830917 -0.461503 -0.810666 -0.797287 0.380974 0.689595 0.989173 -0.484460 -0.656358 -0.084780 0.212531 0.570083 -0.957940 0.462553 0.230906 -0.686223 -0.227424 0.901543 -0.074078 0.297737 0.304718 0.644626 0.428399 0.827417 -0.748409 -0.522336 -0.558097 0.757880 0.027584 -0.041968 -0.344802 -0.141500 0.496530 -0.155467 0.061213 -0.122497 -0.465872 0.050387 0.393044 -0.122230 0.965607 -0.394426 -0.552147 -0.992333 -0.931872 0.678759 -0.678556 -0.159296 0.580302 0.247366 -0.861559 -0.114979 -0.108008 0.566840 -0.287562 0.143583 -0.955497 0.154340 -0.098537 0.072087 -0.887627 0.556661 0.930587 0.608903 -0.598806 -0.008200 -0.513594 -0.064678 -0.957813 0.879450 0.813091 -0.992206 -0.514976 -0.739056 -0.984539 -0.446848 0.939703 -0.663095 0.393856 0.520005 0.584271 0.532297 -0.594974 -0.523737 0.099136 0.117463 0.619846 0.143639 -0.728196 -0.478692 -0.784274 -0.615824 -0.922031 -0.853687 0.993079 -0.520837 0.138113 -0.520515 0.414485 0.180300 -0.641065 0.227576 0.188094 -0.156041 0.488520 0.203555 0.397111 0.428223 0.540460 -0.209033 -0.051772 0.124731 -0.676737 0.353253 0.600994 0.422400 -0.529284 0.220839 -0.433961 -0.257480 0.742147 -0.218235 0.126697 0.820117 -0.071922 0.119776 -0.700720 -0.933809 0.599261 0.713764 0.246491 0.958195 -0.058660 -0.565415 -0.197846 -0.570140 0.638140 -0.800735 0.858083 0.178600 -0.009769 -0.193690 -0.696670 0.313495 -0.840436 0.904324 -0.264105 -0.369720 0.125163 0.301934 0.372800 -0.132689 -0.916301 -0.500503 -0.312573 0.011777 0.619272 -0.013293 0.077969 0.218533 -0.299529 -0.675540 0.176728 0.641811 -0.240956 0.978882 -0.928329 -0.602816 -0.821853 0.929753 0.575784 0.168378 -0.263936 0.879114 -0.518127 -0.104373 0.783438 0.217767 0.525907 -0.091399 -0.480299 -0.101293 0.775912 -0.396600 0.398204 -0.536661 0.615178 0.017476 0.450046 -0.306854 -0.763991 -0.849483 0.017606 0.412736 0.792327 0.776650 0.391618 0.863998 -0.826165 0.569765 0.793752 0.749619 -0.261857 -0.470185 0.628733 0.220015 0.425442 0.412171 -0.562217 -0.048650 -0.679227 -0.042516 0.850057 -0.903315 0.560884 0.248261 -0.439976 0.176062 -0.734263 -0.989931 0.869208 -0.498255 -0.839414 -0.113186 0.914482 0.952913 -0.336535 
0.306100 0.816911 -0.162701 -0.124135 0.610663 -0.413082 0.614007 -0.859522 -0.784349 -0.165977 0.565921 0.627822 0.271805 -0.482730 0.948595 -0.770711 -0.632673 -0.954720 0.790174 0.615588 -0.394697 -0.033765 0.881325 -0.384627 -0.164556 -0.616930 -0.224041 0.722258 -0.702448 -0.271128 -0.614278 0.603652 -0.454216 0.223022 -0.520483 -0.843553 0.809939 -0.906476 -0.703075 -0.974410 -0.072453 0.862845 0.653413 -0.800648 -0.619884 0.602008 -0.571359 -0.252557 0.647287 -0.781185 -0.636969 -0.747410 0.185050 -0.755644 -0.132037 -0.979506 -0.372573 0.643922 0.742752 -0.075021 -0.627206 -0.871525 -0.471369 -0.081423 0.351496 0.008148 0.075024 0.161436 0.101672 0.371948 0.187026 -0.970781 0.234794 -0.159562 -0.771429 0.614910 -0.557554 -0.342788 -0.637647 -0.910267 -0.123973 -0.274616 -0.657677 -0.938922 -0.030259 0.210286 -0.918428 0.597167 -0.145792 0.824324 -0.477854 0.227001 0.952798 0.050777 -0.854421 0.304294 -0.941075 0.220602 -0.534270 0.160597 -0.407449 0.652756 0.189816 0.827344 -0.506806 0.418387 0.442254 -0.064360 -0.924401 0.804607 0.025373 -0.048373 -0.470009 0.367697 0.012704 0.499732 -0.422017 0.094276 0.096899 0.432191 -0.081400 0.619046 -0.340808 -0.128602 -0.330177 -0.195229 -0.824307 -0.271251 -0.974627 -0.358577 0.889346 -0.382077 -0.705821 0.079162 -0.554732 -0.212627 -0.502451 0.887522 0.723014 -0.426852 0.692129 -0.251613 0.524775 -0.777880 -0.883916 -0.462521 0.721852 -0.305933 0.631755 -0.181249 -0.873743 -0.449645 -0.562203 -0.214551 0.421753 0.107620 0.590220 0.597446 0.836369 0.615593 -0.761131 0.725715 -0.766484 -0.466952 -0.195123 -0.321216 0.320421 0.302426 -0.433694 0.043434 0.875574 -0.741565 0.791821 0.400348 -0.519444 0.907905 0.937827 -0.797592 -0.398028 0.569582 0.021159 -0.271771 -0.880063 0.458956 0.513678 0.541690 -0.433423 0.103898 0.139136 -0.597054 -0.280509 0.378005 -0.871339 -0.046992 0.911053 -0.066463 0.631792 0.231474 -0.764037 -0.801902 -0.725091 -0.888463 -0.543466 -0.933270 0.511885 -0.062911 0.974635 0.449712 0.139497 -0.423393 0.019295 -0.839344 0.304835 0.139232 0.619613 -0.181486 -0.319078 -0.813810 0.922412 0.820058 -0.410864 -0.358097 0.198064 -0.282204 0.594911 0.109117 0.651334 0.226703 -0.659409 0.887297 0.424801 -0.384501 0.998833 0.881335 -0.317771 0.510718 -0.181575 -0.343136 -0.039569 0.957922 0.233471 0.979725 -0.881422 -0.461694 0.118957 0.738191 0.356820 0.799879 0.924381 0.279232 0.619938 -0.486483 0.921135 -0.181999 0.231313 0.516046 0.927118 -0.117353 -0.257251 -0.732291 -0.230056 -0.832450 -0.116791 -0.231223 -0.951114 0.565438 -0.720504 -0.132690 -0.777698 0.239926 -0.174768 0.455773 0.219652 -0.056190 0.994079 -0.661391 -0.317998 0.350899 -0.861512 -0.393617 -0.369869 0.758426 0.119899 -0.448733 -0.423573 -0.648787 -0.932687 -0.496455 0.233860 -0.189938 -0.228745 -0.996197 -0.022388 0.654463 -0.227419 0.026497 0.219901 0.052076 0.893808 0.442203 -0.707998 -0.280960 -0.102024 0.511654 0.662850 -0.107944 0.850263 -0.655149 -0.757045 0.988751 -0.048766 -0.126913 0.747176 -0.928867 0.424353 -0.676396 -0.577654 0.491666 -0.172851 0.656206 -0.698273 0.598404 0.660009 0.279339 0.252867 -0.567410 -0.694163 -0.527232 0.484666 -0.800356 0.914971 0.776668 -0.081316 -0.187053 0.288322 -0.418466 0.705003 0.138585 -0.073615 0.947958 0.127336 0.877619 -0.178955 -0.125488 0.948753 -0.754602 0.198116 -0.628901 0.737064 -0.974735 -0.972695 -0.961208 0.623668 0.687314 0.318131 -0.123465 -0.880096 0.623968 0.349302 0.604569 0.823612 0.264273 0.381237 -0.257704 -0.922780 -0.330441 0.323829 0.782224 0.808144 -0.749785 0.730182 -0.064520 -0.872166 -0.448773 0.809992 -0.923413 -0.203375 0.008108 -0.552314 -0.466310 0.033372 -0.525009 -0.427519 -0.342960 -0.837695 0.890612 0.533575 -0.717792 0.514580 -0.117123 0.886777 0.338192 -0.852849 0.268015 -0.919512 -0.775629 0.937574 0.404317 -0.993405 0.745719 0.654532 0.736777 -0.318801 0.782366 -0.711996 -0.508809 0.858953 0.084629 0.499299 -0.693361 0.618319 -0.467329 -0.218370 -0.809200 0.189711 -0.056066 -0.918587 -0.276714 0.226143 0.595993 0.606164 0.112920 -0.065815 0.753314 -0.619065 0.014672 0.977686 -0.681491 -0.581011 0.984280 -0.935772 -0.926479 0.721057 -0.254574 0.855887 -0.990939 0.236617 0.714840 0.093690 -0.264084 -0.978521 -0.287991 0.268587 -0.196891 -0.097190 -0.541702 0.747044 -0.015778 0.181585 -0.026814 -0.419785 -0.212252 -0.913894 0.514400 -0.458937 -0.532959 -0.470928 -0.481252 -0.214450 -0.051939 -0.496971 -0.150223 0.021582 -0.775914 0.595203 -0.122530 -0.766853 -0.168180 -0.407690 0.326837 0.567736 -0.386211 -0.961154 -0.163677 0.416898 -0.058344 0.294621 0.163942 0.925878 -0.523795 -0.862872 -0.493907 0.263954 -0.776766 -0.979508 0.805017 -0.309726 -0.450436 -0.676235 0.475824 0.497626 -0.173207 -0.674399 -0.480792 0.050879 0.920804 0.396677 0.284026 -0.247375 0.988987 -0.389137 -0.679639 -0.397224 -0.350291 0.156684 -0.980326 0.591364 -0.548696 0.183616 0.517242 -0.072490 0.320744 -0.976665 -0.808536 0.543977 -0.956172 0.996480 -0.765748 -0.406608 -0.679755 0.710076 -0.908982 0.147038 -0.964323 -0.389774 -0.802083 0.956481 -0.993097 0.481943 -0.290894 0.995890 -0.907194 0.029467 -0.401333 -0.257485 -0.813850 -0.381659 -0.666121 -0.362545 0.801957 0.851122 0.564964 0.122701 0.874457 0.756428 -0.333322 0.918284 0.752908 -0.099070 -0.488324 -0.926847 -0.388995 -0.397306 0.220191 -0.353318 0.212920 0.418108 -0.396837 0.219823 -0.099948 0.312269 0.215713 -0.007142 -0.658264 0.814380 0.735373 -0.472114 -0.567279 -0.930748 0.165340 -0.765323 0.920374 -0.269695 0.357378 0.794830 -0.513267 -0.975944 0.713115 -0.760359 -0.075014 -0.775209 -0.687207 0.535991 -0.172515 0.532984 -0.817327 -0.959595 -0.048907 -0.214164 0.260228 0.851145 -0.901894 -0.524059 -0.155997 -0.560159 -0.709680 -0.420625 -0.032273 -0.276959 -0.351373 -0.866933 -0.042281 -0.430999 -0.136628 -0.684903 -0.636169 0.350105 -0.660847 -0.923054 0.589746 0.264138 -0.698263 0.902539 -0.199870 0.129222 0.435523 -0.017197 0.169627 -0.613384 0.768639 -0.570146 -0.762239 0.866745 -0.094205 0.081764 -0.693414 0.196115 0.661139 0.274313 0.919156 -0.690234 0.407380 -0.123125 -0.121233 -0.729247 0.191972 0.242598 0.620858 0.531124 0.319544 0.210603 -0.204737 0.621281 0.113142 0.595392 -0.249497 -0.451334 -0.421805 0.920129 -0.064718 -0.653166 -0.650017 0.173043 -0.786421 0.255778 -0.745194 -0.479835 -0.548107 0.915945 0.794478 -0.628950 -0.774289 0.201859 0.247925 0.104478 0.472612 -0.560104 -0.652923 0.093469 0.971021 0.666621 -0.695927 -0.233717 0.287902 0.417215 -0.638324 -0.961596 0.965880 -0.060129 0.958533 -0.098838 0.286705 -0.691483 -0.925795 0.500284 0.564295 -0.670989 -0.979550 -0.983812 -0.755044 0.814928 -0.612762 -0.529333 0.016787 0.635163 0.575146 -0.510602 -0.924941 0.922222 0.582868 -0.953920 0.588843 0.886940 -0.187637 -0.123255 0.304155 0.174039 -0.084851 0.270036 -0.886090 -0.126318 -0.828802 0.400615 0.182199 -0.754597 -0.099101 -0.253506 -0.425586 -0.078651 -0.237318 -0.180630 -0.263723 0.149920 0.290037 0.753064 -0.214917 -0.134817 -0.757538 -0.139857 -0.212595 0.825330 -0.093777 -0.623752 0.712270 0.718586 0.252992 0.016425 -0.107375 -0.831859 -0.713539 0.006534 0.041823 -0.542341 -0.592851 -0.775978 -0.296939 0.308048 -0.029484 0.277475 -0.770603 0.733199 -0.903155 -0.034327 -0.116881 0.386882 -0.281263 0.668203 -0.747936 -0.038801 -0.471655 0.039469 -0.213471 0.434568 0.415717 -0.501201 0.153153 -0.331291 0.515224 -0.954222 -0.163149 0.801685 0.052312 0.878674 -0.740656 0.459461 -0.897304 -0.037594 -0.232491 0.073213 -0.760119 -0.003095 -0.193589 -0.663275 0.962578 0.689530 0.723607 -0.318685 0.357733 0.975671 0.642514 0.886078 0.015140 -0.570957 0.320646 -0.569143 -0.072158 -0.526201 0.099566 -0.556933 -0.480423 0.936417 -0.755248 0.571889 0.815091 -0.495904 0.031350 0.917787 0.466502 0.798858 -0.009000 0.706382 -0.204236 0.797411 -0.956892 -0.241658 0.486941 0.766714 0.439657 -0.155326 0.742385 0.082172 -0.269248 -0.242475 0.511215 -0.948602 0.188381 -0.560943 -0.474803 -0.712053 -0.117876 0.044774 -0.775636 0.126876 -0.383337 -0.960546 0.630973 0.648013 0.957241 0.097475 0.446872 -0.051759 -0.196143 -0.757365 -0.254348 -0.153035 0.000977 -0.767407 -0.386321 -0.559366 0.077267 -0.643936 0.522806 0.808019 0.113589 0.034021 0.859416 -0.698030 0.473078 -0.615387 -0.410083 -0.644797 0.429387 -0.185719 0.482079 -0.953950 -0.146265 0.113052 0.694063 -0.189023 -0.789473 0.140935 0.759217 0.014384 0.383570 -0.495131 0.861349 -0.615453 -0.262538 -0.524972 -0.174819 0.814729 -0.168908 -0.652012 0.622747 0.944680 0.382009 0.482164 -0.753350 -0.144913 0.866777 -0.163433 0.210290 0.296164 0.650848 -0.307631 0.342214 -0.495416 0.805421 0.036278 0.315560 -0.984052 -0.822787 0.074778 0.030332 0.560783 0.579647 -0.108319 0.945330 -0.682891 0.366708 -0.229489 -0.868163 -0.802200 0.118499 0.754585 -0.857519 -0.499493 0.236748 -0.610869 0.355594 0.103525 0.225698 -0.434116 -0.600311 -0.123453 0.258253 0.741904 0.381130 0.063674 -0.221819 -0.303309 0.079621 -0.044606 0.771468 -0.890047 -0.483824 0.351115 0.001634 -0.538494 0.668224 -0.631658 0.232017 0.800061 -0.433858 -0.649484 0.554646 -0.291377 -0.148977 -0.208606 0.097754 -0.793382 0.894920 -0.676548 -0.227498 -0.705391 0.199999 -0.969245 -0.963487 -0.418870 0.094428 -0.185306 0.277820 -0.825950 0.770087 0.049289 -0.715997 -0.713736 -0.599596 0.285636 -0.252230 -0.931372 0.653978 0.979787 0.868689 -0.779879 -0.669698 0.423335 -0.071256 0.181326 -0.785271 -0.973502 0.387943 -0.890351 -0.650050 -0.839555 -0.595742 0.549949 -0.808801 -0.559230 -0.868921 0.285628 0.255464 0.408899 0.459677 0.025551 -0.541812 0.743680 0.311815 -0.141409 0.029316 -0.940415 -0.072781 -0.316706 -0.960629 -0.204092 -0.096585 -0.630326 -0.780757 0.832159 0.550999 -0.566028 0.858656 -0.061058 -0.456379 -0.791393 0.099387 -0.052121 0.758556 0.290586 0.388649 0.889635 -0.423786 -0.355887 0.298534 -0.964109 0.669664 0.756721 0.779571 -0.018521 -0.384687 -0.191113 0.041064 0.542532 0.492182 0.080435 -0.661560 -0.604403 0.450109 -0.442317 -0.772244 0.001108 -0.008345 -0.913588 0.940050 0.535276 -0.704981 0.039437 -0.516846 -0.946426 -0.669976 0.871803 0.943209 -0.093762 -0.484084 0.241743 -0.057871 -0.814419 -0.001536 -0.278299 0.167060 0.613776 0.530588 -0.791876 0.156308 0.022770 0.288559 0.494748 0.418367 -0.261332 -0.947569 0.646123 0.739776 0.044086 0.732535 0.679826 -0.420638 -0.972447 -0.280737 0.062516 -0.918872 0.049287 -0.065681 -0.975663 0.955525 0.450236 0.266079 -0.102346 0.635817 -0.735457 0.619354 -0.197123 0.878320 0.149942 0.011001 0.034628 -0.827288 -0.700440 -0.470624 0.591079 0.038227 -0.418193 0.237202 -0.221997 0.625893 -0.030263 -0.542171 -0.794745 -0.002710 0.177092 0.267771 0.078418 -0.773621 -0.797910 0.102755 -0.818096 0.652326 -0.631166 0.079558 0.288143 -0.366622 -0.301088 -0.908980 -0.488303 0.848855 0.102020 0.546325 -0.978433 0.401580 -0.924299 0.612646 -0.560193 -0.342492 -0.150152 0.217810 -0.716598 0.819585 0.675639 -0.511343 -0.183124 -0.147269 0.756427 0.895294 0.079110 0.958518 -0.001951 0.261014 0.610844 0.366883 -0.659428 -0.101013 -0.999739 0.039484 -0.009993 -0.488042 -0.111662 -0.907973 -0.941717 -0.090095 0.493607 -0.866015 -0.477448 0.933414 -0.208507 0.372400 0.151224 0.074895 0.191985 -0.173137 0.563551 -0.991139 0.679595 0.319979 0.904155 -0.241295 0.278497 -0.097796 -0.980281 -0.110659 -0.730913 -0.639710 0.788328 -0.730652 0.399774 -0.221665 -0.218694 -0.711888 -0.129639 -0.160410 0.198017 -0.636032 -0.026426 0.720569 -0.702618 0.765068 0.092969 0.448606 -0.160038 -0.715046 -0.724531 -0.596486 -0.706185 0.955064 0.723492 -0.802030 -0.286232 0.001989 0.100173 -0.266513 0.891330 0.369260 0.093777 0.679658 0.638608 -0.506449 -0.542007 -0.580086 -0.218337 0.328354 0.259504 0.979680 0.692322 -0.766921 0.700249 0.989703 0.998146 -0.206782 0.438309 -0.161892 0.078173 0.713778 0.241622 0.371988 0.668842 -0.034885 0.569957 -0.617390 0.967104 -0.329869 0.116097 0.858434 -0.960609 -0.790125 0.538092 0.677999 -0.296574 0.996084 -0.902086 0.485089 0.324438 0.357418 0.464769 0.016760 0.590496 0.165019 0.006463 0.588642 0.958237 -0.555228 -0.573249 0.036410 -0.841449 0.668373 -0.591603 0.827393 -0.366512 0.978355 -0.789997 -0.399409 -0.351515 0.326100 -0.540975 -0.312124 0.535975 0.997117 -0.634125 -0.760599 0.993201 -0.536211 0.724490 0.317640 0.821207 0.189259 -0.665600 0.411703 -0.645722 0.340863 0.000345 -0.687485 0.785635 0.427096 0.348924 0.944186 0.095469 0.757322 0.771578 0.728957 0.735676 0.981581 -0.670452 -0.615838 0.307682 -0.211426 0.072038 -0.156343 -0.214309 0.437913 0.083058 -0.221108 0.901702 -0.192453 -0.903468 0.722909 0.996807 -0.569069 0.134612 -0.648916 0.771794 -0.865043 -0.336401 0.557429 0.562053 -0.987476 0.501615 -0.342477 0.769846 0.273194 -0.613520 0.505522 0.254775 -0.283972 0.889683 -0.437543 0.504602 -0.038279 0.406114 -0.709707 -0.600366 -0.510829 0.069185 -0.698664 0.296719 0.165717 -0.975755 0.293525 0.596648 0.158856 0.644610 0.368443 0.293813 -0.691791 -0.074128 -0.144133 -0.679267 -0.572513 0.513389 -0.909422 0.700681 0.899869 0.596100 -0.044544 -0.384103 0.485784 0.517912 -0.879501 -0.552495 -0.075974 -0.589208 -0.152861 0.413197 0.479977 0.148476 -0.290084 -0.354306 0.172720 -0.996559 -0.757657 -0.668423 0.648051 0.610785 0.625390 0.956260 -0.463343 -0.518744 -0.723007 -0.035856 0.994646 -0.632428 -0.335175 0.894515 0.963672 0.620280 -0.489588 0.449456 0.138192 -0.369088 0.896961 -0.937782 0.041704 -0.255899 0.475415 -0.478319 0.892576 -0.814669 0.167376 0.065297 -0.811227 0.409718 0.396873 0.836824 0.020503 0.022263 0.793085 0.557160 0.503520 -0.929922 -0.478696 0.498166 -0.562350 0.186129 0.392680 -0.598678 -0.193591 0.903093 0.850778 0.944601 -0.465996 0.747739 -0.993181 0.575708 -0.508160 0.482235 -0.902610 -0.615584 0.667566 0.264765 0.449713 0.856339 -0.325517 -0.153414 0.693163 0.694987 0.868850 0.486248 0.252147 0.372369 0.556326 0.773451 -0.129465 0.993975 -0.040420 -0.736785 -0.604703 0.765989 -0.833692 -0.753925 0.710590 -0.299688 0.993814 0.717409 -0.723980 -0.514346 0.199644 -0.626590 -0.129930 -0.132790 0.638175 -0.680217 -0.276451 -0.687341 0.166369 -0.583287 -0.992354 0.035218 0.902960 0.259793 -0.592413 0.459286 0.033244 0.278122 0.453262 0.992824 0.541338 0.848559 0.758812 0.707646 -0.905366 0.469402 -0.592042 -0.911551 0.186811 -0.316022 -0.425897 -0.613545 0.057388 0.444173 0.253665 -0.304436 0.763955 0.977214 0.008223 -0.069676 -0.606073 0.015868 0.965542 -0.703113 -0.724339 -0.626870 0.756174 0.308905 0.651252 0.209435 0.301728 0.192590 0.057994 0.060540 -0.099764 0.152629 -0.470058 0.308193 0.241078 0.716753 0.992172 0.815181 -0.896792 0.049560 0.259353 0.356873 0.745124 0.023309 0.334087 -0.246654 0.953633 0.728014 0.769215 0.919175 -0.975098 -0.955124 -0.707695 0.781075 0.353780 0.943557 -0.009489 -0.344492 0.136146 -0.951495 0.716049 -0.963618 0.201134 -0.754009 0.344575 -0.557789 0.962744 0.336747 -0.742608 -0.934048 -0.613693 0.516745 0.422826 -0.868569 -0.459946 -0.243087 -0.115223 -0.506313 -0.515073 -0.346008 -0.587138 -0.490171 -0.301132 -0.294834 -0.709096 -0.947352 -0.351277 0.281415 -0.291844 0.784869 0.329920 -0.575795 0.821251 -0.468946 -0.329804 0.165827 -0.026735 -0.367060 -0.497426 0.230657 -0.301108 -0.111119 -0.252598 -0.878282 0.020312 0.287456 -0.121369 0.905089 0.781143 0.363558 -0.440918 -0.805995 0.873387 0.257949 -0.100829 -0.835708 0.310597 0.547894 0.445707 -0.981247 0.332764 -0.224373 -0.557042 0.154015 0.306681 0.113154 -0.680158 -0.720054 0.746094 -0.177584 0.510603 -0.555014 0.711297 -0.741995 -0.433296 -0.268392 0.545461 0.445335 -0.363302 0.326604 -0.191107 0.195779 0.520609 -0.317720 -0.546271 -0.580220 -0.153428 0.764326 0.967675 -0.707721 0.783079 0.300438 0.067906 -0.773963 -0.545546 -0.625413 0.339190 -0.225705 -0.345467 0.085284 0.596711 -0.834865 0.530270 0.308008 -0.576860 -0.903027 -0.960384 0.968602 0.542308 -0.323686 0.295206 -0.648799 0.872093 -0.184185 0.033482 -0.674178 0.235596 0.880054 -0.909853 0.203270 -0.827667 0.873226 -0.496291 0.240240 -0.900737 -0.041838 0.614827 0.438453 0.732458 -0.730641 -0.476263 0.329169 -0.565505 -0.945994 -0.362824 -0.142365 -0.849021 -0.323207 -0.173763 0.693287 0.353106 -0.878558 -0.955512 0.225199 -0.062742 0.077970 0.551021 -0.827147 -0.041976 0.641169 0.376123 0.130357 0.514395 0.879832 -0.629403 0.613658 -0.162006 0.985423 0.052110 -0.429548 -0.745218 0.575847 0.899621 -0.310723 0.629853 -0.463203 0.546912 0.780832 0.213590 -0.626851 0.474120 -0.433304 -0.505409 0.518608 0.791896 0.431849 -0.403422 0.342917 0.604702 0.554602 -0.015915 -0.019175 -0.315041 -0.501520 -0.139343 0.055556 -0.887862 0.698652 0.040979 0.164248 -0.730896 0.295761 -0.259905 -0.831275 0.985039 -0.630052 -0.294478 0.531951 -0.849219 0.919112 0.905100 0.624901 -0.514192 -0.600309 0.143509 -0.722296 0.831540 0.740087 0.620621 0.436242 0.294689 -0.395294 -0.582933 0.979648 0.103186 0.277724 0.035203 0.215324 -0.023624 -0.923818 -0.620428 0.245480 0.371944 0.119668 0.414205 0.356982 0.489616 -0.880273 -0.111067 0.640397 -0.961161 -0.205967 0.265298 -0.475353 0.193724 -0.591194 -0.197650 0.025264 -0.851107 -0.577029 -0.538495 0.443581 0.027677 -0.121428 0.423229 -0.869137 -0.843703 -0.541568 0.346188 0.132673 -0.465386 0.725760 -0.621847 0.906558 -0.154572 0.792358 0.263540 -0.664956 0.912084 -0.847527 0.975441 0.950923 -0.053494 0.240738 -0.524430 -0.859770 0.649544 0.277920 0.165493 0.798437 0.700891 0.626998 0.242019 -0.271432 -0.494429 -0.334752 -0.140568 -0.338132 0.123680 -0.794381 0.794541 0.658294 0.931379 -0.827307 0.564852 -0.223193 0.965051 -0.171608 0.111851 0.877135 -0.019135 0.087291 0.828058 0.927372 -0.671970 -0.696372 -0.932399 0.977574 0.581548 0.233095 0.776011 0.282440 -0.139907 0.018030 -0.988992 0.365664 0.683278 -0.129560 -0.972469 -0.193042 0.076059 0.822072 -0.534748 0.007438 0.994765 -0.969896 0.784245 0.959816 -0.141504 -0.103904 0.836952 0.839362 0.983387 0.665010 0.766733 -0.688583 0.968638 0.834334 -0.711009 0.550187 0.067429 -0.934998 -0.167374 0.927522 0.083033 -0.156366 0.293186 -0.233690 0.714074 0.320717 0.573268 -0.209867 0.142789 -0.961480 0.797572 0.137555 -0.931376 0.581817 0.097371 -0.072880 -0.522087 -0.065677 -0.233518 -0.538700 -0.400667 -0.466785 -0.227283 -0.432028 -0.632450 0.061708 -0.881842 0.434979 0.126711 -0.049215 0.362501 -0.790257 0.794419 -0.344313 -0.023946 0.508493 0.976404 -0.450678 -0.701374 0.119193 -0.412158 -0.903802 -0.743253 -0.343534 0.678015 0.354118 0.583586 -0.844073 -0.711559 -0.649932 -0.382773 -0.112226 -0.116717 0.389944 0.455746 0.250833 -0.548347 0.573904 -0.314189 0.578363 -0.475311 -0.951688 0.788106 -0.680892 -0.296001 -0.235840 0.827600 -0.319598 0.313482 -0.873773 0.799595 0.901323 -0.777576 -0.943657 -0.442211 0.900439 0.410461 -0.858625 -0.943634 0.698903 -0.508557 -0.326406 -0.413323 0.374726 -0.936462 -0.957577 -0.374442 -0.484809 0.616327 0.311370 -0.906446 -0.858984 0.359682 0.881660 -0.539876 -0.936319 -0.354180 -0.712276 -0.255917 0.959302 -0.586049 -0.456321 0.860625 -0.363625 -0.399979 -0.581586 -0.463186 -0.989517 -0.440211 -0.406820 0.709385 0.051232 0.266774 -0.703938 -0.574042 0.330312 -0.661515 0.051516 0.845503 0.954813 -0.637114 0.939057 -0.904171 0.722568 0.820717 -0.444047 0.786249 -0.533462 -0.156323 -0.469668 -0.574160 0.257628 0.074010 -0.713535 0.894003 0.674032 -0.295121 -0.569183 0.684515 0.264668 0.023997 0.393900 -0.684100 -0.709229 0.689963 -0.258142 0.621083 -0.971552 0.793374 0.466586 0.983261 -0.843740 0.405643 -0.920910 0.878828 0.226360 -0.364958 0.665077 0.692898 0.478719 -0.804591 -0.881262 -0.263653 0.269419 -0.594797 -0.369650 -0.056549 0.110082 0.061167 -0.372034 -0.625250 -0.914836 -0.978134 -0.309350 -0.624065 0.711829 0.432508 0.997018 0.740277 0.225882 0.463604 0.723537 0.382143 -0.130752 0.802627 0.260971 -0.904392 -0.562330 -0.073952 0.788506 0.916389 0.121457 0.907244 -0.347264 -0.609124 -0.687554 0.283086 0.334327 0.422528 -0.655747 0.962294 0.797278 -0.570583 0.984160 -0.512072 -0.194648 0.695988 0.920436 -0.197630 0.436265 0.146319 -0.734025 0.159802 -0.471539 0.135222 -0.037571 0.789432 0.230830 0.400099 -0.284520 0.019337 0.316488 0.836937 -0.073419 0.969224 -0.772187 0.239027 0.252310 0.562140 -0.338445 0.596563 0.524434 -0.541167 -0.974020 0.508593 -0.053239 -0.168668 0.204582 -0.132803 0.633702 -0.359153 -0.986484 0.899677 0.800649 -0.458023 0.034900 -0.236921 -0.668591 -0.734270 -0.836823 0.046889 0.285067 0.479665 -0.116174 -0.788353 0.448889 0.111639 0.450674 -0.298801 -0.326221 -0.887771 -0.702238 -0.801787 -0.428938 -0.676258 0.706806 0.517822 0.155074 -0.088612 -0.614981 -0.211224 0.552235 -0.601465 -0.311547 0.352884 -0.059488 0.723353 -0.884038 0.271921 0.989083 -0.720860 -0.681189 0.274150 0.758805 0.202637 0.485797 0.207694 -0.685725 -0.063529 0.908893 -0.011946 0.048700 -0.793345 0.186267 0.619762 -0.469603 -0.106927 0.137584 0.685471 0.804461 0.522603 -0.525753 0.356695 0.921138 0.162701 -0.290421 -0.138349 -0.113946 -0.174459 -0.866428 -0.124863 0.104681 -0.547617 -0.850713 -0.136514 0.655019 0.635084 -0.928820 0.969295 -0.428445 0.980073 -0.042651 0.620255 -0.813272 -0.856384 0.240016 -0.282874 0.036688 -0.622400 -0.597403 -0.158851 0.900203 -0.123156 -0.802156 0.821342 -0.960455 -0.092577 -0.317008 -0.074402 0.732964 -0.183435 0.800735 -0.162355 0.268947 0.950022 0.701130 -0.076033 0.585105 0.772310 -0.106739 -0.843340 0.752383 0.850610 0.776915 0.939112 0.994226 0.016931 -0.343763 0.030914 0.394531 0.058834 0.872063 0.294735 0.935678 -0.930092 0.116076 0.975222 -0.022669 0.799069 -0.099180 -0.289705 -0.384367 -0.298445 0.547940 0.884581 -0.348423 0.249070 -0.191453 -0.763318 0.021380 0.701809 -0.606658 -0.226236 0.552419 -0.829743 -0.287125 0.546644 0.187188 0.369113 -0.422441 -0.418280 -0.572054 -0.550378 0.876454 -0.636376 -0.480471 -0.007469 -0.661154 0.496860 -0.208401 0.239666 -0.792845 0.407232 0.941222 0.755095 0.291813 -0.407201 0.004165 -0.899640 -0.170519 -0.974455 0.802169 0.222823 -0.200691 0.354588 0.393080 0.512185 -0.098768 -0.419731 -0.118703 0.478791 0.161988 0.309243 0.928413 0.038443 0.672867 -0.552058 -0.969027 -0.988287 0.944802 -0.177427 0.251380 -0.848043 -0.770195 0.192601 0.907052 0.521618 0.785400 -0.088783 0.621979 -0.385119 -0.063237 0.424148 0.837704 0.736072 -0.221264 0.230785 0.248257 0.679968 0.811053 -0.870446 0.158759 -0.026958 0.438797 0.087171 -0.988516 0.111665 0.535114 -0.957542 0.123378 0.479916 -0.134970 -0.625243 0.631873 0.094835 0.567359 0.538926 -0.383546 0.352759 -0.549857 -0.761568 0.967640 0.386906 0.662580 0.805344 0.122978 -0.558685 0.036129 -0.628766 -0.878717 -0.152818 -0.499212 0.280042 0.820224 0.939585 -0.632786 0.831708 0.051250 0.902327 0.874166 -0.825372 0.382243 -0.260804 -0.450615 0.014116 0.834032 -0.883256 -0.446958 -0.549515 0.469503 0.003185 -0.311083 0.437142 -0.609910 -0.648503 0.242486 0.513068 -0.207187 -0.721385 0.884302 -0.085904 0.125797 -0.614910 -0.805862 -0.053980 -0.675324 -0.438648 -0.222272 0.375926 -0.536321 -0.348106 0.550553 0.845922 0.391090 -0.900062 -0.139962 0.225122 -0.783318 0.413080 0.675607 0.686185 -0.583736 -0.635476 0.123327 -0.193645 -0.283978 -0.634186 -0.680577 0.508834 -0.355571 -0.796275 -0.577070 0.770225 -0.411185 -0.382931 -0.283754 -0.086509 0.178420 0.493974 -0.710583 0.642099 -0.854131 0.839970 0.488021 0.536959 0.939908 -0.651941 -0.237919 -0.843410 0.761139 -0.562312 0.842775 -0.822596 -0.197788 -0.033898 -0.016242 0.518234 0.331916 0.303181 0.027069 0.976345 0.506906 0.449999 0.746570 -0.904279 -0.932932 -0.537184 0.009213 0.245488 0.956791 0.298629 -0.112413 -0.897341 0.138600 -0.624392 0.639618 0.078508 -0.276333 -0.598301 0.235098 -0.515194 -0.160613 0.077873 -0.337790 0.641599 -0.956024 0.645968 0.159833 0.375892 -0.050850 -0.813098 0.352237 -0.543944 0.636901 0.098807 -0.448223 0.703969 0.561623 0.560990 -0.050543 0.518414 -0.140381 0.837044 0.621073 0.998219 -0.787348 0.260691 0.076727 -0.063681 0.662390 -0.688175 0.421126 
-0.498223 0.389698 -0.916664 -0.856624 0.433674 0.729304 0.303209 -0.190434 -0.321546 0.490111 -0.838197 0.134509 0.127013 0.260610 0.686287 -0.169019 -0.177767 0.247277 0.780438 -0.659353 -0.893104 0.617481 0.961720 -0.894885 0.830133 0.222411 0.181841 -0.233548 -0.115199 0.493666 -0.812422 0.386578 -0.116635 -0.729086 0.529953 -0.682961 -0.999782 -0.166837 0.126605 -0.321328 -0.676726 0.288408 0.813181 0.450287 -0.450982 0.499468 -0.718732 0.371251 -0.253256 -0.938294 0.711899 -0.146360 0.679187 0.673619 -0.041245 0.509320 -0.103970 -0.859403 -0.724227 0.780831 0.634263 -0.536649 0.167409 -0.482372 -0.265736 -0.302638 -0.165334 -0.265518 0.530525 0.961271 0.413154 0.853799 0.249679 0.226335 0.304086 0.798697 -0.274198 0.585354 0.169948 0.472547 0.647060 -0.118153 -0.673813 0.326247 -0.444534 0.284942 -0.164432 0.451496 0.425539 0.111340 0.232327 0.059802 0.574691 -0.600264 0.577429 -0.691045 0.097099 -0.587905 0.043437 -0.372376 -0.626633 -0.543409 -0.518577 0.623045 0.682925 0.785509 0.421742 -0.591272 0.370863 -0.408310 0.881274 0.017923 0.473537 -0.792539 -0.655830 -0.970998 0.492403 0.179737 0.480499 -0.082058 -0.708922 -0.287174 0.977744 0.865769 0.112562 0.555173 -0.825276 -0.790339 0.967268 0.218161 -0.162715 -0.659365 0.674751 0.318708 0.963680 0.357676 0.104217 0.385422 0.766404 -0.524920 0.977112 0.647678 0.493003 0.450649 0.855140 0.837173 0.479652 0.347543 0.016910 -0.039850 -0.734515 0.307988 0.672976 -0.756771 0.173757 -0.214462 0.798402 0.348480 -0.004801 0.765670 -0.433359 0.832484 -0.893695 -0.758608 0.151192 -0.930015 0.599069 -0.744591 0.455408 0.365473 -0.269511 0.432520 0.013151 -0.776509 -0.116831 -0.131709 -0.939336 -0.637180 -0.784166 0.077574 0.322970 -0.518680 -0.614438 -0.004054 -0.275451 0.559319 0.781484 -0.477049 -0.092201 -0.223316 -0.711379 0.474440 -0.390833 -0.605074 0.715833 0.760359 -0.535089 0.314901 -0.984233 0.920319 -0.319626 -0.253744 0.352839 0.693525 -0.030253 -0.763992 -0.438184 0.030411 -0.401172 -0.222350 -0.892014 0.921799 0.258969 -0.506452 -0.082255 0.983518 -0.947133 -0.300771 -0.493531 -0.039333 0.475913 -0.204910 -0.564893 -0.914920 0.190016 -0.849060 0.845439 0.654927 0.465841 0.861206 0.575246 -0.853785 -0.392538 -0.071915 0.839739 0.577209 0.164093 -0.598445 -0.392379 0.762921 0.179205 -0.284393 0.684719 -0.561826 0.209155 -0.397536 -0.578308 0.262022 0.301693 -0.071839 -0.777311 -0.222394 0.723251 -0.342203 -0.137314 -0.086734 -0.191264 -0.291875 -0.431807 -0.725423 -0.430669 -0.856561 -0.579208 0.176794 0.071524 -0.739469 -0.245997 -0.764383 -0.337914 0.361624 0.998537 0.841291 -0.922770 0.683257 -0.720535 0.286385 -0.714280 -0.298842 -0.451592 0.587414 0.629319 -0.228903 -0.634980 0.352569 0.428894 0.227706 -0.734165 -0.762370 0.935831 -0.165971 -0.487793 -0.494837 -0.022532 -0.067001 0.681956 -0.951008 0.193530 -0.564041 -0.715391 0.855616 0.797583 -0.716854 0.696907 0.874813 0.966403 0.976372 0.161199 -0.747877 -0.322470 0.709606 0.839537 -0.693152 -0.519297 -0.795443 0.659418 0.909597 0.432263 0.925253 -0.852773 0.368095 -0.240718 -0.340566 0.873258 0.736750 0.592432 0.555214 0.785742 -0.214038 0.991173 -0.929649 -0.358422 0.788756 -0.646503 -0.661515 0.663570 -0.680101 -0.685143 -0.175231 -0.427977 -0.007613 -0.465625 -0.588440 0.299236 0.015078 -0.383883 -0.041347 -0.075325 -0.951620 -0.116094 0.071902 0.416475 0.643188 0.731336 0.289732 0.379937 0.323768 -0.155054 0.165679 -0.890270 -0.163880 0.236030 -0.248692 -0.375124 0.589527 0.089793 -0.711554 0.909426 0.404650 0.113215 -0.518551 -0.602963 0.647590 -0.106991 0.696273 -0.337332 0.509125 -0.345073 0.587343 0.557505 0.538833 -0.340755 -0.026020 0.182021 -0.609419 -0.736288 -0.438042 0.714349 0.108659 0.727637 0.824079 0.944779 -0.036333 -0.424614 -0.430345 -0.446806 0.665179 -0.141899 -0.537380 0.069829 0.971316 -0.055931 0.466867 0.618905 0.837077 0.163140 -0.718427 0.346203 0.818066 0.868917 -0.096292 0.356899 -0.471838 0.877688 -0.461080 -0.081257 -0.858600 0.100878 -0.366909 0.250059 -0.171485 -0.542830 0.194837 0.792183 0.032556 0.764492 -0.654624 -0.302265 -0.377407 -0.192004 0.767565 -0.406091 0.752065 0.234431 -0.787185 0.589143 -0.602429 -0.505612 -0.064654 -0.784362 -0.636695 0.839054 0.572537 -0.108533 0.716742 -0.888543 0.810210 0.858142 0.212335 -0.556699 0.108201 -0.959150 -0.099529 -0.696962 0.833033 0.933027 -0.932469 -0.821590 -0.369237 -0.309876 -0.013594 -0.601673 0.284033 -0.261529 0.632759 0.496848 -0.672386 -0.969670 0.991236 0.262960 -0.754032 -0.645459 0.102013 0.818505 0.246007 -0.181245 0.929962 0.056217 -0.323103 0.142297 0.499518 0.785098 0.183147 -0.600011 -0.911863 0.016180 -0.666984 -0.844333 0.194590 -0.036222 -0.154209 -0.819004 0.362106 -0.870176 -0.080533 -0.005136 0.626672 0.247082 0.025195 0.617908 -0.489959 0.271163 0.972449 0.612055 0.089668 0.218456 -0.569190 0.019630 -0.725327 0.107707 -0.838073 0.774191 -0.107194 0.345074 -0.825820 -0.019058 -0.638746 -0.492804 0.136610 0.555844 0.470974 0.982401 0.736840 -0.166920 -0.887775 -0.343693 0.827944 0.738898 0.903389 -0.146861 0.356805 -0.586570 -0.875699 0.329254 -0.974515 0.213969 -0.452290 -0.543705 -0.766402 -0.177617 0.564002 -0.604475 -0.403426 -0.543192 0.740599 -0.229247 0.437750 -0.898147 0.277949 -0.425640 0.657697 -0.251077 -0.443239 0.394537 0.582002 -0.331014 -0.949155 0.409947 -0.592116 0.954234 -0.736915 0.764689 -0.632336 -0.612614 0.093943 -0.606851 0.601355 0.641653 -0.150556 0.834953 -0.535964 -0.586553 -0.769522 0.060610 -0.129745 0.971077 0.831363 -0.691995 -0.927070 0.109312 -0.117635 0.730627 0.858235 0.439126 0.125165 0.440237 -0.891888 0.176010 -0.149816 -0.484005 0.130243 0.113269 -0.719316 0.497907 0.500655 0.374627 0.891057 0.102010 0.016280 -0.259499 -0.063036 0.480316 0.153948 0.167442 -0.459074 -0.975798 0.138519 -0.627711 -0.667793 0.211449 0.481600 0.214572 -0.057924 0.339835 -0.346303 -0.932759 -0.219928 -0.238191 0.243251 0.630256 0.277804 -0.626506 -0.256475 0.558488 0.871401 -0.755820 -0.066885 0.762458 0.346190 0.949396 -0.497041 -0.716846 0.429712 0.656906 0.450595 0.970637 0.681109 -0.410886 -0.657074 -0.986684 0.800563 0.824526 0.227888 -0.257361 0.164361 0.881585 -0.190120 0.944433 -0.356606 -0.946869 0.574689 0.921198 -0.573376 -0.681786 0.479687 -0.701974 -0.437607 -0.587198 -0.939516 0.908583 -0.637802 -0.436557 -0.808263 0.791909 -0.779651 0.642332 0.762547 0.901458 -0.768554 -0.894528 0.914774 -0.967991 0.929998 0.142661 -0.225351 0.094360 0.024247 0.584529 0.038793 0.667641 0.637659 -0.386518 0.588839 -0.935716 -0.068305 0.068526 -0.637690 0.494089 0.481328 -0.577207 0.402672 0.843526 -0.013764 0.594409 0.635435 0.206585 0.236741 0.397982 0.108043 0.468187 0.503454 0.022817 0.500197 0.433452 -0.834522 -0.725155 -0.472188 0.189725 0.859374 0.566605 -0.142634 0.497033 -0.819913 -0.553795 0.561316 0.111782 0.514730 0.923626 -0.394129 -0.003942 -0.653581 -0.991457 -0.160416 0.332656 0.602951 -0.524981 -0.460759 -0.160308 0.873000 0.647284 -0.692120 0.376454 -0.329899 0.808076 -0.190094 -0.164420 -0.917079 0.337718 -0.974695 0.942295 -0.095677 -0.117330 0.439328 0.084410 0.328875 0.000644 -0.803808 -0.156395 -0.075730 -0.197938 0.839663 0.270690 -0.189395 -0.320753 -0.396655 -0.586443 0.154266 0.142586 0.253249 0.027266 -0.210129 0.561128 -0.596279 0.459972 0.369205 0.213627 -0.704448 0.452126 -0.448655 -0.679143 0.394421 0.455668 0.203527 -0.166251 -0.459922 -0.467598 0.834393 -0.263730 0.376006 -0.241337 0.538332 0.215670 -0.970647 -0.651063 0.894917 -0.367302 -0.237506 0.049183 0.775285 -0.984257 -0.923551 -0.434844 0.576871 -0.519831 -0.974872 -0.053924 0.693796 -0.679320 -0.601798 -0.754858 -0.358463 0.792622 0.700810 0.845064 -0.373629 -0.759112 -0.622535 -0.539236 -0.022842 0.753472 0.219427 -0.484510 -0.030859 0.248780 -0.135573 -0.135942 0.881478 0.626921 0.913241 0.656763 0.642664 0.989689 -0.778081 0.219535 -0.530141 -0.752953 -0.834389 -0.836345 -0.432273 -0.436187 -0.591203 0.209264 -0.643565 -0.890393 0.054328 -0.017194 -0.649505 0.431793 0.443570 0.327653 0.185265 -0.337003 0.843143 -0.845594 0.911777 -0.292429 0.018464 0.793255 -0.665508 -0.068295 0.450018 0.977156 -0.078606 0.671937 0.196692 0.391253 0.918983 0.362303 0.554908 -0.513290 0.926116 0.963705 0.695974 -0.717449 -0.926688 -0.249698 0.265357 -0.576192 -0.817905 -0.291073 0.751461 0.367360 0.371925 0.594604 0.521766 0.283702 -0.697825 -0.459769 0.076957 -0.363333 0.471935 -0.473025 -0.386177 -0.606670 -0.801088 0.810515 0.784583 -0.882105 0.172818 0.339491 -0.395395 0.098934 0.303197 -0.699421 0.381485 0.376509 0.050881 -0.353158 0.800317 0.232976 0.355770 0.551777 -0.399664 -0.272306 0.146381 -0.877898 -0.988604 0.448556 -0.337668 0.088353 -0.914777 -0.865732 0.615328 -0.300953 -0.472402 0.814240 -0.490438 -0.687820 0.932135 0.682380 0.651672 -0.463260 -0.218686 -0.045132 -0.162681 -0.837201 -0.668623 0.888200 -0.190359 -0.868306 0.121175 -0.834589 0.683471 0.721511 -0.106895 -0.170147 0.843612 -0.095499 -0.721591 -0.494055 0.992854 -0.636368 -0.359787 0.608182 0.062679 0.167810 0.422422 0.572240 0.479991 0.354557 0.254620 0.131662 0.891297 -0.964066 -0.913470 -0.271384 -0.801267 -0.582092 -0.383184 0.008374 -0.450399 0.737991 0.173785 -0.766928 0.459502 -0.933110 0.062925 0.303114 -0.028609 0.341334 0.809059 -0.035755 0.704966 -0.550729 -0.427573 -0.232356 0.617081 0.994850 -0.660115 0.097072 0.349407 0.594505 -0.771266 0.240704 0.630439 -0.684735 0.969319 0.829171 -0.266828 -0.413865 -0.162455 0.282773 -0.675874 -0.988671 0.515846 0.783627 -0.921781 -0.421230 0.086741 0.049610 0.920104 -0.104200 -0.986145 0.625069 0.345072 -0.413718 -0.607286 -0.037847 -0.418869 -0.267402 -0.940775 0.930538 -0.672897 -0.712041 0.171242 0.957541 -0.396776 0.140561 0.786713 0.336396 0.726696 -0.375742 -0.380830 -0.949178 -0.364413 -0.864985 0.834449 -0.286194 -0.286215 -0.078809 0.763416 -0.366111 0.816991 0.777270 -0.741041 0.162062 -0.636448 -0.348327 -0.875785 -0.055316 0.384271 -0.816559 -0.124778 0.711374 -0.528600 -0.953537 0.668915 0.074624 0.187025 0.455628 -0.588980 -0.086279 -0.920115 0.030189 -0.035457 -0.284528 0.165205 -0.201008 0.429278 0.878990 0.720182 0.192694 -0.487121 0.537173 -0.030035 -0.228162 -0.300765 0.333517 0.423511 -0.176549 -0.721799 -0.192219 0.006891 0.153423 -0.480845 0.478291 0.199886 -0.811929 -0.447085 -0.613089 0.643699 -0.036065 0.300632 0.723584 0.994124 -0.734826 -0.560943 0.159329 0.064166 0.868335 0.038319 -0.215652 0.061029 0.551198 -0.678479 -0.969006 -0.676964 0.020756 0.364511 0.746547 0.844207 0.642712 -0.445672 -0.148902 -0.203865 0.073484 -0.670610 0.996021 0.261554 -0.117696 -0.617068 -0.094747 0.846239 0.683563 -0.371163 0.840364 0.948738 0.067893 -0.000307 0.012904 -0.063772 -0.961988 0.797252 0.997257 0.589210 -0.881227 -0.971749 0.912246 0.139529 0.392762 0.658793 -0.016263 0.035474 -0.786879 0.834835 0.831608 0.286605 -0.835775 0.827629 -0.451841 0.046529 -0.789439 0.453412 -0.107232 0.894124 -0.917751 -0.266868 0.842862 0.150142 0.732825 -0.144235 -0.913630 0.770836 -0.346983 -0.916372 0.360046 -0.228210 -0.888121 0.272292 0.911319 0.504641 -0.068915 -0.104944 -0.459886 0.144206 -0.270109 -0.628278 -0.569189 -0.105885 -0.800649 -0.021030 0.940644 -0.590088 -0.567618 -0.166587 -0.695964 -0.485370 0.566545 -0.853102 0.664772 0.299370 0.002663 0.751143 0.070206 0.655680 0.834770 -0.569748 -0.572530 0.946649 0.702544 -0.661211 0.451290 -0.366371 0.233845 0.991404 0.777835 0.963736 -0.636874 -0.791354 -0.142149 -0.437523 0.187616 -0.201504 -0.027611 0.619998 0.631908 0.276425 -0.865372 0.198453 0.423322 0.799400 -0.502177 -0.574014 0.550543 0.568029 -0.918334 0.385313 0.998281 -0.490864 0.331962 0.700825 -0.152075 -0.216748 -0.665546 -0.918230 -0.225345 -0.887711 -0.954494 0.137781 -0.679065 -0.096643 0.700258 0.508551 0.701853 -0.327353 0.128548 0.333761 0.949072 0.263176 -0.467785 0.372394 0.062576 0.030038 0.798380 -0.386881 -0.401934 0.880045 0.998432 -0.403653 -0.610819 0.330394 -0.702829 0.237106 -0.886355 -0.368375 0.318876 -0.111699 -0.256086 0.364382 -0.973918 0.064848 -0.732261 0.726340 -0.426601 0.969592 -0.601013 0.701947 0.303354 -0.651941 -0.034877 0.835568 0.720453 -0.972301 -0.134394 0.518833 -0.359183 0.463672 0.398878 -0.360751 -0.939981 0.788059 0.969643 -0.642810 0.025165 -0.916712 -0.011185 -0.655958 -0.028411 0.732729 0.708424 -0.002330 -0.202423 0.976163 -0.275990 0.370976 0.945756 0.122997 0.072922 0.249109 0.471056 -0.961955 0.084677 0.191509 -0.934256 0.950283 -0.289659 -0.293439 0.413955 -0.890781 0.345810 0.473974 0.897279 0.315453 0.831164 -0.077556 0.398741 -0.180020 0.266486 -0.629671 -0.447292 -0.025091 0.368000 0.350285 -0.048927 -0.907990 -0.278739 -0.103172 0.215007 0.794183 -0.854062 -0.313938 0.832228 0.230615 0.877571 0.897972 0.180898 -0.412088 -0.395467 -0.405146 -0.302868 0.950343 -0.931172 -0.405590 0.265795 0.899992 0.516854 -0.335464 -0.280028 -0.216660 0.034865 0.272680 0.758249 -0.597135 -0.377035 -0.290678 -0.505126 0.344226 0.606150 0.709881 0.138410 0.752088 -0.604056 -0.029362 -0.017297 -0.726485 -0.131390 -0.836399 -0.138573 0.473143 -0.241545 0.558559 0.423486 -0.172718 -0.847031 -0.310719 -0.272725 0.669823 0.353816 0.447246 -0.546837 -0.611319 -0.280074 -0.788588 -0.208454 0.342891 -0.079267 0.286421 -0.312882 -0.473116 -0.003698 0.825527 -0.721029 0.392246 -0.203834 0.261674 0.665760 0.664776 0.425275 -0.472813 0.137919 -0.816270 -0.914254 -0.438595 0.011013 -0.761285 0.250685 0.738287 0.908538 -0.395498 0.185533 -0.638299 -0.006817 0.905459 -0.426888 0.784729 0.248351 0.493846 0.071150 0.935468 -0.979271 -0.932548 0.760996 -0.700300 0.459697 -0.442838 0.561375 0.125458 -0.778062 -0.013350 0.652645 0.359857 0.170380 0.738391 0.921262 -0.818607 0.977106 0.171947 0.919680 0.885644 0.776449 0.105213 -0.752655 -0.230368 0.010672 -0.179543 -0.445639 -0.740977 -0.685697 0.625511 -0.805509 -0.664968 0.692963 0.955487 -0.365268 0.152660 -0.487351 -0.803893 -0.721882 -0.265413 0.182757 0.930763 -0.905557 -0.646863 0.669155 -0.984295 -0.465471 0.646261 0.187652 -0.545791 0.531906 -0.035899 0.559422 0.779251 0.733733 -0.429906 -0.400292 -0.711906 -0.170883 -0.085989 0.913605 0.023608 0.249043 0.606568 -0.020905 0.883775 -0.240772 0.491744 -0.920118 0.037346 -0.773669 0.262639 -0.031891 -0.679226 0.615776 -0.362736 -0.663521 -0.849695 -0.716475 0.524131 -0.395486 0.815430 -0.511768 -0.836064 0.594681 -0.778036 -0.265970 -0.805611 -0.489942 0.563147 0.108400 -0.576336 -0.413245 -0.642558 -0.969768 0.565850 -0.758782 -0.210540 0.057594 -0.678900 0.826806 0.283925 0.583739 -0.205085 0.604699 0.199515 0.432179 0.941178 0.349820 0.715703 0.465309 0.954334 0.531134 0.953541 -0.881730 0.125815 -0.824495 -0.147700 0.320203 -0.314436 -0.584553 -0.571397 0.109228 0.002202 -0.213955 0.139459 -0.431948 0.027263 0.928919 0.625646 0.348363 0.755725 -0.090429 -0.067898 -0.449360 -0.485730 -0.868382 0.982818 -0.544552 0.481438 0.698522 0.920757 0.435772 0.229656 0.874298 0.554043 -0.644530 -0.950197 -0.593657 0.675673 -0.264633 -0.178210 -0.895724 0.844595 0.823991 -0.109679 -0.015946 -0.607957 0.917584 -0.087027 -0.982311 0.265948 -0.331302 -0.072740 -0.801950 0.219337 0.441530 -0.670332 0.202156 0.896978 0.811106 -0.099322 0.817736 0.246878 -0.869667 0.692034 -0.199079 -0.514197 0.741837 0.207264 -0.838523 -0.522796 -0.970946 -0.734247 -0.678201 0.853045 0.156074 0.305853 -0.754912 0.073659 -0.781174 -0.737222 -0.660394 -0.112477 0.190038 -0.462344 -0.893139 -0.368432 -0.132676 0.309016 -0.471453 -0.321570 -0.790306 -0.653718 0.925308 -0.659973 -0.961684 -0.273771 -0.174170 0.780153 0.933492 -0.012693 -0.742643 0.962546 0.253060 -0.420844 0.815591 -0.590866 0.885009 -0.939320 0.482793 -0.896165 -0.676543 0.822399 -0.008642 0.513495 -0.639945 0.098219 -0.854936 0.227379 -0.592765 -0.326389 0.905809 -0.383071 0.019893 0.831116 -0.043044 0.058209 -0.442655 0.782786 -0.161638 -0.509163 -0.229907 0.095719 -0.546616 -0.976847 0.674875 -0.731025 -0.567713 0.559884 -0.670346 0.915080 0.663719 -0.346888 0.737479 -0.344923 -0.833393 -0.902466 0.753296 -0.688329 0.324913 -0.839469 -0.014718 0.230722 -0.222539 -0.994825 0.061838 0.734417 0.063384 0.619183 0.517203 0.901746 -0.889979 -0.712703 -0.002535 -0.436596 -0.689550 -0.327660 -0.167621 -0.257263 -0.767776 0.162034 -0.342183 0.895943 0.815145 -0.604704 -0.448980 0.981752 -0.507170 -0.695684 -0.706576 0.817743 -0.535153 0.278705 0.048465 0.242308 0.283880 -0.889696 -0.023275 -0.652736 0.729487 -0.506072 -0.750990 0.839508 -0.218776 0.246474 -0.597088 0.091674 0.918814 0.235292 0.834411 -0.848963 -0.602675 -0.507772 -0.953020 -0.787530 -0.112477 -0.402000 -0.805777 0.380353 -0.097684 -0.512354 0.198096 0.367163 0.766352 -0.753439 -0.390529 0.050232 -0.643135 0.586196 0.397496 -0.913648 -0.919876 0.646506 0.925860 -0.138652 -0.107020 -0.671228 0.953022 -0.188206 0.564064 0.787433 -0.037169 0.961389 -0.720339 0.009811 -0.826140 0.167184 0.607811 -0.631917 -0.452463 -0.489873 -0.144271 0.745633 0.877291 -0.377919 0.992194 -0.513238 0.672313 -0.650941 -0.927042 0.069809 -0.564589 -0.846918 -0.283685 -0.638729 0.014430 0.609295 -0.309957 -0.032548 -0.578911 -0.745893 -0.245115 0.383920 -0.784504 0.034546 -0.606269 -0.610644 -0.798270 -0.998458 -0.242561 -0.250733 -0.488330 0.613168 -0.505100 -0.611040 -0.764752 -0.512905 -0.124277 0.907561 -0.163847 -0.051319 -0.022630 0.271564 0.101763 0.693685 0.632835 -0.883807 0.302980 -0.677122 0.083645 0.724068 -0.423015 0.838531 0.107988 -0.207519 -0.126923 0.501719 0.181837 0.074807 0.503261 0.939276 0.824074 -0.985069 0.552443 -0.681026 -0.596108 0.787692 -0.193931 0.279614 0.695253 0.642223 -0.771705 -0.327377 -0.086213 0.330058 -0.633692 -0.453378 0.446250 0.669288 -0.130500 -0.470105 0.393356 0.446485 -0.631574 -0.498657 -0.761034 0.241503 -0.996938 0.420803 -0.683690 0.506324 0.360079 -0.859616 0.521255 -0.087478 -0.540642 0.925146 -0.299786 0.265427 0.204760 -0.604533 -0.092350 0.433055 0.068090 0.821437 -0.236887 0.434398 -0.631941 -0.790637 0.103686 0.237558 -0.260742 -0.502958 -0.315957 0.107685 -0.001615 -0.076991 -0.650813 0.001447 -0.656187 -0.334503 -0.492229 0.703892 -0.194119 -0.970974 -0.383586 0.265239 0.954172 0.316628 -0.469333 0.158932 0.712095 0.438317 -0.408012 -0.219814 0.259754 0.355100 -0.785416 0.627812 0.564463 0.318270 -0.134629 -0.696278 0.815311 0.549414 0.411406 -0.186304 -0.527577 0.760594 0.815144 -0.183764 -0.573909 -0.677085 -0.479872 0.231971 -0.648059 0.136542 -0.502789 -0.693887 -0.546830 0.027878 0.465045 -0.834735 -0.533806 -0.942967 -0.054549 0.725948 0.412133 0.160035 0.353760 -0.023404 -0.521695 -0.780869 0.280318 -0.706384 0.768545 -0.308276 0.107313 -0.759032 -0.547682 -0.077543 0.057204 -0.121592 0.245372 0.577332 -0.889620 0.597312 -0.286126 -0.392410 0.903425 0.167044 0.635468 0.368470 0.332309 -0.898338 0.425503 -0.722240 0.827610 -0.162364 0.437795 0.181371 0.814232 0.916100 0.400502 0.094550 -0.790283 0.169047 0.786274 0.317030 0.410015 -0.761408 -0.760513 -0.532781 0.117000 0.484858 -0.955449 0.227379 0.082171 -0.241575 0.834969 -0.014404 0.925469 0.470437 -0.645934 0.257778 0.572099 0.779570 0.535539 0.399710 -0.382794 -0.026666 -0.418920 -0.568562 -0.110565 0.981582 0.525988 0.099152 0.150629 0.312262 -0.583819 -0.439356 0.550853 -0.344332 0.027863 -0.332147 -0.859474 0.072415 0.895232 0.222697 0.830840 0.730201 -0.791707 0.756309 0.200639 -0.437641 0.014087 -0.227262 -0.658071 -0.450374 -0.827552 -0.040866 0.522961 -0.246472 0.390572 -0.587605 -0.264890 -0.083440 0.511547 0.885738 -0.771179 0.927728 -0.553618 0.779675 -0.416604 0.474245 -0.552472 -0.276078 -0.453340 -0.657240 0.946619 -0.622500 -0.927039 -0.845088 -0.866191 0.273600 -0.282729 0.147896 -0.953662 0.059200 0.697523 -0.781215 -0.981666 0.220483 -0.027687 0.408906 0.632879 0.707422 -0.674534 0.144426 0.593161 -0.445713 0.072154 -0.960457 -0.666038 0.655550 0.513788 -0.218510 -0.620527 -0.939552 0.124249 -0.673908 -0.562052 0.197210 -0.518996 -0.428244 -0.529190 0.198274 0.719653 -0.482852 -0.742526 0.417176 -0.264067 -0.724192 -0.362341 0.708246 0.684714 -0.729462 0.415668 -0.989820 0.414963 0.008829 -0.435533 -0.512883 0.048371 -0.101571 -0.857332 -0.437841 0.679919 -0.477859 -0.377394 -0.195832 -0.151768 0.060554 -0.998621 0.329236 0.632310 -0.527811 -0.472490 0.351963 -0.010664 -0.215016 -0.230861 0.725269 0.060792 0.406798 0.433515 -0.254494 0.677335 -0.150817 -0.244314 0.092299 0.858011 0.320153 0.579416 -0.093618 -0.781417 0.722084 0.468541 0.898501 -0.755776 -0.908853 -0.297330 0.092457 0.151701 -0.295952 -0.578307 -0.215988 0.176237 -0.050797 -0.864025 -0.834427 0.734187 -0.094886 0.890842 -0.205020 -0.688088 0.324356 0.540486 0.989247 -0.826461 -0.703827 0.081546 -0.968450 0.616326 -0.339038 -0.062068 0.834909 -0.616954 -0.593527 0.733410 -0.372730 -0.502379 -0.563920 0.719727 0.649322 0.140128 -0.858580 -0.566666 -0.683636 0.090623 -0.430691 -0.518063 -0.175190 0.474423 -0.627221 0.619790 0.786335 0.697135 0.160277 0.775582 0.870674 0.456449 -0.142873 0.902224 0.072775 0.518089 -0.159843 -0.092316 0.901135 0.246630 -0.358906 -0.471595 0.744250 0.077174 -0.751867 0.393573 -0.782699 -0.610448 0.826907 -0.466334 0.480175 -0.603784 0.015603 -0.695014 0.870639 0.388382 0.924776 0.656973 0.085518 0.085053 0.432555 -0.043808 -0.458498 -0.710318 -0.141583 0.614277 0.807771 0.698573 -0.478039 0.708906 -0.054797 0.163055 -0.762688 -0.310547 -0.759772 -0.514556 -0.916974 -0.542470 -0.125003 0.909933 -0.008804 -0.644828 -0.693852 -0.993201 -0.339842 -0.823213 0.395181 -0.415066 0.833760 -0.519301 0.669987 0.266315 0.436891 -0.788512 0.555997 -0.704692 0.825765 0.363768 0.993881 -0.652274 0.072674 -0.060916 0.510781 0.309986 0.628537 0.751009 0.795431 0.711563 -0.791461 -0.329572 0.621495 0.199735 0.025600 0.927644 0.206534 0.685758 -0.895570 -0.398285 -0.729308 0.938190 0.082414 0.940679 0.204505 -0.480695 -0.847833 -0.239498 -0.185388 0.977933 -0.875730 -0.191507 -0.674341 0.196944 0.747577 0.836440 -0.493069 0.376113 0.587449 -0.697639 0.087676 0.795989 -0.027211 -0.290828 -0.004276 0.998389 -0.363184 -0.797742 0.684147 -0.258754 -0.196027 0.954839 -0.320564 0.886387 0.895518 0.883941 -0.594309 -0.952315 -0.355557 0.220304 -0.974382 -0.231287 -0.971203 -0.648723 0.965657 0.776373 -0.812283 -0.527412 0.152487 0.775167 -0.225051 -0.759837 0.571155 0.747738 -0.050665 -0.433121 0.746127 0.586150 -0.230863 0.430274 -0.672604 0.573109 0.385113 0.006832 0.459496 0.280631 -0.109227 0.865187 0.328317 0.535216 0.085491 0.353935 -0.696071 0.114287 0.705212 -0.730414 -0.109339 0.892929 -0.257826 -0.956853 0.668095 0.517123 -0.716690 0.239251 0.264861 0.232645 0.806130 0.010989 -0.181204 -0.424734 -0.558737 0.146192 -0.851624 0.826376 -0.846976 0.607871 0.107008 0.043798 0.473059 -0.564676 -0.420986 -0.441451 0.789259 -0.117057 0.672837 0.494471 0.152529 -0.436503 0.387399 0.894703 -0.393355 0.055495 0.411826 -0.110045 -0.705255 -0.323312 -0.877400 -0.899125 0.687676 -0.058604 -0.323859 -0.871061 -0.912412 -0.175483 0.955316 -0.759387 -0.567612 0.062324 0.284411 0.905447 0.497648 0.863425 -0.536004 0.286907 -0.253632 -0.863167 -0.218622 0.898898 -0.299670 -0.831223 0.793601 0.306975 0.224272 0.205427 -0.803070 0.519017 0.882115 -0.680470 0.619891 0.569791 0.260926 -0.703968 0.698731 0.348514 0.120549 0.654046 0.589127 0.552937 -0.283630 -0.126462 0.458383 -0.785982 -0.263038 0.922380 0.500925 0.483330 -0.940787 -0.717697 0.382228 -0.240457 -0.548920 0.175829 -0.933482 0.675352 -0.618744 -0.736552 0.194368 -0.736629 -0.417021 -0.185740 0.833162 0.843905 0.110292 0.531893 0.192420 -0.769160 0.185939 -0.218453 0.783777 0.902309 0.655084 0.242161 -0.883673 -0.607953 0.164540 0.617253 0.875377 0.223753 0.899556 0.257605 0.983296 -0.649364 -0.566566 -0.950186 -0.974013 -0.185310 -0.686738 0.220356 0.078060 -0.103759 -0.965385 -0.088778 -0.259854 0.144907 -0.556885 0.932566 0.375747 0.629054 -0.285888 0.159525 0.531363 -0.630804 -0.598315 0.647690 
-0.238757 0.566226 0.264943 -0.363380 -0.210021 0.164498 0.894225 -0.226726 0.515134 -0.672341 -0.176912 0.541121 0.142349 0.136351 -0.238523 -0.779591 -0.967409 -0.203908 0.131632 -0.227263 0.940999 0.574747 -0.294697 0.316747 0.203800 0.419415 -0.523728 -0.264837 0.788612 -0.122043 -0.617147 -0.450145 -0.555817 0.647796 0.186475 0.234161 -0.187706 0.080700 -0.992564 -0.672572 0.408359 -0.169476 0.868549 -0.449292 0.966874 -0.369973 -0.228883 0.999466 0.426119 0.902749 -0.227797 0.367118 0.477495 0.477506 -0.316135 -0.318704 -0.103078 0.160137 0.416459 -0.314467 -0.961906 0.799312 0.235388 -0.517723 0.447108 -0.578138 0.716438 -0.740598 0.502562 0.723873 -0.413170 -0.089079 -0.445603 -0.544620 0.461629 -0.478728 0.085406 -0.767254 -0.479262 -0.488475 -0.864506 0.292941 0.878644 0.612990 -0.229553 -0.437491 -0.705715 0.667369 0.722646 0.710744 -0.647098 0.760740 0.510056 0.588290 -0.756983 -0.042835 -0.989848 0.959454 0.216567 0.512714 0.683328 0.803397 -0.576365 -0.762275 -0.741223 0.885264 -0.241004 0.344184 -0.881990 0.279734 0.855709 -0.746496 -0.427325 0.734353 0.866494 0.343122 -0.703138 -0.839221 0.010491 -0.980492 0.871523 0.363393 0.780248 0.381580 -0.048317 -0.976736 -0.661256 -0.038165 0.982719 0.555311 -0.525451 0.666046 0.358709 -0.101816 0.903771 0.617486 -0.216551 -0.337233 -0.038330 -0.098541 0.942501 -0.182622 0.154963 -0.484824 -0.448269 0.021457 0.858298 -0.151407 0.182236 -0.131211 -0.131899 0.053760 -0.767818 -0.351652 -0.564661 0.183865 -0.328387 -0.225916 -0.854301 -0.345668 -0.670605 -0.379752 -0.679622 0.688104 0.518433 -0.775851 0.305590 -0.698119 -0.113084 -0.732741 0.203340 -0.170582 0.084638 -0.641697 0.344594 0.636369 0.379760 0.202893 -0.515039 -0.438004 -0.928318 0.353062 0.615756 -0.696136 -0.998590 -0.948905 0.487729 -0.326977 -0.174822 0.633429 0.327355 0.154573 -0.746323 0.647732 -0.157323 0.772110 0.871881 -0.851733 -0.926009 -0.241202 -0.584474 0.277331 0.588216 0.500164 0.635634 -0.067190 0.136532 0.015393 -0.864298 0.621494 0.577389 -0.792616 -0.025445 0.193145 -0.488751 -0.024034 0.244240 0.998978 0.648989 -0.930582 0.632406 -0.023656 0.223992 0.886083 -0.375924 -0.933331 0.658193 -0.504043 -0.785064 0.732184 0.254755 -0.369538 0.009515 -0.157029 -0.869375 -0.354852 0.775781 0.267158 0.660542 0.911483 -0.111349 0.237931 -0.881133 0.863207 -0.568924 -0.369884 -0.160827 0.675316 -0.370906 -0.511839 0.744734 -0.738500 0.464505 -0.031274 -0.852416 -0.911419 0.035395 0.805777 -0.415461 0.250331 0.537961 0.839294 0.880792 -0.452524 -0.317735 -0.988582 0.192624 -0.541955 0.278576 -0.146834 -0.630472 -0.832773 -0.908903 -0.511604 -0.969566 -0.477826 0.118511 -0.130394 -0.802510 0.747605 0.357768 0.942224 -0.990895 -0.177727 -0.089050 -0.843311 -0.089146 0.946345 0.962466 0.495392 0.196676 0.500426 0.334686 0.077468 -0.952098 -0.983049 0.088886 0.240526 -0.525004 -0.632538 -0.906308 -0.155476 -0.465311 -0.815211 0.332920 -0.434878 -0.293037 -0.548569 0.434728 -0.095547 -0.800964 -0.207504 -0.153323 -0.791858 0.614768 0.757627 -0.635169 -0.474378 0.703973 -0.672704 -0.978986 -0.099351 0.827723 0.355700 0.978117 0.875624 0.372651 0.067003 0.116151 0.847647 0.434465 0.209843 -0.307829 0.969153 0.394632 -0.974909 -0.465725 -0.898405 -0.523477 0.969003 0.006048 -0.324441 -0.238501 0.852725 -0.116299 -0.623733 0.610352 0.248532 -0.098111 0.314325 0.575828 -0.077097 -0.785027 0.403550 -0.721397 -0.806910 0.279175 0.651254 0.260093 -0.604675 0.498902 -0.305442 0.605168 -0.808927 -0.336289 -0.000200 -0.783836 0.197986 0.101395 -0.307313 0.166989 -0.892558 0.368246 0.928488 0.960167 -0.748053 -0.695245 0.570519 0.500479 0.206644 -0.115156 0.076306 -0.870453 0.099817 -0.520143 -0.591849 0.292907 0.759032 -0.940595 -0.447000 -0.845643 0.558307 0.247558 0.759525 0.749380 0.911268 -0.240675 0.965544 0.109254 0.860720 -0.341769 -0.723756 0.968162 -0.973523 -0.795268 0.928329 -0.721576 -0.490513 0.498848 0.778902 0.716132 -0.616309 -0.144791 0.845679 0.483508 0.335066 -0.746170 -0.223585 0.094098 -0.686765 0.329415 0.248455 0.871541 -0.423028 0.007980 0.620921 -0.511759 0.767305 0.586465 0.597495 0.628025 -0.755304 0.873739 0.596187 -0.728827 -0.921529 0.524516 -0.450403 -0.412041 0.023363 -0.671501 -0.695910 0.407055 0.183708 -0.850231 -0.109437 -0.481226 -0.596401 0.666978 0.612872 -0.283166 -0.003607 -0.138674 -0.411625 0.573365 0.869306 -0.790704 -0.938394 0.636612 0.795761 0.659101 0.264636 -0.959543 0.532840 -0.139177 -0.688369 0.611312 -0.614661 -0.138772 -0.800730 0.408702 0.189727 -0.496640 -0.184243 -0.626565 -0.346871 0.706320 -0.107791 0.056728 0.373298 -0.494919 0.773562 -0.630308 0.366407 -0.638063 0.943057 0.235714 -0.428767 -0.995337 -0.127675 -0.633006 0.663765 -0.863038 -0.592548 0.196605 -0.002215 -0.280918 -0.192083 0.383124 0.580310 0.007187 -0.208174 -0.229963 0.510547 0.607583 0.143473 -0.836324 0.313903 -0.964318 0.220405 -0.312798 -0.459237 -0.006033 0.056893 0.907170 0.355903 -0.000050 0.142884 0.927136 0.004614 -0.984791 -0.705869 -0.331622 -0.847829 -0.298418 0.864983 0.149956 0.420665 -0.327100 -0.466921 0.000975 0.680087 0.324905 0.771012 0.190634 -0.067511 -0.085516 0.354310 -0.753608 -0.049834 -0.425285 -0.066406 0.490929 0.568681 0.990487 0.398099 -0.075415 -0.009562 -0.459017 -0.148279 0.995051 -0.443808 0.145851 -0.336571 -0.291637 0.847434 -0.471588 0.858319 0.268098 0.201312 -0.608602 -0.730927 -0.118601 0.716304 -0.959916 -0.927968 -0.351208 -0.045432 0.426342 -0.104816 0.904735 -0.998943 0.828778 0.395664 0.569738 0.819265 -0.206237 -0.505677 -0.190297 0.334746 0.346044 -0.195246 0.890938 -0.508105 0.468183 -0.400699 -0.660671 0.996596 -0.542380 0.607427 0.197908 -0.150982 0.876499 -0.920694 -0.434678 0.916584 -0.848661 0.214114 -0.128848 0.577681 -0.890701 -0.224113 0.578738 0.938077 -0.828450 0.148477 0.757342 -0.034687 0.642799 -0.432955 -0.699941 -0.011157 0.371799 -0.809003 0.480738 -0.160017 -0.209702 0.820067 -0.163422 0.247918 0.427494 -0.965514 -0.903064 0.303993 -0.886208 -0.337742 0.220577 -0.734869 0.876372 -0.908271 0.842812 0.985671 -0.132384 0.421551 0.923748 0.039166 -0.429973 0.681090 -0.995521 -0.787174 -0.751865 -0.695462 0.201670 0.619935 -0.504465 -0.317592 -0.540083 0.285833 -0.497525 0.296496 -0.466249 0.929969 0.330982 -0.369313 0.233962 0.444774 0.292945 -0.545461 0.709905 0.169317 -0.453732 0.552718 0.154988 0.413884 -0.025732 0.078736 -0.546950 0.544295 -0.240174 -0.542471 0.757122 0.007962 -0.237933 -0.041209 -0.372104 0.257603 0.641199 0.087814 -0.456564 -0.856326 -0.615691 0.077187 -0.926357 0.715291 0.707874 0.307605 0.160065 0.000818 0.762144 -0.130030 -0.829864 -0.691588 -0.577313 0.325124 0.722296 0.396955 -0.596140 -0.824654 -0.058749 0.163686 -0.367124 -0.301628 -0.828353 0.394943 0.657163 -0.200456 -0.347454 0.298363 0.887357 0.195981 0.442037 -0.728334 -0.726832 0.515681 0.986957 0.981041 -0.176714 0.147022 -0.018140 -0.414570 -0.983009 0.151995 -0.106157 -0.560321 -0.522881 -0.383861 0.836634 -0.119021 -0.208515 -0.222115 -0.955335 0.424361 0.476257 -0.783688 -0.180696 0.133421 0.015856 0.471849 -0.568217 -0.096787 -0.332170 0.873821 0.174879 -0.059002 0.389501 0.161836 -0.077961 -0.787213 -0.691142 0.903899 -0.201783 -0.674151 0.055894 0.692060 -0.234472 0.533013 -0.691801 -0.397837 -0.586008 0.099684 0.380047 -0.541343 -0.475956 -0.143695 -0.325031 0.343348 0.989725 0.690824 -0.184803 -0.578492 -0.405963 0.483027 -0.704671 0.768916 -0.575975 0.684830 -0.069248 0.346064 0.897617 0.239610 0.249963 -0.304165 0.565459 -0.694143 -0.612105 -0.669013 0.838870 -0.303907 -0.066850 -0.747138 0.795777 -0.686803 -0.288481 -0.680179 0.169502 0.386488 0.663168 0.159227 0.077312 -0.521635 0.580735 0.671349 0.961392 0.876064 0.440265 -0.614583 0.560894 -0.628982 0.731481 0.458512 0.610627 -0.018556 -0.845654 0.176086 0.287301 -0.457759 0.507073 0.126172 0.238334 -0.559777 0.379034 0.034111 -0.246580 -0.909446 0.353932 0.922921 0.477041 0.017100 0.082148 -0.445646 0.495465 -0.337117 -0.774297 0.456858 -0.461053 0.665968 0.842275 -0.900159 -0.963014 0.573756 0.558353 0.647613 -0.444800 0.712700 -0.176301 0.842502 -0.745059 -0.669228 -0.031326 0.493275 -0.229005 -0.652292 -0.472614 0.524415 -0.561738 0.881317 0.447336 0.915303 -0.101582 -0.470516 -0.530344 -0.606117 0.192367 -0.304641 0.850741 0.731314 -0.638673 0.693015 0.831155 -0.601687 0.266771 0.389508 -0.954074 0.821971 0.102208 -0.130375 0.664473 0.357149 0.200398 -0.366853 -0.149577 0.971393 -0.019145 0.377809 0.495808 0.419116 0.259126 -0.056856 0.334419 -0.842456 0.472628 0.804076 -0.448573 -0.335005 -0.500565 -0.597833 -0.603691 -0.139238 -0.904817 -0.772536 0.259075 0.361954 0.616973 0.305001 0.183925 -0.280820 -0.825374 -0.151602 -0.923671 0.375024 0.481545 -0.073248 0.346416 -0.537600 -0.695439 -0.157776 0.881516 0.563687 0.785368 0.215935 0.721231 0.257996 0.020011 -0.727342 0.922992 0.519445 -0.325175 -0.680699 -0.619793 -0.229993 -0.453235 0.639282 -0.868039 -0.836263 -0.055717 0.315887 -0.117082 0.118909 -0.835715 -0.040753 -0.506067 0.645830 0.885999 0.840349 -0.891770 -0.809440 -0.317427 0.989746 0.754247 -0.532059 0.205681 0.475478 0.725938 -0.774308 0.748135 0.648930 0.745138 -0.577040 0.968230 -0.874655 0.192968 -0.485005 0.764627 0.324929 -0.321268 -0.291090 -0.359184 0.561650 0.827819 -0.194899 -0.479104 -0.678248 -0.549069 -0.593105 -0.837899 -0.440839 -0.402545 -0.155326 -0.451093 -0.648298 0.312615 0.754589 0.827179 0.038553 0.980281 0.575315 -0.312517 0.725418 0.998275 -0.344287 0.850763 0.191242 0.170708 0.615390 -0.483829 0.849440 -0.675699 0.156987 0.411090 -0.847880 0.962088 0.931986 -0.526128 -0.586981 -0.661119 -0.364028 -0.027820 -0.063664 0.480646 0.521087 0.288038 -0.206738 0.275676 0.115217 0.831815 0.255957 -0.309468 -0.480702 -0.018624 -0.311193 0.175011 -0.167861 0.880049 -0.654281 -0.552471 -0.603780 -0.804841 -0.228170 0.553207 0.606248 -0.076050 0.515295 0.538234 0.397822 0.928313 0.877115 -0.966206 -0.099507 -0.186549 0.514440 -0.578419 -0.898511 -0.692298 0.697257 0.216706 -0.860483 -0.046786 0.907238 -0.341186 0.934590 -0.403955 0.833825 -0.233271 -0.523906 -0.820456 0.214258 -0.127686 -0.625298 0.986088 -0.574479 0.980951 -0.089962 0.940816 0.519185 -0.692140 0.869129 0.396300 -0.658346 -0.230378 -0.790249 0.856094 0.191203 -0.688759 -0.836204 -0.111540 0.527947 -0.696687 0.841674 0.435185 -0.037873 0.776264 -0.968770 -0.204048 -0.457007 -0.492675 -0.024504 0.757251 0.379639 0.350198 0.743339 0.805160 0.331149 -0.346623 0.745976 -0.149666 -0.038763 0.615105 -0.753366 0.302891 -0.615273 -0.543615 0.158985 0.575930 -0.232374 0.322781 -0.535609 -0.704427 0.626094 -0.693935 0.730758 -0.411778 -0.917671 0.761989 0.384174 -0.374678 -0.730687 -0.640330 -0.617428 0.648952 0.709869 -0.874089 0.454112 0.041018 -0.220712 0.200088 0.891351 0.740525 -0.184807 -0.862015 0.043415 0.199920 -0.405629 -0.797599 -0.224149 0.361997 0.525182 0.240241 0.657570 0.151276 0.546306 0.388328 0.739498 0.628635 0.150316 0.123672 -0.746043 0.419629 0.483342 -0.363471 0.068581 0.193210 -0.237560 -0.477307 -0.765772 0.541728 0.722781 -0.874421 0.282253 -0.462026 -0.736435 -0.674332 0.737894 -0.142065 -0.471931 -0.486256 -0.780068 -0.946749 0.753986 0.877502 0.204527 0.300292 0.265829 -0.055976 -0.071074 -0.583854 -0.932304 0.182883 0.835775 0.551038 0.819412 -0.095644 -0.255752 -0.418148 0.427049 -0.021524 -0.876420 0.149830 0.104055 0.405833 0.687804 0.367619 0.731501 0.425698 -0.774445 -0.740430 0.939443 -0.554513 -0.687180 0.693428 -0.677011 0.517347 -0.006280 0.588818 -0.538629 0.922646 -0.995036 -0.470933 0.105529 0.840738 -0.919895 -0.075059 -0.254906 -0.175648 0.506793 -0.827856 0.802828 0.630373 0.321974 -0.093117 0.036205 0.009778 -0.725498 -0.232294 -0.564524 -0.499943 0.027276 -0.625081 -0.054456 0.340096 -0.931653 0.268533 -0.142558 0.062066 -0.142649 0.318813 -0.015287 -0.137686 0.847880 -0.909758 -0.296947 0.927985 0.015182 0.448147 -0.247663 -0.478025 0.620291 -0.444835 -0.847652 -0.057735 0.462048 0.188553 0.952043 0.736550 0.956259 -0.612481 -0.763393 -0.016465 -0.237562 0.182152 -0.676370 -0.169216 -0.549316 0.181072 0.892851 0.308035 -0.500114 -0.122437 -0.829651 -0.652234 -0.032195 -0.126598 -0.724249 0.982987 -0.678451 0.028089 -0.495038 0.941839 0.583254 -0.342690 -0.115896 0.045302 0.845863 -0.163853 -0.218148 0.802122 0.223666 0.018460 -0.214343 0.986103 -0.799389 0.109287 -0.183112 -0.348705 -0.709641 -0.290262 0.959330 -0.209755 0.587302 -0.870320 0.138012 -0.444893 0.003081 0.413763 -0.461906 0.324630 -0.558148 0.043056 0.266469 -0.974895 0.700367 -0.849427 0.070407 0.546230 -0.013280 0.852260 0.348352 -0.789614 -0.129281 -0.865991 -0.803511 0.071331 0.243296 0.013377 0.722626 0.533655 0.723115 0.681956 -0.676099 0.310417 0.811636 0.461912 0.865524 -0.185283 -0.124325 -0.596383 -0.860653 0.317527 0.446674 0.405817 0.342632 0.147041 0.556390 -0.586960 -0.306730 -0.456889 -0.734701 -0.958377 -0.246504 0.136019 -0.824368 -0.050015 -0.792651 0.418927 0.963362 0.929975 -0.047417 0.686477 0.611932 0.276483 -0.003106 0.423568 -0.261605 -0.137582 -0.761715 0.614070 0.266035 -0.622367 -0.068403 -0.287291 0.783450 -0.725771 0.859749 0.339840 -0.312731 -0.446980 0.882950 -0.047432 -0.405357 -0.363553 -0.911413 -0.229726 0.586432 -0.704064 -0.810799 0.549794 -0.774089 0.141784 0.236272 0.837843 -0.581733 -0.766834 0.261410 0.156662 0.095583 0.499696 -0.229267 -0.638382 0.877328 0.702330 0.074327 0.660778 0.976559 -0.065923 0.000618 -0.336172 0.487097 -0.116432 0.616397 -0.918261 0.520015 0.704984 -0.147987 0.106447 -0.999080 0.041215 -0.343759 -0.773169 -0.817001 0.892513 -0.935326 -0.398734 -0.874322 0.326085 0.757928 0.221262 -0.174220 -0.471339 0.582880 -0.296892 -0.769009 -0.342793 -0.636114 -0.792450 0.591284 0.364504 -0.128622 0.078381 -0.751928 -0.512225 0.160120 0.768087 -0.807241 -0.987867 -0.125466 -0.806321 0.053348 0.530775 -0.579489 0.236347 0.423288 -0.514815 0.837613 0.548967 0.811270 0.595541 -0.229772 -0.362950 -0.875799 -0.646892 0.340159 -0.644808 0.010316 0.704045 -0.437258 -0.398400 0.068549 0.434120 0.679981 0.316620 0.921896 -0.159899 0.084707 -0.885345 -0.147765 0.959241 -0.691665 0.905583 0.490016 -0.271155 0.141929 -0.086696 0.214031 -0.020458 -0.537729 0.025300 -0.424918 0.232499 0.662351 -0.300716 0.585608 0.002509 0.054476 -0.404076 -0.293446 0.617218 0.197524 0.775103 0.051338 -0.122495 0.091723 -0.026766 0.717606 -0.823569 0.087889 -0.430159 -0.864328 0.396224 -0.524577 0.625688 -0.874931 0.617353 -0.461008 0.339100 -0.403106 0.001263 -0.635600 0.171977 -0.766238 -0.973249 0.871261 0.819370 0.029260 -0.074264 -0.584706 0.735814 -0.457046 0.612817 0.510917 0.594292 -0.509678 -0.397360 -0.432474 -0.792071 -0.220929 0.655416 -0.222231 -0.085257 0.051639 0.253193 -0.459569 0.176708 -0.129455 0.079423 -0.484192 0.467440 -0.919314 -0.119792 -0.360584 -0.685552 -0.093041 -0.489323 -0.866182 0.936219 0.436413 -0.450888 0.672033 0.979368 -0.838071 0.182950 0.573660 -0.347749 0.785591 -0.858814 -0.139820 -0.435338 0.796602 0.637949 0.479405 -0.151759 -0.108858 -0.980165 -0.975050 0.761687 0.099258 -0.459242 0.229127 0.179944 0.420966 0.868543 0.494393 -0.672076 -0.620780 0.628211 -0.735857 0.815634 -0.822678 0.936177 0.795001 -0.660749 0.119127 0.368661 -0.008497 -0.095282 0.509848 0.851683 0.469380 0.306450 0.489632 -0.051216 -0.845309 -0.619226 -0.031381 -0.820359 -0.857539 -0.932122 -0.279602 0.371588 0.247822 -0.858636 0.240131 -0.257785 -0.530711 0.619351 -0.629575 -0.266568 0.434985 -0.452252 -0.330391 0.229986 -0.113001 0.788735 -0.401353 0.878502 -0.306547 -0.891506 0.730184 -0.837167 0.414944 0.219816 0.111617 0.569635 0.600590 -0.919764 0.749275 0.743050 -0.851886 -0.530326 0.114638 0.395936 -0.388962 -0.645231 -0.861849 0.080326 0.974120 -0.491424 0.813758 0.409104 0.056324 -0.516633 -0.360910 0.943323 -0.727898 0.237736 0.821824 -0.034445 0.346231 0.552009 0.128388 -0.238826 -0.228175 -0.759995 -0.669191 -0.627586 -0.679759 -0.919916 -0.884535 -0.531645 -0.450242 0.230103 0.864291 0.160795 0.584872 -0.997558 -0.758878 0.558991 -0.488982 -0.945120 -0.031905 0.567342 -0.461754 0.607185 0.510664 -0.189652 -0.155079 0.332489 0.775903 -0.808848 -0.115503 -0.095709 -0.047674 0.656322 0.144296 0.283135 -0.971263 0.464537 0.363219 -0.855798 0.932892 0.912977 0.374305 0.797183 0.073772 -0.040824 0.799625 0.314894 -0.481833 -0.689357 0.369773 0.486262 0.877985 0.908020 0.093447 0.388649 -0.281632 0.938368 -0.278863 -0.505729 -0.870480 0.605635 0.398562 0.081846 0.261957 -0.457142 -0.635019 0.290694 -0.992606 0.728200 0.434895 0.940286 0.641177 -0.190800 0.737470 -0.285050 0.768376 0.537095 -0.970157 -0.713457 0.847738 0.399617 0.772805 0.725722 0.307636 -0.133747 0.114371 -0.973996 -0.195379 0.835508 -0.479725 -0.065859 0.441143 0.918837 -0.984012 -0.296900 -0.538306 -0.619031 0.993793 -0.530911 -0.890831 0.428689 -0.590625 0.750346 -0.762112 -0.853155 -0.534704 -0.993736 0.683940 -0.504861 -0.707193 0.531677 0.894756 -0.934388 0.257399 0.202392 -0.068135 -0.628230 0.228396 0.736486 -0.792722 0.748671 -0.329372 0.648421 0.667508 -0.313385 -0.648479 -0.870798 0.067584 -0.654686 -0.401709 0.176753 0.774003 0.007666 -0.072900 -0.988109 0.154511 0.392395 -0.981845 -0.161549 0.887535 -0.689038 -0.629872 0.782290 -0.623425 0.627527 -0.015317 0.308440 0.999297 -0.786921 0.044926 -0.793425 0.961750 0.715554 0.854996 0.629257 -0.597831 -0.793483 0.758459 0.469753 -0.448169 -0.643250 -0.353493 -0.674166 0.364416 0.573606 -0.662274 -0.481072 -0.033998 -0.644119 0.357378 -0.146464 -0.333157 0.727506 -0.364173 0.043418 0.355033 0.620509 -0.648142 0.354330 0.833588 0.396784 0.560904 0.795338 0.112338 0.415900 0.424595 0.514507 0.622417 0.183054 -0.015740 -0.825751 0.539804 0.630766 -0.499917 -0.095780 0.204373 -0.162191 0.423148 -0.829626 0.193690 -0.219474 0.023910 0.860533 -0.491968 0.659737 -0.096049 0.863065 0.280246 0.255809 0.217395 0.113834 -0.347407 -0.221701 -0.090828 0.764931 -0.805801 -0.666233 0.279437 0.816617 0.516821 -0.736303 0.990865 0.056625 0.894464 -0.509052 0.960845 0.098836 0.328757 0.383993 0.269210 -0.477553 -0.835481 -0.706879 -0.617020 -0.327449 0.952858 0.286931 -0.464384 0.233104 -0.457259 0.753011 -0.653061 0.195334 -0.468690 0.256111 -0.039736 -0.274491 0.589877 -0.760298 -0.457874 0.106698 -0.496601 -0.467009 -0.836678 -0.602138 0.023939 -0.875833 0.496699 -0.647304 0.508160 -0.234091 -0.124857 0.672679 0.059030 0.258123 -0.654769 0.011888 -0.454945 -0.119153 -0.755008 0.087796 -0.366142 -0.408069 -0.716871 0.165168 0.848041 0.243394 0.890677 0.437918 0.483096 -0.567198 -0.455384 0.986495 -0.034207 -0.292062 -0.615643 0.989733 -0.167894 0.881056 -0.657571 -0.659734 -0.353035 0.217572 -0.987055 0.705995 -0.524304 -0.641824 -0.282118 0.020751 0.239023 -0.037126 -0.891454 0.872881 0.554805 -0.608324 0.038048 0.402846 0.635070 -0.071275 -0.159235 0.118166 0.361527 0.385381 0.104660 -0.672679 -0.906681 0.489017 -0.682947 -0.074575 0.370073 -0.340518 0.265691 -0.982962 0.877055 0.278636 0.723033 -0.647249 0.636812 -0.559085 0.373502 -0.124165 0.403789 0.482048 -0.251284 -0.041405 0.873724 0.786764 -0.638559 0.508794 -0.284511 0.202206 -0.373040 -0.922983 -0.412414 0.731620 -0.595662 -0.319094 0.220637 -0.278609 0.606330 -0.409289 0.380873 -0.127979 -0.392251 0.257928 -0.849343 -0.669219 0.610679 0.787469 -0.228304 -0.015819 -0.336696 -0.824514 -0.533771 0.412020 0.134080 -0.660047 0.198784 0.495521 0.848747 0.914273 -0.302273 -0.524293 0.991290 0.285313 -0.792673 -0.604373 0.966219 0.427964 0.117018 0.572549 -0.981325 -0.502108 -0.555430 -0.373577 0.755820 -0.404773 -0.042795 0.366499 -0.617304 0.728901 -0.649320 0.046000 0.904386 -0.183092 -0.541981 0.038467 0.156861 0.656803 -0.466012 0.005608 0.571076 0.231714 0.481315 0.562366 -0.482973 0.688642 0.957994 -0.516754 0.116606 0.075012 -0.944205 0.135281 0.572904 -0.499635 0.761705 0.328723 0.095592 -0.281091 -0.304778 0.478288 -0.552190 0.045902 -0.475712 -0.647804 0.862810 -0.017693 0.390663 0.019672 -0.360890 0.924651 -0.974720 -0.789814 0.156365 0.506595 0.772552 0.673392 0.195237 0.730546 -0.843362 -0.688156 -0.194442 -0.787566 0.447125 -0.621539 -0.287201 0.208830 0.707185 0.808391 0.927739 -0.597593 0.286679 -0.624451 0.448309 0.810967 -0.272254 0.311119 -0.206726 -0.881591 -0.669209 0.432384 -0.956941 -0.643929 0.642571 0.199424 0.862666 0.415123 -0.127184 0.057903 0.145669 0.029455 0.369747 0.951227 0.241888 -0.183128 -0.670312 0.954687 -0.974298 -0.963128 0.763079 0.953441 -0.560721 0.049758 -0.671010 0.887589 -0.139275 0.056736 0.198708 0.653999 0.175144 0.529499 0.086384 0.218203 0.885570 -0.271046 -0.582373 0.748236 -0.855923 0.290444 -0.193860 0.289746 -0.680102 -0.824113 0.240973 0.561787 -0.007241 0.570660 0.516474 0.018461 0.607533 0.279553 -0.028098 -0.953188 -0.670689 0.300892 0.934401 0.190036 -0.642372 0.133109 -0.155965 0.532772 -0.337392 0.930419 -0.249024 -0.451822 -0.340627 0.168603 -0.703585 -0.196550 -0.540953 0.102554 -0.906804 -0.221055 0.278441 0.334169 -0.659268 -0.728800 -0.095171 0.857207 0.289661 -0.487638 0.136759 -0.738437 -0.440826 0.466070 0.562455 -0.506425 -0.343895 0.920083 0.626684 0.500141 0.452855 -0.710708 0.430559 -0.796169 -0.162530 -0.910068 0.372434 0.133885 -0.106617 0.831481 -0.763561 -0.013421 -0.389574 0.514880 -0.679252 -0.048841 0.786081 0.225577 -0.191635 0.075742 0.737939 0.945124 0.337305 -0.702886 0.411194 -0.100241 -0.209311 -0.932700 -0.180158 -0.582627 0.567440 -0.727303 -0.293335 -0.002001 -0.523472 0.544135 0.087932 0.848962 -0.321981 0.981314 0.680443 -0.085542 -0.032107 -0.709131 -0.570661 0.288641 0.242028 -0.784581 -0.485782 -0.949607 0.291161 -0.747842 0.995517 -0.371534 -0.450729 0.406711 0.528225 0.339960 0.474011 -0.651933 0.757333 0.041451 -0.379236 -0.536003 -0.960549 0.097292 -0.991868 0.127382 -0.053747 -0.313849 0.108697 -0.373304 0.600610 -0.923410 -0.082436 -0.970052 0.365231 -0.840408 -0.754632 0.879449 -0.790015 0.536529 -0.868393 -0.794498 -0.835005 -0.319122 0.612213 0.693220 -0.979162 0.086224 -0.958713 0.778170 -0.872325 -0.337949 -0.757833 -0.832874 0.759342 -0.749701 0.294508 -0.294404 -0.063550 -0.596795 0.332291 -0.462940 -0.520205 -0.750144 -0.432992 0.845026 -0.590552 -0.187624 0.724475 -0.380568 -0.651095 0.856082 -0.175066 -0.486100 -0.463041 -0.562853 -0.792880 -0.442203 0.523371 -0.751593 -0.664033 0.651046 -0.089542 -0.421865 0.818172 -0.330200 -0.171566 0.112680 0.375396 0.764884 0.515884 -0.292313 -0.698056 0.995679 -0.042457 -0.131047 0.840704 0.366990 0.681329 0.565179 0.986422 -0.969766 0.421261 -0.188644 -0.455866 0.958220 0.248503 -0.248746 -0.483983 -0.228126 -0.000339 -0.148015 -0.577080 0.910119 0.430120 -0.758909 -0.420081 -0.741446 0.353771 0.955315 -0.976562 -0.130345 -0.336998 -0.674618 -0.134666 0.620545 0.194335 -0.293962 -0.012465 -0.124336 -0.728782 -0.026043 -0.094102 0.692479 0.785314 0.450032 0.650699 0.033817 -0.798714 -0.833284 0.805691 0.200947 0.018701 -0.771389 0.111066 -0.551179 -0.530298 0.690985 -0.292626 0.823473 0.646300 -0.269188 -0.306872 -0.690697 0.056194 0.558462 0.929848 -0.749471 -0.735500 -0.082617 0.126193 -0.464282 0.891340 -0.967909 -0.771803 0.676654 0.482123 0.878896 -0.289530 0.683409 -0.954388 -0.483839 -0.115644 0.064313 -0.255228 0.995422 0.513133 0.214474 0.686407 -0.779492 0.037946 0.332707 -0.048680 0.731074 0.642010 -0.992486 0.289536 0.571858 -0.741957 0.554037 -0.510760 0.384236 -0.910245 -0.619420 0.416327 -0.682048 -0.942766 -0.101550 -0.803153 -0.232296 -0.418141 -0.757541 0.283865 0.466215 0.306772 -0.971363 0.461636 -0.180095 0.243111 0.148043 0.040413 -0.718943 -0.519249 0.991733 -0.987869 -0.877239 0.999247 0.301668 0.694618 -0.742710 -0.144296 -0.816142 0.641526 -0.054541 -0.435561 0.057854 0.263411 -0.378328 0.956304 0.460258 0.389376 -0.461837 0.702717 -0.326758 -0.995623 0.009489 -0.298121 0.466014 0.829395 0.944989 -0.385943 -0.130192 -0.773954 0.094808 -0.138460 -0.761823 0.217569 -0.139213 0.539845 -0.087813 
0.118077 -0.604451 0.096046 -0.240396 0.341009 0.660484 0.817457 -0.395580 -0.717843 0.773761 -0.935322 0.671533 -0.688076 0.767395 -0.655225 -0.683699 -0.223115 0.046653 0.782315 -0.393720 -0.008357 -0.603628 0.476087 0.217689 0.491180 -0.662372 0.455866 -0.291251 0.198415 -0.004289 0.620936 -0.683508 0.391260 -0.283018 0.076096 -0.267731 -0.622534 -0.106447 0.336689 -0.340377 -0.332686 0.401367 -0.668844 -0.020762 0.168762 -0.324070 0.295539 0.945647 0.722584 0.077854 -0.448074 -0.285773 0.474226 -0.971986 0.931915 -0.034594 -0.634359 0.387782 0.674155 0.564056 -0.616507 0.295091 0.880549 0.774753 -0.987927 -0.043356 -0.492978 -0.610461 0.850197 0.843711 0.049162 -0.482489 0.245077 0.380318 0.496749 -0.586161 -0.943752 -0.207713 -0.640514 0.778832 0.870141 -0.088588 -0.506941 0.344367 -0.060575 -0.575026 -0.690227 0.305067 0.812756 0.983927 -0.130877 -0.803752 0.279019 -0.250328 0.971001 0.291092 0.706316 -0.521977 0.680631 0.556514 -0.678266 -0.270207 -0.925975 0.566811 -0.889890 0.570773 0.980650 -0.833642 -0.636939 -0.659864 0.945190 -0.766799 0.251548 -0.561751 0.577568 -0.809027 -0.136777 0.887341 0.496040 -0.324022 0.871268 -0.634837 -0.127774 0.150287 0.114835 -0.156772 -0.558622 -0.178848 0.321251 -0.877991 -0.622335 0.642985 -0.148198 -0.548310 0.209796 -0.038088 -0.977537 0.190446 0.128270 -0.614477 0.530581 0.073460 -0.381275 -0.217871 0.511709 -0.803707 -0.026898 -0.625068 -0.916367 -0.530858 0.050910 0.954901 -0.165695 0.923136 0.105188 0.949140 -0.233636 0.546566 -0.229708 -0.912385 0.668575 0.147957 0.730600 -0.479623 0.599647 -0.059605 0.482289 0.622110 -0.869159 -0.389441 -0.992367 0.661422 0.684019 -0.373642 -0.556449 0.195728 -0.177349 0.416653 0.570660 -0.093716 0.885795 -0.378430 -0.138814 -0.279900 -0.455294 0.966374 -0.330759 0.311070 0.512940 0.439533 0.398685 0.181515 -0.412510 0.129285 0.701892 -0.812863 -0.930320 0.184181 0.809246 -0.799479 0.794740 0.816880 0.861944 0.478759 -0.556762 -0.694505 -0.325512 0.265889 0.722148 -0.754852 -0.827827 0.607943 -0.133282 0.033359 -0.671957 0.411424 -0.000267 -0.002716 -0.277505 -0.487327 -0.563184 -0.878820 0.694188 0.024306 0.250465 0.396080 0.211443 0.320145 -0.419739 0.020689 0.520666 -0.624999 -0.162431 0.382610 0.853761 0.280807 0.688105 -0.471752 -0.453304 0.410253 -0.226604 -0.281131 0.018196 0.640115 0.752229 0.346240 0.051539 -0.248039 -0.656476 0.774034 0.264634 -0.219660 0.895214 -0.041178 0.804646 0.145678 -0.645098 0.016089 -0.534177 -0.064837 -0.963222 0.986489 0.310164 -0.125653 0.369099 0.163925 -0.844846 0.057204 0.692173 -0.298150 -0.532543 -0.534430 0.420719 0.485653 -0.894316 0.172948 -0.168107 0.157223 0.924909 0.175417 -0.068743 0.189543 0.955757 -0.173529 -0.851635 0.760403 0.972149 -0.496732 -0.223509 -0.562028 0.438431 -0.186731 -0.575539 -0.251405 0.687616 0.793560 0.912520 0.842770 -0.149236 0.604694 -0.455380 0.318221 -0.929736 0.965339 -0.196126 -0.824052 0.138287 0.635767 0.333171 0.063196 -0.188816 -0.735572 -0.747261 -0.233060 0.090899 -0.598895 -0.472657 0.063048 -0.095628 0.303834 0.501020 -0.657197 -0.882897 0.925481 0.091399 0.804719 0.719041 0.003919 0.647489 -0.430195 -0.391387 -0.807891 0.888025 -0.321124 -0.842552 -0.308101 -0.145176 0.295734 -0.672333 -0.812004 -0.641070 0.138850 -0.547576 -0.388331 0.905790 0.543323 0.012774 -0.566867 -0.393629 0.917146 0.736967 -0.892610 -0.740051 0.854070 -0.967129 0.351348 0.658789 0.751911 -0.644733 0.306279 -0.678284 -0.036120 0.498387 -0.790259 0.642757 0.655835 -0.098359 -0.502419 -0.048431 0.229307 -0.314424 0.310499 -0.631843 0.138000 0.922168 -0.726053 -0.318677 -0.065058 -0.292920 0.287694 -0.147912 -0.555953 0.395084 0.112037 -0.701883 0.427954 -0.536615 0.956907 0.179866 -0.181348 0.263185 0.501581 0.782532 -0.238427 0.711323 0.425289 -0.582592 -0.387037 0.922870 0.368977 0.842270 -0.391554 -0.320524 -0.789572 0.746446 -0.398355 -0.515625 -0.572230 0.536587 0.191455 0.715464 -0.611326 0.635503 0.110547 0.500711 0.933620 -0.461498 0.964096 0.890527 0.718367 -0.217252 0.153712 0.219949 -0.434719 0.915285 -0.068729 0.990569 -0.667307 0.544235 0.913439 0.701670 0.386505 -0.478115 -0.618853 0.596933 -0.731668 -0.017209 -0.918692 -0.303898 -0.480622 0.272763 -0.588435 -0.091948 -0.091735 0.522112 -0.591237 -0.158115 -0.939386 -0.627141 -0.267588 0.778982 0.155607 0.886124 -0.001070 0.720888 0.801409 0.930202 0.711457 -0.865898 0.474437 0.624896 0.835772 -0.139058 -0.853218 -0.783081 -0.542126 -0.584886 0.199710 -0.460818 0.111215 0.719088 0.811945 0.522780 -0.372860 -0.279790 0.044892 0.035904 0.562096 0.105507 0.408763 -0.705492 -0.115512 -0.435630 -0.819368 0.883419 -0.714742 0.982041 0.813621 0.996715 -0.883857 0.288057 0.621611 0.951915 -0.851001 0.768393 -0.831166 -0.393127 -0.816493 0.368544 0.146055 0.294722 0.087633 -0.042000 -0.182498 0.714773 0.678211 0.862394 -0.249323 0.240306 -0.032099 -0.840561 0.534814 0.852389 -0.276191 0.715446 0.735808 0.009067 0.697487 0.549429 0.005782 0.813630 -0.162514 -0.372606 0.765545 -0.013515 -0.604213 0.934379 0.593358 -0.420706 0.302923 -0.260586 0.874015 -0.609445 0.697414 -0.308483 -0.894672 0.375625 -0.446088 -0.143995 -0.384069 0.521813 0.015444 -0.849255 0.374202 0.739253 0.866191 0.110010 -0.251680 0.563678 -0.340561 0.754102 0.377308 0.496925 -0.618504 0.142852 -0.516590 -0.222717 0.077231 -0.923232 0.356576 -0.619846 -0.183819 0.230592 -0.229291 -0.486405 0.922109 -0.123963 0.889220 -0.523979 0.732042 -0.494849 0.997834 -0.252514 -0.344104 0.372036 -0.513261 -0.477913 -0.517954 0.235060 -0.914235 0.141485 -0.010838 0.463073 -0.361590 0.370658 -0.394075 0.121819 -0.852059 0.683155 0.198587 0.504517 -0.936691 -0.985232 -0.264892 -0.165982 -0.471637 -0.342783 0.710055 -0.582417 0.133238 0.442097 -0.077266 0.131072 -0.810417 0.578629 -0.496892 -0.323677 -0.899284 -0.014846 0.911382 -0.813519 -0.873361 -0.099456 0.649554 -0.234951 -0.728798 -0.744521 0.886868 -0.580858 0.938634 0.085455 0.923659 -0.998057 0.100223 -0.341232 -0.164039 0.628587 0.315985 -0.453984 -0.953831 -0.550777 0.988113 -0.031097 0.580295 -0.822304 -0.452467 -0.916597 -0.145981 -0.351751 0.068557 -0.234599 -0.165269 0.195196 0.665945 -0.515715 0.960245 0.937147 -0.260237 0.847113 -0.643710 -0.321603 -0.067432 -0.720051 -0.319659 -0.967208 -0.061283 0.516302 0.661378 -0.745298 -0.937682 0.707548 -0.296075 -0.949569 -0.323549 -0.715780 -0.771872 0.223983 -0.632377 0.082147 0.872232 0.436180 0.847548 -0.293037 -0.368623 0.513493 0.191247 -0.408378 0.450640 0.931010 -0.561265 0.806930 -0.390592 0.371303 -0.913121 0.289749 0.404095 0.025596 -0.193950 0.065473 0.280298 -0.131632 -0.226979 0.984223 -0.081201 0.449471 -0.731558 0.146927 -0.326545 -0.363935 -0.770927 -0.454313 -0.927754 -0.923379 0.252650 -0.296378 0.590114 -0.556103 0.295244 0.040755 -0.625093 0.733979 -0.152315 -0.015685 0.105282 -0.065435 -0.725936 -0.490623 0.960161 0.080114 0.574851 0.240458 0.948482 -0.652129 0.224681 -0.132718 0.797343 0.493123 -0.985792 -0.529202 -0.870811 -0.756718 0.016485 -0.798566 -0.680097 -0.730866 -0.094944 0.910018 -0.286969 -0.799700 -0.049227 0.087939 0.934279 0.798458 -0.927746 0.039561 -0.266978 -0.653682 0.548939 -0.306817 0.426432 0.123790 0.933641 0.374915 0.471661 0.158322 -0.757804 0.269004 -0.348554 -0.743595 0.739802 -0.219366 -0.500313 -0.243714 -0.017932 -0.180410 0.025420 0.887125 -0.270392 0.738452 -0.912575 0.680381 -0.173609 -0.978296 0.478839 -0.101355 0.061265 -0.788139 0.244963 -0.389796 -0.094956 -0.328605 0.733994 -0.161315 -0.953690 0.205655 0.997008 -0.711493 -0.525342 -0.351547 -0.455088 -0.785540 0.429087 0.044599 -0.029254 -0.588844 0.864189 0.996166 -0.701720 -0.406203 0.734618 -0.614295 -0.725822 -0.438991 -0.592591 0.753016 0.459653 0.468674 0.964877 -0.295384 -0.921122 -0.130079 0.376012 0.812872 0.708607 0.422322 0.018526 0.705614 0.710829 0.493185 -0.645932 -0.744259 0.707645 0.783155 0.300339 -0.321609 -0.805689 0.164528 -0.325443 -0.507409 0.758325 -0.590825 -0.121704 -0.967497 -0.029816 0.285705 0.785519 -0.570163 -0.245621 0.750396 0.134453 -0.166742 -0.379683 -0.489535 -0.353871 -0.671076 0.932787 0.664656 -0.965461 0.643616 0.157841 -0.611394 0.899357 -0.134515 -0.828239 0.199696 0.543876 -0.633928 -0.635776 -0.781567 -0.141337 -0.877450 -0.372392 0.736959 -0.844948 0.597792 0.022664 0.940571 -0.972371 0.777044 0.690967 0.162083 -0.389699 -0.688716 0.672548 0.256431 -0.359791 0.605335 -0.078914 -0.325253 0.248952 -0.921073 0.063353 0.148309 -0.055588 0.235114 -0.651995 -0.511712 0.601186 -0.287771 -0.293278 -0.540151 -0.165221 0.334330 -0.803192 -0.010169 -0.067878 0.219472 -0.069598 -0.040249 -0.003484 -0.378631 -0.878166 0.606817 -0.067346 0.794382 -0.136753 0.572862 0.399717 0.784334 -0.752391 -0.351331 0.863261 0.310963 0.796977 -0.192327 -0.453923 -0.855018 0.295961 -0.852736 -0.142788 -0.997317 -0.392888 0.691990 0.337013 -0.196080 -0.318178 -0.730865 -0.976608 0.612224 0.228887 0.019908 -0.766407 0.350721 -0.373275 0.166246 0.145103 0.489972 -0.260892 -0.455180 0.274306 -0.013282 0.193489 0.137566 -0.702319 -0.009534 0.945239 -0.156242 0.135449 0.241201 -0.008979 0.992660 0.243884 0.598134 0.684651 -0.419103 -0.597946 -0.633528 -0.149968 -0.574553 0.978696 -0.921081 0.445355 -0.787711 0.429640 -0.927921 0.378535 -0.425258 0.562051 -0.882357 0.119562 -0.163643 0.104361 -0.686949 0.973924 0.402042 0.303518 0.919163 -0.754200 -0.561033 0.160364 0.236821 -0.568373 -0.595752 -0.165045 -0.883722 -0.014855 0.237009 -0.517250 0.835177 0.662456 -0.538554 0.914095 0.107811 -0.326265 0.343735 0.179890 -0.947730 0.918477 -0.258059 -0.830087 0.038040 0.578298 0.274274 0.351091 0.552222 -0.323685 -0.345391 0.471385 -0.077885 0.093576 -0.368251 -0.841064 0.525203 0.035997 -0.006109 0.641480 -0.978859 -0.769100 -0.875769 0.856318 0.893356 -0.414323 0.770413 0.001167 0.259411 0.114148 -0.818943 0.311681 0.032625 -0.077002 0.481594 -0.929335 -0.498704 -0.244132 0.421756 -0.946482 0.432183 -0.923634 0.524903 -0.645702 0.169941 -0.843348 -0.486766 -0.304856 0.192649 0.507125 -0.663376 0.213790 0.738026 -0.539145 0.070108 0.631382 0.046531 -0.159479 -0.367451 -0.694057 0.954669 -0.186394 0.617624 -0.012706 0.736604 0.099218 0.057959 -0.762099 0.855085 -0.520284 -0.708581 0.287269 -0.443919 0.816323 0.641567 0.726023 0.972975 -0.845199 -0.578834 0.165624 0.661927 -0.242209 -0.620586 0.399952 0.218645 0.449522 0.031335 -0.734824 -0.709958 0.663884 -0.428881 -0.755289 -0.522510 -0.811257 0.232005 -0.785906 0.287960 -0.710035 -0.548005 0.143046 -0.230319 -0.256586 -0.569686 0.325762 -0.440263 -0.928119 0.051785 -0.467288 -0.773317 0.472951 0.698336 0.888609 -0.769258 -0.922250 0.288562 0.449387 0.527271 -0.680104 0.714563 0.817314 0.983780 -0.714318 -0.937975 -0.538729 -0.525575 0.294030 -0.324635 0.762385 0.583995 0.127360 -0.094569 -0.646325 0.870774 0.335746 0.679437 -0.569488 0.407627 -0.268778 -0.036776 0.634310 -0.795827 -0.338440 0.522919 -0.565085 -0.260691 -0.188519 0.884301 -0.733419 0.131377 0.598864 -0.916106 0.115157 0.884547 -0.854081 0.576428 -0.641028 0.439949 -0.748207 -0.878643 0.023943 0.379153 0.026788 0.377618 0.249927 -0.637466 0.057056 0.680439 0.770161 0.788277 -0.356338 0.404471 0.992450 0.305222 -0.072611 -0.572635 -0.955469 0.738870 -0.688334 -0.688888 -0.129753 0.910531 -0.604994 0.985404 0.795077 -0.459075 0.561832 -0.845951 0.980873 0.813625 -0.724594 0.004817 0.192777 0.302194 -0.617565 -0.557295 0.664727 0.439490 -0.876857 0.434888 0.227768 -0.233194 -0.160641 0.220218 -0.927972 0.766748 0.647583 -0.883441 0.505618 0.959249 -0.572329 -0.624135 0.869780 -0.177323 -0.638731 0.664857 0.363601 0.923101 0.818906 0.344474 0.736726 -0.905689 -0.650709 -0.070497 0.396505 -0.268274 0.372208 0.061232 -0.828784 0.495351 -0.503879 0.398984 -0.737843 0.335480 -0.380797 -0.665815 0.102228 -0.733214 -0.549256 -0.392154 -0.773965 -0.121586 -0.016289 -0.904184 0.701091 0.344980 0.760673 0.064692 0.268081 0.579579 -0.590834 0.004807 0.673890 -0.241543 0.934310 0.070395 0.490183 0.306518 -0.868373 0.661400 -0.198130 -0.372252 0.060384 0.064027 0.963228 0.679587 0.398212 0.065456 0.946373 0.848955 0.673302 -0.827592 -0.272631 -0.342987 -0.731776 -0.571540 -0.998006 -0.971103 0.493152 0.270075 0.608475 0.902318 -0.725118 0.282365 -0.339224 -0.790807 -0.647240 -0.849041 0.515711 -0.515612 0.812359 -0.682420 0.112136 -0.127257 0.381607 0.075364 -0.447670 -0.220181 -0.859180 -0.501297 -0.371226 0.814122 -0.328889 0.356143 -0.528865 -0.060665 0.784603 -0.526871 -0.031769 0.277755 0.743204 -0.423294 0.180074 -0.981914 0.859072 0.840850 -0.772721 -0.788168 0.991809 0.742990 -0.303781 0.804168 -0.939430 0.808355 -0.323089 0.442177 -0.116281 0.229241 -0.778004 0.024539 0.727944 -0.149230 -0.161339 -0.600946 -0.793087 0.309797 0.338389 0.991516 0.782926 -0.693380 0.269272 0.526130 -0.116673 -0.550655 0.544216 -0.257602 -0.709805 0.771495 -0.045770 -0.717996 0.514485 0.650450 -0.913828 0.575055 0.458805 -0.236917 0.017232 -0.657476 0.992324 0.239228 0.367064 0.720268 -0.910002 -0.794275 -0.880678 -0.703089 0.515522 0.457711 -0.711573 0.298447 0.764332 0.557698 -0.175423 -0.352342 -0.992956 -0.631206 0.390057 -0.702761 -0.859711 -0.655713 -0.420757 0.654774 0.994736 -0.334584 0.229829 0.453541 0.428499 -0.752939 0.796066 0.420823 0.486289 0.163129 0.141091 0.576286 0.368854 0.260414 0.873197 -0.115624 -0.281875 -0.838376 -0.817177 -0.517543 0.719322 0.007400 0.130115 0.726366 0.376194 -0.479828 -0.976395 0.516483 -0.135541 -0.397152 0.171257 -0.140805 0.268264 -0.598915 -0.687264 -0.303237 -0.351854 -0.891198 -0.882414 -0.865565 0.271931 0.258678 0.710721 -0.359215 -0.480909 0.583918 0.525161 0.237216 0.745542 0.707984 0.719673 0.464864 -0.284616 -0.150212 0.191230 -0.908422 0.369960 0.214835 0.608061 -0.765582 0.817683 -0.220682 0.093613 0.085947 0.180403 0.406350 0.782709 0.828549 0.515152 0.900295 0.962984 -0.212917 0.158973 0.673705 0.427868 0.678064 0.257623 -0.046971 -0.084720 0.003164 -0.338987 -0.365047 -0.531972 0.376398 0.484741 0.659258 0.467976 -0.145299 -0.125907 0.076037 0.089119 -0.308224 0.855355 -0.817267 0.777722 0.035759 0.589082 0.560432 -0.135692 0.104234 0.460727 -0.172709 0.891317 -0.380300 -0.499004 0.319186 -0.702236 0.758619 -0.727785 0.213044 -0.238217 -0.066772 0.847998 0.229811 -0.690374 0.332739 -0.110930 0.777602 -0.812560 0.763163 -0.146361 0.276559 -0.545062 -0.291006 0.459292 -0.767339 0.744753 0.048374 0.793093 -0.390939 -0.847392 0.253820 0.436352 -0.956075 0.873520 0.937348 0.363111 -0.828716 0.695966 0.635326 0.384328 -0.542251 -0.431446 0.232326 0.687561 -0.121821 -0.434935 -0.423370 -0.344219 -0.247495 -0.660207 0.509420 -0.970935 -0.205269 -0.781586 0.488357 0.027392 0.963167 -0.463269 -0.179515 -0.427772 -0.310661 -0.925695 -0.991420 -0.266735 0.947824 0.945928 -0.903625 -0.880892 0.641894 0.731701 0.503437 -0.900356 -0.699745 -0.264237 0.787204 0.178434 0.300828 -0.636166 0.834215 -0.946666 -0.296373 0.343635 -0.917601 0.498358 0.562050 0.570755 -0.474250 0.525217 -0.892514 0.346235 -0.902555 -0.203175 0.420540 -0.893975 0.530090 0.368364 -0.948048 0.626465 0.487472 0.693846 0.358166 -0.009091 0.793490 0.658421 0.726672 0.580694 -0.163144 0.027501 0.944529 -0.328929 0.080834 -0.351844 -0.985294 0.163233 -0.853486 0.576756 -0.266012 -0.327736 0.101973 -0.158526 -0.981500 0.199418 0.638299 0.439039 0.305442 0.168389 -0.192597 0.357394 -0.205146 -0.705124 0.051241 -0.846980 0.285785 -0.155269 0.811442 0.012457 -0.574575 -0.351702 -0.960042 -0.630047 0.319369 0.120792 0.018109 0.334075 -0.715975 0.164623 -0.089168 0.018013 0.836887 -0.987196 0.859488 0.855387 0.212222 0.497787 0.294426 -0.482336 -0.333824 -0.898171 0.875059 0.461030 -0.603295 -0.073701 0.614050 0.682490 0.771030 0.425492 -0.305052 -0.803545 -0.926210 -0.265095 -0.433592 0.393159 0.855698 0.584517 -0.272766 -0.860277 -0.250860 0.638066 0.157736 -0.413973 0.650870 0.017224 -0.558586 -0.136908 -0.484989 0.735840 0.380757 0.181187 0.837669 0.255815 -0.357783 -0.765625 -0.817886 -0.743733 0.916865 0.953144 0.681759 -0.388187 -0.850401 0.755549 0.346718 -0.283993 0.148708 0.202416 -0.699477 0.875943 0.342139 0.049663 0.514009 -0.500125 0.635690 0.164879 0.517099 -0.922896 -0.972029 -0.967890 0.812944 0.408728 0.213297 0.650614 -0.335457 0.855514 0.884988 -0.153342 -0.888219 0.801853 -0.200198 0.793540 -0.586334 -0.050599 0.549090 0.760384 0.665407 -0.302202 -0.037200 0.965931 -0.426259 -0.695062 0.015594 -0.912251 -0.195187 -0.348716 0.252628 -0.678087 -0.271612 0.280600 -0.645977 -0.458668 -0.310672 0.567320 -0.808054 0.353871 0.422834 -0.923066 -0.799471 0.534615 0.878787 0.000330 0.328156 -0.707547 0.949731 -0.122755 -0.947163 0.615138 0.575043 0.015637 0.581069 -0.851216 0.320575 -0.403338 -0.763467 -0.874612 0.247946 0.489161 -0.552699 0.976334 -0.230239 -0.198676 -0.482334 0.459088 -0.631355 -0.290388 -0.187041 0.791479 -0.213454 0.013488 0.326094 -0.334666 -0.986182 -0.345751 -0.042213 0.963549 0.531494 0.010624 0.578687 0.106538 -0.973739 0.159756 0.255321 0.346836 0.756418 0.491854 0.472224 0.004364 -0.018985 0.919525 -0.019302 0.750775 -0.279150 0.498364 0.209864 0.089494 -0.792024 -0.977177 -0.119027 -0.005477 0.036311 -0.792933 0.659856 0.050129 -0.138684 -0.382357 0.013678 -0.607189 0.628267 -0.407635 0.499348 0.654528 0.752120 -0.245331 0.001364 0.508538 -0.753477 -0.526412 -0.487098 0.227538 -0.606887 0.493600 -0.021687 0.113963 -0.008035 -0.811823 -0.796543 0.199941 -0.789000 0.084430 -0.805536 0.247310 0.291497 0.854320 -0.702561 -0.847187 -0.528037 0.311117 -0.454376 -0.899770 0.903482 -0.955028 0.754758 0.655602 -0.200358 -0.243878 0.164141 0.046165 0.229710 0.677043 -0.726297 0.622824 0.170643 0.252016 -0.263213 -0.837392 0.440193 -0.059756 0.362549 0.651193 -0.975325 0.557013 -0.101497 0.316172 0.411333 0.195942 0.468986 0.883296 -0.492940 -0.985390 0.983527 -0.589459 -0.940418 0.738285 -0.933856 -0.140776 -0.505592 0.230284 0.905388 0.724118 -0.092673 -0.820909 0.346942 -0.922029 0.431107 -0.916272 -0.759421 -0.128700 0.023973 0.603128 -0.477507 0.048648 0.160141 0.420996 -0.635180 -0.428526 -0.383061 0.833805 -0.545229 0.123998 0.848415 -0.561702 0.534540 0.907997 -0.823417 0.600684 -0.232779 -0.329010 -0.169032 -0.327391 -0.604892 0.738295 -0.148300 0.742050 0.816266 -0.717192 0.825778 -0.943155 0.154108 -0.150249 0.659973 0.676601 0.898399 -0.179886 0.097598 -0.736781 0.391588 0.714537 -0.902976 0.846358 -0.161465 0.945439 -0.715344 -0.626925 0.853436 -0.538761 0.973759 -0.379344 0.132229 -0.195273 0.293265 0.527338 -0.456978 -0.855034 0.269387 -0.640712 -0.572227 0.095166 -0.583867 0.581881 0.944917 -0.923895 0.258483 0.843315 -0.103781 -0.643920 -0.893466 -0.712193 -0.929383 -0.796442 -0.865835 -0.090848 -0.851003 -0.581179 0.282227 -0.997567 -0.119940 0.255986 -0.376911 -0.987711 -0.939288 0.916355 0.539627 -0.396265 -0.938680 -0.190986 -0.036977 -0.510906 0.904180 0.379155 -0.929025 0.849097 0.455261 0.329458 0.692412 -0.648520 0.685538 0.798946 -0.360714 0.756155 -0.997496 -0.226549 -0.334693 -0.848499 0.192273 0.947534 -0.846066 -0.927667 0.203520 -0.222976 -0.915378 0.264232 -0.306622 0.624249 0.867967 -0.245301 -0.566736 -0.169010 0.243792 -0.662556 -0.789855 0.314767 -0.813460 0.665406 -0.355775 0.878952 -0.983115 -0.670237 0.677899 -0.343828 -0.914082 0.680403 0.429623 -0.248774 0.831904 -0.378104 -0.301240 0.985839 -0.305771 0.902280 -0.237137 -0.221149 0.166513 0.456241 -0.596900 0.034480 -0.789060 -0.163636 0.865469 0.454732 0.173808 -0.924386 -0.230501 0.360348 0.741020 0.413724 0.239301 0.757905 0.743487 -0.082801 -0.585923 0.829405 -0.402398 0.843700 -0.419369 -0.570493 -0.534404 0.279391 -0.584654 0.159825 0.181671 0.178208 0.938676 -0.651817 -0.365551 -0.658224 0.382663 -0.154611 0.178140 0.248132 -0.699879 -0.648052 0.323746 0.069620 0.712296 0.064767 -0.516656 -0.048403 -0.177328 -0.773168 0.868796 0.236749 -0.943763 -0.533601 0.080449 -0.363132 -0.104094 0.546046 0.916259 0.311251 -0.294130 0.097930 -0.510541 -0.355454 0.446113 0.123909 -0.013678 -0.171224 0.969297 -0.835537 -0.923092 -0.730582 -0.483589 0.400655 0.339038 -0.771293 -0.534579 0.822383 0.180305 0.288093 -0.950786 0.049101 -0.475158 -0.894549 0.515500 0.605292 -0.257681 -0.588595 0.151337 -0.341422 0.722657 0.857208 0.756508 -0.787884 -0.498246 0.202621 0.336025 0.488076 -0.968603 0.305322 0.652539 -0.891695 0.574740 -0.831050 0.508960 -0.086221 -0.602342 0.974381 -0.263839 0.577962 0.262475 -0.214625 -0.372937 0.787317 -0.109174 -0.857437 0.392609 0.633145 -0.446032 -0.456054 -0.708277 -0.723375 -0.598846 -0.951769 -0.511259 -0.097092 0.250852 0.824766 -0.609015 0.282249 0.130088 -0.956476 0.390555 -0.295172 -0.787526 -0.100485 0.618606 -0.389869 -0.126104 -0.645233 -0.811907 -0.863629 0.140143 -0.184844 0.923688 -0.969031 -0.042281 0.316297 0.664114 0.511687 0.860243 0.955838 0.788312 -0.738602 -0.995931 -0.722947 0.164306 0.254921 -0.898182 0.555291 -0.462830 0.231906 0.598814 0.927725 0.936734 0.811288 -0.172760 0.555340 -0.578581 0.701136 0.910107 -0.390487 0.837507 0.050250 0.424669 0.761195 0.081219 -0.617612 0.077491 -0.254667 0.894076 -0.062265 -0.298830 0.682388 0.199132 -0.294761 0.959440 -0.636562 0.960160 -0.938741 0.918729 -0.502670 0.293165 0.517543 -0.574945 0.229898 0.328831 0.252295 -0.214762 0.750251 -0.046569 -0.304654 -0.640237 -0.209062 0.745596 0.784433 -0.447868 -0.173186 -0.833179 0.629624 0.572147 -0.939103 -0.432641 -0.726683 0.743284 0.766491 -0.021443 0.702725 -0.870071 -0.061283 0.763983 -0.951342 0.436047 0.057148 0.566201 0.861102 -0.712954 -0.104968 0.113397 0.072284 -0.354717 -0.933172 0.767630 0.005046 -0.142234 0.513225 -0.210521 0.409899 -0.659960 -0.043700 0.039523 0.912187 0.017197 0.606881 -0.814496 -0.239519 0.373373 0.164061 -0.536794 0.503302 -0.897223 -0.772811 0.551960 0.538824 0.284337 0.118162 0.399926 0.571384 -0.986806 -0.486677 -0.356332 -0.341523 -0.419848 -0.588702 0.663524 0.437918 0.924523 -0.546997 -0.152183 -0.735437 0.409303 0.887339 -0.823250 -0.573500 0.494221 -0.637746 0.186981 -0.132407 0.526314 0.650187 -0.629105 0.629092 0.877377 0.922856 0.167916 0.161714 0.041017 -0.432158 -0.266902 0.054211 0.081165 0.376766 0.712688 0.661317 0.788064 0.376212 0.099235 0.712587 0.829215 0.947052 0.977150 0.238518 0.834392 -0.846100 0.665018 0.328612 -0.483847 -0.148001 -0.803794 -0.957532 -0.497814 -0.432899 0.671559 -0.620437 -0.510043 -0.160525 0.541277 0.530974 0.407317 -0.725625 -0.414815 -0.511518 0.651141 -0.702126 -0.850200 0.439205 0.674086 0.249035 0.151792 0.503300 0.196087 0.128942 -0.258182 0.030479 0.282841 -0.593164 -0.640909 0.798994 0.258835 -0.444703 0.841462 0.761021 0.122398 0.513021 -0.859416 0.612354 -0.647504 0.681861 0.143328 0.759813 0.956236 0.728514 -0.751705 0.607377 -0.973613 -0.601905 0.046582 0.700473 0.647130 -0.801627 0.203773 -0.156782 0.327315 0.945592 0.873696 -0.389844 -0.647573 -0.767213 -0.590850 0.611262 -0.211916 -0.749388 0.372283 0.910482 0.763634 0.512866 0.522836 -0.883870 0.194727 -0.333835 0.875943 0.150963 -0.605322 -0.875762 -0.241660 -0.578935 -0.477667 0.804922 -0.878462 -0.830536 -0.996705 0.325312 0.012681 0.330610 0.270903 -0.113622 0.940766 0.623331 0.119165 -0.650084 0.234593 0.907249 -0.399471 -0.393125 0.817731 -0.635838 -0.880259 0.340567 -0.519708 0.314469 -0.993268 -0.643765 -0.534568 -0.598590 -0.519527 0.223772 -0.177525 0.002807 0.028694 -0.055986 0.172270 0.031988 -0.730674 -0.815048 -0.637402 0.540229 0.071329 -0.696636 0.163560 -0.809506 -0.346720 -0.601848 -0.902257 0.253809 0.005027 0.915474 0.617971 0.124769 0.256041 -0.901737 -0.560762 0.262772 -0.545502 -0.095330 0.664182 -0.065029 -0.871559 -0.513343 0.937777 0.157135 0.430671 0.110048 -0.810876 0.699997 0.294999 -0.448278 0.240226 -0.633671 -0.144914 -0.596215 -0.443177 0.508366 -0.198062 -0.345434 -0.237825 0.806965 -0.429960 -0.619855 -0.068266 0.826080 -0.521592 0.370972 0.088853 -0.067094 -0.724359 -0.246965 0.867877 
-0.595917 0.239692 0.805654 0.561218 -0.329637 -0.084298 0.750341 -0.629640 -0.789298 -0.697937 0.610586 -0.422970 0.157149 -0.985629 0.133853 -0.334486 -0.183692 0.788419 0.427689 -0.376727 -0.641542 0.807835 0.555008 -0.815461 -0.713757 -0.074021 0.273391 0.219149 0.201621 -0.973574 0.087026 0.605703 0.266118 -0.107319 0.166921 0.936481 0.808383 -0.082738 -0.693159 -0.980916 0.219326 0.917427 -0.403885 -0.623526 0.931798 0.729967 0.041989 -0.251894 0.518386 -0.530322 0.371380 0.876845 -0.722488 -0.073613 -0.938617 -0.436245 0.852366 0.334774 0.782905 0.053987 0.361200 -0.130069 -0.340310 -0.372681 0.762612 0.826612 -0.436200 0.570994 -0.256126 -0.129359 0.590079 0.963200 -0.211932 -0.813807 -0.660326 -0.280134 0.916161 0.381662 0.467972 0.434547 0.851340 -0.160649 0.311391 -0.871148 0.765738 0.372775 -0.307392 0.618105 -0.292451 -0.524488 -0.327908 -0.931251 0.345443 0.331782 -0.303932 0.108055 0.158394 0.259868 -0.320951 0.902268 -0.869491 -0.730872 0.865468 -0.081423 -0.544679 -0.794859 0.638443 -0.628519 0.586804 0.106414 0.806028 0.438144 0.945765 0.117420 0.566997 0.711504 -0.509806 -0.740396 0.329608 0.197743 -0.264883 -0.998300 0.266493 -0.919440 0.333482 0.962561 0.188614 -0.508124 0.222429 0.867663 -0.605856 0.352938 -0.863209 -0.740388 -0.728485 -0.407889 -0.535247 0.909958 -0.036407 -0.948443 0.016372 -0.230379 0.489701 -0.037862 0.887041 0.056698 -0.326359 -0.622765 0.316302 -0.996750 0.574979 -0.948581 -0.995050 -0.158528 -0.868021 0.338432 -0.195967 0.320593 0.830309 -0.973538 0.188256 -0.775547 0.379400 0.325047 -0.515935 0.650915 0.917158 -0.051182 0.560872 -0.119249 0.000376 -0.422755 0.650372 -0.509923 0.539382 0.537413 0.546775 -0.786976 0.914649 -0.136923 -0.783727 0.489628 -0.085504 -0.778777 -0.668901 0.046475 0.559656 0.135132 -0.632932 0.389965 0.161594 0.555324 0.614418 -0.459007 -0.119630 -0.901517 -0.808092 -0.202472 0.047301 0.752780 0.678279 -0.952323 -0.669975 0.328651 -0.462246 0.869407 -0.133936 -0.915471 -0.917569 -0.219287 -0.052394 -0.701296 -0.729660 0.862103 -0.480072 -0.398560 -0.091423 -0.920417 0.736572 0.275645 0.469548 -0.101834 -0.169031 0.083966 0.439159 0.711339 0.182449 0.631067 -0.491133 -0.770250 0.383847 -0.812854 -0.722573 0.713872 0.515797 -0.184819 0.583279 -0.618138 -0.100290 0.665710 0.162574 0.847317 0.964414 0.432915 0.709419 -0.515659 -0.965645 -0.382004 -0.436075 0.770927 0.893642 -0.966527 -0.330907 -0.275390 0.117439 -0.891748 -0.564051 -0.700112 0.739319 -0.055184 -0.470361 0.123166 0.131963 -0.192934 -0.162962 -0.352240 0.622247 -0.579683 0.029622 -0.478042 -0.913973 -0.807804 -0.630726 -0.949559 0.625111 -0.921307 -0.465218 0.659466 -0.303310 0.098707 0.430393 -0.409669 0.132180 -0.900514 0.314941 -0.750381 -0.792262 0.750891 -0.450492 0.947057 -0.304293 0.079146 0.070223 0.827670 0.886212 0.907261 -0.524570 0.508460 -0.672422 0.505052 -0.969583 -0.586395 0.697248 -0.600308 -0.535954 0.322359 -0.521615 -0.001171 -0.018175 0.175075 -0.902464 -0.587782 0.765406 0.229716 -0.488296 0.080347 0.479335 -0.280558 -0.168762 -0.971157 -0.333501 0.526945 0.107989 0.736721 0.354615 -0.005798 0.643982 0.830046 -0.497339 0.971560 0.335097 -0.466921 -0.614834 0.032346 -0.067230 -0.150788 -0.645295 0.411155 0.848041 0.336530 -0.413770 0.945576 0.748749 -0.648364 0.175292 -0.739547 0.431983 -0.345373 -0.020105 -0.736779 -0.316530 0.646394 0.790167 0.791460 0.383115 0.144782 -0.214339 0.027097 -0.025172 0.288322 -0.001342 -0.690075 0.821401 0.383824 0.342271 -0.245829 -0.766964 0.696976 -0.834673 -0.918923 0.033506 -0.248444 -0.973347 -0.217745 0.103192 0.201945 0.042708 -0.464825 0.856573 -0.977396 -0.201604 -0.459957 0.668997 -0.411437 -0.668498 0.052113 0.733345 0.117163 -0.920790 -0.291828 -0.594514 0.077868 0.018097 -0.773113 -0.538308 -0.639632 -0.018942 -0.305272 -0.942656 0.146385 -0.224196 0.090850 0.897941 -0.197543 0.873105 0.001133 -0.995598 -0.084187 0.536309 0.860975 -0.061583 -0.665295 -0.598982 -0.392586 -0.076732 -0.267480 0.659527 -0.343387 0.849684 0.738737 0.364785 -0.744831 -0.183395 -0.617117 -0.517944 0.278297 -0.256749 0.463114 0.973025 -0.199406 -0.390501 -0.251171 0.891444 -0.492560 0.551287 0.764549 0.508574 0.555689 -0.319638 0.044883 0.416664 0.618779 0.379588 0.817682 -0.773807 -0.697144 -0.449798 0.885720 -0.040532 -0.600114 0.624458 -0.675746 -0.344945 -0.558937 -0.292864 0.137111 0.719360 0.450387 -0.399775 0.692385 -0.749019 0.209725 -0.558785 -0.857575 0.717165 0.992501 0.906974 0.225739 0.548190 -0.412664 -0.729378 -0.035146 -0.793885 0.650209 -0.217464 -0.567692 0.953065 0.332738 -0.681971 -0.087467 0.732623 0.942486 0.236787 -0.612322 -0.616451 0.943923 0.524789 -0.897091 0.394310 -0.874985 0.795295 0.645290 0.334739 -0.763491 0.787715 0.051904 -0.770990 0.694689 -0.722357 0.777201 -0.717975 -0.451735 -0.257945 -0.511861 -0.801526 0.524590 -0.079552 -0.848461 -0.142672 0.238476 0.064072 -0.410049 0.180963 -0.699141 -0.022371 0.564512 -0.755218 -0.497581 0.667421 0.639092 -0.372567 0.462716 0.284382 0.962173 0.699225 0.072097 0.014077 0.928236 -0.233214 0.291720 0.705436 0.048810 0.839985 -0.552509 0.536950 -0.961541 0.972081 -0.542602 -0.810002 -0.170591 0.695874 0.254071 0.419360 -0.123164 0.554930 -0.603011 -0.558652 0.799712 -0.100592 -0.891231 0.438804 0.526841 0.571485 -0.276814 0.489014 0.270710 0.795283 -0.496909 0.198946 -0.437931 0.794811 -0.095618 0.610879 0.634796 0.351872 0.147829 0.673255 0.323953 0.605227 0.863253 -0.846638 0.301100 0.117324 0.572722 -0.822063 -0.327746 0.969711 -0.380715 -0.528034 -0.130880 -0.271946 0.910769 -0.604039 -0.700460 -0.366045 0.884975 0.570250 -0.570762 -0.611934 -0.230804 -0.008694 -0.817124 0.673578 -0.397814 0.817672 0.025450 0.750014 0.490927 -0.650597 0.355241 0.354180 -0.497235 -0.343659 -0.528497 -0.924513 -0.165722 0.143757 -0.954801 0.453563 0.615723 -0.085682 -0.818382 0.526492 0.310279 -0.518843 -0.839553 0.195254 -0.948593 -0.410315 0.583320 -0.179397 0.580991 0.766196 -0.505819 -0.816823 0.583868 0.519631 0.933191 0.074794 0.869034 0.288432 -0.571026 -0.628201 0.944774 -0.099523 -0.552713 -0.220948 -0.955766 -0.507514 -0.767384 0.659957 0.406804 -0.585767 0.186449 -0.282917 -0.104610 0.346896 0.912337 -0.053203 0.936581 0.495657 0.767400 0.517572 0.261853 -0.738419 0.700749 -0.154279 0.781211 0.633941 0.920515 0.650246 -0.077627 -0.650511 -0.977955 -0.132853 0.249967 -0.530668 0.646199 0.294201 -0.038183 0.878815 -0.045842 -0.631378 -0.706952 -0.859393 0.085705 0.188438 0.487503 -0.001958 -0.864764 0.424084 -0.506301 0.902636 -0.058343 0.755552 -0.835783 -0.357594 -0.398727 0.945428 -0.723653 -0.478212 0.595674 0.198720 -0.128723 0.617719 -0.934133 -0.878756 -0.912950 0.712066 0.415445 0.048868 0.590881 -0.630397 0.417489 0.883929 -0.489790 -0.496806 0.072367 0.997713 0.501236 0.207602 0.421797 0.994936 0.110238 -0.636546 0.750488 0.274455 0.005860 -0.648239 0.219883 0.282207 -0.126451 -0.184444 -0.519074 0.744826 -0.566725 -0.453207 0.866070 -0.479675 -0.741141 0.281514 0.569193 0.849740 0.651117 -0.013318 0.733668 -0.838673 0.489877 -0.193965 -0.840960 -0.008887 -0.986362 0.580838 -0.013951 0.123876 0.944292 -0.263463 -0.601670 -0.049848 0.088298 0.618213 -0.767642 0.961847 -0.566231 -0.286715 0.706673 -0.132956 0.260078 0.572742 0.387369 0.518937 -0.145743 -0.043438 0.368677 -0.494626 0.943245 0.102345 -0.333299 0.433121 0.908381 -0.174259 -0.575765 0.922018 -0.593421 0.410284 0.045894 -0.649130 -0.853179 0.444224 0.301022 0.235119 0.062437 0.533380 0.196966 0.496206 -0.753335 -0.096361 -0.636750 0.506743 -0.523619 0.750619 0.025680 0.330638 -0.292819 -0.605643 0.836011 -0.349574 0.496702 -0.497288 -0.916453 0.405083 0.328453 -0.492218 0.327101 0.735032 0.918065 -0.627006 -0.914098 -0.935114 0.817218 0.386924 0.300005 -0.120345 -0.079696 -0.503029 -0.624139 0.166969 0.400609 -0.260889 -0.326288 0.876991 -0.510270 0.699392 0.207628 0.196911 -0.906251 0.043640 0.847336 0.590451 0.546352 0.930883 -0.004467 -0.125195 -0.561335 -0.677366 -0.390163 -0.643270 -0.304372 -0.304261 -0.578384 -0.487154 -0.917337 0.721621 0.392502 0.002967 -0.781408 0.768362 -0.830064 0.619201 -0.492527 -0.156352 0.496192 -0.002797 -0.456960 -0.296180 -0.805887 -0.363211 0.747460 -0.958550 -0.772760 0.293812 0.972333 0.222773 -0.831383 -0.589002 0.545407 -0.221546 -0.232272 -0.758965 0.474192 0.189344 -0.246118 0.556855 -0.089034 -0.853617 -0.440179 0.129558 0.914746 -0.270243 -0.251241 -0.577781 0.573405 -0.755049 0.419421 -0.883554 -0.051229 0.613535 -0.246766 -0.303769 0.654984 -0.019526 0.990043 0.627317 -0.796753 -0.841340 -0.961685 0.748654 -0.062887 -0.193957 0.989690 -0.588694 0.995387 -0.256429 0.968160 -0.093647 -0.110046 -0.472018 -0.964089 -0.195300 0.257739 -0.215330 0.226919 -0.168855 0.029621 -0.353660 -0.052410 0.978392 -0.740126 0.700825 -0.325376 0.914859 -0.318701 -0.335333 0.542176 -0.115454 -0.176674 0.580490 -0.366799 0.760440 -0.613467 -0.377110 -0.828254 -0.618079 0.366461 -0.860094 0.288274 -0.743584 -0.332112 0.324184 0.061116 0.925627 -0.891146 -0.711966 -0.243228 0.138475 -0.065626 0.704362 0.116867 0.194249 0.405187 0.791491 0.109107 -0.913514 -0.543843 -0.348717 -0.028968 0.279484 -0.768227 0.604233 0.039924 -0.381693 -0.772877 0.211670 0.000227 0.593584 0.351576 -0.711499 0.850000 -0.980536 0.612686 -0.088884 0.945091 0.721540 0.199150 -0.298137 -0.139985 -0.866476 -0.593775 0.976882 0.327773 0.811412 0.768373 -0.563119 0.897898 -0.775469 0.088163 -0.131070 0.504015 0.319937 -0.526838 -0.456061 0.938243 -0.299715 0.755608 -0.061529 -0.706131 0.107184 0.226972 -0.856131 0.126647 -0.160343 0.054985 0.071738 -0.438803 -0.745865 0.773601 0.421212 -0.612341 -0.820174 0.398095 0.715433 0.991237 0.166468 -0.847687 0.889135 0.390999 0.240477 -0.241935 -0.104987 -0.439587 0.231227 0.438952 -0.501343 0.931513 0.194560 0.437127 -0.774618 -0.698256 -0.335901 -0.630749 0.428391 0.503756 0.424236 -0.499871 -0.935046 0.678371 -0.726270 0.486166 -0.933969 -0.546445 -0.115739 0.781463 -0.555207 -0.949271 0.933777 -0.666072 0.441727 0.174253 0.091993 -0.663259 0.734666 -0.676780 0.775693 -0.766677 -0.745267 -0.029747 0.670450 -0.519885 0.271996 -0.665451 -0.150634 -0.299613 0.838305 -0.726398 0.200516 0.903259 0.951973 0.474246 0.389425 -0.981996 0.927802 -0.726314 0.799467 -0.627406 -0.675586 0.733244 -0.293477 0.766142 -0.092503 0.798515 -0.897118 -0.357836 -0.878264 0.878575 -0.124514 -0.623532 -0.151172 -0.454064 -0.143417 -0.879176 -0.119515 0.705949 -0.178788 -0.281209 0.979551 -0.978272 -0.377951 0.931524 0.495974 -0.988526 0.949528 0.423776 -0.714840 0.748995 0.796370 -0.390426 0.482239 -0.497107 -0.624284 -0.610264 -0.698592 -0.521402 0.031900 -0.576856 -0.642827 0.907386 -0.200388 0.206001 -0.546677 0.656195 0.326825 0.333808 0.362143 -0.851963 -0.947402 0.341694 -0.830235 -0.325352 0.273217 0.665739 -0.313878 0.222745 0.089515 -0.028718 -0.028260 -0.114115 0.580856 -0.546021 0.388778 0.956571 -0.156284 0.690186 -0.564831 0.875615 -0.886670 -0.207658 0.783001 -0.087058 0.998343 -0.763676 -0.430863 0.325168 0.570132 0.931280 0.473204 0.622730 0.272974 0.642969 -0.702622 -0.453809 0.308708 -0.016500 0.768936 -0.601777 0.954782 -0.259323 0.284109 0.535638 0.194656 -0.327113 0.492209 -0.961628 -0.636927 0.927379 0.913987 -0.523597 -0.280279 0.696988 0.389346 -0.281936 0.933312 0.958482 -0.956769 0.503444 0.889762 0.516436 0.126174 0.162736 0.159405 0.423552 0.708927 -0.531887 -0.592948 0.477863 -0.133664 -0.638166 -0.781460 -0.849555 0.897472 0.413196 -0.176668 0.389681 0.451568 0.186405 0.317060 0.365555 0.662808 -0.963219 0.062544 0.052154 -0.245156 -0.004144 0.010636 -0.201925 -0.500700 -0.099602 -0.685489 0.625474 -0.936866 0.473916 0.049026 0.772061 0.942029 0.456078 0.249924 -0.191635 0.817912 0.468464 -0.041190 0.715384 -0.118340 0.782142 0.105066 -0.666772 -0.031453 -0.577875 0.698783 -0.368645 -0.541094 -0.238673 0.683509 0.213750 0.757183 -0.305855 -0.988174 -0.743517 0.594544 -0.673663 0.881957 0.657678 0.800253 -0.069017 0.429739 0.742282 -0.612938 -0.320338 -0.449353 -0.795026 -0.851874 0.509457 0.920358 0.029786 0.291599 0.025424 0.363014 -0.739854 0.447549 0.061797 -0.108498 0.906456 0.823124 -0.424989 0.120206 0.580307 0.269157 0.132031 0.836790 -0.136300 0.458368 0.718747 -0.478622 0.258621 -0.350270 0.951117 0.000903 0.036792 -0.369221 0.551550 0.241766 -0.221095 0.061007 0.162124 0.808691 -0.647394 -0.812452 0.171705 -0.387247 0.635097 -0.766498 0.504255 0.541553 -0.943374 -0.920734 -0.338242 0.636932 0.348422 0.793790 0.473722 -0.787878 0.252158 0.192469 -0.266499 -0.489221 0.842199 -0.315383 0.511682 -0.121010 0.315396 0.063231 -0.879244 -0.905699 -0.875762 0.282880 0.902992 -0.523155 0.470427 0.074697 0.089597 0.105524 0.308199 -0.406148 -0.352923 0.364825 -0.326882 0.308835 0.001758 -0.978460 0.102625 -0.524520 -0.766338 -0.645217 0.667948 -0.032837 -0.134438 0.510147 0.651780 -0.622756 -0.610863 -0.032824 0.440475 -0.490107 0.061478 0.564713 0.792772 -0.035530 -0.958442 0.263200 -0.960833 0.131155 -0.631276 0.347367 0.725007 0.015801 -0.287808 -0.601875 -0.675364 0.713950 -0.580335 0.427261 -0.810571 -0.346673 0.782044 0.857378 0.620490 -0.352393 0.367525 0.272270 0.024850 0.756662 -0.760554 -0.534675 -0.733446 0.300924 -0.969962 -0.940673 -0.734606 -0.928404 0.322526 -0.695439 0.202751 0.691250 0.651928 -0.072242 -0.292949 -0.635880 0.325883 0.031687 -0.921931 0.745548 -0.541051 -0.732501 -0.601125 -0.759007 -0.875124 -0.980635 -0.111400 0.492401 0.291635 0.913450 0.249062 0.531081 -0.621225 0.515617 -0.167995 -0.591187 0.574943 0.097399 -0.519591 -0.102530 0.401961 0.683160 -0.411280 0.053889 -0.389082 0.295772 0.418009 0.936801 -0.672541 0.496078 0.682349 -0.213592 0.763577 -0.918776 0.027400 0.888453 -0.899411 0.916000 0.380853 0.392224 0.829450 -0.370084 -0.076695 -0.791775 -0.854468 0.755311 -0.382962 0.720476 -0.147290 0.097446 -0.382054 -0.745330 -0.219394 0.206666 0.308559 0.391524 -0.497562 -0.273432 0.328325 -0.170103 -0.777354 0.010674 0.616304 0.986222 0.091898 -0.356295 0.874675 0.192487 -0.440295 0.255528 -0.415289 -0.610846 0.885444 0.508016 -0.402621 -0.969024 0.263327 0.214417 0.751452 -0.883963 -0.688137 -0.630602 -0.629293 0.092469 0.576064 0.679266 -0.516007 -0.921498 -0.594166 0.812319 -0.091601 -0.371521 -0.177007 -0.475297 -0.385298 0.914891 0.168408 -0.510624 0.107378 0.728113 0.744905 0.692089 -0.882733 0.630349 0.200105 -0.285354 0.661325 -0.536568 0.929063 0.412778 -0.420531 -0.759074 0.782176 -0.049824 0.333395 0.358241 -0.370558 0.817388 0.436743 0.035276 0.629707 -0.654858 0.663755 -0.547300 -0.130155 -0.721543 -0.632410 -0.961747 -0.232167 0.474968 0.766365 -0.487262 0.167056 0.883633 -0.856913 -0.632839 -0.401721 0.804412 -0.169407 -0.472658 0.217190 0.410062 -0.231732 -0.000634 -0.639763 -0.898337 -0.642393 -0.010321 0.919051 0.794350 -0.975045 0.548758 -0.860509 0.688710 -0.998542 0.009336 0.967167 -0.630952 0.047589 -0.265000 0.844016 -0.186046 0.247738 0.011073 -0.302413 0.390825 0.378234 0.295866 0.195237 -0.791173 0.823208 -0.587573 0.618889 -0.408525 0.411794 0.979126 -0.306862 0.769401 -0.031195 -0.387811 0.563750 -0.006240 -0.839052 0.703241 -0.317529 -0.837594 -0.287423 -0.350363 -0.468546 0.760166 0.384637 -0.624530 -0.425879 -0.367625 0.386543 0.271708 -0.976800 -0.235224 -0.432426 0.218437 -0.026397 -0.609219 0.630864 -0.407508 -0.017743 0.042658 -0.428382 0.675395 -0.187942 0.540423 -0.712416 -0.624191 -0.465816 -0.551468 -0.920950 0.216654 -0.389062 -0.208372 0.866292 0.142392 -0.448206 0.250929 0.517862 0.125915 0.883304 -0.095596 -0.602378 0.906504 0.669180 -0.034804 0.124941 -0.357216 0.355977 -0.244195 0.235276 -0.661766 0.798463 0.806894 -0.986372 -0.389479 0.347317 -0.698788 -0.013670 0.881501 -0.250256 0.065380 0.098155 0.360682 0.857007 -0.035553 -0.496927 -0.591199 -0.784624 -0.979065 0.534716 -0.901320 -0.074661 0.932338 -0.994816 -0.405480 -0.102466 0.130124 0.237303 -0.746489 0.885929 -0.527421 -0.408255 0.684392 -0.720527 -0.394627 -0.705087 0.626790 -0.093415 0.281243 0.508291 0.656330 -0.653377 -0.393554 0.017011 -0.796370 0.570893 0.520085 -0.387568 0.786269 0.541020 -0.852853 0.884949 -0.533641 -0.920514 0.890132 0.060878 -0.022980 0.020256 -0.701818 0.230531 -0.093815 -0.229239 0.822276 -0.409423 0.050234 -0.572351 -0.114510 -0.322976 0.334234 -0.833267 -0.814686 -0.009436 -0.486644 -0.208239 -0.992425 -0.283014 -0.637346 0.527660 0.329417 -0.851078 0.068680 0.476565 -0.966129 0.535038 0.556050 0.924003 -0.404083 -0.466930 -0.055740 -0.105902 0.763601 0.850445 0.664859 0.585877 -0.558978 -0.284908 -0.986474 0.326512 0.392116 0.347760 0.493245 0.577430 -0.661676 -0.993400 -0.630809 -0.654101 -0.276414 -0.268155 0.873559 -0.946997 -0.119233 -0.057761 0.529568 -0.085362 -0.522723 0.085618 -0.161359 0.073194 0.618689 0.782901 0.967292 0.382290 0.633346 0.632150 -0.031833 -0.925632 -0.652757 -0.018306 0.400880 0.739359 -0.670546 -0.105876 0.316789 -0.332222 -0.099275 0.685980 0.013678 0.624311 -0.582175 -0.112763 0.677314 0.298592 0.829476 0.206882 -0.786770 -0.693247 -0.707500 0.051871 0.379946 0.911188 -0.165228 0.347238 0.293479 -0.531882 -0.020612 -0.738354 -0.457514 0.326631 0.243340 0.943365 0.065990 0.572794 -0.162510 -0.617221 -0.759428 0.738215 -0.931241 0.254250 0.362525 -0.513416 -0.858514 0.039839 0.785175 0.970962 -0.753279 0.998405 -0.722285 -0.460780 0.050276 0.657661 -0.549591 0.885048 0.004899 0.743887 -0.646834 0.984287 -0.994467 -0.104348 0.310918 0.248873 -0.160983 -0.623092 -0.178333 0.676507 -0.240314 0.062239 0.414722 -0.171555 -0.683512 -0.222753 0.315029 -0.542025 0.817086 0.100205 -0.571063 -0.936194 0.098610 -0.293349 -0.396973 -0.851114 -0.635688 0.053436 -0.966066 0.369211 -0.202677 -0.612901 0.353498 -0.197143 0.282751 -0.335584 -0.948270 -0.878232 0.041324 -0.126604 0.798275 0.801010 0.935635 0.212996 -0.370544 -0.747877 0.990243 0.944485 -0.289902 0.807329 0.044689 0.139034 0.871135 -0.856701 0.845686 -0.525838 -0.707816 -0.790002 0.527598 -0.673882 0.579210 -0.675079 -0.286783 -0.067292 0.127778 0.995968 0.597124 0.179507 -0.882264 -0.361553 -0.947096 0.916011 -0.560543 0.988538 0.129008 0.068913 -0.759338 0.119251 0.013398 -0.049241 -0.073420 -0.941913 -0.910206 -0.202285 -0.798614 0.935480 0.271877 -0.506430 -0.854522 -0.200525 -0.180312 0.724687 0.124396 0.532905 -0.342605 -0.747826 0.528874 -0.745481 0.431681 0.646610 -0.107034 0.484585 0.562621 0.332423 0.473123 -0.308371 -0.598664 0.713785 0.810880 0.414734 -0.335456 -0.262541 0.472821 -0.245663 0.535174 0.674206 -0.310183 -0.192948 -0.832224 -0.164705 0.606526 -0.012536 -0.440018 -0.269078 -0.479630 0.217377 -0.016904 -0.950756 0.471896 -0.585223 0.695854 -0.635138 0.899362 0.258475 0.697285 0.372485 0.950104 -0.901379 0.086269 0.760984 0.513354 0.750813 -0.501556 -0.013825 -0.494849 -0.966382 -0.339619 0.194967 -0.159330 -0.171842 -0.969738 -0.552804 0.815622 -0.409756 0.178119 -0.664008 0.807622 -0.838785 -0.614764 0.279518 -0.424008 -0.918910 0.644379 -0.524646 0.339565 0.341664 0.847839 0.289670 0.440285 -0.065892 0.050654 -0.046361 -0.315079 0.549097 0.939814 0.190072 0.582715 -0.399804 -0.614961 -0.576615 0.428353 -0.584698 -0.129419 0.243975 0.005546 -0.951300 0.579967 -0.186832 -0.790086 0.965203 -0.907315 -0.214094 -0.953708 0.737064 0.261260 0.385858 0.078728 0.109099 -0.324473 -0.480987 -0.956793 0.726181 0.472653 -0.271872 0.275278 0.412467 0.918200 -0.142006 -0.987337 -0.696761 0.281379 0.441016 -0.281459 -0.848040 -0.315009 0.724087 -0.799341 -0.735042 -0.462746 -0.589426 -0.769839 -0.370060 0.196480 -0.723547 -0.632996 -0.542260 0.662311 0.445733 0.566839 -0.662162 0.964746 0.610046 -0.935981 0.437399 -0.661826 0.339297 -0.150134 -0.743626 -0.802709 -0.137471 -0.440387 0.478669 -0.696455 0.278154 0.630629 -0.011464 0.002240 0.831288 0.253494 0.539495 -0.758138 0.483655 -0.830566 0.438342 0.760108 -0.463562 0.896082 0.422419 0.982171 0.462921 0.760257 0.946917 0.072967 0.824276 0.384316 0.411141 0.163573 -0.765818 0.667514 0.360864 0.096710 -0.772873 -0.160467 0.400255 0.505281 -0.529838 -0.611209 -0.492479 -0.698550 0.642285 -0.952984 -0.456688 0.125939 -0.783549 0.981655 -0.113953 -0.247111 0.877737 -0.691533 -0.264940 0.340658 -0.931276 -0.318023 -0.586375 0.893000 -0.933707 0.824766 0.056574 -0.699526 0.492280 -0.582562 0.397185 0.719408 0.256971 -0.202560 0.224689 0.727133 0.186230 0.732210 -0.971417 -0.171485 0.779226 -0.428105 0.954454 0.995676 -0.446450 -0.159499 -0.251435 -0.568713 0.148968 0.483625 0.771945 0.217692 -0.834398 -0.814430 0.110692 -0.768105 -0.989663 -0.832734 -0.467631 0.502617 -0.415296 0.929554 0.222025 0.841675 -0.273006 -0.553287 0.568807 0.913224 -0.821077 0.597390 -0.258261 0.958149 -0.830714 -0.303807 0.953825 -0.277165 0.536694 -0.297609 0.154122 -0.314338 -0.813984 -0.073933 0.903355 -0.648381 0.111637 0.014047 -0.416486 0.121974 0.181313 0.115883 -0.375409 0.766017 0.045437 0.846616 0.607692 0.772431 -0.706671 0.176499 0.685655 -0.527748 -0.226110 -0.572607 -0.569599 -0.056825 0.123586 -0.615774 0.666010 -0.339719 0.086617 -0.179868 0.345943 0.272633 0.746199 0.249298 0.624251 -0.142163 -0.736655 -0.792235 0.979811 0.444658 0.323648 -0.395598 0.210675 -0.630915 -0.548983 -0.181633 -0.858484 -0.255654 0.994866 0.827170 0.216598 -0.231244 -0.745436 0.646999 0.711931 0.378150 -0.968776 0.377941 -0.961569 0.117841 -0.801926 0.384374 -0.609526 0.944273 -0.366328 -0.985275 -0.197890 -0.102983 -0.777510 -0.218079 -0.658325 0.546138 0.386322 0.552350 0.915223 0.837340 -0.629283 -0.943261 -0.418314 -0.634416 0.883909 0.798284 0.134339 -0.861527 0.445282 -0.153730 0.516623 0.476507 -0.775789 0.555054 -0.405652 -0.577715 -0.060572 -0.015179 -0.633442 0.573100 -0.000454 0.168668 -0.529883 0.222036 0.950588 -0.188207 -0.231825 0.336911 -0.635857 -0.316602 0.174251 -0.265140 -0.259864 0.755937 0.100444 -0.375954 0.554221 -0.765217 -0.237482 -0.000497 0.081054 -0.720858 -0.523990 0.305265 0.834196 0.070358 0.727550 -0.226376 -0.944821 -0.905892 -0.653275 0.054726 0.262775 -0.183158 -0.723238 0.213364 0.628635 0.044937 -0.449725 0.992778 0.728334 0.724526 -0.272362 -0.531529 0.480462 0.828082 0.092516 0.034683 -0.937134 0.855035 -0.965814 0.143919 -0.865824 -0.489804 -0.550816 0.968372 0.580554 -0.823266 -0.258003 0.635733 -0.729158 0.088721 -0.309541 0.533617 0.905563 -0.032779 -0.253019 0.534198 -0.987842 0.297256 0.526976 0.740492 0.021782 -0.745386 -0.791037 -0.497756 -0.917304 0.301479 0.536927 -0.854438 0.156513 0.571114 0.289481 0.290690 -0.918690 0.738666 0.259062 0.661864 0.915400 -0.998941 0.297597 -0.813758 0.089780 0.988056 0.719860 -0.004657 -0.044723 -0.533159 -0.470458 -0.032565 0.764097 -0.943482 -0.292073 -0.214121 -0.688868 -0.083111 0.288124 -0.606172 -0.781632 -0.174949 -0.460610 0.374882 -0.603835 0.828872 -0.334429 -0.522526 0.567538 0.924633 -0.860662 0.482938 0.925692 0.436936 0.669180 0.015472 0.424992 0.389040 -0.989185 -0.619731 0.855881 -0.459644 0.347703 0.619979 -0.403126 -0.944370 -0.594142 -0.091994 -0.027481 0.693981 0.301834 0.190888 -0.480968 0.841224 -0.434231 -0.084803 0.670095 0.231340 0.392671 0.237633 0.155974 0.532010 -0.279429 0.081665 -0.031055 -0.610249 -0.902863 -0.606063 0.778791 -0.892048 -0.225794 0.634672 -0.351692 -0.878091 0.254651 0.245182 -0.822461 0.660509 -0.846812 0.150059 0.354490 0.455022 -0.659054 0.873523 0.296245 -0.093285 -0.211281 -0.033659 -0.861944 -0.818609 -0.796026 0.294029 0.713400 -0.075455 -0.624305 -0.317654 0.314296 -0.527168 0.076283 0.093087 -0.419217 0.850488 -0.272241 0.229092 0.972397 0.982409 -0.525726 -0.850064 0.642918 -0.372538 0.299995 -0.002592 -0.917517 0.640941 -0.129069 0.378729 -0.452344 0.659650 -0.654931 -0.314288 0.841041 -0.450957 0.979741 0.554441 0.473588 -0.644564 -0.763213 -0.212117 -0.171733 0.313070 0.880970 0.409051 0.163558 -0.391271 -0.361858 0.135955 -0.408862 0.112416 0.285891 -0.765944 0.739878 -0.414114 0.231464 0.822361 -0.773173 -0.897605 0.201089 -0.225517 
0.762045 0.546159 0.460195 0.603086 -0.904798 0.439936 0.157528 0.568790 0.795372 0.394315 -0.643327 -0.376361 -0.292615 -0.762357 -0.967310 0.870943 -0.153628 -0.329168 0.006898 0.437510 0.783248 -0.707211 0.671566 0.523126 -0.121325 -0.096970 0.345487 0.105503 0.005425 -0.453424 0.879986 -0.232529 -0.907265 0.340181 -0.629443 -0.812063 -0.219883 0.528085 0.756726 -0.424511 -0.077600 -0.886600 0.199128 0.629785 -0.648957 0.231818 0.500728 0.197414 0.902649 -0.492374 -0.365076 0.685897 -0.199585 -0.693510 0.209023 0.679090 0.209520 -0.445490 -0.215407 -0.785055 0.101086 -0.335421 -0.017584 0.193821 -0.995240 0.352974 0.381757 -0.215123 -0.118942 0.138484 0.360366 0.803459 0.251883 -0.440506 0.433243 0.602926 0.791312 -0.066029 -0.199660 0.693961 0.441597 0.435264 0.379859 -0.757988 0.741754 -0.411118 0.921102 -0.048726 0.143391 -0.294305 0.166219 -0.755523 0.370274 -0.851364 0.438298 0.375034 0.501609 -0.179945 -0.840089 -0.617332 0.958539 0.520278 -0.813874 0.210422 -0.920228 0.619369 -0.186652 0.871084 -0.446659 0.613688 0.565045 0.994937 0.048952 -0.055096 -0.763051 -0.209294 0.533785 -0.841948 0.741980 -0.322823 -0.136253 -0.091801 -0.078346 -0.765979 0.056834 -0.640049 0.609055 -0.441557 0.180007 0.768967 -0.058889 0.138546 0.289244 0.127237 -0.651032 0.369016 -0.253393 0.162316 0.240100 0.299947 -0.223995 -0.194855 0.294885 0.824957 0.750048 0.531834 -0.384337 0.283834 0.689886 -0.642358 0.961010 -0.446367 0.265841 -0.117336 -0.212346 -0.677325 0.242616 -0.603290 -0.118881 -0.577378 -0.834324 0.822230 0.561168 0.454921 -0.050533 0.910136 -0.176063 0.696074 0.072453 -0.935963 -0.003979 0.848457 -0.130819 -0.709095 0.673414 -0.380770 0.822740 -0.710923 0.903064 0.512625 -0.353281 0.864074 -0.933742 0.912560 -0.253262 -0.146087 -0.764765 0.989353 0.250622 0.116354 -0.588024 0.416299 -0.061416 0.973144 -0.128781 0.888051 0.883280 0.695156 0.584124 -0.044268 0.759193 -0.419855 -0.195810 -0.371626 -0.128950 -0.522396 0.247604 -0.306210 -0.233320 0.150667 -0.793585 0.413399 0.014741 -0.727326 0.325959 0.761479 0.126586 0.561194 0.750832 -0.622791 -0.322452 -0.837192 0.793508 0.616131 -0.864048 -0.335273 0.504182 -0.980769 -0.640117 0.088306 -0.025036 -0.880924 0.668451 0.779154 -0.252550 -0.460499 -0.743243 0.995054 0.233291 0.023438 0.145722 0.439707 -0.563163 -0.839537 0.712380 0.762796 0.921942 -0.161033 0.323990 0.672775 0.216176 -0.998462 0.835583 0.009684 0.617669 0.971534 0.674411 0.121852 0.990766 -0.965706 -0.789842 -0.034270 -0.846630 0.878609 -0.255117 -0.099179 -0.581890 0.001641 -0.104125 0.651401 -0.974922 -0.958403 0.091108 -0.538085 -0.797940 -0.196512 -0.775288 -0.875998 0.642455 0.548702 0.796776 -0.141369 0.550240 0.632359 0.868314 0.167909 0.603893 0.542725 -0.710239 0.594659 0.577019 -0.500082 -0.439612 0.730389 -0.621473 0.305272 -0.368790 -0.203363 -0.693088 0.527085 -0.551962 -0.668009 0.568681 0.539146 -0.206094 0.770741 -0.657366 0.018618 0.894743 0.985089 -0.432680 0.691519 -0.156280 -0.882441 0.323877 -0.287965 0.285468 -0.072229 -0.745240 0.575229 -0.477571 0.831779 -0.924853 0.082818 0.562168 -0.546326 -0.611910 -0.806622 0.250311 -0.304998 0.720463 0.698350 0.026993 0.289145 0.237496 0.820900 0.059886 0.580130 -0.160482 -0.045372 0.565220 0.406837 -0.353853 -0.591060 0.524396 0.970024 0.120974 -0.190135 -0.102205 0.375734 -0.614906 0.420224 0.207513 -0.539759 -0.496958 -0.230319 -0.086085 -0.108868 -0.036941 -0.835773 0.586134 -0.316478 0.862576 -0.386873 0.972667 0.100072 -0.565974 0.032553 -0.319797 0.273544 0.987181 -0.754578 -0.319619 -0.366672 -0.345638 -0.795223 -0.396648 0.775337 0.014642 0.501147 0.151071 0.399736 -0.078629 -0.641417 0.859977 0.424413 0.128264 -0.226107 -0.684455 -0.908677 -0.061880 0.901679 -0.225154 -0.199304 -0.485195 -0.252487 0.900768 -0.051169 0.780066 -0.419029 -0.777625 0.767247 -0.173607 -0.097244 -0.599425 0.480755 0.107534 0.003927 0.256092 -0.877824 -0.494925 -0.592837 0.521912 0.426446 -0.234254 0.381890 -0.149140 0.894010 -0.844218 0.166405 0.985333 0.093902 0.068083 -0.239821 0.894598 0.582888 0.507692 0.795367 -0.468280 0.287758 -0.623662 -0.245905 0.055005 0.202731 0.656851 0.455580 -0.316514 -0.235615 -0.540493 0.939578 -0.113439 -0.035418 -0.653259 -0.591527 -0.608972 0.112487 0.790363 0.241888 0.006496 0.946145 -0.591708 -0.008170 0.040047 0.476375 0.752009 -0.065355 0.059264 0.259701 -0.269988 0.590983 -0.452541 0.106349 -0.654922 0.602464 -0.690920 -0.998071 0.058044 -0.007434 -0.233686 0.517551 -0.067855 0.652874 -0.517867 0.278885 -0.938653 -0.126839 -0.608628 0.851710 -0.884951 0.397868 0.797855 -0.476659 -0.610302 -0.162098 0.999717 -0.858293 0.772547 0.058981 0.401408 -0.497441 -0.350036 0.948867 0.608908 -0.004958 0.551330 0.917989 -0.003029 -0.390626 -0.089445 0.763285 -0.873075 0.842700 0.416159 -0.390942 0.121585 0.477506 0.482219 0.512957 0.329216 0.597268 -0.089174 0.127071 -0.879391 0.300524 0.964973 -0.879674 0.442231 0.737520 0.179306 -0.156362 -0.759921 0.829270 -0.207495 0.848987 -0.175688 -0.656165 0.766976 0.821283 -0.046791 -0.322469 0.584568 0.080134 -0.479769 0.000727 0.689192 0.641816 -0.521766 0.171410 0.154773 0.807450 -0.231322 -0.934402 -0.065479 -0.110713 0.366122 -0.100506 0.009613 -0.191647 -0.362986 -0.811081 0.651991 -0.122907 -0.981811 -0.555504 -0.273920 -0.157499 -0.211669 -0.506944 -0.336215 0.741540 0.170587 -0.751647 -0.178326 0.690817 0.249080 -0.489134 0.332633 0.727314 0.682276 -0.512594 0.534764 -0.549046 -0.446996 -0.530715 0.340241 0.919126 0.368779 -0.650147 -0.272522 -0.994207 -0.461228 -0.620531 -0.117114 -0.443039 -0.176035 0.608966 0.399463 0.612296 -0.897978 -0.936753 0.353836 0.272609 -0.688400 -0.824490 -0.036574 0.560680 -0.313624 -0.703941 0.287994 -0.631349 -0.216535 -0.177242 -0.180395 0.336469 0.292043 -0.840154 0.255595 -0.339178 -0.490301 0.983073 -0.333385 0.048472 -0.637458 0.549500 0.605433 0.186507 0.158466 0.004896 -0.201197 0.260488 0.068143 -0.847361 -0.466903 0.379743 -0.671851 0.496524 -0.059578 0.014525 0.792583 -0.771584 0.383176 -0.423952 0.051174 -0.797219 0.912517 -0.656784 -0.637373 0.168111 0.004038 -0.127673 0.151184 0.670653 0.920798 0.513726 0.220153 0.526232 -0.299767 -0.621381 -0.468873 0.499036 0.639108 0.599270 0.651676 -0.827795 -0.020987 0.979825 0.668729 0.919435 -0.005651 0.461312 -0.852149 -0.622474 -0.962640 0.199025 -0.419693 0.949877 0.542241 -0.057066 0.117988 -0.453721 0.815261 -0.730828 -0.783068 0.736059 0.782899 0.437085 0.262291 -0.516868 0.815704 0.793418 0.982169 0.454812 0.392688 0.633844 0.627017 -0.628299 0.613669 0.295746 -0.708864 -0.391982 -0.242942 -0.561013 -0.014456 -0.205583 0.638012 0.565850 -0.255706 0.180253 -0.491215 0.862282 0.726533 -0.675955 -0.868546 0.943465 -0.939895 0.914353 0.380550 0.322395 -0.602515 0.196254 0.115813 -0.620346 -0.348934 -0.491499 -0.986502 -0.721917 -0.119798 0.627166 0.573829 0.171337 -0.764816 -0.669114 0.610324 0.220728 0.125304 0.248336 -0.213421 0.869598 -0.571410 0.295363 0.731880 -0.844877 0.619409 0.863334 -0.901412 0.679513 0.777687 0.479137 0.001908 -0.824828 -0.324609 -0.882279 -0.445175 0.326457 -0.373778 -0.431677 0.604540 0.506424 -0.804511 0.178369 -0.322239 -0.569326 0.509255 -0.711914 0.651402 -0.365441 0.536422 -0.562020 -0.495844 0.965012 0.733344 -0.763964 -0.879865 0.352752 -0.900630 -0.781277 0.032265 0.877056 0.697860 -0.965827 -0.947772 -0.626749 -0.848105 -0.392947 0.699708 -0.221883 0.175376 0.304248 -0.715459 0.370865 -0.517383 -0.037697 0.801539 0.991872 0.250389 0.452941 -0.373569 -0.213189 0.890922 0.130587 -0.248177 0.624265 0.366623 -0.128042 -0.022983 0.465993 0.090681 -0.990717 0.343049 -0.211460 -0.956544 0.395278 0.161792 -0.804649 -0.997669 -0.138500 -0.026532 0.177707 -0.834252 0.258010 -0.451427 -0.351635 -0.779687 -0.649888 -0.359763 0.470701 0.803053 0.266668 -0.742488 0.693975 -0.602745 0.009336 0.318240 0.763879 0.881294 -0.704742 0.229872 -0.028026 -0.695460 -0.427079 0.760515 -0.652003 0.968199 -0.077694 -0.456652 0.970530 0.783806 0.516816 0.148237 0.949554 -0.225174 0.696810 -0.402081 -0.004862 -0.953078 0.238156 -0.534160 0.849975 -0.495176 -0.276648 0.543950 -0.097920 0.732688 -0.137810 -0.334042 0.613981 0.157447 0.895830 -0.414044 0.461988 -0.531248 -0.653530 0.809984 -0.563049 0.268777 -0.646668 -0.592519 0.052583 0.870148 0.555718 0.002137 -0.355026 0.252528 0.600056 0.640112 0.299450 -0.161788 -0.894048 0.149425 0.343036 -0.170696 -0.306625 -0.754884 -0.438008 0.555565 -0.088926 -0.824027 -0.286988 -0.193095 -0.238072 -0.825000 0.275656 0.108399 0.984984 0.712607 -0.622824 -0.661684 -0.879912 0.429758 -0.791536 0.675806 -0.568105 -0.146563 -0.071666 -0.968049 -0.506450 -0.772216 -0.129838 -0.400499 0.377209 -0.786802 0.428805 -0.929416 -0.541686 0.990797 0.626149 0.369388 -0.833230 -0.660839 -0.823707 -0.071302 -0.485839 0.451949 -0.962903 -0.500855 0.164556 -0.585728 -0.162539 0.284644 0.844031 0.045925 -0.039550 -0.724074 0.899362 0.888783 -0.692124 -0.607088 -0.883433 0.178038 -0.007587 0.493775 0.391237 -0.578782 0.564359 0.849551 -0.587985 0.190508 0.218939 -0.421215 0.529669 0.395232 0.507483 -0.956171 -0.152819 0.544580 -0.457026 -0.988263 0.958852 0.380435 0.296381 0.802883 -0.573640 -0.743169 -0.921192 -0.674278 -0.854386 -0.613316 -0.281366 -0.737819 0.564723 0.711047 0.755956 -0.044040 -0.867735 0.320316 -0.194490 -0.455720 -0.489177 -0.975551 0.123064 -0.959508 0.419681 -0.369453 -0.915679 -0.733137 -0.824873 -0.372704 -0.721400 -0.866021 -0.992269 0.574982 0.936861 -0.565910 0.831813 -0.984330 -0.240188 0.977427 -0.597646 0.478446 -0.760392 0.967077 0.189493 0.995564 -0.076964 0.321758 0.315880 0.728547 0.866038 0.826703 0.752996 -0.010898 0.867195 0.172678 0.619649 0.951516 0.439540 0.794776 -0.421188 0.718140 0.928755 -0.413458 0.293122 0.865616 0.020633 0.124935 0.881286 0.780445 0.102361 -0.716360 0.258891 0.341969 -0.749283 -0.551616 0.337533 0.173753 0.770142 -0.346587 -0.097700 0.636179 -0.519884 -0.344704 -0.374719 -0.652689 0.827973 -0.755069 -0.701173 0.267513 -0.960294 -0.122361 -0.014346 0.968461 0.464181 -0.721224 0.834077 -0.515186 0.403710 0.715363 -0.734741 -0.493928 0.999002 0.524151 0.848041 -0.750281 0.972535 0.185574 0.423472 0.742677 0.838986 -0.674229 0.378856 -0.680898 -0.018933 -0.995863 -0.333587 -0.190960 -0.750932 -0.034760 -0.923446 -0.711226 0.842879 0.062208 -0.742765 0.307060 0.340983 -0.908688 0.791874 -0.255306 0.806675 -0.942867 0.250765 0.805677 0.581284 0.098806 -0.944604 0.553819 -0.715620 0.478868 0.296495 -0.876634 0.804639 -0.324649 -0.557532 -0.214293 -0.320512 0.108881 0.594747 -0.071444 -0.925879 0.671301 0.217331 0.916999 -0.266491 0.474566 0.224059 -0.925508 0.565879 0.015933 -0.180814 0.372554 0.073066 -0.930049 0.178231 -0.345651 0.168757 0.233627 -0.791832 0.453136 -0.287505 0.504663 0.576502 -0.482865 -0.819986 -0.981029 0.302841 -0.140498 0.127852 -0.102412 0.788059 0.201973 -0.431111 0.005389 0.118972 0.302398 -0.520044 -0.656969 0.376890 -0.954165 0.358964 -0.803924 0.418388 -0.567970 -0.733973 -0.403381 0.086379 0.434784 0.830247 0.294547 -0.112080 -0.457258 -0.200790 -0.535578 0.059876 -0.020776 -0.516607 -0.637282 0.838726 0.611245 0.260306 0.626785 -0.186783 0.829195 -0.367825 0.932189 0.131593 0.112130 -0.724780 -0.491517 0.157965 0.634184 -0.295441 -0.423647 -0.933786 -0.029415 0.172973 0.152593 -0.594631 0.003219 -0.552860 0.293289 0.545961 0.246350 0.757711 -0.394163 -0.774426 -0.758896 -0.031445 -0.935699 0.852349 -0.771139 0.691086 -0.334434 -0.941944 -0.676740 -0.402245 0.189650 0.435391 -0.127025 0.698133 -0.406644 -0.492841 -0.597309 0.169709 -0.426627 0.373276 -0.657319 0.725966 0.778645 0.345900 -0.826893 0.071934 -0.108139 0.419457 -0.170355 0.497698 0.645031 0.070749 -0.533747 0.709332 -0.076903 -0.304886 0.400418 0.588663 -0.246829 0.723678 -0.813582 0.942820 0.159069 0.059393 0.640953 0.752424 0.566553 -0.956356 -0.077867 -0.860074 0.416920 0.264814 0.865893 0.195565 -0.389286 -0.961001 -0.732501 0.502576 0.458456 0.097144 0.000274 0.103487 -0.832107 0.466527 -0.187181 0.090990 -0.838358 -0.786763 -0.320347 -0.085187 0.936915 -0.133929 -0.142367 0.095983 0.925464 -0.501414 -0.151592 0.492016 -0.457770 0.770540 0.631943 0.959151 0.035355 0.497835 0.154716 0.646069 0.536834 0.422215 0.148645 -0.004710 -0.480641 -0.851081 -0.901223 -0.312748 0.615446 -0.088404 0.778241 0.777088 0.124833 -0.542106 -0.308099 0.061748 0.323965 0.549534 -0.842269 0.249429 -0.951880 0.006139 -0.258555 -0.409650 -0.223321 -0.626612 -0.450499 0.812034 0.871223 0.704217 0.458103 0.408057 0.126432 -0.393252 -0.596653 0.645791 -0.244333 -0.497875 -0.666957 -0.628887 0.413721 -0.888716 -0.851799 -0.461446 -0.430822 -0.159898 0.600302 0.893143 -0.610365 0.758034 0.142572 -0.562245 -0.235828 0.884017 0.028105 0.540852 -0.742595 0.577606 0.352886 -0.871372 0.281822 -0.189011 0.536685 -0.591746 0.417736 0.940033 -0.945955 -0.826597 -0.557843 -0.612912 -0.455484 0.855878 -0.501628 -0.307284 -0.605568 0.067550 0.532818 0.994735 -0.039307 0.922454 0.752768 -0.896735 -0.639791 -0.483059 0.987283 0.388314 -0.942208 -0.755312 -0.034080 0.410678 -0.626684 -0.752258 -0.778333 0.910001 -0.344004 0.639403 0.850034 -0.289959 0.812806 -0.707809 0.097129 -0.642679 -0.851930 0.595501 0.050038 -0.457498 -0.336949 -0.417144 -0.462763 0.623744 -0.494691 -0.709995 0.727009 -0.134482 -0.193054 0.714292 -0.746168 -0.135262 0.958980 0.219752 -0.724584 -0.667704 0.467493 -0.502917 -0.757703 -0.876511 -0.863515 -0.907669 -0.166470 0.949291 -0.615477 0.930659 -0.693388 -0.467408 0.526160 0.356650 0.075094 -0.810790 0.939505 0.612331 0.812954 -0.555185 0.902336 0.539963 0.310333 -0.290719 0.254255 0.564165 0.574019 0.213234 -0.216084 0.849435 0.545530 -0.748590 -0.653482 0.787827 -0.625101 -0.516997 0.880159 0.208429 -0.567706 -0.735318 0.139088 -0.261094 -0.202726 -0.334752 -0.904444 0.872368 -0.145542 -0.964939 0.484698 -0.332588 -0.520124 0.387034 -0.792625 0.790208 -0.903685 0.461630 0.354373 0.670334 -0.325136 -0.861711 0.519769 -0.779605 -0.610301 0.866287 -0.991778 -0.235402 -0.650710 0.888381 0.973027 -0.218416 -0.846937 0.112115 0.520490 -0.049664 0.777363 0.616045 -0.177296 -0.368179 0.651106 -0.692598 0.299233 -0.869018 0.694436 0.506609 0.921190 0.790752 -0.031761 0.275563 0.461086 0.643103 0.413853 -0.019145 0.863498 0.803551 -0.152858 0.871720 -0.431851 0.196431 0.760101 -0.458824 0.978015 0.913163 0.653291 0.498505 -0.136500 0.430654 0.114550 0.686203 -0.937525 -0.234344 0.993606 0.361708 -0.103362 0.688042 -0.131683 -0.182171 0.478794 0.836555 -0.906608 -0.060121 0.479658 0.507245 0.920734 0.343156 0.310796 -0.232124 0.214876 0.878945 0.964307 -0.025023 -0.579880 0.942322 -0.111860 -0.926589 0.440827 0.751640 0.504064 -0.444623 0.437843 0.566539 0.321033 0.431449 -0.071753 -0.782328 0.119491 0.796564 0.035501 -0.401715 0.633119 0.128893 0.538164 0.112777 -0.363863 0.458899 -0.544067 0.946933 -0.773226 0.670809 0.825878 -0.808918 -0.354215 -0.754002 -0.866596 0.533925 -0.680591 0.574231 0.285565 0.823474 -0.870393 -0.276592 0.390013 0.450641 -0.845143 -0.681740 0.668313 0.274348 -0.885177 -0.296187 0.872633 0.747942 0.832706 0.410797 -0.139281 -0.531157 -0.130304 0.316652 -0.584224 0.096471 -0.012540 -0.758346 0.287552 0.633246 -0.512348 0.420956 0.167171 -0.192938 -0.004814 -0.547264 -0.369465 0.124794 0.176144 -0.979452 -0.424565 0.331001 -0.661193 -0.756253 -0.394651 -0.546369 -0.052439 -0.522018 -0.798427 -0.219733 0.888780 0.062292 0.249110 -0.241524 -0.621057 0.664886 0.854946 0.366403 0.906541 0.142498 -0.000351 -0.605807 -0.436546 -0.833180 0.201255 0.558641 -0.380444 0.831790 -0.316565 0.795700 0.852338 0.258869 0.126701 -0.808855 0.502617 0.732050 -0.355224 -0.549822 -0.789968 -0.153651 0.230444 -0.901188 0.908640 -0.520445 -0.142713 -0.712417 -0.855559 -0.287766 0.653987 -0.949018 0.854732 -0.346364 -0.554825 -0.581813 -0.179544 0.646430 0.976827 0.440011 0.478219 -0.339738 0.235711 0.330557 0.919131 -0.637589 0.521702 0.421748 -0.905539 -0.833522 0.871926 -0.695507 0.012827 0.102370 -0.596695 -0.078533 0.581925 0.260592 0.209050 0.726366 0.972826 -0.136963 0.777348 0.827558 0.516672 -0.777478 -0.754255 -0.662872 0.868952 -0.777428 0.777139 0.347171 -0.117166 0.012850 -0.322272 -0.198035 0.375261 -0.800569 -0.776287 0.469722 -0.634091 -0.904361 0.774215 0.378735 0.198009 -0.822480 -0.699798 -0.220066 0.438112 0.509252 -0.493701 0.410938 -0.627712 -0.716353 0.238496 0.888961 -0.493831 0.484240 -0.773911 -0.624879 0.706812 -0.996772 0.722293 -0.410354 0.016078 -0.599979 0.391611 -0.608661 -0.400548 0.615324 0.861062 -0.034639 0.710962 0.635277 -0.655904 -0.091029 0.812797 -0.355702 0.688905 0.250909 -0.846451 -0.804796 -0.338153 -0.474163 -0.521149 0.900343 -0.585202 -0.014980 0.384583 -0.359113 0.360142 0.091395 -0.355885 0.082435 0.681040 0.660192 0.482456 0.072651 -0.948468 -0.918092 -0.312025 0.912593 0.047268 -0.601063 0.547871 0.391364 0.307909 0.360668 -0.964338 -0.003187 -0.388423 -0.810789 0.192017 0.273424 -0.284952 0.670868 0.173767 0.129846 -0.344111 -0.441651 0.770733 -0.983970 0.649744 -0.585152 0.098465 0.330785 -0.924960 -0.419079 -0.596564 -0.873428 -0.337172 0.091411 -0.960835 0.710097 0.490348 0.587036 0.101461 -0.201743 -0.052296 0.137122 0.795070 0.559281 0.326333 -0.012913 -0.167295 -0.958619 -0.342044 -0.993528 0.171227 0.313844 -0.435179 -0.058039 0.329875 -0.785435 0.356808 -0.571661 0.545350 0.431848 0.009260 0.948786 0.558420 0.672088 0.040196 0.597585 0.382185 -0.469456 0.184621 -0.516354 0.328801 -0.867675 0.620768 0.123871 0.691605 -0.052899 -0.889042 -0.475690 -0.011518 -0.231086 -0.469218 -0.840290 -0.917242 0.095603 0.101670 0.412633 0.310168 -0.541522 0.840972 -0.144482 0.890327 -0.149768 -0.195697 0.448746 -0.477679 0.844500 0.046331 0.904506 -0.624956 -0.769048 -0.611848 0.703845 -0.636723 -0.991080 -0.172284 -0.945118 -0.043979 -0.061326 -0.420808 0.944503 0.707588 0.109974 -0.895787 0.790347 -0.794423 0.205883 0.202979 0.515745 0.664362 0.043952 -0.628737 0.554688 0.894184 0.175567 0.003435 -0.583495 0.020066 -0.950234 -0.678989 0.395110 -0.719281 -0.290838 0.098955 -0.356005 -0.281917 0.926671 -0.301122 0.674104 -0.134655 0.278070 0.618607 -0.427067 -0.611956 0.722820 -0.636720 -0.406379 -0.071296 0.566259 -0.890633 -0.406934 -0.389789 -0.519370 -0.852246 -0.495606 0.656196 0.151189 -0.079101 -0.323737 0.200955 0.241910 -0.928627 0.481674 0.951072 0.170328 -0.874331 -0.330845 0.096998 -0.175453 -0.656741 0.962343 -0.897383 0.961866 -0.464724 -0.509339 0.684686 -0.101444 0.084282 -0.386610 -0.535185 0.193649 0.206455 0.075025 0.674279 0.354210 0.579420 0.330475 -0.494602 -0.499681 -0.993263 0.706354 0.742229 -0.921890 0.188028 0.693301 0.248438 0.313697 -0.637544 -0.654564 -0.861756 -0.294286 -0.692221 -0.759139 -0.332420 -0.156945 -0.268478 -0.647734 0.741611 0.815804 -0.034344 -0.793574 0.009453 -0.827889 0.281451 -0.316269 0.526321 -0.139129 -0.985794 -0.968281 0.361190 -0.979056 0.738073 0.103418 -0.900946 -0.073899 -0.203281 0.347491 -0.760202 0.159175 0.692927 -0.621958 0.864889 -0.999294 -0.381097 -0.467531 -0.156239 0.350424 -0.115265 -0.414628 0.166228 0.850390 -0.208202 -0.824319 -0.977498 -0.926751 -0.140587 0.548822 -0.065880 -0.126381 0.580541 -0.704691 -0.105437 0.318614 0.398728 -0.006383 -0.755285 -0.804553 -0.658892 -0.515487 0.354622 -0.965965 -0.137445 0.219511 -0.965259 0.481457 0.751980 -0.121497 -0.168118 -0.363286 0.463875 0.998110 -0.512895 -0.744327 -0.826209 -0.490394 -0.671078 0.033204 -0.941571 0.263042 0.906823 0.638970 0.558352 -0.198615 -0.042415 -0.042921 0.795002 0.202300 0.152526 -0.863890 0.686813 -0.492852 -0.829855 -0.450632 0.726659 -0.795114 -0.969175 0.478638 0.083389 -0.137293 -0.884647 -0.452736 -0.139184 -0.397542 -0.197063 0.034608 0.112064 0.131859 -0.932189 0.170493 -0.605099 0.974634 -0.190537 0.953253 -0.223981 0.767048 -0.089668 -0.428979 -0.030653 -0.937142 -0.292869 -0.343840 -0.429994 -0.122724 0.205528 -0.703335 0.082162 0.236353 0.775303 -0.834449 -0.900941 0.890656 -0.287185 -0.040124 -0.506886 0.515752 0.994483 0.605178 -0.352389 -0.937706 -0.224330 0.042512 -0.963072 0.585133 -0.004235 -0.187053 0.352181 0.906097 0.383968 -0.678472 0.968955 -0.908901 -0.022312 -0.461039 -0.031626 -0.816784 -0.164374 -0.949464 0.419568 -0.389071 -0.783913 0.518627 -0.498415 -0.071098 -0.521497 -0.005302 -0.555346 -0.527014 -0.400124 0.092265 -0.464720 0.375546 -0.865223 -0.427792 -0.039321 0.130542 0.385156 -0.687140 0.036639 -0.230876 -0.365612 0.005595 -0.139777 0.612076 0.544556 0.828597 0.795292 -0.619818 0.879133 0.214860 -0.008889 -0.904780 -0.266513 0.492696 0.024122 0.211990 -0.512606 0.468776 0.684976 0.087270 -0.438959 -0.779744 -0.537183 -0.304182 -0.207535 0.423496 0.826360 -0.822379 0.736356 -0.137001 -0.053256 -0.629256 0.868594 0.806967 0.982820 0.413150 0.635564 0.778112 0.793332 0.514697 -0.007028 -0.215557 0.609918 0.726459 -0.722861 -0.365960 -0.061551 -0.235467 -0.897184 -0.376575 0.851804 -0.336144 -0.156318 -0.685380 0.359674 0.636146 0.738116 0.186034 0.813767 0.474472 -0.950967 -0.239489 0.845216 0.917627 -0.432521 0.828036 0.330777 -0.796957 0.606148 0.124110 0.717740 -0.400881 0.908553 0.327658 -0.674422 -0.814308 0.961698 0.264028 -0.049775 -0.935486 0.887453 -0.197972 -0.271629 -0.268866 0.116649 -0.911955 -0.632719 -0.145235 0.274079 -0.818952 -0.670764 0.323112 -0.058441 -0.825548 0.240739 0.509038 -0.997512 -0.428483 0.712081 0.608635 0.695626 0.429821 -0.792245 0.604179 -0.242521 -0.466667 0.789871 -0.280822 0.797361 -0.259905 -0.216308 0.684813 0.542124 0.512062 -0.584052 -0.341227 0.600107 -0.216771 0.513537 -0.125814 -0.035724 0.842773 -0.802702 0.905836 -0.982774 0.438037 0.414874 -0.980286 -0.990446 0.126954 0.628349 0.705180 -0.443224 0.836104 0.309359 0.314255 -0.630563 0.099230 -0.966568 -0.833203 0.839325 -0.182876 0.851611 0.381449 -0.670814 -0.732442 -0.959778 0.929293 0.050787 0.553759 -0.196521 -0.984937 0.396532 0.000777 0.920899 0.413758 -0.561187 0.335773 0.433472 -0.551633 -0.537273 0.061821 -0.846453 0.019503 -0.102076 0.462906 -0.666243 0.267361 -0.437864 -0.632810 0.434159 -0.598539 0.184314 0.285769 0.782911 0.513500 0.553328 0.823132 0.442794 -0.395885 0.376891 -0.753727 -0.380822 -0.226576 0.247049 -0.459923 -0.812819 0.685862 0.875850 0.620653 -0.865770 -0.661423 -0.317526 -0.712223 0.358079 0.580398 0.750683 0.691837 -0.152240 -0.687180 -0.940974 -0.718082 -0.285719 0.243340 0.567688 -0.502808 -0.243160 0.121016 -0.679676 -0.800366 0.725131 0.697216 -0.554093 -0.655691 -0.529361 0.692956 -0.115614 -0.342179 0.378818 -0.239764 -0.721526 0.513048 0.098813 -0.039053 0.800825 -0.543108 -0.458654 0.551508 -0.851271 0.389105 0.864328 -0.792245 0.671023 -0.421391 0.451095 0.238711 0.075801 -0.792064 -0.640273 0.396125 -0.592430 -0.915142 0.093341 -0.146524 -0.570834 0.563980 -0.453568 0.313552 -0.778200 0.925250 -0.926212 -0.499726 0.438297 0.172601 0.461221 0.239122 0.629493 -0.997433 -0.209370 0.778221 0.391672 -0.345042 0.985976 0.062695 0.233567 0.437072 -0.698593 -0.690633 0.645007 -0.338867 0.705492 -0.947423 -0.254009 -0.201167 -0.093947 0.175157 -0.637187 0.452485 -0.511290 -0.415387 0.377735 -0.437502 0.084887 -0.183968 0.735098 -0.453892 -0.944846 0.364591 -0.451325 -0.154216 0.142812 0.940347 0.500742 0.128789 0.003043 -0.265691 -0.434140 0.304449 0.043676 -0.789132 0.965583 -0.250831 -0.736555 -0.288426 0.548002 0.169498 0.886731 0.910814 -0.378017 -0.624559 -0.504573 0.999718 -0.062062 0.580314 -0.184250 -0.326964 -0.873578 -0.129096 -0.962373 -0.324903 0.716688 0.180439 -0.384556 0.217430 -0.690772 0.618487 0.951739 -0.124912 -0.077064 -0.004585 0.085956 -0.111482 0.744584 0.349401 0.600092 0.292585 -0.481100 0.486823 0.203400 0.140883 0.862264 0.698827 0.140600 -0.199798 0.279140 0.956350 0.473238 0.405562 -0.172746 0.510865 -0.919341 -0.456058 -0.308696 -0.303897 0.761372 0.000532 -0.685410 0.713112 0.875621 0.237526 -0.291473 -0.038423 -0.873956 
-0.546889 -0.689021 0.726136 0.745696 -0.170122 0.212959 -0.050904 0.970761 0.075223 -0.352078 0.111361 0.875424 0.927063 0.067711 0.348662 0.332625 0.894965 -0.140472 0.413284 -0.561093 0.550832 -0.890612 -0.799721 -0.448635 -0.576022 0.913391 -0.573015 0.661504 -0.378082 0.388563 0.787548 0.075028 0.699541 0.513684 -0.179275 -0.470580 -0.273357 0.769820 -0.499819 0.801866 -0.582258 0.611542 0.677291 -0.655195 -0.320747 0.025953 0.677430 -0.425782 0.885481 0.090714 0.013125 0.436313 0.200102 0.213404 0.987677 0.624079 0.126795 -0.585337 0.285583 0.748713 0.803225 0.073131 -0.176259 0.502767 -0.413185 0.644466 -0.967813 0.313458 0.414286 -0.467633 0.115324 0.832028 -0.856091 -0.207385 -0.823167 -0.176839 0.818568 0.854262 0.397379 0.704049 -0.055024 -0.589496 0.140361 -0.854922 0.623908 0.128038 0.769158 -0.249297 0.542701 0.054741 -0.500585 0.345926 -0.872128 0.323157 -0.151307 -0.285313 -0.032378 -0.119120 -0.971855 -0.618092 0.413247 0.143469 -0.786064 0.557155 0.936084 -0.609231 -0.619683 0.754652 -0.754968 0.777696 0.458701 0.190008 -0.811801 -0.400938 0.335086 0.812107 0.727100 0.104244 -0.437190 0.269801 -0.841016 0.062225 -0.384272 -0.713144 -0.614618 0.464421 0.001543 0.353004 -0.654699 0.029687 0.734913 0.758548 -0.826843 0.948849 0.315703 -0.890759 -0.660382 0.696020 0.863893 -0.415350 0.473716 0.322594 0.774658 0.661915 0.921656 0.109744 0.474022 0.648756 -0.786013 -0.963168 -0.081443 -0.627028 0.099057 0.534285 -0.340172 0.484439 -0.001294 0.661370 -0.162557 0.344007 -0.308942 -0.427644 0.102554 -0.135785 -0.478796 -0.581743 -0.026544 -0.139178 -0.885723 -0.162651 0.445472 0.587993 -0.840057 0.220130 0.249908 -0.918402 -0.670127 -0.276070 0.730354 -0.456139 -0.239239 -0.351088 -0.083167 0.859818 -0.816803 0.576661 0.344257 0.181903 0.238031 -0.818301 -0.474090 0.929089 -0.245945 0.628464 -0.206696 0.275259 -0.953278 0.766759 -0.863918 -0.839001 -0.395892 0.581554 0.748992 -0.235950 -0.198316 -0.001101 -0.154351 0.131557 0.722829 -0.423997 0.675418 -0.516410 0.224915 -0.407749 -0.656592 0.408112 -0.831089 0.687665 -0.409985 0.406942 0.869364 0.115924 0.336031 -0.376581 -0.255612 -0.870665 0.898678 -0.208890 0.896094 -0.965240 -0.047891 -0.499798 0.616314 -0.298899 0.264252 -0.582002 0.700000 -0.890099 0.549555 0.422829 -0.314096 0.224972 0.906419 0.910818 0.817223 -0.750173 0.318930 0.986134 0.937492 0.908945 0.393077 0.806856 0.024869 -0.270892 -0.569725 0.769258 -0.141557 -0.671047 -0.439632 -0.245463 -0.636287 0.512477 0.254738 0.980027 -0.786423 -0.481010 -0.601975 0.913577 -0.371109 0.947580 0.336406 0.314794 0.172552 0.242825 0.225613 -0.010225 0.492652 -0.455457 -0.024091 0.430144 -0.546512 -0.631014 0.237000 0.478357 0.098094 0.667274 0.247615 0.956537 0.996228 0.807982 -0.288927 -0.640059 0.320459 0.965811 -0.660032 0.534036 -0.515198 -0.262007 0.447613 0.113692 -0.314427 -0.215981 -0.571513 0.858125 -0.973155 0.654100 -0.152100 0.519497 -0.801357 0.823809 -0.050359 -0.347869 -0.807205 -0.813359 -0.869512 0.290889 0.853915 0.378102 0.247426 0.850143 0.186084 0.958499 -0.789916 -0.493457 0.924310 -0.449948 -0.959421 -0.590888 0.288046 0.488193 0.522804 0.973618 -0.727788 0.951291 0.831743 -0.700943 0.605391 -0.320357 0.818554 0.804034 -0.496548 -0.231805 -0.543836 -0.303753 -0.045164 -0.413348 0.987137 -0.191249 0.964754 0.234562 -0.341106 0.150839 0.193061 -0.131022 0.657382 0.117371 0.419031 0.697961 0.526483 -0.292924 0.186154 0.049288 -0.319305 0.458366 0.000579 -0.487562 0.757423 -0.394030 0.192081 0.575977 -0.589996 0.695534 -0.655828 -0.133832 -0.608219 0.299008 0.452821 -0.621083 -0.892241 0.417575 0.613480 -0.233346 -0.431586 -0.193459 0.635632 -0.774204 0.923912 0.054663 0.923757 0.450396 0.761739 0.109911 -0.500316 -0.557566 -0.431723 0.500263 -0.045128 -0.674301 -0.893767 -0.853046 0.901676 -0.483763 0.842487 -0.754152 0.382405 -0.765732 0.544855 -0.164774 -0.386815 0.652614 -0.747199 -0.773335 -0.580732 -0.178786 0.033206 -0.945100 0.047010 -0.042882 0.109563 -0.029233 -0.592486 -0.128698 -0.919322 -0.092803 0.313737 -0.351045 -0.592540 -0.731391 -0.025346 -0.486307 -0.584438 -0.123670 0.029930 -0.741951 0.122178 -0.587665 -0.507683 -0.332967 0.247561 0.105503 -0.680352 0.500362 0.332168 -0.261084 -0.678424 -0.634626 -0.206184 0.368586 0.322492 0.903379 -0.660646 0.730006 -0.225319 -0.579969 -0.362796 -0.911582 0.068986 0.044664 -0.642973 -0.956360 0.558357 -0.227411 -0.080030 -0.411714 0.030639 -0.957852 0.000622 0.522956 -0.290819 -0.751817 -0.371541 0.028829 0.748544 0.960627 0.767745 -0.929879 -0.673998 -0.438439 0.438707 0.648494 -0.535060 0.778061 0.378500 0.239622 -0.801908 -0.984296 0.328040 0.267078 0.060368 0.685067 0.310718 -0.381276 -0.542344 -0.769312 0.207011 0.488295 -0.727163 -0.792368 0.011252 -0.017982 -0.544185 0.639711 -0.989153 -0.795641 0.600339 0.778592 -0.725520 0.926340 -0.659847 0.713187 0.574834 -0.194907 0.491248 -0.046666 -0.955285 0.689340 -0.030962 0.372754 -0.043582 -0.970595 0.057821 -0.732863 -0.351870 0.515477 -0.502175 0.855140 0.003773 -0.229338 -0.937227 -0.984976 0.752679 -0.481413 0.654735 0.763526 -0.277053 0.255074 0.542118 -0.002574 0.181414 0.882271 -0.289386 -0.243752 -0.312635 -0.798138 0.709582 -0.267921 0.891202 -0.321380 -0.895166 -0.152380 -0.291975 0.162655 0.114756 0.356155 -0.321868 0.612581 0.211295 0.681905 -0.616757 0.274068 0.696929 -0.864078 0.792655 0.351664 0.899449 -0.484398 -0.393262 0.441567 0.513028 0.788152 0.323839 -0.776358 -0.455601 -0.988797 -0.574497 -0.746019 -0.256718 -0.683295 -0.067399 -0.151884 0.164325 0.640626 -0.989229 -0.720919 -0.003219 -0.311096 0.891663 -0.791924 -0.629192 -0.725094 0.482144 -0.932262 -0.589172 0.274799 0.419402 -0.689723 0.790401 -0.973860 0.751844 0.303429 0.814291 0.075682 0.527071 -0.641309 0.086886 0.952574 -0.387328 0.830168 -0.730721 0.545273 -0.321716 0.433604 0.185899 -0.310944 0.712685 -0.817320 0.377959 0.604347 -0.609243 0.748768 0.879253 0.872901 0.816505 -0.709919 0.147700 0.235907 -0.399643 -0.061899 0.262046 -0.647799 -0.758469 0.076338 0.427884 0.768602 0.435028 -0.485231 0.721176 -0.952300 -0.655063 0.990455 0.592973 0.023222 0.424059 -0.221128 0.712277 0.136743 -0.038448 0.090236 -0.258909 0.352309 -0.160996 -0.379657 0.225210 -0.344491 -0.089576 -0.627090 0.891416 0.510781 0.311012 0.153462 0.862983 0.552542 -0.770200 0.290866 0.321144 0.664828 0.805636 0.042320 0.712528 -0.849427 0.032775 0.305501 0.173795 -0.543167 -0.915627 -0.113928 0.593577 0.045925 0.976308 -0.665333 -0.601766 -0.184688 -0.044990 0.623444 0.470821 0.865434 0.996354 0.362237 0.376216 0.307366 -0.484301 0.239198 -0.140092 -0.254501 -0.469935 -0.818948 -0.589673 -0.664299 0.223372 -0.877145 -0.513726 -0.743853 0.428356 0.660069 -0.287020 0.512729 -0.453859 -0.693443 -0.441346 -0.477551 -0.358776 -0.043112 0.337761 0.596235 -0.419668 -0.191418 0.461669 -0.423313 -0.829181 -0.162115 0.884053 -0.313481 -0.922917 -0.256039 0.432018 -0.392852 -0.074987 0.842345 -0.057151 -0.851614 0.965199 0.429122 -0.595467 0.393555 0.089191 0.117513 -0.093717 0.635332 0.424070 0.464937 -0.842219 -0.934706 -0.578175 0.495542 0.661529 0.002158 -0.695876 0.123198 0.578844 -0.525056 0.961083 0.462897 0.161463 -0.961833 -0.793142 -0.406520 -0.354685 0.131871 -0.564175 0.588163 0.280257 -0.598976 0.017286 0.684789 0.794579 -0.893523 -0.197698 -0.299137 0.741809 -0.773628 -0.834200 0.899589 -0.708333 -0.412375 0.395132 0.953196 0.589783 0.699256 0.076394 0.168627 -0.825800 0.037478 -0.368476 0.335663 0.075645 -0.161618 0.929143 0.720959 0.970253 -0.635032 0.309123 0.250509 -0.234008 -0.673591 -0.064701 -0.439429 -0.567114 0.737601 0.261434 -0.825306 0.963973 0.427234 -0.925716 -0.744360 -0.985141 0.469415 -0.791164 0.604641 0.168671 0.285231 -0.226732 0.342871 -0.677292 0.404792 -0.321466 0.398353 -0.756826 -0.392323 0.119312 -0.786574 -0.027356 -0.571565 0.463935 0.738636 -0.245156 -0.600766 -0.700793 0.187729 -0.863165 0.560641 0.362423 -0.899192 -0.012125 0.436707 -0.643552 0.002733 -0.093878 -0.434716 -0.392625 -0.925206 0.850515 0.380643 0.417665 -0.826776 -0.214565 -0.903801 0.571577 0.028609 -0.296124 -0.309111 0.242035 0.676520 0.119324 -0.294029 0.415156 0.874168 0.105205 0.714363 0.061897 0.242039 0.275004 -0.575680 0.342848 -0.737121 0.861028 0.699296 0.265612 -0.232850 -0.735420 0.872987 -0.158056 -0.884904 0.253630 -0.740391 -0.711681 -0.960935 -0.644192 0.859896 0.067674 0.059683 -0.449215 -0.690291 -0.263797 0.670109 0.015680 -0.848641 0.544277 -0.879116 0.865722 -0.393826 0.362924 0.140726 0.030494 -0.294228 0.403605 -0.108478 -0.594932 -0.330783 0.658672 -0.330352 -0.457796 -0.499384 -0.215257 0.795834 -0.239775 0.073063 0.834899 0.116033 -0.067041 -0.097426 -0.824284 0.483743 0.212283 -0.088081 0.153852 -0.772037 0.063279 -0.301871 -0.651153 -0.070999 0.304302 0.711771 -0.930272 -0.665204 -0.582457 0.473333 0.226318 -0.177390 -0.857450 -0.115010 0.492258 -0.315246 0.385605 -0.722998 -0.519412 -0.854170 0.350064 -0.684513 0.261863 -0.716977 0.218061 0.437579 0.766767 -0.569656 -0.650502 -0.079381 -0.341693 0.412777 0.618748 0.007154 -0.658222 -0.076950 -0.281074 -0.588495 0.257847 0.136468 0.884838 -0.515835 0.959079 -0.972612 0.369154 0.451337 -0.287858 -0.245240 0.728339 0.192729 -0.099410 0.078403 0.508217 -0.837548 0.361426 -0.273722 0.600031 0.128193 0.156622 0.949529 -0.951188 0.814929 0.362306 0.667560 -0.177917 0.704083 -0.409390 0.541009 -0.884411 0.848456 -0.322523 -0.999573 -0.667379 -0.363444 -0.972185 0.701775 -0.912107 -0.260044 -0.543465 0.816232 0.932686 0.357124 -0.105365 0.440903 0.519576 -0.743938 -0.832820 0.119607 0.384255 0.323802 0.069136 0.433066 0.138730 -0.568558 0.100626 0.960813 -0.864475 0.691236 0.501822 -0.748886 0.539692 -0.820701 -0.748460 0.872313 -0.184145 -0.720645 0.574089 -0.096252 0.019312 -0.969377 -0.280020 -0.048003 0.387748 0.614615 -0.607100 -0.092676 0.870677 -0.439920 -0.973069 0.254931 0.883882 0.096068 -0.312002 0.022612 0.527509 0.788624 -0.016574 0.663034 0.479859 -0.514752 0.914148 0.019552 -0.335453 -0.834312 -0.108135 0.480402 -0.554957 -0.534046 -0.615851 0.464355 -0.503423 0.104129 -0.583647 0.884325 -0.281256 -0.190747 -0.208351 -0.410579 0.369333 -0.181420 0.844352 0.253215 0.914648 -0.467650 -0.724173 0.442157 -0.679027 0.259253 0.105191 0.800833 0.744501 0.019339 -0.179615 -0.590953 0.185027 0.712250 0.889449 0.630070 -0.821797 -0.726402 0.094425 -0.325220 0.377727 0.510778 -0.440895 -0.903529 -0.679969 0.350754 -0.314108 0.689363 -0.830666 -0.469756 -0.057422 -0.916018 0.062594 0.218405 0.526139 0.383567 -0.522342 -0.368670 0.184400 -0.777842 0.650669 -0.995215 -0.368795 -0.164305 0.717035 -0.479346 -0.534234 0.895238 -0.205748 0.560191 -0.429982 -0.828020 0.070969 0.129123 -0.731549 0.391000 -0.520123 -0.045657 0.080363 -0.350789 0.484588 -0.977059 -0.266807 -0.452818 0.241346 -0.740668 0.930749 0.719003 -0.109339 0.115149 0.941162 -0.458670 0.119934 -0.427633 0.377025 -0.163031 0.093022 0.842791 -0.267793 0.887274 0.402982 0.302225 -0.940747 -0.526049 -0.568652 -0.672296 0.864951 -0.088775 0.282048 -0.054686 0.560436 -0.233365 -0.031745 -0.706371 0.313817 -0.790399 -0.447040 0.244566 0.928604 0.443621 -0.640285 0.869766 0.984951 0.479650 -0.557867 0.361976 -0.683381 0.535155 0.204767 0.048826 0.422429 -0.392251 -0.648949 0.481682 0.081700 -0.217601 0.809387 -0.053349 0.693624 0.091434 0.891965 0.254059 0.858069 -0.139780 0.547688 0.171886 0.069821 -0.899352 -0.583548 -0.001575 0.544270 -0.223832 -0.131809 0.529221 -0.744183 0.310325 -0.108803 -0.427564 -0.154521 -0.904035 0.621262 -0.732092 -0.296286 0.972312 0.749590 0.785414 -0.245289 0.558977 -0.267934 -0.551665 -0.349589 -0.375969 0.702394 -0.491520 0.484251 0.250082 0.680366 -0.445928 0.350730 -0.903181 0.552498 -0.105000 -0.127014 -0.579311 -0.575779 0.128803 0.731013 0.315418 0.701239 -0.423507 0.411383 0.322501 -0.155599 -0.884903 0.294813 -0.406009 0.900511 -0.950476 -0.847032 -0.367423 -0.502141 -0.196621 0.256608 -0.799747 0.311859 -0.259140 0.450335 -0.007775 0.294932 -0.198935 0.089044 -0.152570 0.696065 0.962030 0.268119 -0.879714 0.090833 -0.000868 0.435705 -0.207927 0.575625 -0.152912 -0.885427 -0.579974 -0.037815 0.409387 0.014017 -0.137304 0.458911 0.166985 0.495273 0.956770 0.970363 -0.248119 -0.842977 0.282222 0.492741 0.607358 -0.725552 -0.212327 -0.591577 0.363492 0.635102 -0.895511 0.325521 -0.096779 -0.775225 -0.583645 0.902353 0.660480 0.208427 0.477977 -0.492433 0.323001 0.898003 0.469752 -0.267613 -0.087980 -0.667552 -0.808702 -0.920995 0.827721 -0.851932 -0.950632 -0.420399 -0.694910 0.331590 -0.927658 0.912448 0.606038 -0.139985 -0.679129 -0.030470 -0.504883 -0.574640 -0.704949 0.398337 -0.349865 -0.288594 0.300690 -0.689386 0.919833 -0.221333 -0.181818 0.242833 -0.323330 -0.712067 0.975221 0.588690 -0.379619 -0.833481 0.667695 -0.551898 -0.685413 0.717063 0.027703 -0.380323 0.048653 0.100045 -0.467875 -0.345309 0.960060 -0.147004 0.624221 -0.544824 0.278356 0.919272 0.853514 0.928491 -0.369323 0.154204 -0.760895 -0.449490 0.932871 0.057287 0.793343 -0.390458 0.345220 0.768564 -0.801768 0.965601 0.935082 0.865927 -0.586297 -0.750331 0.582990 0.441406 -0.130654 -0.368357 -0.458549 0.401472 0.286334 -0.498489 -0.745532 -0.089446 -0.043313 0.532824 -0.170174 -0.189799 0.461315 0.460503 0.964405 0.700420 -0.988987 0.897276 -0.242293 0.804356 -0.493182 -0.897073 0.572919 -0.294951 -0.931471 0.508002 -0.429024 -0.517769 0.757671 -0.846034 0.923637 -0.372983 -0.214392 -0.534912 -0.971511 -0.928058 -0.033401 -0.717043 -0.017504 0.923287 0.815781 0.812322 -0.266512 0.277097 0.272824 -0.302107 -0.022483 0.283837 -0.404831 0.735224 0.088193 0.101986 0.838151 -0.338888 0.807036 0.906680 -0.830886 -0.621988 -0.611089 0.926785 -0.468023 -0.687452 -0.446197 0.317586 -0.222363 -0.417708 0.389528 0.744236 -0.134751 -0.627976 0.667523 -0.318970 -0.815655 -0.598990 0.958126 0.457170 0.098903 -0.064357 -0.258993 0.694072 -0.329133 0.829200 -0.203942 -0.490981 -0.509688 -0.396907 -0.584302 -0.340574 -0.018895 -0.195391 -0.413788 0.513083 0.117158 0.140014 -0.169332 0.894795 0.722306 -0.779804 0.639031 -0.412445 -0.407781 0.306553 0.268585 -0.223435 0.707564 0.226711 -0.766266 -0.193533 -0.837646 -0.025259 -0.499462 -0.166778 -0.196059 0.296596 0.342240 0.294253 0.899690 0.757939 0.953680 -0.119205 -0.437452 -0.460109 -0.606123 0.679706 0.679905 0.224546 0.574500 0.402211 0.444742 0.213531 0.989766 -0.963039 -0.479915 0.258350 -0.186474 -0.772351 -0.514938 0.047260 0.034115 -0.352584 -0.977998 0.534654 0.480638 -0.174057 -0.168750 -0.177122 -0.879804 -0.269060 -0.419184 -0.926124 0.611735 0.143364 -0.386233 -0.994388 -0.176930 -0.706328 0.230158 -0.602429 0.695884 -0.325101 0.611102 0.685650 -0.288140 -0.868814 -0.056000 0.525386 -0.641165 0.429062 -0.427353 0.392951 -0.923522 -0.405351 -0.072396 0.557115 0.420592 0.758855 -0.620007 0.540788 -0.510206 -0.039190 0.614663 -0.898471 -0.895826 -0.771570 -0.892859 -0.072756 -0.477897 0.337298 0.324815 -0.782013 -0.987802 -0.064083 0.903636 -0.275942 0.067103 -0.152364 -0.750555 0.425938 -0.723302 -0.177909 -0.181111 -0.646824 0.416740 0.746493 0.910291 -0.162669 0.505348 -0.709715 -0.621881 0.995142 0.251094 0.992783 -0.903329 0.355269 -0.778787 -0.796189 -0.717487 -0.256684 0.541110 0.607328 -0.038698 0.553307 -0.456756 -0.135062 -0.722634 0.610347 0.712575 -0.473190 0.036286 0.989273 0.348901 0.855175 -0.657551 -0.234359 0.601668 -0.747260 0.602973 0.107015 -0.456975 0.981092 0.102157 0.794119 0.973874 0.198828 0.149387 -0.804913 0.402640 0.431900 -0.061597 -0.056251 0.039228 0.899705 -0.502943 0.582472 -0.235357 -0.225578 0.192820 -0.522782 0.301232 -0.770895 -0.533509 -0.349866 -0.915720 -0.191060 0.415775 0.685948 0.061680 0.018748 -0.207037 0.604704 -0.000161 0.895121 0.398823 -0.026286 0.093949 -0.451789 0.168801 -0.503412 0.980111 -0.892797 0.440338 0.019339 -0.993092 0.937395 -0.398189 -0.228448 -0.288183 0.794631 0.248770 -0.986950 -0.976264 0.715261 -0.336817 -0.891984 -0.475800 -0.921041 0.793963 0.585880 0.097706 -0.413074 0.190585 -0.902454 -0.517953 -0.410592 0.071259 0.575996 0.137619 -0.759940 -0.927416 0.117730 -0.652737 0.512922 -0.862932 -0.645828 0.450317 -0.261121 0.125724 -0.837866 -0.466490 -0.625507 -0.824817 -0.442754 -0.910246 -0.161633 -0.334738 -0.386046 -0.082675 -0.540775 -0.800165 -0.984969 0.046152 0.390419 -0.887423 0.528199 0.979827 0.183836 0.104195 0.117446 0.423896 0.176779 -0.764824 0.771160 -0.310299 -0.627756 -0.874668 -0.859982 0.111124 0.251055 -0.697848 0.644634 0.625548 -0.522665 -0.798120 0.715302 0.315702 -0.132858 -0.670743 -0.766973 0.326367 -0.470908 -0.751942 -0.627481 0.919511 -0.639364 0.900717 0.899339 0.544472 0.004912 0.016785 -0.031632 -0.818309 0.251961 -0.260472 -0.128608 0.624205 -0.135141 0.011410 -0.264671 -0.884085 0.313561 -0.620037 0.741463 0.790896 -0.418157 0.456766 0.106598 0.448984 0.786022 0.339625 -0.224649 -0.684886 0.587683 0.147870 -0.765375 0.948319 0.048587 -0.866036 0.492791 -0.946501 0.150749 -0.538841 -0.764810 -0.597290 0.200687 0.106582 -0.973085 -0.934454 -0.882008 -0.237756 -0.818539 0.431553 0.142206 0.922924 0.222449 0.724049 0.379689 -0.670953 0.173033 0.165712 0.668672 0.948385 0.480826 0.256356 0.096254 0.715451 0.204674 -0.855158 0.849415 -0.302535 -0.801659 0.000164 0.158624 -0.566468 0.402874 -0.640689 0.540114 0.429789 -0.575143 0.658105 -0.807968 -0.393683 0.089658 0.334239 -0.470759 -0.687893 0.058288 0.908930 -0.358846 -0.768679 0.074642 -0.690174 -0.820295 -0.444533 0.566182 0.275960 -0.729081 -0.229144 0.420802 -0.879666 0.468322 0.619143 0.120498 -0.373054 -0.947326 -0.476628 -0.013744 0.592788 0.953161 0.411113 0.250893 -0.854806 -0.982570 -0.659449 0.479432 -0.453329 -0.347341 -0.462280 -0.544399 0.293813 -0.230960 0.530243 0.603639 -0.051254 -0.914290 0.169821 -0.775295 -0.643371 0.940678 0.645507 -0.523038 0.408999 0.264650 0.597461 -0.964055 0.317324 -0.879167 0.022202 -0.089888 -0.926006 -0.566685 -0.838995 -0.780813 -0.549255 -0.498443 0.698620 -0.002584 0.154215 -0.763661 0.453018 -0.551972 0.005380 -0.016740 -0.948333 0.954125 0.068970 0.221489 -0.821169 0.425599 0.162166 0.824337 0.902561 -0.428834 0.088987 0.500022 -0.392889 -0.593689 0.620855 0.629312 0.316423 0.694849 -0.937373 0.477428 0.914036 -0.486628 0.978985 0.612656 0.510789 0.133200 0.848995 -0.036194 0.581228 -0.145625 0.947066 0.632896 -0.191500 0.016037 -0.145616 -0.012669 -0.558365 -0.983450 -0.188332 -0.655804 -0.412284 0.900655 0.844218 0.194827 -0.693034 0.465073 -0.175861 0.623389 0.159921 -0.113233 0.100818 0.073958 0.400139 0.079803 -0.313387 -0.089072 -0.786997 -0.464391 0.874734 0.794231 0.389983 0.821800 0.427127 -0.801516 -0.162163 -0.718489 0.185814 0.279472 -0.701939 0.997482 0.623668 -0.114223 0.898137 0.467886 -0.919396 -0.794897 -0.067041 -0.095256 0.828492 -0.907119 0.791510 -0.070691 0.166838 0.191649 -0.990888 0.853451 -0.897423 -0.777885 -0.610940 0.977311 -0.983654 0.779043 0.799111 0.443473 0.977527 -0.363052 0.724983 0.163341 0.916420 -0.976955 0.160823 0.540088 -0.091178 0.058960 0.007975 -0.010573 0.264063 0.940934 0.894170 0.092555 -0.966186 0.685681 -0.978136 0.200652 -0.122670 -0.969024 0.054104 -0.020093 -0.746909 0.443164 -0.042782 -0.730563 0.222207 -0.243671 0.712910 0.199734 0.393277 0.437893 -0.636925 0.309697 0.460938 0.523898 -0.150215 -0.630240 -0.417142 0.857760 0.359187 0.846921 0.798693 0.253357 -0.060525 0.832508 -0.060962 -0.038661 0.033160 0.816368 -0.007684 -0.912736 -0.203724 0.245407 0.530428 0.753494 0.514844 -0.247365 -0.490177 0.227753 0.952369 0.903100 -0.334354 -0.684556 0.212797 -0.873416 0.839342 -0.937418 -0.503656 -0.577800 0.920341 0.855531 -0.730880 0.719035 0.108888 0.208596 0.551542 -0.952074 -0.830065 -0.415297 0.864294 0.162251 -0.328033 -0.339430 -0.592343 -0.797606 -0.585936 0.922501 -0.044971 -0.076113 0.150254 -0.092602 -0.173013 0.815901 0.222842 -0.960216 0.942485 0.062183 -0.897634 -0.561171 0.484383 -0.977293 -0.705640 0.753503 0.741742 0.403248 -0.037901 0.293284 0.451174 0.132034 0.877987 0.315468 -0.705715 -0.450047 0.976037 -0.298058 -0.247653 -0.609899 -0.375557 0.707377 0.313988 0.774698 -0.385226 -0.859025 0.590598 0.837616 -0.819242 0.533083 -0.100200 -0.716876 0.971912 -0.615817 -0.694169 -0.733728 -0.862314 -0.952428 0.669519 0.099785 0.340857 0.120693 -0.768182 0.218843 -0.563839 -0.473897 0.768796 -0.587802 0.228045 -0.478856 -0.197701 0.852488 -0.771480 -0.883713 0.627186 -0.156705 -0.742739 0.217784 -0.319089 -0.561981 -0.249133 0.580710 -0.278857 -0.277221 0.964893 0.026974 -0.010949 -0.897421 0.074547 -0.341430 0.202363 -0.584597 0.779263 0.434182 0.634246 -0.784576 0.960285 0.403042 -0.372378 0.188330 0.924186 0.429921 0.040819 -0.847294 0.546208 -0.331995 -0.003999 0.803469 0.885789 0.676912 -0.758512 -0.363344 0.257622 -0.037368 0.359435 0.222515 0.989606 -0.651514 0.325094 0.064152 0.007056 -0.472543 0.479555 -0.213680 0.961639 0.113802 0.001743 0.921924 -0.483156 0.629365 0.110254 -0.558970 0.059286 -0.848927 -0.406264 -0.394506 -0.180923 0.589737 -0.591037 -0.295134 0.266649 -0.349548 0.341522 -0.475729 0.613083 -0.299043 0.746786 0.602689 0.049443 0.071880 -0.333158 -0.943500 0.599337 -0.853603 -0.157181 0.560976 0.260199 0.844563 0.482899 0.777043 0.473928 -0.406847 -0.781927 -0.466785 -0.255774 -0.188191 0.138709 0.563303 -0.598453 0.547672 -0.731831 0.668196 -0.801876 0.609691 -0.807533 0.811207 -0.689351 0.939253 0.413896 0.360092 0.011133 -0.919262 0.416592 -0.389530 -0.772865 -0.740589 -0.828555 0.487334 -0.896026 0.654345 0.264376 0.577902 -0.752502 0.482449 -0.888883 -0.008276 -0.705742 0.249826 -0.444973 -0.304195 -0.202502 -0.176803 -0.635999 -0.004379 -0.567112 -0.443533 -0.193171 -0.256463 -0.504279 -0.779275 -0.896371 0.506853 -0.698537 0.520221 -0.882677 -0.471402 0.779633 -0.711231 -0.984068 0.883607 0.943114 0.280309 0.461509 -0.809388 -0.237242 0.572626 0.182336 0.057016 -0.177549 0.737363 0.752821 0.619949 -0.439440 -0.883178 -0.384429 -0.006552 -0.326711 0.422399 0.736985 0.169010 0.643124 0.840614 -0.324137 0.944587 0.360835 -0.206813 -0.526814 0.140468 0.081955 -0.510882 0.024075 0.025069 0.769427 -0.514416 0.215681 -0.467816 -0.941791 -0.601983 0.589201 -0.119339 -0.864619 0.342022 -0.499390 -0.304059 0.458844 0.116181 0.689389 -0.867867 -0.461420 0.426373 0.301143 -0.818296 0.266987 0.977006 -0.873709 -0.372177 -0.229807 -0.400523 0.768290 0.852148 0.088595 -0.207635 -0.122783 -0.141978 0.277949 -0.907102 0.390206 0.336158 -0.509084 -0.020593 -0.783181 -0.373704 -0.678571 -0.282571 0.322237 0.780273 0.833610 0.011625 0.912406 -0.627810 -0.562001 0.213548 -0.446106 0.704986 0.190554 -0.319815 -0.667191 0.960747 0.279662 -0.898901 0.812895 -0.631742 -0.106536 -0.309888 0.226279 -0.828587 -0.216990 -0.383514 0.507571 0.273926 0.595893 0.724390 0.900222 0.917322 -0.558181 0.222459 0.697594 -0.724571 -0.765916 0.610000 -0.352381 -0.327917 -0.176452 0.201512 -0.622931 -0.985898 0.881697 -0.290122 0.974849 0.161360 -0.189023 0.787744 0.529617 0.704441 -0.522144 -0.244103 0.875854 0.260866 0.372382 0.383425 -0.465208 -0.031725 0.107815 -0.564986 -0.114403 0.549634 0.657473 -0.416809 0.825063 0.891557 -0.806809 -0.527319 -0.436360 0.016739 0.674194 -0.059290 0.030841 0.555891 0.650587 0.005690 -0.282749 -0.538435 -0.206566 -0.753132 -0.833994 0.271290 0.002765 -0.958140 -0.467844 -0.624853 0.425285 0.066948 0.343422 -0.466900 0.501962 -0.770981 -0.917266 0.159434 -0.187791 0.907797 0.050991 0.005400 -0.619522 0.614631 -0.977861 -0.945328 -0.444659 0.052980 0.610563 -0.794072 -0.941330 -0.672187 -0.332507 -0.147895 -0.425319 -0.166501 -0.876605 0.577446 -0.124641 -0.344449 0.952593 -0.699357 0.722499 0.296015 -0.166257 0.224461 0.525033 -0.083523 -0.616105 -0.662757 -0.175726 0.434886 0.342643 0.204752 0.049517 0.364781 0.259423 0.604858 -0.582239 -0.130014 0.810787 -0.523569 0.197799 -0.521720 0.328536 0.772480 0.311778 0.451931 0.349927 -0.812863 
-0.892517 0.302519 -0.512220 0.829982 -0.401466 0.321523 0.054442 -0.876432 -0.762000 0.438337 -0.539189 0.062274 -0.126777 0.803453 -0.732975 0.922741 0.168234 0.526449 0.527599 0.585996 -0.603565 0.338386 -0.937573 0.594234 0.816665 0.390963 0.366714 0.128444 -0.157105 -0.283359 0.315581 -0.049623 -0.980840 0.803361 -0.219641 -0.382305 0.124884 0.834801 -0.258737 0.362885 0.273139 0.202073 -0.574841 -0.853638 0.005527 -0.307816 -0.930897 -0.826239 -0.781367 0.596702 0.759757 -0.384933 -0.064913 0.822184 -0.790699 -0.248247 0.213147 0.576016 0.880196 -0.943958 -0.707344 0.195777 0.006419 -0.688183 -0.000862 0.786778 -0.070489 -0.875978 0.621579 0.670774 0.486907 -0.105282 -0.127153 0.912066 0.041080 0.878374 -0.395750 0.110183 -0.947865 -0.177117 -0.293115 0.811892 0.437950 0.641972 0.634075 0.647251 -0.606275 -0.152778 0.223267 -0.726079 -0.096736 0.515923 0.469698 0.909683 0.827740 -0.531164 0.696461 -0.242749 -0.407142 0.318040 -0.571974 -0.920235 -0.787242 0.300873 0.991831 0.253839 0.179247 -0.403919 -0.635978 0.231382 0.418964 0.070907 0.043273 -0.143086 -0.287122 -0.322651 -0.495835 0.106603 0.524571 0.727432 0.380524 -0.572165 0.243355 -0.149778 -0.662482 0.071095 0.319057 -0.966021 0.828347 0.911915 0.352019 -0.743628 0.991681 0.564777 0.557245 0.983512 -0.181384 -0.263508 -0.420407 0.182638 0.967874 0.998557 -0.746455 0.011147 -0.144529 -0.033577 0.688496 0.359636 -0.926974 0.213067 0.087068 0.453550 0.640901 -0.669577 -0.696229 0.978419 0.401518 0.622829 -0.987602 0.229865 0.534744 0.364416 0.486237 0.526425 -0.070806 0.043482 0.509937 0.747810 0.779974 -0.910470 -0.069552 0.747848 -0.911913 0.183992 -0.241005 -0.056442 -0.849585 -0.552510 -0.696806 -0.776559 0.660557 0.390262 0.676991 0.301458 0.720685 0.980762 0.279878 0.122203 0.603591 0.292275 -0.647932 0.138335 -0.343308 0.838306 -0.335240 0.585885 -0.118212 -0.825303 0.333695 -0.338238 -0.735773 -0.735857 -0.590390 -0.647686 0.448135 0.168605 0.295872 0.598550 0.616095 0.599065 0.821991 0.276652 -0.010673 0.498982 -0.421889 -0.289988 0.479744 0.857988 0.832215 0.083335 0.150264 -0.815716 -0.778330 0.806955 -0.977411 -0.113571 0.392841 -0.095623 0.061126 -0.273464 0.566140 0.325352 -0.009322 0.975750 0.677666 -0.561187 0.144355 -0.026462 -0.962637 -0.239550 -0.427397 0.859354 -0.962897 0.561930 0.358336 -0.384786 -0.728058 -0.161920 -0.526798 -0.895842 0.921415 0.623466 -0.711559 -0.856915 0.430421 -0.688969 0.029514 -0.176738 0.215408 -0.909360 0.549797 -0.218452 0.415992 -0.459524 -0.242702 0.093658 -0.020712 0.901652 -0.932804 0.016651 -0.337897 -0.360201 -0.123995 -0.300795 -0.798270 -0.765659 0.314419 -0.526328 0.072421 0.787621 -0.422170 -0.006164 0.411087 -0.133729 0.136921 -0.158492 0.177302 -0.833566 0.664770 -0.607290 -0.742926 0.214567 0.174258 0.673066 0.755043 0.931555 -0.233276 -0.265669 0.833207 -0.166080 0.750983 -0.504690 0.473720 -0.373012 0.194516 0.675449 -0.138671 -0.491065 -0.850879 0.933750 -0.703444 -0.273049 -0.072414 0.707643 0.593222 -0.935494 -0.450849 -0.229476 -0.769059 -0.786079 0.163234 -0.511985 0.428488 -0.662509 -0.838919 0.183531 -0.730954 -0.072195 0.917862 -0.897746 0.761726 0.668845 -0.402436 0.235445 -0.704167 0.792080 -0.089105 0.157161 -0.698985 0.060016 0.090911 -0.402429 0.786967 -0.981503 -0.694786 0.380189 -0.916997 -0.145635 -0.849287 -0.686056 0.068286 0.313947 -0.198042 -0.503225 0.651438 -0.036961 0.680306 0.920485 0.890844 0.598168 -0.977261 0.652570 0.267013 -0.379697 -0.111985 0.562846 -0.587617 0.798910 -0.279992 -0.286603 -0.141074 0.810919 0.310968 -0.354107 0.829416 0.616182 -0.973918 0.912419 -0.529453 -0.823205 -0.773637 0.538833 0.490742 0.028321 -0.964392 0.142180 0.991360 0.715914 0.062665 0.882205 0.314083 0.085404 0.534774 -0.418904 0.705707 -0.577211 -0.856058 -0.881911 -0.778301 -0.136051 -0.168513 0.080625 -0.325132 -0.857545 0.726517 -0.495716 0.758637 0.752599 -0.583297 -0.770816 0.929394 -0.356934 0.768017 0.420135 0.671387 0.803625 -0.437685 0.662747 0.519539 0.624980 0.544951 -0.166378 -0.289616 0.079726 0.414718 -0.583909 0.502515 0.558659 -0.465820 0.724214 -0.577391 0.365667 -0.195161 0.097477 0.508121 -0.468644 0.601761 0.266758 -0.716045 -0.981536 0.495942 -0.786651 -0.338470 0.263958 0.633484 -0.667084 0.067584 -0.804200 0.995663 -0.412877 0.820780 0.540615 0.420745 -0.468836 -0.379660 -0.164538 -0.052745 -0.877144 -0.605878 0.481435 0.847070 -0.183269 -0.152898 -0.348091 0.914208 -0.644777 0.183265 0.515969 0.621981 0.467220 0.534433 0.117923 0.680569 -0.804037 -0.618119 0.314053 -0.471121 0.449465 0.509853 -0.475457 -0.963412 0.330633 -0.934843 0.457332 0.861797 -0.314502 -0.707205 -0.190948 -0.191647 -0.313084 -0.709513 -0.344576 0.503647 0.137589 0.307333 0.417855 0.492812 -0.509402 -0.066176 0.114794 0.957818 -0.531743 -0.767283 0.638388 -0.335780 -0.385402 -0.047559 0.193100 -0.935937 -0.537706 0.717642 -0.899349 0.792927 0.782800 0.557983 0.654724 -0.531703 0.850778 -0.536224 0.276651 -0.462306 -0.245736 0.932074 -0.958659 0.891852 0.239407 0.459196 0.384665 0.730005 -0.606981 -0.500542 0.687823 -0.138723 -0.267825 0.326211 0.525497 0.346773 -0.721348 -0.281404 0.410836 -0.259054 -0.563761 0.511487 -0.466127 -0.780962 0.069470 -0.811402 -0.312665 -0.079752 -0.347626 0.963986 0.457943 0.406638 0.896060 0.499283 0.298490 0.135467 -0.041521 -0.316845 -0.134528 0.351499 0.182614 -0.446705 -0.787225 0.914789 0.879506 0.738272 0.261562 -0.841842 -0.543132 -0.327602 -0.100895 -0.106893 -0.816115 0.432978 0.112145 0.253356 0.621576 0.799481 -0.826396 -0.726050 0.763467 0.631546 0.680588 0.659527 0.130830 -0.020922 -0.205006 -0.910691 0.662233 0.660466 0.440808 -0.155153 -0.786238 0.653583 -0.240365 -0.906732 0.391855 -0.978803 -0.748574 0.848723 -0.306405 0.150531 -0.258170 -0.122520 -0.416491 0.853976 -0.869164 -0.794916 0.653456 -0.695560 -0.520966 0.416923 0.935986 -0.840378 0.076450 0.066816 0.138700 0.871445 0.156125 -0.199067 0.531911 -0.403067 0.645779 0.745673 -0.749484 -0.594586 0.838941 0.642370 -0.573389 -0.909633 0.491094 0.120207 0.240898 -0.767076 0.997687 0.824407 -0.913100 -0.871478 -0.970509 0.740356 -0.567038 -0.491474 0.157279 -0.631052 -0.331852 -0.766270 0.435764 0.806847 -0.894825 -0.408111 -0.392220 0.637086 0.188822 -0.746440 0.382759 0.439338 -0.341026 0.221700 0.081708 0.085586 0.312067 -0.427198 -0.794208 -0.447034 -0.194274 -0.796521 -0.622628 -0.107375 -0.667999 -0.593136 -0.367019 -0.235037 -0.084611 0.790261 0.133912 0.583537 -0.976009 -0.430324 0.390384 -0.870835 0.161565 0.998165 0.766252 -0.649613 -0.748276 0.149011 0.789725 -0.089302 -0.629289 -0.128567 0.996284 0.682778 0.444235 -0.797924 -0.764256 -0.750039 -0.594446 -0.386884 0.142586 -0.262444 0.019980 0.775567 0.502519 0.935369 0.565828 -0.363570 0.518906 0.589819 0.206106 -0.090710 0.718984 -0.632329 -0.092545 0.485236 -0.281941 0.159179 -0.365754 -0.492216 -0.930123 0.004957 0.379217 -0.933839 -0.312265 -0.176548 -0.731764 -0.076521 0.073413 -0.326209 0.536595 -0.784001 0.411346 -0.443426 0.991566 -0.086135 -0.508057 0.557394 0.550296 -0.989151 0.147213 -0.243598 -0.079861 -0.133803 0.124073 0.827594 -0.648567 0.842132 -0.013227 -0.014321 -0.650084 0.056650 0.990636 0.729133 0.122810 -0.321629 -0.447415 0.391047 0.601850 0.625998 -0.935163 0.138445 0.841996 0.476184 0.695019 0.833562 -0.609951 -0.813038 0.390957 0.940345 -0.802189 -0.461830 -0.303253 0.117950 0.404367 0.820820 -0.054456 0.755800 0.662952 0.932317 -0.258521 -0.987132 -0.011033 -0.267884 0.742002 -0.888223 0.410487 -0.705413 0.502824 0.012337 0.920585 0.567661 -0.849218 0.762581 0.043845 0.845801 0.596144 0.433894 -0.967237 -0.012900 0.374238 -0.769426 0.525270 -0.929015 0.348525 -0.070363 0.891805 -0.705931 -0.314563 0.554757 -0.773614 0.426916 0.567625 0.215353 -0.840968 0.309627 0.327130 0.569519 0.604214 -0.170047 -0.418143 0.524798 -0.602386 -0.267361 0.287380 0.441459 -0.421560 -0.116476 -0.124647 -0.388797 0.870624 -0.750409 -0.158223 0.395894 -0.679424 -0.809698 -0.674469 -0.787619 -0.515629 0.010967 0.767138 -0.289243 -0.562116 0.334763 0.926110 -0.403084 -0.355610 0.253240 -0.833565 -0.751396 -0.916807 -0.251708 0.773402 -0.519193 0.480931 0.060782 0.922266 -0.940630 0.944306 -0.202381 -0.329427 0.814929 0.047210 0.512350 0.210823 0.367786 0.702652 0.536354 0.580167 -0.812977 -0.452679 0.347305 -0.102219 -0.014795 -0.317931 -0.176109 0.582121 0.326459 -0.922870 0.748556 0.575063 -0.839676 -0.503152 0.348465 -0.358869 0.977779 -0.590753 -0.436603 -0.962851 -0.646448 0.361015 -0.292278 -0.831518 -0.591775 -0.779927 0.379305 0.776011 0.922725 -0.084341 0.356178 -0.890252 0.462981 -0.296516 0.007529 -0.551814 0.385552 0.831420 -0.969693 -0.287989 0.908550 0.778863 -0.712926 -0.931126 -0.724289 0.635539 -0.289996 -0.746511 -0.955214 0.273401 -0.709362 -0.601662 -0.365584 -0.001639 -0.433180 0.042642 0.218433 0.946126 -0.181347 0.141159 -0.138215 -0.825169 0.250907 -0.675235 -0.121685 -0.741564 -0.227049 -0.736133 -0.910144 -0.196743 -0.024122 0.998406 -0.417880 0.262952 -0.932721 -0.142169 -0.101509 -0.222717 0.111320 -0.056723 -0.949316 0.401958 0.341615 -0.314899 -0.599681 0.908436 0.727742 0.618752 0.854561 -0.453605 -0.240089 -0.283654 -0.278774 -0.989182 0.041111 0.599541 -0.730746 0.814062 0.863407 -0.640891 -0.382681 -0.160714 -0.642485 0.199439 -0.897762 -0.575206 -0.942730 0.000729 0.202078 0.168589 0.944006 0.252762 -0.429452 0.285621 0.937863 -0.029134 0.194057 0.665605 -0.410381 0.048618 -0.788000 0.349529 0.764964 -0.066774 0.360347 -0.193925 -0.467233 0.629601 -0.379863 -0.603826 0.988710 0.237456 0.235460 -0.653775 -0.563105 0.337697 -0.228981 -0.505836 -0.661574 0.973097 0.662754 -0.717568 0.225859 -0.766699 0.568053 0.163722 0.204168 -0.237890 -0.170673 0.793786 0.810728 0.041327 0.143316 0.575692 0.974553 -0.496337 -0.618233 -0.492681 -0.866736 0.001904 -0.096507 -0.878026 -0.760641 -0.861047 -0.531801 -0.323746 0.476650 0.239218 0.170419 0.815076 0.212315 -0.166828 -0.902492 -0.561825 0.066473 0.665562 0.601896 -0.729359 -0.572328 -0.568777 -0.935573 -0.761600 0.472550 0.207743 0.814092 0.447103 0.711405 -0.804140 0.954423 0.844669 0.197763 -0.142084 0.966643 0.437123 -0.003131 -0.565158 -0.886623 -0.526481 0.674060 0.283796 -0.711404 -0.113625 -0.883032 -0.613896 0.324550 0.183441 -0.948334 -0.073554 0.454082 -0.520662 0.357670 0.518510 -0.282262 -0.169780 -0.273748 -0.468170 -0.722677 -0.562342 -0.272310 -0.768254 -0.717673 0.925453 0.089662 -0.751031 0.362576 -0.913469 -0.316189 0.475954 -0.439950 -0.642129 -0.240251 -0.151354 0.244246 -0.123283 0.234750 -0.431204 -0.939841 0.286416 0.495242 0.514241 0.765753 -0.147088 0.032751 -0.516509 0.683132 0.759003 0.015322 0.960455 -0.803339 0.743012 -0.807799 -0.521013 0.668465 0.281863 -0.272044 0.031042 0.368394 0.411767 -0.493005 0.928443 0.769638 0.266745 -0.222911 0.013884 -0.856538 -0.988161 0.582680 -0.796379 0.298254 0.077922 0.717862 0.064007 0.930834 -0.249387 0.547499 0.613966 -0.490384 -0.437180 0.574422 -0.293724 -0.694168 0.766623 0.185264 0.974297 0.048486 0.913220 0.005339 -0.583120 0.324987 0.512334 -0.654677 0.094625 -0.220921 0.122412 -0.891492 -0.077459 0.134250 0.691188 0.126162 -0.567495 -0.230890 -0.155976 0.496512 -0.300056 0.594637 0.044011 -0.686090 -0.895747 0.606831 0.888332 -0.189471 0.912663 0.654955 0.995793 0.886961 -0.296559 0.909013 -0.107700 0.120321 0.234000 -0.595366 0.465644 -0.671376 0.183713 -0.411945 -0.562867 -0.893745 0.722306 -0.871680 0.232417 -0.845190 -0.102570 -0.923559 0.651322 0.597374 0.671078 -0.304667 0.911284 0.775331 -0.697836 0.799616 -0.414140 -0.785172 0.454571 -0.418347 -0.898212 -0.841988 -0.509334 -0.005912 0.278333 0.724666 0.398722 -0.256024 -0.946710 -0.417564 0.332032 -0.509578 -0.311310 0.054337 -0.381257 0.921107 0.209148 0.516173 0.997548 -0.139530 0.113546 0.668627 0.555803 0.024830 0.443958 0.857967 -0.175554 -0.970182 -0.927205 -0.720983 -0.388529 -0.825417 -0.562971 0.102137 0.168671 0.715361 -0.173198 -0.432607 -0.540662 -0.119908 0.149829 0.791369 0.370514 0.838520 -0.154294 0.989257 0.759627 -0.945146 0.505430 0.757175 -0.084676 -0.381024 0.425802 -0.528873 0.643807 -0.130241 -0.670906 -0.531747 -0.100423 -0.598111 -0.252730 0.511048 -0.423528 0.184299 -0.386815 0.745143 -0.100340 0.439987 -0.687464 0.358998 -0.679921 0.462365 0.150367 0.690593 0.300885 0.996073 0.679851 0.060511 -0.949073 0.185280 -0.182314 -0.033749 0.804257 -0.756512 0.437377 0.448063 0.113247 0.766471 0.916316 -0.987176 -0.831640 -0.336414 0.523872 -0.255169 0.847884 -0.862944 -0.510026 -0.252456 0.577043 -0.197490 -0.893458 0.897122 -0.735125 0.256909 0.587716 0.565759 0.252981 0.267566 -0.373729 0.303908 -0.547154 0.443957 -0.729841 -0.742897 0.687445 0.707537 0.705166 -0.199308 0.474008 0.621482 -0.186484 0.642368 -0.714932 -0.662612 -0.612801 -0.867047 -0.525555 -0.122827 -0.119503 -0.948512 0.679683 -0.012961 0.948610 0.944558 -0.756052 0.536326 0.510317 0.496929 -0.196108 -0.863412 -0.199162 0.256738 0.580545 0.070997 0.513841 0.267990 -0.221467 0.219008 -0.931317 -0.747459 -0.159510 -0.117801 0.894909 0.125558 0.219587 -0.717892 0.258511 0.694032 0.159281 -0.860992 0.745520 -0.161037 0.126047 0.694131 -0.216479 0.369995 0.230456 -0.706162 -0.133076 -0.965652 -0.569574 0.667761 0.291087 -0.989029 -0.261242 -0.195072 0.278961 0.517291 -0.976065 0.347644 0.769832 -0.135575 -0.770157 0.664741 0.989983 0.449430 0.946849 0.248494 0.143463 0.106129 0.387502 -0.111017 0.945093 -0.486451 -0.416886 -0.271386 0.883544 0.813570 0.022452 -0.249532 0.847918 0.452878 -0.581771 0.139005 0.463850 0.156987 0.943933 -0.257189 -0.325722 0.967868 -0.909545 -0.555890 -0.167707 -0.679702 -0.891149 -0.177723 0.769728 -0.944301 -0.929229 -0.086809 0.161829 0.458273 0.802174 0.106921 0.971822 -0.614713 0.835535 0.855366 -0.801143 -0.142013 -0.394166 -0.953225 -0.689134 0.024063 0.185780 0.774715 -0.818951 0.129713 -0.482474 -0.144673 0.097581 -0.392019 0.299437 0.929874 -0.071721 0.408287 -0.247849 -0.301993 0.463986 -0.177078 0.611198 -0.374185 -0.718805 0.413371 0.732736 -0.746982 0.798659 0.568271 -0.891616 0.997516 -0.573741 -0.285782 -0.955709 -0.262876 0.738280 0.230071 -0.488160 0.919330 -0.640216 0.029366 -0.225344 0.457365 0.637347 -0.925907 0.387239 -0.434374 0.482380 -0.860610 0.263633 -0.053633 -0.037689 -0.125169 0.572182 0.243506 -0.711798 0.304918 0.496524 -0.913139 -0.126811 0.604908 -0.915623 0.299448 -0.680874 -0.871332 -0.963428 -0.942594 0.358739 -0.451588 0.976735 0.718523 0.577778 -0.248608 0.175887 0.215124 -0.174515 -0.436874 0.780750 -0.692135 -0.297484 0.044383 0.254232 0.664827 0.919214 -0.173586 -0.091666 -0.792584 -0.868669 -0.595142 -0.705723 0.004521 -0.990234 -0.621347 -0.696032 -0.671109 -0.492679 -0.659459 -0.613703 0.866060 -0.111048 -0.636967 0.584582 -0.533270 0.114424 -0.239530 0.681854 0.939909 0.323596 0.462605 -0.752226 -0.973888 -0.493012 0.502006 0.690939 -0.573799 -0.671580 -0.400727 -0.366383 -0.540249 0.004130 -0.072106 0.464272 0.013896 0.306547 0.768240 0.342787 0.813868 -0.891219 0.729084 0.679928 -0.002267 -0.907883 0.264510 0.464463 0.206541 -0.975020 0.146318 0.146451 0.348576 -0.391078 0.394225 0.374688 0.115910 -0.103769 0.065627 0.542111 0.224651 0.664900 -0.824271 0.684403 -0.330970 0.103623 0.148675 0.682926 -0.589830 -0.083085 0.025713 -0.775961 0.025696 -0.245203 0.903966 -0.976570 -0.153086 0.168477 0.487893 -0.946545 0.193457 -0.365789 0.199906 -0.457967 0.243133 -0.405869 0.916721 -0.640957 0.490362 -0.017652 0.901155 -0.284986 -0.352753 -0.923116 -0.600584 0.316277 0.180507 0.548091 -0.000797 0.590677 -0.534994 -0.975084 0.814716 0.490702 -0.220286 0.718682 0.514132 0.626628 -0.112841 0.002025 0.680083 -0.919385 0.636236 -0.120011 -0.377352 -0.120631 0.474120 -0.460631 0.238412 -0.035518 0.521716 0.139567 0.679496 -0.831036 0.216450 -0.921088 0.485241 -0.603043 0.627003 -0.515556 0.987634 -0.907990 -0.490639 0.802350 0.582712 0.289074 0.521032 0.096844 -0.084298 -0.591810 -0.901131 -0.404215 -0.511195 0.735105 0.475774 0.111453 -0.385526 -0.050106 0.650822 0.852886 0.914376 0.172538 -0.007548 0.593872 0.341502 -0.791097 0.672784 -0.173257 -0.394140 0.299788 0.311188 -0.406506 0.391797 0.820548 -0.604157 -0.025491 0.109623 0.916875 -0.928647 -0.974675 -0.674935 -0.829778 -0.378890 -0.186130 0.905327 -0.903116 0.925323 -0.480200 0.046778 0.576145 -0.627314 -0.038845 -0.251317 0.365138 -0.444973 -0.909814 0.574041 -0.772189 -0.083071 -0.820099 0.527599 -0.771883 -0.226606 -0.080604 -0.951335 0.169237 0.893905 0.158288 0.086112 0.965259 0.183613 0.411177 -0.864519 0.804723 -0.774953 -0.959192 0.901607 -0.849630 -0.439392 -0.051614 0.726515 -0.066706 0.909540 -0.524801 -0.701568 -0.535433 -0.434616 0.872473 -0.307622 0.482313 -0.947626 -0.780023 0.710429 -0.174232 0.139373 0.759095 0.995005 0.033278 -0.082618 0.081117 -0.001464 -0.899005 -0.507706 0.134017 0.905718 -0.282659 0.174825 0.807326 -0.132289 0.735433 -0.244289 -0.405774 -0.331273 -0.334748 0.069425 -0.032841 0.129819 0.634809 -0.160368 0.822197 0.117122 -0.107994 -0.957826 -0.172449 0.717775 0.181546 -0.413354 0.712780 -0.785176 0.504028 -0.206102 0.213361 0.605023 0.286192 -0.652622 0.510742 -0.996467 0.522203 0.318067 -0.128757 0.257635 -0.926221 0.465470 0.926362 -0.260969 -0.465106 -0.106479 0.868850 -0.830297 0.733154 0.691047 0.286825 -0.374840 0.733221 -0.885624 -0.657065 -0.085233 -0.298978 -0.944285 0.129591 -0.794950 -0.150388 -0.657048 0.810073 -0.864196 -0.309671 0.320815 -0.860664 -0.787468 -0.361118 0.010580 0.470167 -0.287340 -0.523951 0.396529 0.451691 0.010944 -0.709949 0.320541 0.180647 -0.976796 0.011588 -0.532529 -0.351636 -0.255192 -0.418153 -0.008702 0.659576 0.282869 0.047013 -0.210833 0.487919 0.896625 0.132118 0.297992 -0.967571 0.822448 -0.381193 -0.828235 -0.965020 0.257688 0.182345 0.505147 0.970349 0.658394 -0.098324 0.422040 -0.330662 0.191727 -0.257419 0.849985 0.214931 0.754169 -0.682544 0.863295 -0.501023 -0.100696 -0.145407 -0.841447 -0.817827 0.901606 -0.052281 0.670092 0.798232 -0.920162 -0.031916 0.830661 0.902286 0.586890 -0.997574 0.937266 -0.155421 0.184771 0.442413 -0.185072 -0.156835 -0.655911 -0.763032 0.512503 0.535816 -0.020451 0.362488 -0.249253 -0.266283 0.679944 -0.385958 0.232695 -0.420752 0.468635 0.391247 -0.238579 0.370242 -0.661033 -0.568488 0.168473 -0.581195 0.399596 -0.000866 -0.678910 -0.013514 0.001560 -0.741644 0.831065 -0.813669 0.700769 -0.354007 0.029496 -0.955142 -0.117039 -0.458000 0.580674 0.862509 0.904488 -0.668579 -0.403773 0.584432 -0.054537 0.828921 -0.836320 -0.585902 0.220169 -0.074899 0.784340 0.559135 0.356613 -0.047186 0.977940 -0.243791 0.951948 -0.700970 0.742695 -0.046492 -0.442613 0.573760 0.139839 -0.741845 -0.780247 -0.830665 -0.696987 0.102714 -0.288665 0.883687 -0.034777 -0.384177 -0.784892 0.561450 -0.799745 0.160571 0.390372 -0.636065 0.574670 -0.389460 0.289035 0.359010 -0.830324 -0.354352 -0.688176 -0.852384 0.401857 -0.736228 -0.553354 0.144552 0.217279 0.004033 -0.281687 -0.642882 0.262188 -0.061934 -0.473547 0.565201 -0.959220 0.237788 0.448888 0.006003 0.853611 0.663997 -0.432546 -0.946135 -0.175432 0.957825 -0.582200 -0.600762 -0.431635 0.706835 0.758248 -0.261959 -0.647516 -0.929929 -0.114343 0.754341 -0.666157 0.332303 -0.101107 0.551122 -0.663664 0.617206 0.908240 0.598524 -0.444728 -0.565306 0.163725 -0.403948 0.672482 -0.387387 0.602055 0.526092 -0.723390 -0.830491 0.579957 0.101178 -0.872666 0.997757 0.500415 -0.304300 0.704592 0.258663 0.433741 -0.942924 0.328734 -0.680603 0.811417 0.662577 0.651700 -0.289690 0.213700 0.988036 -0.672485 0.121940 0.586560 -0.117213 0.556634 -0.249716 0.478839 0.229115 0.362897 0.080895 -0.244793 0.639507 0.250404 -0.664835 -0.259315 0.377738 -0.667078 -0.758900 -0.926563 -0.962486 0.499763 0.507178 -0.905410 -0.171503 0.826576 0.906007 -0.508925 0.478276 -0.383683 0.704774 0.466312 -0.056168 -0.173286 0.052871 0.826619 -0.616652 0.803156 0.305459 0.612463 0.166053 -0.613647 -0.632329 -0.194440 0.636757 -0.297165 0.546244 0.014495 0.035757 0.787344 0.087932 0.073272 0.287107 -0.404890 0.167862 -0.884396 -0.578314 0.073869 -0.393321 0.899962 0.690186 -0.688547 0.366274 -0.365982 0.138167 -0.580855 -0.539363 0.521515 -0.777699 0.766096 0.133978 0.388354 -0.847551 0.501649 -0.806086 0.789205 -0.795516 0.740158 -0.196300 0.240241 0.527502 0.891632 -0.686487 -0.185391 -0.513258 0.481375 -0.069786 -0.091572 -0.444756 0.536892 -0.191610 -0.754570 0.848346 -0.825337 -0.120553 -0.013487 -0.406192 0.340084 -0.491972 -0.183891 0.106180 0.642006 -0.795537 0.258628 0.143655 -0.601624 0.047834 0.348139 -0.861466 0.851534 -0.411619 0.666036 0.743166 -0.098106 -0.519354 -0.770092 -0.616731 0.410859 0.138336 -0.061487 -0.052248 0.946726 0.183943 -0.203903 -0.878611 -0.936610 0.782610 -0.284803 0.403474 -0.709362 0.531306 -0.490346 0.932645 0.735769 0.768282 0.076300 -0.865855 -0.183884 -0.575561 -0.727320 -0.332350 0.012820 0.938716 -0.589184 0.914714 -0.580638 -0.359276 -0.702017 0.830221 0.779060 0.236496 -0.222028 0.725786 -0.579562 0.574069 0.847175 -0.516172 0.356679 -0.437627 0.887302 0.647317 -0.906321 -0.603045 0.579962 0.829448 -0.834763 -0.343738 0.963594 -0.018647 0.080701 -0.763727 0.649003 -0.906479 -0.825011 -0.940181 -0.991765 -0.405649 -0.299457 -0.693782 -0.575429 -0.520397 0.542713 0.202543 -0.794611 0.963152 -0.223387 -0.947435 -0.553021 -0.866708 -0.385063 -0.665719 0.780609 -0.291384 -0.268764 0.360571 -0.461936 -0.103526 -0.983168 -0.498342 0.877827 0.097533 -0.262069 0.526830 0.191054 -0.087080 0.586649 0.199289 0.507271 -0.712809 0.505507 0.931842 -0.233205 0.048220 0.134385 -0.027816 0.011371 0.910998 0.024748 0.458351 -0.955711 0.639685 0.792632 0.824898 -0.651698 -0.476132 0.185469 -0.113634 0.420342 0.202302 0.388024 0.298169 -0.700165 -0.874045 -0.175001 0.490889 0.038875 -0.588353 -0.309822 -0.453854 -0.301162 -0.804315 -0.522012 0.465633 0.243904 0.612373 -0.562183 -0.744724 0.523371 0.462565 0.713627 0.567660 0.102250 0.506258 0.392559 0.450552 -0.969873 -0.421972 -0.663082 0.450469 0.780329 0.724942 -0.251363 -0.919836 0.850897 0.573636 0.571053 -0.110229 0.985283 -0.738768 0.435917 -0.315879 -0.543084 0.913904 -0.850246 0.700821 0.526277 -0.412429 0.956096 0.049648 -0.949864 0.669723 -0.382692 0.152386 0.175981 -0.990133 -0.397062 0.206108 -0.412106 -0.060144 -0.343423 -0.631776 -0.335202 0.405214 -0.551612 -0.484305 -0.021150 -0.980558 0.405466 -0.035867 -0.719327 -0.158617 0.648255 -0.262411 -0.244713 0.798009 -0.561590 -0.718435 -0.614420 -0.605494 0.331212 -0.564284 -0.935771 0.948521 0.588102 0.240211 0.958387 -0.808960 -0.553681 -0.453718 0.130897 0.102896 -0.085495 0.795695 -0.491890 0.362894 -0.688610 0.486960 0.382335 0.716856 -0.548907 0.663008 -0.441762 -0.900652 -0.599402 0.313526 0.897356 -0.160993 0.595090 -0.717064 0.233514 -0.073697 -0.281348 0.297743 -0.125177 -0.693246 -0.462046 -0.166790 -0.502206 -0.015727 0.379492 0.628691 -0.912832 -0.706003 0.424386 -0.404722 0.656891 0.735776 -0.917762 0.039226 0.452631 -0.466669 -0.297766 -0.989130 -0.367322 0.102832 0.324395 -0.469965 0.941839 -0.080514 -0.187029 0.175353 0.845788 0.531623 -0.526904 -0.279388 0.838377 0.011050 0.553822 -0.663829 0.995323 -0.066686 0.964862 -0.917509 0.227311 0.389248 -0.322231 -0.115798 0.125024 -0.239993 0.923428 -0.422345 0.293337 -0.374337 -0.411475 0.926016 0.728495 0.912920 -0.543950 0.670334 -0.167594 0.269021 -0.154312 -0.321806 -0.199356 0.318784 0.398806 -0.360980 -0.670166 -0.047372 -0.024809 -0.674843 0.885942 -0.059946 -0.592352 0.113253 -0.670698 0.085417 0.997456 0.454326 0.845424 0.920884 -0.968019 0.138761 -0.453453 -0.379494 0.064777 -0.724958 -0.466574 0.520827 0.945376 0.365831 -0.210152 -0.208936 -0.955975 0.590492 -0.890152 0.442831 -0.770488 -0.560318 -0.604541 0.204704 -0.235161 -0.718599 -0.855243 0.172488 0.394654 -0.525941 -0.742095 0.392110 0.928385 -0.896672 0.312994 0.960366 0.242089 0.859542 -0.419128 -0.693134 -0.865416 
/
0.346138 3.374083 -2.164339 -8.566940 -0.889772 -3.210352 -6.460080 -2.899757 1.345886 -2.477084 -5.248536 -0.702043 2.488733 -3.854085 4.913115 -0.356156 
/
