0.067545 0.442680 0.486066 0.289478 0.785371 0.845894 -0.896957 0.100322 0.539437 -0.275979 0.271879 0.414304 -0.062354 -0.448526 0.539216 -0.055922 -0.961188 -0.139197 -0.830732 0.521357 -0.814245 0.426382 0.302406 -0.452102 0.497910 0.799468 -0.973756 0.774868 -0.190000 0.312767 -0.728318 0.877545 -0.244553 0.757748 0.167023 -0.459183 0.603642 0.270065 0.641140 0.143079 0.994087 -0.086981 -0.442617 -0.068267 0.464493 -0.903401 0.875811 0.503305 -0.042598 -0.954922 0.024662 0.143157 0.471461 -0.672932 0.691055 -0.030629 -0.873464 0.717299 -0.255761 -0.063464 0.030066 0.015921 -0.185919 0.785513 -0.226331 0.981103 -0.673670 -0.622689 0.251168 0.967470 0.520390 0.245255 -0.119511 -0.922227 -0.823012 -0.655017 -0.825628 -0.947202 0.848288 0.131773 -0.902123 -0.127050 -0.725070 0.569337 0.200018 0.965985 -0.461292 0.326553 0.683284 0.282948 -0.736911 -0.286650 -0.701131 0.077169 -0.501137 0.072538 0.058273 -0.174807 0.449849 -0.690559 -0.207337 -0.029761 0.554695 0.673153 0.048012 0.731683 -0.981865 0.222383 0.784481 0.866423 -0.645843 0.882358 -0.260627 -0.370913 0.451695 0.939391 -0.404928 0.990403 0.265944 -0.721644 0.273351 0.529033 -0.008294 0.572220 -0.393797 0.490569 -0.355243 0.664475 -0.684238 -0.905394 0.973916 0.108425 0.064845 0.528611 -0.218422 -0.887143 0.260294 -0.200287 0.335240 0.044775 -0.333863 0.689397 -0.072867 0.405510 -0.681517 -0.621172 0.344900 -0.086445 -0.630769 -0.389156 0.191911 0.642582 -0.860123 -0.816383 0.214801 -0.253920 0.674185 0.859559 -0.589445 0.989947 0.954165 -0.615529 0.098373 0.019010 0.913082 0.879951 0.131867 0.173376 -0.320336 -0.532893 -0.781849 0.345801 -0.843496 0.145284 -0.248690 -0.525013 0.524112 -0.903789 0.388542 0.893343 -0.292945 -0.419547 0.535924 -0.153068 -0.235931 -0.249274 0.593012 -0.561745 -0.389716 -0.996433 -0.571798 -0.435550 -0.611962 0.526575 0.583460 -0.698880 0.406525 -0.284673 0.474496 -0.913810 0.182434 0.692648 0.431990 0.338938 -0.162068 -0.816699 0.813925 -0.637957 -0.720489 0.202467 -0.744614 -0.013434 0.782920 0.791310 0.833498 -0.453011 -0.457964 0.426511 -0.014756 0.152320 0.430078 0.413446 0.716770 0.818116 -0.059979 0.300230 -0.880763 -0.653454 -0.984443 0.593733 -0.567264 0.197992 0.286381 0.864726 -0.463070 -0.875687 -0.951973 -0.649145 -0.513644 -0.672462 0.553323 -0.258258 0.314104 0.336243 -0.466948 0.147603 0.883232 0.075088 -0.425887 -0.131524 -0.772591 -0.995809 -0.718077 0.944179 0.822308 0.221943 0.244409 0.941544 0.568490 0.259966 0.535278 -0.998774 -0.542043 -0.178341 0.865952 -0.005113 -0.054029 0.913979 0.345742 0.432327 -0.758483 -0.100935 -0.825931 0.555622 -0.764692 -0.292878 -0.296776 -0.881459 0.782210 0.277338 -0.012983 -0.990381 0.281529 0.268940 0.953797 0.103837 -0.509117 0.198206 0.045381 -0.940627 -0.541829 -0.419341 -0.939401 -0.083871 0.402318 0.926551 0.911016 -0.651711 0.840530 0.256758 0.780616 -0.917953 -0.844176 0.954685 0.637669 -0.608868 -0.338193 -0.659107 -0.490328 -0.555983 0.618231 0.496689 -0.546365 -0.100240 -0.234371 -0.592567 -0.996404 0.256512 0.605638 0.048977 0.315885 -0.936190 0.629636 0.376484 -0.020061 0.031954 0.303034 -0.109046 0.380242 0.143564 -0.852287 0.160858 0.225611 -0.696464 0.115544 -0.136720 -0.305332 0.777350 0.204174 0.204341 -0.778633 -0.177596 -0.298970 -0.324998 0.722164 0.466659 0.082435 0.725760 -0.276829 -0.311927 -0.225263 -0.960944 -0.248117 -0.595626 0.415540 0.731822 0.436327 -0.281426 -0.377224 -0.183430 0.862138 -0.229511 0.977428 0.087750 0.074025 0.092972 0.951030 0.768694 -0.129678 0.155204 -0.026966 0.091689 0.977608 0.674064 0.766691 0.699772 0.140723 -0.150874 0.425532 0.863894 0.537200 -0.799731 0.902950 -0.710917 -0.395357 0.318490 -0.979095 -0.959030 -0.962936 -0.356319 -0.142460 0.899202 0.414170 -0.165032 -0.013049 -0.511805 0.927939 -0.062019 -0.743111 -0.201739 -0.906815 0.229923 0.889950 -0.929207 -0.096013 0.656641 0.770564 -0.955290 -0.494232 0.196096 0.908604 -0.957032 0.396366 0.811555 -0.667949 -0.998992 0.130044 -0.647045 -0.958022 0.167108 -0.003364 -0.100482 0.066310 -0.589194 0.734485 -0.946739 -0.100999 0.662424 -0.008758 0.155890 -0.539315 0.084427 -0.614187 -0.649365 0.155220 0.289800 -0.992723 -0.074216 0.334511 -0.486955 -0.878119 0.243115 -0.443988 0.518246 0.054670 -0.111937 0.519254 -0.815286 0.241018 0.561233 0.351822 -0.762346 -0.539250 -0.581869 -0.351540 -0.804764 -0.528608 0.547461 0.857660 0.462635 -0.296649 -0.681654 -0.452938 0.089165 -0.331019 0.702282 -0.621035 -0.323742 -0.371934 0.713475 0.189303 -0.250053 -0.043410 0.745315 -0.731807 -0.988740 -0.366622 0.787447 -0.804026 0.874396 0.348680 0.547795 -0.887950 0.809430 0.965927 -0.239490 -0.995334 -0.562681 -0.692028 0.862326 0.899954 0.011323 -0.819328 -0.552984 -0.899512 -0.150347 -0.850702 -0.520547 0.525911 -0.222636 -0.807072 -0.284786 0.527310 0.149518 -0.539472 0.795503 0.160778 0.093906 0.582950 0.356752 -0.031698 -0.068370 -0.095453 0.080352 -0.258940 -0.129526 0.840863 -0.254274 0.307793 -0.851166 -0.391947 0.207747 0.160158 -0.211275 0.654763 0.260645 0.638378 0.804060 0.740098 0.164289 -0.418576 0.933026 0.879503 -0.891265 0.082544 -0.659969 0.904238 -0.756678 0.433937 0.487188 0.600074 -0.597761 -0.581182 -0.495379 0.482591 0.159878 0.375094 0.323454 0.905605 -0.317113 0.472288 -0.486343 0.890634 -0.367554 0.302382 0.545397 0.893092 -0.059240 0.349457 0.633190 -0.894952 0.930882 0.566216 0.984551 -0.960384 -0.351240 -0.675418 0.943854 -0.107918 0.758519 0.431042 -0.507844 -0.839241 0.849860 -0.003224 0.643350 0.009738 -0.628129 -0.033196 -0.084657 0.054758 -0.560908 0.429000 -0.054608 0.071539 -0.268618 -0.509211 -0.035370 0.672141 0.840246 -0.402180 0.777189 0.771127 -0.835965 0.761740 0.810744 -0.187205 -0.913678 0.754597 0.704877 0.844842 0.185639 -0.802967 -0.994400 0.035499 0.193809 0.648950 -0.954763 0.565680 -0.384246 -0.039421 -0.379562 0.054847 -0.610421 0.565829 -0.873615 0.120961 -0.943382 0.091015 -0.206898 0.896864 0.688835 -0.429709 0.667992 0.852871 -0.667969 0.478735 -0.334334 -0.581646 0.233332 -0.629456 -0.736804 -0.581029 -0.432423 -0.731204 0.454470 0.761386 0.917746 0.499707 0.327066 -0.466500 -0.539713 0.947503 0.588347 -0.150134 0.513332 0.714732 0.970827 0.569951 -0.194252 -0.236072 0.466815 -0.505417 0.334220 0.134806 -0.652546 0.666251 -0.386459 0.013120 -0.915395 0.846874 0.383664 -0.652199 -0.734155 0.951240 -0.383403 0.720315 0.712626 -0.465657 0.220023 0.039692 0.067843 0.680309 -0.012805 -0.343810 -0.469825 -0.499473 -0.629077 -0.498998 -0.929522 0.176671 0.264930 0.537292 0.671254 -0.400850 -0.327901 -0.981292 -0.734599 0.285640 0.031828 -0.649994 0.132514 -0.584508 -0.302194 0.398359 -0.633268 0.314403 0.118674 -0.920642 0.848746 -0.661303 0.119050 -0.083411 -0.980994 -0.893756 0.572779 -0.450819 -0.393228 0.943702 0.050183 -0.322751 0.120372 -0.684886 -0.785458 -0.208374 -0.085736 -0.113360 -0.189666 0.179664 -0.827720 0.842162 0.529670 0.304794 -0.742347 -0.772523 -0.296847 -0.375615 0.541879 0.821827 -0.296257 0.390625 -0.839476 0.822793 -0.692786 -0.820470 0.929037 0.879993 -0.271289 -0.464192 0.823695 0.778895 0.213058 -0.055933 -0.905992 0.427600 0.735693 0.008272 -0.685760 -0.453973 -0.812064 -0.513480 -0.611811 0.717606 0.791314 -0.354158 0.945083 -0.505533 0.270227 0.486962 -0.683706 0.973970 -0.122412 -0.523183 0.796763 0.184802 -0.343653 0.725800 0.064795 0.385058 -0.738392 -0.111510 0.163953 0.474666 0.832557 0.257962 -0.097734 0.568250 -0.733766 0.216506 -0.885722 -0.545830 0.703026 -0.497533 -0.828223 0.494341 0.148309 -0.883140 0.988808 -0.581464 0.603822 -0.694898 -0.607493 -0.518590 -0.218081 -0.810730 0.666211 0.438266 0.915070 -0.268994 -0.176675 -0.823322 0.619496 0.987278 0.651344 0.452053 0.245239 -0.446390 0.020303 0.511473 0.770116 0.134581 0.965643 0.473142 0.637047 -0.862580 -0.032517 -0.214644 -0.745721 -0.043709 0.203892 0.858101 0.261392 0.596399 -0.660489 -0.956689 0.785669 -0.994278 0.481577 0.700739 -0.263272 -0.695098 0.877417 -0.643776 -0.707820 0.528761 0.808277 0.537419 -0.917629 -0.171420 0.048892 0.852487 0.963160 0.014536 0.325629 0.600208 0.151955 -0.706888 -0.614436 0.406235 0.249403 0.589456 0.264336 -0.489205 0.185856 0.603848 -0.445893 -0.028475 0.609570 -0.964316 -0.327737 -0.653702 -0.659414 -0.450320 -0.297477 -0.367234 -0.921560 -0.489201 -0.829815 -0.839189 0.339379 0.219077 -0.986702 0.302540 -0.766387 0.338927 -0.097253 0.385568 0.632039 0.288311 -0.208197 -0.118558 -0.122232 -0.943861 0.392237 -0.936377 0.659987 0.946344 0.035148 0.269557 0.982028 0.707411 0.615855 -0.677386 -0.742909 -0.681622 -0.044621 -0.664469 -0.170823 0.125564 -0.503658 -0.831444 -0.655359 -0.490360 0.471096 -0.421746 0.848567 -0.626157 0.963822 0.480606 0.662154 -0.244375 -0.637953 -0.460078 -0.188236 0.754285 -0.396455 -0.528249 0.700628 0.638693 0.741308 0.682656 0.346104 0.357163 -0.994730 0.603195 0.675541 -0.039351 0.938726 -0.495282 -0.913787 -0.564931 -0.326726 -0.569146 -0.055291 -0.855630 0.009108 -0.206724 -0.481787 -0.027071 -0.726118 -0.819633 0.728554 -0.364071 -0.279711 -0.459682 -0.609786 0.323834 0.012069 -0.909158 -0.037473 -0.246624 0.773498 -0.691368 -0.889461 0.778768 0.911826 0.786080 -0.260583 0.850553 -0.709202 -0.174370 -0.714379 -0.035928 0.256484 0.230330 0.108442 -0.734409 -0.976394 0.626655 0.238521 -0.702512 0.807023 -0.032925 -0.066583 -0.472688 0.507393 0.323630 0.851146 -0.480538 0.414472 -0.186326 0.272838 0.187970 0.122305 0.383377 -0.033262 0.034132 0.169458 0.706155 -0.115315 0.460256 -0.468215 0.170306 -0.575672 0.788269 -0.599364 0.532770 -0.946140 -0.575758 0.159426 0.292381 -0.278270 -0.033552 -0.740544 0.655147 0.493760 0.766849 -0.021223 0.344907 -0.713690 -0.606751 -0.841419 0.559148 0.581219 0.280886 -0.057474 -0.452042 -0.684982 -0.888017 -0.745887 0.199703 0.572239 -0.214102 -0.629991 0.996567 -0.425833 -0.229355 0.529337 -0.371972 0.194887 -0.311237 0.920409 0.916618 0.655211 -0.820135 0.571764 0.148972 0.946714 -0.449459 -0.506121 -0.766976 -0.056209 -0.347541 0.792172 -0.474990 0.933346 -0.265302 0.072968 -0.751636 -0.153319 0.327081 0.448067 -0.581080 -0.887021 0.818075 -0.584513 -0.312854 -0.411280 0.944825 0.315174 0.783608 -0.366412 0.235583 0.700225 -0.711201 0.415448 0.271990 0.437771 0.362161 0.822531 0.931650 0.595185 -0.233678 -0.415891 0.387357 0.291332 -0.482545 -0.877945 -0.635700 -0.234182 -0.031263 0.691381 -0.786115 0.387657 0.804360 -0.968040 0.803145 -0.508494 -0.379319 0.747969 0.806680 -0.595712 -0.618443 0.042262 -0.895486 -0.329644 -0.542290 0.376504 -0.891873 0.819871 0.199035 -0.960223 0.415056 0.965357 -0.376114 -0.197586 0.256689 0.141340 -0.075531 0.620989 0.907159 0.893206 0.312370 -0.878956 0.280863 0.116730 -0.846996 0.084008 0.608236 -0.226316 -0.168023 0.414916 0.177973 0.213534 -0.542821 0.282487 0.883890 -0.085111 -0.341009 0.992017 -0.265240 0.858026 -0.968206 -0.850184 0.823383 -0.344320 -0.047770 0.080072 0.797020 0.876699 -0.298939 0.704179 0.769904 -0.986568 0.825222 0.050767 0.130162 0.978226 -0.865225 -0.261602 -0.248090 -0.033248 -0.846686 0.929883 -0.819714 -0.389507 0.212370 -0.935824 0.525382 0.871360 -0.943807 -0.739859 0.729386 -0.912013 -0.590042 0.552768 -0.256334 0.362187 -0.367160 -0.459314 0.238886 0.333901 -0.755135 0.008790 0.347333 -0.929913 -0.940442 -0.522505 -0.951687 -0.805667 0.215893 -0.199777 0.161085 0.369207 -0.269894 0.341370 0.979700 0.942475 0.405546 0.505082 0.813835 0.461739 0.765224 0.543221 0.549726 -0.824819 0.095989 -0.706608 0.537368 0.728829 -0.165922 -0.223746 0.062731 0.078944 0.785044 -0.589936 0.149031 0.844602 -0.112441 0.197344 -0.961065 -0.896548 0.997567 0.200019 0.472659 -0.272327 -0.458611 0.452360 -0.329852 0.946935 -0.042558 -0.516017 0.408674 -0.277334 -0.972795 -0.041600 -0.102153 0.123194 0.251792 -0.564785 -0.147977 -0.914130 0.211469 0.914754 0.164814 -0.003487 -0.675182 -0.686155 -0.158885 0.212377 0.511188 -0.119950 0.315829 0.508755 -0.919931 -0.211512 -0.763572 -0.378541 -0.759152 -0.093424 -0.431606 0.198290 0.390559 0.977068 0.920956 0.417764 -0.064532 -0.181197 -0.459042 -0.812740 0.254018 0.392981 -0.726869 -0.534513 0.307735 0.437945 0.462000 0.632553 0.751789 -0.696885 -0.155070 0.262977 0.183165 -0.839241 -0.228268 0.263235 -0.050753 0.008160 0.884693 0.190095 0.914736 -0.546913 -0.611614 0.305295 -0.569844 -0.690658 -0.276941 0.365624 0.128144 0.264016 0.552884 -0.617838 -0.343003 0.826015 -0.152351 0.964732 0.263959 -0.690351 0.597285 0.015748 -0.387236 -0.557785 -0.721274 0.795930 -0.397027 0.050458 0.059164 0.552221 -0.941382 -0.056143 -0.257684 0.973354 0.396945 0.130702 0.278650 0.827100 0.440043 -0.998291 0.192724 -0.431812 0.265725 -0.254392 -0.049651 0.922722 -0.428377 0.797998 0.887454 0.835582 -0.892353 0.484739 -0.148669 -0.279589 0.926954 0.130056 -0.483660 -0.470072 -0.819485 0.575505 -0.917852 -0.760867 -0.480638 -0.175536 -0.787512 0.916307 0.955166 0.491137 0.743407 0.395209 0.492846 -0.063869 0.963397 -0.241429 0.681739 -0.086254 -0.318707 -0.746638 -0.288256 -0.431252 -0.911056 -0.180609 -0.946513 -0.059725 0.539802 0.980441 -0.929669 -0.943858 -0.489631 -0.749154 0.631647 -0.407483 -0.510021 -0.848991 0.416981 -0.297533 -0.932685 0.372147 -0.806396 0.810722 -0.232644 0.686450 -0.253147 -0.269248 -0.554979 -0.571408 0.644498 0.126314 -0.318046 -0.643758 0.695062 -0.229102 0.175633 0.748549 0.711173 -0.284565 0.728990 0.781505 -0.228423 -0.760641 -0.967649 -0.596776 -0.168124 -0.477670 -0.445767 -0.751143 0.224796 -0.378452 0.621004 0.418400 -0.567729 -0.611641 0.104850 0.179124 0.119112 0.549871 0.607716 -0.236390 -0.323815 -0.710330 0.119852 -0.628753 0.060568 -0.704515 -0.880203 -0.228258 0.010920 0.848787 -0.446754 0.782498 -0.911854 -0.414403 -0.814278 -0.079977 0.107927 -0.260045 0.168880 -0.667277 0.361503 -0.210117 0.751123 0.793774 0.178243 -0.144026 -0.027103 -0.702646 -0.594155 -0.419387 0.060964 0.082031 -0.129717 -0.819184 0.453278 0.930851 -0.523698 0.573075 -0.297407 0.487222 0.421862 0.255839 0.269720 0.510008 0.841436 0.455441 -0.569969 -0.050638 -0.804604 0.598910 0.282085 0.556899 -0.611207 0.033209 0.350673 0.567036 0.889183 -0.676430 0.864390 -0.704972 -0.095817 -0.074646 0.377058 0.774466 0.106170 -0.169664 0.705317 0.582472 -0.596589 -0.592090 0.069694 0.825273 0.663749 -0.660587 0.335281 0.505185 0.794855 0.765311 -0.545453 0.990251 0.364222 0.736633 0.547150 0.753015 -0.230158 -0.102177 0.320051 -0.340976 0.221393 0.184441 -0.045948 -0.874424 -0.890205 -0.668890 0.900043 0.215965 0.161446 0.605360 -0.201563 0.564857 -0.986730 0.868130 0.390130 0.677019 -0.792456 -0.274589 0.182204 -0.997601 -0.509278 0.636751 0.992649 0.854944 0.373384 0.539800 0.607958 -0.856775 -0.562377 -0.071991 -0.197751 0.659016 -0.887549 0.756301 0.784592 -0.777754 -0.912589 0.684635 0.438211 0.248858 0.289995 -0.763352 -0.186285 0.303264 -0.895222 -0.796155 -0.019717 -0.687678 -0.070744 -0.837513 -0.685280 0.419978 0.799238 -0.692630 0.274921 0.172621 0.847170 -0.117120 0.315847 -0.715208 0.810889 -0.881904 0.943808 0.923340 0.874397 0.728401 -0.854415 0.961809 0.413035 0.583796 0.210667 -0.296970 0.820444 -0.975618 -0.993706 0.925222 -0.771774 -0.013423 -0.762456 0.157482 0.149064 -0.447736 -0.422540 -0.051698 -0.140366 0.852381 -0.879077 -0.293196 -0.264739 0.436770 -0.008404 -0.453850 0.554866 -0.064596 -0.530511 0.429263 -0.336195 -0.384925 0.391072 -0.923160 -0.801129 -0.398261 -0.220130 -0.980685 -0.373880 -0.213836 0.944537 -0.145653 0.772742 -0.817920 -0.988171 -0.078194 -0.265656 -0.410712 0.870107 0.593978 -0.558331 0.991030 -0.699218 0.176930 0.427800 0.292378 0.723079 -0.017334 -0.772218 -0.807431 -0.588071 -0.108414 -0.192356 0.803001 -0.031574 0.006515 -0.595261 0.748296 0.025829 0.030859 -0.465540 -0.029634 0.885206 -0.692798 0.152446 0.897035 0.229007 0.886790 -0.513677 0.099115 0.480768 -0.072008 0.090145 0.781550 -0.895078 -0.482055 0.073928 0.828001 0.500611 0.301710 -0.979430 0.912540 -0.806704 -0.171787 0.715540 0.161722 0.834728 -0.879720 -0.089982 -0.139443 0.151139 0.444478 0.830923 0.036345 0.751680 -0.016631 -0.066620 -0.019313 -0.129841 0.419703 -0.920198 -0.649073 -0.652306 0.169947 -0.867522 -0.547384 0.687892 0.206406 -0.719383 0.188502 -0.491884 -0.698813 0.101042 -0.298588 0.129400 -0.183418 0.863134 -0.035872 -0.063138 -0.226848 0.824685 -0.911999 -0.782370 0.655608 0.124347 0.969310 -0.361024 -0.942274 -0.050003 0.509135 0.477429 0.029799 0.860063 0.825123 -0.800255 0.992541 -0.722261 0.887637 0.198946 -0.441644 0.076139 0.707062 -0.140457 -0.822819 -0.591526 0.988943 -0.006236 -0.728393 -0.046930 0.930626 0.044759 -0.222245 -0.981373 0.262388 -0.566637 0.142974 0.231698 0.072339 0.200700 -0.818305 -0.418526 -0.321871 0.211494 -0.558463 -0.496748 0.411239 -0.565922 -0.219009 0.298876 0.633024 0.339347 -0.624985 0.340086 -0.801110 -0.447804 0.748560 -0.812167 0.545960 -0.979833 0.140903 0.476586 0.064925 0.918658 0.495213 -0.672686 -0.647979 -0.361814 0.559012 0.424360 0.838886 0.740707 -0.994166 -0.482985 -0.047800 -0.552629 0.020266 -0.636561 -0.118552 0.801257 0.662315 -0.485528 0.140605 -0.962670 0.854558 0.339495 -0.410474 0.603118 0.527327 -0.864514 0.623284 -0.331769 0.612071 -0.311791 -0.413111 0.107284 0.015523 -0.061091 0.745470 -0.425465 -0.636731 0.584356 -0.684758 -0.630897 -0.898629 0.267442 -0.183527 0.121637 0.630881 0.697922 -0.077105 0.293195 -0.787606 -0.936500 0.330525 -0.933048 0.402994 0.920051 0.670070 -0.069678 -0.944463 0.293354 0.598552 0.667608 0.981563 -0.814559 -0.225108 -0.002914 0.124351 -0.479638 0.571621 0.487620 -0.895281 0.886863 0.856722 -0.793910 0.154304 -0.326804 0.327727 -0.214815 -0.628883 -0.749378 -0.921620 -0.416489 -0.685878 0.408905 -0.349537 0.717116 0.328957 -0.679467 -0.352562 0.384493 0.613886 -0.754010 0.052101 0.595450 -0.568569 0.826994 -0.407464 0.555782 -0.652644 -0.835843 0.043402 -0.547926 -0.948980 -0.099876 -0.341836 0.205324 0.573320 0.985891 0.990509 0.944437 -0.763487 -0.931110 -0.472052 -0.449365 0.477795 0.178411 -0.732250 -0.193248 0.498944 -0.084812 -0.808755 0.112830 0.161178 0.243347 -0.291721 0.592609 0.070340 0.300815 0.148391 0.417696 0.464973 -0.808207 0.869770 0.515992 0.091917 -0.472066 -0.278683 -0.334764 -0.486175 -0.288174 -0.390327 -0.249662 -0.219284 0.137622 0.300973 -0.741489 -0.683967 0.568723 0.065263 0.814976 -0.516088 0.256508 -0.072194 0.645090 -0.500146 0.636086 0.237699 0.570195 -0.063099 -0.613910 -0.012109 -0.598127 -0.422117 -0.142339 0.917866 0.669800 0.385595 -0.360817 -0.664964 0.899421 0.351009 -0.055290 -0.350241 -0.868275 -0.917669 0.950732 -0.609764 -0.601636 0.519455 0.455498 -0.786660 -0.996633 -0.287994 0.141147 0.648457 0.211861 -0.222768 -0.113844 -0.217945 0.714133 0.272246 0.769946 -0.883993 0.850129 -0.372393 -0.966128 0.519929 -0.986798 -0.326945 0.854966 0.912623 -0.975936 -0.200324 -0.437618 -0.844212 -0.117993 -0.486886 -0.453976 0.280371 -0.967431 -0.998478 0.493712 -0.964064 -0.286472 -0.365142 0.684392 0.925389 0.412090 -0.429452 -0.292556 0.126224 0.842794 -0.522610 0.242230 0.692923 0.104996 0.276103 0.212853 0.118198 0.949158 0.067819 0.030821 0.973222 0.867494 0.593202 -0.870990 -0.250499 -0.893684 -0.324966 -0.970127 -0.861115 -0.323444 0.523584 -0.825180 0.390085 -0.841557 0.859213 0.315473 0.570533 -0.570240 -0.977083 -0.303243 -0.727446 -0.499693 0.938987 0.965477 0.605303 0.215089 0.178330 -0.276499 0.164247 -0.753851 0.754322 0.137469 -0.886357 0.347524 0.266479 -0.136856 0.453840 0.941513 -0.106983 0.592725 -0.381930 -0.583399 0.767545 -0.991846 -0.424956 0.626758 0.323628 -0.854423 -0.943482 0.346545 -0.157666 -0.670928 0.846852 -0.218680 -0.705450 0.452155 0.996410 0.472880 -0.824343 0.160657 0.719029 0.929979 -0.701874 0.832672 0.277504 0.564606 -0.304184 -0.268656 0.506119 0.588834 -0.675931 -0.875811 -0.994565 -0.908386 -0.867657 -0.419521 0.718372 0.455971 -0.273944 0.774891 -0.197484 0.568390 -0.896037 -0.350632 -0.650290 -0.601487 -0.898476 -0.653880 0.871393 -0.722819 0.506777 0.590422 -0.792840 0.804904 0.423094 0.484663 0.369509 -0.881090 -0.783993 -0.124372 0.707744 -0.459924 -0.000183 0.713179 -0.368309 0.132160 -0.706342 -0.649937 -0.411869 0.019714 -0.875046 0.390648 -0.411896 -0.771083 -0.959984 -0.062186 -0.372570 -0.858460 0.283934 -0.501177 -0.581279 -0.209289 -0.910755 -0.374120 -0.404385 0.512339 -0.889456 0.965124 0.631249 -0.673449 -0.159247 0.338993 -0.133373 0.840570 0.052172 0.498317 -0.027270 0.345830 0.848380 0.560862 -0.634456 0.973334 -0.048490 -0.046352 -0.797749 -0.008474 0.891462 -0.170319 0.133066 0.175396 0.328504 0.551786 0.966107 0.417749 -0.822333 -0.438278 -0.069911 -0.711790 -0.473154 -0.438662 -0.385239 0.367599 0.900331 0.481388 0.208169 -0.047496 -0.020295 -0.819101 -0.701666 -0.171914 0.741761 -0.336122 -0.198580 -0.306729 0.617526 0.003671 0.684796 0.508988 0.833352 -0.182138 -0.315616 0.161856 -0.630352 -0.349509 -0.420395 -0.452685 0.212212 0.509694 -0.164475 0.739058 -0.928968 0.450286 0.106657 0.971363 -0.068326 -0.685174 -0.076133 0.911380 -0.504275 0.222201 -0.260535 -0.762514 0.886079 0.540885 -0.069244 0.503605 -0.455445 -0.384447 0.012593 -0.622093 0.433415 0.696976 0.539763 0.803063 -0.652533 -0.880632 -0.649622 0.559679 0.629062 0.185903 0.298738 0.700093 -0.363810 -0.594605 0.671457 0.567864 -0.279780 -0.404677 0.479243 0.215945 0.817524 -0.781291 0.453431 0.703603 0.759593 -0.615813 0.207208 -0.695851 -0.000260 -0.780199 -0.317944 -0.566846 0.916777 -0.778181 -0.763783 -0.735756 -0.658814 -0.413405 0.823924 0.970248 0.772499 0.122661 0.670341 -0.591312 0.528056 0.341798 0.976552 -0.751724 0.937121 0.455796 0.464221 0.754646 0.674504 -0.082348 0.458248 0.434098 0.301839 -0.334544 0.738246 -0.698422 -0.114743 -0.579698 -0.265267 -0.197966 -0.357879 -0.029050 0.066278 -0.016693 0.557545 -0.109798 -0.046445 0.330044 -0.987137 -0.376104 0.738732 0.540919 0.965694 0.715284 0.789195 0.902816 0.171080 0.253416 0.657461 -0.154416 -0.828932 0.115710 -0.720318 0.472907 0.781166 -0.982072 0.774485 -0.333577 -0.561770 -0.490782 0.468457 0.080351 0.480168 -0.465265 -0.936342 0.037713 0.424937 0.017213 -0.632243 0.437800 0.641110 -0.893511 -0.021281 0.606804 0.821773 -0.232086 0.509620 -0.007147 -0.978669 0.167081 0.838437 -0.807601 -0.717209 -0.881881 0.665306 -0.936044 -0.863953 0.439791 -0.269621 -0.425722 0.949009 -0.801164 0.654629 0.429178 -0.266429 0.718287 -0.533109 -0.841491 -0.264500 -0.165352 0.596309 -0.623390 -0.058863 -0.424972 0.983414 -0.237090 0.342942 0.493033 0.755763 0.364273 -0.339886 0.594200 0.556672 -0.057095 0.712319 0.221978 0.006861 0.848366 -0.338231 0.737241 -0.577357 -0.389221 0.936077 -0.922728 -0.960044 -0.330352 0.795559 -0.493153 -0.171843 -0.468941 0.341495 -0.575534 -0.092331 -0.717368 -0.000507 -0.108918 0.045542 -0.657565 -0.615884 -0.198695 0.706708 0.044230 -0.604495 0.263380 0.987135 -0.892177 -0.514642 -0.006004 0.956189 0.147127 -0.268763 -0.621167 0.757905 -0.332686 -0.543895 0.797862 0.336962 -0.748337 -0.695292 -0.834881 -0.217278 0.646203 -0.410416 0.690391 0.928835 0.589078 -0.418526 -0.025624 0.931513 -0.034411 0.775681 0.638221 -0.990181 -0.828815 -0.098399 0.996954 -0.720991 0.386959 -0.009050 -0.764802 -0.465914 0.722187 -0.385969 -0.708009 -0.610500 0.070135 -0.910147 0.726462 0.321799 -0.605439 0.891581 -0.895479 -0.959236 -0.518835 0.794912 0.969599 -0.929757 -0.623614 -0.056025 -0.998244 0.341975 -0.280344 0.639977 0.351795 -0.109158 -0.458421 0.348749 0.169850 0.928537 -0.660301 0.405048 -0.537377 -0.938115 -0.980921 -0.245386 -0.548614 0.089214 -0.155533 -0.822152 -0.588988 0.239028 -0.930571 -0.484467 0.279792 -0.449406 -0.689554 0.249391 -0.379162 -0.313169 -0.806634 -0.377406 -0.971193 -0.086978 -0.737429 0.380601 0.803864 -0.195850 -0.270650 -0.026286 -0.267313 0.069048 -0.621238 0.195310 0.130934 -0.602159 0.949925 0.582320 0.487055 -0.205609 0.760167 0.898067 -0.966581 0.829596 -0.586399 0.313211 -0.619809 -0.275954 -0.437398 0.001028 0.410878 -0.244032 0.623622 0.439684 0.668990 
0.886194 -0.179715 0.472854 -0.309657 0.549635 -0.553432 0.423031 -0.381317 -0.174670 -0.381659 0.749617 0.223171 -0.431734 0.331937 -0.289774 0.362657 0.092104 -0.391707 0.396076 -0.078299 0.021894 -0.290713 0.301891 0.745940 0.271889 -0.697080 0.156818 -0.972143 0.926542 -0.403498 0.696847 0.812736 0.416788 0.169701 -0.496921 -0.033578 0.616268 0.926110 0.585106 -0.558402 -0.455549 0.334723 0.664769 0.112717 -0.333340 -0.625005 -0.524626 0.758764 -0.016711 0.871450 -0.319536 -0.994817 -0.419262 0.982355 0.751123 0.852627 -0.714725 -0.092059 0.880484 -0.788183 0.504443 0.577331 -0.975447 -0.078769 -0.252968 -0.472368 0.887653 -0.636700 -0.546259 0.472759 -0.195102 -0.001808 -0.192518 -0.530332 -0.889091 0.474141 -0.155337 -0.413717 0.232905 0.827951 -0.542267 0.913369 0.833134 0.038470 0.895725 0.584257 -0.108903 -0.819000 -0.507802 -0.228419 -0.607183 0.996641 -0.651088 -0.582630 -0.082128 0.095944 -0.054999 -0.194474 0.459244 0.398743 -0.721715 -0.735857 -0.603065 0.085767 -0.266190 -0.492156 -0.440092 0.578473 0.094126 0.792813 0.406424 0.551859 0.706183 0.239558 -0.409671 0.601907 -0.176185 0.481426 0.782907 0.316013 -0.746992 -0.824276 0.312654 -0.398080 -0.406906 -0.769473 0.697864 0.538095 0.036053 0.157109 -0.063162 0.314337 0.421251 0.333773 -0.599896 -0.844939 0.841617 -0.039987 0.733534 -0.064257 -0.247174 0.139958 -0.512398 -0.540991 -0.620484 0.077932 -0.939083 0.203331 -0.440642 0.843824 -0.480657 -0.187634 -0.980452 0.831998 0.414286 -0.387358 -0.937476 0.112150 -0.849262 0.098577 -0.730741 0.087576 -0.587086 0.690510 -0.578651 -0.186981 0.845571 -0.737034 0.773032 0.579105 0.198709 -0.474142 -0.280937 0.686312 -0.015133 0.098579 -0.235757 0.045783 -0.698090 0.323602 -0.110393 -0.178747 -0.864032 -0.090844 -0.346749 0.550254 0.521798 -0.284225 -0.337596 0.672535 0.814352 -0.068338 -0.239889 -0.772734 -0.377828 0.181461 0.040285 -0.532257 0.444427 -0.186684 -0.953152 -0.356864 0.339174 -0.234089 -0.670552 -0.675959 0.864491 0.093691 0.369825 -0.833600 -0.582707 -0.740568 -0.012346 -0.446739 0.168588 0.640905 -0.896486 -0.309615 -0.643320 -0.234082 -0.637079 -0.828968 0.697580 0.123032 -0.601702 -0.680248 -0.695507 0.438583 -0.212504 0.748919 -0.748101 -0.165656 -0.607944 0.591074 0.600255 -0.278497 0.915115 0.464746 0.815195 0.284940 0.631146 -0.767512 0.544372 -0.381200 -0.214251 -0.287041 -0.740295 -0.110737 0.403345 -0.383615 0.655181 0.766266 -0.212583 0.352761 -0.110702 0.185715 0.672513 0.193791 -0.375702 -0.539991 -0.057290 -0.123802 0.294353 0.334766 -0.532729 -0.105392 -0.943730 -0.617614 -0.640646 0.871464 0.667326 0.990500 -0.896048 0.211698 -0.390699 -0.110299 0.924657 -0.130994 0.778964 0.328002 0.485391 0.434144 0.094268 -0.727192 -0.213095 0.983566 0.458523 -0.540582 0.177357 -0.917179 -0.080573 -0.879932 -0.040981 -0.786220 0.454834 0.426290 0.108388 0.511103 0.808677 0.467742 0.382568 0.476003 0.458242 0.486520 -0.312299 -0.932458 -0.623779 -0.387642 -0.063452 -0.844815 0.940360 -0.578061 0.589329 0.034628 -0.305253 -0.623766 0.018195 -0.846730 -0.164348 -0.804448 -0.763909 0.755079 -0.684380 0.195110 0.968858 0.770453 -0.378599 0.077246 0.281557 -0.569923 -0.455013 -0.335876 0.906080 -0.996771 -0.849355 -0.406219 -0.929228 -0.473134 0.206139 0.007320 -0.317950 0.146499 0.429259 -0.728621 -0.818872 -0.875994 -0.352387 0.199322 -0.722724 0.483265 0.394874 -0.486633 0.238343 0.710494 0.708477 0.207202 0.480947 -0.670122 -0.715552 -0.237496 -0.240045 -0.170565 0.426628 -0.333965 -0.167335 0.577273 0.259816 -0.096563 -0.895862 -0.534046 0.910757 -0.213811 0.612454 0.340016 0.057568 0.793581 0.464021 0.705181 -0.007097 0.741297 0.188446 -0.612222 -0.745336 -0.573211 -0.901729 0.963141 0.633991 0.579218 -0.706982 0.918439 -0.658278 0.052973 -0.252126 0.768350 0.719008 0.580538 0.345623 -0.021176 -0.516025 0.449761 0.444778 -0.605268 -0.764050 0.057232 0.734747 0.293518 -0.149187 0.198768 -0.001302 0.843716 -0.059935 -0.812856 -0.768506 0.194729 -0.386067 -0.670235 0.157870 -0.752076 0.908983 0.450888 -0.833638 -0.749295 -0.496139 -0.085764 -0.980945 -0.777131 -0.505225 0.364678 0.201693 -0.021250 -0.185561 -0.353529 0.373481 0.050389 0.703703 0.108228 -0.656094 -0.445484 -0.693003 0.342605 -0.601768 0.247062 0.529748 -0.370274 -0.558209 -0.856319 -0.040509 0.599661 -0.608395 -0.131526 0.050549 -0.442033 0.119180 0.554410 0.472203 0.138235 0.777280 0.966978 -0.497087 -0.021027 -0.054273 0.317352 0.625444 -0.680791 -0.632259 0.329146 0.427437 -0.288353 0.883662 0.734434 -0.945749 -0.718106 -0.018504 0.584000 -0.088380 0.423287 0.727681 0.871111 0.022948 -0.880714 -0.260415 -0.926503 -0.322747 0.858765 0.627907 -0.850543 -0.003000 0.405187 -0.883565 0.499913 -0.615841 0.062162 -0.182735 -0.990397 0.381371 0.185005 0.338749 -0.191192 0.896652 0.222411 -0.456759 0.950903 0.504305 0.524737 0.534903 -0.584075 -0.051977 0.262584 -0.712965 0.970971 0.381870 0.026621 -0.955532 -0.940876 -0.114614 0.672375 -0.791420 0.882386 0.077561 -0.674985 0.382299 0.461721 0.387177 -0.800436 0.471324 -0.231452 0.384569 -0.189927 0.577356 0.281221 -0.967516 -0.879403 0.232124 0.536789 0.645334 -0.232973 0.952714 -0.406643 -0.970389 -0.760251 -0.435672 0.411482 0.266370 -0.391204 0.470605 -0.848244 -0.718830 0.679186 -0.965858 0.358732 -0.995799 0.416440 -0.179548 0.391378 0.616004 -0.708224 -0.840074 0.000573 0.101849 0.737281 -0.718206 0.134333 0.857878 0.513918 -0.328878 0.503212 -0.719054 -0.376164 -0.903431 -0.689443 -0.136415 -0.339103 0.722039 -0.870045 0.269693 0.192644 -0.718289 0.550863 -0.128170 -0.684148 -0.090405 -0.123970 0.732293 0.730047 -0.732592 0.348296 -0.978176 -0.572666 -0.651131 0.123673 -0.835385 -0.369337 -0.741994 -0.977507 -0.855419 -0.070872 0.525705 -0.574473 0.552964 0.622274 -0.263916 -0.583451 -0.716828 -0.541877 -0.453496 0.552864 0.650767 -0.171785 0.103728 -0.477404 0.144067 -0.986678 0.398626 -0.123640 0.743370 0.666034 -0.775343 0.765193 -0.906632 -0.426474 -0.111134 -0.742017 0.204189 0.146872 -0.719524 0.348771 -0.924000 0.806181 0.774298 0.628964 0.428456 -0.489618 -0.954486 0.711627 -0.031496 -0.407982 0.264492 -0.380729 0.420233 -0.631781 0.141868 -0.435699 -0.618458 -0.459506 0.440661 -0.875088 -0.793472 0.665317 0.890105 -0.700104 -0.761157 -0.221029 -0.442121 0.443032 0.925843 -0.161645 -0.208197 -0.998157 -0.355463 -0.433900 0.630807 -0.927007 0.076482 0.676321 0.784620 -0.955013 -0.731661 0.049112 -0.335742 0.688572 0.417332 0.806125 -0.747128 0.798874 -0.653381 0.693533 0.923785 -0.446852 0.358850 0.813891 -0.146956 0.597693 -0.407138 0.410923 0.040725 -0.481296 -0.750721 0.832528 -0.479453 -0.106185 -0.601371 -0.848645 -0.033192 0.475111 0.827675 -0.248571 0.520097 -0.903986 0.800541 -0.815645 0.784586 0.217873 0.990480 -0.962542 0.016746 -0.662900 0.730991 -0.059468 -0.109753 0.089841 -0.245578 0.743291 -0.312466 0.347284 0.154214 0.728260 0.865988 0.403493 0.560788 -0.613464 -0.702692 0.959416 -0.462110 0.264117 0.434527 -0.634435 -0.984455 -0.045376 -0.538421 0.816086 0.138979 -0.753835 0.033959 0.129459 -0.716377 -0.949295 0.466559 -0.985386 -0.008763 -0.643194 0.104454 0.745659 -0.899902 0.791989 0.092943 0.254312 0.520248 -0.041069 -0.342195 0.081036 0.345467 -0.044886 0.040452 0.883357 -0.780770 -0.525021 -0.751077 -0.765224 0.429604 -0.289498 -0.949138 -0.431417 -0.043333 0.084821 0.698042 0.240290 0.135526 0.164601 0.254903 -0.873237 0.521408 -0.640642 0.872423 0.621505 -0.848654 -0.034634 -0.124183 0.671595 0.924297 0.533623 -0.247369 0.269764 -0.511264 0.793083 0.153122 -0.292034 -0.731938 0.402044 -0.057258 0.697666 -0.887454 -0.006396 -0.733752 0.069213 -0.921575 0.964290 -0.690497 0.213951 0.128892 0.564406 0.340715 -0.349701 0.923764 0.213137 -0.728196 -0.924889 -0.821497 0.147622 0.746705 -0.897199 -0.318756 -0.500664 0.372565 0.169980 -0.707582 -0.474313 0.877947 -0.439519 0.927731 -0.179311 -0.741854 -0.959723 0.814293 -0.475605 0.109490 0.892718 -0.511315 0.418993 0.106669 0.617577 -0.016600 -0.552616 -0.732124 -0.092836 0.660521 -0.460319 -0.017726 0.839024 0.687302 -0.271020 0.941825 -0.631453 0.228315 0.314390 0.538527 0.520734 0.840077 0.416474 -0.918786 0.767808 -0.762837 -0.660639 0.808085 -0.948544 -0.136244 -0.082425 0.944175 0.352441 -0.663431 0.050844 -0.029982 0.319968 0.498228 0.237894 -0.772868 0.158749 0.777575 0.209407 -0.002226 0.464877 0.938386 -0.060401 0.833424 0.166702 -0.746011 0.371951 -0.312564 -0.905935 -0.211575 -0.231350 0.861873 0.025589 0.108011 0.669958 0.077045 0.971766 -0.412467 0.021220 0.324207 -0.075898 -0.927936 -0.705775 -0.755930 0.570292 0.532119 -0.528797 -0.270959 0.309694 0.680610 0.726815 -0.225429 0.618996 -0.333586 -0.392005 -0.214302 -0.079597 0.979946 0.473134 0.014468 -0.231629 -0.758217 -0.123659 0.793960 0.349794 -0.453701 -0.128995 0.321560 0.133832 0.892224 -0.354232 -0.942066 0.964288 -0.060007 -0.697995 0.534580 -0.527888 -0.226792 -0.736378 0.781806 -0.546183 0.990437 -0.443623 -0.927186 -0.343149 0.164371 -0.141488 0.577254 0.144317 -0.668355 -0.408278 0.912688 -0.426571 0.468063 0.706648 0.923223 -0.985638 -0.422348 0.244783 0.148194 -0.530123 0.890551 0.206128 -0.565835 -0.169456 0.508133 0.968745 0.302656 -0.718659 -0.767633 0.084462 -0.264842 -0.777196 0.640838 -0.192028 -0.120345 -0.194791 0.666484 -0.543091 0.949527 0.998129 0.048630 0.862215 -0.428442 -0.483307 0.568862 -0.505219 -0.468946 -0.853485 0.739565 0.679248 -0.383609 0.630116 -0.114623 0.050556 -0.539340 -0.606490 0.019302 0.763316 -0.325149 0.251669 -0.152223 0.410009 0.474473 -0.511385 -0.782019 -0.645872 0.293825 0.884465 -0.188963 0.243351 0.882594 0.859667 0.105566 -0.545848 -0.623640 -0.325572 -0.051067 -0.092586 -0.179057 -0.311502 -0.413337 0.437335 -0.681386 0.472039 -0.512109 -0.220727 0.865549 0.507193 -0.457411 -0.459600 -0.241138 0.390366 0.950408 -0.766665 0.878981 -0.831611 -0.412537 0.172806 -0.947146 0.398500 -0.583842 0.935448 0.258167 0.521724 -0.610400 0.634526 -0.803848 0.338533 -0.458059 0.017095 -0.972969 0.128603 -0.545570 -0.654356 -0.399358 -0.057679 0.124917 -0.533809 -0.550487 0.667506 0.006591 0.208375 0.057873 -0.043001 0.441710 -0.063146 0.125388 -0.970827 -0.890340 0.178242 0.427673 -0.474182 0.113689 -0.314161 -0.952459 0.503289 -0.679634 -0.756307 -0.158178 -0.137694 0.260788 -0.131148 0.990909 0.715218 0.214496 -0.408448 -0.342462 -0.660586 0.057743 0.107051 -0.993080 -0.935666 -0.684574 0.064793 0.021333 0.757136 -0.998353 -0.853279 0.786309 -0.888693 0.324963 0.213981 -0.362875 -0.561347 0.899821 -0.315334 0.941942 -0.779813 -0.071641 -0.216237 0.082493 -0.810853 0.652615 0.073402 0.904364 -0.132888 0.664954 -0.438098 0.206526 -0.277303 0.668954 0.213446 -0.212969 0.984380 -0.721761 0.808364 0.741516 -0.720115 0.955085 0.527825 -0.608808 0.280048 -0.258193 0.028317 0.718701 -0.358373 0.712982 0.660642 -0.138186 -0.358659 -0.555595 0.944307 -0.169512 -0.902979 0.017709 -0.265148 -0.035867 -0.317337 0.296755 -0.829342 0.405360 -0.034291 0.384104 -0.807610 -0.049911 0.662343 -0.999246 -0.308395 0.942228 0.955839 -0.780570 -0.666579 0.235887 -0.038763 0.361737 -0.045413 0.602864 0.074720 -0.384771 -0.535322 0.716061 0.059635 -0.591015 -0.453451 0.156656 0.426694 0.281401 -0.879212 -0.890644 -0.421844 -0.708554 0.514716 0.543865 0.675551 0.707106 -0.506046 0.337894 0.707860 0.185559 0.280122 0.663699 0.404990 0.613542 -0.100415 -0.633773 -0.024720 0.854173 0.969091 -0.950001 -0.530598 -0.566231 0.766060 0.529037 -0.157246 -0.687391 -0.314308 -0.730552 0.594011 -0.193520 -0.621196 -0.827833 0.097927 0.893520 0.716032 -0.226523 0.600626 -0.790014 -0.888629 0.308486 0.395546 0.391493 -0.027815 -0.199464 0.005035 0.871770 0.166762 0.980315 0.725943 0.135853 -0.969686 -0.804655 0.569623 0.796374 0.724381 -0.587623 -0.891017 -0.589927 -0.318176 0.702994 0.216554 0.060628 0.875161 -0.685520 -0.045852 0.591193 0.087958 -0.445225 0.801180 0.199329 0.863261 0.196726 -0.409178 -0.164554 0.997261 0.595857 -0.292784 0.164024 0.576172 -0.566841 -0.700123 0.606486 -0.371497 0.869500 0.402861 -0.647116 -0.718123 0.511844 -0.237042 -0.036299 0.214838 0.979511 -0.975671 0.089999 -0.706008 -0.021522 -0.318807 0.381950 0.533252 -0.517628 -0.418721 0.396513 0.679098 0.172101 -0.768041 0.676359 -0.232042 -0.060825 -0.159617 -0.655870 0.372333 0.140260 0.950617 -0.999164 0.009760 0.353478 -0.646280 0.291636 -0.134678 0.116678 -0.744663 -0.919840 0.096189 -0.720333 0.170159 0.390181 0.258145 0.851352 -0.227869 -0.208603 -0.666276 0.353410 -0.812090 -0.987178 -0.474489 -0.580131 0.689181 0.293469 0.359044 -0.470436 0.637599 -0.268623 0.669824 0.588216 -0.267787 -0.320416 -0.058307 0.085933 0.971220 0.807015 -0.797389 -0.773442 0.887175 0.298801 -0.493776 0.057335 -0.311018 0.764369 -0.091314 0.461113 -0.444234 0.242411 -0.185478 -0.256324 0.255233 0.340033 0.163545 -0.055586 -0.366498 -0.477411 0.473977 -0.728899 0.253965 0.143801 0.859317 0.986178 0.823385 -0.198990 0.072111 0.794605 -0.391975 0.274722 -0.978837 -0.504799 -0.426477 -0.472613 0.552535 0.262505 -0.708244 -0.538778 -0.276383 -0.152478 0.703632 0.538140 0.591199 -0.041135 -0.121827 -0.245256 0.903278 0.511675 0.277333 0.377255 0.782776 -0.468702 -0.478943 0.642092 -0.482524 -0.655559 -0.556897 0.589588 -0.860953 0.051128 -0.135690 -0.839791 0.546328 0.437833 -0.312403 0.098863 -0.299662 -0.020647 0.560085 0.423955 0.826875 0.263717 -0.037905 0.418074 -0.777418 0.840268 -0.827182 -0.874140 0.351942 0.450151 0.503115 0.134718 0.981450 -0.975828 -0.223190 -0.501074 -0.631387 0.219913 -0.911486 -0.492340 -0.728959 -0.047176 -0.332131 0.817369 -0.609343 0.355466 -0.083768 0.090994 -0.665182 -0.523683 -0.485051 -0.838306 0.740034 0.477044 0.579768 0.962616 0.317311 0.752586 -0.911525 -0.330746 0.202737 0.591591 0.803971 0.184187 0.615762 -0.419218 0.683113 0.984375 0.800695 0.771626 -0.507965 -0.928265 -0.275550 0.159904 0.889104 0.115107 -0.484630 -0.194663 -0.793899 -0.149812 0.281654 -0.278950 0.011882 0.021688 -0.801907 -0.408351 -0.015696 0.515404 -0.655765 0.072779 -0.815342 0.546972 -0.335630 0.988629 -0.268841 -0.719868 -0.430589 -0.585729 -0.735493 -0.629894 -0.814102 -0.243458 -0.558159 -0.089652 0.916446 -0.669055 -0.974546 -0.568184 0.136282 -0.768445 0.282004 -0.582065 -0.047395 -0.706114 0.439623 0.150698 -0.114465 -0.576073 -0.333898 0.229770 0.496706 -0.149240 -0.223258 -0.838924 -0.160610 0.507901 -0.558792 0.408801 0.922172 -0.294285 0.778907 -0.891930 0.462258 -0.779252 0.018418 0.378704 -0.448307 0.043872 0.810520 0.687975 0.275427 0.092524 -0.894090 -0.771968 0.386410 0.545534 0.378730 -0.728056 0.969461 -0.955167 0.501714 0.466167 -0.104407 -0.721544 0.627243 0.734983 0.786357 -0.931549 0.143784 0.708529 -0.225834 -0.077309 0.816598 -0.763576 0.143439 -0.164984 0.615128 0.695133 0.878888 0.425648 0.383108 0.154316 -0.481828 0.489018 0.382348 0.904582 0.034552 -0.238922 -0.823474 0.004013 -0.194089 0.678240 -0.529820 0.701504 0.956696 -0.902577 0.436487 0.743052 -0.834126 -0.419729 0.451581 -0.059959 0.502962 0.268179 0.176464 -0.353599 -0.896804 -0.208407 -0.658466 0.982084 -0.782759 0.724642 0.136400 -0.264587 0.213660 -0.481252 -0.360006 -0.751789 0.279826 -0.183480 0.252224 -0.914264 -0.505240 0.722404 0.787240 -0.548544 0.819827 0.223727 -0.805492 0.985702 0.803998 0.646089 -0.074258 0.306960 -0.085731 -0.897793 0.953361 0.017464 -0.106201 -0.705105 -0.000452 0.111040 -0.980463 -0.864052 0.846452 0.233196 -0.345304 -0.513553 0.481408 0.934522 0.302967 -0.266368 -0.979742 0.797727 -0.543964 0.807498 -0.750818 -0.724136 0.031225 -0.556309 -0.738435 -0.164777 -0.910220 0.187307 -0.857817 0.004048 0.289514 -0.904456 -0.978487 -0.816687 -0.609560 0.021061 0.294353 -0.590023 0.157009 0.140805 0.643173 0.811705 0.627252 0.124581 0.746227 -0.069782 0.858213 0.766485 -0.272055 -0.685751 0.573984 -0.022872 -0.409887 -0.394791 0.420818 -0.148322 0.440432 0.510598 -0.961015 0.582615 -0.485353 0.328499 0.678160 -0.463841 0.511812 -0.931400 0.557220 -0.193836 -0.521424 -0.285770 0.946969 -0.878251 -0.474065 0.574221 0.246330 -0.727838 -0.495560 0.104543 -0.961352 0.232385 0.418792 0.612631 -0.790488 -0.991096 -0.782159 0.630331 -0.139418 0.658273 0.140929 -0.100433 0.240888 0.655575 -0.771934 -0.080952 -0.808266 0.739877 -0.012352 0.748955 -0.453958 0.466224 -0.536816 -0.506989 0.587973 -0.010881 -0.932768 -0.165697 0.261282 -0.428328 0.938846 0.299929 0.804056 0.357638 -0.087440 -0.986431 0.366542 0.130401 0.643899 -0.772876 -0.211326 -0.215172 0.126691 -0.970438 -0.559597 0.354756 -0.051390 -0.367862 0.094634 0.936258 -0.618908 0.640675 0.402482 -0.155723 -0.866314 -0.009544 0.833396 -0.799082 0.824759 0.094678 -0.227410 0.763605 -0.605393 -0.423354 0.121243 0.307167 -0.409785 -0.512215 -0.562432 -0.765886 -0.285092 0.226242 0.018942 0.841599 0.255804 0.459345 0.196355 -0.795585 -0.908518 -0.709011 -0.859327 -0.527425 0.931664 0.543155 0.316851 -0.934649 -0.466389 0.150247 -0.733731 -0.641630 -0.755075 0.038859 -0.878025 -0.360469 0.615505 0.243218 0.946698 -0.794280 0.731003 -0.615733 -0.560166 -0.554089 0.610509 0.458775 -0.712490 -0.133687 -0.081880 0.483866 0.070728 0.009602 0.774855 0.211401 0.482177 0.706519 -0.245444 -0.200972 0.771870 0.288167 0.949275 -0.961861 0.646537 -0.805800 0.076998 0.768513 -0.166268 -0.307497 0.011731 -0.219570 -0.101778 -0.257267 0.164697 0.338056 0.188644 -0.224795 -0.203169 0.476154 0.641518 0.714951 -0.039980 -0.287754 -0.275446 -0.265125 0.923646 -0.793269 -0.558606 -0.321798 0.005759 -0.786737 0.966370 -0.044966 -0.748598 0.612907 0.149234 0.328399 0.381420 0.982966 -0.979098 -0.606849 -0.236604 -0.080876 0.135884 0.928092 -0.742820 -0.675472 -0.296702 0.054011 0.800683 -0.655184 -0.231038 -0.239297 0.057061 0.493516 0.495577 -0.019292 0.700247 0.936971 0.658910 -0.293994 -0.849766 0.625280 0.661040 -0.598364 0.238187 -0.189726 0.730036 -0.380393 -0.206760 0.750937 0.012757 0.556636 -0.329938 -0.851359 0.484729 -0.072758 -0.526831 -0.811974 0.981253 -0.726148 -0.467158 -0.249785 0.034555 0.589903 -0.756269 -0.469868 -0.429389 0.943978 -0.532897 -0.770479 -0.350017 -0.382663 0.854801 -0.688977 0.018973 0.092987 0.121297 -0.250992 0.712594 0.914538 -0.500054 -0.274648 0.471174 0.170008 -0.126007 -0.044097 -0.902751 0.347162 0.143929 -0.921498 0.621014 0.676771 -0.171283 -0.344431 0.266674 0.072448 0.185701 0.837284 0.016425 0.652804 -0.933195 0.666409 -0.729860 0.921606 0.977432 0.289113 0.014593 0.098729 -0.961878 -0.272813 0.013267 -0.461932 0.452539 -0.515559 0.708075 -0.673468 0.440344 0.805324 0.673694 -0.415728 0.883826 0.294709 -0.738957 -0.287457 0.950278 0.527716 0.784990 0.135979 0.365001 -0.198584 -0.211217 0.431806 -0.532175 0.058923 0.353411 -0.554743 -0.651964 -0.631995 0.543986 -0.613842 0.095192 -0.442747 -0.075774 -0.452269 0.041694 -0.367699 -0.125737 -0.517962 -0.562375 -0.452042 0.066310 -0.678549 0.842667 0.327353 0.033993 0.792945 -0.144931 -0.181016 -0.071076 -0.779931 0.620400 0.717706 0.651875 -0.911775 -0.223371 0.005287 -0.466519 0.124666 0.373291 -0.922533 0.510824 -0.531517 -0.365280 -0.564951 0.016215 0.676415 0.067350 0.890478 -0.841548 0.504975 -0.561564 0.224762 0.826425 -0.718898 -0.447885 -0.139582 -0.925953 0.407184 0.679402 0.002971 0.627253 0.299802 -0.279322 0.279128 0.388027 0.497307 -0.715585 0.921508 -0.378027 0.657706 0.998975 -0.867203 -0.873810 -0.366305 -0.432154 0.142405 -0.689890 0.635196 0.032882 -0.531438 0.140170 0.471318 0.693325 -0.033405 0.752421 -0.754561 0.827014 0.826468 0.652623 0.506416 -0.170561 0.279876 -0.193782 0.550117 -0.440995 -0.805755 0.047424 -0.156580 -0.884247 0.669396 -0.498874 -0.885272 0.802193 -0.372684 -0.251577 -0.629961 0.769721 0.058533 -0.994765 -0.197397 0.527095 0.145405 -0.726079 0.220420 -0.888000 -0.973658 0.465859 0.939014 0.852810 0.118482 0.445430 -0.317751 -0.601641 -0.748352 -0.767635 -0.042636 -0.554107 0.279789 0.800784 -0.438354 -0.050815 -0.698090 -0.323626 -0.248622 -0.070773 0.424797 0.121417 -0.301053 -0.516670 0.126652 0.501551 -0.989575 -0.727943 0.775472 0.230845 -0.615943 0.801814 -0.303295 -0.676929 0.654624 0.815187 0.768501 -0.663127 -0.786454 -0.979850 -0.430762 0.170910 -0.533957 0.849027 -0.028307 0.027689 -0.201787 0.273603 0.704063 0.549591 -0.797170 0.128860 -0.328991 -0.098223 0.612190 0.797661 -0.596672 0.622615 -0.930283 -0.821199 -0.146540 -0.546226 0.980615 0.550164 -0.223155 0.635239 0.365351 -0.454653 0.972112 0.578897 -0.434503 -0.458649 -0.250193 0.031540 -0.609622 0.721500 -0.940771 0.188591 -0.004897 0.763292 -0.261818 0.197933 -0.107848 0.409191 -0.900289 -0.495659 0.206851 -0.496961 -0.873044 0.276569 -0.318160 -0.019584 0.730343 -0.337546 -0.469420 -0.492812 -0.702306 0.895932 0.052535 -0.730194 0.474829 0.618032 -0.188844 -0.775364 -0.350428 0.201534 0.946136 -0.291199 -0.609875 -0.058761 -0.527907 0.128307 -0.860827 0.364244 -0.462503 -0.761117 0.868585 0.744348 -0.258077 0.995541 0.020917 0.423762 -0.024043 -0.248740 -0.913783 0.506538 0.258448 -0.616090 0.402470 -0.689016 -0.346284 -0.122701 0.929016 0.464872 0.101935 -0.421413 -0.333594 0.048071 0.287388 0.056531 0.989310 0.759481 -0.815162 -0.871517 0.123725 -0.277665 -0.632634 -0.007690 -0.533316 0.109289 -0.012149 0.487601 -0.466949 0.963809 -0.761139 -0.380732 0.470347 0.497309 0.003178 -0.127184 0.808293 0.656894 0.750115 0.737308 0.121766 -0.147950 -0.684104 0.788173 0.900121 0.603284 -0.155296 0.889431 0.362764 0.029541 -0.982086 -0.513511 0.751877 -0.614719 0.478799 -0.781440 0.494570 -0.533350 0.706161 -0.972379 -0.569541 0.945021 -0.353111 0.900806 0.442330 0.650067 -0.226378 0.250623 0.306961 -0.476262 -0.012068 -0.571273 0.375788 0.303827 -0.783100 0.275909 -0.092889 0.061603 0.165341 -0.730125 -0.908855 0.183255 -0.243636 0.843021 0.568535 -0.764837 -0.938418 0.063105 -0.298187 0.767742 0.090726 0.132273 0.712764 0.737614 0.033079 0.155094 0.387681 0.806701 -0.594283 -0.305358 -0.669561 0.393649 0.123370 0.706227 -0.302524 0.340269 -0.017864 0.604587 -0.598127 -0.852523 0.874462 -0.506982 0.330732 -0.369174 -0.663961 -0.100733 -0.134011 -0.602379 0.962372 0.567803 -0.834637 0.053098 -0.299925 0.878127 -0.209288 0.733154 0.033221 -0.821606 0.539855 0.438938 -0.126964 0.870294 -0.167413 0.996406 0.576521 0.530063 0.336675 -0.441343 0.134650 0.738548 -0.293866 0.009112 -0.768434 -0.963134 0.639938 -0.432395 -0.063867 -0.494073 -0.034774 -0.101495 -0.926270 0.130589 0.951603 -0.226195 0.008716 -0.257684 -0.493041 -0.958063 -0.079290 -0.953186 0.480875 0.793746 0.917108 -0.686539 0.790151 0.493628 0.843524 0.126827 -0.947715 -0.021826 -0.134625 -0.241581 0.987285 0.096941 -0.204715 0.627223 0.664546 0.731418 -0.866850 -0.370228 -0.370077 -0.793120 0.760362 -0.418473 -0.019315 -0.230922 0.323843 0.487644 -0.188985 -0.755448 0.534458 -0.708110 -0.961702 0.451566 -0.394649 0.828450 -0.054806 -0.551125 -0.044724 -0.002520 0.427049 0.820651 0.755899 0.414334 -0.082409 -0.448816 0.041557 -0.417863 -0.717398 0.174708 0.211910 -0.087475 0.381588 -0.027729 0.494052 -0.637727 0.741349 -0.182106 0.849917 -0.447636 0.062447 0.384376 -0.155746 0.100745 -0.164058 0.449606 -0.070806 0.781136 0.898481 0.884471 -0.221384 0.325530 0.705121 -0.465485 -0.260136 -0.377287 0.085699 0.781421 0.204850 0.368300 -0.043871 -0.583240 -0.719175 -0.662284 0.389031 0.774877 -0.300011 0.130380 -0.407229 -0.450093 0.682745 0.655218 0.934283 -0.473001 -0.244038 -0.229775 0.976605 0.685157 -0.448639 0.875086 0.569627 0.329977 0.200615 0.274749 0.864492 0.940479 0.897461 -0.049809 0.721900 0.102311 -0.681509 -0.321971 0.519071 -0.400684 0.015745 -0.091898 -0.625807 0.715735 -0.961517 -0.033036 -0.734358 0.721228 -0.377818 -0.800076 -0.751773 0.378144 -0.029851 -0.775169 0.063301 0.521510 -0.900083 -0.367072 -0.148513 0.300533 0.907677 -0.284021 0.241012 0.805138 0.666170 -0.037088 -0.092550 0.984661 0.640941 -0.573479 -0.416023 -0.343313 0.334623 -0.041830 -0.627579 0.373106 0.925134 -0.361937 0.094334 -0.452684 -0.162013 0.342560 0.925460 0.808136 0.567392 
-0.011239 0.329646 0.667309 0.621689 -0.818868 -0.032159 0.529366 -0.102889 -0.791147 0.334505 -0.436719 0.171765 -0.758045 -0.452058 -0.187293 -0.331524 0.131919 0.469393 -0.996901 -0.909910 0.841815 0.376205 -0.984776 -0.520122 -0.529461 -0.437460 0.317865 0.813099 -0.511999 0.126001 0.380491 0.476762 -0.544354 0.047799 0.098451 -0.363221 -0.984359 -0.372182 0.533890 -0.775506 0.962323 -0.902829 0.396260 -0.795723 -0.354887 -0.791034 -0.127247 0.777032 0.678359 -0.124148 0.867122 0.520174 -0.747942 0.882346 -0.999949 -0.277404 -0.555113 0.317916 -0.464305 -0.067113 -0.556083 0.916186 -0.590351 -0.100437 -0.036014 0.508101 0.536342 -0.020374 -0.864082 0.070232 0.204121 -0.901759 0.167403 -0.399620 -0.697482 0.812516 -0.190654 0.175271 0.589549 -0.512294 -0.948876 0.456671 -0.992120 -0.696819 0.339017 -0.992069 0.025778 0.783904 0.325847 0.561473 -0.283209 0.769764 0.477659 0.126441 -0.330672 -0.558355 -0.365459 -0.794330 0.421271 -0.229541 0.275902 -0.374608 -0.131300 -0.556695 0.225772 0.171218 -0.744179 -0.964881 -0.653510 0.845370 -0.477176 -0.602386 0.302040 -0.469296 -0.299205 -0.358942 -0.461364 0.726573 -0.575038 0.864483 0.288046 0.141753 0.634247 -0.234294 -0.731806 -0.696425 0.207351 -0.097265 -0.490755 -0.371378 0.673194 0.785146 0.254014 -0.458106 -0.771549 -0.520214 0.713113 -0.515727 -0.485096 -0.940398 -0.670358 0.037729 -0.542784 0.631683 0.568433 0.158011 -0.727260 -0.892931 -0.115416 -0.302298 0.971552 -0.827369 0.839455 0.605799 -0.061664 -0.892352 0.909374 -0.854313 0.010383 -0.581381 -0.225691 -0.316423 -0.796235 -0.971677 0.225471 -0.567783 -0.491892 -0.061416 -0.083511 0.023013 -0.001814 0.246131 -0.939258 0.455402 -0.122186 0.629175 -0.386586 0.150554 0.736243 0.497998 0.848256 0.707795 0.670629 0.687711 0.313594 -0.391035 0.795360 0.222968 -0.245348 -0.194257 0.641586 0.528961 0.489320 0.845351 0.557283 -0.285209 -0.722432 -0.934608 0.653375 0.194057 0.088404 -0.348438 -0.559812 0.149146 -0.893036 0.318003 -0.221680 -0.279622 -0.531443 -0.485436 -0.781624 -0.683187 -0.777642 0.889004 -0.995475 0.535952 -0.502031 0.799884 -0.241080 0.252621 -0.394373 -0.599494 -0.218418 -0.905052 -0.754143 -0.661135 -0.190261 -0.476575 -0.595743 -0.536886 0.717482 0.492661 0.114676 -0.842329 -0.358193 0.221640 0.475673 0.420127 0.942018 0.944230 0.934691 -0.839606 -0.738956 -0.842951 -0.950602 -0.734431 0.693001 -0.452633 -0.934547 -0.548079 0.799988 -0.328920 -0.147573 -0.418430 -0.233972 0.098284 -0.079565 0.575767 0.621709 0.324692 -0.961119 0.339191 -0.182647 0.153557 0.496862 0.459159 -0.624802 -0.027465 -0.120713 -0.682784 -0.083235 -0.186022 -0.522390 0.177809 -0.028973 -0.472992 0.443378 -0.335972 0.074375 0.508831 0.115949 -0.125637 -0.820089 0.968376 0.455934 -0.054061 0.066660 -0.623631 -0.478294 -0.311631 0.701060 -0.439413 -0.972440 -0.481587 0.714145 0.524422 0.977573 -0.910657 -0.503043 -0.143141 -0.593442 0.413722 0.670837 -0.115832 -0.408469 -0.358136 0.411176 -0.965092 0.305892 -0.514449 0.543739 -0.578158 0.359914 0.723650 -0.609783 -0.184152 -0.330411 0.456877 0.192217 0.191295 -0.854754 -0.106723 0.751883 -0.827194 0.411690 0.466028 0.697227 0.389263 0.555370 -0.805816 -0.753878 0.961929 0.607906 0.916959 -0.153903 -0.800564 -0.441177 -0.742727 -0.765655 0.864715 -0.257176 0.778084 -0.713443 -0.897262 0.501734 -0.323226 -0.081414 -0.828676 -0.866348 -0.889197 0.362619 -0.721102 0.004080 0.114502 -0.548297 -0.584230 -0.419470 -0.851069 0.805032 -0.864100 -0.656886 -0.948846 -0.902172 0.951020 0.968113 -0.056075 -0.849544 -0.473064 0.201198 -0.615199 -0.608349 0.944021 -0.837115 -0.321792 -0.953240 0.664620 0.354982 -0.034654 0.835944 0.488633 0.076149 0.198563 0.767531 -0.919772 -0.686935 -0.780766 -0.504002 -0.106406 -0.631835 -0.698970 0.029494 -0.288721 -0.647816 0.127322 -0.337701 -0.679703 -0.928753 -0.187245 -0.152767 0.272445 0.197557 0.238883 0.216466 0.360442 0.917091 0.263226 0.025062 0.272073 -0.771428 -0.138994 -0.239294 0.304720 -0.940431 -0.471763 0.384949 -0.627366 -0.252528 0.880946 0.266228 0.115636 -0.818024 -0.704278 0.826916 -0.465839 0.423045 -0.510785 -0.145542 0.494292 0.301970 0.701690 -0.233263 -0.500473 -0.059426 0.983203 0.859969 -0.142335 0.246429 -0.114969 -0.870262 0.475001 0.746037 -0.109556 -0.220279 0.805606 0.418682 -0.835330 -0.821760 -0.833847 -0.954383 0.444468 0.281790 -0.772407 0.740190 0.108705 -0.238246 0.163235 0.597920 0.616211 -0.342473 -0.100110 0.317901 0.424264 0.399417 -0.741525 0.407467 0.259385 0.116140 -0.346104 -0.855584 0.245877 -0.871103 0.890453 -0.863678 -0.091381 0.696059 0.555003 0.073289 0.874299 0.721157 0.118905 0.318767 0.002947 0.346498 0.058957 -0.888348 -0.891748 -0.777808 0.709572 0.724463 -0.120281 -0.390538 0.042364 -0.696017 -0.991121 0.300839 0.711450 0.268264 -0.583021 -0.634654 0.412680 0.662857 -0.505757 0.303134 0.799178 0.402862 -0.000807 0.354182 -0.523849 -0.126509 0.075339 0.595056 -0.807742 -0.921715 -0.058446 0.251215 -0.810063 0.049806 0.473407 0.899509 -0.225731 -0.646874 -0.491028 0.816634 -0.342891 -0.482150 0.117473 -0.631441 0.786114 0.534453 -0.266094 0.198794 0.197309 0.228149 -0.498072 -0.003512 -0.368989 0.501121 -0.649330 0.107162 -0.625388 0.426008 -0.297782 -0.433130 0.504293 0.643772 0.818085 0.694231 -0.306421 0.291492 0.593740 0.467848 0.644618 -0.897288 0.284482 -0.698272 -0.379438 -0.598045 -0.329713 -0.593324 0.936408 0.404193 0.605470 0.133717 -0.367658 -0.892602 -0.869795 0.263353 0.608519 -0.519126 -0.629485 0.983131 0.906882 0.072733 -0.450000 0.411176 -0.283495 -0.631915 0.105406 0.410083 0.659577 -0.300853 -0.122069 0.304195 -0.198142 -0.837587 0.605923 0.422420 -0.435632 -0.723790 0.829096 -0.499224 0.680402 0.434567 0.634493 -0.687256 0.541965 0.764697 0.576096 0.150484 -0.754429 0.946611 0.133614 -0.847547 0.019343 0.683614 0.563629 0.735848 -0.948301 -0.330965 0.145932 0.711276 0.368182 -0.976137 0.015471 -0.829960 -0.813724 -0.378607 0.592461 -0.249356 -0.102397 0.421557 0.251420 -0.421995 -0.143876 -0.114087 -0.109251 -0.601911 -0.349390 -0.533155 0.548572 -0.103819 -0.586544 -0.317814 0.048635 0.432800 -0.634199 -0.387736 0.168648 -0.582500 0.281299 -0.685421 -0.871224 -0.350519 -0.661557 0.144247 -0.180478 -0.475281 0.765640 -0.588017 0.275363 -0.336757 0.833540 -0.473217 0.241248 -0.310337 0.412696 -0.868004 0.087752 -0.936694 -0.401158 -0.363676 -0.040512 0.012298 0.318511 -0.991877 -0.554903 0.684311 -0.379613 0.613745 -0.898189 0.901686 0.928325 -0.769413 -0.448832 -0.733233 0.374834 0.370689 -0.208514 0.140473 0.782672 -0.933151 0.803716 0.616212 -0.406367 0.044964 -0.694125 -0.993671 0.176960 0.393627 -0.930365 0.775802 -0.970049 0.029123 -0.211900 0.348462 0.037246 0.233197 0.032773 0.657633 -0.153058 0.134584 0.559319 -0.224734 0.365171 -0.889513 0.042033 -0.259995 0.481176 0.833519 0.880479 0.263848 0.900369 0.684195 -0.119940 -0.505999 -0.270842 0.185935 -0.499670 0.906118 -0.420438 -0.430035 0.681920 -0.390487 0.599089 -0.529981 0.957975 -0.363665 0.703216 -0.009252 -0.706032 -0.449842 -0.874667 0.853287 0.325424 0.490504 0.963774 -0.632542 -0.769491 0.444950 -0.799023 -0.889012 -0.291202 -0.898654 0.795182 0.588858 -0.404653 -0.475660 -0.225207 0.095677 -0.569541 0.354355 0.665643 -0.887621 0.963869 0.264731 -0.417602 0.921844 0.901066 -0.714386 -0.087408 -0.804966 -0.164227 0.037925 -0.951679 -0.838803 -0.471571 -0.987905 -0.471345 -0.241062 0.457045 -0.270368 -0.130074 -0.834157 -0.169022 -0.334892 0.754701 0.426325 0.189449 -0.470506 -0.477998 0.619908 0.883849 -0.812355 0.732286 0.847718 0.452376 -0.685316 0.769562 0.353443 -0.399701 -0.317846 0.548477 0.436071 0.720079 0.596798 0.597268 -0.751492 0.608893 -0.874077 0.007446 0.065939 -0.144445 0.877372 0.231782 0.686534 -0.457520 -0.013517 0.112859 0.731929 0.515978 0.634861 0.351837 0.399827 0.822506 0.084123 0.247545 0.274882 0.398807 0.017107 -0.371675 0.999106 0.699261 -0.823198 0.435178 0.419339 0.773600 0.032446 0.667847 0.382493 0.158369 -0.324707 -0.551568 -0.986075 -0.447335 0.680214 0.700458 0.095145 -0.333303 -0.186683 -0.172926 -0.817325 -0.551822 -0.821089 0.582502 -0.729316 0.263034 -0.169953 0.545566 -0.338159 0.847154 -0.826109 -0.339052 0.546414 -0.649307 -0.903875 -0.034246 -0.875708 0.128571 -0.366399 0.506786 -0.713059 0.308893 0.955218 -0.699135 0.861558 0.635432 -0.998676 -0.043297 -0.697871 -0.185359 0.783777 -0.515197 0.262819 0.962688 -0.932695 0.533503 0.225722 -0.102648 0.079069 0.887563 -0.255494 0.252960 -0.451490 -0.709080 0.603653 -0.355364 0.256673 0.727945 0.773207 0.890274 0.234731 -0.939853 0.199167 0.189948 -0.638987 0.060726 -0.174620 -0.637664 -0.982571 0.127509 0.176977 0.801206 0.612312 -0.560204 0.763893 0.679617 0.973299 -0.010385 -0.423031 0.052368 -0.122822 0.321475 -0.694672 0.425688 0.612395 0.908981 -0.929677 -0.130932 0.636926 0.843530 -0.240658 -0.128343 0.903678 0.958510 -0.938395 -0.735310 0.019235 -0.113015 -0.372973 0.036664 -0.985506 0.804004 -0.162131 0.626806 -0.756200 -0.398237 0.306423 -0.782902 0.591377 0.883392 0.269466 -0.531445 0.204867 0.574794 0.894243 -0.182738 0.483775 0.964566 0.686330 0.120701 0.808097 -0.554328 0.992357 0.711774 -0.595818 -0.946038 0.976465 0.423417 -0.059053 -0.396508 -0.539919 -0.044559 -0.592505 0.297950 -0.417754 -0.348705 0.899713 0.888669 -0.131607 0.491090 0.772061 -0.862140 0.959645 -0.023072 0.712654 0.853888 0.794190 0.196429 0.818454 0.480520 -0.682871 0.626551 0.926192 -0.690513 0.338325 -0.669626 -0.636551 0.314790 0.753791 0.304396 0.918281 -0.786128 -0.740163 -0.674223 0.511822 -0.157917 -0.022928 0.411534 -0.269247 0.845465 -0.097375 -0.497186 0.983325 -0.137730 0.479742 0.695979 -0.283842 0.273933 -0.107592 -0.465388 -0.245548 0.209537 -0.838837 -0.319356 0.519024 0.499488 0.011018 0.882473 -0.185722 -0.235191 0.186869 -0.267441 -0.021319 0.446706 0.058336 -0.509498 -0.711210 -0.964592 0.902037 0.019542 0.880874 -0.195339 0.522356 0.864199 0.666931 0.002099 0.560178 -0.616912 -0.723969 -0.547415 -0.082300 0.030484 0.662123 0.078863 0.711128 0.181147 -0.421649 -0.277854 0.063620 0.392629 0.486955 -0.749511 -0.874812 -0.534364 0.697196 0.183525 -0.043862 0.985985 0.218933 -0.141825 0.005528 0.099806 0.662836 -0.472116 -0.035995 0.329767 0.529983 -0.475817 0.712855 0.806014 -0.023232 -0.369445 -0.163503 -0.361109 0.709418 -0.452375 0.820038 -0.712231 0.269772 -0.116342 0.680398 -0.243273 0.134147 0.805587 0.222362 -0.168658 -0.010888 -0.821500 -0.182672 -0.791956 0.036675 0.822855 0.307851 -0.300489 -0.649261 -0.728144 -0.970723 0.880722 -0.203961 0.742132 0.686736 0.772807 -0.627312 -0.476767 -0.588302 -0.917894 0.070858 -0.768264 -0.630124 -0.659370 0.115393 -0.949726 0.097357 -0.750460 0.855861 -0.680281 0.080883 -0.155027 -0.501781 0.898211 0.053017 0.534894 0.721066 -0.639132 -0.765595 -0.928195 -0.367276 -0.736317 0.952527 0.428763 -0.994185 0.639263 0.201570 -0.621497 -0.837504 0.613268 -0.539391 0.233354 0.845004 -0.169516 0.573984 -0.039603 -0.119241 -0.328659 0.209937 -0.263380 -0.008940 -0.709180 0.581592 0.489280 -0.810969 -0.365391 0.024174 0.910097 -0.004523 0.258579 0.981902 0.628201 0.522262 0.934429 0.056964 0.528077 0.573692 -0.741467 0.906580 0.736188 0.871801 -0.632811 -0.030457 0.716805 0.197673 -0.456473 -0.322797 -0.921568 0.214868 0.887140 -0.184949 -0.794071 -0.822040 -0.603356 0.695208 -0.633009 0.031253 -0.280617 -0.722912 -0.973271 0.977962 -0.741010 0.654930 0.500224 -0.806581 -0.288106 0.028301 0.767111 -0.029573 -0.065119 0.503300 -0.157771 0.302070 -0.527158 -0.440966 -0.500256 0.016369 0.236237 -0.421824 -0.768762 0.123377 0.393227 -0.562834 0.301337 0.789871 -0.867625 0.668328 -0.178877 -0.148243 0.945416 -0.152147 -0.170281 -0.795595 -0.497217 -0.670056 -0.602175 0.214677 0.358245 -0.835064 -0.814896 -0.706874 0.668236 0.027333 0.595197 -0.858922 0.586367 -0.905060 0.157447 -0.177397 -0.326884 0.388685 0.945980 -0.933657 0.825851 0.247317 0.856214 0.958226 -0.084355 -0.322663 -0.190017 -0.138940 0.525190 0.639703 0.065466 -0.972027 0.969646 0.463291 0.242650 0.327891 0.628227 0.427754 0.621018 0.296463 -0.544914 0.216215 0.437541 -0.958547 0.311155 -0.405012 -0.135944 0.984271 0.983673 -0.189964 -0.949385 0.809525 -0.942647 0.906829 0.767751 -0.027002 -0.415834 -0.422266 0.834059 -0.890644 -0.782564 -0.100475 -0.862671 -0.812917 -0.637185 0.379979 0.514974 0.991042 -0.192267 0.135992 0.287505 0.262819 -0.647793 -0.274954 0.304272 0.663362 0.320034 -0.831672 0.647633 0.303707 -0.021635 0.698248 0.113232 0.035718 0.605076 -0.119018 -0.991284 -0.810758 0.458716 0.842775 -0.701402 0.676153 -0.257700 -0.564072 0.863235 0.105115 0.815906 0.378210 0.096157 -0.376361 -0.485798 -0.616338 0.886458 -0.133591 0.108708 0.190730 -0.470229 -0.571258 0.359058 -0.822596 0.732449 -0.662577 0.875652 -0.154319 0.373141 0.480729 0.726663 0.381858 0.669971 0.185380 0.224633 0.968570 -0.138468 0.966933 -0.595503 -0.275233 0.072048 -0.779597 -0.897023 -0.831795 -0.155958 -0.382821 -0.448133 -0.269500 0.483588 0.660575 0.921230 -0.986641 -0.910683 0.280288 -0.809237 0.821767 0.617711 -0.933585 -0.332552 -0.009147 0.547144 -0.605889 -0.627290 0.217115 0.579491 0.597343 0.185684 -0.558977 0.564276 0.590181 0.165790 -0.363676 0.810585 0.268767 -0.195471 -0.345373 0.885946 0.356397 0.385127 0.369534 0.016972 0.306357 0.382893 0.106290 -0.413355 0.573656 -0.071944 -0.795644 0.640071 0.595504 0.195209 0.187214 0.989616 0.567919 -0.595671 0.569107 0.165263 0.590013 -0.989870 -0.270461 0.180195 0.175920 0.365863 -0.009221 -0.555313 -0.829608 0.645406 -0.669366 0.526788 0.030533 0.700168 -0.456239 -0.663110 0.083061 0.650050 -0.076465 -0.343283 -0.421893 0.127892 -0.703213 -0.826389 -0.676899 0.484002 -0.836774 0.891020 0.888331 0.732333 0.056283 0.478344 0.742463 0.785821 -0.341461 -0.081617 0.151684 0.649318 0.363070 0.322076 0.294725 0.693704 -0.151136 -0.674742 0.393872 0.392625 -0.337852 -0.523067 0.042675 0.585683 0.133649 0.620782 -0.286425 0.430437 0.794393 0.036676 -0.085562 0.957619 -0.072304 -0.197231 0.689952 0.983978 -0.718886 0.432415 0.769800 -0.060347 -0.649202 -0.078516 -0.411029 0.713868 -0.756440 0.883696 0.407571 0.092424 -0.791046 -0.198557 -0.514951 -0.128898 0.278376 0.527724 -0.543215 -0.587975 0.148506 0.170360 0.842462 -0.057101 -0.792965 -0.243100 -0.099482 0.134731 0.559669 -0.409529 0.118710 0.840783 -0.977115 -0.111491 -0.219564 -0.626317 0.809993 0.369407 -0.912449 -0.946447 0.253102 0.495122 0.145977 0.462056 -0.703435 0.631026 -0.666842 0.574941 0.158750 -0.210058 0.986967 -0.692743 0.960302 0.829429 0.250156 -0.832662 -0.413671 -0.849326 0.302069 -0.854002 -0.258856 -0.579222 0.986781 -0.235970 0.309288 -0.232783 0.137713 0.119281 -0.863376 0.225263 0.172834 0.389726 -0.279615 -0.681189 -0.148218 0.016951 0.949837 0.184940 -0.408108 0.108588 0.974882 -0.421141 0.415844 0.935184 -0.591713 -0.334000 -0.897478 -0.005384 -0.183326 0.404591 0.140614 0.557819 0.825369 0.127396 -0.678151 0.134657 0.894613 0.459561 -0.746062 -0.968764 -0.315175 0.426772 0.420962 0.405210 0.745583 -0.727256 -0.577839 0.695420 0.457684 0.014053 -0.195992 0.432566 0.592912 -0.780147 0.367751 -0.998801 -0.114147 0.470273 -0.004185 0.702527 -0.125136 -0.863570 0.260345 -0.299767 0.263825 0.582194 0.834890 0.158438 0.041755 -0.911171 0.189674 0.726580 0.515601 -0.389364 0.131790 0.261184 -0.116619 0.553951 -0.043395 -0.658935 -0.431996 0.760613 0.773631 -0.839084 0.980465 0.141382 -0.837885 -0.133682 -0.388345 0.157930 -0.431155 0.486519 0.294360 0.829190 -0.813248 -0.441815 0.411384 -0.978357 0.716623 -0.546861 -0.889529 -0.093703 -0.820280 0.626072 0.516933 0.311510 -0.112744 -0.599686 -0.134539 0.843861 -0.258621 0.433466 0.604474 -0.484990 0.594382 0.584939 0.656392 0.756497 -0.548743 -0.731953 -0.085573 0.020102 0.754566 -0.791213 -0.150708 0.941318 -0.233027 -0.739324 0.962961 -0.516404 -0.286185 -0.926568 0.389893 -0.106465 0.699504 -0.093174 -0.794956 -0.413240 0.307141 0.070506 -0.569378 -0.951480 -0.496029 -0.964905 -0.436470 -0.901647 0.620034 -0.780077 0.854850 -0.928709 -0.512030 -0.230723 0.091393 -0.757464 -0.021936 0.940684 -0.816146 0.745037 -0.798640 -0.853186 -0.771367 -0.084825 -0.779754 0.618526 0.808709 0.919750 -0.474648 -0.986246 -0.493489 0.832493 0.084260 -0.062868 0.881013 0.588231 -0.027773 -0.555457 0.686583 -0.407738 -0.335535 0.541433 -0.336447 0.152435 -0.689290 0.754946 0.394971 0.288774 0.695630 0.578825 0.033811 0.896990 0.725639 0.262444 -0.187836 0.945885 -0.119030 -0.379126 0.865636 0.406322 -0.365372 -0.627854 0.238815 0.718887 0.309278 0.119827 0.307118 -0.718494 0.564370 -0.006299 -0.126232 -0.771164 -0.464866 0.537320 0.381271 -0.154156 0.292266 -0.223758 -0.865381 -0.012104 -0.644933 0.168430 -0.115115 -0.919294 -0.569126 0.697050 -0.973409 0.311844 -0.682076 0.892227 -0.281834 -0.047449 -0.735627 0.956981 -0.328561 0.573651 0.076809 0.978557 0.855157 -0.358821 -0.027742 -0.271075 -0.129986 0.507392 -0.733755 -0.748715 -0.646763 0.558511 0.027527 -0.512144 -0.453593 0.382593 0.656286 0.431292 0.463299 -0.912840 0.128342 0.489890 0.399004 0.446266 0.382117 -0.882829 -0.601183 0.646490 -0.925848 0.070256 0.220141 0.150961 0.048812 0.075298 0.792139 -0.978930 0.804223 -0.337847 0.528463 -0.929532 -0.086562 0.881699 0.628979 0.940965 -0.630445 -0.824614 0.323558 -0.974159 0.606678 -0.213143 -0.886999 -0.264980 -0.723253 0.512005 -0.818715 0.658864 0.629176 -0.419898 0.305354 0.703328 0.650358 -0.474506 -0.145711 -0.300830 0.600792 -0.353572 -0.279760 0.405015 0.308582 -0.751297 0.475483 -0.777980 -0.869598 0.104462 -0.837015 -0.500043 0.279847 0.486543 -0.474203 -0.113475 -0.726599 -0.361202 0.621545 -0.449852 -0.849197 0.802830 -0.790988 0.779979 -0.617068 0.514366 0.483308 -0.966710 -0.960140 -0.662404 -0.267540 0.640653 -0.015976 0.452700 0.045667 -0.707394 0.701403 -0.478850 -0.485374 0.831804 0.625612 -0.322389 -0.668239 -0.094541 -0.835846 -0.142441 0.791984 -0.562445 0.496357 0.413529 -0.012297 0.647160 0.216359 0.196715 0.427139 0.599291 -0.288919 -0.089553 0.632581 -0.249059 0.248043 -0.634960 -0.608406 -0.767932 0.817740 0.437261 -0.475326 0.519143 0.958412 0.039300 0.350947 0.584023 0.716911 0.682709 -0.510518 0.881066 -0.459733 -0.718534 -0.681379 -0.963376 0.694995 0.306324 0.683784 -0.088647 -0.496961 0.110924 -0.489356 0.214120 -0.978629 -0.856775 0.965062 0.269414 -0.491735 -0.643344 0.501482 -0.673994 0.793917 -0.973844 0.845149 0.752329 0.065456 0.196096 0.336352 -0.217633 -0.121195 0.825834 -0.336567 0.419072 -0.892700 -0.017947 0.455696 0.802295 -0.711623 0.139480 -0.286352 -0.208583 -0.749596 0.224292 -0.994463 -0.728225 0.367517 0.970598 0.541189 0.875782 -0.672746 0.042671 -0.798212 -0.878829 0.068827 -0.953064 0.873500 -0.865717 0.243032 0.209852 -0.083350 -0.878163 0.035686 0.580083 0.540909 0.142986 -0.437864 -0.003395 -0.054719 -0.149486 -0.863915 0.658929 0.641930 -0.613511 -0.116778 0.647467 -0.341736 -0.749261 0.618065 -0.800547 -0.873479 0.945320 0.242124 -0.671692 -0.933509 -0.689049 -0.624756 0.939990 -0.554766 0.618276 0.149842 0.361884 0.740113 -0.814472 -0.058033 0.281021 0.328514 0.504103 -0.722374 -0.726205 -0.645383 -0.586289 0.932724 0.996547 -0.199799 -0.184054 0.644014 0.458465 0.066684 0.262079 0.657918 0.193205 0.207399 -0.099958 0.521513 0.273889 0.210993 0.896757 0.213880 0.656227 0.515033 -0.636278 0.018111 0.255146 -0.450751 0.960078 -0.463832 0.877763 0.464181 -0.186206 -0.848442 0.818797 0.227505 -0.915718 0.815344 -0.972294 -0.099772 0.459358 0.486171 0.966913 -0.278563 0.144089 0.160118 0.928836 -0.955868 -0.318369 0.202725 0.255125 -0.421612 -0.583395 -0.088648 -0.906578 -0.219674 0.929464 0.348568 0.329576 0.889542 0.884736 0.207339 0.353723 -0.301471 0.358897 0.172520 0.926035 0.443179 -0.012136 0.953741 -0.656593 -0.552778 0.439912 -0.689680 0.168659 -0.415999 0.470438 0.097495 -0.371868 -0.847932 -0.699780 0.883257 -0.269543 -0.283175 -0.205390 -0.176122 0.497151 -0.275927 -0.827554 -0.173273 -0.386385 -0.942818 -0.965934 0.967337 -0.244289 0.392963 0.139858 -0.318254 -0.163858 -0.872278 -0.364514 0.179550 -0.425056 -0.924602 0.489870 0.743603 -0.340601 -0.039693 -0.158902 0.287531 0.112376 0.141318 0.170788 0.842832 0.858142 0.965398 -0.333289 0.355293 -0.310529 -0.160843 -0.817980 0.303086 -0.103661 -0.783915 0.270424 0.652050 0.609048 -0.589719 -0.666204 -0.554810 -0.461997 -0.030717 0.624740 0.112947 0.044680 0.114610 -0.143450 0.704079 -0.925083 0.697647 -0.008390 0.187292 -0.161035 -0.837602 0.030125 -0.302893 -0.872204 0.696836 -0.947600 -0.182733 -0.464007 -0.765580 -0.879647 0.432332 -0.549495 0.390776 0.084382 -0.940447 0.801058 0.418178 -0.495256 -0.660940 -0.612539 -0.870516 0.452007 0.432141 0.244093 -0.691443 0.136220 0.319010 -0.993796 -0.872170 -0.493697 -0.154831 -0.709772 0.536427 0.542276 -0.581976 0.233263 0.594676 0.235291 0.769256 0.829096 0.355644 0.201587 -0.720399 -0.253579 -0.714031 -0.660846 -0.452522 0.704148 -0.156102 -0.113461 -0.908391 -0.026618 -0.661454 0.523750 -0.782525 -0.352898 -0.340030 0.536485 -0.346693 -0.212199 -0.957212 0.498476 0.078029 0.579215 0.040752 0.496054 -0.187522 -0.364572 -0.268655 -0.418266 -0.535475 -0.913011 0.783321 -0.255874 -0.166590 -0.930710 0.083280 0.380888 0.773438 0.927178 -0.732574 0.865047 -0.099441 -0.394028 0.388796 0.118034 0.253074 -0.951233 -0.345481 0.906381 -0.163433 -0.302693 0.404857 0.914597 -0.723478 -0.554391 0.410650 0.089000 0.081037 -0.858005 0.670734 0.545562 -0.771016 0.454055 -0.710313 0.062394 0.523345 0.372967 -0.556719 0.296783 0.300145 -0.289292 0.161830 -0.799296 0.316680 -0.449374 0.318738 -0.430246 -0.400607 0.973257 -0.523865 0.435961 -0.329436 0.880992 0.350557 -0.052914 -0.673399 -0.238792 -0.963913 0.407638 -0.096797 0.706821 -0.046800 0.132187 0.160876 0.242887 -0.805420 -0.315779 -0.384146 -0.362138 0.981005 0.915999 0.348570 0.142835 -0.883298 -0.334751 0.693461 0.435440 0.235003 -0.707146 0.408697 0.711139 0.728815 -0.920739 0.592130 0.079372 0.026347 0.918731 0.840580 0.062434 0.326369 -0.256217 -0.230745 -0.720432 0.875969 0.930131 0.522455 -0.929451 -0.385648 -0.861691 -0.291589 -0.404643 -0.945692 -0.943019 0.738192 -0.828990 -0.277770 0.431654 0.606451 0.957233 0.724508 0.015148 0.668372 0.453323 0.094409 0.260502 -0.467305 -0.879243 0.179233 -0.626725 0.183191 -0.494398 0.117058 0.952446 -0.214830 -0.006973 0.882577 -0.692375 0.063576 -0.503071 -0.554066 0.771988 0.092286 -0.499758 0.828968 -0.169521 -0.328747 -0.448802 -0.737868 -0.722297 -0.491568 0.986640 0.292851 -0.823196 0.439963 -0.612740 0.437306 0.972659 -0.491983 -0.383461 -0.654066 0.691207 0.122141 0.462992 0.643653 0.907311 -0.543981 0.526229 -0.785064 0.519596 -0.976842 -0.339130 0.291583 0.115445 0.161113 0.120552 0.945923 0.832365 0.671750 -0.791945 -0.889932 -0.819818 -0.805304 0.402919 -0.643014 0.634659 0.790180 0.794292 0.607318 -0.701804 -0.589169 0.953252 0.989404 0.532972 0.416244 0.633057 0.440283 0.872263 0.159286 0.655219 0.391859 0.182444 -0.683910 -0.316558 -0.702111 0.477202 0.803994 -0.756188 0.309567 0.475744 -0.548132 0.419636 0.655925 -0.353437 -0.177445 -0.987089 -0.718778 -0.387265 0.807203 0.888540 -0.089069 -0.781966 0.841792 -0.099666 0.751006 0.258036 -0.466609 0.191289 0.130299 0.692677 -0.153492 -0.477842 -0.124879 0.162598 0.205600 0.173010 -0.360200 0.009594 0.416822 0.949367 -0.514662 0.868690 0.369003 -0.858737 -0.484747 -0.808442 -0.845826 -0.203525 -0.195708 0.961377 -0.314985 0.715223 -0.820589 -0.473193 -0.384442 0.930418 0.784843 0.148949 0.121707 -0.084857 -0.158374 0.968215 0.437301 0.716747 0.130813 -0.357099 -0.110243 0.770613 0.652495 -0.693421 0.719981 -0.862167 -0.824731 0.088984 -0.720903 -0.309479 0.280542 -0.566729 0.486996 -0.915166 -0.605352 -0.827988 0.800057 -0.425940 -0.301181 -0.584385 -0.495522 -0.516338 0.564564 0.626184 0.398805 -0.593811 0.594400 -0.163894 -0.877064 -0.274787 0.479007 0.012693 -0.504174 0.131502 0.319271 -0.784193 0.269336 0.494540 0.304790 
0.548432 -0.814939 -0.414668 0.981703 0.672058 -0.329834 -0.623648 0.844069 -0.529777 -0.049588 -0.457112 -0.114162 0.454889 0.026550 -0.549598 0.081073 -0.574645 -0.143409 -0.324527 0.261460 -0.020473 0.400686 -0.259533 0.992220 0.896512 0.871969 0.311491 -0.887681 0.141305 -0.193969 0.417109 -0.310263 -0.008908 -0.997559 -0.328560 -0.336850 -0.327393 0.047792 -0.492781 0.142831 0.998204 0.050107 -0.971331 0.453093 -0.923343 -0.520929 -0.465834 -0.497988 0.335662 0.209640 0.763472 -0.684811 -0.389675 -0.496060 -0.692591 -0.493163 -0.624091 0.618900 -0.380844 0.517214 -0.575069 -0.963734 -0.793049 0.416023 -0.961293 -0.121609 -0.920827 -0.288686 0.926184 -0.413608 0.854145 0.924387 0.636499 0.882814 0.377480 0.713157 -0.638115 0.911647 -0.784831 0.697548 0.121286 0.978641 -0.987263 0.731612 -0.517419 -0.679854 -0.761551 -0.141510 0.939046 -0.142395 -0.624296 -0.636023 -0.106129 -0.417345 0.780000 -0.067422 0.461046 0.859173 0.643892 0.387230 -0.554435 0.498037 0.311617 -0.917936 0.380851 -0.310903 0.795221 0.742736 -0.399256 -0.989610 0.440284 0.722030 0.989031 0.453021 0.453642 -0.528388 0.773167 0.692091 0.330101 0.712214 -0.450303 0.705805 -0.923809 0.443568 -0.711541 0.856191 -0.623854 0.749505 0.715364 -0.979962 0.136735 -0.839070 0.518075 -0.551648 -0.757006 -0.101074 0.137450 -0.961785 -0.358338 0.738194 -0.951395 -0.918054 0.460224 -0.962364 0.534967 -0.086133 -0.490753 0.308135 -0.394042 0.839349 0.020348 0.155655 0.545153 0.096539 -0.400777 0.833613 -0.047270 -0.024632 0.583118 -0.331905 -0.004594 -0.280147 -0.170976 -0.486519 0.168206 0.072018 0.412407 -0.694345 0.110233 -0.945930 -0.956151 0.158838 -0.863984 0.504074 0.196474 0.670983 -0.582060 0.705721 -0.020882 0.023898 0.545070 0.999466 -0.820447 0.090223 0.096006 -0.221225 -0.076164 -0.951264 0.754143 -0.493046 -0.283169 -0.250450 0.226807 0.545855 0.263031 -0.604987 -0.382126 -0.324562 -0.299332 0.728107 -0.270493 -0.255483 -0.113055 -0.134477 -0.751409 -0.916581 -0.463494 -0.333469 0.789141 0.515624 0.690429 0.334211 0.515091 0.869982 -0.575566 -0.388904 -0.351243 0.348270 -0.340168 -0.597100 0.855224 0.376663 0.152450 0.082032 -0.077481 -0.584519 0.477044 0.540392 0.090919 -0.822287 0.268499 0.820426 -0.077770 -0.844555 -0.314051 0.170821 -0.761136 0.222455 0.837352 -0.971995 -0.261920 0.527781 0.362216 -0.746830 0.397762 0.786650 -0.135733 -0.953481 0.134920 0.524099 -0.550580 -0.009856 -0.099238 0.601870 -0.927824 0.823281 -0.982650 0.549220 0.363673 0.108269 0.726933 -0.367827 -0.071305 -0.350837 -0.212383 0.614644 0.819983 0.026481 -0.162901 0.657335 0.054486 0.575179 0.185115 -0.583298 0.828349 -0.417122 -0.796647 -0.307385 -0.370603 0.338273 -0.783285 0.078816 -0.671583 0.117477 -0.319314 -0.599407 -0.059242 -0.301964 0.949814 -0.695569 0.806305 0.676747 -0.063396 -0.265000 -0.674091 0.724221 -0.650357 -0.854107 -0.249297 0.186742 0.803227 0.805189 -0.238079 -0.011657 -0.778109 -0.409730 0.571220 -0.574756 0.282885 -0.799383 0.763517 0.499600 0.279434 -0.908066 -0.382923 0.960120 -0.507472 0.557835 -0.341844 -0.557659 0.862266 -0.535539 -0.880912 -0.201130 0.199461 -0.555003 -0.476909 0.549104 -0.409110 0.273793 -0.264154 -0.605883 0.078982 0.497767 0.382460 0.300874 -0.911963 -0.046320 0.726118 0.370922 0.154297 0.489635 -0.129479 -0.566269 0.581569 0.487598 -0.606149 -0.925904 0.045433 0.052007 -0.483562 -0.092302 0.516468 -0.364475 0.706568 -0.284072 0.080523 -0.770342 -0.734967 0.671412 0.503452 0.000879 -0.934470 -0.417566 -0.501354 0.447989 0.883307 -0.413317 -0.598330 0.609425 0.957605 0.555967 0.099059 -0.171874 0.989698 -0.319372 -0.684276 -0.616451 -0.245276 0.361157 0.435555 0.271162 -0.731145 -0.047977 0.906687 0.975423 0.667952 -0.012790 -0.794919 0.932984 -0.341378 0.708533 -0.066137 -0.275848 -0.709033 0.432509 -0.827859 -0.825726 -0.980808 -0.426189 0.783699 0.976797 -0.870222 -0.117242 -0.195077 -0.880524 0.563386 0.120647 -0.496975 -0.681889 -0.518196 0.938580 0.589273 -0.249341 -0.109397 0.495960 -0.273918 -0.441445 -0.516830 -0.068837 -0.508461 0.141792 -0.360304 0.425402 0.865944 -0.069337 -0.142089 -0.961914 0.104937 -0.122897 -0.388103 -0.111365 -0.146100 -0.258325 0.771394 0.658823 -0.138849 0.334780 -0.220530 0.364176 0.652891 0.261274 0.302757 0.242164 -0.988067 -0.806640 -0.261876 -0.261985 -0.248085 0.221294 0.669178 0.243454 -0.636914 -0.691126 -0.331144 -0.770970 0.239537 0.526767 -0.732884 -0.655527 -0.596130 -0.120987 0.233109 0.257770 0.620688 0.004502 -0.083407 -0.518161 -0.660717 0.696064 0.846015 0.992173 -0.042662 0.148772 0.234337 -0.030729 0.342132 0.972461 0.707286 -0.905953 0.193754 0.376464 0.337500 0.556840 0.685338 -0.993644 0.785870 -0.075125 0.533123 -0.947014 0.269348 0.936994 -0.068001 -0.497543 0.194764 -0.447314 0.506960 -0.888643 0.034525 0.846242 0.807421 -0.119459 0.838416 -0.235241 -0.970688 0.072753 0.734030 0.371444 0.045214 0.441316 0.465491 -0.761032 -0.182220 -0.197009 0.795808 -0.496882 -0.190653 0.581679 0.427993 -0.657530 0.634665 -0.302659 -0.720536 -0.433336 0.199798 0.474228 0.119350 -0.293242 0.585585 -0.846125 -0.447000 0.393007 0.034416 -0.608585 -0.842235 0.063728 0.464168 0.891795 -0.564828 -0.490618 0.333111 0.900663 -0.251650 -0.849110 -0.296346 -0.455842 -0.345992 0.513002 -0.874163 -0.917999 0.855472 0.760502 -0.220658 -0.865064 -0.672834 0.979140 0.609164 0.446516 -0.314102 0.194750 0.600391 0.238898 -0.412244 -0.365193 0.630313 -0.254478 0.698535 0.094481 -0.362683 -0.866293 0.603863 0.970428 -0.965629 -0.647787 -0.878682 -0.261975 -0.103628 -0.224674 -0.748973 0.022209 -0.142673 -0.893501 -0.217289 0.636669 -0.758565 0.109876 0.615809 0.850600 -0.443608 -0.698293 0.045349 -0.843217 0.540604 0.633106 -0.208410 0.170917 -0.621373 -0.509875 -0.734601 0.015944 -0.376168 0.869262 -0.013628 -0.341797 -0.778525 0.107690 0.396228 0.117847 0.883017 0.647255 -0.859944 -0.259656 0.753754 -0.077233 -0.622987 0.995189 -0.967357 0.992822 0.845789 -0.410965 -0.705471 -0.108862 -0.254182 0.835133 -0.475756 0.537408 0.006050 -0.097129 -0.972467 0.271449 0.918816 -0.348635 0.140711 -0.094812 0.309568 0.362186 -0.987122 -0.294204 -0.519967 0.895895 -0.646950 -0.379911 -0.363761 -0.893196 0.542856 0.013252 -0.898007 0.575499 0.006074 0.947782 -0.835466 0.300603 -0.161080 -0.089648 0.135736 0.363164 -0.552240 -0.858214 -0.733964 -0.524707 0.413235 -0.815149 0.126658 -0.446054 0.090039 -0.563775 0.916132 0.102918 0.142021 -0.603834 -0.001187 0.495071 0.016255 0.635052 0.601875 -0.440890 -0.351696 0.703868 -0.865391 0.654378 0.651651 -0.700857 -0.045019 -0.509429 0.209495 -0.909283 0.853735 0.657254 -0.767497 -0.880229 -0.867453 0.645738 -0.695377 0.259205 -0.800316 0.394662 0.695430 -0.884184 -0.502420 -0.162549 -0.488018 0.496393 -0.667478 0.528237 0.131445 0.934398 -0.912653 0.779749 0.638266 -0.778044 0.434128 0.289917 -0.478901 -0.610891 0.780488 0.730594 -0.520174 0.634223 0.387848 -0.287671 0.753994 0.520395 -0.641934 -0.941383 -0.220400 -0.442249 0.453279 -0.524970 -0.326433 0.950859 0.312482 0.185549 0.447252 0.645004 -0.286214 -0.421303 0.579402 -0.198867 -0.641554 0.217668 0.023090 0.792574 -0.492416 0.544189 -0.818317 -0.711928 0.274782 -0.338491 0.922295 -0.337370 0.373837 0.676289 -0.816975 0.731904 0.734905 -0.037375 -0.710346 0.188184 0.437656 -0.036779 0.139043 -0.249863 -0.851230 -0.413706 -0.604859 -0.137444 0.164991 0.974543 0.663689 0.523437 0.192210 -0.313221 0.316011 0.699794 -0.769032 0.497694 0.987866 0.505750 -0.840797 0.910161 -0.831620 0.533040 0.586449 -0.648595 0.264943 0.321355 0.314030 0.554597 -0.490461 -0.248314 -0.482182 0.648581 0.501823 -0.333411 -0.765125 0.896964 0.529145 0.399866 0.871507 0.192834 -0.076697 0.063717 0.879613 -0.760685 -0.236488 -0.889419 0.737009 -0.248622 0.616331 0.896211 -0.338461 0.784710 0.429251 -0.752012 -0.863885 -0.305806 0.569343 0.450145 -0.751208 -0.921119 -0.798169 -0.233390 0.727462 0.703654 0.433199 0.962338 0.600618 -0.037656 0.362204 0.472125 -0.844822 -0.714493 -0.464158 -0.965209 -0.475178 0.299354 -0.854628 -0.738170 -0.949268 0.761703 -0.841958 -0.287729 0.546413 0.587293 -0.039741 0.682528 -0.718513 -0.470398 0.132673 -0.469721 -0.391517 0.334504 0.296890 -0.664055 0.038157 -0.269912 -0.701717 -0.361225 0.692432 0.660487 -0.889100 0.847610 0.945994 -0.353257 0.882401 -0.529185 0.946097 -0.972227 -0.267354 0.996829 0.789475 -0.109312 -0.290900 0.335888 -0.522019 0.669359 0.018416 -0.240532 -0.801040 -0.848911 0.289747 -0.192557 0.485593 -0.413363 0.143388 -0.476250 0.316725 0.441671 0.162525 0.009157 0.102157 0.273426 -0.143233 0.048151 0.920168 -0.260832 0.518967 0.866265 -0.233059 -0.748387 0.863094 -0.443583 0.142300 -0.427805 0.892305 0.620281 -0.758447 -0.089279 -0.620251 -0.559486 0.061810 0.669496 0.247957 -0.452598 -0.743867 -0.608654 0.071152 0.572859 0.833017 -0.766322 -0.417984 -0.064826 0.507103 0.438783 0.983325 0.427271 -0.822048 0.502292 0.293537 -0.055107 0.753905 0.156631 0.501309 -0.103795 0.728826 0.393614 -0.483514 0.970379 -0.695665 -0.103765 -0.589107 0.366145 -0.434268 0.658850 0.913547 -0.178135 -0.949804 -0.015301 -0.605277 0.883212 0.218377 -0.023261 -0.181614 -0.274520 -0.584477 -0.198289 -0.847248 -0.406526 -0.695997 0.446288 0.538367 -0.942092 -0.397081 0.039676 -0.045887 -0.668255 -0.566710 0.470599 -0.697876 -0.262375 -0.633166 -0.286983 -0.896230 -0.067434 -0.628133 -0.982683 0.754431 -0.577937 0.002016 -0.850846 -0.694725 -0.779607 0.125893 0.123662 -0.054126 0.541416 0.925373 0.098625 -0.865110 -0.770623 -0.455086 0.673257 -0.712715 0.147833 -0.287067 0.241398 0.479578 0.146223 -0.288003 0.781702 0.883848 0.078831 -0.505281 0.987618 -0.988603 -0.133414 -0.995065 0.765828 0.288650 0.006951 0.914982 0.593925 0.227345 0.040876 -0.282413 -0.826782 -0.417709 -0.357040 0.271844 -0.282819 -0.127663 0.816757 -0.609562 0.159622 -0.035409 0.103371 -0.598981 -0.555831 -0.750406 0.113016 -0.774129 -0.866558 -0.808153 -0.279410 -0.878940 -0.796756 0.587176 -0.874006 0.969072 -0.124174 0.132946 0.884055 -0.530249 -0.639710 -0.075070 0.187338 -0.466491 0.507221 0.830299 0.805352 -0.775597 -0.297364 0.622110 -0.385159 0.862257 -0.413300 0.718211 -0.736723 0.030869 0.967805 0.376293 0.256740 -0.898754 0.568140 0.977329 -0.777694 0.771384 0.564506 -0.651699 0.740457 -0.559668 0.481246 0.624511 -0.089917 0.841537 -0.450559 -0.902579 -0.624955 -0.943337 0.927719 -0.819602 -0.718934 -0.369645 0.802507 -0.104094 -0.507388 -0.610792 -0.385883 -0.244111 0.420077 -0.418078 -0.867818 -0.323184 -0.316831 0.700322 -0.345854 -0.094525 0.471706 -0.781349 0.253775 0.212163 -0.341017 -0.264979 -0.163326 0.569066 -0.423442 0.386116 0.666486 -0.048397 0.442779 0.594206 0.132001 0.723844 -0.775439 -0.065492 -0.380249 -0.282827 0.323716 0.233868 0.473062 -0.256207 0.815790 0.605244 0.420609 -0.501041 0.305565 -0.925245 0.404434 -0.222729 -0.706594 -0.341791 0.989434 -0.047611 0.393230 -0.173891 -0.478546 0.969788 -0.787775 -0.812059 -0.078609 0.655003 0.782147 -0.946608 0.378848 -0.993293 -0.012100 0.998598 -0.276120 -0.688384 0.232466 -0.803058 0.055408 0.048256 0.802186 -0.523983 0.547215 0.107751 -0.449228 -0.048351 0.885022 -0.155822 0.609858 0.874457 0.796567 0.003088 -0.299435 -0.681978 -0.027124 -0.087210 -0.494037 0.894268 -0.432207 -0.711891 0.947660 0.946641 -0.705183 -0.064440 0.945239 0.018697 0.247176 0.177705 0.215639 -0.697416 -0.774038 0.017825 -0.221398 0.773177 -0.874424 0.329374 -0.275174 -0.989402 -0.826448 -0.665316 0.885054 0.970119 0.337773 -0.414380 -0.711859 -0.689351 0.498410 -0.205896 -0.795083 -0.933797 0.082213 -0.847424 -0.987156 0.377029 0.088136 0.958083 -0.604274 -0.664688 0.135788 0.611365 -0.362104 0.361750 -0.370810 0.416497 0.134927 -0.245234 -0.254129 0.859754 -0.234636 -0.080577 -0.805562 -0.349582 -0.110457 0.532211 0.236038 0.177684 0.842860 -0.265552 0.971788 -0.952223 -0.199349 0.054000 -0.799647 -0.186506 -0.568970 0.288489 -0.228423 -0.173244 0.623801 0.907365 -0.561879 -0.738303 0.269115 0.067312 0.678194 -0.595957 0.822078 -0.575935 -0.736203 -0.412558 0.343489 -0.541765 0.237860 -0.766969 0.990446 -0.526102 0.410715 0.833306 0.208346 0.382503 0.881082 -0.991003 -0.563497 -0.918565 -0.177509 -0.132467 0.369924 0.594068 0.694289 -0.006275 0.501433 -0.867590 0.255422 -0.229451 0.199722 -0.066384 0.174592 0.021799 0.357681 0.438388 0.609241 -0.298830 0.896623 -0.152899 -0.065799 0.887069 0.320999 -0.655083 0.720375 -0.470654 0.727419 0.601457 -0.461658 -0.836077 0.682892 0.360833 0.031455 0.052816 -0.045099 -0.274256 -0.953459 -0.543666 -0.141846 0.301963 0.226882 -0.942124 -0.764422 -0.598526 0.079675 0.593259 0.839862 -0.311084 -0.705571 0.736486 0.536017 0.228631 0.623555 -0.142983 0.573547 0.343929 0.386362 0.300967 -0.054614 0.924704 0.464889 -0.371722 0.285537 -0.503656 0.681094 -0.759562 0.222089 0.727635 -0.303228 -0.919757 0.029597 0.923654 -0.861881 0.265175 -0.674872 0.217794 -0.141565 -0.835010 0.906710 0.152864 0.901476 0.442728 -0.618505 0.525030 -0.700256 0.955042 -0.131040 0.686107 0.256008 0.814346 0.610811 -0.279103 -0.557376 -0.103651 0.217242 -0.876282 0.136787 -0.560670 0.851353 0.833558 -0.480427 -0.119050 0.757213 -0.342308 -0.853875 -0.917659 0.875486 0.004560 -0.752669 0.782196 -0.842575 -0.851194 0.224924 -0.461081 0.673837 0.524669 -0.506039 -0.457203 0.210775 0.749970 -0.642857 -0.178413 -0.529133 -0.200233 0.717935 0.688109 -0.076515 -0.145278 -0.872560 -0.225162 -0.311720 -0.352987 0.655788 -0.554507 0.304705 0.801913 -0.472166 0.180191 -0.193526 -0.224836 -0.037613 -0.036102 -0.076029 -0.812689 0.502818 -0.402192 0.711980 0.996779 0.140605 -0.077244 0.746749 0.497748 0.744342 -0.782384 -0.702485 0.462278 0.905725 0.221000 -0.683000 -0.966835 0.995839 0.005280 -0.319822 0.651626 0.450773 0.984883 0.453540 0.978607 0.165074 -0.739986 -0.246229 -0.872539 0.223912 0.677742 -0.685227 -0.273271 -0.724451 -0.973247 -0.276492 0.416154 -0.050492 -0.529743 -0.086098 -0.306150 -0.312127 0.211417 -0.843872 -0.406402 -0.567583 -0.526872 -0.373237 -0.571744 0.478408 0.306941 -0.920118 -0.070819 0.291824 0.533422 -0.092212 -0.543102 0.793436 0.661559 -0.415641 0.017347 0.339301 -0.100869 0.744077 0.614850 -0.074116 -0.532415 0.031004 0.875392 -0.062158 0.944906 -0.430758 0.625715 0.156322 -0.274630 -0.780686 0.588739 0.198498 -0.153923 -0.983005 -0.323094 -0.846982 -0.903123 0.606087 0.444842 0.630299 -0.486126 0.901740 0.423735 -0.824567 -0.513901 -0.558918 0.514734 0.385230 -0.814841 0.129584 -0.688886 -0.347256 -0.839413 -0.813495 0.590586 -0.894507 -0.244252 0.216301 0.261815 0.481118 0.435615 -0.149445 -0.320384 -0.718308 -0.132450 0.356521 -0.565290 -0.035573 -0.037392 0.879552 -0.405274 0.476483 0.781292 -0.981539 0.651916 -0.732609 -0.540457 0.166649 0.652620 -0.355298 -0.703767 0.963734 0.297446 -0.543180 -0.849760 -0.111968 -0.437687 -0.094013 -0.895667 0.824129 -0.612895 0.539947 -0.325317 0.066721 0.821639 0.542233 -0.576757 -0.743650 -0.493340 0.385851 -0.864098 0.101387 -0.137667 0.917194 0.119848 -0.485751 -0.815415 0.579391 0.680898 0.837205 -0.775907 0.977131 0.800939 0.521539 -0.566048 0.951179 -0.590429 -0.003735 -0.142834 -0.486097 -0.179606 0.244271 -0.946149 0.495077 -0.689008 0.875490 0.037310 -0.265765 -0.868160 0.543970 -0.879914 -0.732258 -0.354643 -0.017581 -0.815064 0.765205 0.496668 -0.630479 0.344596 0.177566 -0.793274 0.568690 0.154697 -0.992334 0.090229 0.588649 0.958844 0.499800 -0.415086 -0.183989 -0.986297 0.405308 -0.939718 -0.932446 -0.099615 -0.628725 0.943044 0.937695 0.105510 -0.925116 0.481665 0.225595 -0.657375 -0.872978 -0.791986 -0.472439 0.892227 0.704682 -0.102918 0.236823 -0.117752 0.103808 -0.194487 -0.963054 0.111474 0.895742 0.625595 0.070318 0.395542 -0.789491 0.886329 0.409245 0.615817 0.946611 0.476798 -0.483799 -0.682114 0.419842 -0.546104 0.423395 0.494726 0.935561 -0.351009 0.837351 -0.937417 -0.142995 -0.635087 0.954810 -0.438313 0.261995 0.191633 0.443936 -0.634197 0.997146 0.480881 0.477277 0.892888 0.106476 -0.452404 0.288430 0.316985 -0.566075 -0.302325 -0.067199 -0.619464 -0.825527 0.449003 -0.301578 0.594315 0.902899 -0.878183 0.089041 0.838459 -0.229192 -0.073608 0.901042 0.627813 0.291305 0.855852 -0.810499 -0.446700 0.047485 0.633436 -0.080897 0.044632 0.114318 -0.603620 -0.062480 -0.779206 -0.056025 -0.774050 0.537779 0.377900 -0.076375 -0.529420 0.758436 0.098098 0.919583 -0.543143 -0.307587 0.822481 -0.421325 0.781454 0.660941 0.349483 -0.292154 0.561983 -0.022704 0.999151 0.417836 0.166796 -0.447549 -0.534679 -0.199767 0.471553 0.509953 0.914550 0.867933 -0.552527 -0.864656 -0.188092 -0.326577 0.673123 -0.810192 0.597048 -0.856297 0.948244 -0.304855 -0.936714 -0.594899 0.387558 0.885767 -0.016224 0.169012 0.546708 -0.666741 0.876858 0.108692 0.310554 0.876009 -0.473473 -0.522649 -0.571540 -0.008151 0.277583 0.900013 -0.498198 0.192134 0.767946 -0.050725 0.327478 -0.420146 0.622698 0.000601 -0.230338 0.219745 0.144304 -0.282094 0.914891 0.207591 0.123008 0.302449 0.093358 -0.893216 -0.528539 -0.359934 -0.559958 -0.651681 0.748758 0.750597 -0.775672 -0.724714 -0.772053 -0.347212 0.267134 0.505531 -0.447199 0.768936 -0.302335 -0.679253 -0.281790 -0.974857 -0.099399 -0.659092 0.025744 0.670264 0.560653 -0.829951 -0.611830 0.475544 0.377639 0.511178 -0.222007 -0.529003 0.617962 0.249454 0.111064 -0.941995 0.597773 -0.140178 0.808601 0.822101 0.135107 -0.963451 -0.525111 -0.597758 0.542080 0.027690 -0.828822 -0.760256 0.348438 -0.110612 -0.735113 -0.750961 0.230296 0.290631 0.919303 -0.209051 0.460680 -0.692527 -0.733507 -0.161681 0.818652 0.044487 0.309316 0.436614 -0.706060 -0.579620 0.494618 0.891713 0.280202 0.303220 0.713815 -0.584691 0.339769 -0.811296 -0.182449 -0.118152 0.216394 -0.011272 0.121592 -0.435168 0.878116 0.386480 -0.186129 0.108412 -0.322889 -0.266826 0.899361 -0.862209 0.040647 -0.834145 -0.023890 -0.140701 0.210342 -0.714574 -0.704087 0.504282 -0.294194 0.790531 0.395995 0.986007 0.093751 0.109810 -0.598684 -0.566481 0.298514 0.218867 0.315367 -0.485092 -0.792405 -0.563040 0.079740 -0.914288 0.823440 0.893611 0.194124 -0.499449 -0.373215 0.093485 -0.361659 0.667432 0.259340 0.614451 -0.473269 -0.530318 0.899877 -0.177356 0.973964 -0.394317 -0.386825 0.369960 -0.408310 0.706925 -0.520230 -0.006994 -0.859555 0.778284 -0.788127 0.455812 -0.706808 -0.580531 0.892772 0.372932 -0.494819 0.716212 0.266543 0.699304 -0.783238 0.893328 -0.207210 -0.144897 0.560760 -0.947870 -0.530446 -0.912509 -0.478188 -0.630569 -0.089866 -0.504224 -0.024886 0.523309 0.865736 0.566804 0.230234 -0.654495 -0.440190 0.370679 -0.876211 -0.228316 -0.173509 -0.583019 0.191153 -0.280737 0.789913 0.696333 -0.564526 0.056456 0.395638 -0.347764 -0.050217 -0.811573 0.507340 -0.489457 -0.759443 0.976894 -0.401966 -0.237631 -0.653674 0.508169 0.258146 0.321440 0.031477 0.123881 -0.111756 -0.738288 0.469386 0.448054 0.632390 0.593175 -0.780262 -0.541119 -0.989844 0.410890 0.178144 0.800068 0.107224 0.613618 -0.143476 -0.497139 -0.734146 0.806307 -0.308712 0.773194 -0.683149 -0.068154 0.750088 -0.085115 0.694215 -0.903586 -0.576947 -0.047639 0.417854 0.454531 -0.923758 -0.693903 0.716242 0.545629 0.754151 0.348633 0.138804 0.973889 0.807514 0.148960 0.384780 -0.014342 -0.050972 -0.507997 -0.400724 0.805552 -0.005136 -0.134870 0.611860 0.686153 -0.361676 0.928710 -0.382001 -0.611587 -0.156405 -0.687786 -0.515173 0.266649 0.264575 0.902681 -0.278820 0.340817 -0.791222 -0.562578 -0.113554 0.962929 0.786055 -0.974750 0.936819 0.593569 0.174209 0.321599 -0.420774 -0.876762 0.813602 0.178502 0.928790 -0.191534 -0.956368 0.540649 -0.505381 -0.318043 0.469360 0.112618 0.070369 -0.687045 0.424832 0.555196 0.579604 -0.310593 0.457877 -0.699217 -0.969776 0.666655 -0.261794 -0.083330 0.629584 -0.475739 -0.058081 0.566403 -0.882171 -0.883871 -0.111998 -0.302944 -0.760634 -0.298397 0.875558 -0.831844 0.510070 0.919190 0.708806 -0.995311 -0.398853 0.178165 0.117307 0.671516 0.491120 -0.457861 0.226712 0.070724 0.231545 -0.315411 0.371508 0.261769 -0.648756 -0.890287 -0.821561 0.980828 -0.366026 0.120358 0.547231 -0.248197 0.236487 -0.564767 0.448859 0.475853 0.136836 0.324417 0.644010 -0.353095 0.243607 0.352815 -0.348406 0.844754 -0.469020 0.768901 0.516270 -0.977899 -0.688960 -0.257018 0.092825 0.542585 0.427571 -0.535667 -0.195646 0.778815 -0.425954 -0.017207 0.759643 0.208020 -0.896848 0.306874 0.959823 0.339639 0.742106 0.408682 -0.184508 -0.121058 -0.266901 -0.540498 0.525848 0.976707 0.812317 -0.822558 0.821460 -0.656703 0.946343 0.337730 -0.634602 -0.742617 -0.919288 0.458224 0.799968 0.508283 0.922556 -0.395678 0.287098 -0.503398 0.587116 0.046741 0.704622 0.690267 -0.646386 0.664446 0.029906 -0.904279 0.073128 0.845398 -0.025337 0.806227 -0.695100 -0.499490 0.782934 -0.882783 -0.322048 0.604394 -0.539485 -0.375705 -0.057876 -0.174087 -0.118322 0.022836 -0.715863 -0.318355 -0.468881 -0.793307 0.285967 0.818217 -0.296705 -0.126917 -0.135042 -0.592082 -0.436650 0.218572 -0.927637 0.593256 0.314292 0.145491 0.438655 -0.711045 -0.048282 0.743555 -0.210535 -0.265348 0.860772 0.467417 -0.660954 -0.678713 -0.908288 0.281170 0.147200 -0.026610 -0.695994 0.431336 0.655035 -0.164874 0.638029 -0.058997 -0.346657 -0.658676 0.814085 0.518300 -0.250758 -0.622564 -0.263128 -0.178395 0.970692 -0.948835 0.967096 0.409347 -0.659880 -0.081186 0.152902 0.129585 0.653467 0.013674 -0.402998 0.992513 0.334960 -0.311286 0.273683 -0.517840 0.662104 0.577690 0.913496 0.317139 -0.587185 0.551526 -0.741858 0.066158 0.892850 -0.927772 -0.415541 -0.357908 -0.550337 0.321331 0.463697 -0.579645 0.372496 0.430793 0.829702 0.712615 -0.650393 -0.017397 -0.157800 -0.996926 0.996277 0.439202 0.995587 0.331237 -0.872083 0.269270 0.813398 0.790021 -0.153040 0.726894 0.107160 0.259775 0.278420 0.365302 -0.674067 0.171270 0.437530 -0.089608 0.813362 0.887193 -0.768277 0.277058 -0.692452 0.604218 -0.292149 -0.862750 0.316833 0.057459 0.119854 -0.840967 0.060533 0.116131 0.598236 0.056120 -0.552632 0.726152 -0.674610 -0.739234 0.516173 0.172350 0.987660 -0.376666 -0.567875 0.266079 0.988636 -0.241942 -0.562651 0.426166 0.668450 -0.749289 0.313359 0.900173 0.527769 0.620907 0.504391 -0.764380 0.758158 -0.178776 0.293079 -0.121989 -0.019742 -0.646388 0.994142 -0.421507 0.409732 -0.558490 -0.695354 0.735122 -0.297724 0.820819 -0.092528 -0.310064 -0.555848 0.339597 0.956015 -0.567212 -0.902345 -0.606636 0.858954 0.766105 -0.355925 0.172313 0.666277 -0.828156 -0.206779 0.170668 -0.592536 -0.448622 0.991892 0.700543 0.429390 -0.027850 -0.945845 0.423532 0.550643 0.463887 0.865042 0.855289 0.199009 -0.432682 0.676108 -0.893519 0.257254 -0.879740 0.446077 0.213269 -0.446952 0.543732 0.606634 -0.587997 0.309837 -0.749292 0.584316 -0.023886 -0.577448 -0.622464 -0.853218 -0.169984 -0.071085 -0.861325 -0.469441 -0.641696 0.110825 -0.415285 0.781836 -0.338532 -0.951398 0.646878 -0.483243 0.247611 -0.785804 -0.807135 0.354092 0.471451 -0.686875 -0.199830 -0.315280 -0.133826 -0.656098 -0.708647 0.278176 0.653739 -0.457938 -0.137508 -0.370147 -0.035386 0.240028 -0.223364 0.794630 -0.831057 -0.084690 -0.674811 -0.472753 -0.973865 -0.090096 -0.690917 -0.312397 -0.041494 0.955961 0.204361 -0.793883 -0.829842 0.397226 0.560210 0.641608 0.710351 -0.639620 -0.673672 -0.423476 -0.295718 -0.382318 0.854701 -0.641979 0.159743 -0.282807 -0.012126 -0.875643 0.957221 0.764509 0.918987 -0.873836 -0.320180 -0.755824 -0.346589 -0.294045 0.154080 -0.037506 0.393558 -0.887414 -0.081545 -0.402081 -0.681297 0.088613 0.995145 0.878913 -0.269778 0.705495 -0.760707 0.056550 -0.717980 -0.056426 0.674232 -0.863280 0.301595 -0.166025 -0.146087 -0.710532 -0.041668 -0.188867 -0.946022 -0.122681 -0.062703 -0.266203 0.121494 0.590708 0.439752 -0.724426 -0.446798 -0.166689 -0.611841 0.471657 0.431230 -0.293138 -0.439729 0.426374 -0.414225 0.290493 0.131869 -0.174932 -0.652957 0.413889 0.768642 -0.978726 0.550609 0.070237 -0.144751 -0.595478 0.359705 0.813581 0.215655 0.413683 -0.309100 -0.847048 -0.852520 0.812394 
0.743660 0.587233 -0.912032 -0.703138 -0.579457 -0.523873 0.768520 0.851773 0.182990 -0.671209 0.278147 0.768765 0.619283 -0.589984 -0.406167 0.966326 0.823905 -0.637525 0.987600 0.374514 0.432712 -0.157151 0.779036 -0.207583 -0.343570 -0.005309 -0.793900 0.347330 0.147643 -0.646420 0.159724 -0.108696 0.940813 0.247692 0.188166 -0.638644 0.723819 -0.043314 -0.786871 -0.093191 0.285476 0.491276 -0.324427 -0.095240 0.901292 0.269406 -0.128915 0.725197 0.631881 -0.141315 0.099711 0.064592 0.701535 -0.121253 0.857009 -0.642035 0.873439 -0.936891 0.705295 0.021082 -0.583311 -0.134981 0.912386 -0.642498 -0.887289 0.100552 -0.281142 0.836530 -0.942762 -0.068013 -0.256662 0.342714 -0.576737 0.418912 -0.752527 -0.675446 -0.311682 0.118559 -0.950249 -0.679801 0.977244 0.149463 0.384791 0.678779 -0.971790 0.241801 -0.963256 0.901649 0.304910 0.742038 -0.077269 0.721599 -0.392943 -0.164883 -0.920898 -0.280232 0.935669 -0.202040 -0.443702 0.992906 0.729947 0.299636 0.335620 -0.846791 -0.281453 0.583093 -0.522236 0.406865 -0.298348 -0.472485 0.727064 -0.321104 0.676978 0.111855 -0.642325 0.705188 -0.646344 -0.605581 0.606837 0.658566 -0.863543 -0.470432 0.380165 -0.256486 0.364684 0.459266 0.463282 0.300353 -0.742774 -0.980420 0.293259 0.987173 0.319215 -0.371121 -0.859618 -0.962237 -0.788028 -0.381854 0.444628 -0.086375 0.145661 0.171692 0.592521 -0.177362 -0.716453 0.950196 -0.472174 -0.362797 -0.655385 -0.865337 -0.704231 -0.518928 -0.335770 0.675934 0.224586 -0.971085 0.135200 -0.312132 0.329267 0.392426 -0.292552 -0.377474 0.379599 -0.973337 0.251405 0.519981 -0.935574 0.463378 -0.861873 0.509054 -0.622998 0.283788 -0.319253 0.969523 -0.893574 -0.035706 0.919720 -0.365748 0.601497 -0.735666 -0.231085 0.897266 -0.254594 0.433146 0.573200 0.969992 0.462060 -0.291600 -0.342139 -0.208672 -0.899174 0.365309 0.413854 0.480425 0.391972 -0.334741 0.000407 0.456398 -0.871363 0.138534 -0.034548 -0.494361 -0.577679 0.646199 -0.524838 -0.471253 -0.389507 -0.605118 0.163000 -0.788010 -0.340784 0.931915 -0.890744 0.404623 0.365060 0.682456 0.374615 -0.172879 -0.609144 -0.967524 0.618448 -0.508318 0.397784 0.032302 0.972107 -0.210244 0.697561 -0.027486 -0.753846 0.826198 -0.888952 0.211607 -0.668163 -0.466631 -0.142194 -0.193001 0.062116 0.468299 0.201881 -0.774884 0.680289 0.861098 -0.842969 0.789546 0.265720 0.522091 0.472002 -0.359665 -0.650789 0.862858 -0.327189 0.967660 -0.645461 -0.929405 -0.000038 -0.673353 -0.139649 -0.302477 0.299161 0.106505 -0.476279 0.410209 -0.681888 -0.144441 0.943578 0.175918 0.662558 0.005694 -0.355783 -0.135561 0.230810 -0.675494 -0.274463 0.387840 -0.885948 0.991257 -0.090069 0.586054 -0.368408 0.259143 0.448911 0.304403 0.226803 0.803451 0.374997 -0.773236 -0.869903 -0.764651 -0.075712 0.429258 0.341854 0.448009 -0.160533 0.659966 -0.696432 -0.216956 -0.164116 0.966126 0.788738 0.480101 -0.169435 0.019548 0.804607 0.556102 -0.592611 0.918659 0.547358 0.317320 0.504713 -0.821050 -0.423537 -0.046376 0.483353 0.803265 -0.242926 -0.141650 -0.969970 -0.112828 0.093699 -0.045683 -0.683570 -0.564447 -0.597673 0.155896 -0.904481 -0.294106 0.938941 -0.068597 -0.327980 0.727679 -0.588496 0.502585 -0.252773 -0.783889 0.058687 0.154616 -0.865230 -0.393955 -0.528064 0.639483 -0.215005 0.048399 -0.406893 -0.731652 -0.148336 0.350181 0.126698 -0.118306 -0.762647 -0.779603 0.836011 -0.446218 -0.344050 -0.761662 0.709679 -0.248531 -0.055768 0.648620 0.682872 0.616252 0.376299 -0.905624 0.118837 -0.876474 -0.689512 -0.822477 0.278141 -0.554742 -0.216432 0.750077 -0.915259 0.568563 -0.201524 -0.322153 0.836911 0.650140 -0.971972 -0.036390 -0.468167 -0.734619 0.184007 -0.632156 -0.180837 0.839957 -0.393818 -0.471158 -0.408574 0.550414 -0.822538 -0.725702 0.166666 0.553760 -0.631325 -0.714498 0.677286 -0.320838 -0.536974 -0.044572 0.124420 0.246594 -0.294495 0.209161 -0.184843 0.503981 0.887008 -0.347931 0.154120 0.915036 0.615679 0.685953 -0.819583 -0.200315 -0.946202 -0.000420 -0.360358 -0.340021 0.528422 0.231069 -0.789607 0.705883 0.505367 0.377059 0.259644 0.874042 0.662561 -0.063070 -0.446796 -0.874413 0.892357 0.677624 0.372181 -0.402138 -0.113216 -0.812662 -0.898157 -0.226208 -0.160593 0.255963 -0.311172 -0.544914 -0.058084 -0.130755 0.254771 -0.004286 0.868824 0.894414 0.655693 0.397246 0.125482 0.866086 0.103129 -0.369151 0.243145 -0.637227 -0.495109 -0.094294 0.299703 0.058095 0.031293 0.192060 -0.264282 -0.596526 0.789922 0.622503 -0.409188 0.891765 -0.603705 0.430219 0.147728 0.085123 0.885305 -0.910356 0.954368 0.140076 0.085357 0.823192 0.034490 -0.258950 0.220439 -0.840028 -0.392864 -0.676432 -0.209179 0.850281 -0.313659 0.295712 -0.244013 0.986044 -0.646194 0.787280 0.178104 0.089525 -0.809246 -0.031974 -0.287972 -0.218434 -0.140209 0.108323 -0.788215 -0.992481 -0.806554 -0.902910 -0.902838 -0.852186 0.237167 0.182520 0.971006 -0.728343 0.923570 0.191445 -0.568371 -0.469294 0.515013 0.222450 -0.619013 -0.798646 -0.481839 0.136975 -0.812602 -0.128032 -0.075745 0.365502 0.961493 0.115009 -0.666471 -0.326480 0.896575 0.193320 0.781843 -0.891639 0.200839 0.975289 -0.794549 0.298001 -0.876898 0.442618 -0.519479 -0.905891 0.714274 -0.595909 0.285553 -0.854097 -0.065203 -0.199433 0.368353 0.315784 0.001921 0.886514 -0.547241 0.189319 -0.241518 0.377014 -0.445179 -0.280026 -0.507977 -0.111650 0.393494 -0.611402 -0.918330 0.175337 -0.503041 0.282509 0.150626 -0.297590 -0.419490 0.273728 -0.854972 0.061030 0.367837 0.859302 0.465121 -0.346610 -0.994795 -0.600082 0.453957 0.373558 0.715702 -0.544123 0.260072 -0.831539 0.645196 -0.981446 0.545474 -0.799982 -0.261472 -0.962503 0.088368 -0.867978 -0.573905 0.170038 0.307360 -0.076946 -0.547454 -0.542015 0.625463 0.033056 0.731713 0.770491 -0.905913 0.099550 0.629793 0.559208 0.752940 0.634998 0.959125 0.206896 0.008556 0.674827 0.662774 -0.731372 0.843288 0.307970 -0.712818 0.388762 0.507988 0.025710 0.426259 -0.403644 0.157732 0.852354 0.766393 -0.534909 -0.224592 -0.781060 -0.076923 -0.599129 0.251996 -0.345210 -0.828638 0.346082 0.754340 0.801155 -0.094710 0.507280 0.436153 -0.135585 -0.285824 -0.555291 -0.460757 -0.623050 -0.286663 -0.617469 0.684920 0.000519 0.771293 0.192908 -0.973772 0.197553 0.789264 0.183960 0.049907 0.555657 0.649052 0.825315 0.774597 -0.427872 -0.773814 0.026593 0.226918 -0.602451 -0.627325 -0.018742 -0.801296 0.277965 -0.511462 0.634857 -0.857619 0.202714 -0.920433 -0.318376 0.579663 -0.207096 0.064155 0.264583 0.793423 -0.164552 -0.542509 0.819651 -0.966999 -0.753245 0.003612 0.082908 0.802412 -0.347337 -0.091776 0.577009 0.224792 0.134410 -0.396399 -0.548290 0.531959 -0.023723 0.432968 0.730663 -0.745758 0.921506 0.365520 -0.603377 0.124220 0.445087 0.078246 -0.296117 -0.762009 -0.857599 0.968466 -0.968586 -0.022151 -0.574043 0.851065 0.010850 -0.327288 -0.145323 -0.906241 -0.524877 0.507340 0.001982 -0.947868 -0.267868 -0.863607 -0.344267 0.183843 0.668352 0.632010 -0.383189 0.399014 0.886252 -0.461683 -0.235466 -0.717125 0.662537 -0.790379 0.361121 -0.633580 -0.552388 0.503522 -0.665114 -0.520975 -0.518629 -0.239157 -0.669909 0.492221 0.433555 0.184768 0.585980 0.908678 -0.307892 -0.412038 0.960810 0.424240 -0.275645 -0.383456 -0.391917 -0.607294 -0.751446 0.224894 0.791721 -0.865194 0.763211 -0.443745 -0.582320 0.425748 -0.234124 0.778801 0.792167 0.213488 0.282323 -0.872947 0.692513 0.763694 -0.112104 -0.977396 0.255915 -0.678549 0.207371 -0.158106 -0.769870 0.899479 0.429856 -0.809060 0.323719 -0.845789 -0.192516 0.931802 -0.453083 0.056038 0.156696 -0.661362 0.190843 -0.080093 -0.105107 0.608524 -0.654345 0.660769 0.387325 -0.862178 -0.125744 -0.330352 -0.735124 -0.433231 -0.566658 0.152772 -0.410627 0.689256 0.474223 0.796744 -0.468850 0.704353 0.696224 0.961006 0.895293 0.019943 -0.884783 -0.297223 -0.048255 -0.337866 0.758814 -0.891558 0.000772 -0.050342 0.028349 0.895665 -0.441818 0.374004 0.556433 0.945507 0.511827 -0.569310 -0.384846 0.776702 -0.002541 0.048496 -0.070526 0.586832 -0.262248 -0.596303 0.383576 0.268902 -0.891950 0.079800 0.229908 -0.996657 -0.900257 0.345125 -0.293880 0.051489 -0.992740 -0.535066 0.159930 0.008032 0.414592 -0.811721 -0.096303 0.972774 0.562283 -0.539870 0.918280 0.074110 -0.109180 -0.466565 -0.149188 0.888279 0.581931 0.780286 0.475111 -0.680318 -0.816016 -0.141313 0.588585 -0.707966 0.938487 -0.181507 -0.704623 -0.961769 -0.836382 0.001497 0.089719 -0.829122 0.466431 -0.750350 0.178910 -0.118977 -0.562071 -0.917393 -0.146204 -0.999788 -0.457263 -0.227924 0.074322 0.433557 0.305511 0.925134 0.321835 -0.112559 0.705420 -0.203054 0.207124 0.889404 0.655633 -0.204292 -0.818562 0.594121 0.614201 -0.523185 0.632351 0.777820 0.478312 -0.277930 0.948698 -0.055258 -0.028280 0.127608 0.825765 0.409649 0.210215 -0.320439 0.409861 0.752952 0.451637 -0.515817 0.186508 -0.242852 -0.590683 -0.491657 0.644589 -0.885262 0.305289 -0.148287 -0.995858 -0.039077 0.647421 -0.814420 -0.444957 0.261622 -0.337605 -0.812606 0.039442 -0.859293 -0.090535 -0.011860 0.085449 0.881185 -0.884252 -0.088786 0.290833 0.325963 0.590774 -0.299306 0.078914 0.042411 0.184878 -0.734577 0.799559 0.594195 -0.226234 0.444148 0.708933 -0.920945 -0.704139 0.713075 0.039978 0.943282 0.898655 0.595021 0.204904 -0.438950 0.782415 -0.755654 -0.298243 -0.308120 0.232486 0.787206 -0.426935 0.348234 -0.301581 0.863898 -0.325803 -0.710806 -0.435407 0.753112 0.331605 0.749470 -0.981466 0.131164 0.343665 -0.207700 -0.424688 0.052598 -0.128645 -0.128827 -0.234326 0.911333 -0.185546 -0.335671 0.506354 -0.980642 0.225380 0.288769 -0.736295 0.927137 0.980649 0.496191 0.714342 -0.446286 -0.155575 -0.587238 -0.582388 0.518622 -0.298045 -0.017796 0.271733 -0.966440 -0.268325 0.290267 0.164724 -0.924660 -0.917432 0.740036 0.127938 -0.046077 -0.388791 0.893612 -0.134744 0.425663 -0.442059 -0.628390 0.445022 0.783320 0.660379 0.708726 0.710457 0.641028 0.204917 0.424800 -0.805258 -0.950658 0.837561 -0.387646 0.567964 -0.460483 0.594558 -0.160303 -0.426923 -0.673767 -0.870035 0.737802 -0.598427 -0.787468 0.477838 0.529511 0.166455 -0.910953 0.423123 -0.968289 0.514710 0.981064 -0.596680 -0.040268 0.764385 -0.936301 -0.331542 0.474842 0.704728 0.873375 -0.100359 0.899470 0.922717 -0.262797 -0.488176 0.490681 0.276719 -0.893618 -0.669622 0.849797 -0.567385 -0.539658 0.587598 -0.165812 -0.327126 0.065436 -0.636301 0.839329 0.154483 0.786822 0.871040 -0.330807 0.767887 -0.725640 0.628925 0.532271 -0.661940 -0.702616 0.007113 -0.957213 -0.829241 0.906754 0.942257 -0.906524 -0.356043 -0.545919 0.584157 0.920676 -0.439537 0.914535 0.770473 -0.006922 -0.625123 0.358071 0.827266 0.047752 -0.576493 -0.809034 -0.112919 0.577990 0.977788 -0.241879 -0.752817 0.745675 0.032481 0.876109 0.277946 0.370541 -0.826508 -0.714941 0.413329 -0.655748 -0.808187 0.355586 -0.562272 -0.164230 0.809667 -0.978115 -0.243554 -0.629870 0.936420 -0.473081 0.363208 -0.688702 0.884990 0.190475 0.359049 -0.691502 0.381440 -0.753870 0.886488 0.359228 0.004251 -0.866329 0.104903 -0.963267 -0.990220 -0.617151 0.407274 -0.816728 -0.332092 -0.179398 -0.472476 -0.140279 -0.823812 -0.034748 0.695491 0.985855 -0.012863 -0.548063 -0.644015 -0.076443 -0.021144 0.719193 0.234855 -0.136154 -0.090332 -0.406096 0.172344 -0.708892 -0.159966 0.058832 0.650336 0.844286 0.192503 -0.244761 0.881018 0.202283 0.138087 0.288292 0.385555 0.805995 -0.891106 0.913079 -0.334285 -0.714917 -0.121669 -0.638794 -0.729062 0.865468 -0.186857 -0.373078 -0.210975 0.791999 -0.653885 -0.976121 -0.344155 0.255783 -0.382217 0.828189 0.546891 0.457817 -0.112979 0.197227 0.302103 -0.920476 0.952465 0.183121 0.281807 0.090552 -0.528587 -0.332637 -0.103453 -0.419692 -0.419558 0.562263 -0.134610 0.458773 0.923469 0.136328 0.324241 -0.263389 0.763250 -0.886734 -0.471390 -0.890634 -0.862855 0.184455 0.365149 -0.245072 0.012644 -0.087961 -0.787254 0.899666 -0.890734 0.514849 0.979190 -0.938269 -0.302030 0.260997 0.152284 0.169383 0.928360 -0.951169 0.749691 -0.491198 0.611094 -0.384919 0.967576 0.534562 0.751409 0.291817 -0.728826 0.514660 0.405082 -0.200216 0.624025 0.542227 0.984239 -0.010826 -0.702844 -0.003116 0.901214 -0.490099 -0.103451 -0.989520 -0.975250 -0.124261 -0.927789 -0.277280 -0.863263 0.224495 0.892103 -0.934903 0.273326 0.641794 -0.426101 -0.115581 -0.743124 -0.458525 -0.581018 -0.991715 0.833291 -0.309844 0.522945 0.238374 0.489940 0.146970 -0.219399 0.474179 -0.863855 0.077757 -0.528937 -0.962642 0.587658 0.367612 -0.952162 0.612408 -0.756648 -0.879951 -0.664872 -0.619911 0.344544 -0.772769 -0.554815 -0.382131 0.869026 0.019085 0.502289 -0.874098 0.560560 0.921270 -0.865813 0.393851 -0.388574 0.657132 -0.367775 -0.898635 -0.195898 0.412826 0.575544 -0.059753 -0.509417 -0.953393 -0.022395 -0.921759 0.414220 0.025444 0.690649 0.657571 0.145493 -0.974224 -0.962340 -0.509964 -0.746992 -0.517155 0.107906 -0.877967 0.501930 -0.389806 -0.752065 0.062490 -0.468536 -0.617878 -0.543659 0.142890 -0.960746 0.088566 0.244255 -0.156644 -0.498608 -0.180200 0.783603 -0.008026 -0.133593 -0.238792 0.070215 -0.719374 0.786652 -0.239136 0.938198 -0.067856 -0.213360 0.975857 0.422181 0.039648 -0.541297 -0.469914 0.161681 0.960633 0.140281 0.409616 0.023123 0.671745 0.791738 0.479463 -0.185365 0.830991 -0.431971 -0.941110 -0.325653 0.069421 -0.121310 -0.542050 -0.938604 0.745097 0.219158 0.131611 -0.974276 0.005810 0.892475 0.963921 0.937954 -0.320885 0.939779 0.360135 0.718763 -0.601518 0.890221 -0.119556 -0.640886 0.030502 -0.709940 0.382237 -0.297753 -0.918203 -0.138300 0.516882 0.912789 0.429730 0.575772 -0.412865 -0.500849 -0.545538 0.045085 -0.439454 -0.800441 -0.735757 0.692157 -0.774717 0.270053 0.584632 -0.810796 0.208006 -0.736253 -0.871017 -0.431859 0.982509 -0.472536 -0.541638 -0.137047 -0.113421 0.488864 0.153013 -0.731185 -0.808889 0.234810 0.130516 0.707992 0.147599 -0.439754 0.283764 0.734734 0.059396 0.738226 -0.220181 0.619943 0.937785 0.044062 0.312100 -0.836932 -0.685885 -0.103268 -0.647728 0.522121 0.160478 -0.518745 -0.909738 0.142987 0.008719 -0.451375 -0.994060 0.895297 -0.962511 0.158953 -0.835887 -0.771401 -0.606236 0.294629 0.936591 0.541362 0.854874 0.220355 0.276097 -0.085729 -0.041418 -0.944084 -0.465786 -0.103633 0.099978 0.846313 0.059435 0.414093 -0.256955 0.411707 -0.063785 0.903523 0.892962 0.026477 0.046511 -0.098319 0.575102 0.052451 -0.203022 0.612591 -0.788596 -0.038909 0.841190 -0.394832 -0.744280 0.777781 -0.853470 -0.889406 -0.001863 0.422627 0.024865 0.956718 0.478543 0.559078 -0.146915 -0.421478 0.405392 0.912521 0.992615 -0.851563 0.324228 -0.071171 -0.948040 0.217190 0.955306 0.098470 -0.881130 0.530408 -0.849079 -0.084152 0.142999 -0.637674 0.876939 -0.015811 -0.032506 -0.867341 -0.238030 0.114024 -0.756747 0.760106 -0.463349 0.268118 0.716824 -0.984805 -0.172804 -0.430090 -0.406284 -0.767412 -0.517570 -0.413669 -0.618975 0.806658 0.515160 -0.567015 0.023848 0.470467 0.531455 0.142718 0.000875 0.682376 -0.941434 -0.856126 -0.955298 0.935506 0.128062 0.012196 -0.931835 0.890032 -0.873780 -0.688582 0.650138 -0.337129 0.579536 0.366962 -0.321934 -0.593268 0.936872 0.271782 -0.360680 -0.580697 0.858113 0.020345 -0.774039 0.373273 0.453329 0.249808 -0.156260 -0.015216 -0.607474 0.844615 -0.332839 -0.548908 0.988488 -0.288137 -0.613402 0.116551 0.724059 -0.545237 0.006582 0.850279 -0.233820 -0.343280 -0.486850 -0.654284 -0.976317 0.191216 -0.247552 0.960555 -0.537002 0.391768 -0.620142 -0.678889 -0.587887 -0.394181 0.694384 0.865442 0.855627 -0.461876 -0.149774 -0.751847 -0.617261 0.517387 -0.300754 -0.628773 -0.770750 0.085844 0.487778 0.953309 0.540606 -0.505640 0.803587 -0.693214 0.151080 -0.683263 -0.347498 0.174763 0.507953 0.404950 0.135318 0.970951 -0.203282 0.515176 -0.707938 0.208831 -0.879006 0.986446 0.074273 0.976621 -0.475430 0.924499 -0.775226 -0.092691 0.441886 -0.075980 0.278535 0.671136 -0.990137 -0.233687 0.624445 0.550470 0.260673 0.428032 0.857256 -0.588247 0.744769 -0.490242 0.586516 0.252723 0.914709 -0.278166 0.223674 -0.288573 -0.762990 0.515736 0.920258 -0.641996 0.502182 -0.005469 -0.665374 -0.973248 -0.080970 -0.440600 -0.065940 -0.639084 0.483420 -0.787404 -0.967947 0.493283 -0.021091 0.656497 0.043753 -0.760418 0.084529 -0.098991 -0.348665 -0.170701 0.410767 -0.762149 -0.917979 0.325476 -0.040315 0.305695 -0.963097 0.196694 -0.178569 0.957160 0.554699 -0.676387 -0.048309 0.889324 -0.649635 0.870721 -0.551276 0.284426 -0.768363 0.932144 0.497022 -0.736310 0.425428 -0.524069 0.920187 -0.530819 -0.284488 0.004717 0.370189 0.366847 0.834015 -0.219043 0.604698 0.916037 -0.893568 -0.435618 0.221732 -0.856665 0.761077 -0.956836 -0.899504 0.315775 -0.633223 0.052187 0.205100 -0.282858 -0.077092 0.653824 -0.998432 0.154545 0.585968 0.498590 0.418235 0.011396 0.974521 0.338423 0.480576 -0.309967 -0.656861 -0.149234 -0.943119 -0.822845 0.631722 0.661578 -0.906809 0.738155 -0.774040 0.314924 0.881490 0.987037 0.358087 0.981985 0.302812 0.724864 0.034172 -0.492088 -0.557994 0.957080 -0.838264 -0.556425 0.111625 0.747704 0.942165 -0.470139 -0.240901 0.916686 0.868283 -0.760325 -0.393281 -0.788578 0.090441 -0.336400 -0.611423 -0.277837 -0.674822 -0.518232 -0.539682 -0.448862 0.796692 -0.658192 -0.461824 0.154779 -0.676207 0.840988 -0.120357 0.357965 -0.651100 0.321649 0.315045 -0.489364 0.765224 -0.573330 -0.741661 0.707389 -0.043469 0.017439 0.624075 -0.175186 0.257114 -0.769206 0.036237 -0.652445 -0.105606 0.424814 0.069718 0.219572 0.906582 0.530036 0.770710 0.703274 0.871843 -0.691114 -0.141947 -0.804364 -0.850126 0.737696 0.553601 -0.501226 0.059345 -0.131354 0.009410 -0.175431 0.295317 0.267749 -0.468041 -0.748152 -0.714812 -0.843967 0.076662 0.542302 -0.613172 -0.887101 0.889856 0.281221 0.537713 -0.040426 -0.499207 0.444295 -0.510390 -0.728497 0.147568 -0.638547 -0.419611 -0.994379 -0.442910 -0.269738 0.743317 -0.889309 0.229036 -0.197338 -0.020663 -0.761554 0.627231 -0.725346 0.506195 -0.840810 -0.473498 0.791382 -0.684777 0.603164 0.333684 -0.297949 0.716063 0.223540 0.983272 0.253776 -0.816886 -0.515935 -0.301930 -0.327276 -0.244432 0.845638 0.034178 0.335957 0.851259 0.591268 -0.933781 0.594576 0.701959 0.295255 -0.602762 -0.318704 0.533701 -0.975530 -0.044050 0.039895 -0.816340 0.482452 -0.168723 -0.501117 0.085617 -0.835039 0.200934 -0.198320 0.388501 0.184206 -0.944545 0.571616 0.668271 -0.246475 -0.755660 -0.576160 -0.400836 0.278518 0.759796 -0.549577 -0.130214 0.826016 -0.955001 -0.428255 0.121271 -0.557762 0.253041 -0.345029 -0.533293 -0.791009 0.694867 -0.349633 0.691444 -0.473856 0.149250 -0.222940 -0.308895 -0.649816 0.578740 -0.920393 0.534390 0.634195 0.651223 0.202661 -0.612279 0.895563 0.626501 -0.013115 0.174081 0.386297 0.437308 -0.956133 0.212313 0.482307 -0.384388 -0.666417 0.924545 0.868653 -0.011445 -0.608748 -0.922356 -0.316579 0.041619 0.769088 0.209566 -0.809132 -0.453852 0.900671 -0.458948 -0.875112 0.980278 -0.924558 0.759084 0.631500 0.278103 -0.853196 0.527063 -0.095396 0.133689 -0.298856 -0.709099 -0.429003 -0.254989 0.503214 -0.946696 0.360623 0.836797 0.977848 0.229276 -0.174648 -0.630900 0.306920 0.508773 0.410719 0.076007 -0.281661 0.601587 0.622155 -0.380990 -0.857360 0.747043 -0.400712 -0.781918 0.506127 -0.769212 0.496185 0.652931 0.757851 -0.599211 -0.213380 -0.541004 -0.308310 0.357617 0.204007 -0.805097 0.410920 -0.435370 -0.968300 0.388769 0.793906 -0.142948 0.757869 0.100825 -0.634175 0.168588 -0.823168 0.084164 -0.229825 0.798988 0.703174 -0.087185 0.546031 -0.697539 0.130896 0.052158 -0.466751 -0.372919 -0.294911 -0.708900 0.027870 0.491709 -0.249904 0.719560 -0.150674 0.954103 0.914463 -0.739754 -0.481267 0.946163 0.649014 -0.687361 -0.196785 0.406883 0.413464 0.169041 -0.424529 0.590296 -0.746795 0.345646 0.389284 0.956378 -0.741539 -0.064685 -0.741160 0.389357 0.987472 -0.207911 -0.983562 -0.307439 0.083189 0.044308 -0.815730 0.833285 -0.236132 0.033596 0.787388 -0.321669 0.293842 -0.693879 -0.375506 -0.057144 -0.381240 0.427709 -0.650261 -0.967776 -0.403250 -0.074790 0.622520 -0.150046 -0.729144 0.011803 -0.193667 -0.470683 0.947118 0.065172 0.918674 0.934590 0.857261 0.935112 -0.372848 -0.059549 -0.020580 -0.188578 -0.226264 0.743287 0.845018 -0.438876 -0.578382 0.138859 -0.132755 0.046112 -0.918284 0.486005 -0.526179 -0.568545 0.518228 0.070571 0.356666 0.140748 0.920526 0.627522 -0.847449 -0.273142 -0.843161 -0.900331 0.792031 -0.924487 -0.965741 0.649292 -0.989376 -0.338589 -0.410257 -0.009956 0.472833 0.363478 -0.266669 0.317850 0.924602 0.154949 -0.543290 -0.208153 -0.798939 -0.461575 -0.722148 -0.325117 -0.030119 0.796080 0.745454 -0.673454 -0.063173 0.665980 0.954068 0.089378 -0.607162 -0.889093 0.189047 -0.815131 -0.813581 0.223306 0.834161 -0.802956 0.884717 -0.576096 0.187088 0.357550 0.787382 0.920419 -0.324600 0.711984 0.075368 0.132110 -0.496169 0.276429 0.670535 -0.218317 0.951312 -0.359585 -0.422238 0.696766 -0.033038 0.514589 0.362746 -0.078970 -0.396032 0.755585 0.031937 0.793015 0.940454 0.218356 0.016321 0.774615 0.415400 -0.098961 -0.801481 -0.397513 -0.741412 0.985901 -0.477094 -0.066012 0.697885 0.598274 -0.933902 -0.798284 -0.125296 0.736633 -0.016601 -0.173984 -0.622952 0.561161 -0.477218 0.344010 0.075750 0.885528 -0.734960 0.679718 0.641113 0.296976 0.472733 0.581567 -0.484668 -0.510946 0.356182 0.930732 0.390093 0.554701 -0.466781 0.648681 0.540602 0.056125 -0.417330 0.238487 -0.345601 -0.351233 0.440203 0.529103 -0.614600 -0.576398 -0.644881 -0.237551 0.984763 -0.122099 -0.893541 0.060513 -0.236571 -0.628502 -0.259769 -0.595458 0.668474 -0.787036 0.986109 -0.816194 -0.297981 0.342291 -0.885462 -0.907888 -0.103008 -0.352243 0.740793 -0.562406 0.703882 -0.676537 0.676081 -0.641718 -0.027770 0.116284 0.887385 0.357631 0.539886 -0.757496 -0.879921 0.524649 0.120405 -0.773462 -0.414838 0.883834 -0.401964 0.325393 -0.711624 -0.733490 0.538358 -0.725514 -0.549683 -0.759623 0.616777 -0.435145 -0.667511 -0.486231 0.212612 -0.926718 -0.048637 -0.083505 -0.603255 -0.372557 0.274776 0.368975 0.743727 0.162161 -0.273394 0.283613 0.404665 -0.153315 -0.191739 -0.474930 0.073223 0.393423 -0.591096 0.671259 -0.281183 -0.302720 0.937769 -0.742825 -0.028234 -0.611914 -0.502449 -0.411457 -0.047060 -0.169960 0.102311 -0.834448 -0.096678 -0.946326 0.082047 0.300067 -0.318883 -0.643177 -0.330958 -0.575156 0.518985 0.395647 0.708457 -0.076351 -0.757668 -0.483282 0.448719 0.315555 0.910142 0.857623 -0.013186 -0.371042 -0.445098 -0.075417 -0.113867 0.526668 0.312668 0.383684 -0.884789 -0.734391 -0.786276 0.217522 -0.568839 0.117046 0.271196 0.513208 -0.582887 0.952314 0.870031 0.086155 -0.622842 0.389016 -0.518198 -0.914385 -0.687334 -0.275866 -0.397666 0.761384 -0.960311 -0.487525 0.619007 0.026503 0.141433 -0.826091 0.951086 -0.972434 0.700577 0.263754 0.411251 0.815788 0.529362 0.624975 0.033310 0.960524 -0.257979 -0.695493 0.473732 0.159134 -0.743179 0.343763 -0.754711 -0.366021 -0.267221 -0.272909 -0.280406 0.045445 0.451226 0.321928 -0.193171 0.490915 0.834403 -0.574164 -0.482582 -0.024164 -0.400254 -0.531496 0.003403 -0.699677 0.732258 -0.585347 -0.883889 0.261620 -0.960372 0.149422 0.222144 -0.218350 0.453929 -0.304125 0.940784 0.710749 -0.960361 -0.813927 -0.655272 -0.227582 -0.086836 0.064322 0.817863 -0.635610 -0.613750 -0.375308 0.855305 -0.779347 0.050528 -0.627277 0.196489 0.650274 -0.158773 -0.800109 0.950597 -0.426516 -0.385455 -0.933292 0.835104 -0.345827 0.216130 0.057248 0.435823 -0.329942 0.753123 0.376607 -0.619192 0.792762 0.562680 -0.274464 -0.434820 -0.524156 0.789858 -0.616957 -0.159766 -0.823893 0.007735 -0.304461 -0.603240 -0.941737 0.068262 0.593249 0.708537 0.909488 0.793140 0.659133 -0.517027 -0.592315 0.725841 -0.681923 0.061858 -0.058029 0.375325 -0.502320 0.612030 0.128448 0.874287 0.992837 -0.078790 0.436967 -0.281627 0.486390 0.912811 -0.491769 0.869433 -0.246955 -0.315662 -0.122832 0.448584 0.081098 -0.064569 -0.483154 -0.325653 -0.356033 -0.573665 -0.532513 -0.696899 -0.090692 -0.124828 -0.971058 
0.227384 0.937029 -0.029087 -0.397291 -0.565290 -0.417057 0.731158 -0.691003 -0.424220 -0.347632 0.745963 0.294153 -0.861242 0.658774 0.802384 -0.991808 -0.588180 -0.513278 -0.114640 0.860404 0.567820 0.820790 -0.622750 -0.757833 -0.535242 -0.196415 -0.290346 -0.232142 0.712893 0.584826 -0.203199 -0.059723 0.521855 0.767714 0.542987 0.956565 -0.649343 0.274144 -0.734438 -0.073562 0.926512 -0.988475 -0.779409 -0.934729 0.670299 -0.977025 -0.926538 -0.917881 -0.490303 -0.041178 0.942523 -0.922483 -0.220388 -0.680227 -0.680316 0.244370 0.123358 0.029338 -0.987772 -0.163749 -0.385836 -0.190971 0.776528 -0.863981 -0.423257 0.319515 -0.907416 -0.072600 -0.406341 -0.641854 0.853838 -0.479829 -0.630329 -0.925571 -0.414558 -0.960030 -0.902596 -0.341096 -0.877911 -0.392899 0.617726 -0.935388 -0.315382 -0.602662 -0.615615 0.004301 0.641708 0.507743 -0.966361 0.653936 -0.656006 -0.352197 -0.537035 -0.879478 -0.216178 0.039708 0.440037 -0.123594 0.967108 -0.966304 0.234552 0.820946 -0.446133 0.604223 0.895375 0.139309 0.644194 0.992779 0.798213 0.766283 -0.400120 0.415939 0.830894 0.284497 0.813277 -0.784721 -0.711201 0.454985 0.723022 -0.677562 0.108921 -0.932983 -0.029759 0.571886 -0.812461 0.754063 -0.388406 0.627576 -0.369531 -0.421298 0.661272 0.865022 -0.600352 -0.784860 0.469245 -0.704977 0.354449 0.113439 -0.712198 0.152662 -0.120279 -0.112318 -0.431399 -0.289384 -0.827820 -0.618122 -0.074105 -0.539022 0.836862 -0.351083 -0.216584 -0.054217 -0.284066 0.753657 -0.482331 -0.096527 0.507720 0.129263 -0.468951 -0.861810 0.707965 -0.807678 -0.996789 -0.892387 -0.592539 0.472456 -0.597364 0.761910 -0.414105 -0.309561 -0.085428 0.465616 0.578121 0.483172 -0.823768 0.750301 0.865050 0.102127 -0.788721 0.701912 0.751044 -0.005305 -0.352305 -0.533022 -0.251647 0.165364 0.370451 -0.743927 -0.705373 0.901501 -0.605738 -0.997408 -0.906177 -0.602526 -0.889795 -0.498716 0.869930 -0.487159 -0.736806 -0.544175 0.203280 0.177766 0.921442 -0.218599 -0.339062 -0.902326 -0.468298 -0.474013 0.199801 -0.257019 -0.772101 -0.049155 0.737677 -0.124405 0.417823 -0.513971 -0.959041 -0.211725 -0.257898 -0.664414 -0.310225 0.136364 -0.661822 -0.216402 0.533838 -0.551617 0.284882 0.403768 -0.038776 0.548076 0.859593 -0.835496 -0.274158 0.781035 -0.054094 0.386780 0.878709 0.477607 0.912767 0.078509 -0.779411 -0.859334 -0.970646 0.958265 0.016261 0.447177 -0.555706 0.057220 -0.764548 0.186396 0.392806 -0.074773 -0.677239 0.730984 0.708825 0.856598 -0.820633 -0.006292 0.260367 0.140591 -0.458216 0.119960 0.305096 0.267626 -0.099005 -0.748999 -0.345594 -0.220296 0.728609 -0.432827 0.858213 0.949197 -0.292161 0.887567 0.907462 0.724100 0.334745 -0.648243 -0.218680 0.570196 0.538153 -0.825874 -0.504576 0.860913 0.905110 -0.795751 0.717512 -0.915523 0.197957 -0.022121 0.225068 0.739741 -0.902161 -0.469836 0.007367 -0.001166 -0.218834 0.661773 0.778538 -0.490226 -0.771054 0.636751 -0.541028 -0.063215 0.524318 -0.633566 -0.339115 -0.140937 -0.281809 0.442205 -0.570741 -0.743656 0.616331 -0.075317 -0.882743 0.521441 0.128932 0.834769 0.605919 -0.673111 -0.187352 -0.169013 -0.933370 -0.089514 0.361151 0.073997 0.909320 -0.857683 -0.264230 0.687858 -0.347909 -0.035285 0.324608 0.111063 0.901500 -0.151074 0.477497 -0.437614 0.707989 -0.804312 -0.995409 -0.862752 -0.547969 0.620922 0.061931 -0.430712 0.142364 -0.809137 -0.595943 -0.251718 -0.482248 0.216705 0.579269 -0.415618 -0.872809 -0.059579 0.658379 -0.963489 0.082738 -0.605851 0.724369 0.734829 0.358864 0.048977 -0.154108 0.260365 0.897903 -0.676611 0.822750 0.605892 -0.480923 0.827341 0.743140 -0.028892 0.448264 -0.194929 0.540397 -0.409373 -0.004066 0.944454 0.338910 0.513686 0.161159 -0.081821 -0.901932 0.288350 0.858600 0.756447 0.324861 -0.058663 -0.849404 0.049230 -0.323834 0.509461 -0.901793 0.522058 -0.230175 0.996110 0.845447 -0.407424 0.602003 -0.635476 -0.580083 0.345143 0.335632 0.868181 -0.849786 -0.123972 -0.541192 0.146149 -0.179518 0.797718 -0.340165 0.981641 -0.284103 -0.242097 0.269991 -0.425503 -0.485650 -0.405147 0.515834 -0.335053 0.644083 -0.808000 -0.825593 0.742290 0.714058 -0.055768 0.738400 0.559505 0.536808 0.340402 0.924029 0.956725 -0.314455 0.259661 0.824906 -0.164241 -0.864311 -0.716286 0.981908 -0.043829 -0.918568 -0.358257 -0.062188 -0.202671 0.399646 -0.792196 0.371825 0.913997 -0.197343 -0.112340 -0.421057 -0.553261 0.079660 -0.246650 -0.810971 -0.206281 0.697583 0.927429 -0.646776 0.234391 0.267831 -0.722747 0.191116 0.953376 0.536914 0.016021 -0.210865 0.672603 0.299735 -0.228957 -0.371226 0.381166 0.412786 0.566586 -0.821505 -0.187568 0.774390 0.550320 -0.273571 -0.422954 -0.562020 0.305372 0.023786 0.517640 -0.941278 0.212815 -0.688641 0.756305 0.140243 -0.335417 -0.009304 -0.591926 -0.058164 -0.818189 -0.638550 -0.521251 0.197833 0.150585 -0.848648 -0.502432 0.921629 -0.219874 0.878734 0.334415 -0.653288 -0.942771 -0.853153 -0.878898 0.607549 -0.126724 -0.301852 -0.954471 -0.821352 0.721934 0.563169 -0.762630 -0.065252 0.874528 0.993675 -0.925008 -0.460890 -0.015629 -0.516935 0.480946 0.166182 -0.155485 0.959695 -0.635985 0.995101 -0.888953 -0.138418 0.916729 -0.108827 -0.259684 0.251144 0.237884 -0.202455 0.397991 0.358986 -0.594905 -0.728733 -0.942866 -0.549376 -0.550085 0.779068 -0.986207 -0.312715 -0.286184 0.888321 -0.319039 -0.211192 -0.572569 0.665331 0.271873 0.908377 -0.168486 -0.883611 0.868073 0.195529 -0.888510 0.979120 -0.942889 -0.971781 -0.129708 -0.202573 0.279364 -0.891823 0.594973 -0.322645 0.467163 -0.999933 -0.051378 0.524297 -0.549309 0.398538 0.303365 -0.535516 -0.914177 -0.982818 -0.647195 -0.233216 -0.194010 -0.219764 -0.567885 -0.922137 -0.311387 0.263629 -0.805748 -0.443314 -0.540843 -0.694258 -0.464195 -0.483732 -0.666039 0.406098 0.313695 0.613325 0.514275 -0.091332 -0.709320 -0.018562 -0.091265 0.239302 -0.494265 0.359426 -0.362160 0.809100 0.823910 -0.276337 0.826282 -0.823285 0.490446 -0.367728 -0.043049 0.922561 -0.289865 0.645564 0.186190 -0.095613 -0.797750 0.645347 0.210129 -0.261945 -0.838385 0.544090 -0.855847 0.475310 0.157415 0.658428 -0.616021 0.448095 -0.360135 0.292714 -0.312603 0.145601 -0.347860 0.325237 -0.045299 -0.523950 -0.951100 -0.219017 -0.347235 0.539346 0.413255 0.609716 0.461907 -0.876610 0.255280 -0.351903 0.027778 0.457530 -0.706556 -0.762093 -0.804415 -0.544941 0.781998 -0.660262 0.930369 -0.060587 0.998166 -0.685652 -0.612492 -0.361969 0.607062 0.074905 0.783632 -0.740798 -0.599859 -0.261667 -0.264748 -0.550959 0.519316 0.388018 0.988387 -0.067429 -0.002266 0.450294 0.055962 -0.746986 -0.901609 -0.916260 0.710544 -0.608165 -0.678353 0.906129 -0.153107 -0.896355 -0.754133 -0.222738 0.043058 -0.755967 0.091610 0.430565 -0.117936 -0.301328 -0.494530 -0.334304 -0.042127 -0.094388 0.404029 0.693126 0.354653 -0.076655 0.081143 0.343040 0.855916 -0.921123 -0.206666 -0.088122 -0.668109 -0.108275 -0.004383 -0.957566 0.283560 0.317265 0.948563 -0.869547 0.420909 -0.805570 -0.092285 -0.536033 -0.561538 0.999325 0.894533 0.320527 -0.302003 -0.599997 0.986223 0.655870 0.305614 0.390251 0.348996 -0.339733 -0.686404 -0.569861 -0.996693 -0.830488 -0.490984 -0.203360 0.081390 -0.159093 0.688365 -0.922992 -0.116659 -0.028075 0.394272 -0.168096 0.102378 -0.184819 0.026334 -0.989907 0.279148 0.464797 -0.990582 0.173681 -0.214677 -0.292585 0.573684 -0.228454 -0.636715 -0.120702 -0.838203 0.712281 0.539565 -0.524607 -0.857579 0.542872 -0.355094 -0.348563 -0.660488 0.726296 0.492344 -0.972123 0.803304 -0.624315 -0.000198 0.197576 0.207590 -0.897820 -0.987243 -0.766076 -0.887727 0.291906 0.698720 -0.878308 -0.534414 -0.515957 -0.170893 -0.960730 0.255589 0.192392 -0.081432 0.417386 -0.095326 -0.541867 0.892780 0.047094 -0.998995 -0.462314 0.698531 -0.659483 -0.736018 0.190876 -0.631606 -0.932715 0.566561 0.368197 0.264861 -0.225850 0.470377 0.277618 0.008074 0.582650 -0.430477 -0.293206 0.704342 0.035110 0.190838 -0.466552 0.074380 -0.553573 0.725841 0.992948 0.863813 -0.369486 -0.548919 0.756593 0.677609 -0.547914 -0.705721 0.376140 -0.207397 -0.441739 -0.432984 0.160997 -0.374454 -0.866424 -0.470806 0.890406 -0.092273 0.999571 0.168024 0.915801 0.582221 0.737548 -0.377405 0.286562 -0.227343 0.813433 0.820011 0.847037 -0.740140 0.545851 0.839986 -0.876327 -0.823635 -0.708933 0.880267 0.853974 -0.256847 -0.825454 0.230114 0.535755 -0.267194 0.797129 -0.303247 0.358352 0.930706 0.225947 0.248758 -0.161567 0.225517 -0.583218 -0.245767 -0.192262 -0.845670 0.376829 -0.905700 -0.073013 0.190262 0.914311 -0.225975 0.450122 0.460162 -0.385990 0.573795 0.636527 -0.094923 0.454062 0.490501 0.648230 0.628608 -0.279386 0.183985 -0.638586 -0.482256 0.880738 0.719766 -0.551551 0.106684 -0.031476 0.286882 -0.667799 0.385306 -0.958885 0.139939 0.539636 0.417944 0.234239 -0.533377 -0.391794 0.148550 0.240648 -0.941672 -0.391288 0.854658 0.632123 -0.754761 -0.240265 0.086185 0.735739 -0.592035 -0.285207 -0.543646 0.591950 0.076207 -0.025902 0.472688 -0.204027 0.422547 -0.420628 0.764497 -0.290571 -0.088427 0.149804 -0.249456 -0.948487 -0.310560 -0.831511 0.285752 0.156063 -0.223305 -0.565698 -0.603289 -0.164977 0.043014 -0.748630 -0.532854 0.288253 0.011105 0.553331 0.023992 0.419070 -0.731876 0.480346 0.011021 0.344332 -0.545556 -0.516291 -0.859695 0.876991 0.063081 0.904802 -0.413580 0.974654 0.054606 0.336964 -0.973833 0.744046 0.505453 0.311919 -0.099891 -0.717853 0.746221 0.296821 0.117170 -0.210765 0.548191 0.584316 -0.922512 -0.440704 0.137647 0.101480 0.978367 0.405771 -0.418174 -0.010613 -0.249897 0.036270 0.473096 -0.109593 -0.086739 -0.463824 -0.204790 0.499680 -0.489170 0.849816 -0.163356 -0.463003 0.593862 -0.657903 0.848916 -0.506029 -0.375756 0.595137 0.790792 0.741414 -0.615628 0.338982 0.325730 -0.538140 0.898278 -0.536623 0.563341 0.876645 0.869148 -0.854833 -0.133968 -0.380750 0.181437 -0.660872 0.509658 -0.905303 -0.124696 -0.695133 0.594378 0.386135 -0.845317 -0.568978 0.923132 0.748545 -0.226881 0.772047 -0.757484 0.397363 0.367184 -0.966692 0.138778 0.751557 0.372290 -0.535492 -0.786583 0.270568 -0.072116 0.776757 0.147213 -0.202968 0.921924 -0.986754 0.416282 0.103361 -0.647626 -0.074060 0.198058 0.227678 0.230807 -0.207564 -0.386187 0.385490 0.223458 -0.463056 0.134035 0.996577 -0.691009 0.376551 0.393940 0.676176 0.409859 -0.467283 0.427732 -0.217851 -0.002775 0.641149 -0.947283 0.925109 0.417906 0.199931 -0.277859 0.339830 0.213176 -0.861577 -0.556808 0.565550 0.064363 0.641250 -0.206772 -0.704830 -0.566314 0.407041 0.680660 0.657144 0.943985 -0.185304 0.653720 -0.747024 -0.808753 0.047660 0.929152 0.601106 0.580378 0.356884 -0.616745 -0.422397 -0.001967 -0.564028 -0.497288 -0.584061 0.635903 0.224853 0.755770 -0.150921 0.363277 -0.801039 -0.585371 -0.572361 0.840211 0.207857 -0.277190 -0.726103 -0.385102 -0.596530 0.931041 -0.441118 0.218166 0.584761 -0.188142 0.409413 -0.367579 -0.258990 0.010518 -0.787201 -0.902106 0.393773 -0.209599 0.095927 0.829745 0.293114 0.511866 0.465647 -0.482033 0.267636 -0.685274 0.881243 0.466598 -0.270644 -0.691117 0.306809 0.937213 0.031692 0.580706 -0.447890 0.435162 0.511747 0.110993 -0.346672 0.096508 0.922851 -0.937259 0.728929 -0.336139 0.073259 0.941728 -0.238245 -0.532968 -0.267871 0.857683 -0.703223 -0.974757 0.369549 0.762425 -0.456790 -0.362815 -0.922849 -0.575547 -0.896217 -0.193494 -0.266664 0.410592 -0.256281 0.765028 -0.008702 0.295830 0.200191 -0.496956 -0.593178 0.853519 0.599552 -0.670327 0.916260 0.328481 -0.006465 -0.010481 0.270209 0.755290 0.456551 -0.997662 0.612973 0.753328 -0.972419 -0.017478 0.515753 -0.429210 0.619707 0.592904 -0.004757 0.723490 -0.600590 0.728579 0.134081 0.143129 0.493608 -0.874621 -0.561041 -0.306202 -0.371577 -0.154219 -0.452683 -0.772024 0.175455 -0.536423 0.556457 -0.831011 0.453096 -0.173334 0.924280 -0.090353 -0.170996 0.537252 -0.337024 -0.143415 -0.480226 -0.821272 0.427376 -0.860519 0.771632 -0.577381 0.862970 -0.828958 -0.848802 -0.002948 0.314172 0.644806 0.122431 0.753131 -0.661396 0.750854 -0.401088 -0.114079 0.978830 0.774367 0.349498 0.535287 0.943356 -0.197406 -0.638047 0.867636 0.712242 0.190957 0.404888 -0.624783 -0.952458 0.924662 -0.446055 0.474918 -0.935858 -0.674423 0.897537 0.927113 -0.503380 -0.951265 -0.075836 0.810791 0.693541 -0.953405 0.563922 -0.967855 0.797449 -0.837166 -0.081934 0.776278 0.937200 -0.732436 0.311565 0.880557 0.070159 0.673518 0.748192 -0.217600 -0.135525 0.153080 0.157617 -0.087983 0.077742 0.711563 -0.613066 0.141884 -0.962860 -0.715529 0.068997 -0.466240 -0.666794 0.993161 -0.655449 -0.973253 -0.960244 0.908473 -0.941108 0.837205 -0.928694 -0.023042 0.613483 -0.991493 0.244523 -0.074952 0.889063 -0.685319 -0.401435 0.637256 0.097082 0.463040 -0.209664 -0.745301 -0.624943 0.868078 0.966262 -0.238009 0.009962 -0.996598 0.046462 -0.921042 -0.462839 0.379669 -0.927880 -0.118288 0.406416 -0.888125 -0.209815 0.465308 0.949080 -0.138509 -0.557734 0.562563 -0.130002 0.686789 -0.512389 -0.240938 -0.998529 0.086176 -0.603683 0.098552 -0.450784 0.186653 0.353251 -0.075727 0.054730 0.319513 0.686264 -0.935308 0.322915 -0.267274 -0.856349 0.860076 -0.887605 -0.784230 -0.258212 0.518811 -0.672355 0.531973 -0.015881 -0.723275 -0.606535 0.426386 0.839288 0.263463 0.113175 -0.673101 -0.977476 0.114646 0.413075 -0.581158 -0.786802 0.962291 0.605495 0.566450 -0.113437 -0.339775 -0.114037 -0.427173 -0.275083 -0.791122 0.305554 -0.131432 -0.931046 0.417949 0.084338 -0.189258 -0.063240 0.411983 -0.657285 0.920880 0.688709 -0.263820 0.347266 0.527997 0.999642 -0.539559 0.854896 -0.977833 0.575087 0.267970 -0.558992 0.788285 0.230261 -0.953497 0.354735 -0.883175 -0.293272 -0.759303 -0.310348 0.431645 -0.550425 0.995206 -0.699787 -0.481472 0.413155 0.384550 0.329270 -0.650085 -0.203466 0.671985 -0.729206 -0.514758 -0.591835 0.618060 -0.986761 -0.592193 -0.921499 0.868135 -0.570026 0.653588 0.136105 -0.129018 0.441873 -0.633634 -0.082516 -0.203393 -0.516809 0.624212 0.037305 0.172843 0.055857 0.486880 0.168048 0.356070 -0.994592 -0.418797 -0.259380 0.334678 -0.068883 0.537154 0.006664 0.201912 -0.977604 0.414829 -0.180028 -0.964365 0.822636 -0.101527 0.903770 -0.747391 -0.447939 0.039875 0.123591 0.993934 0.406241 -0.958925 -0.209459 0.889431 0.665287 0.827846 0.062274 -0.278856 0.314725 -0.769678 -0.922786 0.320134 -0.188475 -0.182166 -0.345188 0.742642 -0.645012 0.661476 -0.055446 -0.622616 0.076304 0.764526 -0.586981 -0.101060 -0.337001 -0.683212 0.151549 0.215060 0.356663 -0.724860 0.208994 -0.237096 -0.683784 0.999535 -0.347665 0.981503 0.827380 0.714609 -0.297352 0.142106 0.944931 -0.220138 -0.537761 -0.243544 0.597696 0.117051 -0.500902 0.952683 -0.221473 0.443652 -0.669933 0.854832 0.208178 -0.256915 -0.246228 0.871177 0.059874 0.905321 0.086238 -0.583463 -0.819539 -0.704769 0.179441 -0.503323 -0.705234 0.831776 -0.521820 -0.877854 0.546384 0.180827 0.264252 0.491315 0.960689 0.726491 -0.752229 0.558385 -0.156458 -0.253131 0.511068 0.622070 -0.809479 0.841135 0.476901 0.398699 -0.415780 -0.769327 0.269876 0.644094 -0.864007 -0.643886 -0.939369 -0.683546 -0.348655 0.240071 -0.186869 -0.053889 0.071847 0.291311 0.068258 -0.381769 -0.527862 -0.667491 -0.890454 -0.567173 -0.940999 -0.642683 0.991212 -0.097457 0.104186 0.502280 -0.475387 0.294707 0.343414 -0.998486 -0.306594 0.927634 -0.767814 0.963282 0.571728 -0.631820 -0.680604 0.632358 -0.315366 -0.029258 -0.127571 0.497766 0.916853 0.944276 -0.210924 -0.014890 -0.437493 0.261215 0.317620 -0.327946 0.694042 0.376620 0.029371 0.685254 -0.720836 -0.866443 0.187533 -0.196224 0.428264 -0.469053 -0.194710 -0.878330 -0.541419 0.037477 -0.915048 -0.969691 0.405657 -0.595652 0.662667 -0.909709 0.375090 -0.464903 0.588057 0.291942 -0.520627 -0.622867 -0.722947 0.041880 0.638348 0.594673 0.713934 0.332390 -0.028707 -0.256695 0.017643 0.250456 -0.123138 -0.794823 -0.945767 -0.694874 -0.263876 -0.140477 -0.573204 0.194705 0.897000 -0.488252 0.225015 0.302656 -0.083904 -0.112318 0.392947 -0.708814 0.422779 -0.018996 0.583128 0.902152 0.358137 0.860181 -0.055968 -0.003515 0.454853 -0.342034 -0.671125 -0.573854 0.401271 0.346518 0.676603 -0.721867 0.551695 0.730836 -0.416741 -0.712181 -0.409641 0.010055 0.482525 -0.512642 0.521803 -0.292461 0.790015 -0.562101 0.595221 0.182962 -0.270915 0.018000 -0.836034 -0.687787 -0.079848 0.522104 -0.827606 0.864184 -0.481411 0.627248 -0.477851 -0.152536 -0.946606 0.923420 -0.806018 0.729997 -0.798448 0.745677 0.460833 -0.215189 -0.966503 -0.948808 0.794866 0.516021 -0.461450 0.316669 -0.776440 -0.671436 0.754569 0.818782 0.511527 -0.516346 -0.163218 0.675493 -0.204133 0.756933 0.197596 -0.031739 0.621117 0.716185 -0.404491 -0.856734 -0.436351 -0.351097 -0.933314 -0.242369 -0.621099 -0.731762 -0.496691 0.839733 0.053049 -0.463195 0.890925 -0.152084 -0.947173 -0.570525 -0.835415 -0.723613 -0.241961 0.919154 -0.904832 -0.730434 -0.597193 -0.068050 0.945059 0.198674 -0.311117 0.142655 -0.833064 -0.690000 -0.141160 -0.237555 -0.546734 0.422490 0.411349 -0.480048 -0.819879 0.790249 -0.211810 -0.316570 0.629983 0.841240 0.220235 0.520908 -0.310845 0.273062 0.950382 -0.146259 0.549449 -0.291578 -0.227106 0.644617 -0.022013 0.175702 -0.423433 -0.076954 -0.625624 0.265450 -0.934299 -0.458688 0.575451 -0.075458 0.303757 -0.971283 -0.652969 -0.284894 -0.451331 -0.472848 -0.494645 0.336859 0.210582 -0.864663 0.178099 -0.569183 0.656245 0.867254 0.703879 0.606627 -0.279005 0.253328 -0.684951 0.493889 -0.102055 0.293036 -0.330409 0.474512 -0.783918 0.043967 -0.260037 -0.718216 0.585279 -0.684587 0.206326 -0.110964 -0.655870 0.553357 0.604142 -0.107201 -0.919491 -0.890504 -0.770342 0.291091 -0.755166 0.407757 0.721909 0.901079 0.275012 0.425788 0.507706 0.996006 -0.320884 0.822755 0.489895 0.577062 0.115791 -0.840514 0.051574 0.331873 0.203453 0.791537 0.613657 -0.211268 -0.893050 -0.180017 0.677768 -0.548919 -0.626661 0.281910 0.343880 -0.546151 0.391406 0.573538 0.744940 0.636240 -0.018704 0.466849 0.537318 -0.743693 -0.107363 0.045024 -0.747686 0.571754 -0.132221 0.742209 0.148815 0.983569 0.901695 -0.799611 0.315443 0.105148 0.991926 -0.070900 0.893880 -0.901124 0.749082 0.571648 -0.450043 -0.877578 -0.146442 0.893837 -0.423729 -0.755036 0.467375 -0.678789 0.881204 -0.551329 0.788060 0.418522 -0.295022 -0.319303 -0.536454 -0.042708 -0.747549 0.331325 -0.300499 0.401266 0.314894 -0.398803 0.601655 -0.369663 0.706345 0.593581 0.559437 0.600226 0.692458 0.308519 0.171874 -0.757585 0.430941 -0.974568 -0.863748 -0.992788 -0.729604 0.603628 -0.671578 -0.848400 -0.947701 -0.883518 0.570122 -0.242723 -0.202820 -0.966331 0.714569 0.049630 0.364994 -0.585929 -0.549103 -0.320112 0.015267 -0.947448 0.310225 -0.278388 0.646134 -0.130338 -0.678162 0.338591 -0.821818 0.493712 0.581006 0.609123 0.519144 0.717259 0.616335 0.789540 0.320886 0.944757 0.941140 0.373185 -0.938761 0.511262 -0.869538 -0.141581 0.544931 0.845031 0.908049 -0.090075 -0.740898 -0.641054 0.589813 0.274369 -0.588502 -0.099962 0.995981 -0.942368 0.769700 -0.682181 0.396223 0.947882 0.811531 -0.022770 0.557005 0.330675 -0.305512 0.173339 0.120215 -0.984626 0.118096 0.061356 0.388559 0.179336 -0.427382 0.519021 -0.962245 -0.882451 0.364052 0.945804 0.027474 0.623153 -0.695250 -0.382714 -0.102478 -0.283752 0.517324 -0.106497 -0.226120 0.287024 0.211323 -0.829897 0.234906 0.022854 0.147333 -0.208090 -0.646471 0.841821 0.965250 0.473745 0.857195 0.083346 -0.464900 0.245754 -0.737318 0.107718 -0.235226 -0.699563 0.225267 -0.871174 -0.753759 -0.747259 0.751979 -0.449009 -0.129973 -0.350499 0.267240 -0.612649 0.543005 -0.958880 0.674375 -0.245673 -0.788777 -0.090719 0.777181 0.358556 0.701192 -0.869290 0.200377 0.666441 0.604455 0.057572 -0.250213 -0.860445 -0.696674 0.012469 0.247273 0.068100 0.312906 -0.527460 0.196926 0.559147 -0.274719 -0.051095 -0.889862 0.595308 0.598407 0.377378 0.982660 0.141411 0.418497 0.657035 0.895738 0.629720 -0.433684 0.672920 -0.011724 -0.732492 0.803630 -0.811347 0.933949 0.408085 0.246224 -0.316264 0.547639 0.549550 0.696205 -0.205087 -0.382350 0.009111 0.267453 0.814576 -0.431742 0.992734 -0.236518 -0.321604 0.588043 -0.638112 -0.944227 0.570703 0.503300 0.474271 0.227738 0.399038 0.103991 0.794054 0.071957 -0.907733 -0.938438 -0.124413 -0.719080 0.995512 -0.716328 0.527144 -0.320752 0.831311 0.076694 -0.624547 -0.373776 0.694345 0.384564 0.893677 0.508921 0.952822 0.886411 -0.727597 -0.368782 0.474454 -0.365709 -0.313009 0.045157 -0.862409 -0.838738 -0.727105 0.536629 0.265253 -0.933051 -0.391414 0.357520 -0.871489 0.484173 0.638440 -0.875977 0.767845 0.165584 -0.196729 0.599156 -0.757722 0.178724 -0.774620 0.936623 -0.436711 -0.880944 0.445544 -0.483889 -0.994532 0.717947 0.147329 0.479922 -0.647762 0.834320 -0.474922 -0.510171 0.995582 -0.202027 -0.973543 0.260835 -0.135078 -0.364957 -0.381645 -0.006567 -0.880783 -0.743205 0.117456 0.887061 0.422379 0.920727 0.486217 0.664657 0.099452 0.711597 0.601280 0.662741 0.830653 0.046824 -0.821148 0.836121 -0.235230 0.326180 0.316042 0.117008 0.160501 0.841121 0.606837 0.156083 -0.360906 0.633294 -0.583082 0.504016 -0.731662 0.035273 -0.502551 -0.612446 0.292068 0.614905 -0.725385 -0.285553 0.535633 0.760833 -0.620896 -0.364916 0.472429 0.980384 -0.702175 0.303083 0.027208 -0.523324 0.139203 0.791978 0.802857 -0.544754 -0.091013 -0.036643 -0.703633 -0.484176 -0.880560 -0.064540 -0.850882 -0.463642 -0.560524 -0.582544 0.571631 -0.063076 -0.194990 -0.136300 -0.448170 0.079625 0.578147 -0.912538 -0.159542 0.957252 -0.277454 -0.687112 0.937636 0.020371 0.615970 -0.035156 0.497048 -0.244826 -0.243178 0.299904 0.210419 0.665809 -0.736738 0.506786 -0.818367 -0.617298 -0.557754 -0.669249 -0.080940 -0.118278 -0.251793 -0.509309 0.818646 0.553216 0.354391 -0.629524 -0.367158 -0.067461 -0.542062 0.473300 -0.110209 0.180484 0.786187 -0.172573 -0.799144 0.402158 0.792271 0.697903 -0.842669 -0.450907 -0.002192 0.367751 -0.785098 0.261070 -0.125463 -0.603465 0.643772 0.316783 -0.272714 -0.437169 -0.801496 0.475492 0.053523 -0.982849 0.028709 -0.592086 -0.612374 0.661551 0.340453 -0.154436 0.134850 -0.769756 -0.973951 -0.078962 0.057671 -0.773096 -0.676805 -0.150059 0.924808 -0.519473 0.399034 -0.077384 0.848277 0.613937 -0.816315 -0.277186 -0.989528 0.827457 -0.960403 -0.262243 -0.609712 -0.761899 -0.786750 0.443811 -0.744748 0.241958 0.851726 -0.357122 -0.096491 0.192179 0.488442 -0.961641 0.422423 0.514491 -0.040603 -0.519907 0.741395 0.282592 0.330034 0.666203 0.763119 -0.270931 -0.411181 0.611396 -0.656995 -0.227496 -0.665790 -0.646523 -0.400039 -0.626193 0.091234 -0.009751 -0.388092 0.304484 -0.565939 -0.132840 -0.453558 -0.714214 0.510038 0.449951 0.477965 -0.001520 0.488310 -0.099612 -0.487029 -0.552293 0.380481 -0.745634 0.730299 -0.289484 0.920569 0.493419 0.439585 -0.490612 0.104815 0.782590 0.281892 0.439025 -0.863933 0.881853 0.812832 0.227301 -0.127898 -0.575260 -0.468215 0.306163 0.291900 0.078227 0.591949 -0.198063 -0.471823 0.069914 0.800417 -0.983512 0.970302 -0.686612 -0.535805 0.350784 -0.432246 -0.805506 -0.938700 -0.511677 0.687913 0.500884 -0.002289 -0.207273 0.283474 -0.720397 -0.768247 0.419541 -0.838544 -0.955415 -0.353158 0.033558 -0.530675 0.178627 -0.660280 0.761224 -0.743147 0.931669 -0.436838 -0.214969 0.001584 -0.636421 -0.198482 -0.028114 -0.323033 0.265713 -0.677330 0.244722 0.460207 -0.616031 0.733045 0.148120 0.884854 -0.269244 0.940847 0.168328 0.010359 -0.827401 -0.412131 0.171815 -0.782816 0.234710 -0.794628 -0.313491 -0.586663 -0.454907 -0.552267 -0.329810 -0.523238 0.010894 0.455221 0.478346 0.374473 -0.743261 -0.549768 -0.948559 0.522452 -0.227098 0.296162 -0.017341 0.156871 0.029207 -0.869222 0.041725 0.759964 -0.928375 -0.789948 -0.229677 -0.755775 -0.202079 0.942137 -0.538591 -0.967369 -0.852490 0.147917 -0.554032 -0.307398 0.595650 0.116159 0.169364 -0.393455 -0.428621 -0.352290 0.981018 -0.171882 0.097942 -0.967541 -0.649430 0.870843 0.328621 0.333229 0.027714 -0.642171 0.464008 -0.930561 -0.882208 0.535633 -0.720509 -0.111885 0.779858 
0.077412 -0.169747 -0.758733 0.110044 -0.022238 0.389184 0.556012 0.670364 -0.015166 -0.327830 -0.160271 0.591379 0.243550 0.487438 0.572397 -0.928332 -0.414620 0.604856 -0.577761 -0.543777 -0.066522 0.755468 0.483938 0.291306 0.219475 0.553377 0.409099 -0.244892 0.832868 -0.702786 -0.465034 -0.089720 0.127467 -0.223767 -0.979676 -0.894771 -0.834583 0.576336 0.775593 0.150251 -0.751494 -0.384678 -0.258370 0.492056 -0.897240 -0.685973 0.563724 -0.311860 0.918883 0.985963 0.144363 -0.147639 0.741431 -0.371699 -0.856333 -0.039094 -0.818322 0.552766 0.716014 -0.985454 0.849980 -0.749020 -0.075174 -0.022554 0.027213 -0.054850 0.082675 0.192630 -0.478514 -0.141732 -0.657119 -0.230008 0.473590 0.084510 -0.737952 0.576350 0.398538 0.825772 -0.735510 0.317421 0.811735 0.408853 -0.830218 0.553166 -0.962846 -0.686551 -0.485928 -0.781168 0.866215 -0.769914 -0.766622 0.716195 -0.518934 0.158204 -0.306359 0.508279 -0.896646 0.776316 -0.299091 -0.375160 -0.365415 0.043789 0.394832 -0.891825 -0.871700 0.656881 0.684525 0.526838 0.482653 0.949015 -0.155742 0.294388 0.357868 0.014040 -0.152446 0.395023 0.327489 0.361626 0.613855 0.193704 0.591712 0.847233 -0.090102 -0.927221 0.005437 0.603539 0.581058 0.108792 0.379855 -0.718033 0.733632 -0.985560 0.325756 0.128464 -0.877385 0.454056 -0.214655 0.807139 -0.019106 -0.732002 0.756154 0.825152 0.562386 0.114023 -0.160808 -0.590060 -0.490955 -0.833319 0.771566 -0.877100 0.360385 0.363278 0.970133 -0.729717 0.436057 -0.024429 0.873822 0.017115 -0.915638 0.253678 0.299081 0.817994 0.268118 -0.375163 -0.053542 0.390732 -0.921106 0.731803 0.197871 0.059787 0.999801 -0.045974 -0.115060 0.562187 -0.931952 0.724132 0.972127 -0.422907 0.890813 0.743693 -0.300006 0.251198 0.106971 -0.329873 0.521481 -0.456973 0.645698 0.395303 0.560142 0.730060 -0.351019 -0.140777 0.548054 0.917098 0.484061 -0.505488 0.307830 0.562954 -0.773685 -0.494298 -0.377258 -0.773884 0.459727 0.507681 0.788303 0.527776 0.231813 0.760430 -0.895131 0.122626 0.504122 -0.195137 -0.626176 -0.388907 0.474990 0.895304 0.154120 0.120688 0.290607 -0.285738 -0.149252 0.939588 0.573486 -0.601198 0.856686 0.057546 -0.106686 0.164517 -0.379499 0.119630 0.670219 0.243242 0.345746 0.129946 -0.249076 0.134049 -0.342278 0.982737 -0.105521 -0.237409 0.105363 -0.601399 0.567454 0.479186 0.009694 0.042444 0.374491 -0.836186 -0.836868 -0.334902 -0.121923 0.013880 -0.395314 -0.548438 0.412682 -0.538628 0.509109 -0.694004 0.625889 -0.870390 0.425626 0.296108 0.372852 -0.228627 -0.573946 -0.876224 0.905422 0.083776 -0.893488 -0.200100 0.846367 0.211875 0.198501 0.413821 -0.308939 -0.791805 -0.543735 -0.934448 -0.627991 -0.380603 -0.269350 0.250086 0.633277 0.335336 0.701649 0.045959 0.796708 0.210757 0.351955 0.422598 0.340367 -0.222418 -0.281294 -0.286781 0.548954 0.144760 -0.163005 0.454376 -0.771464 -0.056493 -0.745724 -0.925096 -0.844618 0.452777 0.488725 -0.153557 0.660972 0.944990 -0.088006 -0.967018 -0.435613 0.642644 0.283068 -0.802336 -0.022020 -0.015284 0.243623 -0.225312 -0.804526 -0.404422 -0.802714 0.535841 0.373160 -0.084009 -0.750940 -0.077886 -0.939249 0.086054 -0.623510 -0.710712 -0.970439 -0.369234 -0.635809 -0.815057 -0.916457 0.852916 0.031385 0.744516 0.797906 0.943380 0.777498 -0.637707 0.586024 0.060566 -0.440042 -0.435996 -0.954718 0.803580 0.338692 -0.759244 -0.600842 0.535978 0.776597 0.772318 -0.548031 -0.974344 -0.305568 -0.487279 0.111711 0.070922 -0.197991 0.141272 0.701688 0.166200 0.326215 0.785231 0.019116 -0.642400 0.529747 -0.182977 -0.699020 0.307245 0.179316 0.887004 -0.632190 0.739274 -0.548992 -0.586908 0.542854 0.789700 -0.346152 0.942013 0.325678 -0.569555 0.714331 0.777648 -0.543899 -0.591237 -0.709631 0.567812 0.479685 0.092377 -0.290916 0.181373 -0.741423 -0.964702 -0.033396 0.277694 -0.607102 -0.503649 -0.905283 -0.306122 0.803596 0.274033 -0.419118 -0.828594 0.013307 0.031890 -0.415501 -0.443839 -0.178409 0.238347 -0.501827 -0.852731 0.668792 -0.787496 0.924917 -0.875106 -0.378733 -0.784715 0.692706 -0.899048 0.307663 -0.598210 0.282324 0.566240 -0.562912 -0.751072 -0.156066 -0.170014 -0.254721 -0.061349 0.523865 -0.451125 -0.787317 -0.895253 -0.279718 0.225990 0.136638 0.304781 0.782150 0.958228 -0.456872 -0.719676 -0.894503 -0.788080 -0.507173 -0.969586 -0.663187 0.114094 -0.754301 -0.970481 0.215046 0.553362 -0.568691 -0.502630 0.119602 -0.131603 -0.253702 0.963536 0.698383 0.491578 -0.097814 0.222248 -0.959547 0.114870 0.326995 -0.239265 -0.659141 -0.536368 -0.934484 -0.876990 -0.578139 -0.391357 -0.596667 -0.472642 -0.179437 -0.103839 -0.442228 0.157376 -0.989745 -0.196529 0.186895 0.225301 -0.643168 0.618204 0.722671 0.476434 -0.513399 -0.531031 0.439970 -0.815016 0.960547 -0.657844 0.407231 -0.999000 0.457025 -0.265774 -0.238265 0.797885 0.197858 -0.172749 0.920895 0.619719 0.435894 -0.675772 -0.852923 -0.743543 0.220389 -0.295152 0.413833 0.230644 0.508319 -0.399271 -0.544055 0.865151 -0.781067 -0.821384 0.341585 -0.294466 -0.352415 -0.218445 -0.109483 -0.391867 0.123711 -0.702251 -0.390867 -0.419264 0.031975 0.370868 -0.621379 -0.770167 -0.801881 -0.700484 0.849552 0.634013 -0.376256 0.996628 0.890471 0.844133 -0.298523 0.304304 0.074777 -0.790204 0.905033 0.530722 -0.925053 -0.876034 0.709339 0.416533 -0.170500 -0.643076 -0.801912 0.720017 -0.034943 0.321798 -0.982235 0.574190 0.902534 0.049740 -0.054942 -0.718845 0.279573 0.143177 -0.419329 0.129124 -0.222810 0.204415 0.125753 -0.332339 0.048548 0.827229 0.971965 -0.876675 -0.962975 0.876998 0.654047 -0.888028 -0.999036 0.363386 0.528505 -0.169536 0.720310 0.726592 -0.449520 -0.314633 0.048391 -0.431754 -0.740444 -0.049075 0.617986 0.204614 0.232080 -0.102442 -0.652209 0.812751 -0.973317 0.124982 0.017166 0.152436 0.792643 -0.934286 -0.020335 0.764608 -0.810961 0.016690 0.641606 0.843086 0.128662 0.642570 0.206472 -0.342833 -0.526967 -0.073218 -0.616241 0.023514 0.612149 0.432150 0.591760 0.871705 -0.616925 0.209745 0.076319 0.615155 -0.892696 0.424111 0.427906 -0.866013 -0.450908 -0.554928 0.286422 -0.658265 -0.489214 -0.733913 -0.893657 -0.300175 0.282778 0.747949 -0.457089 -0.588560 0.390519 0.749383 0.068607 0.863553 -0.323836 0.452366 -0.112933 -0.711687 -0.115485 -0.521174 -0.839982 0.267590 0.688572 0.236337 -0.117255 0.795875 -0.339552 -0.689349 0.929862 0.209540 -0.244276 0.216284 0.551276 0.266510 0.482372 0.657619 0.966335 -0.234851 0.405568 -0.490755 0.176589 -0.203912 -0.741372 -0.754804 -0.340359 -0.065208 0.697562 0.546707 0.223105 -0.417923 -0.974466 0.383123 0.849667 0.714105 -0.380539 -0.267589 0.509981 0.279909 0.043063 0.439843 -0.510551 0.798786 -0.343873 -0.959275 0.065296 -0.861501 0.698344 0.031631 -0.096352 0.103912 0.540876 -0.919763 0.900000 0.799504 -0.674567 -0.440359 -0.265704 -0.977005 -0.893652 0.957402 -0.394928 -0.868118 0.340525 -0.545262 0.845987 0.959986 0.187150 0.355968 0.239895 -0.769787 -0.204190 0.729344 -0.971001 0.451937 0.770069 0.094295 0.590436 0.468413 -0.874074 -0.505916 -0.427675 0.666802 -0.425679 -0.527675 0.466306 -0.100246 0.031966 -0.799398 -0.077251 0.138314 -0.841996 0.527821 0.270196 0.498529 0.982559 0.116183 0.458515 0.169709 -0.527849 -0.301590 0.399922 0.267962 -0.572246 0.428920 -0.280101 -0.802178 -0.476785 -0.689666 0.666235 -0.350859 -0.195582 -0.761440 -0.684058 0.378739 -0.289114 0.782248 -0.721507 0.742852 0.982850 0.201242 -0.118833 -0.859146 -0.270937 -0.848637 0.639383 -0.288378 0.267546 0.097898 0.881331 0.739698 0.796308 0.281253 0.007659 -0.775938 -0.289827 0.727558 -0.578116 0.233388 -0.962108 -0.911881 0.882529 -0.157690 -0.673320 -0.801528 -0.778952 0.037565 0.980720 -0.500459 -0.219582 0.963570 0.700783 0.661584 -0.895576 -0.570154 0.812947 0.743807 0.141467 0.080493 -0.158295 0.022798 -0.179809 -0.361987 -0.695949 0.827850 -0.137925 0.014224 0.555407 0.283959 -0.752387 0.593299 0.372079 -0.869858 -0.564391 0.698758 -0.671386 -0.343342 -0.263676 -0.690667 0.156199 0.516741 -0.727097 -0.143018 0.178325 -0.622673 0.286828 -0.008728 -0.878866 -0.571705 -0.928235 -0.037161 0.451093 -0.108044 0.600852 0.755144 -0.280194 -0.537073 -0.230631 -0.724787 0.746886 0.016981 0.868513 0.118964 0.147123 -0.695878 -0.182278 0.475737 -0.039221 0.554046 0.785070 -0.883022 0.070787 -0.942027 -0.026040 -0.750887 -0.564700 -0.739212 0.240385 -0.443566 -0.310917 0.312150 0.519272 -0.859824 -0.795893 0.120124 0.895320 -0.076088 0.583050 -0.335311 0.199126 0.329936 0.681670 0.067639 -0.551100 -0.171207 0.371761 0.266623 -0.695470 -0.667460 -0.179331 -0.910400 -0.550481 0.891456 -0.852427 0.423479 -0.859431 -0.417127 0.684267 0.380954 0.139306 -0.626651 -0.306896 -0.341422 -0.486475 -0.102789 0.778702 -0.591154 0.821123 0.361753 0.073535 0.020249 -0.308311 -0.244795 -0.912112 0.140590 0.583998 0.459649 -0.592788 0.888528 0.792189 0.227881 0.978128 -0.758293 0.119338 -0.874300 0.665186 0.259907 -0.291427 0.349453 -0.359139 0.847879 0.722802 0.333966 -0.493542 -0.763673 -0.768823 -0.714840 -0.354827 -0.947700 0.646913 0.718708 0.072549 -0.661398 -0.526087 0.160437 0.479192 -0.942089 -0.379914 0.886404 0.946439 -0.587725 0.114286 0.924566 -0.346018 -0.766376 -0.949733 -0.680832 0.493531 -0.241160 0.668621 -0.865608 -0.393281 0.391423 0.468358 0.113177 0.627750 0.699534 0.398337 -0.727077 0.751834 0.045250 0.991631 -0.175616 0.383853 -0.534456 0.984821 -0.136956 -0.476545 -0.395093 -0.250551 -0.530107 0.017182 0.863734 -0.605540 0.671165 -0.902642 -0.555274 0.990333 0.590889 0.203566 0.658954 0.725281 0.810286 0.050377 0.193638 -0.076537 -0.321873 -0.106827 -0.678200 -0.048949 -0.354993 0.367050 -0.057318 0.469391 -0.249097 0.408226 0.454212 0.613947 0.931680 -0.940881 -0.636604 -0.598427 0.076302 -0.772870 -0.203967 -0.252534 -0.675512 0.240759 -0.262200 0.915376 -0.555674 -0.603246 0.640657 -0.745389 0.447131 -0.165705 0.178074 -0.874742 0.727468 0.499873 0.076309 -0.627525 -0.133077 -0.981009 0.841865 0.617826 0.427217 0.296077 0.231773 0.358897 0.355196 0.595168 0.760470 -0.568502 0.822298 -0.443497 0.178964 -0.853214 0.797262 0.916764 -0.937838 -0.758412 -0.686482 0.702819 -0.503801 0.760649 -0.462885 0.674273 0.885907 -0.735417 0.174146 -0.037784 -0.362943 -0.958931 -0.018793 -0.521077 0.658895 -0.591577 0.775000 -0.109332 0.767320 0.130196 -0.514164 0.527790 0.561694 -0.691865 -0.915707 -0.259341 -0.545079 0.881555 -0.342577 -0.482917 -0.876857 -0.029059 -0.780098 -0.380658 -0.268411 -0.242983 -0.706385 -0.382504 0.021599 0.467761 0.579712 0.658656 0.508830 -0.439082 -0.862421 0.167725 -0.030659 0.912579 -0.941606 -0.263339 0.042775 -0.455770 -0.735549 -0.395530 -0.147635 -0.651256 0.345129 0.307285 -0.769701 -0.997448 0.824368 -0.646558 -0.026508 -0.955730 -0.027215 0.705081 -0.198713 0.266400 -0.677423 0.822886 -0.265839 0.902289 0.481542 -0.757009 -0.536793 0.619121 0.410717 0.432548 0.531700 0.469110 -0.830791 -0.425524 -0.986660 -0.566340 0.178946 -0.134295 -0.217596 -0.475926 -0.827010 0.012703 -0.473374 0.997358 0.366145 0.500118 -0.958372 -0.661070 0.205199 -0.157085 0.605330 0.527777 -0.334199 -0.660509 0.430066 -0.852657 -0.417518 0.893273 0.766465 0.993199 0.325821 0.298165 0.462310 0.495030 0.872641 0.475650 0.928690 0.051587 -0.658645 -0.288906 0.575661 -0.485655 0.723797 -0.897714 -0.488296 0.089942 0.602404 -0.446668 0.428872 -0.192396 0.396247 0.034202 -0.664620 -0.937952 0.373693 0.765446 -0.790609 0.956176 0.658719 0.975856 0.949375 -0.015459 0.274021 0.411684 -0.520429 0.146662 -0.112666 -0.591739 -0.801751 0.228689 0.119355 0.773910 0.743035 -0.156848 0.876196 -0.745262 0.933094 0.478600 -0.191930 0.361966 -0.713796 -0.795683 -0.603832 -0.378415 -0.733635 0.769861 -0.612969 -0.524244 0.726036 -0.954250 -0.548388 0.675411 0.030291 0.725634 0.087096 0.509862 -0.127704 0.974430 0.918123 0.070545 0.203120 0.037478 -0.155546 -0.053846 0.880630 -0.279350 0.200893 0.813724 -0.800749 -0.991037 0.175690 -0.514545 -0.786720 0.571858 0.107039 -0.520355 0.341718 0.494070 -0.044598 0.067755 0.539821 0.407014 -0.256834 -0.429889 0.132648 0.830262 -0.920027 -0.995056 0.804692 0.998096 0.075488 0.007812 0.035575 0.919943 0.953966 -0.083795 -0.359407 0.154859 -0.270071 -0.160156 0.163822 0.905619 0.325299 0.377102 0.477477 -0.567662 0.856747 -0.180805 0.926408 -0.187852 0.886950 0.466229 -0.780838 -0.369884 -0.963659 0.351810 -0.539622 -0.883686 0.356754 -0.734930 -0.885590 -0.567758 0.272881 0.149985 -0.647815 0.226848 -0.933810 -0.007222 -0.618294 -0.203881 0.832622 0.545528 -0.298262 0.157920 -0.077371 -0.820785 0.590258 -0.220624 -0.001590 0.516667 0.591524 -0.114641 -0.017104 0.810687 0.515475 0.019237 0.162497 0.975853 0.135550 -0.480749 -0.759078 0.249960 -0.048507 0.513804 -0.600055 0.303678 -0.259349 -0.533865 -0.703544 0.122358 0.262254 -0.870922 -0.332115 0.963992 0.286998 0.590515 -0.856793 -0.122743 -0.630109 0.141616 -0.606077 0.961416 -0.973024 0.376819 0.772102 0.542450 -0.603944 -0.065400 0.518303 0.531606 0.453850 0.759225 -0.218434 -0.594656 0.273029 0.181511 0.709022 -0.986320 0.647646 -0.994522 0.136038 -0.090100 -0.865444 0.803923 -0.126108 0.421554 0.394438 0.017099 -0.701189 0.764329 -0.841285 -0.307266 0.725744 -0.814310 -0.930446 0.497847 0.728141 -0.534390 -0.567554 0.246444 0.997216 0.886297 0.005669 -0.221218 -0.708359 -0.721302 0.960294 -0.999338 -0.707622 0.607940 -0.993860 0.428416 -0.482160 -0.859304 0.232339 0.391732 0.562250 -0.373224 -0.591169 0.861061 -0.608895 -0.432455 -0.446205 -0.883150 -0.246764 -0.376652 0.614697 -0.518623 0.088958 -0.952857 0.727820 0.086174 0.933440 -0.266510 0.864956 -0.774920 0.012188 0.825250 -0.774257 0.304565 0.433190 -0.768117 -0.267019 0.951030 -0.627421 0.965320 0.342761 0.934829 -0.407904 0.751592 0.795890 -0.016799 -0.680863 -0.650315 0.100051 0.072373 -0.026967 -0.285252 0.553750 -0.938009 -0.238109 0.281570 0.148165 -0.304669 -0.984940 0.013121 -0.079589 0.027247 -0.161629 0.146154 -0.668187 -0.728440 0.378037 0.064794 -0.777410 0.750616 0.030113 0.565351 0.685445 0.622209 0.316943 0.481335 -0.394589 0.636081 0.831020 0.705462 -0.291546 -0.195946 -0.579791 -0.737796 -0.133955 0.182100 0.543774 -0.985790 0.877430 0.558834 0.027331 -0.202159 -0.413919 0.865702 0.943995 -0.082106 -0.862738 0.322032 0.982688 -0.640148 0.072648 0.012801 0.925203 -0.241907 -0.364990 0.242146 -0.760571 0.240421 -0.121773 -0.929551 -0.054118 0.586681 -0.125498 0.366092 0.848885 0.740547 -0.451809 0.392659 0.754758 -0.574378 -0.048508 -0.217911 0.223463 0.537573 -0.352209 0.167458 -0.544533 -0.214947 -0.510510 -0.561845 0.144905 0.562138 0.450956 0.070108 -0.679769 -0.914034 -0.687746 -0.440340 0.326387 0.190481 -0.369892 -0.727730 -0.222838 0.504611 0.638361 -0.373953 0.245158 -0.813447 -0.981295 -0.000084 -0.387826 -0.029802 0.782005 0.835637 -0.492229 -0.570204 0.003095 -0.036762 0.214849 0.492585 0.401393 -0.640246 0.054723 -0.147651 0.429862 0.374954 -0.061685 0.742116 0.934614 -0.735298 -0.067403 -0.435278 -0.463029 0.709759 -0.930667 -0.824667 -0.664194 0.314491 -0.638115 -0.645488 -0.685593 -0.025940 0.324709 -0.903588 -0.190303 0.832480 -0.473793 0.812793 -0.204282 0.741056 0.305378 -0.802889 -0.899190 -0.639899 0.049459 0.530671 0.735055 0.987774 0.272787 0.669669 -0.747524 -0.794616 -0.765609 -0.210553 0.915144 -0.696277 -0.035220 -0.749050 0.618214 0.326665 -0.394538 0.932621 -0.699275 0.930171 -0.970968 0.110422 0.762651 -0.444760 -0.076786 -0.441630 -0.703704 -0.771408 -0.244520 -0.602895 -0.411307 0.804940 0.927776 -0.676252 0.792714 0.200563 0.993417 -0.954810 0.405947 -0.772193 -0.165363 0.321091 -0.468469 0.799417 0.572041 -0.850255 0.126082 -0.822497 -0.917635 0.426806 -0.892326 -0.888602 -0.462772 0.870325 -0.333363 0.460442 -0.571305 -0.037067 0.689034 0.184175 0.360038 -0.722273 -0.010885 0.287814 -0.398525 -0.218171 -0.511623 -0.405108 -0.172981 0.894325 -0.177300 0.661656 0.215416 0.354230 0.461072 -0.212544 0.503975 -0.412846 -0.035041 0.586340 -0.986040 0.072633 0.697738 -0.448812 -0.057042 -0.635625 -0.988370 0.371653 0.327308 0.700664 -0.444172 -0.312654 0.978391 0.544942 0.975160 -0.420134 -0.673229 -0.536463 0.174759 0.153790 -0.642139 0.997458 -0.184555 0.573277 0.351689 -0.723483 -0.639267 -0.144336 -0.136329 0.325693 -0.557996 -0.122369 -0.601675 -0.860257 0.428819 0.341283 -0.495882 0.440448 -0.287064 0.831426 0.141112 0.268763 -0.481229 0.119502 -0.186294 -0.506069 0.699369 0.140477 -0.042532 -0.125873 -0.705733 0.315329 -0.128414 0.109712 -0.111394 -0.776726 0.386229 0.249340 0.078938 -0.750100 -0.424968 0.520943 0.127531 -0.026642 0.660685 -0.443650 -0.685359 -0.835197 0.996798 0.027577 0.996229 0.137910 -0.703660 -0.485000 -0.742588 0.110046 0.008931 0.956781 -0.749477 0.966399 -0.169092 -0.455210 0.281729 0.702493 0.654502 -0.829665 0.925768 0.040731 0.419675 0.004706 0.290631 0.994707 -0.474351 -0.581837 -0.031935 -0.813666 -0.025487 0.282706 -0.648863 -0.028689 -0.689717 -0.652634 -0.890779 -0.393377 -0.137634 -0.633367 0.716669 0.871298 -0.676586 0.967193 0.837697 0.154322 -0.488018 0.119426 -0.143185 -0.833516 0.289761 -0.217417 0.207215 -0.290564 0.787289 -0.502154 -0.295857 -0.687062 -0.083991 0.672208 -0.500728 0.890522 -0.045087 -0.149591 -0.138167 0.265196 0.197775 -0.028946 0.871819 -0.939859 0.337688 0.588488 0.931439 0.661102 0.555681 0.769137 -0.184577 -0.932337 -0.111437 0.672239 -0.765853 -0.821676 -0.545178 0.441362 -0.112240 -0.757889 0.939209 0.591903 -0.444951 -0.144782 0.264111 0.054321 -0.254260 -0.780976 0.904730 0.607574 0.484220 0.102505 -0.421372 0.356039 0.162647 0.916316 -0.055472 0.094086 0.577417 -0.499792 -0.136778 -0.607159 -0.432128 0.751785 -0.934921 -0.197981 0.930109 -0.480099 -0.756619 -0.182131 -0.237988 -0.817410 -0.590228 0.317061 0.037808 0.673883 -0.628618 0.783548 0.892907 -0.723888 0.391122 0.377127 0.378617 0.969750 -0.266834 -0.458736 0.886066 0.677693 0.635350 0.463483 -0.822098 -0.501428 0.856324 -0.254226 -0.749642 0.921403 0.547793 -0.819533 -0.558695 0.791174 -0.001665 0.203317 0.973764 0.408107 -0.479622 0.011572 0.081990 -0.108240 -0.204879 -0.025103 0.167872 -0.813757 -0.647977 -0.453510 -0.844007 0.085189 0.087754 -0.957941 -0.237117 -0.276896 0.505542 -0.059215 0.221676 0.361865 0.686558 0.472034 0.283269 0.234351 0.652500 0.724573 0.025525 -0.349164 -0.072110 -0.000711 -0.941057 0.448268 -0.989139 0.140933 -0.659972 -0.194019 -0.884170 0.507900 -0.007776 -0.532147 -0.945610 0.148216 0.553043 0.142144 0.190275 -0.684075 0.865247 -0.304183 0.256710 0.086924 -0.942318 -0.056732 -0.441042 0.340950 -0.822381 -0.788542 0.065523 0.203143 -0.137706 0.993413 -0.797568 -0.078763 0.441681 -0.786708 -0.937829 0.781709 0.019274 -0.822000 0.289609 -0.988503 -0.354146 0.343999 0.159714 -0.801104 -0.513857 -0.650011 -0.485178 -0.648610 0.045806 0.771532 0.438314 0.103487 -0.285200 0.997271 -0.555562 -0.107582 -0.791271 0.509961 -0.904439 0.071023 0.503375 -0.702007 0.992261 -0.054944 -0.488714 -0.945569 -0.273235 0.530559 -0.767569 -0.983626 0.542057 -0.121715 0.360373 -0.298229 0.077181 0.846515 0.051760 0.592003 -0.802095 -0.902435 0.363535 0.636219 0.201053 -0.921666 0.633490 0.645491 -0.029248 0.842220 0.155452 0.066314 -0.086757 -0.341173 0.364307 -0.094496 0.603883 0.875593 -0.040065 -0.669352 0.406152 0.192366 -0.652978 -0.051791 -0.929349 0.707394 0.649980 0.147833 0.553910 -0.298260 -0.260164 0.751815 -0.200695 -0.896630 0.388034 -0.999642 -0.818296 0.021524 0.645849 0.152456 -0.136256 -0.198699 -0.781230 0.776987 0.460128 0.583077 -0.317509 0.064011 0.458669 0.642425 0.394659 -0.135179 -0.165208 0.741680 0.813030 -0.094557 0.449075 0.463010 -0.946725 0.002984 -0.835251 -0.206889 -0.245201 -0.035946 -0.103519 -0.857167 -0.035588 0.078185 0.164357 -0.389739 -0.769358 -0.971899 0.411562 -0.550588 0.805088 -0.128310 -0.967512 -0.512421 0.935701 0.491158 -0.869996 0.330360 -0.644021 -0.035204 0.072040 -0.830991 0.870239 -0.478886 0.632019 0.923514 0.524099 0.796768 -0.283375 -0.721102 -0.239178 0.613106 -0.578269 0.725235 -0.308708 0.586088 -0.664505 -0.078067 0.614190 0.747057 0.371345 0.419278 -0.381253 0.403833 0.906857 -0.445552 -0.105009 -0.963139 0.884808 0.250970 0.001657 -0.043152 0.419978 -0.128104 0.477962 0.051997 -0.204590 0.002061 -0.151235 0.512035 0.280959 0.609587 0.125142 0.702690 0.334822 0.816434 0.288778 0.670318 -0.261633 -0.097032 0.417375 -0.890288 -0.677754 -0.963878 0.513545 -0.770897 -0.409429 -0.591464 -0.734036 -0.524621 0.659506 0.267621 0.432227 0.079484 -0.860483 -0.089811 -0.868519 -0.065073 0.912250 -0.019753 -0.553038 0.193209 -0.410166 0.572104 -0.104101 0.924656 0.388538 -0.815323 0.594974 -0.873095 0.087645 0.012349 -0.763383 0.409891 0.048471 0.750162 0.638993 0.639042 -0.841301 0.904957 -0.885579 0.818204 0.172578 0.546647 -0.102311 0.312095 -0.543164 0.029170 -0.752978 -0.630914 -0.990583 -0.306016 0.562295 -0.400749 -0.733912 -0.541806 -0.476093 0.654625 -0.357129 -0.881119 0.781530 0.730516 0.131229 -0.981853 0.140407 -0.820300 0.768309 -0.220600 0.818742 0.927008 -0.315643 0.933163 0.745212 0.856935 0.479810 -0.357099 0.169030 0.936646 0.672071 0.416051 -0.694267 0.681488 -0.889965 0.868028 -0.719261 -0.623877 -0.673778 -0.195354 -0.969252 -0.030907 -0.076473 0.812278 -0.300391 -0.945244 0.830425 0.840016 -0.765543 0.598734 -0.380585 -0.946801 0.525742 0.303772 0.986362 0.270955 0.160707 0.466172 0.913856 -0.670263 0.402818 0.585927 0.745788 0.708551 0.267415 0.855823 0.576578 0.548154 -0.768054 0.902800 -0.647200 -0.737306 -0.128106 0.276327 -0.925027 0.571503 0.331083 0.905398 0.411518 0.565540 0.504133 -0.969066 0.618739 0.029875 0.334706 0.605100 -0.699171 -0.504587 0.071272 -0.785315 -0.174850 -0.525910 0.800612 -0.429062 -0.817359 0.068027 -0.573239 0.759219 -0.383819 -0.341293 0.662020 -0.031019 -0.078598 -0.466087 -0.754692 -0.003625 -0.894584 0.576391 -0.098227 0.516934 0.141931 -0.594095 0.547868 -0.239331 0.435780 -0.117426 -0.634231 0.736609 0.377986 0.437042 0.951294 -0.796864 0.911132 0.751906 -0.225926 -0.906228 -0.180067 0.200835 0.852992 0.436114 0.859542 0.515011 -0.594904 -0.219056 -0.951075 -0.349597 0.777318 -0.845660 -0.773206 -0.320909 0.671274 0.368725 0.084996 0.219142 -0.870606 -0.479224 -0.898285 -0.504837 -0.742614 0.479702 0.932205 -0.791320 0.682838 0.843337 0.960587 -0.543088 0.937109 -0.219480 0.657747 0.790101 -0.783365 0.517289 0.305112 -0.378270 -0.701767 0.354036 0.272134 -0.924448 0.508377 0.498928 -0.245357 0.179651 -0.132347 0.839639 -0.601207 -0.002954 -0.639584 -0.499492 0.492210 -0.382199 0.980210 0.424415 -0.173519 0.663048 0.267751 -0.212932 -0.880040 0.204860 0.567588 0.777707 -0.005039 0.784223 0.294997 -0.699927 -0.594047 0.593230 0.654109 0.678087 0.668782 0.162486 0.177014 -0.576575 -0.657863 -0.955333 -0.736936 -0.259070 0.041713 -0.376520 0.241438 -0.466077 0.241281 0.221648 0.958338 -0.932238 -0.115303 0.226089 -0.145169 0.004657 -0.569050 -0.577581 -0.217636 0.425911 -0.793358 -0.922639 0.725984 -0.387405 0.670591 0.380093 -0.709319 0.339373 -0.457421 0.467696 0.762798 -0.115284 0.512363 -0.974138 0.625646 -0.445924 -0.350658 -0.132916 0.087999 0.890623 -0.911268 0.046337 0.958386 -0.026571 -0.727573 -0.186784 0.978085 -0.296623 0.235635 -0.239550 -0.870713 0.442277 -0.162189 0.855271 -0.945128 -0.491598 0.235364 -0.654447 0.847776 0.777943 0.813249 0.610574 -0.337341 0.325612 0.636436 -0.711695 0.879688 -0.714222 0.155389 -0.032313 -0.823599 0.244121 -0.985975 -0.865213 -0.782451 -0.713548 -0.051997 -0.804365 -0.010171 -0.816361 -0.043916 0.119116 0.625915 0.793895 -0.025613 0.680787 -0.697703 -0.790249 -0.973659 -0.849927 0.987695 0.839590 0.760647 -0.349646 0.165201 0.397083 -0.061341 0.044889 0.682861 -0.905953 -0.987423 0.859263 0.338168 -0.973398 0.994050 0.555717 -0.686946 -0.057947 0.751352 0.302882 0.125692 -0.292564 -0.578002 -0.248393 -0.498668 0.396385 -0.567606 -0.196371 0.606137 -0.541265 -0.046298 0.593831 -0.701676 -0.285651 -0.755815 0.463526 -0.888568 0.182844 -0.491585 0.794293 0.276891 -0.479008 0.653556 -0.384941 
-0.452406 0.647606 -0.829223 -0.139352 -0.410341 0.922129 -0.836470 0.715350 -0.370435 -0.414472 -0.533043 0.130897 0.981914 -0.100648 0.934526 0.588050 0.358086 -0.111772 0.181882 0.656411 0.602577 0.426067 0.119937 0.714009 -0.391089 0.628352 0.508303 0.885802 -0.850656 0.161859 -0.499139 -0.303062 -0.190536 -0.328362 0.557585 0.399123 -0.406233 0.721115 0.114473 0.223332 -0.693356 0.581431 -0.645771 -0.711443 -0.519218 -0.711244 0.876608 0.838869 0.176984 0.058489 0.495279 -0.220439 -0.515444 -0.384784 -0.506429 0.093467 -0.756432 -0.998127 -0.020731 -0.607088 0.163732 0.480131 0.089850 0.973196 -0.848231 -0.352565 0.372319 -0.254464 -0.631449 -0.513207 0.968869 -0.324806 -0.931776 -0.676902 -0.036249 -0.450994 -0.388146 -0.159641 -0.612125 0.788838 0.898848 0.883154 -0.431601 -0.616595 -0.501630 0.061970 0.476872 -0.258062 0.063843 -0.543859 0.134850 -0.772425 0.936272 -0.775301 -0.799228 -0.911958 -0.127866 0.573091 -0.166422 0.240685 -0.940116 -0.197553 0.915879 -0.871892 0.125545 -0.120370 -0.322887 0.737398 0.719989 0.064988 0.526236 0.618838 -0.051858 -0.905365 -0.997758 0.446512 0.156605 0.479115 -0.811550 -0.779552 0.935256 0.323300 -0.551976 0.871528 0.547999 -0.351205 0.959570 -0.579866 -0.778113 -0.206852 0.660819 -0.718229 0.595595 0.576698 -0.590122 -0.278861 -0.543672 0.086992 -0.541462 -0.823683 -0.848020 0.984774 0.795155 0.100122 -0.920591 0.797398 -0.453366 0.236014 0.276512 -0.264916 0.456462 0.211768 -0.941616 0.904486 0.083297 0.606383 -0.446719 0.042867 -0.973483 -0.224832 0.836015 0.687335 0.056939 0.431609 0.264033 0.466817 -0.847251 0.720361 -0.446191 -0.388714 0.896679 -0.294211 -0.403940 0.691834 0.805911 -0.324531 0.489231 -0.647456 0.911483 -0.234256 0.087628 0.367946 0.977512 0.146012 0.272432 0.060808 -0.247605 0.825713 -0.896325 -0.221088 -0.399119 0.939690 -0.533753 0.657820 0.371299 0.730280 0.124638 0.524048 0.450642 0.678447 -0.864666 0.347320 -0.615764 -0.268605 0.039154 -0.809854 0.406864 -0.471614 -0.457310 0.318347 0.294129 0.630319 -0.313707 0.271641 -0.223669 0.958725 -0.667550 0.528726 0.784438 -0.563875 -0.692362 -0.614681 -0.624186 -0.226115 -0.956861 0.747114 -0.495835 0.167777 0.271161 0.954807 -0.153776 0.406496 0.302127 0.230459 -0.862110 -0.658719 0.420605 0.544754 -0.130333 0.963296 -0.136899 -0.836204 0.593614 0.549394 0.435437 -0.630055 0.508119 0.767887 0.898671 0.292557 -0.795989 -0.793692 0.677876 -0.420174 -0.019807 0.721016 -0.673060 0.484358 -0.111207 0.598101 0.439165 0.735017 0.004597 -0.258709 -0.034524 0.142487 0.082572 -0.613919 -0.312759 0.952239 -0.650623 0.550342 -0.883965 0.942991 0.099737 0.551473 -0.687064 -0.392144 0.319359 -0.788393 0.900413 0.523371 -0.582085 0.578289 -0.896803 0.398108 0.299304 -0.569864 -0.117534 -0.811903 -0.971763 -0.678369 0.923114 0.032834 0.062922 -0.111411 -0.824680 -0.854505 0.274671 -0.137439 -0.902266 0.624047 -0.587097 -0.786231 0.567038 0.512640 0.765242 0.879974 -0.879504 0.084601 -0.908419 -0.979091 -0.392028 -0.490504 0.599198 -0.288831 0.907604 -0.101498 0.141305 -0.209929 0.086599 0.169542 0.111702 0.009713 -0.797624 -0.825376 0.898302 -0.622303 -0.679882 0.172973 0.240258 -0.582148 -0.202980 0.653161 -0.368378 -0.635942 0.165801 -0.603136 -0.755967 0.286297 0.481465 -0.664386 0.307206 -0.910563 -0.154890 -0.093597 -0.199395 -0.247286 0.804906 0.941910 0.542785 -0.108495 0.111452 -0.345513 0.901218 0.313828 -0.170889 0.799520 0.691525 0.149229 -0.027507 -0.068217 0.567082 0.769513 -0.415056 -0.801297 -0.866428 0.750745 -0.404433 -0.622396 0.037042 -0.922969 -0.286782 -0.655752 -0.833532 0.558328 0.250652 -0.032927 -0.688958 0.055557 -0.091017 0.853828 0.947062 -0.979564 -0.491686 0.848280 0.334264 0.337425 0.647800 0.025789 -0.513346 -0.379707 0.957572 -0.946265 -0.610194 -0.457484 -0.747561 -0.476622 -0.706739 -0.151994 -0.099018 0.330303 -0.074963 0.614200 0.674551 0.091505 0.172528 -0.074797 -0.941422 0.483571 0.980760 -0.032438 0.337398 0.927822 -0.012002 0.845713 0.776102 -0.677738 0.183138 0.423902 0.348051 0.669792 -0.955806 0.305623 0.723527 -0.566000 0.848139 0.975966 -0.042622 -0.858600 -0.176028 0.858360 0.471703 0.749009 0.472561 0.146254 -0.159486 -0.354911 -0.928543 -0.100908 -0.871340 -0.947783 0.866654 0.466058 0.980039 -0.145348 0.311771 0.756141 0.176914 -0.505091 0.180043 -0.475035 -0.835300 0.224237 0.830589 0.888228 0.658237 0.678728 0.864193 -0.384384 0.820127 -0.311835 -0.526024 0.291830 -0.562826 0.946536 -0.561917 0.277687 -0.408375 -0.490460 -0.823220 -0.279715 -0.438243 -0.956566 -0.813657 -0.458204 -0.101914 0.498114 -0.702062 -0.925000 0.993023 0.477980 -0.400034 -0.842277 -0.297783 -0.569446 -0.954050 -0.639545 -0.890718 0.910144 -0.023930 0.929409 -0.401691 0.450046 0.221239 0.035483 0.396583 0.659322 -0.686830 0.988208 -0.831138 -0.510050 -0.291507 -0.269381 -0.466616 -0.105164 0.272416 0.431470 -0.607050 0.570354 0.506470 -0.614027 0.048334 -0.893564 -0.456304 0.750551 -0.463010 -0.410354 -0.888994 -0.353728 -0.500210 0.087076 -0.424319 0.098099 -0.462878 0.796919 -0.866418 0.933705 0.456241 -0.553248 0.921913 0.625103 -0.063298 -0.369594 -0.644277 0.470086 0.525242 0.628139 -0.098444 0.918193 0.198492 -0.591974 -0.695834 -0.753174 -0.485539 -0.152138 0.997377 0.051451 0.437508 -0.891617 0.697723 0.937298 0.195459 -0.726597 0.035398 0.732581 -0.929678 0.168980 0.666286 0.526563 0.615732 0.588199 0.151667 -0.447566 -0.781395 0.507390 -0.977480 0.743848 0.135528 -0.075924 0.662040 -0.665980 0.332102 0.966206 -0.419154 0.846563 -0.185932 -0.421777 -0.101986 -0.748424 -0.313394 -0.404263 -0.811126 0.882065 -0.130859 0.224272 0.614646 -0.060537 -0.606748 0.280933 -0.533973 -0.991016 -0.130868 0.617693 -0.438582 0.087737 0.125083 -0.416061 -0.168415 -0.739389 0.508015 -0.506374 -0.405368 -0.159884 -0.540168 0.175478 -0.313320 0.273899 0.753701 0.584694 0.525475 -0.559692 -0.819569 0.714349 -0.677627 0.049572 -0.061379 0.937019 0.989035 0.331873 0.217952 -0.544938 0.340857 -0.912916 -0.927245 0.902275 0.174821 0.197838 -0.513786 -0.993594 0.458450 0.994228 -0.499969 -0.946919 -0.165655 -0.040137 0.228559 0.521025 -0.766237 -0.017739 0.105719 0.759238 0.422568 0.286150 0.473587 0.744941 -0.664277 -0.587792 0.681960 -0.675242 0.744081 -0.100088 -0.220180 0.084938 -0.013005 -0.147425 -0.012787 -0.838184 -0.949586 0.473427 -0.831778 0.508864 0.467656 -0.331746 0.561945 -0.697999 0.628117 -0.209496 0.823025 0.861879 0.772765 -0.071256 0.621117 0.195333 -0.785106 0.094704 -0.059726 -0.449383 0.506912 -0.377765 -0.124625 0.250993 0.522146 0.655195 -0.664069 -0.490858 -0.492230 0.323144 -0.329042 -0.441816 -0.203428 -0.160820 -0.932952 -0.735773 0.507434 0.628992 -0.433772 0.135550 -0.580503 -0.610747 -0.002570 -0.807738 0.317997 -0.381453 0.387595 0.532891 0.713250 -0.672130 -0.916492 0.220162 -0.049896 -0.041117 -0.528845 -0.527749 -0.385923 -0.192914 -0.018608 0.121847 -0.869769 0.652350 0.680032 -0.073197 -0.508470 0.747079 0.191030 0.998964 0.376072 0.757258 0.134514 0.795568 -0.853489 -0.868056 0.987830 0.464508 -0.249510 0.375425 -0.002601 -0.536259 0.703295 0.080907 0.683903 -0.346601 -0.960211 -0.844942 0.125650 -0.346133 -0.037855 -0.892958 0.775714 0.092376 0.759392 0.455746 -0.980821 -0.749078 0.202825 0.210208 -0.750115 -0.421104 -0.032534 0.384399 -0.625535 0.113977 0.516343 -0.637705 -0.421516 -0.733167 0.737720 0.575883 -0.269426 0.441015 -0.343210 -0.585523 -0.905586 -0.303421 -0.430465 0.220064 0.350446 0.531680 0.327106 0.126160 -0.375944 0.086497 -0.418094 -0.356766 0.337419 0.784731 0.853443 0.587304 -0.636373 -0.179091 -0.028296 -0.261908 0.934886 -0.511953 0.100387 -0.486630 -0.245120 -0.161893 -0.910747 0.485453 -0.720878 -0.253957 0.899930 -0.626464 0.442622 -0.530535 0.593600 -0.206932 -0.998855 -0.079295 0.919228 -0.374799 -0.992797 -0.498866 0.268435 0.344622 -0.714136 0.121878 -0.068074 -0.350509 0.942787 0.903630 0.387583 0.877673 -0.608324 -0.512030 -0.608957 0.146556 0.326077 -0.519704 -0.367990 0.605199 0.226338 -0.468060 0.978735 -0.331040 0.001405 0.572335 0.462028 0.002550 -0.506960 0.381256 0.627751 -0.499757 0.882389 -0.103813 0.844865 -0.831747 -0.981935 -0.223209 -0.182255 0.960852 -0.319579 -0.794672 0.838524 0.072097 -0.306702 -0.770433 -0.781347 -0.980625 -0.290138 -0.149337 0.624574 0.936201 0.382603 0.603309 -0.394839 -0.615992 0.175643 -0.932812 0.386558 0.668683 0.448444 0.014309 -0.831074 0.330833 0.910496 -0.986210 0.499087 0.928561 -0.209419 -0.683169 0.889412 0.471002 -0.477840 0.727937 -0.456901 0.215458 0.957503 -0.238248 0.234833 -0.332634 0.612415 -0.140593 -0.396434 -0.004983 -0.537284 0.208727 0.379025 0.638359 0.275915 -0.234417 0.307042 -0.275641 0.779892 0.475967 -0.944808 0.690388 0.489758 0.554279 0.618949 -0.719661 0.871110 0.508361 0.751340 -0.606730 0.236298 -0.705561 0.608728 0.193801 0.056191 -0.156439 0.861167 -0.331394 0.702968 -0.535267 0.663623 -0.834316 0.673460 0.042648 0.804042 -0.050625 0.808231 0.111084 0.673734 0.588124 -0.412949 0.728926 0.278512 -0.923191 0.283205 -0.102539 -0.642852 0.154315 -0.594178 -0.891512 0.547585 0.642120 -0.597072 0.156313 -0.164079 0.459119 0.999874 -0.302912 -0.872276 0.702842 0.161821 0.791348 0.868525 -0.164720 -0.166004 0.672567 0.784655 -0.357773 -0.216349 0.458389 -0.769649 0.370703 0.187315 0.508863 0.447512 -0.529480 -0.593676 0.804660 0.624835 -0.187854 0.913149 0.172419 -0.545733 -0.683924 -0.671268 0.290188 0.775195 -0.671394 0.987276 0.902919 -0.968553 0.149097 0.694267 0.899972 0.984377 -0.471737 0.572540 0.769032 0.170490 -0.643809 0.227421 0.400841 0.726894 -0.585264 -0.090296 0.174406 -0.114744 0.316028 -0.020934 -0.489910 -0.871826 -0.107785 0.682509 -0.417559 0.208291 -0.988759 0.872629 -0.016514 -0.660153 0.859905 -0.113595 -0.628706 0.009002 -0.419329 -0.728734 -0.006621 0.108934 0.843806 -0.237589 -0.720576 -0.800003 0.989832 0.680264 0.926891 -0.595432 -0.410032 0.101298 0.289824 0.905996 -0.919636 0.799914 -0.965829 -0.027421 0.482423 -0.383388 -0.819130 0.493664 -0.510759 0.164356 0.833511 -0.650854 -0.949240 -0.795195 0.358148 -0.368568 -0.523929 -0.648473 0.740366 -0.680123 0.113938 -0.980210 -0.480126 0.103770 0.700054 -0.553235 0.508339 -0.709978 0.548063 -0.201838 -0.803982 0.628427 -0.401924 -0.769811 -0.398994 -0.919501 -0.153199 -0.218124 0.574163 0.336041 0.946232 0.407674 0.685187 0.996992 0.612479 0.043335 -0.371576 -0.911450 0.394862 -0.631210 -0.591574 -0.491200 -0.611420 -0.071700 0.612571 -0.911366 0.375066 0.120909 -0.621344 -0.076871 0.919071 -0.425326 -0.448444 -0.482852 -0.195137 0.152562 -0.402353 0.651664 0.934438 -0.828190 -0.012295 0.880670 0.579484 -0.327108 0.877662 0.191963 0.716227 -0.493914 0.280512 0.111089 -0.125124 0.688938 0.619889 0.263456 -0.382761 0.232460 0.352090 0.992305 -0.646631 0.730746 -0.084566 -0.727559 -0.694580 0.466990 -0.210412 0.110284 -0.380448 0.387235 -0.238052 -0.446010 0.559045 0.749653 -0.565340 0.138528 -0.577455 -0.687678 -0.669509 -0.861228 -0.181592 0.611003 0.249862 0.693284 0.299942 -0.130249 -0.043260 0.917180 -0.897789 -0.691170 0.909485 -0.544420 -0.960424 -0.175081 -0.271979 -0.655004 -0.708092 0.517609 0.455279 -0.088540 -0.095156 -0.782773 0.465450 -0.536112 0.966879 0.900109 0.602417 -0.610575 -0.787569 0.932908 -0.471803 0.030839 0.543911 0.778059 -0.275877 -0.156148 -0.352190 0.680864 -0.238967 -0.249979 0.989694 -0.329482 0.205601 -0.970731 0.495437 0.933622 -0.625735 0.787345 0.451231 0.829544 -0.301195 -0.643925 -0.953229 -0.835745 -0.180036 -0.986350 -0.935636 -0.577620 -0.596925 -0.723205 -0.644712 -0.068728 0.307634 0.899199 -0.290669 -0.968242 -0.256949 0.357141 0.712622 0.504084 -0.892838 0.702315 -0.825398 0.312764 0.731585 0.670039 0.246386 -0.894150 0.457384 -0.302382 0.935394 -0.843810 0.053693 0.982165 -0.679555 0.873656 0.995815 -0.615191 -0.703963 -0.601110 -0.338396 -0.348675 0.330163 0.969238 -0.449476 -0.960506 -0.999004 0.293575 0.396635 0.713618 -0.202340 0.503797 0.415933 -0.027738 -0.183439 0.147518 -0.357699 -0.937053 0.253367 -0.900314 -0.239435 0.188761 -0.744125 0.814258 0.170926 -0.423680 0.687914 0.166741 -0.038871 0.983951 0.565632 0.622733 -0.364724 -0.104206 0.591971 0.185800 -0.064712 0.592967 -0.520624 -0.668077 0.306585 0.277035 0.835720 -0.277482 -0.750703 -0.347718 0.870036 -0.108401 -0.284771 0.123404 -0.008715 0.475794 -0.687835 0.247160 0.290052 0.483091 0.823480 -0.022034 -0.350168 -0.215391 -0.038083 -0.784536 -0.592659 0.597193 0.111258 0.999312 -0.217006 -0.953454 0.592280 0.262369 -0.621531 -0.101135 -0.460595 -0.785811 0.621383 -0.211298 -0.133529 0.491420 0.680301 0.581700 -0.385177 -0.328415 0.057495 -0.073012 0.918746 -0.652453 -0.589921 0.742226 0.325513 0.059911 -0.473166 -0.712570 0.275375 -0.065824 0.884624 -0.613367 -0.066512 -0.332383 -0.566822 -0.474232 0.929987 -0.188353 0.424633 -0.530609 0.025837 0.046016 0.258093 0.892308 -0.462564 -0.061606 0.474008 0.152260 0.609979 -0.468497 -0.920752 0.528725 -0.120950 -0.510673 0.270950 -0.795437 0.549238 0.797785 -0.508006 -0.175387 -0.268040 -0.623383 0.211245 0.665448 0.044235 0.644424 -0.808784 -0.025778 -0.543929 0.615849 0.443613 0.481908 -0.338135 -0.298294 0.374216 0.199301 0.640100 -0.151776 -0.648439 0.250079 0.379728 -0.569191 -0.221196 -0.741222 -0.079864 -0.950245 -0.536659 -0.530627 0.847539 -0.044666 0.293986 -0.420500 0.331952 -0.494769 -0.755052 -0.623813 -0.850345 -0.563836 0.350408 -0.394274 -0.947987 -0.205979 -0.912366 -0.286122 0.495727 0.461850 0.913180 0.135827 -0.689926 -0.735259 -0.614094 0.689802 -0.304451 0.164711 0.948579 0.615685 0.214465 -0.588080 -0.914942 0.062005 0.367254 0.379044 0.641505 -0.300794 0.884276 0.886452 0.075393 -0.966070 -0.677384 -0.574199 -0.360344 -0.625371 0.219822 -0.272710 0.088507 -0.284451 -0.810860 0.001687 0.851376 -0.500786 0.266428 -0.762717 -0.810985 0.961977 0.401993 -0.862406 0.577662 -0.383541 -0.450486 0.662721 0.678464 0.916768 0.041765 0.319968 -0.384026 -0.073959 0.206421 0.691367 -0.040029 0.529037 -0.882832 0.599627 0.903666 0.336990 -0.673083 -0.007827 -0.947461 -0.483943 0.993860 0.903915 0.015270 0.260288 -0.858802 0.204286 0.222265 0.543191 0.341880 -0.200072 -0.840350 0.891394 -0.537352 0.838113 0.808162 0.504414 0.158081 -0.575863 -0.569546 -0.635498 -0.884497 0.390425 0.893539 -0.767329 -0.009947 0.797205 0.569661 0.316970 -0.210622 0.622200 0.833027 -0.216761 0.526115 -0.151703 -0.956473 0.667313 -0.947417 0.265792 0.210504 0.394463 -0.934280 0.370153 0.285857 -0.471632 0.208266 0.094020 -0.967218 -0.633652 0.518156 -0.536764 -0.269150 0.633659 0.853662 -0.375612 0.866330 -0.156286 -0.578407 0.435991 -0.839316 0.210971 0.058191 0.993711 0.994210 -0.415694 -0.157991 -0.962264 -0.748381 -0.105408 0.303528 0.462123 -0.710945 0.369248 -0.167724 0.574912 0.897616 -0.959457 -0.331068 0.930398 -0.593110 -0.812912 -0.606366 0.137740 0.820748 -0.752704 0.762128 0.687078 0.091011 -0.816279 0.123069 0.251695 0.394692 -0.818740 0.245407 0.388902 -0.234433 -0.912585 0.426638 0.017186 -0.017993 -0.269833 -0.520691 0.271063 -0.900585 0.311585 -0.154025 0.997031 0.352127 0.514907 0.927430 0.759018 0.701995 -0.678936 -0.103243 0.522743 -0.431640 -0.341114 0.209821 0.659371 -0.157393 -0.667110 -0.088934 -0.762701 -0.485850 -0.843527 0.626201 0.279717 -0.756112 0.052840 -0.703098 0.225896 0.783006 -0.223789 -0.503042 0.882421 -0.912204 0.342933 0.879453 0.439923 -0.142160 0.806883 0.198941 -0.440165 -0.872053 -0.904302 -0.917422 -0.303693 -0.245416 0.292399 -0.644322 0.597191 0.625289 0.266744 0.834490 -0.860561 0.423217 0.460691 0.419155 0.667105 -0.486469 0.716058 -0.106999 -0.703463 -0.507731 0.389959 -0.821041 -0.419935 -0.267108 -0.941588 -0.980012 0.590733 0.865294 0.218928 -0.849432 0.993241 0.314626 -0.766854 -0.310452 -0.930790 0.525545 0.045226 0.666401 0.150833 -0.688029 0.500891 0.290272 0.735188 -0.038418 -0.290573 0.402293 0.475113 -0.574515 -0.704706 0.771650 -0.082246 0.685253 0.950609 0.497819 -0.581855 -0.990979 0.517806 -0.991122 0.874315 -0.263265 -0.840554 0.867556 -0.948639 -0.607408 -0.442896 -0.879429 0.918136 0.602330 0.786972 0.068970 0.914301 0.287862 -0.640758 0.649489 -0.750556 0.068669 0.051782 0.724557 0.494154 0.347076 0.496207 -0.588091 0.032329 0.446815 0.909727 0.450475 0.455836 0.427534 0.459353 0.330151 -0.835732 0.618799 0.197706 -0.784370 -0.988610 0.754810 -0.663799 0.929527 0.357141 -0.876828 -0.001503 0.271442 0.411035 0.357738 -0.079069 0.660479 -0.573593 0.972714 0.385035 0.920562 0.319790 -0.118758 -0.667530 -0.647880 -0.671942 -0.757802 0.802595 0.783893 0.669732 0.261947 0.114044 0.834000 -0.119254 -0.688249 -0.950370 -0.107864 -0.933439 -0.614170 -0.178337 0.423702 -0.490997 0.820160 -0.304856 0.920037 0.177898 0.616076 0.580516 0.604306 0.588790 -0.034449 0.524867 -0.091420 0.846793 0.857338 0.260699 -0.825149 -0.900464 0.063294 0.958744 0.769267 -0.674759 0.072789 0.603267 0.205987 0.384539 0.652897 -0.901876 0.451100 -0.961273 -0.080213 -0.125198 -0.452270 -0.260053 0.569947 -0.532233 0.917845 0.186023 -0.951717 0.522151 -0.225188 0.013834 0.047018 0.683392 -0.139372 -0.095644 -0.055909 0.035479 0.003891 -0.992615 -0.005777 -0.226842 -0.667374 -0.932988 -0.623574 0.538614 0.451551 -0.970678 0.636738 -0.097349 -0.931951 -0.443475 0.777454 -0.384221 0.296472 0.347400 0.083546 0.214317 -0.466577 0.131829 -0.263532 0.308235 -0.854337 0.783486 -0.008373 0.006291 -0.312158 0.935718 -0.958230 0.691733 0.943103 0.035993 -0.535109 -0.724271 0.103004 -0.158683 0.814343 -0.445445 -0.129361 0.451081 0.457206 -0.061312 -0.992394 0.234660 0.554467 0.304078 -0.417939 -0.361986 -0.481605 0.115484 0.769843 0.254863 -0.576281 0.915506 0.038349 0.415345 -0.078203 0.726191 0.351063 -0.036433 0.417923 0.294166 0.999560 0.882814 0.569896 0.102564 -0.275869 0.384239 0.657119 0.594770 -0.164680 0.114326 -0.466542 -0.157074 -0.651014 -0.912074 -0.852996 -0.068954 -0.274061 -0.334600 -0.953470 -0.504218 0.920263 -0.529752 -0.588712 -0.041388 0.885594 0.333085 -0.315197 0.236657 -0.703348 -0.897274 -0.469177 -0.703788 0.985541 -0.899281 0.398776 -0.290328 0.484958 0.055896 -0.695558 -0.679722 -0.829778 -0.162100 0.163204 -0.480793 -0.074175 0.310208 0.450254 0.651765 0.975607 0.496783 -0.852453 0.895870 0.967032 -0.441165 -0.145518 0.852626 0.891920 0.539285 0.089283 -0.811428 0.642011 0.620106 -0.515215 0.627552 0.720825 0.883561 -0.662776 0.205782 -0.060543 -0.358335 0.526060 0.109678 0.479565 -0.310737 0.628886 -0.594609 0.999471 0.079139 -0.942845 0.975079 -0.424077 -0.795298 0.870949 -0.457045 -0.236463 -0.274569 -0.604419 -0.344543 -0.735283 0.484863 -0.155971 0.906728 0.104969 0.328814 0.534280 -0.174206 0.212375 0.871504 -0.968424 -0.848168 -0.486830 0.557636 0.261510 0.992735 -0.753101 -0.109604 -0.601875 -0.753630 0.969536 -0.544719 -0.778551 -0.454542 -0.340017 -0.907602 0.088413 0.423519 -0.182171 0.483994 -0.921024 0.082546 -0.031143 -0.076995 -0.010726 -0.926174 -0.748181 -0.476446 -0.100380 0.464194 -0.604941 -0.068804 0.616025 -0.091772 -0.511168 -0.122464 -0.099037 -0.264269 0.767932 0.299088 -0.017899 0.737467 0.754369 0.203550 -0.717074 -0.585648 0.295948 0.371339 0.837871 -0.886222 -0.144667 0.916847 0.196323 0.824190 -0.160148 -0.814402 0.898016 0.091671 -0.290848 -0.202364 -0.444135 0.104210 0.728832 -0.828110 -0.987561 -0.782337 0.049426 -0.086599 -0.046606 -0.182643 -0.787510 0.935495 -0.445175 0.966859 0.139045 -0.162250 -0.618790 -0.565007 -0.790910 -0.780919 -0.451229 0.064423 -0.864072 0.745094 -0.111387 -0.024220 0.930692 -0.213371 -0.932549 -0.360156 0.584265 -0.376684 0.744054 0.313096 -0.204794 0.756492 0.530760 0.844631 -0.330106 -0.515847 -0.338011 -0.117616 -0.580352 0.216813 -0.150758 0.558693 -0.945436 0.230453 0.993686 -0.736347 0.449534 -0.457543 0.328076 0.585462 -0.712449 -0.783311 -0.438757 -0.781757 0.003317 -0.371306 -0.141913 -0.412418 0.252009 -0.397859 0.900678 -0.952785 -0.641367 0.431438 0.891846 0.028527 0.915591 -0.446165 0.910911 -0.664761 0.770648 -0.239847 0.893933 0.825212 0.990606 0.887619 -0.911135 0.440140 -0.569924 0.416941 0.025602 -0.282372 0.633630 0.586845 -0.064129 -0.363053 -0.784461 0.793958 0.224529 0.467548 -0.603902 0.125207 0.514763 -0.245269 -0.443355 0.406609 0.783258 -0.527764 0.960443 0.694169 -0.192525 0.731091 -0.545678 -0.298592 0.556303 -0.555072 -0.410973 0.645168 0.885068 0.019103 0.062109 -0.089329 0.736731 -0.304262 -0.502484 -0.327398 0.332685 -0.286945 -0.533440 -0.442786 -0.819397 -0.137342 0.682421 0.695366 0.617389 -0.760934 0.101974 0.400647 -0.288698 0.062418 0.094816 0.518777 -0.206491 0.549139 -0.779815 -0.650188 0.994067 -0.190788 0.994980 0.879135 0.828315 0.057089 -0.210194 0.565046 0.752827 0.287322 -0.762352 0.085512 -0.999623 -0.295792 0.642726 -0.819021 0.566866 0.325147 0.876345 0.184255 0.564213 -0.021681 -0.415098 -0.724486 -0.959263 0.679718 0.794291 -0.165754 0.228857 -0.985524 0.184058 0.222924 -0.176313 0.179037 0.102059 -0.347998 -0.763874 0.891865 -0.782951 0.988953 0.179187 -0.545303 0.074466 0.179563 0.158905 -0.282808 0.360542 -0.274230 -0.957661 0.236887 0.910025 0.606552 -0.784794 -0.505073 0.882067 -0.744057 -0.825355 0.676358 0.090189 0.403502 0.690833 -0.725753 -0.373574 -0.485479 0.453284 0.728485 0.166523 0.689410 0.620350 0.383572 0.678364 -0.200463 0.838268 -0.247171 0.979100 -0.002827 0.470021 0.339642 0.722944 0.512360 -0.423471 0.632969 0.118912 -0.208264 -0.872104 0.000979 0.047679 -0.697459 -0.322663 -0.862132 0.706044 -0.631830 -0.587885 -0.667530 -0.117309 0.865399 -0.939045 -0.950786 0.554810 0.681305 0.432785 0.233173 -0.519158 0.271053 0.986003 -0.540059 -0.731773 0.456024 0.799583 0.991170 -0.031616 -0.623888 0.624139 -0.912704 0.167848 0.752035 0.088275 -0.784473 -0.945424 0.765612 -0.646605 0.760620 -0.866219 -0.234490 -0.906910 0.016472 -0.369091 -0.845955 0.065686 -0.814281 0.835350 -0.501529 0.418892 -0.683808 0.769524 0.404895 -0.223867 -0.962249 -0.139081 -0.424283 -0.971079 0.829302 -0.048171 0.653060 0.916598 -0.880323 0.405095 0.004873 -0.664796 0.459671 -0.229515 -0.311401 0.220290 -0.095734 0.454109 0.313380 0.920739 -0.914982 0.467425 -0.013576 -0.729263 0.302775 0.484895 0.689630 0.618967 0.254420 0.094525 -0.604900 0.292171 0.955443 -0.029183 0.321092 0.784746 0.922646 -0.025848 0.701344 -0.957677 -0.620753 -0.293783 -0.622473 0.838917 0.476702 0.066125 0.059208 -0.619031 -0.479766 -0.627413 -0.698293 -0.394748 0.840012 0.288131 -0.124011 0.142787 -0.226973 -0.434381 -0.238247 -0.972554 0.660143 0.156854 0.319617 0.615586 -0.872329 -0.359291 0.400332 -0.949683 0.614861 0.101676 -0.907361 0.994108 0.807893 -0.529834 0.833026 0.284595 0.536291 -0.107767 0.665564 -0.943475 0.264820 0.967271 -0.338223 0.104832 0.255402 0.537765 -0.752381 -0.971571 -0.896616 0.009372 -0.944125 0.763527 -0.833774 0.375492 0.379113 -0.706104 -0.983799 -0.220555 -0.655787 0.631063 0.881121 -0.563148 0.625171 0.689014 -0.092982 0.458196 -0.026391 -0.556691 -0.649571 -0.360827 -0.500166 0.615249 -0.393556 0.161610 -0.279919 0.861846 -0.300624 -0.032300 0.890275 -0.197240 0.977072 0.946150 -0.433713 -0.856702 0.321642 0.945400 -0.562806 0.337843 -0.275155 -0.218593 -0.031094 -0.394034 0.218259 -0.405923 -0.705020 -0.874723 -0.947727 0.268589 -0.431415 -0.597298 0.907762 0.068419 -0.982048 -0.485795 -0.769971 -0.261967 -0.623949 -0.070595 0.705733 -0.733674 0.732165 0.682805 -0.787525 -0.701549 0.826103 0.534118 -0.756149 -0.736703 -0.128039 -0.031304 0.044703 0.840867 0.574662 -0.737038 -0.565056 0.869642 -0.611762 -0.512783 0.138231 -0.043176 -0.110081 0.045992 -0.974757 -0.092129 0.560198 -0.744728 0.645904 0.936249 0.184677 0.351637 -0.797426 -0.083158 0.034442 -0.584950 0.215293 -0.139456 0.949167 0.459144 0.123841 -0.178872 -0.572159 -0.831456 -0.338005 -0.997497 -0.568494 0.096939 0.872145 -0.180256 0.584156 0.010376 0.776568 -0.525925 -0.943632 0.801811 0.381945 0.616566 -0.942917 0.027849 0.552814 0.241761 -0.620514 0.755389 -0.841398 0.413927 -0.829562 0.373896 -0.725528 
-0.880395 -0.166960 0.398312 -0.059266 0.260880 0.566857 0.602729 0.263383 0.998362 -0.300332 0.135528 -0.181894 -0.716176 -0.854096 -0.405326 -0.242101 -0.797728 -0.603515 -0.860156 0.818838 -0.546432 0.167693 0.371653 0.695329 0.547179 0.127041 0.853931 -0.038894 0.297480 0.227827 0.235578 0.417085 -0.939134 -0.366110 -0.642182 0.321747 -0.799253 0.960547 -0.414870 -0.800891 -0.339785 0.720658 0.017215 -0.055961 0.866562 0.611890 0.701938 -0.931165 -0.991625 0.841783 0.887673 -0.538057 0.009476 0.259326 -0.842729 -0.443345 -0.613633 -0.988797 0.517761 0.683847 0.239029 -0.246661 0.100931 0.299896 0.387230 0.458750 -0.378358 0.587977 0.419297 0.206772 0.787086 -0.920488 -0.072569 -0.195699 0.023551 -0.206007 -0.583809 -0.274511 -0.137172 -0.575435 -0.432728 -0.249499 -0.113492 0.576748 -0.990174 0.043779 -0.866597 -0.603806 0.054982 0.651165 -0.919960 -0.705989 -0.595496 0.180972 0.593906 0.791734 -0.360279 -0.784451 0.379710 -0.940982 0.422321 0.166796 -0.861470 -0.650248 0.971097 0.162082 0.143745 -0.612713 0.887571 -0.993427 -0.188147 -0.545156 -0.242926 0.698361 -0.968408 -0.233100 -0.257860 -0.835005 0.163094 0.797121 0.816160 0.243134 -0.908868 -0.779336 -0.575895 0.685039 -0.987603 0.063827 0.900588 0.392108 0.122845 0.322909 -0.441097 0.261376 0.672661 -0.470000 -0.576542 -0.183594 -0.082712 -0.688971 -0.177020 0.729141 -0.234128 0.580053 0.427501 -0.202536 -0.653046 -0.830359 -0.037541 0.510048 0.966762 -0.221381 -0.246818 -0.942105 -0.000718 0.177287 0.742934 0.011680 -0.758886 0.643521 -0.596213 0.363959 -0.033570 -0.037309 -0.374666 -0.360909 0.492691 0.048792 0.455498 -0.590021 0.359821 -0.721523 -0.860880 -0.874307 0.858531 0.566621 -0.076843 -0.794515 0.736261 0.885616 0.715532 0.703023 -0.335765 -0.531286 0.760918 0.663517 0.646001 0.503852 -0.324803 0.887114 0.147373 0.078984 0.251073 -0.886197 -0.958325 0.876408 -0.247106 0.534366 -0.074800 -0.791608 0.944345 -0.714980 -0.513130 -0.916536 -0.589286 -0.654599 0.650085 0.333871 -0.449115 0.386346 0.219488 -0.733583 0.089370 0.883723 -0.264869 -0.149712 0.547240 -0.618869 -0.645860 -0.777563 -0.731754 0.501512 0.301421 0.519319 0.615315 0.343096 0.395726 -0.631790 -0.122538 -0.679074 -0.423398 -0.178193 -0.394054 0.063472 -0.094729 0.016660 0.408873 -0.444644 -0.649469 0.959758 0.941702 0.570019 -0.773825 0.031072 0.453741 -0.038694 0.881360 0.000981 0.342437 -0.764500 0.223418 0.610682 0.737012 -0.475161 0.130001 0.352327 0.867935 -0.474273 0.720537 -0.254603 -0.153347 -0.702860 0.567203 0.452599 0.360612 -0.527526 -0.530741 -0.230516 0.027830 -0.180209 -0.270758 -0.030467 -0.610190 -0.044583 -0.999395 0.843551 0.916723 0.881965 -0.155468 0.259160 -0.882536 -0.932049 -0.130158 0.854476 -0.407210 0.999843 0.206804 -0.539275 -0.474429 -0.072659 0.206121 0.372224 0.224480 -0.226676 -0.175177 -0.414908 0.245799 0.294082 0.354576 -0.726371 -0.886127 -0.916182 0.243162 -0.496317 0.039236 0.243767 -0.652766 -0.044042 0.125732 0.191766 -0.784882 0.243196 0.259717 0.084960 0.097672 0.852506 0.084803 -0.695524 -0.686769 0.610374 0.231817 0.519352 -0.017402 -0.543703 -0.707324 0.807421 0.041389 0.538475 0.101503 -0.604035 0.812104 0.215376 -0.520216 0.055266 0.719059 0.519019 -0.700967 -0.933707 -0.525022 0.424765 0.258059 -0.309904 -0.332039 -0.482224 0.775056 0.765633 -0.629718 -0.140141 -0.929891 -0.316487 -0.529767 0.301926 -0.797135 0.452831 0.758222 -0.504458 0.260252 -0.200389 -0.965983 -0.638245 0.195577 0.846121 0.577131 0.675360 -0.098612 0.296190 0.194380 0.200421 0.362483 0.669357 -0.374814 -0.379458 -0.640547 0.293147 0.138317 -0.865491 0.058780 0.508600 -0.005632 0.128889 -0.807887 0.464601 -0.569185 -0.605022 -0.082568 -0.810963 -0.109481 -0.822317 -0.011351 -0.075464 -0.460562 -0.815775 -0.229343 -0.883431 0.859586 0.672045 0.412760 0.053965 -0.127534 -0.224758 -0.276677 0.497652 0.395784 0.082776 -0.209201 -0.465898 0.217284 0.849579 -0.957299 -0.788348 -0.021531 -0.765186 0.676253 0.409283 -0.370208 -0.406316 0.598321 0.520311 -0.228633 -0.413031 -0.555153 0.310805 -0.228806 0.215504 0.427375 -0.369220 -0.112451 -0.159866 0.684745 0.760014 0.615377 -0.591932 0.257666 0.011161 0.490844 -0.951535 0.545263 -0.291872 0.898045 0.587964 -0.080220 -0.123487 0.822778 -0.403967 -0.714203 -0.547431 0.189717 0.884117 0.972880 0.961085 -0.528914 -0.582273 0.271890 0.242280 0.633231 -0.300735 0.873060 -0.479221 0.539399 0.557805 -0.719206 0.154776 0.965874 0.538460 -0.834063 0.456717 0.586925 0.711199 -0.835154 0.484970 0.299164 0.084626 -0.638517 0.121942 0.680659 -0.352720 0.574511 -0.129624 -0.468603 0.547391 -0.168539 0.002483 0.965118 -0.896649 -0.755237 0.598349 -0.197385 -0.882177 -0.880872 -0.657986 0.675628 -0.600078 0.496790 0.641502 0.938382 0.662727 0.098219 0.525307 0.373926 0.263065 0.010277 -0.326910 -0.652309 0.371760 0.795031 -0.971650 -0.980960 0.369542 -0.101274 -0.449563 -0.083066 0.730187 0.552920 -0.117948 0.833538 0.797682 -0.519599 -0.363847 0.915506 -0.400471 -0.021833 0.591134 -0.000549 -0.525043 0.232636 -0.062167 -0.862316 -0.669145 -0.536860 0.511610 0.593921 0.473417 -0.815300 0.941612 -0.154822 0.979732 0.969962 -0.135782 0.349274 -0.131311 0.414654 -0.733792 -0.401124 -0.032426 0.148259 -0.567586 -0.234744 0.628660 0.068567 -0.319238 -0.771811 -0.953266 -0.728104 0.227640 -0.478308 0.504532 -0.834528 -0.340624 0.835388 -0.371388 -0.829014 0.429308 -0.897971 -0.644314 0.370920 -0.052793 -0.664582 0.340883 0.811425 0.684692 -0.790429 0.226079 0.950900 -0.191553 -0.806347 0.099159 0.240861 -0.041090 -0.272181 -0.690572 0.639672 -0.043992 -0.643838 0.911568 -0.816352 -0.122146 0.416100 -0.650880 0.537230 0.251487 -0.022268 0.708216 -0.319204 0.079762 -0.936097 -0.948284 -0.973031 -0.600679 0.392599 0.838394 -0.915987 0.602170 0.064473 -0.965088 -0.589382 0.258127 0.134071 0.651479 -0.782964 0.861890 0.960907 0.856708 -0.182102 -0.682931 0.768276 0.001546 0.194923 0.184376 0.350666 -0.267848 -0.564137 -0.671601 -0.559632 0.116659 0.408161 -0.495729 0.168375 0.435130 -0.096408 -0.439026 0.273523 -0.012396 -0.836856 -0.662003 0.022516 -0.426238 0.596123 -0.843412 -0.774759 0.813160 -0.981522 -0.813853 0.669868 -0.163624 -0.496784 0.438144 0.837923 0.698138 -0.377480 0.188589 -0.569709 0.058383 0.516988 -0.129341 -0.824957 -0.074852 0.374930 0.343418 -0.639722 -0.721478 0.904392 0.633801 0.266126 -0.932464 0.971798 -0.711357 -0.358702 0.567921 -0.554770 -0.133461 0.381081 -0.536292 0.052686 0.050949 0.300084 0.555902 -0.510907 0.138007 0.254041 0.111612 -0.673404 0.684332 -0.830004 0.843584 -0.445009 -0.654962 -0.231268 0.929921 0.688456 0.129010 -0.791557 0.592848 -0.237189 0.474570 0.660385 -0.265391 0.763213 -0.698317 -0.697470 -0.791557 0.168222 0.683611 -0.327849 -0.779092 -0.265440 0.972236 0.776811 0.223652 0.110243 0.030851 -0.664735 0.436839 -0.284817 -0.494740 0.280422 0.270174 -0.149701 -0.950845 0.200095 -0.461245 0.178164 0.408539 -0.868397 0.940976 -0.116892 0.791988 -0.324415 -0.353679 -0.906329 -0.021885 -0.145236 0.261893 -0.338274 0.526916 0.482802 0.396286 0.499151 0.259612 -0.380062 -0.390606 -0.709536 -0.044797 -0.953767 0.005647 0.460463 0.326655 -0.724180 -0.689238 0.375810 0.475916 -0.150483 -0.446026 -0.115546 -0.018879 -0.505050 0.767563 -0.226891 0.170535 -0.586116 -0.133220 -0.851350 0.268648 -0.871327 -0.189623 -0.204437 0.611475 -0.793337 -0.705285 -0.128913 -0.173399 -0.095891 0.161550 0.781804 -0.049658 -0.832803 0.242268 -0.723003 -0.556983 0.553030 0.652807 0.918933 -0.597453 -0.793219 -0.196613 0.383668 -0.298269 -0.429050 -0.843223 0.872266 -0.015167 0.023557 -0.979083 -0.746519 0.152230 -0.168707 0.049045 -0.236295 0.037956 0.343760 0.634792 0.864558 -0.752132 -0.203658 0.646362 0.198210 -0.036461 -0.111370 0.475207 0.406557 -0.558341 0.128014 0.325490 -0.155793 0.334795 -0.871123 -0.772125 -0.963474 -0.300174 -0.615349 0.908792 0.684660 0.408208 0.929709 0.938141 -0.439562 -0.238998 -0.012814 0.324143 0.798959 -0.669055 -0.041065 0.663517 -0.421186 0.755277 0.309879 0.777024 -0.281184 -0.801492 0.252231 -0.874628 -0.359833 -0.619755 0.450862 0.484374 0.715040 0.579738 0.712249 0.751567 -0.720435 -0.903100 0.660359 0.964225 0.505108 0.590068 0.902366 -0.934453 -0.648929 -0.110449 0.389690 -0.849970 0.220497 -0.651376 0.813546 0.799310 -0.896099 0.123425 0.576334 -0.177283 0.321933 -0.171434 -0.051911 0.962100 0.208811 -0.601049 0.446474 -0.076149 0.978689 0.158723 -0.324582 -0.741746 0.255623 -0.664223 -0.777521 -0.239269 0.925846 -0.875156 -0.173722 -0.723084 0.014395 -0.784033 -0.573054 -0.765108 -0.435408 -0.759508 -0.965797 -0.331508 0.363917 0.610537 0.491209 -0.314150 -0.560897 -0.560702 -0.352050 0.647914 -0.161752 -0.905576 -0.428235 -0.183063 0.253147 0.247183 0.075191 -0.491230 0.582960 0.297670 0.269501 0.508806 0.422514 -0.904221 0.785722 -0.563090 -0.688254 -0.787332 -0.328198 -0.123662 -0.546840 -0.293996 0.544830 0.817077 -0.683459 0.036039 -0.497073 -0.244356 0.475337 0.150877 -0.596443 -0.686415 0.245301 -0.024678 0.130522 -0.501552 -0.777495 -0.794286 0.007218 0.805466 0.503384 -0.723281 0.314272 -0.074102 -0.627502 0.099994 0.362807 -0.315756 0.312662 -0.965391 0.560582 0.765822 -0.259387 0.105411 0.582899 0.057154 -0.858550 -0.914174 0.812798 0.616787 0.236703 -0.783645 0.930372 -0.517996 0.191677 0.060894 -0.019547 0.414182 0.266608 0.987671 0.219648 -0.230009 -0.735610 -0.466081 0.695889 -0.363112 0.633913 0.058696 0.321132 -0.053425 0.093305 -0.118287 -0.287602 0.833918 0.987125 -0.704703 -0.108927 -0.871425 -0.618877 -0.296130 0.745362 0.617826 -0.079775 0.675734 -0.900169 -0.888097 -0.263372 0.080283 0.526085 -0.996765 0.067954 -0.254267 -0.226774 0.332344 0.279652 -0.530885 0.969232 -0.086435 0.527811 0.290364 0.860140 -0.378884 -0.827923 -0.427462 -0.544965 -0.840798 -0.132165 0.346107 -0.712223 0.248958 -0.950022 -0.966861 -0.133216 -0.029797 0.708873 -0.033385 0.082106 -0.554499 -0.953102 -0.391810 -0.551264 0.114853 0.353923 0.221962 -0.552803 -0.366425 0.691078 -0.583571 0.547140 0.218889 0.706793 0.407280 0.840005 0.878871 0.979818 -0.704960 -0.961927 -0.152347 0.641147 -0.674150 -0.903389 0.691125 -0.641011 -0.036605 -0.338672 -0.932138 0.930010 0.743433 -0.486638 0.976908 -0.648376 -0.037902 0.091761 0.705547 -0.815939 0.538958 -0.660879 0.875139 0.955387 0.886261 0.094028 0.662181 0.293542 -0.065967 0.541052 0.273360 0.229073 0.579124 -0.878987 -0.129780 0.904974 -0.782376 -0.438656 -0.736037 0.181019 0.222672 -0.668175 0.111028 -0.033895 -0.154813 0.087937 0.317729 0.807285 -0.820302 0.023275 0.991346 0.718656 0.362397 0.866485 0.674043 0.248658 -0.039487 0.336224 -0.457800 0.894545 -0.122724 0.815559 0.123618 -0.543600 0.936572 0.993838 -0.638626 -0.845804 -0.444818 -0.374663 0.335214 0.777854 -0.042839 -0.553757 -0.256041 0.802348 0.534179 -0.938312 0.609633 0.713877 0.084964 0.600980 0.432533 -0.552640 0.467465 0.106576 0.696018 -0.572023 -0.557200 -0.761782 -0.677477 0.320075 -0.946223 0.446141 0.776475 0.990349 0.439979 -0.862151 -0.855455 0.995161 -0.236815 0.479759 0.773015 0.720346 0.926002 -0.483026 0.522694 0.460181 -0.421337 0.132328 0.174058 0.663626 -0.266693 -0.393410 -0.889013 -0.799228 0.713166 0.807005 -0.371250 -0.844034 -0.954777 -0.048728 0.476041 -0.901000 -0.602587 0.252516 -0.910650 0.837392 0.390364 -0.766105 0.832553 -0.846451 0.713654 0.605568 0.873896 0.639656 -0.877458 0.396590 0.099837 -0.298795 -0.471083 -0.726106 -0.635169 0.262225 -0.119515 -0.524182 0.462997 -0.406349 -0.717177 -0.908253 -0.250384 -0.671954 0.043019 -0.774343 -0.572954 0.440432 0.478173 -0.483604 0.277824 -0.131463 -0.249710 0.110377 0.022086 -0.536056 -0.284055 -0.104018 -0.896400 -0.161513 -0.707428 0.203437 0.539692 -0.178511 0.477331 0.904523 -0.916286 -0.642184 -0.619659 0.546711 -0.048533 -0.336836 0.638457 0.701083 -0.008791 -0.318524 0.926740 0.418255 -0.878092 0.404913 0.934651 0.399732 -0.726550 -0.315059 -0.489891 0.295537 0.148885 0.226053 -0.808481 0.252486 -0.935460 -0.515909 -0.544078 0.604232 0.305580 0.933253 0.508756 0.389294 -0.708931 0.889097 -0.063995 0.242536 -0.447739 -0.425538 -0.056381 0.543470 0.255938 -0.129641 -0.038274 0.377846 -0.724727 -0.103624 -0.222422 -0.451277 0.581318 0.287687 0.844260 -0.269797 -0.486260 -0.964221 0.982688 -0.421719 -0.480130 -0.561389 -0.817487 0.825449 -0.628136 0.691269 0.214743 -0.337067 0.580366 -0.849253 0.905469 -0.867373 -0.274791 -0.150912 0.676098 0.981148 0.719448 -0.362177 0.358994 0.994720 0.534200 -0.863427 -0.456556 0.115517 0.424260 -0.612296 0.845720 0.938000 -0.576518 0.828409 -0.483719 -0.056648 -0.732981 -0.301206 -0.231199 -0.361117 -0.609937 0.983544 0.301816 0.970429 -0.865709 0.207285 -0.896944 -0.140499 -0.943626 0.779154 -0.159352 0.775821 -0.583023 -0.800357 0.770542 0.951177 -0.663785 -0.686015 0.066694 0.760475 -0.298311 -0.087586 0.698475 0.125171 -0.259177 -0.785245 -0.931477 0.007842 -0.086451 -0.162676 0.646726 0.303612 -0.179132 -0.051458 0.274041 -0.044841 -0.844173 0.377097 0.814660 -0.787799 0.156251 -0.344692 0.988022 0.573229 -0.145049 0.758564 0.524406 0.191166 -0.927451 -0.408900 -0.048359 -0.225763 0.503514 -0.349884 0.899408 -0.755663 -0.135129 0.967931 0.252179 0.778420 -0.194745 -0.101095 0.082032 0.626123 0.847447 -0.643927 -0.418718 -0.996725 0.733171 -0.604057 -0.784524 -0.110578 0.051251 -0.796502 -0.537349 0.906202 0.962062 0.987056 0.097368 -0.965389 -0.421844 -0.950991 -0.191152 -0.918330 -0.300875 -0.291744 -0.673992 0.563996 -0.323813 0.578187 0.342416 0.481443 -0.522908 -0.575552 0.107566 -0.675461 -0.219479 0.688848 -0.672186 -0.486308 -0.915209 -0.456710 0.403114 0.136042 -0.253212 0.865764 0.042244 -0.291151 0.852821 -0.860388 -0.256540 -0.569023 -0.811378 0.552308 -0.487352 -0.112253 -0.739436 -0.161345 -0.548257 -0.063249 -0.583158 0.794159 -0.581806 -0.106066 -0.781393 0.525760 0.218474 -0.000872 0.214608 0.546288 0.512820 0.299399 -0.910423 -0.084067 -0.564559 -0.163635 -0.218302 0.477685 0.545214 -0.365481 0.617297 -0.711326 0.065496 0.805919 0.840982 0.578144 -0.306334 -0.898454 -0.583201 0.145409 0.038297 -0.166359 -0.060433 0.456491 0.727575 0.158174 -0.017749 -0.053951 -0.842697 -0.803140 -0.507663 0.670123 0.496259 -0.418086 -0.413944 0.931700 0.418279 0.367754 0.409385 -0.036507 -0.997727 0.026682 0.252167 0.067769 -0.167399 0.093148 -0.354087 0.526267 0.194694 0.062712 -0.328324 -0.767009 0.896353 0.611243 0.689483 0.623928 -0.230582 -0.328266 -0.430023 -0.073280 -0.131406 0.062313 -0.403157 -0.635147 0.644227 0.182899 -0.703447 0.062506 -0.449347 0.705938 -0.974002 -0.447075 -0.267379 0.278165 0.620694 0.565222 -0.628686 -0.733393 0.091489 0.566008 0.329318 0.763165 0.798999 0.225671 0.374408 0.488482 -0.150401 -0.856175 -0.839784 0.419576 0.070545 0.028810 -0.518111 0.667388 0.393663 -0.873884 -0.149713 0.690217 0.188622 0.400939 0.396155 0.214620 0.953865 -0.871224 -0.507215 0.574559 0.693998 -0.135901 0.841165 -0.214513 -0.569893 0.170484 -0.451348 -0.770894 -0.603845 0.923060 0.717588 0.245753 -0.933115 0.877804 -0.334671 0.137431 -0.093385 0.147218 -0.195181 -0.699722 0.273334 0.655105 0.990495 -0.538044 0.056045 0.386650 0.676576 0.009909 0.515426 -0.830638 -0.415532 0.209425 0.033461 -0.574367 0.994912 0.463568 0.596117 -0.456436 0.692674 0.992272 -0.533376 0.410262 0.238025 -0.466490 0.288066 0.903354 0.670940 -0.805319 0.050572 -0.524241 -0.505041 -0.676093 -0.869136 -0.514546 -0.214137 0.186909 0.872104 -0.537560 -0.803182 0.387531 -0.368199 -0.218714 -0.403045 0.665262 0.206919 -0.408133 0.128830 -0.196964 0.135432 -0.178497 -0.204693 0.602056 -0.768235 -0.966668 -0.864435 0.519831 0.936687 0.806506 0.714512 -0.012741 -0.717736 -0.790529 0.311166 -0.586871 -0.305075 -0.902971 0.600038 -0.432971 -0.440531 0.796855 0.954559 0.191270 -0.421859 -0.448486 -0.143467 0.785060 0.143382 0.985362 -0.411905 -0.721187 -0.193134 0.383402 0.880869 0.038631 0.416735 -0.983565 -0.441538 0.353421 0.822940 -0.727026 -0.659320 -0.894795 -0.517555 0.651846 -0.481666 0.177369 0.748875 -0.881629 0.744398 -0.691656 0.915226 0.698958 0.499614 -0.506633 -0.749528 -0.643853 -0.721573 0.393854 -0.658491 -0.133478 0.672667 0.148375 -0.750076 0.553536 -0.812994 0.666659 0.569971 -0.254532 0.020081 0.392912 0.018442 0.360761 0.498116 0.500887 0.012607 -0.983550 -0.321743 -0.238517 -0.865179 -0.577345 0.069827 -0.949953 -0.878387 -0.430559 -0.456586 -0.627915 -0.074412 -0.178159 0.765938 0.267098 0.688363 0.438606 -0.584527 0.938287 -0.007858 -0.397521 0.604947 -0.437887 0.347948 -0.374973 0.955025 -0.633610 0.985788 0.453141 0.867277 -0.001605 0.469591 -0.454466 0.759878 0.604412 -0.031811 -0.170295 0.654459 0.089802 0.399147 -0.802126 0.461886 -0.675265 0.019715 0.227825 0.591833 -0.291922 -0.333570 -0.992694 -0.353635 0.658572 -0.390215 -0.748688 -0.779314 0.957732 -0.123661 -0.824290 -0.675878 -0.137873 0.628851 -0.808600 0.860523 0.098443 -0.263067 0.620401 -0.297146 0.705122 -0.549894 -0.642686 -0.205076 0.849253 -0.444813 -0.743190 -0.826012 0.574902 0.484635 0.765821 -0.717020 -0.848935 0.773126 -0.070655 0.809638 -0.617089 0.180657 -0.969677 -0.659356 -0.943003 -0.793966 -0.335234 -0.080876 0.834885 -0.143835 -0.220354 -0.066672 0.593099 -0.599953 0.636182 0.298221 -0.149847 0.993496 -0.906855 -0.300594 -0.451317 -0.650045 -0.126606 -0.876415 0.834590 -0.360786 -0.593435 0.985655 -0.587659 0.335911 0.795293 -0.204748 -0.483432 0.825616 0.135895 -0.426435 -0.968350 0.800661 0.492688 0.866535 -0.343173 -0.727665 -0.200137 -0.750074 -0.327618 -0.563955 0.548147 0.522536 -0.570460 0.641292 -0.778058 -0.021777 0.991247 0.095336 0.101809 0.825837 0.734550 0.508374 0.811493 -0.853110 -0.155715 0.606786 -0.057858 0.360853 0.432402 -0.921962 0.934417 0.464052 0.878699 0.427106 0.330587 -0.464474 0.699440 -0.869551 -0.214549 -0.628177 -0.433506 -0.666402 0.894358 -0.003966 0.974890 -0.883700 0.974258 0.966137 0.211635 0.076066 0.791974 -0.053815 -0.415560 0.603467 0.093076 0.428725 0.210253 -0.964782 -0.210423 -0.357345 -0.886744 -0.276005 -0.893293 0.991954 -0.848900 0.437294 -0.472520 0.850541 0.567743 0.312931 -0.777637 -0.865763 0.646529 -0.883279 0.130272 0.621419 -0.766979 0.104529 0.587556 0.444657 -0.819404 0.379530 -0.609158 -0.234964 -0.017003 0.483918 -0.806239 -0.806750 0.519136 -0.016662 -0.164094 0.632391 0.707333 -0.057387 0.624346 0.858433 -0.620094 -0.848174 0.708974 0.947650 0.464757 0.931337 -0.918113 0.111286 -0.951942 0.212158 -0.267296 -0.718920 -0.683312 -0.679740 0.725736 -0.502717 0.699790 -0.883422 0.262319 -0.317212 0.600496 0.456080 -0.123962 0.119631 -0.560582 0.711944 -0.247978 -0.853249 -0.345444 -0.623632 -0.994816 0.034463 -0.471806 0.714158 -0.017887 0.992950 0.645495 0.063999 0.104236 0.693553 -0.723842 0.836940 0.974633 -0.407154 -0.842800 0.700369 0.090129 0.856990 0.816947 -0.647552 -0.460223 0.417443 0.808529 0.415815 -0.462926 -0.752053 0.127759 0.289096 -0.605302 0.782315 0.665464 -0.600118 -0.183222 -0.806342 -0.885960 0.798891 -0.813392 0.759535 -0.137110 0.290844 0.453088 0.139048 0.127784 0.427721 0.731894 0.284983 0.128090 -0.177977 0.141973 -0.054963 0.174471 0.681751 -0.637521 -0.017000 0.097566 -0.100447 0.230947 -0.774675 -0.811351 0.625645 -0.992359 0.854113 -0.974473 -0.175581 -0.952229 -0.860433 -0.376690 -0.765621 0.899102 0.486200 0.525223 0.352190 -0.374752 -0.346994 -0.220089 -0.642858 0.937990 0.908000 0.179165 0.079963 -0.146963 -0.646364 -0.238286 0.215516 0.336636 0.859281 -0.884931 -0.432417 -0.915394 -0.696282 -0.806773 -0.907753 -0.842169 -0.781246 -0.083334 -0.794397 -0.641679 0.539976 -0.560018 -0.742577 0.026175 0.965205 0.609612 0.651423 -0.381789 -0.610477 -0.991435 -0.443799 -0.702477 0.187730 0.636164 0.150560 0.541366 -0.602122 -0.633924 -0.121998 -0.742841 -0.518856 0.445585 -0.658235 -0.215138 0.638812 -0.565988 -0.057306 0.857566 0.350677 0.148296 -0.784113 -0.109347 0.588278 -0.526690 0.916829 0.553483 -0.917078 0.568252 -0.828306 -0.527555 0.576817 -0.272105 -0.230032 -0.235453 -0.635941 0.920528 -0.694087 -0.238063 -0.713396 0.183915 0.019096 -0.232252 -0.370501 0.360861 0.552610 -0.731689 0.794873 -0.504696 -0.874123 0.145550 0.643601 -0.658236 -0.963797 0.231879 -0.184926 0.953032 -0.214638 -0.102004 0.521284 -0.042944 0.370441 0.098101 0.684951 -0.859591 0.862648 -0.950990 -0.939063 -0.831440 -0.189053 -0.652459 0.352475 0.830044 0.115289 0.981974 0.190905 -0.332101 -0.749715 -0.014223 0.163203 -0.623838 -0.868672 -0.193197 -0.282074 -0.832469 -0.961318 0.533000 -0.879437 -0.175956 -0.569004 0.641846 0.781100 0.801437 -0.260053 0.466051 0.941846 -0.397405 0.515061 -0.997217 -0.228845 -0.673992 -0.649676 -0.876370 -0.843948 0.465612 -0.894396 0.346957 -0.866489 -0.644110 -0.667266 0.296714 -0.267948 -0.535938 -0.896482 0.449979 -0.368407 -0.857800 -0.017021 -0.247845 -0.033756 0.413975 -0.605998 -0.252656 0.215412 0.133949 -0.786605 0.157257 0.736543 0.728456 0.160040 -0.492301 -0.945536 0.510364 -0.368671 -0.789484 -0.024023 -0.263067 0.557473 0.109488 0.092823 0.890207 -0.593798 0.824875 -0.645732 -0.490280 0.274854 -0.014139 -0.348080 -0.742167 0.738016 0.618164 0.671808 -0.867982 -0.634492 -0.112781 0.265967 -0.421097 -0.955523 0.002510 -0.692642 0.204517 0.510208 -0.638178 -0.285119 -0.858463 -0.427662 0.690858 -0.121530 -0.870189 -0.199654 0.971293 -0.979982 0.206548 0.796169 -0.625714 0.716268 0.071023 0.360147 -0.631812 0.328856 0.098163 0.986351 0.000663 0.230181 -0.648141 0.887883 -0.503852 -0.069238 0.932359 0.498657 0.238120 0.136876 0.008866 0.599942 0.851758 0.150403 -0.827719 0.542616 -0.971126 -0.697908 -0.657038 -0.999833 -0.677891 0.549510 0.796336 -0.303605 0.265778 -0.132642 -0.943457 0.633965 -0.803786 0.154706 0.620317 0.196877 -0.615113 0.972175 0.084760 -0.118966 -0.097063 0.017119 -0.620308 -0.858943 -0.846004 0.388558 0.740999 -0.994247 -0.461039 0.913280 0.548369 -0.432165 -0.784629 0.891331 -0.431999 -0.462519 0.440840 -0.635663 0.233876 -0.293382 0.231696 0.290419 -0.659417 0.427910 -0.554875 0.960900 -0.375213 -0.169989 0.933075 0.709547 0.711046 -0.163988 -0.273334 -0.909262 -0.022931 -0.119338 0.479295 -0.281932 -0.113585 -0.981744 -0.368652 -0.565216 -0.413909 -0.153281 -0.673885 0.154092 0.384200 0.766955 0.518430 -0.381924 -0.526426 -0.249875 0.908495 -0.185843 -0.821965 -0.646381 -0.224943 -0.197178 0.183631 -0.291868 -0.487631 -0.105323 0.544145 0.239035 -0.014586 -0.478786 -0.880303 -0.535290 0.239282 0.006113 -0.517034 0.870630 0.440897 0.069057 -0.282650 0.767012 -0.776851 -0.898450 0.533968 0.741579 -0.280374 -0.992459 -0.508296 -0.371880 -0.178302 -0.330262 -0.018260 0.596755 0.472560 -0.834629 -0.695112 0.984929 0.060047 0.849033 0.223964 -0.954539 -0.629753 0.343662 -0.489829 0.609529 -0.650226 -0.006863 0.480159 0.790671 -0.937806 -0.802491 0.557684 -0.714657 -0.700942 0.091651 -0.973078 0.018684 0.099193 -0.481374 0.646804 0.920891 0.188364 -0.371456 0.517646 -0.339076 -0.206085 0.822534 -0.354147 0.853962 0.671567 0.869817 0.899423 -0.958187 0.213479 -0.590406 0.651342 0.563253 0.402731 0.131502 0.353925 0.464924 0.329010 -0.088392 0.750267 0.628069 -0.996741 0.777189 -0.353247 0.102452 -0.704186 -0.706443 0.023343 0.484178 -0.077899 -0.459011 -0.854897 0.716016 -0.636476 -0.209044 0.569978 -0.964910 -0.339227 0.469401 -0.923096 0.874252 0.878995 0.728246 0.437505 0.281725 -0.140252 -0.208571 -0.253351 -0.811242 0.703038 -0.503084 0.816827 0.706297 -0.725895 -0.536420 -0.191251 -0.430080 -0.242863 0.832092 -0.945902 0.679238 -0.626919 -0.800799 0.395254 -0.263395 -0.009843 -0.034768 -0.228305 0.650930 -0.565367 -0.151401 0.525181 -0.686372 -0.423154 -0.037314 0.595353 0.436594 0.754116 -0.657998 0.625352 0.457153 -0.161081 0.442179 0.163450 0.113024 0.905759 0.972199 0.682944 -0.337104 0.804291 0.737042 -0.657866 -0.822627 0.936243 0.737388 -0.086022 -0.073601 -0.297380 0.685673 -0.422671 0.137253 -0.465727 -0.897490 0.450881 0.111118 0.065196 0.046234 -0.452288 -0.180688 0.388236 -0.826936 -0.723535 -0.772845 0.615244 0.439915 0.340179 0.521003 0.412115 
0.023123 -0.816101 0.216406 -0.239835 -0.473967 0.393778 -0.303592 -0.736579 -0.692244 0.622807 -0.033958 0.993429 -0.799864 -0.896705 -0.472298 -0.697354 0.554176 0.638820 0.367842 -0.399590 -0.813468 -0.812846 0.988646 -0.640403 -0.536380 -0.784199 0.974840 0.903535 0.555980 0.495843 0.315650 -0.420897 0.679742 -0.467945 0.339268 -0.794225 0.925834 -0.964324 -0.530803 -0.766410 0.658483 0.435238 -0.772981 0.858618 0.538533 -0.245280 -0.838736 0.092709 -0.606460 0.529106 0.693119 -0.419928 0.716260 0.681765 -0.060331 -0.820120 0.897567 -0.085491 -0.916585 0.453547 -0.589647 0.399065 -0.967349 -0.909905 0.931120 0.371919 -0.704130 0.856954 0.407594 -0.234933 -0.909456 0.066077 -0.799695 -0.682437 -0.075305 0.738838 0.072283 0.085959 -0.168453 0.465823 -0.384935 -0.475334 -0.954104 -0.668674 -0.793568 -0.014435 -0.488794 -0.896001 0.900074 -0.405379 0.557546 -0.689573 0.993686 0.590196 -0.599478 0.924806 -0.037885 -0.303608 0.781760 -0.630291 0.461459 0.872304 0.435786 0.661764 -0.810133 -0.639518 0.400602 0.262150 0.446441 -0.767851 -0.272027 -0.938494 -0.243184 -0.226131 -0.607168 -0.036752 0.759434 -0.095962 0.067246 0.659508 0.498660 -0.375208 0.969934 0.492345 -0.785011 -0.629544 0.417151 0.177104 0.066848 0.198912 0.546813 -0.471693 0.071216 -0.017400 -0.809930 0.261083 0.343081 0.590672 -0.476767 -0.210478 0.822822 0.251206 -0.148971 -0.420362 -0.974925 0.243861 0.542885 0.784509 -0.852100 -0.389868 0.444017 0.646559 0.234924 0.413951 0.138904 0.449913 0.784407 -0.443944 -0.372984 -0.148745 0.754968 -0.826171 0.379562 -0.173817 0.156429 0.569632 -0.912734 -0.500489 0.160305 -0.389502 0.289033 -0.016874 0.861704 -0.859939 0.562764 0.886780 0.383923 0.105649 0.671289 0.531822 0.715781 0.115306 0.178381 -0.049295 -0.470743 -0.682715 -0.599383 -0.686336 -0.126659 0.027633 0.164920 -0.371691 0.201463 -0.455518 0.454492 -0.642108 -0.885886 0.541758 -0.142597 0.274419 -0.847744 -0.853565 -0.742455 -0.986039 -0.713503 0.820309 0.900740 0.670420 -0.074042 0.572029 0.202242 -0.358262 -0.312666 -0.619377 0.592443 0.216591 -0.302092 0.993060 0.530256 0.571249 0.020693 -0.304824 -0.800442 -0.777844 0.239657 0.654051 -0.419952 0.353771 0.195808 0.437451 -0.371810 0.348065 0.583886 -0.114266 0.362025 0.870383 -0.293957 0.262765 0.540803 0.632001 -0.165206 -0.256956 -0.726261 0.522128 0.123667 0.866182 -0.261280 0.821575 0.859242 -0.731025 0.392825 -0.120065 -0.035849 0.592383 0.102091 -0.796192 0.246433 0.682139 0.557579 -0.557758 0.119590 -0.814231 0.790306 -0.296524 0.071503 0.152332 -0.426141 0.777546 -0.584903 -0.885338 0.409547 0.249891 -0.142294 0.683286 -0.227981 0.981373 0.549468 0.510739 0.802948 0.408709 0.779715 0.195773 -0.711356 -0.256134 -0.211844 0.390735 -0.052326 -0.965411 0.072874 -0.494747 -0.523169 -0.807536 -0.308978 -0.732862 -0.104060 0.762526 0.419469 0.469800 0.540072 0.834566 0.584462 -0.050381 0.084457 -0.557832 -0.367094 0.856477 -0.576458 -0.817627 0.367216 -0.773510 0.591083 0.146931 0.422263 0.879727 0.890796 -0.789581 0.270463 -0.161530 -0.754992 -0.656663 0.343724 -0.278160 -0.464199 -0.965254 -0.011022 0.431741 0.797272 -0.591553 -0.098459 0.337345 -0.756987 -0.513998 -0.713036 0.327471 -0.071830 -0.080130 0.183947 0.351712 0.102243 -0.448837 0.578202 -0.306674 0.698094 0.000465 -0.426947 0.588890 0.210884 0.843516 -0.572639 0.455892 -0.813148 0.771084 -0.822268 -0.277347 0.805831 0.166710 -0.845606 0.603103 0.575157 0.055935 -0.059553 0.818170 0.541937 0.227412 0.145640 -0.529892 -0.852719 -0.670412 0.821819 0.249524 -0.119249 0.400021 0.942850 -0.421155 -0.599514 -0.484097 -0.832265 0.611370 -0.640582 -0.404904 0.067263 -0.453729 -0.633820 0.244995 0.268924 -0.827989 -0.588295 0.423318 0.775114 0.986861 -0.520747 -0.284439 0.805031 -0.978810 0.942973 -0.049329 -0.508702 -0.909746 0.280259 -0.686883 0.339778 -0.838990 0.713139 0.282628 -0.260145 -0.886375 0.798531 -0.092410 0.724995 -0.842051 0.502686 -0.207742 -0.295780 0.868866 -0.962747 0.973144 -0.959123 -0.551042 0.396462 0.815991 -0.564181 0.875716 -0.468448 -0.759150 0.896906 -0.525475 0.191521 -0.611796 -0.435221 -0.528219 -0.298679 0.904557 -0.367209 -0.585540 0.187184 0.372645 -0.471915 -0.014285 -0.719765 -0.746920 0.143664 0.782921 0.045338 0.847884 0.651786 0.082591 0.821028 0.692663 0.531549 0.217491 0.508654 0.967368 0.093206 -0.959795 -0.791782 -0.009888 -0.485270 0.399739 0.378316 0.079509 0.871520 -0.920363 -0.015935 -0.495690 -0.505903 -0.828750 0.876956 0.022182 0.156965 -0.842809 0.275262 -0.699371 0.940111 -0.679400 -0.851487 0.591898 0.403192 0.969541 0.284561 -0.065259 0.187032 -0.206786 -0.097892 -0.719762 -0.166580 0.110326 0.270350 0.348150 -0.489935 -0.351334 -0.572342 -0.618415 -0.271697 0.411724 -0.114105 0.222400 0.582973 -0.237149 -0.755418 -0.260062 -0.079959 0.519844 0.040567 -0.139847 0.840445 0.189080 -0.547950 0.243637 0.158622 0.736611 -0.821623 -0.654346 -0.470175 0.080486 -0.374108 0.363245 -0.809188 0.896242 -0.288606 -0.299123 -0.455092 0.139053 0.082462 0.273212 -0.449223 0.968358 -0.504388 -0.866250 -0.268792 -0.259806 -0.126312 0.651250 -0.739962 0.914255 -0.488598 -0.899517 0.103336 -0.036547 0.344120 -0.738043 -0.299937 0.522497 -0.392389 0.229889 -0.397017 0.233503 -0.406867 -0.206206 0.129745 0.304528 0.494672 0.674654 -0.556419 -0.422866 -0.052134 -0.005643 -0.454508 0.443477 0.128107 0.276700 -0.816328 -0.998204 -0.072050 -0.556290 0.916051 0.439352 -0.455807 0.019387 -0.597195 0.888313 0.281344 0.102869 0.410810 0.888955 -0.667243 -0.986207 0.122458 -0.074109 -0.192413 -0.747796 -0.769582 -0.697741 0.926857 -0.326001 -0.120607 -0.125277 0.668356 0.424885 -0.681800 -0.203536 -0.298415 -0.498128 -0.201740 0.629535 -0.054418 -0.285689 0.068887 0.489775 0.733697 0.471693 0.378088 0.015041 -0.425439 -0.211102 -0.096004 -0.092682 -0.197309 -0.973546 0.833209 0.610278 -0.721342 -0.936373 0.912537 -0.794485 -0.262374 -0.208070 0.080238 -0.594017 -0.783185 0.398439 0.202446 -0.081600 0.900310 -0.999294 -0.452065 -0.154108 -0.284984 0.616823 -0.664332 -0.551286 0.088515 0.713756 0.463755 0.663076 -0.497346 -0.632249 -0.429605 0.305345 -0.605795 -0.596396 -0.084377 -0.327137 -0.532769 -0.171839 -0.121622 0.204857 0.620091 0.958616 0.610840 0.836906 0.357055 -0.186714 -0.244694 0.257365 -0.186008 0.303241 -0.896742 0.529008 -0.079936 -0.561075 0.977722 -0.991421 -0.847319 0.441477 0.671655 -0.344665 0.809227 -0.757950 0.960680 -0.796567 -0.354346 -0.123696 -0.123705 0.112884 0.704465 0.754674 -0.682259 0.324556 0.713290 0.928581 0.161462 0.070345 -0.258133 0.916768 -0.672290 0.555859 0.220009 -0.569032 0.084867 -0.859928 -0.130107 0.062589 -0.851349 0.022574 -0.495934 0.820306 0.677909 -0.686707 -0.937644 0.638590 -0.483274 -0.291990 -0.485106 0.393021 0.820894 -0.780642 0.147695 -0.861364 0.543914 -0.139015 -0.932783 -0.294625 0.931330 -0.190916 -0.377857 -0.740960 -0.635057 0.842152 -0.309992 0.449810 0.982224 0.559901 -0.487601 -0.869125 -0.417525 0.016465 0.951182 -0.739615 0.329759 -0.986462 0.898975 0.846484 -0.278452 -0.586132 0.239506 -0.457558 -0.366774 -0.612799 -0.318922 -0.822860 0.248185 -0.251705 -0.117484 0.179515 0.557379 0.504658 0.438555 0.922321 0.346810 -0.871437 0.372132 0.329034 0.688464 0.884531 0.459910 -0.729061 -0.099004 0.411091 -0.468676 -0.769245 0.424630 -0.569702 -0.922761 -0.853822 -0.155833 0.316745 -0.311380 0.477393 0.703946 0.369698 0.654533 -0.047869 -0.882007 -0.462951 -0.868354 0.675372 -0.958293 0.570201 0.597693 0.388517 0.698764 -0.030175 -0.282448 0.387228 -0.145644 -0.822539 0.658167 0.755352 0.588553 -0.810509 0.986107 0.013182 -0.380211 -0.936654 0.159360 0.463956 0.380091 0.847980 -0.058651 0.084037 0.217677 -0.404118 -0.963832 0.335670 0.132931 -0.832186 0.011042 0.174638 0.738015 -0.391265 -0.436845 0.436780 0.578560 0.280707 -0.175992 -0.567085 0.458168 -0.517825 -0.811733 0.046720 -0.328335 -0.825626 -0.940097 0.291455 -0.762280 0.219262 -0.244590 0.617811 0.067242 0.696759 -0.298152 -0.715081 -0.707359 -0.261984 0.620590 0.425571 -0.094170 -0.368369 -0.399791 -0.356154 0.240366 0.163364 -0.919375 -0.181074 -0.555930 -0.095367 0.251841 0.902238 0.386807 0.440108 -0.051041 -0.941527 0.614482 0.008861 0.349927 0.852202 -0.771876 -0.894662 0.470013 0.295366 0.802096 -0.828139 0.580285 -0.905263 -0.090123 0.200874 0.520308 0.815707 0.832506 -0.879483 -0.540447 0.072872 0.283881 -0.459822 0.891798 0.727951 0.444810 0.143639 0.630190 -0.168382 -0.416253 -0.420852 -0.109910 -0.801772 0.588010 -0.759982 -0.949570 0.816133 -0.654645 0.520443 0.111499 -0.852549 0.692304 -0.308216 -0.757812 -0.397819 0.892658 0.762496 -0.582112 0.725164 0.883013 -0.122560 -0.201965 0.166894 0.417618 -0.310167 -0.105155 -0.137572 0.833472 -0.474965 0.694046 -0.582782 0.104183 -0.415864 -0.384553 -0.307807 -0.175846 -0.334123 -0.491674 0.169509 -0.813680 0.619825 0.316960 0.878624 -0.688392 0.559148 -0.519196 -0.795734 0.321645 -0.101308 0.929430 0.204658 0.776132 -0.272535 -0.628448 0.193750 0.417298 0.266397 -0.943821 0.250770 0.791432 0.750224 0.667989 -0.104385 -0.665639 -0.716565 0.587808 0.158514 -0.050688 -0.903866 -0.671977 0.135632 0.715959 0.644983 0.014256 -0.972433 0.204131 0.495061 -0.768167 -0.474224 -0.606247 -0.838737 0.730434 -0.830115 -0.111272 -0.898015 0.363635 -0.693973 0.368382 0.419814 0.556797 0.159814 0.170038 0.224785 -0.944571 0.504399 0.508221 0.643237 -0.337086 -0.542467 0.739370 -0.009063 0.593166 0.455329 -0.364080 -0.392578 0.482896 0.840051 -0.897518 0.714729 -0.634173 -0.503765 0.875992 -0.903739 -0.333880 -0.235279 -0.801754 -0.970245 0.070747 0.566629 0.449569 -0.372456 -0.273557 -0.380392 0.852330 -0.218128 -0.875993 0.360550 -0.574892 -0.213080 0.818084 -0.835521 0.777857 0.411249 0.619808 -0.586223 -0.981329 0.102704 -0.746172 -0.878847 -0.182567 -0.380344 -0.382612 -0.306574 -0.284083 0.283508 0.458146 -0.085837 0.313263 -0.471106 -0.519209 -0.237167 0.156438 0.207234 0.382440 0.008768 0.989106 0.506447 -0.630682 -0.585786 -0.706633 -0.812598 -0.421307 -0.928776 0.598651 -0.801499 -0.514999 0.617322 0.301205 -0.261170 0.738475 -0.881362 0.358485 -0.644137 -0.187937 -0.925598 0.639371 -0.729791 -0.011435 -0.047366 -0.200897 0.469356 0.715466 0.955541 -0.323410 0.097907 -0.035691 -0.334304 -0.395646 0.333627 0.079910 -0.102279 0.521029 0.658603 -0.031055 0.119680 0.857103 0.453947 -0.262999 0.158308 -0.807224 -0.524524 0.276946 0.551262 -0.168661 -0.910991 0.625664 -0.529291 -0.640782 -0.385771 0.423343 0.158321 -0.916415 0.138809 0.113863 -0.239825 -0.763284 -0.921829 0.425871 -0.158931 0.411799 -0.494219 0.738790 -0.067173 -0.835616 -0.292264 -0.947493 -0.978512 -0.838318 -0.210492 0.179796 -0.645541 0.264984 -0.543259 0.905721 -0.903677 -0.454250 0.531384 -0.432968 -0.095032 -0.854387 0.990375 -0.936710 -0.770802 0.129185 0.177152 -0.010627 0.365901 0.255324 -0.584755 -0.793030 -0.332878 -0.078974 0.945760 0.599950 0.085410 -0.346504 0.652457 0.106898 -0.184821 -0.558035 -0.713307 0.169637 0.706949 -0.256566 0.075358 0.803272 0.289184 -0.393258 -0.629695 -0.805848 -0.247645 -0.639320 -0.742558 -0.018447 0.489865 0.434594 0.970926 -0.144234 -0.310082 -0.613829 0.062736 0.357040 0.307197 0.008496 -0.043010 -0.607393 0.661993 -0.390554 0.499505 -0.522829 0.051411 0.786199 0.646809 -0.241640 -0.470367 -0.277833 -0.438367 0.818817 0.328909 -0.068062 -0.987030 -0.918736 0.292618 -0.729588 0.062817 -0.217517 0.705006 0.033743 0.638249 -0.605076 0.419914 -0.299015 0.751964 -0.272889 0.709481 -0.291046 0.119718 0.371474 0.318400 -0.380776 0.848645 -0.630189 -0.594578 0.495454 0.128171 -0.064944 -0.782380 0.689804 -0.246127 0.546529 -0.378258 -0.233157 0.627794 0.914360 0.037255 -0.309389 -0.303157 -0.257739 0.724354 -0.664908 0.137185 0.144269 0.036077 -0.110851 0.871380 -0.254442 0.598102 -0.008902 -0.882968 -0.083498 0.610322 0.965677 0.286313 -0.984256 0.461130 -0.585516 -0.049200 0.678751 -0.895712 0.704673 0.225280 -0.273970 -0.528484 -0.146926 -0.359611 0.508771 0.543685 0.337232 -0.748969 0.268039 0.672324 0.388216 -0.587692 -0.291599 -0.722635 -0.716312 0.453959 0.875467 0.274786 0.570991 -0.208031 -0.114892 0.536668 -0.921718 -0.099148 -0.002202 -0.507234 0.851652 -0.323451 -0.402946 0.556325 0.901830 0.323083 -0.972159 -0.245096 0.963472 0.536611 -0.701412 0.300705 0.787643 0.566628 -0.026971 0.175859 0.978935 0.681430 0.453224 -0.737377 0.135390 0.328691 0.537409 -0.293619 -0.879340 -0.577484 -0.756952 -0.801058 0.323369 0.240847 -0.308292 0.175021 0.917396 0.288761 -0.268655 0.819226 -0.388155 -0.240814 -0.425871 -0.424683 -0.704203 -0.127282 0.876022 -0.916560 -0.560655 -0.150949 0.259299 -0.581720 -0.469519 -0.287477 -0.319097 0.665871 -0.958786 -0.781688 -0.627749 -0.838126 -0.359172 -0.384700 -0.639183 0.964197 0.856147 0.052525 0.139217 0.773543 -0.658714 0.870563 0.592768 -0.046869 -0.370251 -0.833103 0.528448 -0.074454 0.039615 0.404469 0.008986 0.478960 -0.746480 -0.731714 0.897241 -0.215999 -0.019191 -0.421856 -0.550128 0.022023 -0.203544 -0.177877 0.183897 0.437284 0.437423 0.544714 0.401481 0.293570 -0.402762 -0.459302 0.067112 -0.061475 -0.588739 -0.340119 0.891655 0.041009 -0.173222 0.420103 0.966556 0.866393 -0.175428 -0.024458 0.345353 0.078092 0.243828 0.242594 0.862094 -0.775364 0.820738 -0.688034 0.246659 -0.382806 0.134089 -0.569444 -0.945522 -0.428487 0.975270 0.455958 0.865082 -0.427492 0.996656 -0.067805 0.511033 -0.592083 0.592075 0.402688 0.448926 -0.581146 -0.177209 0.415482 -0.714753 0.647363 -0.608976 0.630600 -0.274545 0.634851 -0.126806 -0.412451 0.859488 -0.306068 -0.100485 0.106147 0.311126 -0.966396 0.536703 0.365603 -0.394883 0.511972 -0.178439 -0.529801 -0.915519 -0.181783 0.402394 0.595513 0.226134 -0.005530 -0.001799 -0.324940 0.413323 0.820992 -0.909459 0.698570 0.468354 -0.518435 0.329170 -0.806191 -0.883583 -0.797636 -0.218642 0.975904 -0.103704 0.680873 0.082051 -0.792579 0.714477 -0.381246 0.573024 -0.680406 -0.869274 -0.605415 -0.210207 -0.784793 0.212803 -0.807812 0.810720 -0.561064 0.186657 -0.191079 0.113996 -0.400020 -0.370088 0.204538 -0.701450 -0.901734 0.686103 0.627720 -0.707924 0.802519 0.830084 0.073434 0.778424 -0.273621 -0.245693 -0.139526 -0.066199 -0.531215 0.479228 -0.493175 -0.211621 0.609954 -0.098590 0.578172 0.825160 -0.885787 0.770360 0.635880 -0.446851 -0.042983 -0.555199 0.667146 0.556997 0.074713 -0.128317 0.855548 0.172979 -0.442214 0.483268 0.465055 -0.639695 0.313351 -0.461511 -0.861271 -0.960269 0.292797 -0.000797 -0.026469 0.761581 -0.521569 0.480356 -0.450040 -0.911615 -0.618234 -0.871867 0.913545 -0.504021 0.898492 0.549425 0.049129 -0.144490 0.994226 -0.283726 -0.587493 0.068939 0.587958 -0.731946 -0.758082 -0.854257 0.751322 0.706974 -0.493951 0.064673 -0.754537 -0.355223 0.104404 0.538260 0.643980 -0.922064 0.299841 -0.877589 0.558292 0.849802 -0.789204 0.940058 0.977934 -0.875658 -0.563962 0.876427 0.673767 0.485166 -0.268064 0.667993 -0.798559 0.144443 -0.263068 0.789398 0.412498 -0.021149 0.935142 0.163820 -0.314176 -0.558810 -0.771507 -0.068712 0.085967 0.332897 -0.530452 -0.270052 0.410833 0.769389 -0.147641 -0.030875 0.619191 0.063155 -0.090817 0.597125 0.187497 0.345221 0.473552 -0.138736 -0.169613 -0.794511 -0.470742 0.031828 0.349932 0.266190 -0.178774 -0.237570 -0.754959 -0.243632 0.926249 -0.069135 0.197558 -0.845257 0.862153 -0.716474 0.487640 -0.668299 0.013473 -0.101527 -0.898910 0.865833 0.867597 0.720281 -0.071012 -0.223220 0.317406 -0.883515 -0.877999 -0.209041 -0.022250 -0.047612 -0.003553 0.507007 0.984216 -0.653621 -0.226803 -0.194558 0.108809 0.018238 0.561810 0.035058 0.949104 -0.240632 0.189801 0.811257 0.042894 -0.322559 -0.857042 -0.943633 0.575913 -0.755952 0.922200 0.443511 0.964329 -0.148812 -0.779709 0.281735 -0.032327 -0.657708 -0.927307 0.945422 0.294680 0.069141 0.452430 0.278895 0.415520 -0.774373 -0.915663 -0.475672 0.243865 0.646147 0.559387 0.192969 -0.594485 -0.250813 0.004226 0.448409 0.426628 0.147184 0.504776 0.002541 0.391231 0.426975 -0.553948 0.355560 -0.721837 -0.333657 -0.362705 0.245836 0.008635 -0.290012 0.191258 -0.696686 0.779129 -0.356312 0.582210 0.194649 -0.130685 0.666547 0.718977 -0.886820 0.312694 0.278364 0.306149 0.718210 -0.972449 -0.689624 0.166618 0.454179 0.457559 -0.328606 -0.543280 -0.151209 -0.901631 -0.097228 -0.795649 -0.623468 0.569114 -0.158354 0.622368 -0.422251 0.551634 -0.186374 -0.118937 0.330763 0.457314 -0.536727 -0.474588 -0.673372 -0.870180 -0.755611 -0.560192 0.442515 0.522753 0.745958 0.160724 0.550304 -0.943666 -0.672657 0.004482 0.513893 -0.001263 0.461202 -0.637316 0.097106 -0.636026 -0.432965 0.473638 0.933088 0.408681 0.096006 -0.489163 -0.039685 0.909632 0.391901 -0.708922 0.366946 0.855174 -0.183510 0.693574 0.984994 0.060879 -0.866618 0.427509 -0.416368 0.879340 -0.411767 -0.866064 0.935674 -0.084424 0.138418 0.449567 0.914312 -0.400380 0.812251 0.011418 -0.036406 -0.620714 -0.514944 -0.103317 0.787967 0.581063 0.407520 -0.251718 0.490695 -0.200579 0.039360 -0.142360 -0.345406 0.855850 -0.448786 -0.360411 -0.083270 -0.315403 -0.932902 0.500361 -0.436063 -0.344669 0.634297 -0.500389 0.570907 -0.227285 0.949178 0.485219 0.372336 0.761429 -0.503363 -0.664070 -0.859284 -0.018306 0.232613 0.928683 -0.437243 -0.359867 -0.323035 -0.946549 0.439554 0.716325 -0.088909 -0.905852 0.572176 0.462305 -0.266263 -0.511095 -0.853098 -0.199166 0.989267 -0.289161 0.456165 0.623563 0.210450 0.027072 -0.603721 0.159628 -0.487709 0.768614 -0.078943 0.008929 -0.895456 0.061773 0.990623 0.337157 -0.009544 -0.446621 0.977290 0.667421 -0.393170 0.416843 0.383746 0.517921 0.510992 -0.044079 -0.019773 -0.755272 0.444826 0.127129 0.045563 0.434093 0.837967 -0.498272 0.057656 0.048417 0.528800 0.453935 -0.791955 -0.958909 0.222549 0.129102 0.050020 0.327093 -0.809125 0.040642 -0.335750 0.181331 0.594021 -0.358460 -0.151248 -0.799149 -0.941617 -0.767503 0.718773 0.569375 0.188418 -0.301001 0.814103 -0.366755 0.826128 -0.140335 -0.932663 0.664095 0.361393 0.124994 -0.287488 -0.109807 -0.421071 -0.079443 -0.068716 0.801477 -0.950340 0.981304 0.128570 -0.759465 0.021946 0.792820 0.421866 -0.384033 -0.565640 -0.729382 -0.183182 -0.507257 -0.496885 -0.464409 -0.937883 0.691533 0.234590 0.876220 -0.675222 0.060718 -0.264114 -0.607885 -0.275187 -0.902721 0.517109 0.437326 -0.012528 -0.903963 -0.642117 0.918757 0.897515 -0.592457 0.900060 0.026085 -0.351922 -0.077994 -0.181094 -0.930056 0.537974 0.253266 -0.659438 -0.645208 0.746008 -0.156324 -0.109617 0.808126 -0.464791 -0.875027 0.684346 -0.140013 0.185691 -0.579769 0.252102 0.910505 -0.482490 -0.230789 0.347830 0.504982 -0.134752 0.705714 0.423739 -0.237237 -0.886744 0.323800 0.788849 -0.238666 -0.754194 -0.392246 -0.168722 0.783780 0.861020 0.171840 -0.861428 0.607028 -0.984484 0.028954 0.415154 -0.449275 0.153927 0.099500 0.410712 -0.660381 0.519731 -0.337186 -0.749877 -0.962759 0.432025 0.597954 0.542224 -0.702727 0.303667 -0.034037 0.060036 0.416923 -0.710238 -0.151115 -0.821742 -0.464432 0.456639 0.009536 -0.680652 0.317659 -0.818624 -0.542081 -0.075313 -0.803108 0.486874 -0.660159 -0.252383 -0.359199 0.439341 -0.841671 -0.019580 -0.040928 -0.178857 0.230543 -0.003687 -0.746832 -0.171503 -0.461464 -0.449559 -0.867836 0.504499 0.610477 0.549087 0.794261 -0.540638 0.727345 -0.670170 0.916001 -0.263119 -0.350822 0.233660 -0.081743 0.107097 -0.841652 0.115149 -0.406029 -0.501811 0.862766 0.234772 0.937530 -0.978904 -0.784808 -0.103398 -0.157761 0.445735 0.892914 0.095407 -0.725768 -0.568549 0.645848 -0.593604 0.935950 0.256325 0.955483 0.730211 0.715687 0.682828 -0.939959 0.631688 -0.580290 -0.290782 -0.134651 0.337967 0.816315 0.023696 -0.546884 -0.589714 0.521885 -0.684117 0.645059 0.459415 -0.663022 0.860251 -0.643983 0.179217 0.305986 -0.751069 -0.725376 0.580218 -0.319618 0.920472 0.986614 -0.383668 0.176797 0.942097 -0.653457 -0.107516 0.624926 -0.593416 -0.475828 -0.955365 0.115802 0.389521 0.382602 -0.067883 -0.586783 0.835718 0.342404 0.935103 -0.848399 -0.012537 0.394518 -0.511421 -0.152286 0.750534 0.667796 -0.846300 0.999465 0.942420 0.733918 -0.320153 0.862892 0.720532 0.296179 0.039688 0.662630 0.642721 0.932172 0.287555 -0.950695 -0.543656 0.332191 0.165107 0.845865 -0.285207 -0.902776 -0.740917 -0.449488 0.439628 -0.805815 -0.297887 -0.572909 0.588703 0.190692 0.274804 0.339237 -0.141512 0.428504 0.338702 -0.199092 0.162422 -0.981451 -0.336200 -0.117045 0.314728 0.703488 -0.454415 -0.042551 0.635660 0.833140 0.006754 -0.907995 0.165331 -0.828139 0.937870 0.880124 -0.730915 -0.803047 -0.569365 0.708714 -0.608862 0.132748 -0.864196 0.979841 -0.676560 0.410609 0.319079 0.181928 -0.160887 -0.342219 0.982836 -0.998464 -0.323669 -0.353365 -0.115509 0.991059 -0.649877 0.430075 -0.051492 0.985783 0.263215 0.955262 -0.922212 -0.571454 -0.872877 -0.984342 -0.691330 -0.603792 -0.787389 -0.260695 -0.895078 -0.396251 0.872053 -0.759274 -0.416410 -0.804508 0.651335 0.902669 0.377420 -0.509552 -0.439550 0.360256 -0.508016 0.236781 -0.993109 0.376475 0.227839 -0.642986 -0.193450 -0.823653 -0.657202 -0.930235 -0.868391 -0.579414 -0.501689 -0.741268 -0.563756 -0.193020 -0.345060 -0.351145 0.546285 -0.240139 0.252604 0.418338 0.000588 0.836194 0.613830 -0.348077 0.738863 -0.008750 0.142371 -0.700687 -0.648494 0.634355 0.536094 -0.641603 0.010830 -0.236067 -0.284589 0.817380 -0.059720 0.058209 0.887145 0.071889 0.478795 -0.614545 0.330621 0.915038 0.192435 0.985560 -0.436107 -0.261280 -0.254578 0.816496 -0.842942 0.746009 0.652690 0.770888 -0.602068 0.391554 -0.237862 0.540303 0.690867 0.113644 0.174658 0.226961 0.472041 -0.814512 0.990894 -0.812548 -0.997132 -0.068826 0.245661 0.890012 -0.996937 -0.275545 -0.724533 0.333684 -0.360507 0.467903 0.319244 0.203386 -0.793377 -0.935334 0.019882 -0.636319 0.810675 -0.327427 -0.865432 -0.791393 -0.935874 -0.103294 0.748910 0.754993 -0.989650 -0.076431 -0.018046 0.482391 0.109057 -0.027152 0.669842 0.111924 0.904022 -0.084497 0.001937 0.907085 0.639958 0.277404 0.240769 -0.720549 -0.254694 -0.439987 0.482837 -0.048071 -0.375320 -0.497280 0.315610 -0.564645 0.175293 0.450178 -0.356038 0.239419 -0.653115 -0.607127 -0.005588 -0.642765 0.316442 0.976366 0.839625 -0.574502 -0.050786 0.509468 0.537423 -0.146764 -0.575029 -0.460641 -0.239679 -0.935071 0.816763 -0.998910 -0.655620 -0.437930 -0.438896 0.827217 0.513999 0.185783 -0.670063 -0.170391 0.621138 0.505230 -0.720213 -0.734899 -0.255351 -0.373328 -0.342026 0.739061 -0.016093 0.974415 0.715427 -0.176468 -0.600086 -0.335359 -0.667000 0.937337 0.517877 -0.242030 -0.523304 -0.721802 -0.177101 -0.706541 -0.720712 0.167279 -0.144471 -0.159608 -0.005504 -0.630472 -0.973824 0.324433 0.199137 0.647314 -0.170337 0.478924 0.912415 0.574312 -0.894404 -0.429611 0.313372 0.089503 -0.455196 0.028799 0.913034 -0.055282 0.693439 -0.753966 -0.117945 0.211316 0.004004 0.358751 0.489514 0.826903 0.652210 0.768803 -0.005818 -0.492261 -0.390805 0.988678 -0.122733 -0.364629 0.313112 -0.923596 -0.717315 -0.857225 0.555329 -0.804900 0.717086 0.660925 -0.234511 0.030458 -0.249572 0.310293 -0.940743 -0.336538 -0.744989 0.752697 -0.090504 0.137066 -0.035987 0.913500 -0.504184 -0.546473 0.740403 -0.851974 -0.777670 -0.265415 -0.344235 -0.168475 -0.276737 0.533032 0.466895 -0.963625 0.609437 0.749580 -0.820850 0.164766 0.944680 0.896236 -0.174310 -0.289832 -0.073306 0.576118 -0.979539 -0.014049 -0.760420 -0.724528 -0.261352 0.149076 0.412538 0.702661 0.062576 0.908354 -0.843812 -0.197021 -0.943620 -0.621482 0.537565 -0.287855 0.210042 -0.739172 -0.754823 -0.323062 -0.702797 0.854614 -0.573483 -0.523647 0.019379 -0.628803 -0.627412 0.845070 0.081365 0.299282 0.421188 0.101826 -0.714766 0.660768 0.377299 0.023882 -0.190156 -0.210163 -0.273457 0.872420 -0.301810 -0.117268 -0.324600 -0.245430 0.261249 -0.787036 0.466715 -0.528708 -0.526208 0.711892 0.148229 -0.229005 0.566506 0.574747 0.247348 -0.414115 0.945944 0.619936 -0.569045 0.027309 -0.080781 0.852143 -0.870864 0.204453 0.512911 0.506434 -0.771665 -0.677245 -0.703729 
-0.045122 -0.804824 -0.005539 0.837610 -0.129424 0.749031 0.098859 0.083540 0.215746 0.570151 0.557332 -0.072361 -0.281619 -0.671672 -0.505855 -0.706873 0.575675 0.080030 -0.760929 0.195612 0.510985 0.266380 -0.885170 0.363129 0.395516 0.319283 -0.123960 -0.098050 0.547618 0.198795 0.198221 -0.497504 0.393971 -0.807318 -0.659895 -0.735453 0.941714 0.438964 0.348087 0.157460 0.009115 -0.094581 -0.914901 0.727496 0.233747 -0.420757 -0.979377 -0.190578 0.659273 -0.740305 -0.994966 0.170258 0.526075 -0.880136 -0.466613 -0.078409 0.439147 0.409427 0.823541 -0.013235 -0.391778 0.021762 0.489260 -0.997807 0.214444 0.829366 -0.733260 0.156158 0.268330 0.614827 -0.686382 -0.722555 -0.479754 -0.601284 -0.995059 0.753992 -0.022041 -0.974435 -0.436585 -0.362767 -0.714741 -0.431551 0.807491 0.811334 -0.311687 -0.659122 -0.267075 -0.872540 0.750305 -0.443534 0.114225 -0.641473 0.578228 -0.396515 -0.639280 -0.207328 -0.567149 -0.372540 0.948829 0.701181 -0.757714 -0.737553 0.978626 -0.237468 -0.338837 0.983568 -0.483476 0.639123 -0.990868 0.079939 -0.723645 -0.705609 0.648388 -0.916154 -0.894275 -0.663299 -0.575276 -0.161350 -0.535839 -0.824971 0.395116 0.578386 -0.466444 -0.026657 -0.818129 -0.105724 0.766015 -0.385278 0.521736 0.714845 -0.684097 0.764023 0.977292 -0.705471 -0.473445 -0.361545 -0.721904 0.043079 -0.722423 -0.712771 -0.876982 -0.446067 -0.418380 0.771406 -0.362221 -0.312655 -0.891893 0.062503 0.525995 -0.427732 0.237532 -0.078889 -0.849346 0.771088 0.894455 -0.667475 -0.334636 0.660470 -0.052753 -0.812899 0.375314 0.263150 0.951123 0.352606 0.557679 -0.522322 0.991061 0.835775 0.520757 -0.731362 -0.876997 0.643776 -0.177429 -0.295377 0.415182 0.460350 0.391969 0.523289 -0.477147 -0.082036 -0.904442 0.760385 0.839075 -0.753788 0.531473 0.733530 -0.421263 -0.803162 0.394000 0.525985 -0.616062 -0.230685 -0.210866 -0.664939 -0.878080 -0.653187 -0.187261 -0.887019 -0.817412 -0.666503 -0.618381 -0.694409 0.977272 0.204190 0.010215 0.392454 -0.335460 -0.597817 -0.084256 0.187392 0.320147 0.011302 -0.052223 0.159223 0.257514 -0.520750 -0.107247 0.836251 -0.323912 -0.713247 0.362236 0.060026 0.056068 -0.848630 0.395087 0.177988 -0.501817 -0.792173 0.290969 -0.319229 -0.458677 0.672589 -0.013637 -0.481405 -0.123221 0.996577 0.911050 0.541319 -0.601239 -0.173207 -0.271289 0.718908 0.838095 0.676488 -0.121869 0.095609 -0.844261 0.770884 -0.068140 -0.168173 -0.942363 -0.705904 0.891853 0.113704 -0.554534 0.286940 -0.708308 -0.056351 0.494767 0.582661 0.624420 -0.963910 0.255250 -0.389217 -0.445314 -0.867971 -0.392640 -0.534265 0.673347 0.006121 0.292529 -0.597942 -0.274971 0.130624 -0.921453 0.603160 -0.773767 -0.765715 0.374043 0.158093 0.066112 0.431680 0.452188 -0.042036 -0.454616 0.897654 -0.755096 -0.162924 -0.158696 0.739671 -0.580262 -0.534276 0.775761 0.674988 0.076507 -0.669553 0.807017 0.683868 -0.203818 0.480364 -0.310011 -0.911289 0.882422 0.415018 0.219334 0.960969 0.018177 0.445567 -0.804746 -0.607779 -0.396341 0.261366 0.823901 -0.944152 -0.780670 -0.630715 0.953502 -0.535766 0.206362 -0.205194 -0.796095 0.626099 0.260530 0.979667 0.301087 -0.662963 -0.689887 0.108104 -0.979095 0.106295 -0.411532 -0.289107 0.195006 -0.529110 -0.874089 -0.585660 -0.568141 0.144088 0.859907 -0.372887 0.536309 -0.536433 0.888479 0.360210 -0.480585 -0.892191 0.729495 -0.527083 -0.427957 -0.064143 0.267723 -0.224051 -0.438044 -0.471747 -0.244385 0.863043 -0.134710 0.065728 -0.028853 -0.113805 -0.827977 0.559615 0.597088 0.367029 -0.969495 0.722999 0.781370 -0.537636 -0.132913 0.641277 0.089477 -0.596604 -0.895156 -0.022045 0.763607 -0.375742 0.085764 0.493102 0.097175 0.657807 -0.571041 -0.635102 -0.566244 -0.009085 -0.106849 0.189371 -0.146042 0.758440 -0.744901 0.825105 -0.355365 -0.572877 0.384720 -0.758277 0.794152 0.415225 0.964722 0.575522 0.877589 -0.168191 0.216799 -0.032934 0.235205 0.321643 0.945021 -0.001188 0.945901 0.030785 -0.508086 0.043076 -0.311407 -0.079128 0.407974 0.122348 0.911787 -0.698875 -0.688281 -0.234255 -0.940435 -0.433182 -0.409149 -0.295800 -0.006059 0.975571 -0.054077 -0.211907 0.390797 -0.089355 -0.636386 0.268386 0.742453 0.580413 -0.764548 -0.022341 -0.097945 -0.819527 0.976471 -0.152043 0.211259 -0.531615 0.891033 0.899852 0.389257 0.299007 0.022200 0.301044 0.600132 0.333919 -0.933211 0.659697 0.900737 -0.342360 -0.636103 -0.105322 -0.366789 0.309820 0.682770 -0.975992 -0.779535 -0.953616 0.292394 0.962918 0.626797 0.527846 -0.059423 -0.471147 0.708319 -0.082952 0.376809 -0.080422 0.385432 0.267842 -0.180570 -0.225311 -0.433151 0.841630 -0.924267 -0.833018 0.175549 -0.857477 0.826679 0.076286 -0.199837 -0.809424 0.970964 0.433374 0.500397 0.653734 0.457382 0.720861 0.700118 -0.250224 0.683780 0.326916 -0.722378 -0.375644 0.855768 0.985941 0.541404 0.232577 -0.094480 -0.073164 -0.499580 0.724949 0.701526 0.067269 0.566579 0.777259 0.234251 -0.257872 0.919782 0.060930 0.818414 -0.280055 0.251506 0.789378 -0.846681 -0.248097 0.443112 0.610701 -0.527236 0.143230 -0.639523 -0.843457 -0.529854 -0.361901 -0.219100 -0.674086 -0.375960 -0.677696 0.558491 0.529560 0.249141 -0.941089 0.254509 -0.049334 0.126180 -0.178912 -0.272075 -0.639569 0.563216 -0.352293 0.421360 0.381630 0.367651 -0.327133 0.171008 0.520970 0.424769 -0.385880 0.131671 0.897533 0.757350 0.492148 -0.945923 -0.772505 -0.869753 -0.165023 -0.446591 -0.245713 0.157281 -0.888100 -0.716153 -0.593579 -0.829189 0.538356 0.357087 0.296991 -0.640556 -0.914988 0.657422 0.922661 -0.267281 0.078782 0.304291 -0.899629 0.751649 -0.524701 0.621341 0.176418 0.089419 -0.246988 0.073951 -0.153231 -0.754839 0.128028 0.074264 -0.624592 0.963004 0.627673 0.129695 0.120285 0.739573 0.413542 0.526706 0.910384 -0.048101 -0.116206 0.207375 0.311343 -0.031194 -0.135203 0.234004 0.701525 0.943579 -0.461705 0.801896 0.695228 0.013594 0.423237 -0.128354 -0.896987 -0.823751 0.945597 -0.050219 -0.578590 0.073625 -0.975955 -0.203182 0.036629 0.651718 0.926513 -0.843086 0.391291 0.340055 0.683621 0.301675 -0.708046 -0.432586 -0.490950 0.603297 0.536221 0.373847 -0.162700 0.237746 0.317426 0.375595 0.039642 0.012654 -0.610812 -0.537121 0.884300 -0.507799 -0.360872 0.829897 0.441982 0.060538 -0.096478 0.466027 0.857355 0.940152 0.117745 0.783868 -0.902934 -0.490964 0.123923 0.780687 0.810710 0.415877 -0.651899 -0.680240 0.019174 0.884322 0.693607 0.856474 0.122068 0.011032 0.232069 -0.838290 -0.976314 0.621257 -0.375411 0.907986 -0.886542 0.263717 0.737884 0.555441 -0.675745 -0.358594 0.021468 -0.818390 -0.418442 -0.860787 0.965478 -0.321376 -0.351751 0.089402 -0.540689 -0.541041 -0.494721 -0.192588 -0.221281 0.524453 -0.308266 -0.527675 0.380927 0.813802 0.483358 -0.387004 0.975512 0.507044 -0.765747 -0.399899 0.415030 -0.652288 0.863818 0.152914 0.903152 -0.811927 0.794320 -0.075380 -0.630317 -0.624122 0.063833 -0.664839 0.054502 0.712081 0.424563 0.513813 -0.828960 0.929842 -0.678775 -0.050241 0.454295 0.012959 0.422084 -0.164778 -0.173240 -0.094558 0.448218 -0.197728 -0.587514 0.682471 0.402373 0.827516 -0.969817 0.266191 -0.019569 0.933335 0.454264 -0.225249 -0.142045 0.823947 0.150629 0.921788 -0.840891 -0.794869 0.633869 0.583672 0.718944 0.804909 0.513514 -0.959831 -0.245332 -0.032191 0.053128 -0.823248 0.803031 0.879888 0.082194 0.251249 -0.317840 0.494680 -0.066279 -0.915466 0.322197 -0.036096 0.350725 -0.697373 -0.102761 -0.195011 0.077378 0.755194 -0.371064 -0.771993 0.676981 -0.211955 -0.566862 0.310850 -0.628283 -0.847918 0.115759 0.885231 -0.807749 0.870426 -0.146960 0.245379 -0.952822 -0.343929 0.125267 0.129372 0.907321 0.807428 -0.375947 -0.158959 0.891961 0.946249 0.804945 0.242686 -0.751124 -0.297816 -0.952325 0.326254 -0.542623 -0.323389 0.554261 -0.865642 0.464656 0.987399 0.445208 0.836373 -0.860519 -0.439033 0.721604 -0.668267 -0.568607 -0.425357 0.577112 -0.521429 0.230714 -0.297621 0.607944 0.138035 -0.490193 -0.768004 0.979076 -0.598232 -0.821754 0.784022 0.644454 -0.572878 -0.513795 0.692129 0.753376 -0.056417 -0.631259 0.307637 0.077941 0.833397 0.295036 -0.476851 0.669770 0.434517 0.084116 0.391373 0.766250 0.515509 0.966017 0.343362 0.994080 0.196731 -0.954259 0.602024 -0.665234 -0.444452 0.834021 -0.686158 -0.042684 -0.987734 -0.902136 -0.398230 -0.560612 -0.415931 -0.706101 -0.807236 0.527652 -0.337361 0.500401 -0.394407 -0.503964 -0.204563 0.128743 -0.834194 -0.770046 -0.787142 0.557179 0.996205 0.728368 0.523196 0.339567 0.722448 -0.280073 0.385308 0.324472 0.054693 0.940856 0.158493 0.368536 -0.101828 0.170759 0.466400 0.499941 0.610147 -0.949531 0.793840 0.802911 0.578121 -0.543521 0.303312 -0.816285 -0.047485 -0.901251 0.312457 0.118321 -0.671296 0.525316 -0.324499 -0.675091 0.253683 -0.801303 0.664475 -0.023869 -0.081376 0.049784 -0.699397 0.973317 -0.009361 0.459096 0.341853 0.888811 -0.370145 -0.191747 0.388752 -0.759998 -0.141278 0.182592 -0.957086 -0.563157 0.639072 0.346226 -0.379442 -0.408413 0.444975 0.933015 0.709908 0.773679 0.458331 -0.614591 -0.901412 -0.287986 -0.415894 0.763063 0.688145 0.502730 -0.187153 0.988747 0.476047 0.803486 0.447843 -0.182100 0.692297 -0.922302 0.626153 0.081050 -0.682300 -0.515125 -0.736358 -0.639386 -0.078281 0.902714 0.706840 0.542277 -0.505699 0.151815 0.475292 -0.795791 -0.074506 -0.066378 -0.410381 0.024082 0.645636 0.173725 -0.212854 0.333781 -0.323545 0.599992 0.322528 -0.847498 0.403478 -0.229629 -0.029598 0.095776 -0.151931 -0.403444 -0.823175 0.165769 0.081431 -0.559533 0.526383 -0.996850 -0.656819 0.233223 0.545426 -0.162518 -0.614962 0.020718 0.041692 0.310533 0.954341 0.631310 -0.665385 0.599977 -0.194965 0.121760 -0.066243 0.481490 -0.278247 -0.743714 0.633992 -0.874769 0.026657 -0.395606 0.221007 0.874726 0.200950 0.397832 0.040496 -0.717619 0.838300 -0.433121 -0.714470 -0.818519 0.800102 0.830957 0.018963 -0.814860 -0.148325 -0.939345 0.495672 -0.193984 0.691965 0.830287 -0.594007 -0.503000 -0.047952 0.339750 0.978489 0.673800 0.596036 0.612481 0.799031 -0.377307 -0.783125 0.020038 -0.502581 0.417824 -0.582130 0.537914 0.700205 -0.743830 -0.895207 0.985736 -0.562349 0.904895 0.816693 0.456614 -0.909965 -0.331632 0.517268 0.585707 0.474384 0.209233 0.415994 0.880377 0.706233 -0.631958 0.220127 0.684722 -0.958158 -0.183838 0.297203 0.840873 0.438855 0.514078 -0.139089 0.936274 -0.068098 0.278781 0.474188 -0.367893 0.534951 0.578981 -0.382157 0.972602 0.483876 -0.565465 0.429215 0.573911 0.102903 -0.053517 0.159618 -0.422713 -0.844283 -0.424388 -0.542336 0.861949 -0.056346 0.677790 0.546671 -0.014504 -0.506047 -0.156126 -0.173630 0.932808 -0.642048 0.687281 0.869081 0.289854 -0.033938 0.343270 0.921961 -0.498987 -0.077749 -0.460196 -0.526385 -0.593873 -0.025660 0.902830 0.980038 -0.922757 -0.150687 0.139656 -0.345470 0.005030 0.715269 0.112194 -0.133021 -0.341077 -0.210016 -0.586349 0.644419 0.283936 0.257525 -0.529211 0.216744 0.615477 -0.841930 0.085825 -0.094668 0.124132 -0.570905 -0.172707 0.625145 0.351346 0.367097 -0.901240 0.757473 -0.658563 -0.998410 0.737511 -0.581320 -0.149097 -0.122832 0.073210 0.855933 -0.407564 -0.814596 -0.277087 0.251359 -0.024613 0.136564 -0.104221 -0.740676 -0.605911 0.366567 0.476067 -0.990434 0.524637 -0.438108 -0.085102 -0.351231 -0.009013 0.742191 -0.726086 -0.657668 0.109288 -0.627326 -0.900195 0.450725 -0.625736 0.837317 0.869405 0.225167 -0.285516 -0.057385 0.081101 0.306921 0.128019 0.804014 -0.441720 -0.896594 -0.059423 0.454058 -0.637271 0.334666 -0.179374 0.838797 0.344232 -0.654737 -0.599311 -0.740870 -0.005968 0.391676 -0.998679 0.267946 0.734008 0.110609 0.640620 0.833814 -0.438666 -0.985116 0.671130 -0.569261 0.240051 -0.614386 0.373354 -0.678848 0.692535 -0.498627 -0.874835 -0.749185 -0.395221 0.065743 0.704873 -0.032492 -0.599591 -0.474501 -0.193695 0.744641 -0.129238 0.206994 -0.996229 0.864793 -0.401330 -0.994908 0.132739 -0.667322 0.115701 -0.226641 -0.833508 0.677034 -0.211758 0.837622 -0.892227 -0.971707 -0.776764 0.481127 -0.650555 0.915771 0.982500 -0.525389 -0.833414 -0.412721 0.540353 0.871459 0.554787 0.940762 -0.603042 -0.638909 0.685403 0.267720 0.568085 0.689174 0.132513 -0.833245 0.694266 -0.734748 -0.500567 -0.190033 0.038611 -0.334076 -0.512999 0.826853 -0.496454 -0.405225 0.855146 -0.273218 -0.924098 -0.795408 -0.357447 -0.941598 -0.320798 -0.190861 -0.354319 -0.780444 -0.319402 -0.799532 -0.839682 0.077556 -0.438441 0.845721 -0.654725 -0.870356 0.534895 0.477788 -0.703601 0.229161 0.743040 -0.204169 -0.960872 -0.218349 0.461756 -0.473871 -0.391496 0.965302 0.120904 -0.536350 -0.307915 0.196806 -0.331758 0.334638 0.255209 0.347444 -0.856223 0.900890 0.567000 -0.175625 -0.898643 0.727318 0.901930 -0.337084 0.573038 -0.752795 -0.207440 0.107933 0.724993 0.088958 -0.662906 0.468033 0.884790 -0.623778 -0.750316 0.346546 -0.097648 -0.141812 0.311848 -0.976744 0.321838 -0.996068 0.220062 0.990080 0.338570 -0.524729 0.337525 0.482347 -0.623840 -0.095475 -0.693278 -0.522483 -0.368158 -0.791348 0.140433 -0.795120 -0.544143 0.932993 0.312814 -0.819150 0.021951 0.649908 0.648883 -0.093259 -0.973870 0.898567 -0.746713 -0.071518 -0.243245 0.565135 -0.048262 -0.921406 0.569067 -0.828200 -0.931326 -0.092363 -0.352929 0.406199 -0.610016 0.023232 -0.689277 -0.303294 0.500749 -0.057435 -0.094642 -0.358817 0.147446 0.361214 -0.425824 -0.539741 0.542065 0.596127 -0.889833 0.190948 -0.497132 -0.863702 0.089516 -0.243845 0.064780 0.846271 -0.678710 -0.983482 0.924865 0.890357 -0.811682 0.993539 -0.202006 -0.164610 0.399737 0.187979 0.858622 0.710461 0.884685 0.359371 -0.346974 -0.209958 -0.999447 0.800472 -0.848743 -0.425271 -0.739269 0.693321 -0.829144 -0.629102 -0.115731 -0.326276 -0.492804 0.973785 0.429879 0.571976 0.820056 0.751169 0.588494 0.744921 0.641526 0.776812 0.738459 -0.560480 -0.387798 0.138197 0.627499 -0.529176 -0.151342 0.512184 0.830195 0.501684 -0.697774 0.830748 0.302156 -0.546518 -0.594523 0.562887 -0.853196 -0.423667 0.933785 0.031073 0.250057 -0.559018 0.004858 -0.320064 -0.987043 -0.175086 -0.568895 0.601451 -0.430166 -0.927370 0.378263 -0.691707 -0.487849 0.990465 0.446490 -0.860350 -0.538711 -0.704852 0.651833 -0.708517 0.796832 0.954059 -0.877769 0.098988 -0.592459 -0.472292 -0.338125 -0.445655 0.104041 -0.404340 0.585418 -0.645902 0.036642 -0.409725 0.034034 0.049599 0.415189 0.465139 -0.348950 0.985023 0.537769 -0.970687 -0.706683 -0.950080 -0.980222 0.739807 -0.810431 -0.518933 -0.965045 0.841402 -0.227449 0.831787 0.795461 -0.105218 -0.069226 -0.796998 0.422490 0.592649 -0.242653 -0.473468 -0.811691 -0.657235 -0.119370 0.224951 -0.066959 0.914664 -0.725450 -0.651770 0.379803 -0.074400 -0.666747 -0.082428 -0.045087 -0.373431 -0.032508 -0.025308 -0.633624 0.157061 0.455759 -0.598669 -0.001537 -0.771691 -0.766882 -0.206075 0.123091 0.163892 -0.003073 -0.454418 -0.243459 0.754274 0.072113 -0.055150 -0.902961 0.952743 -0.830199 0.030080 0.867407 -0.555649 0.378310 0.247209 0.369950 0.711562 -0.835219 -0.675137 -0.661868 0.132273 0.299555 -0.295492 -0.710666 -0.244686 0.105839 0.287797 -0.016377 0.338957 -0.918279 -0.893286 -0.497151 0.078648 -0.347704 0.259391 -0.167077 0.724409 -0.795759 -0.070038 0.677152 -0.625959 0.960042 0.544558 -0.181608 0.338352 -0.208233 -0.811658 0.049914 -0.043452 -0.486794 0.388046 -0.911179 0.812760 -0.907446 -0.621846 -0.431926 0.198394 0.665951 0.551697 -0.462649 0.747673 0.658411 0.040201 -0.173679 -0.689293 -0.700409 0.659244 -0.964884 -0.496168 -0.410794 0.712268 -0.122127 -0.450752 0.256826 0.696265 0.887600 -0.951407 0.884607 -0.062486 0.005141 -0.602187 -0.674440 0.093962 -0.789427 -0.581886 0.472116 -0.221353 0.616508 0.138068 -0.669656 -0.846141 -0.114260 0.988756 0.194060 0.712062 -0.700537 0.493651 0.371305 -0.665421 0.997483 0.960512 -0.953154 -0.124644 -0.490240 0.303672 -0.428379 -0.602640 0.352265 -0.543772 0.334874 -0.642594 -0.145959 0.660434 0.451368 0.064614 -0.921452 -0.076516 0.843261 0.695056 -0.938448 -0.826394 0.848916 -0.052708 -0.837639 0.042976 -0.340647 -0.538176 -0.463373 -0.969341 -0.203597 -0.465890 0.991170 -0.156750 0.409466 -0.499070 -0.853078 0.981086 -0.101710 0.499187 -0.562686 -0.766837 0.856593 0.291355 0.893597 0.307961 -0.644031 0.972145 -0.768555 -0.800770 0.667201 -0.707004 -0.627165 0.516117 0.240288 -0.464803 -0.440908 0.899641 -0.002979 0.095719 0.930300 0.793424 0.629829 0.921470 -0.363326 0.039295 -0.577599 -0.216404 0.020381 0.320690 -0.717217 0.457695 0.553853 -0.860624 -0.250950 0.447450 0.447336 0.105019 0.419595 0.678781 0.304249 0.086796 0.971777 0.677084 -0.397087 0.212065 -0.787719 0.162005 0.111706 0.209302 -0.742275 0.042006 0.002727 0.887553 -0.036523 0.639401 -0.073152 0.385877 -0.577003 0.947229 -0.293433 -0.294220 0.404924 -0.739579 -0.154844 -0.846025 0.707871 -0.707508 0.258994 0.127466 0.971273 -0.436757 -0.785738 0.943049 -0.759673 -0.182825 0.155114 -0.547392 0.979180 -0.733180 0.661910 -0.763095 0.308827 -0.335363 -0.875542 -0.727697 -0.695962 0.051306 0.658180 -0.272965 -0.001465 -0.635252 0.432815 -0.596541 -0.374832 -0.722029 -0.442566 -0.666961 -0.429537 0.816428 0.460505 -0.458265 -0.620329 0.674767 -0.515215 -0.380003 -0.508058 0.639899 0.072605 -0.528878 0.906719 -0.265485 -0.291973 0.215546 0.399152 -0.167515 0.487849 0.703190 0.883791 0.146030 -0.569775 -0.117673 0.510777 0.863040 0.285786 -0.864054 -0.858989 0.843220 -0.531015 -0.288527 0.659648 0.929490 0.253208 -0.960681 0.604257 0.737993 -0.340684 -0.903801 0.377892 0.731921 -0.432679 0.284611 -0.533563 0.275348 -0.499843 0.865589 -0.892167 0.988007 0.568779 0.991625 0.134036 0.999004 -0.126049 -0.355186 0.862044 -0.840263 -0.219241 -0.996946 -0.997043 0.249744 -0.285473 0.662605 0.179234 0.967735 0.701924 -0.216510 0.705728 -0.638760 -0.120311 0.083620 -0.906839 0.447010 -0.631769 -0.440402 -0.277643 -0.131611 -0.574813 -0.169809 -0.143605 0.993965 -0.178185 0.990432 0.992969 0.695767 -0.364755 0.855013 0.855504 0.416005 0.858067 0.858461 -0.334251 -0.427406 0.521067 0.844982 -0.459671 0.222991 -0.371528 -0.753943 0.584231 0.508161 0.329677 0.677392 -0.044829 0.697909 -0.763011 0.677528 -0.433702 -0.337824 -0.492281 0.422693 -0.343859 0.329534 0.413125 -0.350890 0.025301 -0.951630 -0.495877 -0.119195 0.464375 -0.637810 -0.260734 -0.869877 -0.065216 -0.739667 0.975105 0.475113 0.483324 -0.396422 0.721170 0.067554 -0.888261 0.050848 -0.255054 0.066910 -0.251243 -0.018064 -0.255562 0.315054 0.644111 0.252157 -0.262253 -0.699747 -0.418309 -0.849128 -0.050637 0.606992 -0.800758 0.453486 -0.512203 0.663617 0.815676 0.227063 0.793740 -0.249540 0.487396 0.768845 -0.774427 -0.029280 -0.627577 0.946743 -0.961725 -0.515838 -0.002409 -0.216779 0.551072 0.746347 0.765156 -0.704491 0.061402 0.409268 0.547666 0.799149 0.709521 -0.870643 0.950021 -0.341116 0.736349 -0.850736 -0.887630 -0.775854 0.812881 0.928046 0.451209 0.606621 -0.321494 -0.061395 0.375466 -0.095922 0.909326 0.747889 -0.149179 0.947600 -0.767949 0.848412 -0.269179 0.783123 0.594759 -0.504022 -0.921368 -0.343839 0.905245 0.626298 -0.544690 0.614766 0.755655 -0.594669 -0.726350 0.492003 -0.445405 -0.613981 0.716149 -0.632525 -0.685935 0.167358 0.974096 -0.007429 -0.894037 0.349562 0.896649 -0.984711 0.097451 -0.252530 0.962889 0.329502 -0.404118 -0.306289 0.112625 -0.809359 0.189688 0.191257 -0.153199 0.094933 -0.182445 0.302111 -0.290301 -0.426790 0.707443 -0.016651 -0.934786 -0.737962 0.369368 0.781363 -0.370487 0.683433 -0.051279 -0.396391 -0.323996 0.054684 0.953171 -0.427347 0.069973 0.050622 0.320123 0.032862 -0.619875 0.916005 0.726573 0.492750 -0.893355 -0.083739 -0.315993 -0.046553 -0.988806 0.501563 -0.744442 -0.279106 -0.925227 0.963000 0.704242 -0.860014 -0.774962 0.073611 0.921349 -0.145449 -0.242956 -0.129931 0.458160 0.433048 0.924753 0.411331 -0.994299 -0.005274 -0.538047 0.325824 -0.972412 -0.157922 0.241829 0.754161 -0.665172 0.348474 -0.329578 0.018835 -0.698080 -0.318384 -0.479603 -0.442522 0.402509 -0.404830 -0.479521 0.106752 -0.264844 -0.254483 -0.819638 -0.343495 0.600068 -0.062594 0.526575 0.058228 -0.629546 0.451328 -0.530441 -0.623845 -0.553946 -0.068488 0.701979 -0.526358 0.773590 -0.056192 -0.772197 -0.891582 -0.707718 -0.101775 0.127253 -0.405798 0.579840 0.647650 0.151681 -0.017650 -0.757180 0.672159 -0.910899 -0.022023 -0.582324 -0.730536 0.634482 -0.982256 0.206870 0.161057 0.075972 0.577325 -0.387615 0.545532 0.953480 0.058439 -0.522956 0.655459 0.532081 -0.749366 -0.400733 0.759884 -0.640948 -0.108451 -0.341891 0.486305 0.485752 -0.762051 0.133955 -0.362568 0.220299 0.376776 -0.690408 0.309400 -0.645247 -0.272732 0.578864 0.989235 -0.254987 -0.214266 0.150292 0.820985 -0.636941 0.762677 0.366517 -0.683461 -0.178884 0.843561 0.971998 -0.646803 -0.905805 -0.428735 -0.886919 -0.546753 0.462815 -0.228811 0.939553 -0.051433 0.009138 0.073508 0.585999 -0.770563 -0.549716 0.895591 0.538837 -0.194963 -0.377140 0.117701 -0.205728 0.367872 0.903436 0.944564 0.188858 -0.733506 0.707241 -0.444626 -0.416967 -0.471644 -0.601065 -0.444969 -0.118447 -0.506869 0.126296 -0.005366 -0.053622 -0.410889 0.765823 -0.114069 0.537678 -0.225038 0.959439 0.123677 0.004399 -0.590277 0.019268 -0.456764 0.214759 0.642128 0.660938 -0.990969 0.010000 0.564373 0.953595 -0.801142 0.830868 0.660835 -0.245768 -0.586100 -0.810809 0.153167 -0.031069 0.070744 0.646298 -0.904772 -0.934622 -0.407324 -0.315661 0.831202 0.478606 -0.777983 -0.393836 0.438045 0.345694 0.610563 0.847768 -0.635038 -0.846201 0.062527 -0.992910 0.814737 0.071558 0.017090 0.379110 0.025152 0.215948 0.209978 -0.314012 0.970180 0.623878 -0.124821 0.123347 -0.407190 0.945924 -0.230355 -0.311963 -0.988698 0.362321 0.372376 0.842504 -0.159073 0.594393 -0.551332 -0.721028 -0.059913 -0.940769 -0.873260 0.305049 -0.786970 0.189267 0.312138 -0.972233 -0.739175 -0.670772 0.406878 0.285977 0.545176 -0.383144 0.971965 0.515356 -0.759266 -0.152856 -0.361297 -0.166456 -0.206933 0.408348 0.521581 -0.195631 -0.229331 -0.106042 -0.353127 0.611596 -0.511649 0.095541 0.890569 0.428437 0.154772 -0.982691 -0.266514 0.367802 0.206575 -0.954376 0.395569 0.467400 -0.625148 -0.197553 -0.246623 0.920028 0.419303 -0.274658 0.435384 0.660037 0.572486 -0.925913 -0.506419 -0.634447 0.482435 -0.984838 0.169922 -0.746897 -0.090880 0.816796 0.864700 0.397470 -0.087663 0.755268 -0.174092 -0.932891 0.772577 0.559393 0.434911 -0.020848 0.605018 -0.169520 -0.553448 0.979870 0.632927 0.199930 0.899899 0.052230 0.925272 0.335283 -0.287733 0.497758 0.409369 0.205848 0.863311 -0.108196 0.221010 0.033233 0.144908 -0.869870 -0.149971 0.009607 0.527600 0.762365 -0.235125 -0.646492 0.829474 -0.462548 0.912902 0.264385 0.516604 0.517919 -0.905135 0.963156 0.497789 0.727792 0.163086 0.397688 -0.219977 0.088358 -0.267030 0.492290 -0.413885 -0.857660 -0.301862 -0.550574 0.034144 0.919148 0.482659 -0.820949 -0.950722 -0.667312 0.188658 0.576879 -0.904947 0.953534 0.930387 0.924527 -0.509014 0.843288 0.188912 -0.992410 0.361208 0.283777 0.970746 -0.141003 0.011569 0.133832 -0.743315 0.791592 -0.777810 -0.010345 0.283882 -0.191695 0.131995 0.982020 0.257731 -0.833862 0.901168 -0.259610 -0.654810 0.950447 0.073078 0.533848 0.527326 0.168131 0.487382 0.457713 0.092658 0.978367 0.301001 -0.718430 0.985957 -0.337791 0.565347 0.956703 0.521206 -0.423084 0.090535 0.777891 -0.631492 0.312725 -0.232454 0.652390 -0.878970 0.899540 0.634410 0.378761 -0.934321 0.535578 -0.880848 -0.589132 0.486025 0.192229 0.944716 0.013351 -0.639640 0.432098 -0.528937 0.453018 0.410465 0.772064 0.734588 0.396422 -0.565727 0.299935 0.353124 0.955479 0.876851 -0.556340 0.733369 -0.754641 0.756385 -0.499085 0.897750 0.877415 -0.599545 0.532160 0.256176 -0.533866 0.067738 0.375328 -0.122998 -0.446237 -0.432443 -0.178281 0.567114 -0.072082 -0.746184 -0.961823 -0.619064 0.664281 0.810242 -0.884476 0.060703 -0.755485 0.415459 -0.586173 -0.800006 0.292310 -0.142513 0.933363 0.537669 -0.386129 -0.565722 0.435419 -0.508714 -0.165267 -0.032421 0.747462 0.300867 -0.964683 0.122790 -0.822131 -0.410919 
0.690347 -0.000412 -0.843805 -0.381735 0.253404 -0.805628 -0.000799 -0.082315 -0.995386 0.114725 0.978388 -0.750871 -0.469817 -0.607785 -0.550877 0.822493 0.249702 -0.617514 0.360162 0.863573 -0.183237 -0.204419 -0.645140 0.651497 0.763160 -0.897678 -0.047637 0.798477 0.225112 0.130233 -0.612442 -0.084541 -0.870180 -0.456247 0.533724 0.383224 -0.261875 -0.467075 -0.699090 -0.257261 0.647650 -0.720702 -0.008132 -0.822167 -0.328487 0.440991 -0.999674 0.921215 0.823476 0.360488 0.784789 -0.359760 -0.843931 -0.860352 -0.708264 0.919228 -0.758030 0.244100 0.717706 0.467082 -0.625668 -0.894736 -0.617459 -0.495847 -0.350983 0.916266 0.887377 0.387142 -0.550809 -0.811713 -0.870118 -0.903159 -0.532415 0.121750 -0.725326 0.139098 -0.437259 -0.725000 0.060313 -0.613783 0.635488 -0.154898 0.026457 0.791556 -0.015250 0.318193 0.710785 0.226720 -0.437707 0.428491 -0.306198 -0.063374 0.533754 0.076344 0.440778 -0.817229 -0.007390 0.328156 0.569914 0.441801 0.516443 0.699795 0.538642 0.984028 -0.178455 0.813316 0.123125 0.384286 -0.911684 -0.816561 0.770503 0.723804 0.028540 -0.203040 0.515360 -0.986709 -0.884847 0.226145 0.240011 -0.322554 -0.345365 0.933813 0.614072 -0.811610 0.010156 0.054851 -0.628839 -0.997234 -0.616994 0.941074 0.444567 0.899449 0.640870 -0.016791 0.883477 -0.537585 -0.203475 0.006602 0.846700 -0.115159 0.190041 0.617203 -0.391355 -0.781419 -0.585837 -0.875995 -0.768128 -0.470684 0.350149 0.471882 0.206763 -0.995215 0.405695 -0.179165 -0.806825 -0.584149 0.875686 -0.435664 -0.581383 -0.741308 -0.494590 0.863184 -0.841859 -0.853720 -0.153608 -0.958382 -0.391306 0.642917 0.048220 -0.544605 -0.472242 -0.761739 -0.927402 0.136403 -0.543158 -0.513239 0.260408 -0.311286 0.016078 -0.389443 -0.839404 -0.777159 -0.384658 0.566291 0.043676 -0.191484 0.982142 -0.080638 0.372852 -0.599241 0.178054 0.878262 -0.736057 0.336195 -0.975458 0.110335 0.377814 -0.366764 -0.246748 -0.573966 0.088631 0.281011 -0.335705 0.161229 -0.582586 0.121137 0.647990 0.677821 0.809851 -0.335932 -0.711622 0.970447 -0.113091 -0.096280 0.536739 0.930584 0.712237 0.518881 -0.150054 0.085089 0.919640 -0.972000 -0.036649 -0.816417 0.364196 -0.012107 0.293918 -0.257991 0.621129 -0.952829 0.168043 -0.290241 0.328182 0.832338 0.870988 0.745595 -0.046525 0.518978 0.423416 -0.236674 -0.816954 0.711795 -0.266227 0.069955 -0.384485 -0.729488 0.000540 -0.672248 0.789393 0.850486 0.412841 0.709033 0.878486 -0.623808 0.892616 0.242681 0.364084 0.186534 0.984691 -0.014787 0.233705 0.152734 0.694972 -0.438113 -0.014929 0.565961 -0.692518 0.938546 0.084939 0.730898 -0.298128 0.267985 0.442693 0.435645 -0.662059 -0.941791 0.706157 0.338480 -0.614039 0.495550 0.188966 0.798802 0.204583 0.067452 -0.825007 0.097199 -0.689867 0.539078 -0.716267 -0.705176 -0.475709 0.517438 0.447558 -0.780737 -0.920675 -0.567371 0.785223 -0.613193 -0.628825 -0.129838 -0.882294 0.073047 -0.861852 0.560399 -0.491308 -0.523912 0.618608 -0.785151 0.814568 -0.995431 0.710399 0.003534 0.803370 -0.085019 -0.929014 0.978364 -0.987820 -0.618881 0.517441 -0.704087 -0.324057 -0.958268 0.813351 -0.876499 -0.739005 0.892677 -0.443870 -0.953782 -0.720516 -0.072695 -0.083620 -0.602810 -0.999648 0.054528 0.957589 -0.490956 0.530616 0.576196 -0.276107 0.345185 0.580765 -0.565709 -0.651281 0.384135 0.349272 -0.580295 0.362499 0.361452 -0.199175 -0.120060 0.657365 0.476768 -0.078328 0.470716 0.600269 0.182667 0.363393 -0.843602 0.228885 0.642877 0.083703 -0.854735 -0.959934 0.084055 0.199793 0.997655 0.593099 -0.269591 0.573852 -0.683009 -0.924406 0.154617 -0.248717 -0.575688 -0.461248 -0.899445 -0.155982 0.901251 0.462007 0.644842 -0.218809 0.119372 0.121610 0.702863 -0.409911 -0.278121 -0.114471 0.953482 -0.121723 -0.885586 0.596359 0.961980 -0.740321 0.636425 0.046035 0.459471 0.634080 -0.360866 -0.810120 0.207932 -0.043875 -0.734526 -0.637451 0.707408 -0.310214 -0.098700 0.807963 0.533804 -0.197449 0.269970 0.178646 0.583741 -0.610657 -0.699744 0.286604 -0.020568 0.022135 -0.827866 -0.067086 0.900412 -0.713452 -0.470728 0.862392 -0.453774 -0.834302 -0.091573 -0.994302 0.799778 0.547560 -0.804422 0.007710 -0.496315 -0.538948 0.370259 -0.788907 0.150838 -0.728441 -0.980944 -0.315358 0.074110 0.289026 0.863288 -0.342149 0.678369 -0.836456 0.944456 -0.342199 0.185678 -0.883411 0.590714 0.086090 -0.596863 -0.880013 -0.051518 -0.050637 -0.714315 0.856908 -0.044939 -0.914537 0.404469 0.150639 0.093173 0.908154 0.611691 -0.536568 -0.880753 -0.237470 -0.265009 -0.861697 0.447172 0.809100 0.427329 0.310460 -0.533048 0.105698 0.474004 -0.588593 0.763499 -0.340318 -0.472004 0.354213 0.745772 -0.068867 0.474200 -0.305746 0.880497 0.759885 -0.448838 -0.164442 0.845347 0.955631 0.986198 -0.061480 0.863784 0.597889 0.401952 0.983031 -0.639581 -0.863058 -0.878666 0.807590 0.946042 0.548663 0.118050 -0.587006 -0.345639 -0.407946 -0.175599 -0.582140 0.251736 0.352398 0.772073 -0.002492 -0.716469 0.246273 0.691761 -0.835972 0.006157 -0.757077 -0.000414 -0.148495 -0.801446 -0.014216 0.790025 -0.937662 -0.416327 0.191976 -0.954631 -0.055908 0.328918 -0.833297 -0.248318 0.274961 0.715366 0.869732 0.687955 -0.630273 -0.538214 -0.487644 -0.212413 0.713522 0.864753 -0.440340 -0.288971 -0.851715 0.805933 -0.597209 -0.687687 -0.187910 -0.354286 0.311899 0.663595 -0.155732 -0.702317 0.453619 -0.093394 -0.118643 -0.354405 -0.048025 0.825448 0.974514 0.118678 -0.422869 0.249474 -0.165956 -0.553137 -0.062571 0.203771 -0.091351 0.449785 0.991358 -0.377829 0.314538 -0.448982 0.333200 0.462823 -0.643050 0.735991 0.775135 0.169040 -0.618296 0.087035 -0.167365 0.225972 0.384718 -0.713746 -0.867422 -0.733926 -0.068150 0.084553 -0.908477 -0.093637 -0.796769 -0.331346 -0.844163 0.037276 0.115517 0.093266 -0.758953 -0.975834 -0.456949 -0.767595 -0.353664 0.857589 -0.216577 0.979536 0.320411 0.140373 0.715527 0.095547 -0.690586 -0.902769 -0.817419 0.142049 0.323203 0.567299 0.428303 0.455781 0.833374 -0.639847 -0.459666 0.924897 0.266516 -0.256435 -0.406450 0.422353 0.780840 0.709067 -0.484380 -0.978113 0.733232 0.058670 -0.745707 -0.620431 -0.083741 0.037716 -0.640895 -0.763330 -0.821911 -0.925368 0.332217 -0.512497 -0.828137 0.514798 0.629552 0.495066 0.082098 0.057855 -0.049154 -0.084529 0.418008 0.491180 -0.159632 -0.315476 -0.765255 0.433919 -0.893123 -0.984415 0.142985 -0.377503 -0.962527 -0.123782 0.681167 -0.708235 0.255787 -0.402574 0.329481 0.614892 -0.165904 0.507570 0.689523 -0.833687 0.995073 0.861386 0.681111 0.624625 0.356452 -0.236791 -0.317520 -0.692702 0.678680 -0.899513 0.798478 -0.480952 -0.214989 -0.966777 0.952967 -0.108111 -0.951192 0.095952 0.514386 -0.913719 0.972170 0.195553 -0.621954 0.227957 0.792979 0.707527 -0.157152 -0.372925 0.215097 -0.467628 -0.206613 0.210169 -0.606243 -0.525501 -0.165206 0.750209 0.237707 0.517274 -0.942493 -0.083612 0.617761 0.855985 0.435436 -0.597228 0.889208 0.388403 0.294661 0.938016 -0.515645 -0.190953 -0.975703 -0.543474 -0.995400 -0.597657 0.684482 0.797578 -0.890130 -0.472669 -0.575347 0.324966 0.059702 0.218040 -0.464864 0.453460 0.692539 0.369930 0.203669 -0.069754 -0.112797 0.261175 0.846634 -0.495036 0.117160 0.282070 -0.092263 0.006368 -0.329527 -0.797602 -0.055616 0.154828 0.011445 -0.031319 0.611354 0.016045 0.371024 0.295837 -0.186377 0.480893 0.823167 0.238276 -0.194141 -0.117130 -0.543684 0.340995 -0.663671 -0.851145 -0.289075 0.539998 0.079101 0.598128 -0.198827 -0.074265 -0.896908 0.918334 -0.792195 0.010829 -0.075298 -0.121722 0.213227 0.869086 -0.966893 -0.775328 -0.162233 0.644461 0.240717 -0.791209 -0.059703 -0.945660 0.689684 -0.236535 0.292615 -0.504456 0.646334 0.748931 0.836539 0.982664 0.897786 -0.452537 0.522662 -0.023113 -0.854409 -0.676165 0.902622 -0.751317 -0.757831 -0.889573 0.259512 0.166871 -0.011295 -0.527261 0.035957 0.021812 -0.302589 0.873725 -0.333727 0.938128 -0.917484 0.606570 0.992467 0.772200 -0.629965 0.285082 -0.732257 -0.983631 0.034013 -0.895718 0.999032 -0.068201 -0.348255 0.521694 0.908687 -0.202664 0.845529 0.811309 0.046019 -0.912302 0.921736 -0.694470 0.254569 -0.089558 -0.221731 -0.709474 0.932254 0.475680 -0.835749 -0.401473 0.413808 -0.753233 -0.794903 0.406275 -0.981034 -0.424869 -0.308643 -0.713290 -0.408500 0.725370 -0.609008 -0.409468 -0.342830 0.042737 -0.887774 -0.434144 0.840072 0.957755 -0.622835 -0.113909 -0.954547 -0.701099 0.191622 0.300022 0.209343 0.969891 0.590549 0.141597 0.445571 0.754800 0.740123 -0.140621 -0.998434 0.945220 -0.734347 -0.979467 -0.479649 -0.042990 -0.692757 0.111851 -0.317619 -0.301766 0.702383 0.339550 0.740971 0.814610 0.905406 0.581043 0.772365 -0.717429 -0.532866 0.817818 -0.418527 0.658756 0.117840 0.790816 0.628647 -0.291611 -0.067588 0.074218 -0.536812 -0.327465 0.933597 -0.535245 -0.382245 -0.800750 -0.514713 0.138106 0.156261 -0.207470 -0.750043 0.838641 0.490764 0.952340 0.178191 0.231735 0.766950 0.083598 -0.187221 0.539315 0.366169 0.279913 0.357133 0.947642 -0.061331 -0.525027 0.738458 -0.432684 0.183362 -0.329130 0.641534 0.646551 0.343405 0.575131 -0.888695 0.961160 0.774381 -0.403407 0.099265 -0.069358 0.389123 0.349222 -0.230717 -0.120113 0.301563 0.947474 -0.888378 0.068512 0.031072 -0.075599 -0.392173 -0.602759 -0.795686 0.964960 -0.655117 0.142983 -0.560066 -0.916659 0.710299 0.623296 -0.245790 0.351833 0.269846 -0.902385 -0.073036 0.381152 -0.941225 -0.298655 0.977744 0.158040 0.631986 0.366867 -0.492738 -0.598731 -0.753246 0.808825 -0.651257 -0.641624 -0.122663 0.379815 0.282777 0.485165 0.777056 0.487090 0.450125 -0.878061 -0.369927 0.890059 -0.794720 -0.659628 0.513354 -0.040510 0.692205 -0.216799 0.057105 -0.380832 -0.835648 0.115880 0.320513 -0.857903 -0.726080 -0.047501 0.508964 -0.218818 0.353768 0.755718 -0.409993 0.702512 -0.885906 0.467345 0.082327 0.396871 -0.047490 -0.140617 -0.116039 -0.597365 -0.018678 0.514035 -0.707307 0.186602 0.854406 0.806047 -0.853908 0.546611 -0.410752 0.203197 -0.834221 -0.246399 -0.680923 0.486292 -0.104302 -0.407003 -0.561209 -0.595339 0.374180 0.792560 -0.839620 0.964187 0.495072 -0.725526 0.431532 -0.422602 0.671345 -0.615958 0.436781 -0.444694 -0.213324 -0.581897 -0.930659 0.079369 0.604706 0.923747 -0.114583 0.750798 0.470358 0.474665 -0.046005 0.636137 -0.771734 0.273072 0.122429 0.123963 0.866070 0.561220 0.528625 0.240249 0.353780 0.689004 0.204437 -0.151149 0.963478 -0.364031 0.426250 0.634823 0.020010 -0.136969 -0.809871 0.806686 0.281134 -0.740530 -0.113944 -0.114160 -0.816783 0.771472 -0.363362 0.653575 0.246137 0.590633 0.289712 0.474403 -0.136295 -0.587859 -0.401634 -0.270225 0.973361 -0.873010 0.970025 0.327141 0.815994 0.174461 -0.824008 0.779472 0.810430 0.602242 0.414295 -0.169560 -0.534727 0.604424 -0.362873 0.746407 0.863894 0.523182 -0.367753 -0.952890 0.294654 0.268885 0.700685 -0.459208 -0.140483 -0.009603 -0.984806 0.723223 0.402538 -0.386440 -0.547002 0.375899 -0.259450 -0.576977 -0.296961 -0.443456 0.597484 -0.120969 -0.663983 0.407914 -0.518727 0.750311 -0.761646 -0.053454 0.354735 -0.124519 -0.307047 0.218629 -0.601337 0.325200 0.265739 0.693318 -0.405916 -0.033576 -0.765891 0.453602 0.956821 -0.750697 0.176824 0.359359 -0.137137 0.629822 -0.264743 0.603414 -0.947155 0.438297 -0.840042 0.650329 -0.682672 -0.504026 0.058243 -0.201399 -0.753714 0.296597 0.745147 0.601021 -0.827922 -0.561901 -0.180351 -0.429259 0.763299 -0.914612 -0.735942 -0.642617 0.051812 -0.501832 0.810984 0.008633 -0.252529 -0.012191 -0.632008 0.610334 -0.382369 0.103250 0.213748 -0.329524 -0.458454 0.373706 -0.679195 -0.141126 0.869680 0.379048 0.657475 -0.884034 -0.324355 0.402622 0.716987 -0.152277 0.840721 -0.463364 0.418464 0.604020 -0.377976 0.682522 0.961403 0.673837 -0.819310 0.772388 -0.317530 -0.071839 -0.239804 0.050462 -0.461505 0.377828 -0.846288 0.752243 -0.951696 -0.304742 0.125949 -0.630891 0.554132 -0.004371 0.748157 0.211607 0.111595 -0.576198 -0.385771 -0.171418 0.271525 -0.545050 0.365218 -0.310012 -0.941029 0.987243 -0.627490 -0.979626 0.661079 -0.446800 0.792761 -0.656451 0.481361 -0.447042 0.394012 -0.980144 0.930786 0.547724 0.772099 0.979089 -0.757018 -0.101952 -0.651802 0.797114 0.893678 -0.903645 0.008721 0.005273 -0.479843 0.622950 0.833855 0.791682 -0.922099 0.199073 -0.518330 -0.863129 0.186316 -0.145819 -0.842755 -0.152605 0.407381 0.950007 0.190945 -0.111258 -0.497036 -0.415044 -0.091402 -0.566250 -0.867320 -0.319302 -0.587161 -0.624338 0.578746 -0.238962 -0.827225 0.472424 -0.142607 0.181497 -0.522303 0.377550 -0.195553 -0.688448 0.169232 -0.117652 0.510625 0.650902 0.019219 -0.303059 -0.494917 0.176464 0.544337 0.912463 0.126471 -0.264718 -0.198795 0.629435 0.320238 0.709803 -0.936814 0.452918 -0.609499 -0.523975 0.828580 0.969247 0.237063 -0.998645 0.441671 -0.905544 0.182852 0.919367 0.472006 0.987299 -0.769081 -0.358762 -0.130354 0.741544 -0.707860 0.888865 -0.561514 -0.202777 0.065330 0.982823 -0.290314 -0.808199 -0.281896 0.510892 0.821236 -0.961658 0.220695 0.884422 0.491260 0.611196 -0.639553 0.319840 0.580443 0.597509 0.321195 0.022113 0.691965 -0.495953 -0.058519 0.163972 -0.508655 0.172400 0.805210 0.360992 -0.086056 -0.902650 0.249857 0.352430 -0.105427 -0.684813 0.335252 0.604259 -0.493012 -0.946643 0.115151 -0.671776 -0.908301 -0.664154 -0.787355 0.582959 0.947042 -0.426908 -0.097200 0.527485 -0.829399 -0.776005 -0.450401 0.862567 -0.271959 0.491079 0.026538 0.219387 -0.336521 -0.168252 -0.419622 0.577423 -0.070902 0.830235 -0.070147 0.823671 -0.854578 -0.734895 0.427930 -0.347591 -0.681538 -0.456919 -0.019367 -0.589839 -0.121072 0.193278 0.993121 -0.174030 0.766370 -0.104080 -0.646545 0.936972 0.119915 -0.096946 0.799539 0.847956 -0.605867 -0.173923 0.067343 0.057612 0.657825 0.647721 -0.364965 -0.413076 0.477956 0.564888 -0.589405 0.623378 0.829993 0.838525 -0.724213 -0.851544 -0.618394 0.256420 -0.441383 0.260534 -0.550301 -0.448263 -0.913496 -0.783931 0.447657 -0.560041 -0.846959 -0.432428 0.343013 0.952580 -0.584472 0.737146 -0.221343 0.482871 -0.205242 -0.563518 0.130592 0.429793 0.023406 -0.391453 -0.005319 0.434001 -0.768075 -0.175325 0.272526 -0.492287 -0.026870 0.654132 0.764133 0.531747 -0.085334 -0.786168 -0.916516 0.001170 -0.570098 0.531141 0.441129 -0.417057 -0.901287 -0.215859 -0.464477 -0.485759 -0.478713 0.314180 0.997112 0.316045 0.750663 0.127703 -0.254163 -0.225931 0.736251 0.740519 -0.791931 0.968176 -0.434807 0.480595 -0.524111 0.538323 0.134727 -0.759978 0.070070 -0.950607 -0.546146 0.153554 0.050563 -0.116244 -0.315305 -0.508308 0.466699 -0.216592 0.275833 -0.997778 0.297649 0.797120 0.316402 0.294761 0.113165 0.067065 -0.577536 0.859002 0.841133 -0.841285 0.599521 -0.950797 -0.873109 -0.835286 0.529798 -0.397220 0.703037 -0.335475 -0.157198 -0.226894 -0.286082 0.296656 0.926660 0.764481 -0.819589 -0.388646 -0.743827 0.647110 0.394762 0.532006 0.649332 -0.307589 0.329126 -0.034266 0.987171 -0.557709 -0.967202 -0.590365 -0.698707 0.873932 -0.431650 0.900813 0.923134 -0.304759 -0.934473 0.452932 0.298020 0.768563 -0.882543 -0.859178 -0.458330 -0.168625 0.437477 -0.531670 -0.404144 0.617889 0.079684 -0.147971 0.264999 -0.525554 -0.615965 -0.085670 0.166857 0.713162 0.880064 0.154028 -0.844548 0.912862 0.563664 -0.543255 0.786794 -0.867987 -0.642442 0.709928 -0.172746 -0.576915 0.162860 -0.874726 -0.808351 0.280317 -0.733904 -0.266682 -0.888308 0.703573 0.201648 -0.292452 0.321462 -0.718668 0.559577 -0.413540 -0.244222 0.943613 0.500791 0.922635 0.656774 0.380855 0.076663 0.812227 0.293717 -0.359673 -0.731028 0.080511 -0.227660 -0.373469 -0.209560 0.599594 0.049616 0.953300 0.724868 0.241264 0.233617 0.990964 0.974583 0.345309 0.694537 0.176231 -0.947143 0.015999 0.457563 0.612435 0.602459 -0.786659 0.556047 0.103250 -0.864024 0.212822 -0.515895 0.212640 0.025049 0.777823 0.852967 0.294021 -0.141666 -0.374693 0.920551 0.648773 -0.775099 -0.029833 0.602073 0.949770 -0.788569 -0.164310 0.940734 -0.813986 -0.819001 0.635271 0.362245 -0.766143 -0.348730 -0.180192 0.846291 -0.746271 0.033149 0.402339 0.356980 0.169125 -0.384840 0.841085 -0.618236 0.640209 0.618907 -0.765269 -0.065771 -0.522759 -0.139962 -0.145220 -0.873985 0.084939 0.824947 0.728088 0.034709 -0.963621 -0.436222 -0.024557 -0.777607 -0.255222 -0.389286 0.584638 -0.021365 0.261984 -0.595554 -0.175074 0.515714 0.437594 -0.772736 -0.127306 -0.393281 -0.157576 -0.286222 -0.011516 -0.517367 -0.667314 0.223214 0.416862 -0.190073 -0.916748 -0.728357 -0.064058 0.168191 -0.903410 -0.335970 -0.797100 -0.867032 0.227808 0.178344 -0.644639 0.972586 0.789058 0.939999 -0.048779 0.051042 -0.655555 0.776146 -0.433244 0.782039 -0.996590 0.439450 -0.611242 -0.154165 -0.846772 0.377242 0.328468 -0.514086 -0.399544 -0.254670 0.295841 -0.316292 0.016973 -0.768218 0.851900 0.113563 -0.104188 -0.945200 0.246532 -0.876380 0.233144 0.601893 -0.903794 0.022202 0.541892 0.047427 -0.926756 0.886337 -0.176427 -0.360000 0.668376 -0.173016 -0.920550 -0.942866 0.672818 -0.767322 0.434376 0.001287 -0.281409 -0.965168 0.746617 -0.985568 -0.281460 -0.236410 -0.753786 -0.429560 0.877153 0.142026 -0.374760 0.123685 0.265647 0.858384 -0.274422 0.361853 -0.119414 -0.732530 -0.590720 -0.046170 -0.846194 0.232853 0.593830 0.822182 -0.940163 0.673279 0.879316 0.732655 0.905957 0.313692 -0.266058 -0.375452 0.348524 -0.519441 -0.361020 -0.932936 0.244149 -0.114805 -0.362496 0.121302 -0.972779 0.262745 -0.755013 0.292868 0.121129 -0.029435 -0.345279 -0.998285 0.238035 0.064001 -0.044455 0.391841 -0.703146 -0.450626 0.214023 -0.643309 -0.777346 0.093339 -0.910654 -0.871389 -0.592969 -0.176712 -0.246841 0.755555 0.303846 0.392140 0.822619 -0.452005 -0.722665 -0.539876 0.669297 -0.695444 0.722869 0.914284 0.597424 -0.156002 -0.115151 -0.747855 -0.154287 -0.877116 0.316146 0.801257 0.514725 0.613001 -0.649368 -0.271252 0.969692 -0.426715 0.822087 -0.940962 -0.298104 -0.770881 -0.117675 0.455056 0.984674 -0.813828 -0.152804 0.807293 -0.265833 0.124530 -0.732583 -0.596536 0.429086 0.990286 -0.682252 0.026510 -0.165717 0.202597 0.278655 0.679996 0.325481 -0.405198 0.481253 -0.159795 -0.792197 0.831885 0.568953 -0.822506 -0.594830 0.391040 -0.763468 0.107066 0.620159 0.118857 -0.437878 0.604833 0.305029 0.409318 0.412126 -0.960805 -0.466152 0.679543 -0.557341 0.962934 0.669829 -0.239593 -0.010556 -0.495888 0.963004 -0.731900 -0.815892 0.288485 -0.137098 0.665361 -0.871310 0.070704 0.497245 0.697643 0.248198 0.902415 0.088683 0.484730 0.009482 -0.291158 -0.396413 0.571604 -0.686325 0.908616 -0.019078 0.725801 0.947811 0.514769 0.405344 -0.609530 0.477703 0.075172 0.150877 -0.532852 0.579284 0.113882 -0.264752 0.763392 -0.597634 0.598149 0.428753 -0.468944 -0.331146 -0.074002 -0.771301 0.917052 -0.171586 0.317382 0.401782 0.837895 -0.973776 -0.994631 0.409499 -0.660102 0.913985 -0.609579 -0.934301 0.861796 0.905190 0.471043 -0.747734 0.382894 -0.453784 0.403143 0.850041 -0.874500 -0.482975 -0.414711 0.888892 -0.080609 -0.816562 0.317645 0.450447 -0.147708 -0.756357 0.679146 -0.230656 0.072057 -0.003472 -0.828874 -0.090048 0.022751 -0.823505 -0.680548 0.362650 -0.909520 -0.290128 0.428349 0.952276 -0.384937 -0.100608 -0.795458 0.997956 0.445608 0.607685 0.847998 0.571108 -0.875290 -0.566713 0.460000 0.044101 -0.383275 -0.222355 -0.505452 0.469017 0.021288 -0.826306 -0.761640 -0.906655 0.170222 -0.590514 0.003297 -0.807026 -0.414019 0.322749 0.555624 -0.323539 -0.967379 -0.016027 -0.371263 -0.352316 0.883365 -0.166722 -0.354360 0.328973 -0.559036 -0.506362 -0.099920 -0.434326 -0.073075 -0.639920 0.609775 0.543650 0.137724 -0.895676 0.012666 -0.840988 -0.721982 0.251027 -0.747643 0.448240 0.660513 0.255654 0.641214 -0.753506 -0.421597 0.196837 -0.077045 -0.388976 -0.819190 0.551692 0.258708 -0.935825 -0.615030 0.904348 0.393148 -0.174066 -0.602014 -0.706772 0.391607 0.324911 -0.346692 0.001383 -0.131440 0.791032 0.105706 0.881227 0.950044 0.383724 0.132254 -0.797598 -0.168036 -0.207233 0.458056 -0.526822 0.039261 -0.963541 0.670016 0.962215 -0.352518 0.850826 0.513907 0.906190 0.915001 0.898877 0.810538 0.308148 -0.275190 -0.791476 0.601376 -0.883582 0.533434 -0.745316 0.117800 -0.598005 -0.954284 -0.776493 -0.716779 0.995760 0.607231 0.415475 -0.801838 -0.560805 -0.791758 0.656218 -0.087626 0.247502 0.692676 -0.417611 0.209718 -0.659842 -0.566785 -0.276375 -0.753652 -0.651784 -0.377498 -0.943114 0.656365 0.347312 -0.734590 0.257741 0.463730 0.798844 0.512424 -0.418470 -0.799162 0.558140 -0.194963 -0.515940 0.553900 -0.587732 0.899535 0.752062 -0.148536 -0.892223 0.408280 0.763837 0.355279 0.100956 -0.653773 -0.435003 0.441114 -0.220558 0.288622 0.687463 0.127658 0.911123 0.744349 -0.215977 0.258435 -0.990242 -0.958236 -0.277835 0.808602 0.554188 0.303695 -0.990560 0.112328 -0.891268 -0.506500 -0.333771 -0.478999 -0.606964 -0.581709 0.372464 -0.499188 0.826570 0.136301 0.856092 -0.072474 0.482528 -0.578911 -0.631360 -0.738030 0.709710 -0.943897 0.389629 0.620834 0.800451 -0.826349 -0.120731 0.810210 -0.784585 0.601434 0.618811 0.769603 -0.094871 0.628252 -0.118069 0.013862 -0.878248 0.548160 0.534862 -0.485212 0.966451 -0.092674 0.015600 0.793021 -0.956372 -0.128308 -0.279453 0.526156 0.292781 0.089187 0.788127 0.002491 0.145290 0.177755 -0.376675 -0.054259 0.351406 0.502594 -0.244049 0.566821 0.104027 -0.625238 0.336424 -0.990843 -0.996986 -0.781644 0.023018 -0.875233 0.766515 -0.442119 -0.360446 0.732966 0.465207 0.655155 0.525987 0.508835 -0.473153 -0.753466 0.034991 0.819627 0.335722 -0.176882 -0.177881 -0.518988 -0.999127 0.445443 0.426753 0.352279 -0.051963 -0.817296 -0.080900 -0.947936 -0.442534 -0.744475 -0.938779 -0.439519 -0.526120 0.084240 -0.314753 -0.759604 0.642120 0.324802 0.973362 0.107328 -0.020044 0.499349 -0.383837 0.506803 0.745883 0.651154 0.326430 0.081605 -0.525728 -0.851451 0.562617 -0.524855 0.593992 -0.010630 0.827424 -0.457971 0.172074 -0.253476 -0.405907 0.729541 0.002049 -0.344685 -0.709979 0.475929 0.739554 -0.024731 0.716325 0.381675 -0.699930 0.689687 -0.510998 0.280026 0.189036 0.105165 -0.213171 -0.065081 -0.243681 -0.886741 -0.983475 0.230591 -0.738192 0.579142 0.705736 0.855800 -0.431488 0.533159 -0.602171 0.740586 -0.720316 -0.008078 0.470127 0.281733 0.647237 0.760148 -0.242338 0.386791 -0.264583 -0.526013 -0.231534 0.035487 -0.836326 0.257468 -0.684486 0.352710 -0.637367 0.102343 -0.712370 0.118952 0.215602 -0.695845 -0.650457 0.477410 0.883296 -0.944722 0.333210 -0.548192 0.588438 0.731038 -0.807605 0.868121 -0.277040 0.662522 0.149854 -0.629803 0.422670 0.907516 0.756988 -0.841913 -0.618496 -0.474547 0.193575 -0.454822 0.782921 0.509088 0.897888 -0.854446 -0.388569 -0.814482 0.264506 0.827033 -0.510327 0.614048 0.304443 -0.627031 0.669327 -0.362347 -0.175222 0.257764 -0.631309 0.017173 0.125886 0.091651 -0.320306 -0.724260 0.461848 -0.897635 -0.816744 0.218835 -0.739548 -0.435240 0.744289 0.454027 0.109938 0.527210 -0.036884 0.007826 0.672763 0.574547 0.193345 -0.062731 0.401580 0.683018 -0.448682 -0.293977 -0.944013 -0.779356 0.343676 -0.119235 0.478409 0.712367 0.897937 -0.395706 -0.195982 -0.422368 -0.119966 -0.734134 -0.320003 0.063291 0.484701 -0.059551 0.628051 0.228990 -0.605524 -0.262011 -0.243801 0.357592 0.745815 -0.571037 -0.067862 -0.060840 0.366232 -0.666282 -0.377823 0.917550 0.039742 -0.321836 -0.861806 -0.616583 0.558929 0.616603 -0.904216 0.456866 -0.779103 -0.100198 -0.965502 0.100931 0.165668 -0.285506 -0.835778 -0.349631 0.654943 0.792273 0.879359 -0.950581 -0.469739 -0.364442 0.407011 -0.723924 0.064521 -0.660851 0.215236 -0.569247 -0.327133 0.837413 -0.651697 0.712609 -0.484423 -0.513504 -0.903974 -0.925494 -0.896901 -0.808190 0.531373 -0.676004 0.091613 0.565870 0.424928 -0.742720 -0.719635 0.589150 -0.092351 0.935308 0.381422 -0.212992 0.984727 0.911683 0.422566 0.391738 -0.812241 -0.512913 0.730887 0.402995 -0.082160 -0.596246 0.240408 0.266142 -0.883637 0.755985 0.752639 -0.787611 0.830492 0.855738 -0.595800 0.361864 -0.820266 0.495812 -0.072265 0.604662 0.753092 0.208100 0.193811 -0.339259 
0.143408 -0.424767 0.447749 0.128135 -0.513084 -0.129685 -0.480127 -0.325324 0.357402 -0.749241 -0.922329 -0.724759 -0.345487 0.318079 0.541384 -0.229124 0.074064 0.294022 -0.016735 -0.095444 0.149760 0.387465 -0.733580 0.329494 -0.116723 0.194155 -0.065844 -0.363630 -0.597745 -0.872033 0.297111 0.545663 -0.296800 -0.255140 -0.326203 0.190116 0.615175 0.193670 0.864792 -0.027423 0.444429 0.942463 0.247819 -0.901058 0.260541 -0.210798 -0.130181 -0.665395 -0.916775 0.853084 0.239161 0.232985 0.240549 0.505582 -0.437521 -0.876174 -0.300263 0.496635 -0.239804 0.101992 0.624602 -0.942693 -0.352345 -0.672198 -0.197833 0.321452 0.517918 -0.582658 -0.484878 0.382710 0.389919 0.959552 0.325173 -0.362262 -0.941506 -0.414286 0.426940 -0.071687 -0.079680 0.510165 -0.218603 -0.840519 -0.256850 -0.978055 0.665063 0.305629 -0.854228 -0.635200 -0.197736 -0.094033 0.466793 -0.573134 -0.036726 -0.885552 -0.245332 0.765441 0.435900 -0.727414 -0.817217 0.951023 0.655296 0.572702 0.910574 -0.019531 -0.789560 0.969068 0.566183 0.637381 -0.102619 -0.513497 0.147546 0.678777 -0.354016 0.890696 0.700723 -0.688954 0.196326 0.846494 -0.324153 0.998590 -0.247539 -0.857361 -0.574544 0.715735 -0.742913 0.180124 0.481176 0.692987 0.452709 0.663959 0.644009 0.108005 0.236661 0.554583 -0.911526 0.447102 0.523652 0.654657 0.084483 -0.578968 -0.858840 -0.767971 -0.900190 -0.212857 -0.877275 0.800532 0.098190 0.319051 0.647027 0.774036 0.317641 -0.600512 0.916676 0.743097 -0.884777 -0.826238 -0.076779 0.596399 0.866749 -0.624070 0.260358 0.510759 0.483935 -0.502980 0.065342 0.572409 0.944122 -0.411006 0.227067 0.028604 0.010026 0.368226 0.260633 0.109836 -0.844630 0.383358 -0.089632 0.253559 -0.297591 -0.442605 0.027596 -0.979950 -0.043117 -0.055729 0.763147 0.072106 0.118034 -0.313633 -0.331494 -0.015217 0.062297 0.928864 -0.504459 -0.453767 -0.574116 0.560883 -0.881358 -0.629995 -0.850123 0.345709 0.398610 0.159903 -0.286065 -0.340757 -0.730261 -0.130695 -0.957399 0.180107 -0.877136 -0.254990 0.737502 0.150460 -0.234941 -0.305615 -0.905269 -0.471794 0.766491 0.212765 0.214574 -0.565004 -0.802452 -0.723129 -0.636140 -0.306911 -0.176896 -0.210256 -0.746028 -0.058254 0.159749 -0.596151 -0.712546 -0.441641 0.563752 0.001390 0.217602 0.833491 0.870694 0.260203 0.013598 0.993559 -0.994788 -0.248900 0.144018 -0.229728 0.445485 0.238750 0.298478 0.211976 -0.548485 -0.486949 0.646972 -0.350937 -0.210078 -0.989167 0.342152 0.613026 -0.199423 0.596124 -0.445228 0.960326 0.999974 -0.157774 -0.481315 0.563726 0.843616 0.736287 0.397217 0.714310 -0.003510 -0.589185 0.707869 0.001702 0.161915 -0.148113 0.771974 -0.392600 -0.909363 0.070452 0.819376 -0.457848 0.583503 0.466348 0.191214 -0.626575 0.477181 -0.466634 0.986451 -0.722243 -0.870510 -0.458777 -0.761917 -0.870536 0.383449 -0.243231 0.693190 0.227065 -0.506944 0.090407 -0.058625 0.489546 0.501222 -0.350756 -0.508752 -0.336862 0.501131 -0.736778 0.270538 0.591767 0.333673 0.089914 -0.866081 -0.082824 -0.443738 0.325133 0.290602 -0.966557 0.858499 0.277053 -0.688800 0.987989 0.818276 -0.450717 -0.882547 0.201725 0.306052 0.810642 -0.571210 0.799108 -0.098951 0.370165 0.288653 -0.597729 -0.980591 0.779901 0.065409 0.520539 -0.956877 -0.664053 0.112307 0.376796 0.425861 0.246226 -0.706028 0.982123 -0.428641 0.584574 -0.984434 -0.570142 -0.138373 -0.673234 -0.582153 -0.320097 -0.123951 -0.464700 0.881629 -0.817899 -0.654058 -0.689581 0.981208 0.246991 0.680584 0.269862 0.649262 0.699992 0.049763 -0.285329 0.220531 0.092886 0.050618 -0.667162 -0.530318 -0.523521 0.579064 -0.236346 -0.541398 -0.849577 -0.651772 -0.525832 -0.419720 0.209855 -0.199067 -0.001873 0.889758 0.676982 0.533427 0.771387 0.859083 0.879369 -0.918194 0.840291 0.126359 0.762389 0.110153 -0.224379 0.462382 -0.840084 0.490292 -0.317087 0.252802 -0.459090 0.015751 0.722483 0.017390 -0.405185 -0.513863 0.475992 -0.254763 -0.165635 0.950160 0.325517 -0.955780 -0.248907 -0.676355 0.933978 -0.571924 0.857072 0.705366 -0.712842 0.736440 0.787171 -0.872550 -0.137201 0.549560 0.237603 0.638420 0.011942 0.397519 0.128713 0.694855 -0.349679 0.669623 -0.289394 -0.627196 -0.312988 0.305420 -0.141059 -0.836996 -0.949343 0.693306 -0.886836 0.376175 0.737526 -0.135743 0.699820 0.671504 0.292333 0.556892 0.376870 0.579491 0.293332 0.164041 0.706941 -0.843869 -0.286398 -0.055456 0.794551 0.725544 -0.657937 -0.076736 0.420399 -0.007616 -0.407113 -0.868996 0.365188 0.279899 0.436425 -0.775871 0.442903 0.487082 0.917435 0.556067 -0.136743 0.654961 -0.579675 -0.436923 0.326465 0.712657 -0.880032 -0.296665 0.292149 0.413300 0.867376 -0.000910 0.569431 -0.419022 0.943634 0.363983 -0.693478 -0.714303 -0.712753 0.726920 0.278081 -0.119866 0.857925 -0.356731 -0.839967 0.294350 -0.132602 0.602936 -0.218568 -0.215167 0.159003 0.644689 -0.560206 0.579328 -0.792234 0.766260 0.291985 -0.672265 -0.530405 -0.415866 0.741035 -0.663029 0.583223 0.310466 -0.082051 0.526857 -0.325551 0.224471 0.812554 -0.038304 -0.048609 0.090636 0.841829 -0.190684 0.733905 -0.998138 -0.896334 -0.398697 0.604798 -0.114902 0.386137 -0.236198 -0.470213 0.825931 -0.656871 -0.262447 0.592191 0.635114 0.065288 -0.938214 -0.780752 -0.193677 -0.601243 0.802472 -0.883211 0.316706 0.329329 -0.208763 -0.458823 0.141883 0.752933 0.492569 -0.767481 0.594762 -0.698115 0.966424 0.596625 -0.594449 -0.432273 0.201423 0.290649 0.953864 0.965224 0.820436 0.779795 -0.691646 -0.442011 0.371986 0.943468 0.623277 0.433771 -0.837284 -0.570401 0.832528 0.965188 -0.453612 0.149234 0.294517 0.337625 0.690412 -0.563600 0.090559 0.182981 -0.331081 -0.314679 0.484866 -0.364656 -0.718054 0.890417 0.203071 0.483368 0.181066 0.156935 0.448592 0.001502 -0.063270 0.756946 0.559491 -0.691284 0.700414 0.182767 0.742487 0.863130 0.612367 0.575015 0.828318 -0.841246 -0.275750 0.122835 0.496380 -0.585338 0.559235 -0.413062 0.597642 -0.771845 0.272259 0.082508 -0.136502 0.554205 -0.027075 -0.933431 0.037573 -0.846009 0.223504 -0.513834 0.155492 -0.839765 -0.756888 -0.285017 -0.531049 0.943526 0.897750 -0.788562 0.806656 0.510117 0.786453 0.634974 0.668871 -0.489297 -0.242191 0.165251 -0.074636 -0.682955 0.752190 -0.476993 -0.454800 0.024449 0.605515 0.408698 -0.421346 -0.421561 0.475267 0.616227 -0.267570 -0.301228 -0.897607 0.887922 -0.140994 -0.654495 -0.397095 0.327957 -0.710970 -0.499345 0.539395 -0.904314 -0.989228 0.325848 0.730661 0.679643 0.836551 -0.511530 -0.155106 -0.238085 -0.194485 -0.402916 0.284922 0.350714 0.621533 -0.109564 -0.240588 -0.799813 0.468876 -0.765321 0.816414 -0.798694 -0.066549 0.918807 -0.910772 0.792458 -0.735689 -0.307867 0.120415 -0.446658 0.192789 -0.340191 -0.350972 0.203561 0.985657 -0.620311 -0.116796 0.822208 -0.131841 0.728098 -0.415877 0.673673 -0.674818 0.869044 0.024387 0.946714 -0.240519 0.783800 -0.853099 -0.771644 -0.981521 0.963315 -0.570338 -0.048070 0.882122 -0.481110 -0.255612 -0.853567 0.211023 0.864802 -0.300225 -0.596188 -0.475388 0.348803 0.607372 -0.489731 0.728492 -0.509424 -0.667523 -0.403349 -0.781326 -0.083400 -0.729676 -0.456144 -0.214356 0.294712 -0.509430 0.545125 0.078511 -0.362529 0.773481 0.096990 -0.399214 -0.796857 -0.951080 -0.517092 -0.277968 -0.206692 -0.370659 0.933055 -0.341890 0.329116 -0.663133 0.182722 -0.322081 0.944239 0.692991 -0.593589 -0.565185 -0.974533 0.003062 -0.346511 -0.057933 0.273386 0.197344 0.727711 -0.431903 0.687914 0.272835 0.646609 -0.674615 0.046316 -0.256401 -0.073828 0.249459 -0.207481 0.409079 0.971491 0.585827 -0.961579 0.904546 -0.756063 0.367537 -0.758587 0.426659 -0.954544 -0.814348 0.119650 -0.548133 -0.379533 0.145117 0.454929 0.273956 -0.912816 -0.271685 -0.528700 0.814895 0.296413 -0.840786 0.087731 -0.056979 -0.515401 -0.865953 0.686620 0.410771 0.383506 -0.520861 -0.180150 0.354997 -0.935034 -0.141729 0.259543 -0.691097 -0.774192 0.500956 0.735563 -0.728736 0.686609 -0.144787 -0.276869 -0.692924 -0.999670 -0.821940 0.581031 -0.912486 -0.093624 -0.947669 0.902410 -0.797212 -0.788455 -0.009860 0.145810 -0.303856 0.124187 -0.167570 -0.893085 -0.492307 0.311568 -0.073235 0.862689 0.376535 0.785035 0.122232 0.685438 -0.989157 -0.376811 0.421001 -0.717893 -0.690203 -0.723786 0.005238 -0.383127 -0.723456 0.183298 -0.802096 -0.635942 -0.910326 -0.749765 -0.733532 -0.707538 -0.538220 0.256608 0.438272 0.157924 -0.619205 -0.729299 0.264838 -0.111512 0.582270 -0.808397 -0.248823 -0.041196 0.976638 0.873409 -0.355758 0.987481 -0.503402 -0.934757 -0.730412 -0.193605 -0.658543 0.274826 0.423268 -0.381999 -0.541876 0.621172 -0.017941 -0.452202 0.871407 0.248527 -0.159740 -0.666813 -0.494865 -0.721469 0.491111 -0.114069 -0.450767 -0.244051 0.774418 -0.868498 -0.052448 -0.474405 0.090306 -0.075809 -0.600995 0.734549 -0.088328 -0.104398 0.799792 0.181260 0.701997 -0.858752 -0.543914 0.125265 -0.240751 -0.085790 -0.253562 0.741308 0.462007 -0.382155 -0.010165 -0.697733 -0.048968 0.494971 -0.419202 -0.557857 -0.619099 0.130031 0.198093 -0.844680 0.261533 -0.854355 -0.319085 -0.648160 0.069835 0.079920 -0.913612 0.981507 0.975522 0.886180 0.162767 0.677520 -0.972571 0.618853 -0.197215 -0.213322 -0.466937 0.549223 -0.472014 0.995070 -0.832932 0.517821 -0.702663 0.118100 0.012791 -0.121864 0.560243 0.393693 -0.991833 -0.241664 0.549012 0.269700 -0.096020 -0.770073 0.621540 0.973816 0.309847 0.707928 0.955323 0.285369 0.594108 0.118090 -0.037111 0.621537 -0.263057 0.765674 -0.591786 0.270006 0.314896 -0.063800 0.265076 0.481964 -0.545979 0.562414 -0.399936 0.466812 -0.559451 -0.839693 -0.139495 -0.551284 -0.081358 -0.590483 0.718416 0.822623 -0.360556 0.339955 0.796438 0.949291 0.047883 0.751761 0.234661 -0.358008 -0.130149 -0.802450 -0.736472 0.606794 0.963224 -0.328257 -0.123200 0.278120 0.607943 -0.858123 -0.239916 -0.938037 0.704290 0.360148 0.528775 -0.855160 0.520455 -0.610720 -0.406445 -0.560903 -0.201203 -0.688029 -0.738280 0.438241 0.651927 -0.941842 0.387532 -0.300190 0.809919 -0.377807 0.341802 -0.320230 -0.180257 0.605330 -0.713435 -0.217034 -0.722927 0.163365 -0.938913 0.885015 0.305242 -0.178829 0.946979 0.009532 -0.818681 0.475754 0.154372 0.701774 0.865033 0.747927 -0.859129 -0.336170 -0.940101 -0.597409 -0.897929 0.711825 -0.539251 0.489603 -0.588365 -0.729332 -0.888204 0.753437 -0.049562 -0.068461 0.358767 0.237003 0.714505 0.635840 -0.599632 0.775592 0.520855 0.705610 -0.403238 0.467834 -0.284858 -0.221919 -0.056413 0.869514 -0.520145 -0.191379 0.617442 -0.379274 0.472451 0.677340 0.023316 0.574522 0.389165 0.484065 0.064125 0.800801 0.754733 0.175921 0.554237 -0.294828 -0.892541 -0.086996 0.942174 0.821965 -0.451156 -0.657458 0.597556 -0.930301 -0.951848 -0.805682 0.537533 -0.236706 -0.027601 -0.518880 -0.367191 0.452254 0.289741 -0.749750 -0.927020 -0.237809 0.927590 0.096296 -0.663287 0.316756 -0.419639 0.400838 0.117556 -0.664905 -0.423242 -0.328206 0.040266 -0.315782 0.584798 -0.017560 -0.493818 -0.866358 0.324983 -0.896262 -0.796659 0.373135 -0.701943 0.740873 -0.863571 0.270456 -0.778007 -0.230762 -0.277290 0.511734 0.019488 -0.204310 -0.726075 -0.052922 0.891986 -0.389362 -0.736166 -0.527653 -0.988524 0.381391 -0.192558 -0.411765 -0.946815 0.847708 0.272453 0.637983 -0.169852 0.778635 0.771624 -0.844869 0.882373 0.974965 0.528266 -0.819570 0.715839 0.664695 0.450886 0.937832 -0.566067 -0.826404 0.449566 0.453421 -0.030714 0.723491 -0.599501 -0.138728 -0.665870 -0.335667 0.333619 -0.654394 -0.954276 -0.858939 -0.066160 -0.901091 0.988769 -0.793707 0.736892 -0.181083 0.984928 0.508516 -0.025952 0.867301 0.483481 -0.497686 -0.952269 0.199320 -0.832991 0.498617 0.137152 -0.399058 0.672214 -0.413283 -0.945637 -0.358500 -0.689792 -0.545138 0.502772 -0.355662 0.119196 -0.163608 -0.010056 0.164920 -0.022547 0.923784 0.263829 -0.033778 -0.869923 0.000720 0.785139 -0.884995 -0.490764 -0.240812 0.982306 0.992718 0.261502 -0.969963 0.192038 0.428512 0.528655 -0.670811 -0.970546 0.200869 -0.084093 -0.916183 0.842369 0.226115 -0.461321 0.345141 0.870453 0.657874 -0.818467 -0.139603 -0.177206 0.158986 -0.215819 -0.913377 -0.874792 -0.085742 0.087344 0.910347 0.029263 0.596580 -0.330465 0.011569 0.589298 0.931037 0.041606 -0.218665 0.359548 -0.429739 0.110525 0.389002 0.771130 -0.973569 0.472819 0.613499 0.252547 -0.988502 -0.041360 0.123000 0.669372 0.140173 0.983397 -0.507833 -0.700841 -0.232422 -0.421210 -0.575634 0.681836 0.666134 -0.665287 -0.288901 0.262714 0.004248 0.722668 -0.147988 -0.064715 -0.235726 0.633347 -0.705167 0.334536 -0.256128 0.683835 0.105666 -0.229697 0.156654 -0.280836 -0.977150 0.168152 0.677804 0.145850 -0.162475 -0.182023 0.129246 0.329691 0.117136 0.896824 0.908482 0.541502 0.578660 0.574615 0.876216 -0.710241 -0.162671 -0.119536 -0.987573 0.689341 0.815748 -0.223299 0.322688 -0.889418 -0.888763 -0.933441 0.794417 0.216902 -0.163137 -0.048929 0.936067 -0.140288 -0.880777 0.613871 -0.994438 -0.043252 -0.568151 0.134808 -0.713560 0.548985 0.031632 -0.805079 0.090487 -0.389708 0.769537 -0.033297 -0.099949 -0.393134 0.847167 -0.087523 -0.703793 0.662915 0.689178 0.618895 0.773497 0.800415 0.685454 0.567913 0.017317 -0.477683 -0.481015 -0.046616 0.382029 -0.361792 -0.432745 0.387591 0.594956 -0.000896 -0.477601 0.881396 -0.451911 0.554031 -0.923683 0.638576 -0.835677 0.845854 -0.394721 0.064374 -0.547280 -0.547554 0.976851 -0.251074 -0.884639 0.666029 -0.632179 0.888858 0.466444 -0.946725 0.456771 -0.516239 -0.424408 0.975756 0.437145 0.957620 -0.386036 -0.995599 0.345211 -0.791080 0.003505 0.867610 -0.909684 0.551593 0.421642 -0.833367 0.190169 0.585965 -0.987513 0.795448 -0.349661 -0.534793 -0.752106 -0.372810 0.214133 -0.636745 -0.706781 0.581954 -0.747887 0.759663 0.635229 0.708884 -0.756575 -0.789180 0.684640 0.680570 -0.831559 -0.701396 0.684971 0.513652 -0.492476 -0.311525 0.381262 -0.402160 -0.759931 -0.197096 -0.235527 0.430238 -0.611131 -0.223040 0.225686 0.039208 0.242167 0.473581 0.666398 -0.543700 0.836836 0.959617 -0.961746 -0.911051 0.719280 0.673483 0.797833 0.962705 0.884303 0.482473 0.643275 -0.947256 0.781077 0.328246 0.566396 -0.711399 -0.983279 -0.052342 -0.113559 -0.743211 0.750562 0.650914 0.687027 -0.860569 -0.572126 -0.087286 0.178639 0.670041 -0.613706 -0.154964 -0.873659 -0.776870 -0.195347 -0.835406 -0.687921 -0.476067 0.838077 -0.890088 -0.513362 0.722380 0.592384 -0.870087 0.775124 0.373461 0.458159 0.341520 0.662062 0.474880 -0.710821 -0.451497 0.731669 -0.960259 -0.800584 0.418696 -0.820828 -0.372709 -0.668590 0.357811 -0.702669 -0.282296 -0.797153 -0.576328 -0.059166 0.007500 -0.411733 0.252912 0.531433 -0.573656 0.362824 -0.981929 -0.851276 -0.044792 -0.852016 0.923848 -0.671331 0.606143 0.265368 0.990731 0.081022 0.554547 -0.460766 -0.187309 0.594288 -0.261350 -0.768612 0.773460 0.365941 -0.437203 0.131271 0.663272 0.280501 0.334119 -0.913056 -0.778665 -0.658381 -0.324789 0.474247 0.873052 0.101554 -0.162929 0.891124 0.250278 0.792279 -0.960892 0.174126 -0.879051 0.645251 -0.560506 -0.888320 -0.273727 0.994041 -0.349086 0.538965 0.588329 0.389564 0.770352 0.361790 -0.244496 -0.666850 -0.506939 -0.581224 0.613651 0.827180 -0.494280 0.834986 -0.831201 0.180931 0.309233 -0.958149 -0.717514 -0.853696 0.932974 0.532764 0.938583 0.972082 -0.293110 -0.940468 0.617333 0.146385 -0.828788 -0.656394 0.140426 -0.177875 0.882571 -0.271244 -0.788311 0.652923 -0.909455 -0.032807 0.986072 -0.416394 0.385969 0.599723 -0.589214 0.891690 0.434709 -0.420415 0.072621 -0.256058 -0.378565 0.355107 -0.109754 -0.445590 -0.112129 -0.171171 -0.473508 0.594761 -0.111639 -0.856175 -0.258854 0.059573 -0.512569 0.881572 0.881698 -0.629998 -0.389672 -0.906613 -0.977075 -0.299127 0.060580 -0.991003 0.284479 -0.553450 0.608720 0.695265 -0.661760 0.043429 -0.725150 0.410861 0.787371 -0.103715 -0.234032 -0.322383 0.450695 0.653839 0.506446 0.977187 0.248601 -0.605193 -0.878988 0.989747 0.454381 -0.391557 0.871319 0.336079 -0.021555 -0.518353 0.429466 0.001370 0.182520 -0.509953 0.010367 -0.533000 -0.063403 -0.380913 -0.837735 0.274837 0.662517 -0.562885 -0.314302 0.449888 0.333400 0.451666 -0.872495 -0.215905 0.105505 0.633951 -0.238718 -0.645894 -0.971241 -0.117706 -0.656147 0.483139 0.490737 -0.784828 -0.180782 -0.530818 -0.303181 -0.751315 0.470551 0.879340 -0.261269 -0.519082 -0.653661 0.675328 0.100006 -0.491396 -0.049835 -0.237478 -0.054281 0.635862 -0.787589 -0.720881 0.087528 -0.660084 0.063214 -0.806966 0.973867 0.824496 -0.452861 -0.997374 -0.293210 -0.109008 0.485765 -0.802473 0.106165 -0.695016 -0.333292 0.802984 -0.446332 -0.862740 0.682324 0.292400 -0.381822 -0.971337 -0.032272 0.718184 -0.462733 0.917892 -0.519294 0.482986 0.553754 -0.306883 0.762105 -0.358717 0.033032 -0.174681 -0.165684 0.006899 -0.350185 0.381456 0.009525 0.356605 -0.727552 -0.504709 0.554131 0.378613 -0.199726 -0.779160 0.181597 0.353943 -0.641901 -0.136080 -0.353658 -0.023723 -0.107417 0.614070 -0.305539 0.429850 0.531962 0.175167 -0.087164 0.085716 0.868283 -0.325059 0.726999 -0.098685 0.500260 -0.438685 0.908215 -0.849925 0.942771 -0.082260 0.506679 -0.784781 0.413031 0.060810 0.593832 -0.786695 0.281650 -0.224571 0.567247 0.639749 0.639349 -0.786410 -0.383974 -0.468068 0.827659 0.310487 0.961782 0.359621 -0.514346 -0.125382 -0.554663 -0.646063 0.549559 -0.827664 0.255252 0.049819 -0.266349 0.163467 0.199893 -0.323578 -0.918793 -0.293427 -0.108358 0.494237 0.767383 -0.514526 0.707542 0.049033 0.260902 0.274789 -0.311218 -0.099749 0.488379 0.304808 0.432184 0.316038 -0.384705 0.393966 -0.324341 0.100949 -0.731416 0.120996 0.454885 0.818143 0.293333 -0.289863 -0.132038 -0.973016 0.873604 -0.932145 -0.296594 0.954811 -0.225572 0.595048 0.449048 -0.458189 -0.919479 0.156590 0.590844 0.341424 -0.568620 -0.720374 -0.758325 0.919759 0.584434 0.673859 0.235797 -0.800271 0.067825 0.911457 0.300678 0.336409 0.032453 -0.244437 0.154552 -0.674214 0.465700 -0.977486 -0.647231 0.339305 -0.909631 0.056176 0.294116 -0.135204 -0.348777 -0.256836 0.406607 -0.268255 0.899755 -0.002549 -0.926831 -0.668865 0.277076 -0.685156 -0.749106 -0.138490 0.988703 0.486691 0.061239 0.056528 0.398148 -0.638083 -0.607063 -0.569399 0.117480 0.547489 -0.243613 -0.416820 0.570003 0.109156 0.922485 0.660371 -0.834668 0.216601 -0.474832 -0.183445 0.959766 0.931775 0.548300 0.859520 -0.070774 0.621469 -0.809345 -0.793698 0.936313 -0.558451 0.067812 0.925016 0.928240 -0.870948 -0.018456 0.326388 -0.509031 0.374480 0.756989 0.608449 -0.078031 -0.486624 -0.808371 -0.508028 0.622532 -0.885886 -0.847657 0.787863 0.330715 -0.322489 -0.395582 0.290481 -0.390714 -0.847282 0.150001 0.538512 0.774187 0.340657 0.744814 0.710500 0.782206 -0.187374 0.635515 0.710446 -0.058322 -0.382941 0.036834 0.432646 0.991540 -0.206177 0.041095 -0.086491 0.307199 0.232724 0.405481 -0.070269 0.346838 0.557824 -0.282406 -0.322447 -0.764665 0.322012 0.968034 -0.155379 0.474730 0.118035 -0.616867 0.248917 -0.541308 -0.872053 -0.040583 -0.759103 -0.059427 -0.405068 0.951344 0.882250 0.211991 -0.011822 0.314897 0.203531 0.782001 -0.644009 -0.882960 0.089200 0.588715 0.522520 -0.981069 -0.064447 0.080344 -0.263475 0.613106 0.315680 -0.941463 0.581140 -0.839699 0.533268 -0.300825 -0.456566 -0.217815 0.157867 -0.328619 0.741602 0.398764 0.611954 -0.663466 0.350108 0.494205 0.548525 -0.661714 -0.190899 -0.247944 -0.879713 0.165092 -0.130904 0.209487 -0.246193 -0.608384 0.228418 0.689360 0.471960 0.964944 0.302465 -0.212360 -0.976519 -0.116395 -0.052059 0.556749 0.582780 0.491375 -0.661066 -0.259353 -0.837244 -0.919464 -0.860589 0.774710 -0.582930 0.489519 0.268915 0.965595 0.827804 -0.921984 -0.282349 0.948091 0.243108 0.586747 0.157578 0.996915 0.978363 -0.614003 0.686275 0.450323 -0.649059 -0.011260 -0.762037 -0.625578 0.872345 0.185903 0.931171 0.455125 -0.322722 -0.729895 -0.804228 -0.159966 -0.649359 -0.664817 -0.385256 -0.232289 0.824701 0.883659 -0.266694 0.652506 0.961674 0.450957 0.600597 0.204782 0.037704 -0.241825 0.201697 0.016067 0.144172 -0.112028 -0.533610 0.495112 0.876712 -0.295648 0.869534 0.749057 0.890255 0.800705 0.204182 -0.432467 -0.929190 0.399954 0.407567 -0.578550 0.735137 -0.977689 0.189161 0.559838 0.905970 0.922467 0.212344 0.867644 0.373424 -0.187060 0.072426 -0.588872 0.571115 -0.725877 0.427195 -0.284713 0.162095 0.893584 -0.789601 0.038807 -0.402063 -0.920067 -0.212136 -0.511808 0.880638 0.992047 0.055725 0.951447 0.392001 -0.536707 -0.627102 0.127137 -0.514396 0.562059 -0.313024 -0.608426 0.484526 0.899319 -0.740782 -0.142050 -0.287740 0.331644 0.269079 -0.716625 0.605767 -0.303726 -0.001338 -0.232138 -0.410142 0.209061 0.806669 0.187795 0.288994 -0.405467 0.675987 0.169632 -0.413420 -0.268288 0.121080 0.978580 0.195005 0.493977 0.105718 0.680608 0.056036 0.792694 -0.927818 -0.459438 0.692013 -0.668600 0.398513 -0.595727 0.663043 -0.332408 -0.312352 0.268810 0.363865 0.686310 -0.963328 0.953723 -0.104629 0.843341 0.141518 -0.815634 -0.562126 -0.182495 0.353998 0.024453 0.549217 -0.524923 0.003034 -0.255778 0.969055 -0.891248 -0.575170 0.025091 0.901445 -0.502988 0.565654 0.593458 -0.171588 -0.035833 0.997731 -0.508545 0.631758 -0.314621 0.760265 -0.004377 -0.628311 0.796937 -0.050653 0.267061 0.640277 -0.909135 0.451427 -0.921849 -0.091630 -0.194576 0.102604 -0.542412 0.280502 -0.894362 0.201809 0.249557 -0.785610 0.626639 -0.725352 -0.884165 -0.876348 0.840302 0.709294 -0.047937 -0.195532 0.707025 0.443518 -0.563774 -0.607596 0.203783 0.431850 -0.235906 0.000720 -0.618803 -0.968845 -0.359003 -0.527938 0.482581 -0.280853 0.380432 -0.711994 0.821751 0.838020 0.568508 0.927390 0.039829 -0.181936 -0.858221 -0.333531 0.092712 -0.742385 -0.209880 -0.066986 0.966908 0.742183 0.737482 0.673933 0.185702 -0.826292 -0.933662 -0.610515 0.605558 -0.169568 0.390205 0.986755 -0.138413 -0.968798 -0.541183 -0.655832 -0.249651 0.839249 -0.367826 -0.427899 0.677269 -0.799319 -0.500510 -0.282901 0.018746 -0.358731 0.383567 -0.888542 -0.101116 -0.826313 0.044472 -0.134208 0.915871 -0.218046 -0.460274 0.101572 -0.044338 -0.393937 0.491058 -0.438780 0.436495 -0.118737 -0.452025 -0.701918 -0.087536 0.006792 -0.357750 0.662813 -0.153959 0.274424 -0.765086 -0.476690 0.475105 -0.265596 0.240409 -0.506149 0.375673 -0.376024 -0.394691 -0.725443 -0.202337 0.649780 0.140349 -0.286466 -0.568266 0.680075 0.815106 0.387396 -0.713862 0.306164 0.948616 0.722634 -0.812574 -0.503409 -0.979284 0.099890 0.503383 -0.337034 -0.237296 -0.650576 0.937390 -0.002383 -0.127266 0.412495 0.732021 -0.886857 0.906346 0.107694 -0.262881 -0.488346 0.382251 0.534782 -0.838565 -0.477400 -0.751685 -0.406831 -0.797325 -0.936579 0.980565 -0.511187 0.369585 0.929181 -0.788553 0.557011 -0.574228 -0.767838 -0.343099 0.929155 -0.104872 0.419605 -0.721421 -0.167482 -0.582778 0.151313 -0.754988 -0.850757 0.264456 -0.848642 0.256938 -0.998425 -0.336988 -0.360811 0.536356 -0.175553 0.161789 0.784672 0.417616 0.364464 0.848093 0.398181 0.853277 0.217678 0.327362 -0.935276 -0.225311 0.753134 -0.703114 0.431591 0.682289 0.192015 -0.148804 0.960867 -0.975468 0.268418 0.112180 -0.730455 0.417661 -0.623364 -0.579097 -0.325401 -0.621790 0.083915 0.313788 0.914567 0.908362 -0.524423 0.699238 0.325978 0.840041 0.547331 -0.275842 0.693318 -0.234990 -0.948480 0.758042 0.539699 0.804654 -0.945072 -0.028710 0.486942 0.246943 0.822485 0.447809 0.271475 0.090903 -0.440011 0.541020 -0.491435 -0.063375 0.961923 0.183164 0.314836 0.045838 -0.503049 0.229402 -0.045800 -0.027472 -0.071359 -0.719823 -0.187431 -0.524028 0.004336 -0.494113 0.240982 0.055856 -0.736071 -0.219320 -0.139490 -0.681143 0.751970 -0.652548 0.565800 0.574455 0.795261 -0.162725 -0.334642 -0.644749 -0.621705 0.173923 0.291876 -0.659783 -0.642913 -0.393288 0.386055 -0.145961 0.836114 -0.659745 0.826567 -0.235245 -0.379568 -0.360865 0.240727 0.624768 0.145022 -0.518292 -0.319376 0.408951 0.262388 0.541133 0.727808 0.014358 0.888585 0.293607 -0.411187 0.683847 -0.869118 0.254172 -0.960903 -0.490823 -0.571905 0.330974 -0.150606 -0.214818 0.937685 -0.764551 0.639221 0.773799 
-0.424296 0.465788 -0.461446 0.196136 -0.895077 0.779280 -0.179096 0.249945 -0.739012 0.501527 -0.341104 0.523377 0.042661 -0.613297 -0.462265 -0.068754 0.680311 0.126548 -0.384907 0.811193 -0.619280 -0.345810 -0.679630 -0.191185 0.985164 0.169765 0.593997 0.922849 0.405214 0.233218 0.696648 0.980918 -0.300994 -0.764798 0.177054 -0.196072 -0.985518 0.997957 -0.946126 -0.724530 0.499485 -0.287231 0.798847 -0.457854 0.099473 -0.663418 0.473392 -0.220217 0.463130 -0.911515 -0.409023 0.843850 -0.257325 -0.088653 -0.347335 -0.272162 -0.918888 -0.753338 -0.349313 0.486326 0.479880 -0.652665 0.467244 -0.821114 -0.417463 -0.355702 -0.017186 -0.402981 -0.357745 0.036688 -0.127511 -0.858260 0.749457 -0.328664 -0.316114 -0.151070 0.007917 -0.842722 0.628713 -0.528953 -0.754238 -0.780310 -0.685103 -0.011563 0.131037 -0.032438 0.716275 0.212149 0.214224 -0.633038 -0.301525 -0.305896 -0.285702 -0.834282 -0.127011 0.296834 -0.189984 0.855803 0.893853 0.452271 -0.107509 -0.233658 0.594011 -0.358052 0.437677 -0.722103 0.490877 -0.554405 -0.564825 0.119590 -0.083358 -0.319063 0.339280 0.231539 0.669374 -0.529683 -0.800899 0.385649 0.682465 0.413324 0.752612 -0.619060 -0.892572 -0.533091 -0.453341 -0.019583 0.763744 0.356675 -0.163780 0.657596 -0.191054 0.728711 -0.576062 -0.597043 -0.629341 0.861616 -0.319145 0.861536 -0.692790 0.116029 -0.018874 0.223852 0.796966 -0.679594 -0.544608 0.466341 -0.209277 -0.345508 -0.148010 -0.526811 -0.932183 -0.395398 -0.145871 -0.824755 0.071511 0.400787 0.155662 -0.164745 -0.242538 0.991882 -0.507149 0.566408 0.720593 -0.083211 0.969365 -0.908748 -0.221595 -0.349780 0.952788 0.085615 0.766249 -0.066085 -0.690532 0.563216 0.254321 -0.235141 0.029556 -0.954956 0.419351 0.881546 -0.481767 0.487168 -0.513852 0.372361 0.662412 0.557659 -0.226851 -0.181926 -0.607086 0.530611 -0.190044 -0.114235 0.097019 -0.469450 0.802554 0.066384 -0.378198 -0.419041 0.716604 -0.425410 0.666574 0.482854 0.508505 0.976041 0.046069 -0.237174 -0.259100 -0.924374 -0.192130 -0.839748 0.957172 0.326103 0.647419 -0.556679 -0.301536 0.309832 -0.999020 0.471613 -0.872094 -0.606106 0.002224 -0.062138 0.279659 -0.900757 0.468412 0.082213 0.165627 -0.909786 0.663172 -0.117769 -0.335196 0.329745 -0.634915 -0.826691 0.305787 0.411154 -0.063865 -0.953313 0.486780 0.744004 -0.793061 0.443953 0.070107 0.854358 0.887273 0.768571 0.164190 0.888253 0.240184 0.292096 -0.717853 -0.757592 -0.770042 0.561806 -0.658349 0.698371 -0.355981 0.507277 0.788585 -0.692810 -0.610491 -0.546611 0.636936 -0.245407 -0.373302 -0.057278 -0.834252 0.562832 -0.010591 0.652528 0.306837 0.196348 0.096480 -0.623056 0.050706 -0.016246 -0.854485 -0.785104 -0.127993 0.385699 0.506992 0.154154 0.628107 0.736951 -0.284040 0.969758 0.435321 0.359979 0.477035 0.223906 0.667169 0.866544 0.677294 0.304105 -0.378863 -0.696008 -0.753172 -0.213115 0.866824 0.236237 -0.560587 0.173661 -0.567415 0.535893 0.550604 0.483291 -0.480353 0.696120 0.698187 0.391654 0.081819 0.205179 -0.454193 -0.290074 -0.057870 0.261767 -0.320316 -0.622549 -0.378254 -0.843280 0.601356 -0.711084 -0.976736 0.278651 0.593021 -0.355598 0.582643 0.839848 0.431287 0.449467 0.076085 0.870700 -0.376872 0.508671 0.406593 -0.826268 -0.008038 0.926239 0.869852 -0.309851 0.317893 -0.048329 0.895328 0.863700 0.661597 -0.162543 0.125468 -0.658718 0.214908 0.747214 -0.501998 -0.183736 -0.963870 -0.478734 -0.905085 0.629151 0.165667 0.677558 0.468999 -0.403046 0.127025 -0.454915 -0.532346 0.750153 -0.946245 0.874246 0.923885 0.045717 0.800486 0.793737 0.735865 0.118379 -0.254592 0.631193 -0.017921 -0.592995 -0.531350 -0.892453 -0.251713 0.683558 0.854762 0.246289 -0.500178 0.890892 0.767555 -0.405262 0.520042 -0.066778 -0.727704 -0.010958 0.530176 0.399321 0.534126 0.997830 0.149474 0.587882 0.872076 0.073359 -0.366402 0.672562 -0.132904 -0.630536 -0.209059 0.612504 -0.999343 0.773020 -0.980490 -0.530693 0.880568 -0.232203 -0.847135 0.735329 -0.985914 -0.347312 0.626221 0.781640 0.247425 0.146263 -0.285138 0.519721 -0.864695 -0.754962 -0.080958 0.669431 -0.757132 -0.931484 0.257313 -0.885056 0.141875 0.890912 0.787507 -0.991028 -0.739625 -0.421553 0.621476 -0.738968 -0.648532 0.640986 -0.269661 -0.767965 -0.591218 -0.116795 0.967365 -0.577132 0.535892 0.593585 -0.795492 -0.216683 -0.260151 -0.080630 -0.696962 -0.124846 0.164409 0.222080 -0.455415 0.407277 0.290596 0.801898 0.522221 -0.567529 0.692810 0.309728 -0.558557 0.953185 0.888175 -0.937081 -0.785783 -0.760357 0.703904 -0.055443 -0.528321 -0.887314 0.827761 -0.560957 -0.464446 0.363653 -0.967371 -0.259937 -0.853029 -0.227523 0.659433 -0.549991 0.647631 -0.176158 0.672089 -0.807784 -0.768881 -0.037315 0.994114 0.753340 0.395157 0.686924 0.063068 0.836599 0.640109 -0.048757 0.899518 0.854327 0.190886 0.603422 -0.201116 0.662565 0.716109 -0.373355 -0.898392 -0.748337 0.990298 -0.865763 -0.008274 -0.862731 -0.093286 -0.348841 -0.412722 -0.445655 0.475000 -0.740633 -0.253439 0.706119 0.222053 -0.259324 0.459459 -0.382790 -0.572400 -0.477473 -0.546191 -0.932291 0.473770 -0.646673 0.922036 -0.335343 0.956749 -0.279081 -0.672778 0.672858 0.347564 -0.571170 0.924521 0.337863 -0.436933 -0.083754 0.475132 0.469781 0.567405 -0.937590 -0.975874 0.042405 -0.678222 -0.229313 -0.251476 0.543830 0.511363 -0.792017 -0.838960 0.938963 -0.269490 -0.385151 -0.993328 -0.795720 -0.031824 0.928708 -0.131063 -0.075075 -0.350373 0.196159 -0.402217 0.997191 0.624988 -0.477696 0.335054 -0.811945 0.438550 -0.189814 0.657836 0.005955 -0.127404 0.681962 -0.951639 0.194374 -0.547351 -0.203115 -0.261796 0.964012 0.004868 -0.100756 0.902975 0.735378 0.514093 0.909647 0.939658 -0.517731 0.838354 -0.191405 0.407194 -0.512019 -0.995246 -0.995023 -0.514827 0.629742 -0.472719 0.820227 0.817797 0.965832 -0.369587 0.475633 -0.028213 0.503009 0.157595 0.020148 -0.302618 0.610245 0.817032 0.435587 0.574257 -0.178100 -0.665169 0.477232 -0.442722 0.848924 0.386878 -0.503063 -0.668807 0.225233 0.305532 0.738387 0.713214 0.310286 0.743364 -0.801614 -0.059972 -0.729355 -0.981387 -0.242174 -0.763523 -0.350974 -0.766541 0.208264 -0.847965 0.391054 -0.771589 -0.150583 0.001299 -0.954556 -0.714996 -0.424444 -0.132656 -0.380166 -0.947213 0.424622 -0.531242 0.439665 0.921559 -0.200049 -0.335102 0.227091 -0.461662 -0.621888 -0.462624 -0.718298 -0.423502 0.477405 -0.447653 -0.404888 -0.764770 -0.211176 0.244138 -0.531310 0.997088 0.396172 0.859744 -0.774501 -0.754411 -0.138957 -0.729057 -0.469407 0.436599 0.138286 0.150427 0.489386 -0.437091 0.619185 -0.070949 -0.515533 -0.580864 0.593949 0.711558 -0.042526 0.972061 -0.751066 0.239176 -0.451440 0.726339 0.791524 0.143671 0.961569 -0.419652 -0.612191 -0.569742 -0.422564 0.783981 -0.709998 -0.197065 -0.970430 0.151045 0.073877 -0.439837 -0.412356 -0.787836 0.710590 -0.922970 -0.224928 0.329775 0.006081 0.259540 0.748911 -0.399969 -0.028903 -0.293615 -0.427908 0.220031 0.945561 0.120652 -0.053630 0.737085 -0.735677 -0.092061 -0.682567 -0.347868 0.338197 -0.105132 -0.563887 0.628200 0.697803 -0.534317 -0.220755 -0.228319 0.025846 0.366889 -0.016156 -0.263564 0.443919 0.758917 -0.933789 -0.550000 0.018456 0.815122 0.050031 0.989554 -0.478493 0.622123 0.209585 -0.532932 -0.257225 -0.844045 -0.795848 0.007098 0.063894 -0.478415 0.659231 -0.597909 0.416453 -0.904656 -0.969709 0.114256 -0.438973 -0.190464 0.885937 0.586873 -0.823575 -0.130219 -0.676691 0.620344 -0.371302 -0.610481 -0.929656 0.647155 -0.795359 0.120376 0.636708 -0.273852 -0.257501 -0.153707 0.193215 0.485274 0.002248 0.397368 -0.507627 -0.933859 0.918953 -0.848396 -0.531768 0.335406 -0.753053 -0.501477 -0.550338 -0.192026 0.308058 -0.664401 -0.605153 0.484483 0.205380 -0.281845 0.104827 0.834078 0.107675 0.175172 0.481233 0.312316 -0.704453 0.117941 -0.961536 0.038047 0.964234 0.231679 -0.476679 -0.033518 -0.370953 0.015694 0.032623 -0.452000 0.167298 0.500855 0.883406 0.414245 0.999378 -0.666932 -0.777781 0.307437 -0.331333 -0.382935 -0.208080 0.874047 0.335221 0.896747 0.708125 -0.557105 0.071919 0.189358 0.755211 0.367466 -0.692701 0.793675 -0.594487 -0.728468 0.025354 -0.071166 0.238014 0.654402 0.944528 -0.729363 -0.797598 0.111825 0.771493 -0.914192 -0.473930 0.770871 -0.581124 -0.251712 0.078307 0.087543 0.365354 0.870227 -0.038410 -0.299426 0.766974 -0.330285 0.143470 -0.161107 0.859073 -0.101319 -0.793641 -0.833629 -0.307643 -0.388128 -0.562096 0.717711 0.540706 0.675918 0.372113 0.485234 0.946555 0.574514 -0.402941 0.718048 0.660322 0.123129 0.488919 -0.920802 0.871418 -0.432774 0.166741 0.236771 -0.562546 -0.871669 0.937346 -0.795572 -0.201954 0.080816 0.043321 -0.342881 0.979497 0.249680 -0.176509 -0.328147 0.861552 0.261394 -0.610436 0.402258 -0.062688 0.761677 -0.112508 -0.116132 0.336191 0.484551 -0.398084 -0.003487 -0.392320 -0.909165 0.075711 -0.520902 -0.341939 -0.757548 0.715869 0.095515 -0.629217 0.653215 0.299943 0.168829 -0.265969 -0.656736 0.825948 -0.286473 0.592944 -0.350561 0.385381 0.454496 0.910833 0.774945 -0.143245 -0.151854 0.536622 0.744247 0.732014 -0.127187 0.228798 -0.666070 0.869327 0.836479 -0.575236 -0.054962 -0.684423 0.082825 0.187490 -0.968554 -0.821660 0.558273 0.684661 0.478282 -0.272898 -0.581308 0.821546 -0.446949 0.132219 0.414490 0.202490 -0.482400 -0.131014 0.113323 -0.707455 0.725741 0.961469 0.829167 0.469988 0.693483 -0.298020 -0.301214 -0.972588 -0.428693 -0.464735 -0.547824 0.516345 -0.149159 0.535002 -0.296165 -0.117713 0.713341 -0.737892 -0.433051 0.191624 -0.010790 -0.014360 0.013170 0.542261 -0.882141 -0.572341 -0.255250 -0.364541 0.296646 0.858074 -0.071996 0.022387 0.819543 -0.242829 -0.507625 0.513025 0.459151 0.191161 0.540437 -0.969542 0.726426 0.992614 0.546803 -0.422733 0.527615 -0.749362 0.459555 0.240957 -0.487255 -0.973497 -0.567420 0.501956 0.012144 0.445750 0.044216 0.130003 0.873409 0.788967 0.765462 0.170055 0.647040 -0.306534 -0.807558 0.466583 0.450637 -0.315183 -0.020392 -0.090212 0.875978 -0.479955 -0.059754 0.602404 -0.487341 -0.512951 -0.820329 -0.959725 -0.262313 0.639226 0.281231 0.250432 0.665729 0.713811 -0.247612 -0.322127 0.159561 0.796604 0.807875 0.032971 0.585571 0.573337 -0.796974 0.232611 -0.733196 -0.604532 -0.300806 0.717441 0.080284 0.678802 -0.372771 -0.043738 -0.801152 0.567475 -0.441334 -0.288493 -0.945476 -0.261663 -0.248218 -0.207789 -0.622438 -0.966987 -0.957357 -0.956708 0.746824 -0.204969 -0.278836 -0.093614 -0.408365 -0.470960 0.939356 -0.822794 -0.897623 -0.857618 0.409817 -0.630819 -0.462151 -0.890989 -0.913379 0.618134 0.787814 -0.286150 -0.425604 0.986662 -0.718675 0.133061 -0.301831 -0.664151 0.871398 0.449950 0.128060 -0.751039 0.482963 0.170703 -0.707748 0.229787 0.965734 0.013416 -0.863827 -0.442631 0.542456 -0.924471 -0.265425 0.644833 -0.782089 -0.855608 -0.985987 -0.244240 -0.746597 -0.899365 -0.626107 -0.958783 -0.185515 -0.051711 -0.972122 0.095810 -0.918650 -0.273953 0.431659 0.952749 -0.824003 -0.440281 -0.798291 0.658960 0.730422 -0.506039 -0.111253 0.696156 0.507378 0.024920 -0.746476 0.049833 0.100448 -0.011901 -0.305334 0.318359 0.132491 -0.291320 -0.925881 0.385894 -0.190686 -0.551988 0.427110 0.623799 0.396301 0.454989 -0.280392 0.477652 -0.818964 -0.848733 0.430400 -0.642968 -0.289014 0.632110 -0.984008 -0.558593 -0.873929 -0.095261 -0.862437 0.633448 0.929659 -0.608912 -0.316718 0.030107 0.379187 0.377948 -0.651534 -0.488323 -0.913373 -0.577415 0.897571 -0.104058 -0.129402 0.324682 -0.480260 -0.733101 -0.220330 0.239349 0.744551 -0.039294 0.390616 0.174952 0.317738 -0.898399 -0.192939 0.333731 -0.456991 -0.066868 -0.761530 -0.319428 -0.433420 -0.831871 0.071660 0.249862 0.198236 -0.549154 -0.372190 0.546702 -0.037476 -0.285563 0.969288 -0.139905 0.610379 -0.160115 -0.815223 -0.869881 0.106785 -0.035553 0.369468 -0.148664 0.925153 -0.239917 -0.973713 0.242891 -0.138315 -0.166652 -0.423378 0.404693 0.766480 -0.184908 -0.914735 -0.666939 -0.016779 0.156925 0.582923 -0.818543 0.607771 -0.789267 0.728159 -0.429705 -0.074830 0.697447 0.430390 -0.464451 -0.462668 0.615166 -0.334332 0.644117 -0.420387 -0.964864 -0.504548 -0.495234 -0.204781 -0.478260 0.747657 0.656904 0.355088 -0.675721 0.061597 0.121568 0.139371 0.146863 0.454629 -0.877408 -0.696213 0.037552 -0.695951 0.911558 0.248284 -0.967792 -0.518147 -0.826546 0.729654 0.912243 -0.290997 -0.733014 0.527409 0.374671 0.911103 -0.892978 0.409807 -0.593444 -0.388212 -0.794974 -0.071705 -0.640554 0.861930 -0.716617 -0.316275 -0.076473 0.404952 0.823096 -0.929610 -0.140419 0.945688 -0.625823 0.897132 -0.750263 -0.714265 0.145417 -0.718056 -0.232412 0.318871 -0.988401 -0.320169 -0.972126 -0.721415 -0.792760 0.402545 -0.810312 -0.685738 -0.187649 -0.403756 -0.073950 0.017377 0.524539 0.285495 -0.120693 0.807923 0.969220 0.802834 0.212874 0.792317 0.873224 -0.927545 0.738005 -0.752599 0.969587 0.987742 -0.466864 0.115004 -0.730314 0.300724 -0.566125 -0.718715 0.980555 -0.538251 -0.440130 -0.812205 0.864294 -0.250442 -0.497944 -0.323355 0.345802 0.428106 0.694023 -0.129659 -0.286399 -0.426670 -0.321736 -0.317178 -0.623836 0.891138 -0.524861 -0.750612 0.963593 -0.786856 -0.503211 0.933180 -0.799115 0.029925 0.048184 -0.529428 -0.669351 0.482059 -0.248144 -0.688796 0.943809 0.311726 -0.501002 0.808103 -0.938716 0.001054 -0.515252 0.407086 -0.570840 -0.821229 -0.722573 0.142762 -0.247899 -0.044310 0.825583 0.128264 -0.153172 -0.699278 0.377652 -0.189579 -0.486134 0.874441 -0.256400 -0.285249 -0.095635 0.791784 0.185323 0.235014 0.273844 0.937179 0.546218 0.217652 0.248905 -0.954784 0.025755 0.310189 0.046270 0.510503 -0.282725 0.475431 0.689274 -0.005298 -0.381808 -0.558626 0.950392 -0.556224 0.569639 -0.202780 -0.255502 -0.052709 0.607641 0.258363 -0.178268 -0.648759 0.973115 0.726097 -0.856975 0.158437 -0.038888 0.416869 0.095616 -0.492670 -0.365479 -0.655479 -0.447454 0.660276 0.654710 0.598816 0.170779 -0.628015 0.074247 -0.139948 0.366687 0.692439 0.301427 0.317079 -0.863785 -0.128935 -0.885702 -0.119287 0.818356 0.721939 -0.860924 -0.359912 -0.926820 -0.887809 -0.633815 -0.783795 0.270628 0.327297 0.633074 -0.633756 0.834627 -0.732405 -0.289234 -0.612828 0.927870 -0.634524 0.985988 0.098649 -0.262539 0.060235 0.958701 -0.895852 -0.247326 0.260128 0.421226 -0.111111 -0.868807 0.535525 0.769602 0.949549 0.257464 0.908678 -0.410363 0.330644 -0.979132 -0.044177 0.546849 0.291496 -0.716880 0.179923 0.657740 -0.882254 0.447517 -0.631494 -0.495081 0.375388 -0.266018 -0.509093 -0.525963 0.471443 0.551142 -0.567262 0.575591 -0.696183 0.692866 -0.003183 0.192706 0.824059 -0.467659 -0.037692 0.773608 0.789805 -0.129014 -0.636755 0.120448 -0.108146 0.319068 -0.332703 -0.816650 0.602188 0.847220 0.841091 0.719934 0.294737 -0.790403 -0.775147 -0.329875 -0.056421 -0.284240 0.144162 -0.584978 -0.733098 0.576899 0.990612 -0.429281 0.269765 -0.012571 0.763425 0.093824 0.519770 -0.274267 -0.132568 0.309575 0.596718 0.230677 -0.569976 -0.511427 -0.450255 0.097321 -0.328077 -0.848067 -0.055459 -0.486987 0.871868 -0.760722 -0.277390 -0.903279 -0.090597 0.666189 -0.187519 -0.946435 -0.918789 0.079383 0.630464 -0.928177 0.650102 -0.099771 0.059252 0.413527 0.994053 -0.420977 -0.860740 -0.138515 0.888598 0.735979 -0.907838 -0.681378 -0.775449 -0.358093 0.415943 -0.103526 -0.206159 -0.639517 0.409488 -0.334291 -0.400239 -0.867902 -0.237571 0.509164 0.798287 0.574910 0.562729 0.879498 -0.345706 0.193193 0.951321 -0.695604 -0.906578 0.010573 0.717923 -0.912525 0.589595 0.857184 -0.051041 0.478193 0.593162 0.041121 0.796815 0.817714 0.683028 0.212757 -0.285812 -0.523131 0.573241 -0.876325 0.142578 -0.826998 -0.744227 0.905007 0.682167 -0.945940 0.479918 0.244895 0.933558 -0.865789 -0.561912 0.884878 -0.561393 -0.468490 -0.104549 -0.843469 -0.381015 -0.514954 -0.986286 0.567944 0.963239 0.606877 -0.390934 0.760054 0.424590 -0.707906 -0.027188 -0.861222 -0.231037 -0.453948 -0.737547 0.911541 -0.280945 -0.481773 0.816548 -0.598779 -0.427713 0.296465 0.646116 -0.494156 0.430677 -0.915795 -0.609278 0.869284 -0.384285 0.286173 -0.974186 0.234700 0.771219 -0.960472 -0.197355 0.734459 0.646405 0.411710 0.494513 0.070995 0.703804 -0.532676 0.209773 -0.527233 0.013377 0.472227 -0.615692 0.732432 0.990453 -0.799144 -0.866347 -0.437260 0.497321 0.779769 0.068584 -0.072002 0.863974 0.459306 -0.202719 -0.520311 -0.254521 -0.176904 0.714389 -0.483302 -0.137376 -0.482967 -0.748843 -0.490971 0.928744 0.745670 0.580024 0.632548 -0.787006 -0.210203 -0.894685 0.226371 -0.737976 -0.510377 -0.041197 -0.747523 -0.309521 0.092455 -0.184783 -0.812200 -0.127776 0.883801 0.115797 -0.263802 0.343107 0.913079 0.215887 -0.911414 -0.263826 -0.069724 -0.394715 0.598798 0.447309 -0.143558 -0.892173 0.376053 -0.397889 0.687851 0.008601 -0.184894 -0.522351 0.113916 -0.958523 -0.260327 0.603539 0.000280 -0.007850 -0.705982 -0.907265 0.807368 -0.518183 -0.035041 0.691169 0.597615 0.701158 0.034276 0.510694 -0.082955 0.122862 -0.753132 0.847321 0.728147 0.845666 0.294630 -0.415411 0.953493 -0.329317 0.186700 0.641345 0.679284 -0.998194 -0.881007 -0.206800 -0.956717 -0.141334 -0.603261 0.043562 0.850816 -0.309243 0.136297 0.658184 0.172574 -0.898743 0.349352 -0.229811 0.802414 -0.616372 -0.719118 -0.280541 0.506491 -0.472250 -0.433220 0.234638 -0.626584 0.861410 0.819227 -0.673090 -0.467906 0.005927 0.968254 -0.788622 0.007733 -0.912752 0.004579 0.051015 -0.054086 0.401318 -0.905422 -0.203270 -0.907925 0.230875 -0.545086 0.264649 0.332132 0.804266 -0.965162 0.134546 -0.812106 -0.684280 0.854006 0.694385 -0.156530 -0.579214 -0.070977 0.216887 -0.717804 -0.251750 0.543797 -0.185710 0.754177 0.512051 0.025668 -0.238091 0.599299 -0.969753 0.812925 -0.454788 0.431565 0.907502 0.341942 0.523639 0.138377 0.796856 -0.211712 -0.529491 0.601122 -0.176874 0.605056 0.789016 0.138846 0.459061 0.483401 0.982316 0.879847 -0.587575 0.199203 -0.837957 0.160675 -0.257000 -0.023667 -0.085149 -0.744949 -0.997999 0.676761 0.854349 -0.967752 0.489685 -0.600438 0.463813 0.397188 0.741504 -0.012548 -0.464435 0.538360 0.775740 0.006075 0.139482 -0.401134 -0.388870 -0.071502 0.737711 -0.929809 -0.588101 0.720027 0.950038 -0.175676 -0.080770 -0.887919 0.984998 0.662230 0.088413 -0.100150 0.917280 0.090414 -0.423390 0.771630 0.122662 -0.933704 -0.828808 -0.413526 0.463483 0.912696 0.573926 0.999049 0.451055 0.349666 0.005123 -0.409463 0.948532 0.616253 0.519035 0.686243 0.686445 0.930934 0.406271 0.636482 -0.244742 -0.674499 0.748563 -0.259743 0.987731 -0.163024 0.640106 0.905011 0.927390 -0.783283 0.676641 0.050052 -0.716988 0.847833 0.636526 0.746496 0.760528 0.210453 0.745545 0.211584 -0.439881 -0.249332 0.802121 -0.491349 -0.633079 0.321156 -0.805106 -0.946634 0.252090 0.601164 0.689848 -0.992652 0.926665 0.438411 -0.252395 0.914396 -0.724612 -0.612289 0.819408 -0.797222 -0.395572 0.496049 0.252830 -0.112560 0.343882 -0.110644 -0.366064 0.104410 -0.900191 -0.620519 -0.684006 -0.340073 0.130149 -0.881885 0.168578 0.497070 0.439271 0.363472 0.550436 -0.308639 -0.035364 0.240284 -0.301291 -0.108698 -0.321304 0.446314 -0.194302 -0.045917 0.834025 -0.374895 0.156861 -0.561547 -0.878846 -0.590309 0.325894 0.465036 0.299047 0.959830 -0.430554 0.398855 -0.660689 -0.114560 -0.941217 0.469459 0.003555 0.227361 -0.033471 -0.557174 -0.409168 -0.483035 0.134187 0.555468 0.757249 0.832896 -0.553230 -0.564055 0.279210 0.252468 0.390028 0.113235 0.877573 -0.453110 0.551688 0.998728 -0.043420 -0.122418 0.463763 -0.744373 -0.162588 -0.966791 0.654483 0.176722 -0.081351 0.713265 -0.353819 0.922204 -0.059374 0.612711 -0.634971 0.531458 -0.870324 0.499216 0.086926 0.886925 0.332112 0.533697 -0.677130 -0.388678 -0.213835 0.712899 0.724557 -0.336262 -0.740212 0.276245 -0.337535 0.216369 -0.846173 -0.873771 0.471996 -0.008761 -0.840562 0.126479 -0.832039 0.078087 -0.160256 -0.185857 0.000291 0.780370 -0.573147 0.365320 0.311828 -0.443471 -0.135464 -0.601246 -0.556546 -0.803352 0.932451 -0.233676 -0.192030 -0.281385 -0.520777 -0.467474 0.382353 -0.260989 0.808772 -0.955182 0.955379 0.962599 -0.828953 0.427375 -0.046162 -0.669514 -0.446146 0.121799 0.408573 0.393598 0.935942 -0.591136 0.173967 -0.637205 0.774184 -0.514205 -0.080676 -0.361279 -0.115451 0.362778 -0.164631 -0.183001 -0.870898 0.643338 0.535614 -0.391676 -0.824135 -0.082033 0.347335 0.984636 -0.037214 0.302715 0.947235 0.133833 -0.269910 -0.098927 0.464319 0.283944 -0.977128 -0.127108 -0.322459 0.958813 0.281755 0.851508 -0.678392 0.055940 -0.662697 0.240932 0.694660 0.221852 -0.396290 -0.469971 -0.961149 -0.267188 -0.826633 0.574466 0.341136 -0.650768 -0.507567 -0.311529 -0.666132 0.455219 0.991186 -0.718897 -0.410948 -0.278724 0.182176 -0.946629 -0.994780 0.205048 -0.073737 -0.317239 0.163861 -0.791982 -0.465731 0.485469 0.263958 -0.128428 -0.273599 -0.041382 -0.906576 0.330111 0.488647 -0.867725 -0.937077 0.662014 0.706741 0.404059 -0.988754 -0.800826 -0.907469 -0.654886 0.654393 -0.916283 -0.373783 -0.756555 -0.195007 0.808393 -0.703184 -0.189788 0.013440 0.223079 0.492973 -0.822699 0.431097 -0.972758 0.662771 -0.304945 -0.101186 -0.610828 0.653673 -0.007762 0.719283 0.142320 0.124514 0.782206 -0.195666 -0.168746 0.186266 -0.184421 0.030428 0.278796 0.160693 -0.315179 0.362513 0.786910 -0.071734 -0.832495 0.595303 0.225083 -0.022283 -0.391257 -0.551838 -0.529310 -0.213955 0.879259 -0.502067 -0.551185 -0.425685 0.396747 -0.162013 -0.772012 -0.611014 -0.442729 0.370307 0.513499 -0.660523 -0.825359 -0.655246 0.525743 -0.009779 0.375182 -0.195461 -0.849086 -0.939997 -0.832948 0.937824 -0.011730 -0.665443 0.533127 -0.786647 0.312274 -0.858130 -0.338485 0.782964 -0.072085 -0.459226 -0.719103 0.376730 0.115089 0.677644 -0.785283 0.343076 -0.933370 -0.228012 -0.286616 0.580129 0.111465 -0.111975 0.924882 -0.362792 0.878245 0.300065 0.441746 -0.970841 0.360068 0.608798 0.966983 -0.651663 0.943355 0.500110 -0.438310 0.255629 0.641980 0.223205 0.038593 -0.430106 0.763979 0.319490 0.946624 -0.120932 -0.002866 -0.838659 -0.777856 0.063764 -0.066671 -0.064472 -0.356107 -0.955206 0.823552 -0.431225 -0.317999 0.701798 0.868840 -0.876252 0.730957 0.228907 0.732545 0.697940 0.577245 0.675900 0.198049 -0.861065 -0.068471 -0.159971 0.362140 0.970122 0.409924 0.126119 0.289612 0.356548 -0.994814 -0.713253 0.517889 -0.772670 0.350510 -0.548782 0.162858 0.994403 -0.503988 -0.013590 -0.436822 0.178013 -0.311792 -0.567982 0.301761 -0.580836 0.660925 0.034306 -0.882896 0.238170 -0.289794 0.315154 0.377105 0.641735 -0.844817 -0.260755 0.611857 0.565106 0.865364 -0.098530 -0.078346 0.870550 0.188216 -0.560457 -0.902119 -0.461273 -0.109239 0.260738 -0.466870 0.386773 -0.752852 0.096308 -0.435214 -0.064644 0.528326 0.866547 0.354520 0.189252 -0.099147 0.471624 -0.572578 0.611060 -0.213222 0.804527 0.252795 -0.058039 -0.456227 -0.135348 -0.492933 -0.590863 0.766122 0.428721 -0.720313 -0.045662 0.868265 -0.622432 0.493064 -0.240974 0.638306 -0.973806 -0.854201 0.885455 0.122502 -0.289414 -0.179189 -0.349172 -0.422867 -0.824669 0.840080 0.477986 0.646956 -0.732498 0.089046 -0.566266 -0.927971 -0.658159 0.375694 -0.384198 0.206493 0.882762 0.024939 -0.027385 0.311483 0.304626 0.926953 0.179748 0.682194 0.420017 0.938774 0.320500 0.446212 -0.915427 0.205954 -0.431286 -0.204841 -0.973235 0.219542 0.372292 -0.797904 0.059622 -0.149722 0.849052 0.327125 0.939324 -0.717215 0.399154 -0.718835 0.658480 -0.985044 0.487658 0.541241 0.039895 -0.539727 -0.147276 -0.655479 -0.612774 -0.967528 -0.973285 0.807243 0.971246 0.347215 0.253455 -0.944181 -0.446831 0.822169 -0.149022 -0.420066 0.041711 -0.776730 -0.217970 -0.898666 0.073548 -0.368918 0.428458 0.012872 -0.086132 -0.172388 0.294037 -0.427653 -0.157431 -0.218306 -0.886411 0.882464 0.241967 -0.033687 -0.773016 0.629193 -0.001215 -0.746301 0.436436 -0.029969 0.600914 -0.310109 0.025850 -0.845917 -0.487940 0.876829 -0.265983 0.553772 -0.899901 0.516047 0.655105 0.173647 -0.852871 0.083564 -0.813481 0.060997 0.911176 0.480556 0.633344 -0.246255 -0.737750 0.746933 -0.363792 0.504217 -0.286754 -0.136807 0.133410 
0.712031 0.116892 -0.430154 -0.317938 -0.282195 0.259738 0.707912 -0.128112 0.771798 0.584741 0.605905 0.325569 0.684840 0.121952 -0.019325 -0.141513 0.269082 -0.935762 0.045007 -0.669921 0.975415 -0.474438 0.963423 -0.270840 -0.212188 0.710356 0.365368 -0.707970 -0.576398 -0.771440 0.425440 -0.864368 0.345452 0.995286 -0.182306 -0.936742 0.255024 -0.474394 -0.064854 0.026821 -0.889653 -0.458949 -0.647610 0.795187 0.663003 0.333065 -0.346325 -0.067915 0.397304 0.698681 0.262164 0.372718 -0.775756 0.225588 -0.898122 0.012056 -0.064056 0.467246 0.304085 0.359545 0.695806 -0.270475 0.495178 0.041258 -0.275189 -0.687129 0.104516 0.979835 -0.161523 -0.960338 0.006656 -0.051176 -0.419287 0.359046 -0.255989 -0.756284 -0.307889 0.397686 0.175801 -0.910585 0.096367 -0.562034 0.462133 0.320611 0.663553 0.564011 -0.667334 -0.400503 0.031257 0.636752 0.959042 -0.272937 -0.633723 0.454220 0.768321 0.091088 0.767091 -0.127163 0.070923 -0.394431 -0.087501 -0.922422 0.554393 0.493211 0.436625 -0.701596 0.736928 -0.871264 0.696090 -0.087271 -0.781849 -0.207543 0.350695 0.680284 -0.886933 0.014248 0.244296 -0.554266 0.613745 -0.724447 -0.917514 0.572788 0.002616 -0.551237 0.027008 -0.229063 0.539851 -0.205901 0.643774 -0.389227 0.399668 -0.443727 -0.311648 -0.045939 -0.950516 -0.875024 0.252465 0.786412 -0.746288 -0.051445 -0.300859 -0.528137 0.741011 -0.950164 -0.847852 0.854079 0.064084 0.396443 -0.700187 -0.322171 0.671996 -0.617702 -0.749384 -0.325388 -0.168939 0.277624 0.445549 -0.629088 -0.928277 0.089323 -0.018315 0.471391 0.645595 0.670036 -0.574549 0.695080 0.795013 0.677916 0.481491 -0.951275 -0.373530 -0.819368 -0.479412 -0.632518 -0.769532 -0.327265 -0.778439 0.294551 -0.930821 -0.478626 0.972380 0.741175 -0.096328 -0.777004 -0.584214 0.734733 0.500620 0.861335 -0.894355 0.572343 -0.049342 0.087330 0.043734 -0.403747 -0.242633 0.469185 -0.708667 -0.447621 0.147101 0.772824 -0.398896 0.773572 0.953456 0.121692 -0.858947 -0.816076 0.794427 -0.637386 0.478475 0.863606 -0.116012 0.450855 0.604780 0.787660 0.673852 -0.979433 0.522393 0.174472 0.881902 0.628038 -0.253184 -0.167440 -0.284632 0.790550 0.428813 0.472735 0.259735 0.720146 -0.974886 -0.593164 0.492970 -0.373782 -0.819592 0.446426 0.747910 -0.678539 0.630350 0.542337 -0.315925 0.108826 0.405942 0.568063 -0.440319 0.010723 0.355723 -0.766467 0.031290 -0.121883 0.408005 -0.086808 -0.493845 -0.845179 0.745752 0.221523 0.945371 0.174564 -0.305742 0.205106 -0.105290 -0.280628 0.611942 -0.612320 0.345590 0.792350 0.834106 0.093499 -0.886189 0.464456 -0.364164 -0.202114 -0.426718 -0.958222 -0.634050 0.132963 0.052501 0.721673 0.366496 -0.916209 -0.400210 -0.225499 -0.003017 0.105944 -0.070678 -0.257266 -0.672533 -0.125307 0.917298 0.021725 -0.920201 -0.187992 0.741097 0.691741 0.199688 0.086686 0.484090 0.033795 -0.819815 0.597901 -0.501749 -0.183979 -0.604212 0.071533 -0.142201 -0.238263 -0.795504 0.910300 -0.516590 0.570991 0.994091 0.083200 -0.654507 -0.008926 -0.810856 0.274815 0.733808 -0.483389 -0.850492 0.651106 0.538336 -0.770693 -0.536885 0.279433 0.921048 0.662803 -0.633881 0.405138 -0.303402 -0.453696 0.003039 0.194849 0.362325 0.398827 -0.733618 -0.779875 -0.839436 -0.529123 -0.869575 -0.356026 -0.958131 -0.875484 0.727174 -0.612639 0.115590 0.916318 0.662176 -0.150602 -0.567071 0.811684 -0.499496 0.971265 -0.959010 -0.036381 0.250698 0.962038 -0.373578 0.616817 0.367176 0.323020 -0.836879 -0.629785 -0.482131 0.525446 0.769042 -0.215750 0.745571 0.929606 0.255127 0.875995 -0.426420 0.296996 -0.999489 -0.699246 0.684357 0.116101 -0.782929 0.346533 0.965499 -0.350000 0.158217 -0.533997 -0.378735 0.199207 0.429622 0.871963 0.161245 -0.943955 0.488779 -0.471579 0.379065 0.651900 -0.101364 0.896933 0.177346 -0.332322 -0.318816 -0.077083 -0.402716 0.936311 -0.201088 0.170864 0.233307 -0.200576 0.471618 -0.082336 0.915525 0.688689 -0.735803 0.881024 -0.661310 0.422414 -0.652972 -0.040045 -0.378379 0.776650 -0.168082 0.782866 0.832695 -0.679303 -0.688713 0.211759 0.972597 0.209924 0.108693 0.149943 0.877602 0.789876 -0.927140 -0.525114 0.726187 -0.128228 0.645750 -0.040506 0.671196 0.117368 0.877158 0.586721 -0.193943 -0.858645 0.467745 0.144746 0.563769 0.814773 -0.895299 -0.814609 0.591423 -0.063381 0.968257 0.424117 0.257316 -0.720456 -0.364123 0.229913 0.489468 0.744569 -0.620144 0.367070 0.534446 -0.547284 0.841955 0.260633 0.324488 0.487705 -0.779873 -0.004316 -0.394927 -0.902715 -0.417595 0.411130 -0.761359 -0.949851 -0.444124 0.802410 0.864922 -0.339423 0.987801 0.456345 0.597196 0.956058 -0.119538 -0.145489 -0.764398 0.516338 -0.915576 0.725070 0.260908 -0.535720 0.092139 -0.204647 -0.083004 -0.065905 -0.944014 -0.758516 -0.578200 -0.723886 0.237168 0.026873 -0.626601 0.819573 -0.561997 -0.387960 0.869722 -0.006121 -0.585550 0.734644 0.654456 -0.597749 0.190988 0.251652 -0.641692 -0.928550 -0.893836 -0.406090 0.587789 -0.809412 -0.681020 -0.151304 -0.345132 0.411119 0.644050 0.571864 -0.654786 0.700036 0.813348 -0.232986 0.976150 0.050516 0.793887 -0.650451 -0.129911 -0.768110 -0.038411 -0.260189 0.225769 0.376039 -0.525545 -0.119775 0.778290 0.665443 -0.868123 -0.863402 0.736893 -0.761959 -0.269491 0.324682 -0.571371 0.049489 -0.826622 0.083497 -0.539392 0.817428 -0.344639 -0.194178 0.517464 -0.531291 0.572836 0.493613 0.519226 0.366723 0.843162 -0.610685 0.598613 -0.195249 0.129125 -0.175619 -0.819211 0.603580 0.704607 0.959079 0.269023 0.836484 -0.904323 0.005917 -0.925475 -0.173814 -0.669402 -0.496846 0.875675 -0.496023 0.586651 -0.663718 -0.678596 -0.757988 0.142104 0.838868 -0.289278 -0.285060 0.332481 -0.770053 -0.918337 0.175643 -0.380738 0.680275 0.980393 0.748387 -0.495343 -0.838817 0.351967 -0.790737 -0.879738 -0.379009 -0.954253 -0.784061 0.626907 -0.879727 0.042125 0.957506 -0.376573 -0.082200 -0.538518 -0.789922 0.254082 -0.217114 -0.547910 -0.603814 -0.378246 0.162812 0.111126 0.954235 0.392759 0.192789 0.129878 -0.987979 -0.126936 0.110271 0.760408 0.377721 0.271454 0.112376 0.586984 0.391716 0.733366 0.632732 0.607655 0.360273 0.753004 -0.350220 0.317779 -0.623569 0.567579 0.779261 -0.413491 -0.178339 -0.437852 0.038599 0.217847 0.183902 -0.798590 -0.671026 0.138137 0.594170 0.521762 -0.731985 0.606191 -0.605173 0.378286 0.366599 0.772548 -0.350260 -0.521025 0.359532 -0.958545 -0.787659 -0.007736 0.649110 0.572614 -0.254731 -0.701111 -0.109607 0.121700 0.866468 -0.330345 0.708209 -0.311870 0.231802 -0.253193 0.905977 -0.584296 -0.051782 -0.765049 0.553841 -0.457613 0.756713 0.821855 -0.851422 -0.848460 0.200141 0.515177 0.924088 0.849881 0.994152 0.283620 0.891336 -0.793507 -0.724116 0.540445 0.779107 0.021153 0.839334 -0.330500 -0.857147 0.705803 0.339155 0.851061 -0.606067 -0.429043 -0.402132 -0.700090 -0.013339 0.546086 -0.465140 -0.459499 -0.911526 -0.708426 -0.637643 -0.762948 -0.556886 0.562498 0.752229 -0.632799 0.412378 0.746380 0.650821 0.303714 0.952873 0.926706 -0.155841 0.731980 -0.052141 -0.316507 -0.598520 0.090711 -0.610704 0.740635 -0.058228 -0.216771 -0.688408 0.539641 0.083139 0.298253 0.085727 0.617999 0.838754 0.174201 0.909573 -0.798889 0.411253 -0.647314 0.763608 0.163481 -0.280112 0.175987 -0.090138 -0.629291 -0.520300 -0.137266 -0.702585 0.323859 -0.405286 0.245273 -0.992647 -0.003806 -0.664015 -0.603351 -0.263171 0.277757 0.179878 0.048421 -0.182602 -0.736983 -0.653327 0.903125 0.881016 -0.814573 0.077326 0.790589 -0.613462 -0.511421 -0.856725 -0.849854 0.652060 -0.136837 0.326133 -0.438079 0.233872 0.805833 0.424656 0.531287 0.129693 -0.980630 -0.223440 0.137045 0.015564 0.112545 0.533694 0.752393 -0.609698 -0.286428 -0.199186 0.207700 -0.023411 0.147487 0.110825 -0.142395 0.332914 -0.811849 -0.351806 0.719452 -0.323270 -0.208531 0.869598 -0.671210 0.654632 0.195731 -0.109289 -0.111497 0.001565 -0.684633 -0.580210 -0.868743 -0.665264 0.196350 0.268303 0.350300 -0.691105 -0.198003 0.102693 -0.300804 0.515569 0.903507 0.906896 -0.507842 0.050993 0.017722 0.349763 -0.616093 0.205873 0.997957 -0.896641 0.882603 -0.210574 0.972958 -0.788608 -0.555943 0.168689 0.102103 0.332561 -0.829746 0.417469 0.752351 -0.698488 0.752206 -0.051299 0.569814 0.102506 0.257595 -0.628189 -0.794801 0.956792 0.887380 -0.891294 0.863688 -0.620462 0.159699 -0.118590 0.729301 0.543607 -0.912717 0.727258 0.646966 0.969885 -0.483317 0.619924 -0.818723 -0.039259 -0.211386 0.283380 -0.706698 -0.041132 -0.299150 -0.954348 0.260379 -0.546944 -0.005647 -0.169807 0.555562 -0.748051 0.202004 0.760761 -0.791260 0.089384 0.869467 -0.927571 0.468922 0.029167 -0.046161 0.198223 -0.427227 0.041121 -0.074519 -0.780260 0.011006 0.442164 0.839664 0.192284 -0.597095 -0.371722 -0.524336 -0.303793 0.587145 0.176514 -0.258141 -0.152475 0.629569 0.736212 0.677718 0.185131 0.988161 -0.120277 -0.054108 -0.803099 0.969107 -0.184641 -0.730670 0.438029 0.844526 0.223168 -0.363747 -0.582701 -0.735710 0.561734 -0.362961 0.275296 0.003898 -0.523297 -0.532420 0.406804 0.104981 -0.056756 -0.896990 -0.307874 -0.880242 -0.155131 0.539651 0.749328 -0.418918 0.217369 -0.065541 -0.430758 -0.902909 0.880351 -0.233857 -0.933802 -0.304290 0.035473 0.504228 -0.459764 -0.741358 -0.859519 -0.042464 -0.477069 0.702215 0.594575 0.798228 -0.293887 -0.928722 -0.734192 -0.887083 0.176259 0.209052 -0.784073 0.868385 0.328810 0.060796 0.408036 0.078137 0.641878 -0.374595 -0.987404 -0.788880 -0.277503 0.892947 -0.022737 -0.211305 -0.411343 -0.987263 -0.707077 0.128894 -0.728622 -0.566596 -0.913570 -0.205690 -0.864382 0.681005 -0.407463 -0.158269 0.752283 -0.141655 -0.045352 -0.071458 -0.932603 0.170575 -0.203072 0.396206 -0.768629 -0.795036 -0.525656 0.873249 -0.169631 -0.513060 -0.915631 0.552866 -0.620113 0.061633 -0.658439 -0.031456 0.074369 -0.365516 -0.902562 0.345748 0.067887 -0.816132 -0.859942 0.203506 0.864872 -0.267405 -0.954763 0.617155 0.590940 -0.000115 -0.454302 0.658336 -0.829539 0.342626 0.054543 -0.598168 0.547590 0.528887 -0.724919 -0.622041 -0.984173 -0.640550 0.930825 -0.604287 0.421083 -0.727614 0.364258 -0.504547 -0.093130 0.461696 0.841200 0.974757 0.645563 0.981258 0.178263 0.510436 -0.286147 0.223501 0.127591 -0.695208 -0.776614 0.673289 0.963129 -0.606153 0.015915 0.017672 -0.204321 -0.436495 -0.453442 0.070760 -0.058536 -0.437615 0.430210 -0.127711 -0.041902 -0.148707 0.144675 -0.677644 0.346746 -0.948455 0.784052 0.187946 -0.973697 0.429615 0.169204 0.204566 -0.059949 0.883057 -0.571934 -0.932358 -0.812151 -0.348547 0.740931 -0.849022 0.045299 -0.243154 0.168650 0.840978 0.320351 0.715208 -0.088262 -0.738185 -0.722407 -0.658052 0.134104 0.235691 0.193241 -0.721221 0.558047 -0.460013 -0.669676 0.342099 0.727933 -0.643373 -0.228286 -0.102863 0.561193 0.711765 -0.219806 0.989259 0.779407 -0.031956 -0.359288 0.520338 0.119022 0.686011 -0.722816 -0.712328 0.526989 0.597535 -0.997120 -0.561274 0.859349 -0.719527 -0.219326 -0.006547 0.516165 0.973915 0.272232 0.074212 -0.486098 0.602556 -0.583690 -0.758165 0.959183 0.188024 0.138973 0.520376 -0.100211 0.919167 0.509635 -0.320804 -0.112789 -0.849653 -0.800466 -0.993767 0.836358 -0.523282 -0.706095 0.363347 -0.925748 -0.703214 0.802073 0.933601 -0.422741 -0.417253 -0.072945 -0.906576 -0.443338 -0.800713 0.167635 0.070565 0.801843 0.583946 0.312400 0.761026 -0.228030 -0.548627 0.281402 0.671759 -0.629460 -0.208963 -0.649045 0.257751 -0.058616 -0.449511 0.263984 -0.222259 0.027206 0.557889 -0.858912 0.101458 0.854675 0.943161 0.035060 -0.568067 -0.474092 0.962114 -0.474643 0.082571 -0.838599 0.692992 -0.846865 0.963244 0.276938 0.465535 0.724270 -0.951091 0.916908 0.005672 0.720668 -0.712553 0.796709 -0.928378 0.545198 -0.261907 -0.377889 -0.190819 0.515834 0.649317 -0.632930 0.656922 -0.249224 -0.778255 0.600083 0.785835 -0.346322 -0.874009 0.747950 0.179035 0.208562 0.909351 -0.127972 0.361697 0.872595 -0.851034 -0.172768 0.596866 -0.802125 -0.255860 -0.397462 0.918542 0.031587 -0.600752 0.990165 -0.423215 0.137341 -0.387724 0.385966 -0.346825 -0.738407 0.753037 -0.689903 0.012369 0.974782 0.910180 -0.201796 -0.371540 -0.963828 -0.453846 0.807495 0.244734 -0.544495 -0.320477 -0.393569 -0.671899 -0.171510 0.433664 0.924966 0.026364 -0.822196 -0.472496 -0.055093 0.209391 -0.073248 -0.064928 0.786175 -0.935907 0.547348 0.172142 -0.282732 0.808941 -0.074822 0.027365 -0.178691 -0.100040 -0.062455 0.619514 0.528420 -0.026283 -0.834332 0.335915 -0.781549 -0.378827 -0.984561 -0.175117 -0.050727 -0.156072 -0.741454 -0.125760 0.870292 -0.563650 0.401744 -0.184801 0.645740 -0.671504 0.750271 0.431916 -0.607411 0.297618 -0.395942 0.109856 0.106559 0.529236 -0.862779 0.927868 -0.570804 0.074767 0.547382 0.957616 -0.951516 0.713049 0.293531 -0.733065 -0.665778 0.308970 0.091818 0.283496 -0.847102 0.350364 -0.842265 -0.976810 0.786714 0.559479 -0.161611 0.432454 0.887975 -0.411340 -0.135630 -0.719436 0.886278 0.468428 0.390420 -0.007163 -0.002336 0.527642 -0.079295 0.426859 -0.397592 -0.531913 0.384475 -0.349108 -0.818864 -0.321994 -0.082172 -0.484642 0.986976 -0.990354 0.798854 -0.860126 0.360010 0.956589 -0.836936 0.146723 0.516069 0.001453 -0.420823 0.404044 0.590113 0.443547 0.684608 0.476391 -0.088025 0.075028 -0.530772 0.909639 -0.397330 0.389933 0.336498 0.205078 0.858019 -0.279027 0.855971 -0.960845 0.398980 -0.226202 -0.445486 0.385956 -0.216556 -0.646632 0.525830 -0.856546 -0.690043 0.688894 0.290177 0.826026 -0.309653 0.869355 0.230070 -0.719540 0.312902 -0.085323 0.756851 -0.775123 0.989705 -0.773922 -0.865484 -0.407625 0.616011 0.471014 0.797453 0.474030 -0.808013 0.653424 0.513185 0.590967 -0.572778 -0.932301 -0.023077 0.210666 -0.578933 -0.497248 0.354120 -0.268975 -0.808354 -0.355702 -0.442949 -0.118007 -0.486348 0.787120 0.162453 0.826554 -0.298202 -0.080696 -0.948568 -0.308497 0.145382 -0.814053 0.283878 -0.238607 0.656961 0.081331 -0.764577 0.848948 -0.265245 0.748608 0.439915 0.161977 0.816307 -0.583162 -0.627356 -0.762625 -0.080410 0.726764 -0.031600 0.111237 -0.628938 0.525450 0.993230 -0.115286 0.312570 0.155683 -0.288732 -0.985632 -0.925014 -0.237300 -0.294129 0.220368 -0.051353 0.989749 0.981761 -0.394392 0.071080 -0.782817 -0.545444 0.805835 0.965791 0.894471 -0.032187 0.782099 -0.688691 0.340456 -0.980527 0.230900 0.067220 -0.012127 -0.657864 0.438282 -0.486677 -0.664634 -0.677004 0.825894 0.491048 0.034264 0.840262 0.566034 0.796964 -0.453867 -0.213598 -0.254389 -0.464118 -0.231837 0.351219 0.606962 -0.014654 0.805775 0.412797 -0.048863 0.700247 -0.619390 -0.266764 -0.988444 0.721066 -0.247291 0.242455 -0.211714 0.740582 0.584592 -0.773432 -0.746095 0.919957 -0.450436 -0.920201 0.411005 0.583828 0.920061 -0.022960 0.380792 -0.533806 0.763442 -0.873597 0.002075 -0.468395 0.477622 -0.390963 0.516951 0.283397 -0.978166 -0.531912 -0.016356 -0.597556 0.201324 -0.004800 -0.876490 0.954033 -0.762345 -0.088204 0.694615 0.822247 0.138364 0.948520 0.742204 0.687928 -0.971681 0.153209 0.271756 0.948380 -0.869751 -0.347452 -0.585426 0.893691 -0.221049 0.416649 -0.574704 -0.743428 -0.974313 0.942248 0.539969 -0.952479 -0.589664 -0.476387 -0.550036 0.611660 0.518812 -0.426526 0.565693 0.756468 0.485270 0.260308 0.578714 -0.376366 0.208828 0.320918 -0.688438 0.237148 -0.525873 0.583319 0.185528 -0.395624 -0.764133 0.600102 -0.501932 0.014817 0.016751 -0.076636 0.271390 0.042438 -0.134388 -0.188641 0.089958 0.275948 0.334972 0.539923 -0.112393 -0.146216 -0.886603 -0.546700 -0.389748 0.598667 0.713608 -0.811034 -0.777699 -0.077564 0.509884 -0.466137 -0.840417 0.984011 -0.882818 0.345111 -0.411612 -0.646951 -0.054787 0.086455 0.367866 0.961964 -0.990180 -0.360744 0.004402 -0.124569 0.450615 -0.905640 -0.848621 -0.214414 0.634283 0.038986 0.639371 0.747680 0.492286 -0.750378 0.346347 0.205893 -0.561412 0.568648 -0.871671 0.948472 -0.897489 -0.712088 0.932483 -0.780307 0.633023 -0.479129 -0.427259 -0.421764 0.607326 0.940607 -0.459800 0.617146 -0.420137 0.544602 -0.507423 -0.969523 0.638962 -0.356044 -0.183936 0.273245 0.682942 -0.544566 0.020925 0.175228 -0.294943 -0.632728 -0.618879 0.143645 0.935920 -0.490549 0.092117 -0.961569 -0.202637 0.024601 -0.741877 -0.569614 0.545472 -0.169135 0.008622 0.152798 -0.228528 0.548822 -0.230056 0.351335 0.093424 0.262522 0.381812 -0.267614 0.906478 -0.802124 -0.994369 0.589420 -0.346690 0.026556 -0.235352 0.358367 0.393827 0.145769 -0.497988 0.329747 0.655219 0.594129 0.368178 -0.547418 -0.381270 0.626301 -0.117032 -0.835798 -0.542835 0.891590 0.317001 0.228637 0.440412 -0.913055 -0.420028 -0.466165 0.349467 0.961784 0.266221 0.255945 -0.840340 0.271852 -0.154636 -0.187030 -0.701593 0.610012 -0.828663 0.692235 -0.244219 -0.326651 0.021982 -0.589000 -0.732522 -0.609841 -0.136418 -0.113791 -0.983540 0.746550 0.050411 -0.526374 0.638140 -0.632588 0.702263 0.078552 -0.545643 -0.717765 0.612388 0.803824 -0.755981 -0.121391 0.059769 -0.596321 -0.849540 0.905133 0.216649 -0.551132 0.515145 0.387986 -0.858897 -0.729075 -0.938665 0.163084 -0.318074 -0.671187 0.553244 0.545508 0.215022 0.569704 0.292058 -0.734567 -0.956671 -0.069801 -0.367155 0.745592 -0.991249 0.087202 -0.972173 0.621138 -0.108974 -0.728154 -0.500253 0.950795 -0.324475 -0.349793 0.855928 0.892173 0.099075 0.371073 0.280159 0.240178 0.641998 0.341494 -0.596738 -0.676077 0.670306 0.956506 0.869431 -0.114672 0.526209 0.161490 0.150761 0.569539 -0.908311 0.783605 0.315131 -0.899561 -0.129193 0.342958 0.721578 0.761833 0.614804 -0.778675 0.712628 -0.709672 -0.128468 0.568556 -0.817498 0.970607 -0.060371 0.462661 0.210785 -0.418374 -0.195846 0.614047 -0.094450 -0.525539 0.570553 -0.225019 0.359789 0.096762 0.936471 -0.489450 -0.333699 -0.971840 -0.705845 0.981432 -0.871401 0.164962 0.324390 0.850177 -0.073205 -0.060807 -0.928499 -0.360577 0.229522 -0.056967 -0.792020 0.412024 -0.086360 0.147608 -0.125315 -0.875575 0.729235 0.678839 0.738472 -0.365216 -0.846700 0.309025 0.409766 0.513089 -0.594213 0.346237 -0.976362 0.072087 0.374396 -0.682207 0.053519 0.502995 0.482755 -0.622091 0.353172 -0.590450 0.317102 0.424673 0.048974 -0.453376 -0.632294 0.256953 0.958647 0.281346 -0.595438 -0.166668 0.405771 -0.866204 -0.487829 0.144243 -0.231419 -0.334529 -0.546732 -0.821654 -0.821441 -0.140946 0.524583 -0.797802 0.931142 -0.101020 -0.480009 -0.015339 -0.598025 -0.997254 0.362569 0.755147 -0.587704 -0.320329 0.179820 0.461270 0.226295 0.547526 -0.281776 0.184942 -0.171128 0.122785 -0.981726 -0.765357 0.256581 -0.469555 0.378886 -0.974838 0.195916 0.832153 -0.796492 0.374475 -0.308792 0.728091 0.576672 -0.377651 -0.372929 -0.903337 0.607010 0.029046 -0.900591 -0.030421 -0.215807 -0.488295 0.649250 0.964012 0.972975 -0.124455 0.511538 -0.308801 -0.939512 -0.659590 0.813984 -0.921238 -0.424947 0.070565 -0.390793 0.953938 0.095727 0.805122 0.786092 0.299235 0.179597 -0.522700 0.027326 -0.243731 0.099649 0.654397 -0.147068 -0.293341 -0.316557 -0.047659 0.676238 0.467636 0.464046 0.325488 0.431648 0.437021 -0.798966 -0.056814 -0.871780 -0.738479 0.283596 0.942203 -0.659717 0.858648 0.012768 -0.050510 0.812587 -0.891505 -0.245388 0.598679 0.407730 0.934209 -0.924022 -0.564944 -0.309521 0.175627 -0.910547 0.543411 0.882286 -0.227104 -0.504248 0.558524 -0.759469 0.959798 -0.115988 0.672180 0.396819 0.085046 -0.384634 0.525039 0.346567 0.898961 0.467242 0.686850 0.757609 -0.519990 -0.363660 0.570196 -0.411495 0.390952 0.168875 0.996235 0.325161 0.244853 -0.568710 -0.984360 -0.579520 -0.479257 0.559051 -0.697235 0.293639 -0.945197 0.861289 0.534170 -0.985399 -0.254699 0.206350 0.411420 0.830347 0.821715 -0.063541 0.176914 0.720677 -0.596299 -0.136236 0.478286 -0.116289 0.500104 0.048482 0.472217 -0.108944 -0.782643 0.468451 -0.783782 0.462210 0.899742 -0.768142 0.882690 -0.579515 0.790908 -0.814545 0.714124 0.845711 -0.953256 0.248294 0.860312 -0.207955 -0.545356 0.271732 -0.377609 -0.723641 -0.791809 0.799305 0.997036 -0.388108 -0.336931 0.475322 0.495603 -0.836826 -0.476196 -0.032180 0.054230 -0.258839 -0.563729 0.270448 -0.796629 -0.663987 0.502306 -0.913939 -0.243502 0.293214 -0.728484 -0.529379 0.138925 -0.681741 0.718915 -0.000763 0.110304 -0.826441 -0.729031 0.732696 -0.550082 -0.520840 0.532001 -0.553046 0.091052 -0.804930 0.922276 -0.413345 -0.641756 -0.553920 0.554475 0.412474 0.187241 0.990746 -0.317078 0.390612 -0.673241 -0.814772 0.476673 0.083257 0.478442 0.748189 0.553878 -0.382633 -0.933552 0.272793 0.616604 0.176752 0.446352 0.887573 -0.090552 0.896271 -0.633268 -0.558551 -0.656775 0.457784 -0.363481 -0.734499 -0.955561 -0.005237 -0.288419 0.598914 -0.592762 0.898822 0.589661 0.090160 0.289435 0.916420 0.275388 -0.233892 -0.000323 -0.246170 -0.485703 -0.446445 0.371197 -0.419255 0.826349 -0.012200 0.757497 0.272701 -0.124627 -0.333055 0.168972 0.242105 0.108394 0.512197 -0.300111 0.744913 0.777698 -0.255672 -0.260324 -0.510721 -0.656757 0.146914 -0.611899 0.932903 -0.762926 0.677536 0.849323 0.512462 -0.556356 -0.151000 -0.733708 -0.042060 0.402555 0.637488 0.538685 0.228904 -0.374712 0.296182 -0.498395 0.500661 0.963127 0.670577 -0.257234 0.071520 0.182774 0.442656 -0.183567 -0.039529 -0.813016 0.556110 0.449750 -0.469774 -0.296976 0.837851 -0.536870 -0.059902 0.515387 -0.687547 -0.547440 0.959031 0.161453 -0.281149 -0.083029 -0.435992 -0.643661 -0.544344 0.792912 -0.018372 0.751838 -0.705483 -0.517711 0.714965 0.965094 0.225055 -0.213515 0.147868 -0.332289 0.602918 -0.891661 -0.145305 0.159028 0.558088 0.384921 0.862051 0.395939 0.848051 -0.197851 -0.088674 -0.839496 0.254709 -0.129643 0.321957 0.973560 0.787328 0.885965 -0.670101 -0.757016 0.678878 0.311527 0.994822 0.973395 0.793816 0.709787 0.938489 0.018871 -0.503728 0.086357 0.686582 -0.900810 0.194696 -0.458723 0.258218 -0.247216 0.926199 0.120269 -0.851277 0.774250 0.922418 0.060049 0.934754 0.177127 0.930406 0.256711 0.150687 0.717733 0.142676 0.480586 0.960717 -0.178446 -0.207887 0.955539 -0.205051 -0.414071 0.665326 -0.266562 0.604801 -0.838403 0.819795 0.291383 -0.739213 0.014490 0.832660 0.519005 0.767275 0.758859 -0.360726 0.915998 0.533109 -0.438308 -0.023953 0.467863 0.738819 -0.093547 -0.275426 -0.110494 -0.375814 0.867250 -0.629907 -0.415096 -0.311196 0.162206 -0.459557 0.483753 0.748135 -0.794232 -0.782809 0.352936 -0.632634 -0.963014 -0.355681 -0.371847 0.051476 -0.523021 -0.852843 -0.181249 -0.764162 -0.213569 -0.265251 0.768947 0.348123 0.710796 0.236810 0.086942 -0.382751 0.961384 0.976448 0.241435 0.828634 -0.653459 0.826339 -0.482562 0.508747 -0.633218 -0.998809 0.256882 -0.427450 -0.781618 -0.390182 -0.060084 -0.744632 0.254137 0.568068 0.306844 0.731116 0.715225 -0.874405 0.966954 -0.498344 -0.139656 0.735902 0.849779 -0.428860 -0.027288 -0.063279 0.188389 -0.065904 -0.086831 -0.570176 -0.237270 0.259710 -0.743837 0.280168 -0.231543 -0.377055 0.281359 -0.974662 0.195495 0.499740 -0.364844 -0.864589 0.755108 0.889292 0.703479 0.061952 0.620408 0.418704 0.187547 0.587363 0.920360 -0.952110 0.323264 0.770139 -0.380970 -0.704024 -0.293140 0.807418 0.230072 0.620030 -0.762758 0.992802 -0.120260 -0.506595 0.272970 0.648196 0.116350 -0.445671 0.673534 -0.688155 -0.945931 -0.691310 -0.552744 0.809177 -0.802018 -0.849265 -0.128871 0.818391 0.569439 -0.941324 0.405753 0.489799 -0.893434 -0.270982 0.259938 -0.274404 0.024994 0.966798 -0.466985 -0.744933 0.586828 -0.229743 -0.752131 -0.533433 0.263663 0.520839 -0.885237 -0.619987 -0.924833 0.788298 -0.308142 -0.870764 -0.903012 0.139114 0.938413 -0.705030 0.289849 -0.190458 -0.886639 -0.140713 -0.131782 0.519114 -0.650914 -0.025215 -0.751868 0.609024 0.700381 0.273126 0.575822 -0.766604 0.528193 0.162650 0.003653 0.776061 0.629218 -0.732684 0.296900 0.743981 -0.352671 0.372067 0.532279 0.339188 0.501304 0.629267 -0.521698 0.439717 0.924237 0.768150 -0.750741 -0.962401 -0.372562 0.117477 0.556713 -0.023476 -0.907738 0.804845 -0.414452 0.792643 0.077971 -0.838630 -0.973960 -0.393836 0.324021 0.029693 -0.617775 -0.046761 0.297009 0.679125 -0.302780 0.944339 0.051192 -0.770501 0.283526 -0.447504 
/
0.858766 0.761828 0.992213 0.783004 0.529978 -0.758528 0.820602 -0.842584 0.358949 0.377315 0.133940 0.451212 0.182160 0.719488 0.243855 -0.739869 0.880858 0.269895 -0.133706 0.204879 -0.700412 0.248519 -0.841882 0.596597 -0.072355 -0.144663 0.540935 0.978837 0.084836 -0.175539 -0.468667 -0.056398 -0.413711 -0.476454 -0.273394 -0.883732 -0.234982 -0.452792 -0.726317 -0.876033 0.924523 0.407623 0.575179 0.106683 0.127111 -0.180966 0.366813 0.007969 -0.911072 -0.766892 -0.787152 -0.611484 0.481627 -0.629035 0.985112 -0.590728 0.226303 0.526048 -0.611891 -0.688861 -0.649491 -0.080558 0.254741 -0.063201 0.442988 0.981347 0.053066 -0.791995 -0.471445 0.326749 -0.668028 -0.546922 -0.265627 0.907151 0.559760 0.861483 -0.273815 -0.073426 -0.130548 -0.184887 0.159682 0.082300 0.203628 -0.358691 0.453266 0.188741 0.050581 -0.320431 -0.285211 0.438690 -0.009292 0.065298 -0.641868 -0.754551 -0.997903 0.801119 -0.773204 0.055163 -0.990875 -0.244649 -0.618088 -0.658903 0.208429 0.116285 -0.751752 -0.231811 -0.022232 -0.025567 0.694763 0.847221 0.789546 -0.145556 -0.070479 -0.006826 0.495753 -0.617213 -0.818085 -0.453666 0.062356 -0.103296 0.985023 -0.946937 0.962002 -0.656845 -0.701488 0.964099 -0.855726 -0.474691 0.019261 -0.846601 0.280660 0.401174 -0.505504 -0.510912 -0.482541 -0.257255 0.257277 0.495227 0.717178 -0.047960 0.342448 0.506723 0.806484 -0.728031 -0.500103 0.302237 -0.345244 -0.318188 0.848570 0.717112 0.578516 0.833594 0.770175 0.540518 -0.823251 -0.931313 0.504616 -0.678977 -0.406004 -0.476122 -0.525578 0.874656 0.925052 -0.031082 -0.636256 -0.557490 0.711663 0.621021 0.937737 0.428841 -0.426939 0.280185 -0.064436 -0.620456 0.552154 0.435461 0.681781 -0.793090 -0.882726 0.530351 0.924022 0.695790 0.363945 0.694197 0.236307 0.540694 0.762884 -0.259076 0.861717 -0.643120 0.264801 -0.663861 -0.768464 0.189853 0.305057 -0.404720 0.632363 0.016721 -0.783699 0.570101 -0.554439 -0.210639 -0.149714 0.381125 0.168905 -0.597560 -0.183413 -0.149314 -0.390650 -0.066140 -0.618962 -0.466628 -0.370350 0.744983 -0.772431 0.865957 0.285677 0.990453 -0.393119 0.147394 -0.652667 0.871682 0.483533 -0.421131 0.061535 -0.211410 0.174149 -0.306101 0.805310 0.390449 -0.736000 -0.749128 -0.820190 0.114286 0.631997 0.348716 0.516726 -0.551417 -0.800598 -0.873923 0.382444 -0.419561 -0.340551 -0.987907 -0.674578 -0.112982 0.878050 0.611099 -0.122529 -0.515069 -0.241508 0.224804 -0.643387 -0.757975 0.803673 0.418149 0.030615 -0.022179 -0.887953 -0.164075 -0.631729 -0.623953 0.086797 -0.451919 0.490333 -0.281206 0.896797 0.007059 0.167377 -0.903802 0.133135 -0.450179 -0.323362 0.792584 -0.438086 0.002060 -0.320398 -0.560035 -0.386841 0.557072 -0.075104 0.371651 -0.218124 0.281509 0.613676 -0.414451 -0.300342 -0.355709 0.563370 -0.188295 0.480217 0.931641 0.187752 -0.432986 -0.520279 -0.321915 0.285808 -0.623482 0.685144 -0.546815 -0.527284 -0.181720 0.003006 0.149354 -0.389136 0.564920 -0.848586 0.290466 -0.995115 -0.235427 -0.152462 -0.070219 -0.863775 0.629414 -0.788710 0.749901 -0.785038 -0.089052 -0.605808 0.778332 0.722653 0.874409 0.709973 -0.089594 -0.558578 -0.810305 0.588491 0.727230 -0.433787 0.273635 -0.819585 0.038929 -0.908085 0.183422 -0.811717 -0.297222 -0.251658 -0.660302 0.993244 -0.246773 0.104271 -0.159218 0.683008 0.240496 -0.529804 0.894298 -0.009604 -0.314842 -0.194754 0.384588 -0.536509 -0.472101 0.258997 -0.826536 0.438305 0.700419 -0.636842 0.026795 0.427649 -0.070629 -0.699570 0.608065 0.968300 -0.607655 -0.208514 -0.843417 0.095124 0.539828 -0.503719 0.088368 -0.706945 0.600552 0.929150 0.976063 -0.158953 -0.600655 0.870361 0.831444 0.084504 -0.324393 0.216032 0.547994 0.203506 -0.524971 0.721458 -0.358189 -0.824552 -0.915384 0.668606 0.603097 0.013987 0.969037 0.211162 -0.017714 -0.638618 -0.997352 0.138870 0.456505 0.542476 0.635150 -0.455127 0.835531 0.235702 -0.525977 0.811595 -0.923250 -0.126632 0.681956 0.908193 0.957872 -0.642437 0.124225 0.505866 0.561069 0.599254 0.227324 -0.797120 0.774702 0.311940 0.871486 0.377799 -0.674073 0.840523 -0.411039 0.308213 -0.798095 -0.408391 -0.552917 0.658411 -0.865915 -0.917767 -0.796716 0.969616 0.317935 -0.322694 0.781211 0.394685 0.550675 0.463167 0.302878 0.508546 0.820730 -0.572897 0.014412 0.381799 -0.973643 -0.758264 0.584680 0.801058 0.553676 0.456166 0.178857 0.879603 0.296689 0.767818 0.187816 0.498594 -0.640573 0.634898 0.157005 -0.506488 0.717132 0.360289 -0.536872 0.035067 -0.962405 -0.755661 -0.570248 0.588270 0.707506 0.732630 0.096816 0.528236 -0.840267 -0.888772 -0.089964 -0.813910 -0.647035 -0.505285 0.987148 0.906641 0.950881 0.166006 0.786243 0.247571 -0.066176 -0.025941 -0.253835 0.293250 -0.391043 0.903170 0.786762 -0.673911 0.263458 -0.750110 0.361156 0.301053 -0.505771 0.790908 -0.110677 -0.798265 0.523538 0.986139 0.729971 0.683271 -0.902633 -0.359993 0.869361 -0.549668 0.134722 0.856509 -0.643027 0.085603 0.022515 -0.856784 -0.666826 0.956338 0.117275 0.079339 0.249589 0.726232 -0.017492 0.036351 -0.947679 -0.754033 0.286241 0.413476 0.547020 0.780469 0.204384 -0.563657 0.982204 -0.272078 -0.577518 0.712175 -0.588808 -0.480151 -0.647818 -0.719447 -0.029819 0.486904 -0.862938 0.327154 -0.427493 0.159576 0.470370 -0.094320 0.115915 -0.412356 0.985019 -0.634497 -0.686124 -0.032473 0.401854 -0.633804 0.213494 -0.311905 0.779673 -0.239486 -0.531436 -0.015943 0.196857 -0.549232 0.711978 0.619339 -0.837057 -0.876830 -0.860812 -0.484875 -0.596277 0.109370 -0.997971 -0.459215 -0.563477 -0.425464 0.700362 0.906893 0.480216 -0.183724 -0.505463 0.465235 0.181780 -0.191587 -0.567238 -0.416366 0.174609 0.646256 0.271728 -0.045718 -0.593230 0.740293 0.938339 0.603626 -0.808939 0.650317 0.222965 -0.645996 0.773488 0.362153 -0.130870 -0.822789 -0.528477 -0.128842 -0.282004 -0.091954 0.445694 -0.581642 -0.185061 -0.074090 0.234634 0.309476 -0.608855 -0.583586 -0.882111 -0.176093 0.000047 0.292499 -0.529837 -0.728224 -0.753219 -0.123067 -0.987931 -0.814880 -0.519441 -0.796871 0.835437 0.703525 -0.442866 0.608925 0.065678 0.426264 0.786135 0.537201 -0.702578 -0.495869 -0.554753 0.743116 -0.077511 0.260186 -0.330974 -0.842877 -0.430337 0.060171 -0.426464 -0.312448 0.884078 0.573584 0.980051 -0.645759 0.845360 -0.773168 0.231174 0.857428 -0.588048 0.711733 -0.939442 -0.752611 0.415258 -0.382308 0.856314 -0.519064 -0.956045 0.642449 -0.981863 -0.658623 -0.853419 -0.536616 -0.915507 0.069069 0.723570 -0.246481 0.226192 -0.706767 0.813690 0.799729 -0.019214 0.697768 0.373312 -0.039163 -0.947990 0.218672 0.187669 0.283184 0.076101 0.599621 -0.005083 0.136658 0.847010 -0.589825 0.754350 0.703324 -0.108889 0.798305 0.345773 -0.090752 -0.860318 0.492354 0.372632 -0.775824 -0.438577 0.096202 -0.022305 0.787616 0.389435 -0.208615 0.587344 -0.629779 -0.510846 -0.039343 0.331058 -0.458837 -0.820671 -0.481273 0.824347 0.255429 -0.881652 -0.180736 -0.607912 0.965358 0.229439 -0.853562 0.668682 -0.879450 0.944743 0.014456 0.029798 -0.915575 -0.493190 -0.597570 -0.691399 0.068233 0.498632 0.286296 -0.144151 -0.111933 -0.922319 -0.556807 0.258288 -0.433165 0.403849 -0.410654 0.107998 0.583178 0.108072 -0.067655 -0.161392 0.226420 0.751609 0.230696 0.191778 -0.018952 0.377133 -0.139539 0.101598 0.321876 0.874916 -0.868604 0.406301 -0.618274 -0.466174 0.714902 0.449959 -0.967542 0.001198 -0.694193 -0.079475 0.078879 -0.251000 -0.821187 0.645714 -0.847150 -0.231841 -0.246289 0.736028 0.876232 0.686056 -0.425364 0.102652 0.437665 0.805332 -0.705570 -0.581287 0.182465 0.154891 0.520311 -0.495659 0.029807 0.651707 0.910642 0.411533 -0.814467 0.625545 -0.138508 -0.782009 -0.373257 0.167299 0.138517 0.705622 0.916300 0.317330 0.351335 -0.930851 -0.914511 -0.894953 0.805177 0.961721 0.791103 -0.620187 0.064373 0.228768 -0.814855 0.358804 0.647480 0.367610 -0.486305 0.167791 0.871951 0.543502 -0.180502 0.782593 -0.044965 0.005032 0.408138 0.816527 0.223023 -0.965120 -0.016174 -0.638461 0.740502 -0.099874 0.678870 0.091837 -0.030725 0.764359 0.196884 -0.225548 0.726080 -0.012013 0.154266 -0.209546 -0.783246 0.339411 -0.850742 0.864234 -0.292980 -0.337048 0.032026 -0.421029 -0.793545 0.851524 -0.638436 0.161490 -0.143445 0.769702 -0.021983 -0.920422 0.804582 0.961843 -0.558882 0.545084 -0.138031 -0.880013 -0.363079 0.831244 0.884346 0.833805 -0.394304 0.610427 -0.178208 0.759962 -0.599119 0.038546 0.099373 -0.449862 -0.097219 0.806393 0.213091 0.934806 -0.614636 0.419545 0.786330 -0.253072 -0.418965 -0.357115 -0.483370 0.559052 -0.277537 -0.678788 0.520895 0.163581 0.866296 -0.617136 0.283568 -0.496783 -0.785892 0.167914 -0.662978 -0.180196 -0.221659 0.158814 -0.420234 0.179222 -0.802640 0.679139 0.729360 0.100141 0.485532 -0.057550 0.034947 0.870896 -0.638004 -0.178724 -0.382176 -0.056969 0.464162 0.134453 -0.497918 -0.813375 0.455665 -0.977023 0.350205 0.321960 -0.594159 -0.366227 0.825177 -0.380051 0.801688 -0.837801 0.439753 -0.419971 0.321013 -0.980481 0.759250 0.518373 0.698658 0.488610 -0.381486 0.184189 -0.568940 0.653460 0.055085 -0.206944 -0.525263 0.672909 0.736086 0.938898 -0.192638 -0.761831 -0.874477 -0.736974 -0.738854 0.475728 0.584987 -0.333013 -0.890498 0.410164 0.286936 0.911189 0.572363 -0.273312 -0.508782 -0.106624 -0.253793 -0.749532 -0.588251 -0.555135 0.739078 0.030262 0.629054 -0.829862 -0.316277 -0.315861 -0.036806 0.158460 -0.642952 -0.300719 0.097358 0.164410 -0.062550 0.222881 0.427436 0.198596 -0.301391 0.012423 0.865583 -0.191889 -0.577413 0.152518 -0.280699 0.994949 0.879206 0.210519 -0.111675 -0.374587 0.460987 0.300074 0.070278 0.200065 -0.669663 -0.300668 0.370204 0.014059 0.383471 -0.666602 -0.827481 0.740519 0.032679 0.269877 -0.095071 0.970129 -0.507242 -0.667635 0.168725 0.191367 0.344788 0.034307 0.999478 0.767375 -0.813175 -0.281221 0.762324 -0.933968 0.929298 -0.349351 -0.308555 0.390285 0.950724 0.761723 -0.409649 -0.718940 -0.538945 0.960555 0.295119 0.844526 -0.706047 0.467638 0.585045 0.326632 -0.262485 -0.510026 0.296761 0.230273 -0.177661 -0.534514 -0.578360 -0.832873 0.499793 -0.578882 0.934502 0.686618 0.139898 0.696826 0.752650 0.069196 -0.652525 -0.555905 -0.540519 -0.701801 -0.794182 0.049832 -0.420741 -0.333127 0.010387 0.874378 -0.488602 0.304340 0.342017 -0.903557 -0.369028 -0.920468 -0.413583 0.927734 0.309805 0.408756 -0.606780 0.731445 0.575883 0.893013 -0.847437 0.510385 0.579631 0.292461 0.207211 0.332281 -0.638343 0.554686 0.776376 -0.178862 0.852885 0.982194 0.870970 -0.567856 -0.350933 -0.118644 -0.693477 0.160466 -0.814304 0.648539 0.256909 -0.183331 0.728071 0.843326 -0.255597 0.037876 0.252082 0.137622 -0.230680 -0.172035 0.030635 -0.078117 -0.661651 -0.389734 -0.785656 0.545560 0.942547 -0.423999 0.100246 0.718923 0.397138 -0.046869 0.701118 0.268108 0.385275 -0.649815 -0.850535 0.691798 0.510651 -0.664839 0.340337 -0.232441 0.151830 0.068408 -0.389115 0.896232 -0.893717 0.862967 0.033854 -0.124396 -0.309068 -0.935511 0.797487 0.029282 -0.325245 -0.988169 -0.425158 -0.382698 -0.412168 0.675088 -0.663775 0.984970 -0.371781 -0.962657 0.253078 -0.986506 -0.612472 0.402543 0.705292 0.898178 0.737704 0.045628 -0.334262 -0.110466 -0.885964 0.276623 -0.214234 -0.779680 0.139591 0.819620 0.095923 0.830523 0.884110 -0.106590 -0.140196 -0.441136 -0.094759 0.434646 0.176166 0.493073 0.109733 0.512391 0.478043 0.737952 0.549734 -0.268879 0.751446 0.937262 -0.866336 0.456737 0.835440 0.871368 -0.497634 -0.498822 -0.239098 -0.383598 0.777801 0.546668 -0.163278 -0.082608 0.366288 0.932645 -0.252086 0.250398 -0.173945 0.607719 0.809262 0.731296 0.042364 -0.014572 0.224369 -0.847903 -0.502181 -0.297588 0.890049 -0.952447 0.433533 0.641495 0.984815 0.567197 0.098232 0.820256 0.438565 0.600598 -0.678566 -0.800533 -0.783000 -0.900765 0.746134 0.053722 0.016627 0.112422 -0.013634 0.764541 -0.637180 0.812421 0.372260 -0.827918 0.543717 -0.585376 0.157510 -0.231914 -0.433278 0.655330 0.470498 -0.543229 0.702883 -0.095968 -0.901734 0.687698 -0.528771 0.196498 0.507954 0.909794 -0.202904 0.829388 -0.890739 0.014096 0.928623 0.855395 -0.932182 -0.054750 -0.032183 0.054184 -0.290209 0.330637 -0.133394 -0.917949 0.502720 -0.589677 -0.503325 -0.339770 0.178409 0.063396 -0.684440 -0.351092 0.520167 -0.981558 0.552939 0.618433 0.706141 -0.975832 -0.185068 0.214095 0.933962 0.612028 0.043482 -0.956777 -0.373875 -0.027895 0.898618 -0.306057 0.917355 -0.133565 0.748127 -0.372854 -0.802927 -0.385267 -0.290803 0.699792 0.025056 0.205871 -0.639978 -0.796535 -0.730732 -0.324418 -0.147627 0.789435 -0.305976 -0.594688 0.407868 -0.599835 -0.570520 -0.777200 0.614260 -0.636557 0.834829 -0.342258 -0.593334 -0.539046 0.629847 -0.694717 0.154896 0.547202 0.171719 -0.096977 -0.825652 0.368791 0.517756 -0.116456 0.068584 -0.457188 -0.910584 0.428606 -0.253723 -0.641317 -0.895812 0.598649 -0.851882 -0.201788 -0.996038 0.555987 0.198377 -0.566558 0.778787 -0.187363 -0.203115 0.613616 0.470379 0.203550 -0.925430 0.100227 0.508834 0.229466 -0.352571 -0.319448 -0.867511 -0.178224 -0.950656 0.650245 0.705321 0.117927 -0.806943 0.794736 -0.453467 -0.060667 -0.846580 -0.349279 -0.462017 -0.698462 0.448934 -0.458056 0.857525 -0.352689 -0.024614 0.636312 0.459948 0.772271 0.249928 -0.069673 -0.024179 0.324498 -0.969446 -0.515345 -0.446036 -0.322018 0.165207 -0.313547 0.499759 0.214551 -0.663301 0.205080 -0.667522 -0.470245 -0.000184 -0.120988 0.469089 0.153236 0.529733 -0.992929 0.454774 -0.021333 -0.450984 0.312299 0.625978 0.524402 -0.051388 0.085925 0.296673 -0.801460 -0.983747 -0.727506 0.523038 -0.953194 -0.242851 -0.922998 -0.275211 0.922356 -0.236544 -0.775452 0.136907 0.100154 0.429627 0.469385 0.629910 -0.570557 -0.651603 0.098998 0.582679 0.878129 0.106070 0.037453 -0.143204 0.655086 -0.650247 -0.517226 0.179488 0.298364 0.568699 -0.523839 0.496904 0.584952 -0.251345 0.019943 0.631758 0.505804 0.096945 -0.643453 0.428160 0.860401 -0.418905 -0.434933 -0.039445 -0.989278 -0.965548 -0.409536 -0.559835 -0.617152 0.689463 -0.977155 -0.739022 -0.204468 0.060298 0.117774 -0.549382 0.410051 0.600547 0.630106 -0.291585 0.169247 -0.893733 -0.794681 -0.245802 -0.145078 0.225262 -0.614043 -0.639274 -0.677793 -0.257496 0.788886 -0.817392 0.323598 -0.646047 0.143162 0.334320 -0.611596 0.733627 0.774486 -0.228747 0.423089 0.797330 0.032230 -0.781378 -0.142372 -0.849996 -0.330760 -0.732321 0.750552 -0.700655 -0.023907 -0.080202 -0.594388 0.181413 0.673997 0.260534 -0.593325 -0.940047 0.621260 -0.271118 -0.197543 0.410145 -0.088511 -0.873945 0.764098 -0.945349 0.460376 -0.847498 0.788278 0.234861 -0.076245 0.211367 0.032192 0.955986 0.429989 0.889820 -0.894010 -0.900772 -0.842502 0.856542 -0.601426 0.133592 -0.223660 -0.195814 -0.684995 -0.549663 -0.935280 -0.278321 -0.489710 0.685979 0.450561 0.312747 0.096125 -0.637950 0.438802 -0.139777 -0.583298 -0.100822 0.012725 -0.795020 -0.865961 0.936481 0.416347 0.166231 0.892466 -0.153664 0.056051 0.998456 -0.054436 0.213549 0.854998 0.344138 -0.652859 -0.368662 -0.851676 -0.337854 0.081674 -0.786956 0.383825 0.591964 0.899023 -0.165614 -0.095289 -0.004852 0.196437 -0.656487 0.855371 0.613139 0.242691 -0.131904 0.818118 0.376730 -0.195423 0.234465 -0.457040 -0.302957 -0.919199 0.599011 -0.304501 0.026365 -0.187440 -0.449503 -0.629497 0.159701 0.181835 -0.481173 0.821847 -0.736491 -0.268129 0.205672 0.855473 -0.369106 -0.959941 -0.239816 0.626042 0.236495 0.103697 0.481413 -0.150366 -0.653612 -0.650491 -0.332248 0.723118 0.154085 0.902218 -0.733922 0.851128 0.983019 0.865089 -0.453373 0.009384 -0.322351 0.097124 0.379887 0.837350 -0.721041 0.898715 0.659197 -0.457532 -0.369414 -0.135131 -0.602059 0.261480 -0.095072 0.158125 -0.112478 -0.858577 -0.738177 -0.631065 -0.008943 -0.391789 -0.281557 0.658809 -0.668672 0.872529 0.561027 -0.402594 0.723657 0.544046 -0.537505 -0.729716 -0.446570 0.140145 0.367408 0.933317 -0.022505 0.646367 0.832032 -0.363308 -0.811165 -0.537383 0.501561 -0.413224 0.724097 -0.593511 0.744901 -0.388381 -0.452087 -0.993276 -0.019446 0.538970 -0.385066 0.698997 0.197779 -0.053737 0.571526 -0.241194 0.543669 0.295183 -0.697148 -0.993836 0.565467 -0.143718 0.146309 -0.067125 -0.210401 -0.876196 -0.420758 -0.378369 -0.239504 -0.231923 0.084248 -0.737943 0.354852 -0.191655 -0.331453 0.099753 0.419964 0.216459 0.106477 -0.599482 -0.244571 0.721412 -0.900485 0.953209 -0.332326 0.671041 -0.287985 -0.788657 -0.033777 0.014867 -0.782493 -0.468310 0.871149 0.363816 0.464566 -0.339252 0.487620 -0.956192 0.282379 -0.751885 -0.188116 -0.633373 -0.489828 -0.833263 0.174972 0.178719 0.266490 -0.405063 -0.604822 -0.627033 -0.004546 0.150608 -0.905621 0.094969 0.103817 -0.237947 -0.233990 0.815832 -0.026604 0.732233 -0.169301 0.190903 -0.736076 -0.298151 -0.445281 0.728489 0.362597 -0.957661 0.772297 -0.355025 -0.709546 -0.415819 0.011602 -0.199374 -0.249082 -0.813426 0.979345 -0.982592 -0.218489 -0.625476 -0.609625 0.776965 0.525132 -0.515247 -0.128066 -0.371051 0.246806 0.637944 -0.555219 -0.779798 0.370178 0.275480 0.411105 0.634101 0.977329 0.965824 0.362590 0.339925 -0.991837 0.134887 0.984901 -0.701384 0.719068 -0.003497 0.099243 -0.530014 0.183077 0.078588 -0.512606 0.964587 0.453112 -0.122231 0.741552 -0.021757 0.362522 -0.386513 0.607192 -0.390672 -0.748569 -0.948027 -0.170470 0.621608 0.327453 -0.759365 0.255710 0.304782 -0.793540 -0.381700 -0.355293 -0.785378 0.753187 -0.370392 -0.486762 0.472255 0.626110 0.612481 0.942241 -0.190813 -0.308931 -0.570365 -0.226226 -0.855820 0.307404 -0.484674 0.122424 -0.330074 0.128813 -0.270384 0.279254 0.380244 -0.218412 -0.891215 0.001853 -0.890959 -0.650580 -0.742438 0.413823 -0.444120 -0.124138 -0.941470 -0.229498 -0.370951 -0.311862 0.283740 -0.898696 -0.685752 -0.103779 -0.956455 0.123435 0.587290 -0.526820 0.897209 0.731470 0.780584 -0.587465 -0.146106 -0.549490 0.541348 0.583509 0.729764 -0.078407 -0.634902 0.838549 0.923445 -0.525861 -0.812031 -0.818992 0.887962 -0.256152 0.056870 0.946492 0.514350 0.685919 -0.365370 -0.201910 0.787223 -0.051122 0.694311 0.830768 -0.927687 0.281601 -0.696051 0.969522 0.013071 -0.915467 -0.617943 0.866965 -0.464957 0.923406 0.450474 -0.735193 -0.155002 0.815572 -0.896645 -0.231557 -0.710289 -0.708676 -0.050549 -0.822327 0.035173 -0.993680 -0.875835 -0.450477 0.692239 -0.241205 0.347613 0.479462 0.707673 0.041924 0.310230 0.779987 -0.676475 0.614179 0.749508 0.336596 0.698712 -0.868434 0.203561 -0.766245 -0.945029 -0.345965 -0.501439 -0.100031 -0.530394 -0.398083 0.668412 -0.240683 -0.106759 -0.382137 -0.063011 0.928414 -0.375817 0.061154 -0.522064 -0.683578 0.819950 0.825549 0.795884 0.527623 -0.132527 0.106115 0.307609 0.190998 -0.279706 0.057118 -0.472406 -0.580994 0.188683 0.731154 -0.347240 0.243654 -0.614811 0.151322 -0.856376 -0.145205 0.753238 0.812036 0.614112 -0.353520 -0.570101 -0.448899 -0.425107 0.054083 0.612256 0.052829 0.370505 0.432205 -0.121622 0.166389 -0.040172 0.745851 -0.727496 -0.732562 -0.063151 -0.007203 0.324555 0.464442 0.411803 -0.486761 0.195597 -0.935437 0.756893 0.580785 0.215885 0.900517 -0.564420 -0.030877 0.712553 -0.950308 0.615603 -0.857548 -0.399206 -0.809504 0.196535 -0.786951 0.243325 -0.432960 0.645254 -0.878296 0.733429 -0.394918 0.867555 -0.994067 -0.127480 -0.195596 -0.001270 -0.802925 -0.731154 -0.589467 -0.289686 0.464443 -0.524904 -0.532792 0.045228 0.690981 -0.632275 0.480808 -0.339896 -0.919722 0.530501 -0.724293 -0.777270 -0.868706 -0.533797 0.419264 -0.655656 0.709528 0.986304 0.989598 0.831232 0.719733 -0.405320 0.698787 0.725666 0.467200 -0.496809 -0.275604 0.664276 -0.227963 0.134929 -0.625410 -0.763521 0.610025 -0.158202 0.281707 0.301006 0.209523 -0.237484 0.961109 0.289801 -0.706984 -0.763184 0.512530 -0.575689 -0.296981 -0.068205 -0.231346 -0.587453 -0.081901 -0.241748 -0.756221 -0.362168 0.352932 0.942566 -0.636502 -0.179867 -0.554243 0.087894 -0.515591 0.217794 -0.777178 -0.141001 0.454273 0.832847 0.700797 -0.264020 0.133853 -0.089680 0.498496 0.094962 -0.799879 0.791512 0.331778 0.712651 -0.784177 -0.965203 -0.355554 -0.015523 -0.552656 0.562545 0.742729 -0.308877 -0.799623 0.095661 -0.366311 -0.436126 0.915794 0.079446 0.651768 -0.599797 -0.702761 0.874590 0.259202 0.751512 0.707438 -0.040000 -0.512507 -0.158709 0.870320 0.985988 0.936253 -0.929560 0.777500 0.268031 0.783091 0.993323 0.302828 -0.572463 -0.022200 0.750172 0.990082 -0.279471 -0.558705 -0.809542 0.816190 0.074985 -0.245667 0.731984 -0.845570 -0.593899 -0.867813 -0.548330 -0.719309 0.391389 -0.796818 0.988129 -0.648612 -0.309325 -0.170581 -0.778292 -0.323337 -0.234328 -0.707852 -0.545836 -0.966297 -0.924760 -0.552513 0.336531 -0.497223 0.425286 0.086704 -0.507142 -0.854185 0.527999 -0.316683 0.962005 -0.397016 0.437649 0.693988 -0.242586 0.843750 0.826175 0.209084 -0.875559 0.217564 0.412266 -0.887430 0.568953 -0.897059 -0.058011 0.790661 -0.220395 0.707661 -0.917191 0.233768 0.741364 -0.841951 0.681255 0.077896 -0.339175 0.106541 -0.835401 0.153683 0.252356 0.692598 0.837000 0.214361 -0.704418 0.274649 -0.091651 0.052996 0.118399 -0.265476 -0.737920 0.242840 0.952088 0.674347 0.355410 0.521041 0.777288 -0.702600 0.311702 -0.443108 -0.994939 0.394510 0.790661 0.746426 0.552559 0.471915 -0.175679 -0.786616 -0.421544 -0.011079 0.367068 0.830812 -0.318481 0.204067 0.045173 -0.022899 -0.521283 0.953522 -0.969903 0.597116 -0.311954 -0.707822 -0.160043 -0.359865 0.966524 -0.804633 -0.838825 0.743812 -0.507233 0.472877 -0.699296 -0.502172 -0.132613 -0.908635 -0.755747 -0.580054 0.563280 0.068575 -0.366669 -0.858264 -0.942505 -0.999602 0.972549 -0.260985 0.204466 0.017722 0.716116 0.683182 -0.028756 0.746213 0.280298 0.659290 -0.961609 -0.879745 -0.700575 -0.995085 -0.684378 -0.539400 0.748727 -0.191611 0.933477 -0.950569 0.306216 -0.199135 -0.859204 0.550470 0.220811 0.704076 -0.380956 0.854142 0.845813 -0.323461 0.854540 0.818362 0.415554 0.059005 -0.163917 0.131670 -0.257812 0.807328 -0.122117 -0.977514 0.466618 -0.083726 -0.857259 0.766043 -0.078810 -0.541637 -0.773356 -0.330083 0.266752 -0.839879 -0.280652 -0.427032 -0.039014 -0.139856 -0.876563 -0.818203 -0.435779 -0.257519 -0.964061 -0.589967 0.419021 0.890479 -0.771605 -0.165425 -0.050516 0.064478 0.966245 0.691672 -0.128194 -0.155872 0.714158 -0.661576 0.760402 0.856899 -0.895533 -0.318408 -0.684738 -0.668890 0.351509 0.582014 -0.508769 -0.929143 -0.845018 0.452217 -0.068998 -0.721581 0.634014 0.495222 0.020900 0.669953 0.905256 -0.560079 0.560432 -0.866350 0.274496 -0.490084 0.198129 0.240741 -0.798412 -0.930066 -0.915131 0.915746 -0.591642 0.845271 0.772646 -0.487175 -0.473137 -0.912092 -0.156064 0.878372 0.669922 0.335167 0.949229 0.824903 -0.212616 -0.119769 -0.896678 -0.578601 -0.624546 0.124223 -0.908648 -0.719291 0.564144 0.651784 -0.585640 -0.161360 -0.838300 0.612488 -0.920619 -0.636711 0.682423 -0.835751 -0.720965 -0.909219 -0.990479 -0.948319 -0.396394 -0.463616 -0.860412 0.447542 -0.585244 0.809510 -0.217291 -0.636014 0.634413 0.570094 0.244217 0.737736 0.991492 0.619670 -0.138042 -0.917156 0.900380 -0.573898 0.734628 -0.685261 0.264742 0.896329 0.927227 0.344123 -0.740383 0.609650 0.508373 -0.461348 0.700431 0.517893 -0.409667 -0.695963 -0.945723 -0.270079 0.751580 -0.530967 -0.460569 -0.465711 -0.166981 -0.826155 -0.895618 -0.922764 0.911580 -0.904125 0.696906 -0.226462 -0.821281 0.597285 0.199641 0.913347 0.912025 -0.535617 0.809676 0.839252 0.808506 -0.930707 0.448902 0.316879 -0.392055 0.149333 -0.165228 0.198278 0.453371 -0.110951 0.928199 0.204950 0.358082 -0.532370 0.739239 -0.808899 -0.358525 0.843621 -0.731663 -0.446945 0.939496 0.965243 0.326593 -0.881785 0.562528 -0.473766 -0.968438 0.474553 -0.009383 0.841237 0.313805 -0.200877 0.910530 -0.237293 -0.883998 -0.481525 0.912040 -0.049226 0.716752 0.365411 0.839823 0.644951 -0.429639 0.197905 -0.887419 -0.690400 0.389006 -0.245944 -0.846779 0.657343 0.307110 -0.907283 0.622585 -0.366296 -0.789068 0.185113 0.159938 -0.757506 -0.340334 -0.849445 -0.916269 0.973470 -0.050322 0.994261 -0.263823 0.065680 -0.487264 -0.351783 
-0.983547 -0.770511 -0.986372 0.856276 0.874440 -0.416011 0.054181 0.987021 -0.106411 -0.556813 -0.258923 0.046810 -0.899471 -0.951813 0.139527 0.723114 -0.318109 0.350459 -0.091772 0.841829 0.592953 0.567893 0.992384 0.676684 0.541363 -0.057938 0.670945 -0.722460 -0.992259 -0.816318 -0.074243 -0.975805 -0.586830 -0.060615 0.880471 -0.712390 0.523373 -0.065348 -0.725369 -0.583038 0.377839 0.015708 0.463771 0.478368 0.063895 -0.396702 0.201483 0.745786 0.953757 -0.890290 0.587615 0.546710 0.677603 0.579999 0.223394 0.218967 -0.477940 -0.105661 0.496507 -0.470198 0.078021 -0.577736 -0.446004 0.491191 0.361648 -0.565533 0.778802 -0.114978 0.369119 -0.946567 0.301983 -0.253042 0.069141 -0.234245 -0.774673 -0.866964 0.369053 0.426809 0.878823 0.322810 0.536520 0.466438 -0.130480 0.214123 0.046437 -0.907086 -0.566910 0.568497 -0.012746 0.929597 -0.901701 -0.934725 -0.648139 -0.347705 0.556466 0.713509 0.086762 0.335268 -0.401469 -0.544118 0.388701 0.900514 0.202840 -0.542158 -0.333731 0.428166 -0.409121 -0.964678 -0.145024 -0.530299 0.358132 -0.608505 0.936139 -0.772347 0.605619 -0.017424 -0.679433 -0.961291 -0.448927 0.307821 0.968306 -0.350628 0.373096 -0.679833 0.301667 -0.070438 -0.966324 -0.611571 -0.735170 -0.367793 -0.155689 0.653531 -0.467279 -0.952850 -0.888627 0.198990 0.475317 -0.297749 0.234311 -0.669708 0.171953 -0.407556 -0.278212 0.108092 -0.179904 -0.672593 -0.909332 0.140664 -0.633884 -0.358258 -0.551515 -0.665579 0.291114 0.821580 -0.345412 -0.407220 -0.248858 -0.311736 -0.018791 0.015972 0.320471 0.825520 -0.330497 0.853191 0.872671 -0.219124 0.052181 0.347987 0.483127 -0.713508 0.678280 -0.344920 -0.121064 -0.599932 0.763173 0.699033 -0.272526 0.853841 -0.160304 0.093590 -0.504417 0.288181 0.428011 0.786696 0.109761 -0.917401 -0.620523 0.860904 -0.229137 0.360686 -0.123124 -0.908666 0.186206 0.546379 0.944525 0.058877 -0.672745 -0.003294 -0.593136 0.810383 0.283199 -0.914856 -0.534537 -0.837865 -0.514788 -0.771365 0.861167 0.212686 -0.917523 -0.299136 -0.693724 -0.421941 0.989045 0.734287 -0.635244 0.098806 0.816886 -0.255768 -0.040290 -0.412251 -0.895081 0.836586 -0.320917 0.291125 0.382965 -0.376392 -0.649998 0.710220 0.620314 -0.243134 0.520602 -0.096487 -0.157990 0.986065 0.065647 0.327221 -0.785299 -0.073185 -0.460092 -0.702823 0.627679 -0.153816 -0.124763 0.616723 -0.419529 0.239992 -0.284471 -0.602643 0.984225 0.675238 -0.014893 -0.910857 0.511824 0.664189 0.380268 -0.105211 -0.712203 0.730270 -0.394991 0.908111 -0.512865 -0.874389 -0.188376 0.329145 -0.888324 0.877272 -0.343633 -0.673623 -0.195914 0.196274 -0.376446 -0.568235 -0.957542 0.498791 -0.951512 -0.377071 -0.261217 -0.235983 0.020286 -0.276992 -0.560745 -0.994608 -0.187849 0.951079 0.669582 -0.807581 -0.154132 0.957379 0.922689 0.450877 0.865491 -0.590176 0.576488 -0.322885 0.738969 0.688164 -0.445614 -0.604664 -0.985460 0.358473 0.591610 -0.361906 0.790238 0.634068 -0.863115 0.838726 -0.743003 -0.124332 -0.397257 0.277283 0.598675 0.041998 0.282675 -0.589174 -0.006922 -0.047743 -0.396754 0.838946 -0.090364 -0.474066 0.289823 -0.224873 -0.064241 -0.133690 0.452241 -0.325272 -0.445526 -0.993372 0.070064 -0.430985 0.365101 -0.338326 0.207109 0.155338 -0.704258 0.343994 -0.005936 -0.447261 -0.780339 0.596807 0.830022 0.818337 -0.361195 0.112697 -0.770837 0.631883 -0.935047 -0.167591 0.470829 -0.025411 0.358343 -0.239348 0.749716 -0.705898 0.626963 0.201957 -0.031170 -0.818563 0.208585 -0.961107 -0.249549 -0.426314 -0.299432 0.957560 0.729024 -0.003690 0.301554 -0.276912 0.549049 0.521215 -0.680105 0.379070 0.339552 -0.041299 -0.508233 0.568715 -0.409416 -0.443280 -0.598876 -0.938587 0.531309 0.759467 -0.177935 0.281025 -0.946431 -0.550972 -0.517017 0.022398 -0.369535 0.691568 0.061292 0.380916 -0.734747 0.761860 0.338476 0.994277 -0.241831 -0.359970 -0.282635 -0.692782 -0.838754 0.037260 0.686288 0.500798 0.995961 -0.821945 0.069513 -0.413455 -0.265225 0.470637 -0.352042 -0.733915 0.230104 0.470024 0.547110 0.283673 0.919052 -0.969907 -0.693928 -0.450483 0.721660 0.367364 0.930433 0.986914 0.129223 0.268909 0.981191 0.887393 0.908939 -0.301444 -0.805389 -0.929815 0.735817 0.880899 0.570982 0.731778 -0.941046 -0.359505 -0.681677 -0.206271 -0.888868 -0.033719 0.059814 0.341236 -0.563695 -0.393076 -0.375090 -0.644644 -0.362983 -0.069019 -0.095127 -0.641323 -0.701655 -0.164694 -0.654409 0.427568 -0.895785 -0.673218 0.314961 -0.986846 0.025338 0.509571 -0.916661 -0.238845 0.390470 0.654321 -0.507066 0.449424 -0.705184 -0.188744 -0.756847 -0.594051 0.777538 0.302967 0.747185 -0.786158 0.909891 -0.627905 -0.430801 -0.453092 0.303076 0.474072 -0.094415 0.601421 -0.690623 0.251175 0.028989 -0.586408 0.577958 -0.656051 -0.573254 -0.396704 0.853521 -0.489916 0.364451 0.243991 -0.835595 0.857385 -0.306585 -0.540778 -0.331359 -0.063432 -0.134830 -0.553821 -0.760465 -0.387645 -0.339979 -0.850574 -0.015550 0.229220 -0.303666 -0.712474 -0.296708 0.601919 0.888946 0.012669 -0.146906 -0.082065 0.426261 -0.568948 0.261884 0.853006 0.034348 0.115405 -0.636909 -0.601201 -0.640604 -0.472504 -0.743816 0.052810 -0.013282 -0.075175 0.989379 0.851888 0.371004 -0.771086 -0.535757 -0.968975 -0.621659 0.448693 0.260245 0.074675 0.736218 0.963537 -0.323407 0.625165 -0.023794 0.529687 -0.456900 -0.597534 0.960739 0.804984 -0.744527 -0.004913 -0.079611 -0.381437 0.393886 0.279784 0.146060 0.650069 -0.667405 -0.867223 -0.425105 -0.678026 0.984665 0.945899 -0.449112 -0.551092 0.976924 -0.070772 0.897601 0.237170 -0.996097 0.633820 0.200707 -0.319504 0.258984 -0.823088 -0.789816 0.802084 -0.420621 -0.829077 0.607068 -0.165149 0.166009 -0.472543 0.453415 -0.440105 0.807241 -0.400526 -0.790036 -0.860164 -0.267748 -0.215141 -0.538190 -0.283083 -0.269242 0.012697 0.165826 -0.292318 0.941926 0.063427 0.944852 0.945829 -0.302754 0.145558 -0.373675 0.956231 0.322471 -0.163491 0.758315 0.901849 0.007431 0.365383 -0.263299 -0.826560 0.892839 -0.809885 -0.266665 0.700080 -0.210410 -0.056701 0.839916 0.521842 0.728157 -0.698274 -0.761241 -0.541085 0.314423 0.404584 0.166597 0.256349 -0.531989 0.111449 0.202178 0.165258 -0.742993 0.828503 0.121488 0.579478 -0.334989 -0.120197 0.481328 0.672442 -0.754814 -0.781972 0.845882 -0.861975 -0.591856 -0.420783 0.838105 0.197733 0.522515 0.678021 -0.280425 0.250673 0.979747 -0.041666 0.709587 0.294171 -0.637082 -0.123816 -0.449480 -0.169071 0.987633 0.752698 0.996187 -0.755359 0.581200 0.117675 0.824119 -0.753788 0.997478 0.305446 0.918654 -0.757336 0.523475 0.764536 -0.619312 0.931618 -0.656247 -0.781207 0.129352 0.866268 0.896815 0.848927 0.116941 0.876562 -0.192740 -0.173472 0.170733 0.170178 0.702713 0.721253 -0.998893 0.690346 0.473951 0.997294 0.934987 0.055151 0.114969 0.759106 0.301362 0.112447 0.064552 0.220016 0.355110 -0.411973 -0.015447 0.735799 -0.480355 0.328306 0.954592 0.648997 0.194574 0.851407 0.497923 -0.688485 0.727969 -0.694817 0.138043 -0.101298 0.475361 -0.159244 -0.380045 0.476468 -0.468897 -0.906094 0.473762 -0.533910 0.149057 -0.411269 -0.774804 -0.549581 0.701177 0.289748 0.670436 0.056288 0.877775 -0.345012 -0.207914 -0.602580 0.983294 -0.253322 -0.953583 0.177868 -0.401915 0.544340 0.489383 -0.673945 0.849524 -0.372573 0.224757 0.324885 0.468183 0.844712 -0.198646 0.999286 0.938618 -0.724884 -0.534625 0.087675 -0.136154 -0.309429 0.538094 -0.434976 0.980319 0.208529 0.621311 0.858094 0.863517 -0.586602 -0.744487 0.846811 0.160076 -0.698070 0.024679 0.758161 0.846271 -0.485938 -0.915784 0.695794 0.141489 0.308973 0.020679 -0.390328 0.153685 0.822033 -0.391042 0.092303 -0.902851 0.074333 -0.820023 -0.039005 0.764904 0.718071 0.526019 0.745223 -0.073400 0.147330 0.603316 -0.209882 0.560728 0.858830 -0.363071 -0.279196 -0.839240 0.661609 -0.521034 -0.992970 -0.824329 -0.436819 0.702825 0.317160 0.872154 -0.276496 0.926832 0.025839 -0.454463 -0.464210 -0.881858 -0.357314 0.610123 -0.701881 0.603681 0.375027 -0.983810 0.129700 0.120249 -0.057210 -0.722970 -0.276435 0.732908 0.837758 -0.417605 -0.630163 -0.441437 -0.256845 -0.968554 0.037528 -0.249815 -0.792883 0.600709 -0.546991 0.524277 0.472863 0.176513 0.451109 -0.501298 0.722050 0.986899 -0.383156 -0.635264 0.597022 -0.085037 0.968416 -0.027952 -0.068847 0.098116 -0.907703 0.873943 0.375146 -0.184138 0.606851 0.212904 0.398257 0.976689 0.771467 -0.858588 -0.991866 -0.191005 -0.108404 -0.784748 -0.590296 0.344606 0.739529 0.882568 -0.478881 0.190638 -0.618730 -0.756831 0.177537 -0.001886 -0.392095 -0.225442 0.913076 -0.423679 0.746606 -0.155771 0.674437 0.838904 -0.281828 0.049583 -0.345234 -0.674977 -0.737513 -0.946977 -0.698289 -0.966046 -0.805565 -0.690154 -0.157052 0.086031 -0.474902 0.252653 -0.569363 -0.735374 0.135221 -0.048244 0.455264 0.516490 0.194925 -0.367199 -0.485396 0.802830 0.407360 -0.572320 -0.620849 0.153966 0.271910 -0.946413 -0.007130 0.990081 0.103170 0.647636 -0.684896 0.365657 0.700658 -0.383184 0.399610 0.895093 -0.073338 -0.757441 -0.018876 0.451759 0.495212 0.411761 0.716386 -0.369568 -0.636483 0.171650 -0.853077 0.558442 0.804451 -0.338473 0.361271 0.211811 0.089207 0.740422 -0.634223 -0.638883 0.794009 0.358646 -0.648802 -0.102821 0.006282 -0.333697 -0.737164 -0.293060 0.283119 0.662447 -0.397967 -0.790219 0.905006 0.583157 0.661540 0.400217 -0.005082 0.377926 -0.969351 0.358434 -0.450424 -0.822428 -0.083124 -0.645973 -0.160901 -0.721853 0.565838 0.928306 -0.981431 0.931615 -0.710577 0.812578 0.290261 -0.359378 -0.290242 -0.703457 0.306924 -0.027406 0.003483 -0.409957 -0.364959 0.605517 -0.200176 -0.459954 0.188674 -0.538636 0.940263 -0.816408 0.839289 0.970913 0.542026 -0.611135 -0.851515 -0.541098 -0.257107 -0.012416 -0.262950 -0.691269 -0.084110 -0.244381 -0.759655 0.205314 -0.431803 0.530607 0.845935 0.277955 0.827150 0.152860 -0.749451 -0.169367 0.742903 -0.114410 -0.563850 -0.457274 0.425636 0.624824 0.004090 0.365900 0.808416 -0.156621 0.336812 0.350442 0.232244 0.485298 0.809344 0.975137 -0.527118 -0.453606 -0.716132 0.388772 0.302013 -0.475787 -0.405914 0.870210 -0.945181 -0.559979 0.148165 0.881969 0.592881 0.398714 -0.287398 0.335784 -0.715696 0.148752 0.878510 0.709940 -0.226424 -0.117400 0.075840 -0.418008 0.725979 -0.587348 0.932434 -0.041776 0.897950 0.741778 -0.066639 -0.629169 -0.711828 0.217228 0.759603 0.590184 0.741441 -0.646311 0.460394 0.796260 -0.206290 -0.391441 0.678229 -0.613409 -0.992727 -0.609168 0.722375 -0.708423 0.539584 0.600885 -0.998483 -0.686840 -0.516515 0.077356 -0.104849 -0.790536 0.490008 -0.172415 0.167688 0.387958 -0.430638 -0.898952 0.758789 -0.142466 0.318276 0.518392 -0.552281 0.059717 0.872081 0.908113 -0.144022 -0.334208 -0.483328 -0.465793 0.052383 -0.476055 -0.074961 -0.225241 -0.184478 -0.535378 -0.624356 -0.182962 -0.222218 -0.140871 0.894395 0.672933 0.068593 0.384403 -0.499483 -0.763719 -0.227639 0.069880 -0.662671 -0.468850 0.927414 0.655606 -0.950458 -0.624867 -0.284677 0.921624 -0.716754 0.571300 -0.412584 -0.200083 -0.894493 0.639799 0.323862 0.030546 -0.585442 -0.860616 0.495168 -0.209798 -0.043578 -0.727050 0.649331 -0.149183 0.945883 -0.282076 -0.764780 -0.553600 -0.045795 0.007581 0.516280 0.291535 0.538731 0.443695 -0.052860 0.588273 0.818827 0.662463 0.509897 -0.897927 0.233764 -0.902687 -0.098010 0.339271 0.737112 -0.774147 -0.630183 -0.848330 -0.634763 0.864986 -0.058128 0.321659 -0.862064 -0.408797 -0.827524 -0.916181 0.309127 -0.592304 -0.469781 -0.736668 0.415277 -0.953500 0.554867 -0.045992 0.490194 -0.497992 -0.457718 0.309021 -0.835529 -0.947821 0.411094 0.398235 -0.850508 -0.686915 -0.262494 0.886604 -0.461062 0.107323 -0.961726 -0.095826 -0.027691 -0.019854 -0.774167 0.110245 0.571349 -0.601691 0.194064 -0.119524 -0.193995 0.724283 0.143809 -0.778718 0.770783 -0.301324 0.175290 0.260977 0.200683 0.717572 -0.430002 0.365154 0.769751 0.981093 -0.236611 0.919243 -0.705822 0.500895 0.805847 -0.166885 -0.391781 0.844121 0.737290 0.580528 -0.175733 0.963123 -0.309227 -0.604384 -0.638568 0.884836 0.276092 0.167437 0.609119 -0.580099 0.388719 0.379902 0.118576 -0.435990 -0.359121 -0.680740 -0.718418 0.210877 0.684414 -0.948668 0.191970 -0.552197 0.970575 0.486147 0.948699 0.776421 -0.680738 -0.443083 0.620543 -0.943448 -0.862555 -0.555190 -0.980325 -0.171783 -0.159574 -0.618893 -0.286946 -0.883482 0.548544 -0.677827 -0.463581 -0.062736 0.702075 0.654995 0.501274 -0.657046 0.974255 0.782855 0.553831 0.658670 0.834187 -0.254200 -0.893527 0.804762 -0.768053 -0.944828 0.581183 -0.448790 -0.387911 0.201726 -0.392238 -0.250466 0.646536 -0.372563 0.577752 -0.513038 0.008544 -0.709195 -0.396520 -0.442912 -0.387022 0.139899 0.494352 -0.684947 -0.205106 -0.004375 -0.341993 -0.230850 -0.221520 -0.788163 -0.572181 -0.387332 -0.042362 -0.465707 -0.582571 0.189585 -0.410536 0.998613 0.740795 0.201554 0.200339 -0.651443 0.951088 -0.153125 -0.024006 0.528839 0.333837 0.984537 0.819645 0.937317 -0.458375 -0.567377 0.077216 -0.964023 -0.252324 0.872110 0.031602 0.405683 -0.358740 0.810083 0.617520 0.069079 -0.577250 -0.424842 0.603372 -0.159820 0.764743 -0.807164 -0.161208 0.505538 0.394390 -0.960869 0.854095 0.345477 -0.113994 -0.169912 -0.125683 -0.780158 -0.185374 -0.306038 -0.842841 0.356251 0.126585 0.234375 0.392228 0.874261 0.106484 -0.576170 0.279943 0.747744 -0.766087 -0.102536 -0.183177 -0.343337 0.472622 -0.579805 0.496842 0.237365 -0.386969 -0.664365 -0.257097 -0.992580 -0.625234 -0.403003 0.352898 0.260772 0.427086 -0.772785 0.480614 -0.758289 -0.078824 0.637773 0.597962 -0.952239 -0.127852 -0.009810 0.922021 0.978632 0.414020 0.201965 0.726376 0.647932 -0.900571 -0.456800 -0.695405 0.572050 -0.036606 0.801437 -0.190585 0.576425 -0.862928 0.552318 0.583845 -0.488162 -0.850685 -0.063257 0.772610 0.576401 0.163958 0.253224 0.818112 -0.914866 -0.109002 0.416074 -0.867105 0.763145 -0.593737 -0.945084 0.741778 0.820283 0.256881 0.468154 0.468215 0.356309 -0.988646 0.772810 -0.071640 -0.025252 0.574248 0.737775 -0.448827 0.711320 0.290093 -0.864982 -0.776842 0.439408 0.071761 0.995768 0.015809 -0.764281 0.248993 -0.166079 -0.679147 -0.860010 -0.750005 -0.546253 0.903136 -0.343742 -0.491337 0.644913 -0.523459 0.765544 0.113067 0.944757 0.121854 0.124421 0.717567 -0.949787 -0.900831 0.291815 0.787988 -0.349658 0.003135 0.078081 -0.214640 0.226293 -0.482511 0.857121 0.222061 0.533298 -0.907161 -0.528946 -0.632781 -0.586308 -0.388955 -0.382786 -0.132561 -0.485820 0.273473 0.376103 -0.840906 0.750014 0.141647 0.272161 0.694771 -0.736499 -0.603418 0.412338 -0.686286 -0.504249 -0.295847 -0.898298 0.146093 0.707288 0.179784 0.931452 -0.066419 0.697273 0.788573 -0.844358 0.230571 0.881412 -0.373304 0.597791 -0.704896 0.237741 -0.784995 0.162544 0.751921 0.488477 -0.461354 0.911015 0.238491 0.680293 0.183176 -0.066738 0.943794 0.579758 -0.654400 -0.742492 -0.924490 0.049752 -0.640790 0.221602 -0.242960 0.538994 0.153055 0.690621 0.236267 -0.058372 0.846263 -0.533161 -0.176960 -0.527041 -0.935371 0.118145 0.710700 -0.720366 -0.719312 0.462621 0.768112 -0.180665 0.373636 0.006603 -0.500372 -0.443188 0.939865 -0.556578 -0.863430 -0.714535 -0.299070 -0.787920 0.335217 0.060140 0.433682 -0.907743 -0.400866 -0.413263 0.782878 0.835401 0.528365 0.629140 -0.697761 -0.648595 -0.897901 -0.633131 0.469550 0.812799 -0.353497 0.750238 0.275420 -0.585385 -0.430427 -0.350944 0.421218 0.069201 0.205868 0.361083 0.512622 0.342438 0.646548 -0.786448 0.554518 -0.018235 0.273692 -0.011800 0.074022 0.872826 0.574938 -0.143101 0.708226 0.103303 -0.513960 -0.989534 0.454708 -0.411861 -0.622665 -0.075742 -0.599062 0.023838 -0.325504 0.676358 0.438452 0.244069 -0.674586 -0.140330 -0.686730 0.531281 -0.779247 0.825892 -0.126281 0.867301 -0.960556 -0.571763 -0.150935 0.313136 0.416438 0.923087 0.185961 -0.008625 -0.220014 -0.105812 -0.905322 0.266026 -0.095346 0.549386 0.854165 0.281988 -0.526356 -0.744897 -0.694174 0.148140 0.931462 0.744279 -0.607791 -0.743125 -0.396051 -0.294521 0.788157 -0.175298 -0.468629 -0.338124 -0.307998 -0.429185 0.090113 0.541067 0.883951 -0.493449 0.464154 0.069912 0.497926 -0.755859 0.964100 0.592604 0.510167 -0.131246 0.141990 0.364332 -0.849258 0.615634 0.619435 -0.543432 -0.236225 0.550897 -0.799153 0.155984 0.807772 -0.195204 0.861462 0.595929 0.629498 -0.607167 -0.742195 -0.678500 -0.036352 0.347919 0.862567 -0.152401 0.854470 0.326722 0.917511 0.352396 0.570863 0.881611 -0.055000 0.081029 -0.249636 -0.913010 -0.554638 -0.098894 0.702624 -0.935203 0.357675 -0.533601 0.615694 0.558522 0.622383 0.423467 -0.636682 0.483845 0.019396 0.992815 0.876678 0.277201 -0.685685 -0.159674 -0.374880 -0.823118 0.687925 -0.520410 0.503604 0.605435 0.831985 0.074467 0.487046 -0.223015 -0.844504 -0.762590 -0.136026 -0.399142 0.138517 -0.433401 -0.334345 -0.503808 0.032997 -0.718651 -0.945287 -0.344620 0.704816 -0.581969 -0.860775 -0.275788 -0.589154 -0.984097 -0.998587 -0.274839 -0.143771 -0.373467 -0.097956 -0.455846 0.106123 -0.594352 -0.850410 -0.061892 0.480115 0.636636 0.715093 0.635611 0.874046 -0.420933 -0.763531 0.012563 0.145666 -0.097876 0.508754 -0.821337 0.183474 0.563467 -0.165957 -0.111710 0.981498 -0.026732 0.612502 -0.607656 -0.010829 0.613915 0.117505 0.845401 -0.759552 -0.980451 -0.610445 0.346571 -0.574803 -0.460856 -0.715320 0.905311 -0.824220 0.999772 0.540922 -0.950174 -0.421160 0.777392 0.062389 0.724506 -0.320484 -0.428857 0.903169 0.862990 -0.865390 -0.262788 -0.248721 -0.883891 0.710480 -0.636219 -0.491547 -0.300348 0.977696 0.625958 -0.454948 -0.781856 0.645507 -0.065393 0.564715 -0.929297 0.473751 0.849395 0.976015 0.649531 0.849167 0.516937 0.699357 -0.571993 0.294329 -0.238254 -0.847487 0.973845 0.332889 -0.944318 0.836834 0.467499 -0.207106 -0.411887 0.583608 -0.496625 -0.048106 -0.907939 0.203026 -0.070410 0.718019 0.748078 0.147733 0.363526 -0.317315 -0.287551 0.434229 -0.843563 -0.438157 0.410244 0.805968 -0.588989 -0.072819 0.505325 -0.160982 -0.778490 -0.732929 -0.008469 -0.804645 0.599960 0.047213 -0.967811 0.067460 0.840107 -0.379697 -0.348932 -0.656518 0.572197 -0.256871 0.546508 -0.498214 -0.538852 0.294587 0.649520 0.824673 0.977272 -0.638032 0.258903 -0.866292 -0.076188 -0.330853 0.939676 0.334822 0.596328 0.445002 -0.826160 0.817838 0.712073 0.165371 -0.986807 0.312033 -0.787417 -0.954617 -0.620507 -0.947309 -0.334314 0.030561 -0.603827 -0.762117 0.773689 0.942681 -0.260331 -0.765163 0.237267 -0.610811 -0.940490 0.214539 -0.248843 0.318413 0.348248 0.674969 0.987560 0.287924 0.009791 0.583888 -0.267074 0.183631 0.401726 -0.555001 -0.650999 0.414920 0.757032 -0.438415 0.460303 -0.863475 -0.385725 -0.874012 0.167085 0.010448 -0.636129 -0.059226 -0.046871 0.103540 0.175611 -0.809604 0.492729 0.235121 0.404936 -0.756114 -0.446466 -0.246816 0.918855 -0.458906 -0.958892 -0.071354 -0.875018 -0.225966 -0.887723 0.526708 0.219032 -0.538722 -0.058372 -0.023936 0.022863 -0.598070 0.112588 0.637139 -0.472081 -0.720327 -0.352413 -0.108210 0.220448 0.600715 0.995330 -0.603941 0.791112 0.488059 0.631180 0.196047 0.731945 -0.815286 0.949231 0.650800 -0.274192 0.990339 -0.420554 -0.149211 -0.235628 -0.308277 -0.622503 0.983404 0.153002 0.319125 -0.040532 -0.824135 0.721055 -0.927944 0.813004 -0.751026 -0.648270 -0.539410 0.140764 0.572177 -0.938694 0.136094 0.968236 0.852417 -0.375848 0.599416 0.048464 -0.643903 0.784130 -0.002305 -0.993103 -0.490063 -0.011966 -0.413657 0.360726 0.752406 0.278066 0.738224 0.735810 -0.568933 0.057349 -0.304722 -0.393068 -0.221596 -0.232666 -0.580064 0.027378 0.119064 -0.119474 -0.831858 -0.308759 -0.058169 0.304236 -0.340523 -0.205751 0.928388 -0.741107 0.842713 -0.715515 -0.956978 -0.159592 -0.708618 -0.447040 0.828442 -0.122275 0.913686 0.580847 -0.844210 0.651910 0.316657 -0.413142 -0.290742 -0.988065 0.193790 0.487662 -0.220732 0.613726 -0.484960 0.898332 -0.505748 -0.316818 -0.410427 0.436083 0.987418 0.249050 -0.769668 0.915806 0.507942 -0.926955 -0.799709 0.550965 -0.086547 -0.508328 -0.896076 -0.258106 0.369397 -0.982390 -0.677258 0.525187 0.669520 0.639398 -0.887955 -0.621222 0.651333 0.305835 0.866441 -0.569399 -0.080439 -0.618519 -0.671067 0.413812 0.064663 -0.081494 -0.150105 0.052081 -0.832444 0.080227 -0.032113 0.675498 0.153272 0.168178 0.226463 -0.933276 0.659850 0.330388 -0.191381 0.029247 0.347998 0.131360 -0.445566 0.017518 -0.229241 -0.333521 0.396296 -0.577909 0.972314 0.262737 -0.147307 -0.108125 0.644218 0.181626 -0.694313 -0.291119 -0.899868 0.155583 0.760963 -0.732312 -0.764190 -0.271150 0.943187 0.389081 0.897028 0.169650 0.455806 0.556878 -0.499962 -0.735576 -0.413875 0.848036 0.395784 0.140559 -0.134446 -0.833457 0.807038 -0.738150 -0.411366 0.779353 0.524587 0.441327 -0.328772 0.168805 -0.377047 -0.023085 0.877686 -0.276915 -0.867502 0.638649 -0.009226 -0.631692 -0.632502 -0.066040 0.757389 -0.735474 -0.896389 0.213195 0.821404 -0.396352 0.477619 -0.592472 -0.548316 -0.126597 0.548088 0.317238 0.039946 0.355126 0.579088 0.628580 0.134479 0.103675 0.069907 0.805707 -0.727520 0.692860 -0.217378 -0.849834 -0.584054 -0.084880 0.788815 0.406719 0.283428 -0.843687 -0.659320 0.040817 -0.579161 -0.555710 -0.745989 -0.757757 0.047939 0.731630 -0.350229 0.499623 -0.394967 -0.802141 -0.183139 0.644979 0.552985 -0.604051 0.273560 -0.312536 0.499624 -0.656533 -0.506830 0.772105 -0.963673 0.275793 0.922271 -0.547727 -0.809087 0.711085 0.858992 0.474341 0.867398 -0.800328 -0.484843 -0.711763 -0.356038 -0.230831 -0.469520 0.691900 -0.499201 0.180251 0.191523 0.105833 0.378109 -0.991616 -0.249188 -0.068906 -0.595667 -0.975629 0.618558 0.903957 -0.632162 -0.888272 0.676062 -0.595835 0.387521 0.598332 -0.143562 0.578433 0.309418 -0.284570 0.052774 0.176816 -0.084899 0.567931 0.465053 0.559063 -0.662900 0.995533 0.250963 -0.162101 0.175783 -0.557514 0.943732 -0.446108 -0.549130 -0.305456 0.484986 -0.144797 -0.281085 0.103544 -0.240840 0.086753 0.215272 -0.564778 0.490918 -0.397207 -0.966446 -0.652644 -0.818774 0.342972 0.062786 0.234000 -0.480213 0.977887 -0.198069 0.984840 0.536949 0.139032 0.980373 -0.212088 0.976931 0.156156 0.230398 0.920663 0.710049 0.681268 -0.384794 0.195035 -0.463529 0.334121 -0.701421 0.295630 -0.579125 0.513851 0.730852 0.911793 -0.883356 0.764406 -0.740851 -0.702130 0.107378 0.321934 0.531870 0.627165 0.299821 -0.666199 0.612005 -0.163229 0.472833 0.592378 0.624683 0.449764 -0.251465 -0.144919 0.370427 -0.541417 -0.463650 0.985633 0.653618 0.072820 0.319754 0.952197 -0.631549 0.740629 0.466048 -0.900697 0.652422 0.582692 0.863709 0.911571 0.880562 -0.028913 0.233505 0.412432 -0.401748 -0.466674 0.746234 -0.789743 0.370097 0.219067 0.802636 -0.005220 -0.331169 -0.448830 0.849862 -0.960743 0.009753 -0.613789 -0.975110 -0.336628 0.459031 0.344645 -0.384431 0.827482 0.085274 -0.918382 0.926785 -0.262304 0.664310 0.790494 -0.350734 0.544872 -0.238420 0.882772 -0.042696 0.359832 -0.583902 -0.296462 0.570089 0.786195 0.922604 0.372725 -0.219025 -0.408565 0.923895 -0.369163 -0.369308 -0.066352 0.017048 -0.344418 0.597020 -0.523921 -0.999773 -0.787411 -0.696439 0.085501 -0.705793 -0.769654 0.823196 0.958517 -0.979161 -0.527537 0.503389 -0.217581 -0.644766 -0.539307 -0.857749 -0.228668 0.164231 0.712340 -0.442473 0.086835 0.085065 0.338502 0.678270 0.008960 0.969339 -0.691038 0.942609 -0.013613 -0.035455 0.539629 0.462466 -0.035228 0.752218 0.766027 -0.949727 -0.953575 0.996372 0.873469 -0.995058 -0.982788 -0.654068 0.508331 -0.200369 -0.298834 0.969024 -0.058118 0.472499 0.133254 -0.345777 -0.969974 -0.779911 0.739288 0.368528 0.898359 -0.251752 0.337867 -0.792679 -0.309143 -0.675746 0.171866 -0.769514 0.786720 -0.863362 0.982704 0.552747 -0.813089 -0.970871 0.549119 -0.939620 -0.965929 0.566331 -0.593689 0.542402 -0.634038 0.107478 0.511426 0.307844 -0.420024 -0.355320 0.962067 -0.389998 -0.135231 0.701354 0.978530 -0.236871 -0.550398 0.316397 -0.029550 0.140459 0.640652 -0.857684 0.370945 0.427372 -0.721046 0.353649 -0.019882 -0.534136 0.382778 -0.470763 -0.473756 0.416849 -0.904432 -0.067445 -0.040749 -0.538470 -0.959967 
-0.529323 0.769374 -0.379991 0.115357 0.731440 0.230011 0.980127 0.432795 0.208541 -0.256745 0.882397 -0.475061 0.713705 0.022856 -0.834410 0.856021 -0.606199 0.592962 -0.865025 0.747449 -0.426920 -0.399161 0.130227 0.102318 0.127083 -0.452924 0.197886 -0.940361 0.506328 0.659416 -0.900328 0.977005 0.428790 -0.280319 0.092362 0.160230 0.949692 0.072489 -0.406975 0.158234 0.815745 -0.524578 0.683173 0.529450 0.498278 0.848763 0.385471 0.892079 0.441725 0.520447 0.639529 -0.985195 -0.878714 -0.230244 0.117123 0.248370 0.316832 -0.684991 0.308008 -0.176840 0.974425 0.407680 -0.199836 0.403215 -0.872638 0.892527 -0.436555 -0.922946 -0.034984 0.156471 0.235288 -0.219239 0.631893 -0.081539 -0.689789 0.130171 -0.232776 0.695682 0.022251 -0.791051 0.216129 -0.338221 -0.776245 0.337415 0.431535 0.340878 -0.414215 -0.251633 0.655887 0.893793 0.571526 0.630312 0.301473 -0.628309 0.033527 0.428835 -0.735783 0.596973 0.505889 0.229234 -0.246557 -0.258823 -0.990006 -0.614664 0.659638 -0.679795 0.515508 -0.573138 -0.984112 -0.462241 -0.364188 0.232017 0.199538 -0.140434 -0.430568 -0.368927 -0.799555 0.155216 0.379439 0.856332 0.049009 -0.049035 0.486644 -0.649517 0.322656 -0.479828 0.779318 0.586873 -0.882856 0.285207 -0.183893 -0.129412 -0.973616 -0.173899 0.255924 0.686022 0.146307 -0.228568 -0.887115 0.162194 0.309191 -0.251304 -0.605789 -0.491271 0.608263 -0.036358 0.139801 0.808707 -0.881141 -0.480760 0.665039 0.167868 0.470206 0.151683 0.518351 -0.207138 0.671854 0.297669 -0.620265 0.788999 -0.417124 0.195842 -0.340413 -0.390740 -0.978056 0.915511 -0.704717 0.168250 -0.313057 -0.591833 -0.669555 0.996134 0.156863 -0.275345 -0.495137 -0.234874 0.688298 0.644664 -0.426167 0.807157 -0.836096 -0.761128 -0.024975 0.634110 0.390555 -0.506624 -0.573028 0.062410 0.791045 -0.193293 -0.148592 -0.626079 -0.997451 0.510995 -0.016819 -0.975507 0.426506 0.278464 0.192743 -0.886550 0.686631 0.523188 -0.890416 -0.156506 -0.752157 -0.385553 0.608620 0.936141 -0.740889 -0.817547 0.743298 -0.576984 -0.578675 -0.281677 -0.942874 0.811880 0.211699 -0.515902 -0.125710 0.002744 0.290805 0.725698 0.376665 0.293354 0.236693 -0.640154 0.317847 -0.336800 0.638310 -0.489410 -0.223351 0.324941 -0.966222 -0.113767 -0.831565 -0.718379 0.500680 0.777055 -0.782238 0.759792 0.959508 0.961059 -0.817193 -0.619167 -0.320618 -0.760067 -0.807286 0.891080 -0.275969 0.067003 -0.106176 -0.985164 -0.207299 -0.729511 0.308190 -0.970605 -0.369665 -0.373964 -0.307406 -0.731355 0.136626 0.469244 0.593586 0.170404 -0.644523 0.762021 0.452025 0.856158 0.539076 0.669786 0.615949 0.498584 0.630845 0.798757 0.879418 -0.689773 -0.961310 -0.927869 -0.798693 -0.237279 0.139135 0.095131 -0.222443 0.931836 0.365620 -0.914254 0.961231 0.995955 -0.288217 -0.346175 -0.735400 0.848409 -0.876931 0.858186 0.018813 -0.521454 0.620207 -0.529163 -0.665296 0.159283 -0.859377 0.950653 -0.342133 0.771469 0.749410 -0.462716 -0.918305 0.788100 -0.390584 -0.716997 -0.449179 0.748550 0.378134 0.328377 0.680386 -0.256246 0.414124 0.641617 -0.260291 -0.874094 -0.704557 0.004309 0.974315 -0.581489 -0.137505 -0.006872 -0.102942 -0.517299 0.463965 0.231761 0.641984 0.604589 0.182414 -0.700149 0.376058 -0.068176 -0.162865 0.457753 -0.280076 0.446551 0.740755 0.270744 0.195101 0.118889 -0.400878 -0.124512 0.862643 -0.986755 -0.482895 -0.397648 -0.860849 -0.187453 0.606661 -0.886534 0.231059 -0.530844 0.106595 -0.871884 -0.048143 -0.429440 0.359878 -0.406159 -0.824851 -0.457708 -0.106308 0.551206 0.474116 0.730827 0.008959 -0.805960 0.177377 -0.250285 0.464784 -0.627522 0.868604 -0.936094 0.247966 0.731247 -0.922849 0.765071 -0.666401 -0.783698 -0.422382 0.940260 -0.670232 0.808677 -0.590584 0.436363 0.936794 0.361273 -0.993077 0.296671 0.955114 -0.817928 0.838964 -0.151194 0.733278 0.313080 -0.420368 -0.257762 0.507119 0.757010 0.491952 -0.028097 -0.870512 0.360557 0.035809 0.377454 0.091804 0.112960 0.142525 0.425403 0.329261 0.720143 0.365663 0.659030 0.528821 0.775079 0.095393 0.465614 0.136353 0.102315 -0.237714 0.091467 0.284387 -0.398751 0.940272 0.017666 0.914329 -0.480095 0.759903 0.421448 -0.723086 0.251856 -0.606648 -0.593597 -0.387588 0.429161 0.783857 0.704216 -0.457880 -0.073618 0.129619 0.871382 -0.353475 -0.504717 0.530412 -0.824654 -0.729638 -0.374196 0.640960 0.406714 0.728120 -0.596754 -0.501819 0.012507 0.004495 -0.561547 -0.969828 -0.081176 -0.041642 0.790075 -0.659728 0.235272 0.041931 -0.266377 0.641675 0.654343 -0.837216 0.425532 0.358559 -0.295096 -0.648087 -0.511822 -0.423714 -0.001562 -0.016539 -0.893302 0.173784 0.253823 -0.267498 -0.185256 -0.339463 -0.539379 0.217989 0.158718 0.473128 -0.777516 0.597172 0.503301 0.141308 -0.444470 0.293376 0.481580 0.790802 -0.664693 -0.784797 0.432477 0.989650 -0.622013 -0.141991 0.348210 0.082891 0.209922 0.836388 0.659178 -0.791640 -0.180151 0.765875 0.382144 -0.926328 -0.501623 -0.803112 -0.265791 -0.041002 0.414877 0.892927 -0.567873 0.637362 0.490099 0.935427 -0.221331 -0.954372 0.228803 -0.739751 0.836430 0.564110 -0.524548 0.268907 0.553761 -0.146561 -0.873084 -0.098030 0.936331 0.336838 -0.261642 0.595508 0.545198 0.558207 0.361383 -0.072657 0.631879 0.859760 0.124231 -0.633912 -0.181241 -0.460892 -0.740985 0.250885 -0.823530 0.749114 0.186312 -0.044861 0.794742 -0.584885 0.215388 0.631172 0.979226 0.690840 -0.099920 0.532987 -0.455720 0.026996 -0.565043 -0.519390 -0.636166 0.173315 -0.923882 0.909032 -0.268477 0.437502 -0.163625 -0.636598 0.297262 0.960606 -0.270510 -0.883979 -0.500286 -0.011495 0.366906 -0.323817 -0.262381 -0.446782 0.631322 -0.467639 -0.031667 -0.153289 -0.836467 -0.052441 -0.462449 0.063613 -0.519455 0.081830 -0.909391 -0.084498 0.562441 -0.545557 -0.911182 0.638559 -0.636525 -0.179659 0.076061 0.199850 0.183743 -0.626677 0.160455 0.913233 -0.510657 0.660169 -0.098262 0.856249 -0.663648 0.639357 -0.590534 0.967675 -0.828283 0.377800 -0.185615 -0.664749 -0.674641 0.351936 0.398864 -0.194096 -0.566233 0.489472 0.721406 0.996207 0.943915 0.810224 0.634766 -0.692610 -0.369435 -0.289173 0.507240 0.814308 0.084150 -0.332304 0.727541 0.573493 -0.672135 -0.370721 0.429741 -0.335783 -0.731364 0.839208 -0.368108 -0.559647 0.217007 0.446277 -0.224396 0.542366 -0.201786 -0.825533 -0.651730 0.231980 0.663939 -0.930324 0.228188 0.607855 0.879901 -0.137046 0.915245 -0.489534 0.573781 0.422485 -0.675225 -0.342069 -0.909819 -0.947684 -0.768576 -0.581954 -0.318405 0.661165 0.082263 -0.049770 0.500373 0.714155 0.390583 -0.282620 0.160432 -0.833813 -0.740254 0.958646 -0.659346 -0.391984 0.190626 -0.995407 -0.322307 -0.581186 0.612448 -0.442406 0.281768 0.527693 0.068060 -0.144451 -0.049822 0.392835 0.513480 0.040359 0.445150 0.744904 0.458405 -0.873255 0.406069 -0.459332 0.076975 -0.093558 -0.745177 -0.532442 0.623822 0.415256 -0.366255 0.883569 0.373901 -0.025602 -0.508415 -0.435472 -0.021009 0.169278 -0.016658 -0.408561 0.726872 -0.734890 -0.880869 -0.205068 0.120660 0.069309 -0.812233 -0.365860 -0.890332 0.632917 -0.620956 0.568073 0.759662 0.785113 -0.891258 -0.163363 -0.308445 -0.636435 0.304195 -0.684623 0.778820 0.937940 -0.801054 0.152722 -0.087662 -0.309468 0.717250 0.891329 0.859810 -0.299409 -0.517232 0.586682 -0.034298 -0.398100 -0.618385 -0.913639 0.671209 -0.430618 -0.279499 0.780877 -0.797701 0.099545 0.348951 0.961961 -0.115342 0.457692 -0.201401 0.576213 0.821257 -0.897206 0.891590 0.600077 -0.959266 -0.909463 -0.247201 -0.046928 -0.218932 -0.529952 -0.155599 -0.359122 0.170640 0.327170 -0.772439 -0.863659 0.929069 -0.390825 -0.777298 0.600278 0.178557 -0.056796 0.381156 0.380856 -0.957251 -0.269894 0.342817 -0.072593 -0.812201 -0.858584 -0.496380 -0.990944 -0.755790 -0.604790 0.609133 -0.715056 -0.514253 -0.638068 0.238016 0.266815 -0.168020 -0.917583 0.907694 -0.997380 0.409587 -0.864746 -0.861039 0.338656 -0.255571 -0.638336 -0.061065 0.922986 0.304867 -0.679910 0.303842 0.347616 0.050197 -0.353341 -0.724978 0.237995 -0.211925 -0.221358 0.247051 0.032285 0.173852 -0.143816 0.317228 0.659598 0.218116 -0.444756 -0.073586 -0.949904 -0.362339 -0.165893 -0.947284 -0.952752 -0.030638 -0.808323 0.385905 0.713791 -0.446659 -0.675161 0.636777 0.858208 -0.355071 -0.059381 0.205824 0.695126 0.587279 0.480846 -0.066879 -0.624647 -0.740512 -0.819828 0.407638 0.433339 0.036356 -0.275134 0.092938 -0.745528 0.280111 -0.980649 -0.695432 0.917772 -0.146541 -0.642716 0.965020 0.822820 -0.451039 0.350925 0.536611 0.102302 0.675764 0.173389 -0.039491 -0.679307 -0.885992 -0.833667 -0.984181 0.701287 0.647179 -0.051059 -0.923360 0.906666 0.129113 0.484278 0.340006 -0.834530 -0.790855 -0.567057 -0.580058 0.489255 -0.547705 -0.275490 0.407027 0.305753 0.081793 0.372048 0.128574 0.630754 -0.277027 -0.334815 -0.266944 -0.601263 0.838574 0.693565 -0.280570 0.952582 0.859898 -0.264751 0.653869 0.507077 0.684190 0.730509 0.413743 -0.186697 0.214787 -0.246251 -0.021227 0.423932 0.186692 0.398715 -0.086813 0.638987 -0.876776 -0.679786 -0.055260 0.205017 0.692261 -0.926686 -0.164228 -0.584766 -0.261501 0.568827 -0.186029 -0.422927 0.262392 0.533401 -0.470345 0.122290 -0.731350 -0.816476 -0.370633 0.952840 0.914033 -0.956890 -0.233856 0.128820 -0.203141 0.744917 -0.447249 0.983551 0.143631 0.465938 0.622538 0.266856 0.786152 -0.432722 -0.528127 0.478413 -0.359408 0.307644 0.893647 0.379091 -0.123528 -0.292383 0.956164 -0.861136 -0.758982 -0.514181 0.261154 -0.490332 -0.330658 0.890521 -0.537491 -0.416625 0.933631 0.228652 0.712194 -0.269510 -0.026431 -0.735055 -0.285959 -0.882799 0.730883 -0.663421 0.384056 0.517035 -0.096143 0.855929 -0.004552 0.544450 0.163574 -0.110905 -0.076460 -0.959955 0.596712 -0.120296 -0.821091 0.837730 0.365523 0.440063 -0.652601 -0.965135 0.330583 -0.190093 -0.381760 0.264214 -0.961440 -0.669566 0.994704 0.012129 -0.404621 -0.291255 0.129329 -0.673738 0.045324 -0.486615 0.843297 0.949181 -0.630685 -0.161255 0.493631 0.532888 0.727840 -0.582829 0.572933 0.324552 0.296875 0.751842 0.162283 -0.337602 0.191905 0.509682 -0.302737 -0.477512 -0.680411 0.315503 0.786702 -0.641851 0.645937 0.781405 0.370277 -0.758684 -0.509850 -0.500393 -0.432421 0.535474 0.012992 -0.589124 0.484655 0.382307 0.249621 -0.021715 -0.084805 -0.022539 0.395457 -0.511872 -0.697986 -0.307668 -0.760030 0.464296 0.354730 0.431875 -0.026022 -0.948007 0.954362 0.293567 0.367496 0.741064 0.651715 0.013433 0.522469 0.021993 0.254749 -0.987381 0.521600 0.822328 0.548093 -0.465408 -0.766796 0.032747 0.916899 0.482825 -0.988967 -0.167906 -0.539714 0.406490 0.320222 -0.237700 -0.901178 0.560192 -0.773404 0.453552 -0.007934 0.200574 0.505545 -0.053571 -0.505859 -0.126958 -0.312508 -0.854144 0.886475 -0.790039 0.167849 0.141224 -0.777420 -0.310551 -0.036448 0.770673 0.224041 0.196756 -0.196579 0.140940 -0.320419 -0.185546 0.973033 0.139867 -0.779057 0.293255 0.902167 -0.680235 -0.146553 -0.871237 0.773316 0.845513 0.329337 0.278862 -0.208058 0.823478 -0.848097 0.479435 0.969335 -0.961622 0.689396 0.137184 0.179602 0.911976 0.826633 -0.856846 0.682649 0.050673 0.339910 -0.513930 -0.808387 -0.980509 0.300524 -0.835354 0.159358 0.521467 0.457901 0.061525 0.841231 -0.688652 0.190288 0.614548 -0.843138 -0.480375 -0.106591 -0.051196 -0.656896 0.045313 -0.571762 -0.687562 0.083690 -0.882366 0.449622 -0.736708 -0.970389 0.276255 -0.593554 0.712260 -0.673072 0.746356 -0.801670 -0.481459 0.765847 0.498854 -0.316813 -0.074796 0.020321 -0.858911 0.986729 -0.138448 -0.547563 0.177017 -0.523900 -0.390701 0.696643 0.369509 0.558103 -0.960254 -0.585178 0.986341 -0.647816 0.498512 -0.896025 0.801807 0.761805 -0.866414 0.078061 -0.831749 0.845846 0.404989 0.914607 -0.955823 0.923530 0.680453 0.543031 -0.393283 -0.394342 -0.436649 -0.252194 -0.407613 0.424903 0.200243 0.769404 0.901003 0.809542 0.466047 0.270512 0.367644 0.505793 0.685334 0.353985 0.857978 0.183846 0.457961 0.659784 -0.054349 0.591547 -0.262154 0.113902 0.437393 -0.857165 0.028509 0.481570 -0.933635 -0.291038 0.024600 -0.326918 0.314620 0.587951 0.420888 0.907007 0.012854 -0.378869 0.676412 -0.086143 -0.569327 0.142459 -0.815630 0.798318 -0.351748 0.869704 0.152303 -0.493770 0.053550 -0.389736 -0.833986 0.999201 -0.798189 -0.096140 0.113103 0.639204 0.046694 -0.858388 0.120774 0.113059 -0.149426 -0.854626 0.786142 -0.834806 0.733326 0.207030 -0.927799 -0.253820 0.828162 0.748612 0.660038 -0.741165 -0.108929 0.844407 -0.942848 0.539323 0.714111 0.209455 -0.954447 -0.232339 0.819719 -0.788433 -0.233138 -0.978470 0.115427 0.879965 0.660734 -0.837879 -0.978423 -0.218492 0.275180 -0.127850 -0.073117 0.061322 0.037344 -0.339791 -0.731647 0.109545 0.406389 -0.903486 -0.141843 0.066427 -0.644651 0.749229 -0.089166 -0.587498 0.288552 -0.375055 0.621957 0.334105 0.392606 0.441676 0.545672 -0.840532 0.463206 -0.338902 -0.960567 0.123940 -0.176781 -0.938991 0.905448 -0.901600 -0.066840 -0.167669 0.159722 0.970504 0.492540 0.428074 0.080048 -0.101071 0.524589 0.938206 0.965356 0.879938 0.687434 -0.123810 -0.707561 -0.024014 0.501135 0.914396 -0.689909 -0.106259 0.356072 0.855762 0.053209 -0.180722 -0.483140 0.092642 0.943219 0.340079 0.153651 0.848667 0.438479 -0.913190 -0.319002 -0.401799 -0.942686 -0.826462 -0.973725 0.137363 0.072467 0.550863 0.075568 0.037822 0.430801 -0.236997 0.914012 0.723240 0.738989 0.415147 0.637636 -0.950921 -0.691112 -0.006292 0.904841 0.362097 0.812987 -0.578298 -0.545262 0.756206 0.761781 0.608389 0.604873 0.200260 0.695200 -0.714129 0.798461 0.752514 -0.540591 0.824736 -0.110124 0.531876 0.375599 0.965445 -0.430302 -0.193600 -0.271553 -0.516290 -0.470360 -0.532564 0.898857 -0.832724 -0.483485 -0.792255 0.160985 -0.578643 0.569842 -0.026028 -0.156941 -0.975419 -0.269823 -0.395160 0.632970 -0.664950 0.805099 0.328169 -0.379079 0.603560 0.080683 0.080330 0.428296 0.970559 -0.387795 -0.196105 0.936004 0.181903 0.610295 -0.335549 0.665613 -0.860065 0.131887 0.564471 -0.692789 0.648403 0.772216 0.468196 -0.930241 0.342058 -0.557832 -0.087182 0.366639 0.172345 0.517658 -0.000391 0.507395 0.322757 -0.672222 -0.871684 -0.073683 0.408461 0.208646 -0.645388 0.379020 0.820851 0.158507 0.315024 0.002754 -0.231198 0.979475 -0.331632 -0.091264 0.111362 -0.767162 0.215948 -0.240235 -0.994945 -0.315857 -0.170475 0.347113 0.126311 0.742343 -0.286248 -0.701344 0.260000 0.713361 0.806051 -0.417243 -0.958861 0.934367 0.509074 0.449600 0.143012 0.863687 -0.171380 -0.036137 0.022194 -0.856356 0.966617 0.790995 -0.876880 -0.365015 -0.300268 0.234482 -0.132177 0.915679 0.994247 -0.127122 -0.400177 -0.176228 -0.780009 0.726134 -0.433886 -0.066257 -0.975210 0.826114 -0.352896 0.830841 -0.591129 -0.311757 0.765207 0.917945 -0.862157 -0.091780 0.781632 -0.033537 0.872083 -0.196175 0.110107 0.838700 -0.405179 0.233227 -0.526315 0.294552 -0.532291 0.341508 0.210231 -0.538044 -0.785615 0.810054 0.285728 -0.565624 0.536187 0.851842 0.368119 0.560977 0.677956 -0.984777 0.391818 -0.913172 -0.296535 0.157025 -0.995227 -0.158692 -0.934756 0.786405 0.807771 0.937327 -0.409769 -0.082122 0.776027 0.185051 -0.848895 -0.750288 -0.520397 -0.381186 0.591219 0.689835 0.080771 0.805605 0.499888 -0.633502 -0.760019 0.036076 -0.781659 0.608100 -0.402947 0.896297 0.623323 0.988871 0.983125 -0.673212 0.145896 0.987898 0.168096 0.211140 0.774303 -0.024133 0.148467 -0.635466 0.893746 -0.075506 0.549585 -0.955149 0.174206 -0.970812 -0.336335 -0.234575 0.719023 0.744436 -0.428970 0.218911 -0.889066 -0.188989 -0.745013 -0.670725 -0.580888 -0.147960 -0.774428 -0.957565 -0.159089 -0.791303 -0.630777 0.986806 -0.803405 0.537319 0.197946 0.970898 -0.486813 -0.653587 -0.664568 -0.593067 0.270908 0.885017 -0.548216 -0.554887 0.914205 0.115449 0.210539 0.633228 -0.140115 0.781569 -0.147861 -0.029181 -0.407420 0.107126 0.300094 0.011692 0.959166 0.525666 0.054127 -0.199923 0.734363 0.423350 -0.213117 0.930957 -0.039331 0.984829 0.901855 0.473856 -0.668758 -0.762713 0.880789 0.602150 -0.877697 -0.667428 -0.952737 -0.963492 0.448021 0.257802 0.669736 -0.692094 0.039371 -0.478125 0.278726 0.631952 0.629001 -0.421180 -0.356356 0.588167 -0.895514 0.697770 -0.611756 0.838848 0.121120 0.175127 0.769806 -0.918211 0.159955 0.671661 0.555645 0.491198 0.908948 0.436434 0.093348 -0.968748 0.769006 0.140611 -0.932240 0.217027 -0.601587 0.737496 0.524934 0.437784 -0.740629 -0.196341 0.069736 0.888373 0.382479 0.713379 0.476540 0.486965 0.411150 0.864784 0.325813 -0.467730 0.039910 0.095619 -0.385941 -0.800134 -0.232720 -0.830296 0.691064 -0.323772 0.606138 -0.215589 -0.292520 0.375144 0.925022 -0.224760 -0.407828 -0.676565 -0.487264 -0.882895 0.761219 -0.227892 -0.079236 -0.169045 -0.339520 -0.696757 -0.455666 -0.862980 0.790208 0.955484 -0.998196 0.116021 -0.512246 0.041715 -0.788360 0.101813 0.241581 -0.021079 0.271518 -0.067356 0.655149 -0.122344 0.717056 -0.637371 -0.747200 0.642078 0.137869 -0.155028 0.965513 0.650605 -0.037923 0.726732 -0.577287 0.882842 -0.442313 0.083193 -0.813915 0.102021 0.220214 0.976293 0.057504 0.222018 0.092315 0.545258 -0.736267 0.303955 -0.352929 0.505313 -0.717124 0.918589 -0.562042 0.938025 -0.203755 -0.844986 -0.699346 0.049045 0.797091 0.438523 0.894017 0.762604 0.089128 -0.143906 0.489336 0.511841 -0.261064 -0.952977 -0.404965 -0.074979 0.149043 0.815248 -0.098685 -0.793453 0.037266 0.993629 0.751806 0.300999 0.297584 -0.601123 -0.193687 0.580460 -0.682534 0.244270 0.518484 0.113711 0.399284 0.819138 -0.837244 0.196375 0.257661 -0.943227 -0.041021 -0.653211 -0.087133 -0.551685 0.858630 0.651803 -0.504662 -0.546335 -0.423175 0.644381 -0.731087 0.478140 0.850928 0.306180 0.471769 0.602734 -0.392821 -0.230647 -0.998389 0.413491 -0.650187 -0.680923 -0.342238 0.868297 0.432788 -0.942955 0.687435 0.595543 0.253421 -0.054904 0.652316 -0.787600 0.291885 -0.434817 -0.339285 0.150515 -0.783013 0.156053 0.604180 -0.206188 -0.199566 0.873093 -0.728049 -0.348638 0.179272 0.743720 -0.745904 0.786451 -0.486927 -0.744293 0.199942 -0.137114 -0.425216 0.857704 -0.268817 -0.992429 0.914749 -0.581383 0.603115 0.168170 0.363713 0.255431 0.380570 -0.344402 0.820614 -0.958715 0.806113 -0.962399 0.197338 0.410292 -0.168587 0.997771 0.283385 0.103365 -0.350867 -0.537342 -0.152915 -0.096771 -0.750891 0.360158 0.158936 0.449051 -0.776956 0.733719 0.306755 -0.045774 0.741291 0.221505 0.372844 0.344405 -0.610326 -0.263443 -0.400164 0.770244 0.392154 -0.579550 0.811529 0.198267 -0.541948 0.008866 -0.391441 0.289465 0.006638 0.891945 -0.607171 0.655771 -0.645398 0.239914 -0.441000 -0.396289 -0.399928 0.717935 -0.947237 -0.176884 0.451655 0.359518 0.777342 0.192945 -0.418977 0.150185 -0.462649 -0.029303 0.886742 0.137187 -0.259059 0.278896 0.557637 -0.447530 -0.522837 -0.984311 0.561337 0.085722 0.305153 -0.432026 -0.022333 0.697983 -0.776255 0.332269 -0.062103 -0.217255 0.935980 0.537969 -0.499320 0.988743 -0.638915 0.952335 0.348261 -0.861574 0.145280 0.929283 0.288612 0.682631 -0.100020 0.175354 -0.180182 0.640922 -0.545750 -0.622545 -0.806608 -0.068587 -0.606856 0.754728 -0.982865 0.698297 -0.677298 -0.005198 0.396279 -0.453553 -0.672929 -0.665824 0.329192 -0.736949 0.872145 0.829872 -0.748206 -0.766770 0.782207 0.600055 -0.628344 -0.072512 0.529338 0.660268 -0.389881 -0.570682 -0.164378 0.429937 -0.929760 0.289872 0.807392 -0.736368 -0.778715 -0.799465 -0.981640 -0.761580 0.898832 -0.658938 0.233221 0.295112 -0.112490 0.560292 0.629288 -0.783298 0.823343 0.501433 -0.953426 -0.924863 0.734662 0.828782 0.675191 -0.893681 -0.243731 0.204529 0.766587 0.366388 0.633847 -0.397792 -0.203675 0.704087 0.892080 -0.396283 0.967719 -0.886635 -0.195748 0.986079 -0.648215 -0.296916 -0.672859 0.585006 0.998196 0.214651 0.145298 0.627484 0.431353 -0.031359 0.128917 0.477927 0.043778 -0.136421 0.306709 -0.281031 -0.030102 -0.937022 0.923498 -0.263516 0.429366 0.557345 0.338693 -0.774308 0.261433 0.230773 -0.170592 0.229152 0.344138 0.633661 0.215231 0.695923 -0.663255 0.542372 0.280929 -0.665059 -0.242977 -0.573773 0.962425 -0.811624 0.394868 0.091342 0.666304 -0.561355 0.954921 -0.026987 0.157614 -0.075181 0.035991 0.081112 0.661303 -0.534642 -0.361543 -0.000004 -0.308951 0.899890 -0.769231 0.520458 0.129042 0.574907 0.154118 -0.655728 0.270830 0.490864 0.886645 -0.448241 0.825805 -0.356332 -0.022015 0.788230 -0.167956 -0.627147 -0.120428 -0.501652 -0.188502 -0.165507 0.471361 0.969112 0.759312 -0.492648 0.050224 0.420616 -0.027290 0.688681 -0.579388 0.663759 0.588571 -0.348619 0.184217 -0.282388 -0.773711 -0.661665 0.061885 0.497119 0.829199 -0.051471 -0.951123 0.655003 0.592197 0.026863 0.443233 -0.575758 0.399715 -0.677195 -0.077410 -0.788787 0.157299 -0.606049 -0.819675 -0.083389 -0.098697 0.230548 -0.662773 0.874013 -0.080771 -0.242161 0.537772 -0.492200 0.409220 -0.278011 0.225412 0.635509 0.060324 -0.712704 0.132628 -0.110478 0.235826 0.181505 -0.455474 -0.171977 -0.791632 0.987759 0.252264 0.608083 -0.689435 -0.825146 0.819296 0.467863 -0.431195 0.999621 -0.615526 0.470109 0.230169 -0.278299 0.344122 -0.850602 0.479539 -0.118106 -0.342802 -0.111241 0.603882 0.882610 -0.475732 -0.335794 -0.830094 0.656896 0.553728 0.405732 -0.161599 -0.901746 -0.766245 0.046769 -0.913987 0.486019 -0.345149 -0.603423 0.660873 -0.525853 0.864441 -0.770322 -0.526232 -0.751085 0.699787 0.703937 -0.029385 0.043909 0.853336 -0.549846 0.925802 -0.489466 0.338914 0.529685 -0.606856 0.863182 -0.806109 -0.436950 0.520078 0.747619 0.968782 -0.641521 0.845873 -0.797463 0.405247 0.931886 0.688556 -0.939901 -0.671537 0.349429 -0.465754 -0.807096 0.579107 0.008014 -0.558182 0.278894 -0.288049 0.412433 -0.677197 -0.434713 0.862588 -0.751395 0.075821 0.201502 0.778290 0.468964 0.064684 0.972181 -0.967985 -0.415239 0.719800 -0.999203 -0.056760 0.565673 -0.796667 -0.651512 0.497558 0.891889 -0.591413 0.826022 0.241318 -0.057167 -0.981075 -0.179575 0.950847 -0.539256 -0.900681 -0.337202 0.873177 -0.577878 0.228085 0.735765 -0.329273 -0.696094 -0.062734 -0.550983 0.772870 -0.998050 -0.578802 0.804885 -0.413289 -0.859002 0.805682 0.529952 0.706671 -0.990985 0.878439 0.204229 0.900904 -0.712974 0.030251 0.142222 0.229858 0.049176 0.962647 0.180705 0.509919 -0.938034 0.843503 0.383096 -0.515911 0.071588 0.118861 0.154816 0.375494 -0.943873 0.603833 0.148364 -0.941923 -0.974968 -0.046751 -0.355212 -0.833970 -0.241069 -0.825260 0.872700 -0.232055 -0.946821 0.076929 -0.331151 -0.659795 -0.892820 0.811071 0.570063 0.156356 0.773718 -0.249232 -0.333724 0.835684 -0.405729 -0.950628 -0.680227 0.665859 0.168233 0.474589 0.041353 0.224360 0.078422 -0.810283 0.282438 0.103454 0.142966 0.927226 0.269484 0.901897 -0.898034 0.142184 -0.330158 -0.844855 -0.780886 0.338692 -0.504650 -0.673706 0.149763 -0.934586 0.482650 -0.076519 -0.183818 -0.851075 -0.240835 0.410453 -0.801703 0.078938 0.076312 0.366530 -0.446473 -0.882335 -0.409109 0.631949 -0.692618 0.873329 -0.264596 0.450348 0.800555 -0.995113 0.352245 0.902521 0.147071 -0.977913 -0.942334 0.366185 0.360779 -0.446983 0.692479 -0.489459 -0.381570 0.175128 0.434022 0.434612 0.324054 -0.806812 -0.154935 0.522351 0.272126 0.921377 -0.111119 0.825653 -0.960958 0.479772 0.457602 -0.653576 0.353101 -0.806994 0.796772 0.153655 -0.802107 0.149017 0.056176 0.344965 0.171104 0.113843 -0.288850 -0.468117 0.666860 -0.596372 0.042424 -0.714710 0.578757 -0.523553 0.719902 -0.097190 -0.330366 -0.435032 -0.574839 0.941760 -0.513655 0.314043 0.767413 -0.474613 -0.206185 0.225015 -0.128189 -0.853085 0.418021 -0.331417 0.300571 0.615914 0.817600 -0.643253 -0.039121 -0.011295 0.470590 0.672028 0.520587 0.137450 -0.924343 -0.436988 0.422740 0.654413 0.039458 0.142642 -0.442777 0.709092 0.707610 -0.017615 0.650852 -0.806045 -0.703573 0.418265 -0.280658 0.090242 -0.356720 0.591153 0.237158 -0.938699 -0.740263 -0.462271 0.677216 -0.922663 -0.105524 -0.361906 0.066042 -0.634934 -0.689877 -0.413371 0.502516 -0.614221 0.149641 -0.074744 -0.959808 -0.810901 -0.932102 -0.402584 0.898191 0.775508 0.579800 0.549044 0.969463 
0.876228 -0.032691 -0.311195 -0.033530 0.610589 -0.720042 -0.796372 0.671890 -0.460305 -0.258644 0.349106 -0.382968 0.635832 0.987200 0.683074 -0.999101 -0.702677 -0.730297 0.503415 -0.316898 0.419343 -0.571329 -0.276706 0.608442 -0.503431 0.320710 0.506634 -0.727923 -0.099490 0.055677 -0.758460 -0.223262 -0.977014 -0.069654 0.743208 0.633575 0.210304 0.946836 0.305465 0.749999 -0.311808 -0.345430 -0.632969 -0.675975 -0.358230 -0.949895 -0.675077 -0.060907 -0.680192 0.828338 0.622194 0.739151 -0.742991 -0.654512 0.347593 -0.246422 0.666198 -0.145773 0.025655 -0.433292 0.909904 0.267195 0.343446 0.932890 -0.802459 0.086654 0.566464 0.407845 0.033490 -0.128071 0.157844 0.721682 0.526499 0.524875 -0.954293 -0.831731 0.574980 -0.629370 0.107362 0.894787 -0.801032 -0.270444 0.633938 -0.544023 0.075044 -0.018468 0.209554 -0.258758 0.835758 -0.764791 0.307950 0.745662 0.502404 -0.348605 0.678552 0.699945 0.738049 0.245016 0.107790 -0.228461 -0.883056 -0.734366 -0.506779 0.643443 0.790508 -0.461073 0.811713 0.365488 -0.090443 -0.080926 0.260276 0.108525 0.648630 -0.105786 0.564501 -0.276325 0.875746 -0.225944 0.464917 0.711504 0.009265 -0.227133 0.457167 -0.488331 0.424262 0.135718 -0.788386 0.162311 -0.619266 0.319404 0.933850 -0.502322 0.585037 -0.572929 -0.858878 0.375546 -0.034002 0.952834 -0.258966 0.875555 -0.128091 -0.998690 -0.015920 -0.479461 -0.104476 -0.451419 0.244214 -0.228730 0.322637 -0.290869 -0.517226 -0.668098 0.481998 0.939941 -0.156429 -0.093740 0.075659 0.055185 -0.931429 0.456393 -0.625412 -0.997579 0.954071 0.959625 -0.570508 -0.904807 0.335171 0.395490 -0.951973 -0.923795 0.271045 -0.080064 -0.922485 -0.744875 0.440475 -0.026961 -0.196294 -0.315311 0.744309 -0.873657 0.393820 -0.772917 -0.541756 -0.124182 -0.832976 0.301815 0.782078 0.242683 -0.643001 0.850649 -0.300924 -0.268413 0.853071 -0.346853 -0.308787 -0.717437 -0.251660 -0.973616 0.678053 -0.203633 -0.897411 -0.050902 0.716303 -0.819896 0.204223 0.156779 0.153143 -0.992072 0.841468 -0.102548 -0.865729 0.235288 0.124535 -0.407485 -0.888894 0.291558 0.894330 0.893184 -0.465759 -0.748671 0.743833 0.233317 -0.017084 0.596903 0.886463 0.674129 0.879466 -0.365197 0.700513 0.557519 0.431171 0.803102 -0.493383 0.147474 0.983206 0.710840 -0.695747 0.136349 0.718768 -0.854279 -0.966199 0.853039 0.381009 0.158336 -0.554446 0.492115 -0.550106 -0.660116 0.385298 -0.015865 -0.408787 0.129131 -0.782548 0.574129 -0.273966 -0.896085 0.248258 -0.394499 -0.261282 -0.051229 -0.836980 -0.830111 -0.248126 -0.330363 0.317363 -0.264920 -0.619523 0.621616 0.871429 -0.900755 0.767336 0.905230 0.952285 0.148345 0.063565 -0.602161 -0.359540 0.513459 -0.262277 -0.974242 -0.502406 0.328936 0.154889 -0.284954 -0.096936 0.880924 -0.181039 -0.848677 -0.513576 0.557679 0.100094 -0.350556 0.727568 0.851967 0.319081 0.044931 -0.412953 0.699558 -0.333453 -0.541524 0.798803 -0.566117 -0.636294 0.751088 0.582228 0.427272 -0.851073 -0.777312 -0.059269 -0.113351 -0.751553 0.438325 -0.784415 0.403336 -0.846629 0.118649 0.284260 -0.027668 0.269972 0.770684 -0.469989 -0.629934 -0.579872 -0.742421 -0.777967 0.739209 0.302510 -0.190920 0.438767 0.969057 0.267556 0.237570 -0.597059 0.631263 -0.011342 0.985169 0.058534 0.137584 -0.792143 0.999265 -0.975766 -0.543696 0.437591 -0.760181 0.859640 0.590962 0.358468 0.143899 -0.436706 -0.371560 -0.085417 0.093305 -0.001494 0.334711 0.350885 0.220539 0.073920 -0.346605 -0.970381 -0.487313 -0.377547 0.297176 0.750257 0.025393 -0.071562 -0.261085 0.010562 0.986972 0.876499 0.218420 0.986237 0.900733 0.674724 0.423828 -0.859449 0.534363 0.014790 0.499019 -0.321737 0.578084 -0.872541 0.592846 -0.328611 0.125964 -0.072443 -0.977726 -0.653497 -0.998522 -0.324330 -0.623878 -0.485835 0.298122 0.673298 -0.735578 -0.676485 -0.398264 0.003337 0.334078 -0.411292 -0.120164 -0.447503 -0.425055 -0.219431 -0.772779 0.998773 -0.078880 0.761584 0.013563 -0.579861 -0.560153 -0.408353 -0.452402 -0.967307 0.263036 0.673562 -0.039750 0.285311 -0.979935 -0.038272 0.960980 -0.603812 0.475892 0.259102 -0.930514 0.740314 0.582618 -0.328778 -0.256349 -0.083305 0.259930 0.623487 0.469193 0.834875 -0.595945 0.696413 0.833648 0.325175 0.457998 -0.152789 0.745314 0.897845 0.438858 -0.707088 0.930538 -0.298105 0.966474 -0.109212 0.987205 0.986539 0.852516 0.948186 -0.617273 0.328408 0.207288 -0.547787 0.068722 -0.210095 0.123434 0.812374 0.706601 -0.616636 0.435860 0.175793 -0.781761 0.839916 -0.127793 -0.948113 0.165091 -0.669796 -0.100902 -0.089595 -0.771951 -0.662044 0.203317 -0.841413 0.039851 0.169791 0.049374 0.027056 0.156330 -0.098110 -0.024758 0.539057 -0.769702 -0.817471 0.991269 0.299020 -0.027565 0.114703 0.111394 -0.320964 0.498067 -0.452746 0.854829 0.716306 -0.612830 -0.272964 0.768193 0.552261 0.057240 -0.332709 -0.537334 0.285289 0.005247 0.665983 0.443876 -0.954902 -0.164226 -0.506750 0.072154 0.992104 0.395140 -0.952605 0.531160 0.625437 -0.770075 0.522430 -0.075542 0.202360 -0.362867 -0.964149 0.881395 -0.864800 -0.416894 0.736224 0.851506 -0.029724 -0.536740 0.619699 -0.477463 0.520500 -0.713010 -0.014797 -0.194211 0.292237 -0.348814 -0.750336 0.337334 0.486960 -0.257086 -0.590512 0.479064 -0.861946 -0.543116 0.010224 0.763491 -0.313192 -0.467346 -0.312051 0.889168 0.169787 -0.276200 0.770564 0.304987 0.306906 0.506788 0.156493 -0.722819 0.970048 -0.223808 -0.200282 0.490547 0.063182 0.784922 -0.703664 -0.644582 -0.563892 -0.454000 0.692753 0.923068 0.288914 -0.897759 0.402132 0.426968 -0.440876 -0.587644 0.190459 0.245933 -0.054990 0.878408 0.135101 -0.885203 -0.397791 -0.094335 0.419784 0.909114 -0.587548 -0.423722 -0.813704 -0.617500 0.352470 -0.013986 0.873047 -0.584348 -0.229064 -0.830617 -0.228930 0.207044 -0.284617 -0.536177 0.130112 -0.995702 -0.433936 -0.467756 0.431266 0.125188 -0.055400 -0.378275 -0.628879 0.889610 -0.499867 0.506222 -0.995593 0.102342 -0.588113 0.424192 0.011456 -0.175661 -0.999530 0.197752 0.206839 0.352940 -0.816234 0.079886 0.768592 -0.045298 0.249269 -0.460338 -0.838254 0.964653 0.003485 0.291858 0.968951 0.569549 0.824102 0.400216 -0.305262 -0.231298 -0.978058 0.065859 -0.341688 -0.477925 -0.427919 -0.337281 0.624417 -0.016032 -0.913089 -0.364126 0.808307 -0.912620 0.833626 0.015147 0.440320 -0.982608 -0.904967 0.208912 -0.027905 0.344302 0.748574 0.133840 0.308955 -0.247941 -0.574302 0.277906 -0.678391 -0.750201 -0.321878 0.016346 0.018501 -0.299936 -0.917795 0.676813 0.222139 -0.345713 -0.660468 -0.153444 0.638255 -0.573558 0.482430 0.446562 -0.486177 0.316056 -0.538291 0.954143 0.333449 -0.443258 0.163054 -0.694457 0.901044 -0.088372 0.439384 0.210000 0.663688 0.865082 -0.512094 0.985296 -0.885119 0.166028 0.001643 0.133382 0.866092 0.083848 -0.189805 0.088231 0.738135 0.149727 0.934788 0.376390 0.576169 0.417218 -0.177048 -0.910008 -0.266726 0.284661 -0.955865 -0.933277 0.841403 0.207189 -0.627734 0.742447 -0.881182 0.811650 -0.047553 0.782505 0.676731 0.440352 0.767802 0.791613 -0.393620 -0.230556 -0.075005 -0.527528 0.853293 0.735190 0.560703 0.591427 -0.115083 0.495491 -0.032183 -0.538914 -0.087291 0.790769 -0.448922 0.645983 0.075429 -0.404787 0.712706 -0.083168 0.802402 -0.915028 -0.340721 0.921219 0.896621 0.611726 0.703725 0.573353 0.052078 0.471526 0.364965 0.658458 -0.759029 -0.710040 -0.869070 -0.905737 -0.974850 0.691634 0.685690 -0.089933 0.187125 -0.346493 0.371152 -0.900166 -0.555724 0.922230 0.745817 0.519705 -0.482557 0.458523 -0.563463 -0.680156 0.543495 0.095816 -0.758936 0.440116 -0.292458 0.944788 0.013469 0.759620 0.416314 -0.621566 0.418078 0.657285 -0.331606 0.549008 0.751548 -0.306456 0.240641 0.437239 0.603611 -0.572234 -0.909254 -0.025237 -0.472400 -0.464978 -0.103007 -0.726583 -0.945273 0.414436 0.731939 -0.508736 0.734280 0.275434 0.587081 0.975344 -0.284450 -0.705377 0.920132 0.729019 -0.945758 0.336446 -0.892547 0.472320 -0.006268 -0.224153 0.021328 -0.254720 0.469391 -0.738031 -0.817481 0.073002 -0.310265 -0.726735 -0.952236 0.217334 -0.191713 -0.055242 0.490751 -0.136986 -0.640807 0.222690 0.354278 -0.906526 -0.501876 -0.058641 -0.931182 0.213674 0.235981 0.988950 -0.057307 0.290224 0.325396 0.050146 -0.237456 -0.680872 0.825993 0.783871 0.064408 0.295384 -0.954160 0.246927 -0.631614 -0.264425 0.520191 -0.583850 0.952909 -0.671522 0.360908 0.443661 0.191492 0.720101 -0.333649 -0.454230 0.813575 0.164475 0.487129 0.882393 -0.621850 -0.276889 0.871342 0.320843 -0.986665 0.196738 -0.629011 -0.224122 0.515866 -0.803018 -0.440251 -0.419726 0.492367 -0.394410 0.827200 0.860752 0.341165 0.347392 -0.723097 0.294074 0.675870 0.637810 -0.262265 -0.132638 0.357912 0.404086 0.413133 0.171487 -0.431439 -0.099738 0.053879 -0.053289 0.623373 -0.074779 -0.732446 0.636707 -0.878040 -0.361457 -0.587414 0.637826 -0.164475 -0.027665 -0.781900 -0.672108 0.577925 -0.954699 -0.811356 -0.080911 0.392692 -0.534453 -0.786836 0.068563 -0.896643 -0.049102 0.935925 0.461269 -0.645016 0.349057 -0.367244 -0.076455 -0.750680 0.686635 0.870256 0.872692 -0.388144 -0.862191 0.509400 -0.266184 -0.223648 0.921986 -0.628358 0.611878 -0.105679 -0.410258 0.939769 -0.527754 -0.364957 -0.871586 0.391335 -0.972265 -0.406040 0.604499 0.096298 -0.302682 -0.444603 0.032223 -0.841413 -0.089619 -0.618720 -0.208658 0.833926 -0.369400 -0.522023 0.704181 -0.496708 0.089833 0.841991 -0.987308 0.823650 -0.381657 0.934678 -0.804708 -0.769779 -0.171002 -0.214966 -0.830010 0.301244 0.420077 -0.701596 -0.307421 0.447812 -0.107636 -0.702922 -0.455890 0.589682 -0.147526 0.576333 0.748269 0.762855 0.957613 -0.460389 0.596781 -0.411788 0.017589 0.300963 0.091504 -0.892578 0.142954 0.104196 0.931072 0.761297 0.038874 -0.873636 0.991518 0.867872 -0.088602 -0.838492 0.169116 -0.668525 -0.540088 0.861695 0.779287 0.352276 -0.841227 -0.676603 -0.058041 0.011247 0.899730 -0.309772 -0.225898 0.857342 0.229839 -0.629116 -0.554445 -0.752572 0.671846 0.537059 -0.645150 -0.185200 -0.358745 -0.714078 -0.423903 0.680129 -0.587715 -0.432385 0.548001 0.323683 -0.270877 -0.282883 0.655158 0.189035 -0.421187 0.434445 -0.458689 -0.262415 0.757842 0.483270 0.748832 0.657572 -0.826502 -0.477065 0.514914 0.403337 -0.106182 0.960469 0.650764 -0.434336 0.497528 -0.994386 0.380464 -0.861217 -0.708465 0.956561 0.818912 -0.296179 -0.475824 0.366914 -0.972497 0.253299 -0.915969 0.682661 -0.557666 -0.337156 0.117106 -0.016355 0.400429 -0.125052 -0.533085 0.149261 -0.467480 -0.359587 0.672195 -0.952566 -0.956251 -0.433986 -0.992097 0.694514 0.131678 0.505431 0.700128 -0.487858 0.644214 0.991663 -0.531297 0.463126 -0.304516 -0.007121 -0.169960 -0.277013 -0.753823 -0.085929 -0.594352 -0.311489 0.576914 0.522754 0.672156 -0.022657 -0.602298 -0.860929 -0.873396 -0.069778 -0.220516 0.798799 -0.022344 -0.176767 -0.635187 -0.014441 -0.482253 0.496491 -0.509010 -0.782126 -0.991367 -0.864796 -0.790463 -0.522664 0.598330 -0.094979 0.470214 -0.571630 0.628008 0.716392 0.342441 -0.966344 -0.595098 -0.080645 0.556411 -0.922942 0.896698 0.954113 -0.783871 -0.976698 -0.115665 -0.004387 0.822101 0.861991 0.818845 -0.813086 -0.152450 -0.663408 0.683404 0.338540 -0.445534 0.692037 0.473744 -0.235997 -0.830628 0.072075 0.669024 0.639587 0.500445 0.297032 0.355978 -0.157115 0.330689 0.760881 0.762241 -0.112900 0.837939 0.658939 -0.158787 -0.945932 0.682241 0.725548 0.049681 0.504342 0.587540 -0.131474 0.691256 -0.564910 0.205118 0.374660 0.773630 0.759584 0.066697 0.247375 -0.476413 0.236070 -0.680551 -0.807389 -0.124343 0.819894 0.489644 -0.768365 -0.337221 -0.179668 0.992516 -0.574980 0.707432 0.830455 -0.916041 -0.451355 0.884523 0.766200 -0.725807 -0.065796 0.270542 0.861733 0.802730 -0.038202 -0.703177 0.007848 -0.663542 -0.929547 -0.232569 0.403155 0.317828 0.291019 -0.360775 0.637278 0.483630 0.514882 0.457172 -0.026727 0.746517 -0.880049 0.793606 0.739033 -0.455029 0.501038 0.569488 -0.371070 -0.950317 0.454011 -0.604870 -0.676124 -0.611786 0.665672 -0.814392 -0.809056 -0.372530 -0.517569 0.198792 -0.036071 -0.447115 0.966223 -0.632916 0.870713 0.257242 0.006309 0.507990 -0.259128 -0.478809 -0.034838 0.714145 -0.732292 0.085113 0.507751 -0.993259 0.630084 0.008789 0.576228 -0.740986 0.058471 0.030239 -0.345855 0.382347 0.418454 -0.680183 0.567955 0.609398 -0.052713 -0.949613 -0.191811 0.911216 -0.396729 -0.225587 -0.721700 -0.526016 -0.968346 0.284609 0.981974 -0.227474 0.805800 -0.052864 -0.513329 -0.926492 -0.967751 0.994422 -0.919751 0.662333 0.003211 0.656477 0.921347 -0.938318 -0.313284 -0.424509 0.444029 -0.894830 -0.104692 0.011985 0.714568 0.842596 0.062372 -0.477243 0.753811 0.665643 0.297169 -0.967889 -0.860373 0.328824 0.316721 -0.878399 -0.898650 0.122521 0.068737 -0.411979 0.196029 0.100985 -0.417557 0.276278 -0.236682 0.585654 -0.067245 -0.315336 0.647336 0.619472 0.260156 0.091366 0.724642 -0.844536 -0.896649 0.439209 0.998060 0.165722 0.961966 0.751871 -0.168635 0.259135 0.783983 -0.029008 -0.412041 0.100703 0.092593 -0.310691 -0.776775 -0.838671 0.277330 0.419254 0.262314 0.859773 -0.304468 -0.974368 0.445427 0.628288 -0.289703 0.092763 0.247759 0.970452 -0.815871 -0.027599 -0.874084 -0.712520 -0.588390 -0.876024 0.453202 -0.626424 0.875847 -0.715433 0.632711 0.659830 0.255559 -0.779330 -0.239467 -0.651849 -0.090021 -0.016243 -0.490519 -0.812691 -0.596989 0.771795 -0.952919 0.098544 0.797427 0.492508 -0.273169 -0.492277 -0.414729 0.974590 -0.521824 -0.230600 -0.053009 -0.395908 0.056880 0.358601 -0.271932 -0.489918 0.732177 -0.396085 -0.205351 0.364888 -0.736255 -0.949792 0.585558 0.024277 -0.601641 -0.504463 -0.991965 -0.092160 -0.317154 -0.588954 -0.320365 -0.270073 0.509590 -0.522938 -0.777565 -0.763579 -0.015215 -0.192294 -0.788989 0.462961 0.577107 0.158003 -0.932947 -0.366013 -0.483396 -0.204879 0.144069 -0.751219 0.399036 0.938718 0.613669 0.662780 0.988926 0.199227 -0.312942 -0.612715 0.694765 -0.304907 0.295125 -0.622389 0.106139 0.974760 0.107538 -0.384271 -0.548179 0.329973 -0.147850 0.436606 -0.862320 0.063161 -0.100433 0.714786 -0.778837 -0.033380 -0.651227 -0.262233 0.761741 0.492841 -0.013452 0.160777 0.431559 -0.399783 -0.176443 0.420485 0.799444 0.510615 0.807770 0.494209 -0.794292 0.102894 0.871819 0.311847 0.077654 -0.020643 0.927576 0.529475 -0.690670 -0.220275 -0.033919 -0.552990 0.842886 0.865649 -0.838204 -0.935950 -0.167731 -0.489431 -0.198183 -0.405990 -0.996590 0.788364 0.754786 0.434969 -0.611419 -0.421656 -0.144546 -0.811975 -0.911041 -0.336777 0.682233 -0.705333 0.766118 0.554052 0.606514 -0.156228 -0.466591 0.534090 -0.626753 -0.157260 -0.686185 0.339328 0.289749 -0.843298 0.204977 0.451545 -0.779249 -0.962754 0.962114 0.022568 -0.368745 0.965525 -0.189068 -0.613958 0.400494 0.199513 -0.035614 -0.744052 0.387538 0.053345 -0.080829 0.069771 0.348012 -0.314711 -0.376177 -0.045474 0.529061 0.157233 -0.511384 0.902308 0.999972 -0.197569 0.241636 0.289722 -0.040867 -0.553387 -0.258733 0.179884 -0.516141 -0.296618 -0.797548 0.115115 -0.331094 0.013384 0.501156 -0.930600 -0.787103 -0.534458 -0.674652 0.600435 0.518887 0.244520 -0.329794 -0.133102 0.929809 0.294029 0.821424 0.458870 -0.548738 -0.689960 0.361178 -0.548766 0.112472 -0.397185 0.740956 -0.928395 0.049428 -0.517777 0.251489 0.533288 0.185605 0.453941 -0.351598 0.854511 -0.532674 -0.850442 0.923912 -0.319777 -0.384900 -0.750740 -0.719342 -0.866013 0.493780 -0.049136 0.000885 0.423589 -0.755106 -0.177690 -0.117540 -0.303844 0.132350 -0.756362 0.147390 -0.755179 -0.153547 -0.111654 -0.683574 0.895882 0.370570 0.567915 0.429169 -0.443825 0.021856 -0.922429 -0.589314 0.489182 -0.772870 -0.665402 -0.830595 -0.157770 -0.416142 -0.549937 -0.023783 -0.922362 0.400927 0.977103 0.501228 0.645821 -0.200588 -0.616312 -0.658024 0.931762 -0.372674 0.489366 -0.823417 0.473779 -0.622287 -0.506991 0.369661 0.748282 -0.939076 -0.201170 -0.695543 0.082780 -0.123599 -0.284857 -0.428038 0.103531 0.049741 -0.258633 0.945761 0.633599 0.191429 -0.078022 0.711237 -0.407644 -0.100919 0.212465 -0.761823 0.698493 0.596153 -0.419847 0.630255 -0.776521 -0.930480 0.806838 0.697258 -0.552768 -0.700152 0.066918 -0.804485 -0.639228 0.865748 -0.500028 0.443553 -0.257850 0.215115 -0.984486 0.845680 -0.735144 -0.243119 0.791441 0.898455 0.948310 -0.286580 0.609692 -0.459333 0.612500 -0.177843 -0.221157 0.310993 -0.581690 0.358997 -0.058752 -0.358212 0.428516 -0.251913 -0.660954 0.875748 0.047934 0.405965 -0.928737 0.408707 0.271713 -0.428765 -0.147741 -0.986138 0.786350 -0.132226 0.859543 -0.948795 0.624655 0.650984 0.949660 0.572965 -0.635596 0.559352 -0.886368 0.976904 -0.618491 -0.107525 0.287897 -0.200181 -0.748528 -0.770855 0.441607 0.679988 -0.022768 0.780653 0.555736 -0.974834 0.186618 0.626999 0.433873 -0.541670 -0.801766 -0.713868 -0.527807 0.984584 0.153905 -0.668264 -0.964210 -0.221440 0.982720 0.985450 -0.648475 -0.652877 0.544802 -0.534843 -0.675973 0.926311 0.357632 0.611925 -0.273870 0.609104 0.841070 -0.832263 0.289092 -0.181699 0.948390 -0.155172 -0.156532 0.135007 -0.528172 -0.722660 0.593338 -0.329938 -0.436528 -0.934470 -0.345354 0.717377 -0.602734 -0.309564 -0.504062 -0.620014 -0.324114 -0.152537 -0.272891 -0.779312 0.312620 0.051137 -0.853002 -0.329748 -0.336939 -0.126872 -0.720644 -0.495869 0.040865 0.568448 0.322432 -0.010746 -0.586724 -0.834100 -0.875739 -0.114896 -0.556760 0.717599 0.555166 0.006712 0.783130 -0.790188 -0.275910 -0.819604 -0.099752 0.220028 -0.439619 0.576134 -0.932510 0.287491 0.796821 0.380110 -0.661373 0.943820 -0.949638 0.001689 -0.183052 -0.670282 0.505820 0.857812 0.898166 -0.171748 -0.152933 -0.688558 -0.005848 -0.028672 0.196545 0.437392 -0.311073 -0.248289 -0.555895 -0.527943 -0.038477 0.168195 -0.347548 0.861771 -0.611777 0.212834 0.437904 -0.544287 -0.499675 0.234725 0.835823 -0.161048 0.178545 0.886185 0.840641 0.995493 -0.784097 0.346460 0.853305 -0.885931 -0.825288 -0.299628 -0.574489 0.168864 0.671700 0.622056 -0.393743 -0.639373 -0.626232 0.050362 -0.167316 0.335291 -0.781443 0.485136 0.197061 -0.393221 -0.302030 -0.365034 0.062492 0.198295 0.869691 -0.101685 -0.962753 0.048236 -0.215500 0.877887 0.043729 0.000404 0.224347 -0.102966 0.114473 0.399059 0.597406 0.539984 -0.432076 0.269105 0.162040 0.174180 0.629732 0.535808 -0.775458 -0.537584 -0.128901 -0.556902 0.947552 -0.931840 0.049877 -0.354478 -0.296874 -0.887631 0.843817 -0.427183 0.010684 0.881063 0.621054 0.795185 0.758951 -0.335217 -0.204412 -0.016702 0.561817 0.910061 -0.617643 0.159223 0.450045 -0.049719 -0.571672 -0.387915 -0.875539 -0.941939 -0.852107 -0.650997 -0.479523 0.018992 -0.207899 -0.531971 0.087152 0.841979 0.113551 0.790278 0.954348 -0.042632 -0.636905 -0.034968 -0.161568 0.984149 -0.239783 -0.402618 -0.351068 0.555805 0.580680 -0.789251 0.465866 0.963037 0.369972 -0.084089 -0.086682 0.798300 0.527997 0.037779 0.856361 0.675890 0.386782 -0.623162 -0.305118 -0.821117 -0.155133 0.782034 -0.979138 0.958419 0.572312 0.975210 -0.084213 0.935407 -0.059758 0.754218 0.919557 0.700459 -0.648399 -0.431511 0.256264 0.932281 -0.220762 -0.277870 0.895318 -0.850790 0.638042 -0.191364 0.947510 0.166038 0.846415 0.803872 -0.158072 0.233197 -0.819290 0.536810 0.412081 0.025577 0.318844 0.432943 -0.016004 -0.108844 0.408153 0.899783 -0.173436 -0.651605 0.654001 -0.253880 -0.951146 -0.994398 0.314609 0.305118 0.937882 -0.906153 -0.972752 0.833200 -0.756943 0.665289 -0.358164 -0.809433 -0.168672 -0.511749 0.994439 0.673256 0.721449 -0.824852 0.210066 0.133530 0.200725 -0.471090 -0.433527 -0.815279 0.420066 0.974625 -0.915496 -0.753370 -0.676980 0.738505 -0.007250 -0.628127 0.744106 -0.692641 0.676991 0.681988 -0.598794 0.704239 0.515188 -0.355737 0.369528 -0.842976 -0.165170 -0.799144 -0.354724 -0.170731 0.874112 -0.633276 0.004417 0.084177 0.500254 -0.794858 0.613088 -0.933274 -0.610137 0.033154 -0.958648 -0.525633 0.279784 -0.635628 -0.787128 -0.727465 -0.263755 0.956978 -0.420106 -0.586764 0.638966 -0.018900 -0.882525 0.154154 0.625363 0.487003 0.311179 -0.539808 0.687859 0.956454 0.289461 0.561970 -0.676821 -0.706122 -0.353852 0.823433 -0.500980 -0.740765 0.890159 -0.111116 0.292390 0.931511 0.363251 -0.427826 -0.704118 0.576123 -0.155292 0.032127 0.533100 0.424602 0.445363 0.172067 -0.594298 0.562838 -0.673779 -0.968935 0.049841 0.637400 -0.508743 -0.262300 0.593854 0.780718 -0.700330 0.917033 -0.925404 -0.054182 0.740465 -0.426384 0.205053 0.630624 0.462500 -0.502557 0.562135 -0.174249 0.069617 0.858017 -0.598126 0.914325 -0.109856 0.934974 0.338927 -0.664492 0.107041 0.744629 0.898346 0.433262 0.775694 -0.051813 0.070662 -0.733049 0.685887 -0.335484 -0.952331 0.985557 -0.418452 -0.877734 -0.068625 -0.677986 -0.304118 -0.863571 0.952638 -0.841618 -0.366128 0.514773 -0.015867 0.703489 0.372790 0.386007 0.617814 -0.737066 0.320981 -0.043259 -0.401558 -0.571978 -0.298630 -0.503212 0.861283 -0.522935 0.444975 -0.068055 -0.255984 0.130863 0.596461 -0.208315 0.116420 -0.821991 -0.086049 -0.952205 -0.499977 0.609833 -0.815776 -0.547339 0.768215 -0.181904 0.967434 -0.247652 -0.478415 0.340224 -0.861646 -0.860602 0.603158 0.459335 0.096139 -0.798400 0.887357 0.797509 -0.301612 0.748640 -0.725426 -0.856636 -0.319415 0.018590 0.274226 -0.722954 0.810275 -0.609354 -0.544945 -0.275774 -0.561559 -0.044922 -0.665941 -0.377334 0.407739 -0.897727 0.440762 0.375173 -0.145379 0.962346 -0.284604 -0.007025 -0.898256 -0.681446 -0.547689 0.197883 -0.479845 -0.660333 -0.004607 0.218543 -0.911692 0.269967 0.361906 -0.231107 -0.711444 -0.363868 0.045939 -0.901168 0.026778 0.500994 -0.176942 0.465220 -0.543928 0.157116 -0.912115 0.863811 0.259390 0.528647 0.238984 -0.885989 0.490993 0.954380 0.106986 0.592738 -0.727065 0.559297 -0.209379 -0.206911 0.898964 0.786014 -0.988368 0.987272 0.055980 0.373539 -0.243836 0.344537 -0.990329 0.802103 0.443368 0.036450 0.303098 -0.733574 -0.498331 0.759170 0.423542 -0.410445 0.622981 -0.317068 -0.881798 -0.138035 -0.203058 0.609195 -0.183654 0.903928 0.201933 0.089280 0.463225 0.992554 0.882370 0.362189 0.778567 0.894002 0.349461 -0.165452 0.267541 -0.894375 -0.820916 0.277212 0.907728 0.622452 -0.686339 0.210826 0.888878 -0.184669 -0.030004 0.312420 0.404886 -0.407023 0.995351 0.523088 0.454942 -0.207707 0.132283 -0.728712 -0.303778 -0.665784 0.360568 -0.840554 -0.673230 0.242938 0.521635 -0.894662 0.136940 -0.128904 -0.060115 -0.595519 -0.023279 0.118969 0.681693 -0.115551 -0.258578 0.995354 -0.904725 -0.369701 -0.189315 0.065271 0.942719 -0.784429 0.658248 0.938070 0.738658 0.113191 -0.269636 -0.129058 0.384479 0.426585 0.205158 -0.254953 0.586032 0.531928 0.987985 0.107667 0.637266 0.124926 0.978763 -0.422849 0.529407 -0.044516 0.696121 0.211099 0.839933 -0.562458 0.206453 0.935209 0.067842 -0.982862 0.000480 0.010561 -0.767291 -0.341272 -0.051369 0.971367 0.771918 0.678995 -0.157691 0.156397 0.105580 -0.952533 0.901444 -0.308388 0.579395 0.889429 0.799279 0.216661 0.014355 0.778042 0.793812 -0.456238 -0.266474 0.489933 0.754861 -0.426541 0.927475 -0.038686 -0.491332 -0.004684 -0.021548 0.509148 -0.994123 0.211161 -0.832125 -0.045492 0.182528 0.939794 -0.366497 -0.975164 0.096191 0.739083 -0.927697 -0.002365 -0.569305 0.651698 -0.112936 -0.770026 -0.131641 0.901419 -0.991984 -0.337829 -0.554819 -0.258458 -0.847896 -0.799958 0.315002 -0.920421 0.161356 0.823669 0.074895 -0.860192 0.332817 0.080772 0.350969 0.500692 -0.964720 -0.466503 0.440486 -0.331217 -0.441667 -0.463323 -0.592134 -0.369363 0.534312 -0.161439 -0.717665 -0.578624 0.068535 0.150694 -0.677205 0.076551 0.812866 -0.232025 0.818093 0.964970 -0.031983 0.133095 -0.955451 -0.870627 -0.043236 0.119444 -0.730819 -0.710419 -0.799784 0.620150 0.790274 -0.764503 -0.846353 0.230760 -0.095720 -0.288020 0.767437 0.312146 0.342617 0.301749 -0.849293 0.624952 0.723125 0.219242 -0.224354 -0.954081 -0.704208 -0.411489 -0.186105 -0.886114 -0.446519 0.781912 0.246980 -0.401970 0.911285 -0.796256 0.717474 -0.819534 -0.506674 0.917691 0.800616 -0.716401 -0.846813 0.954263 0.514359 0.057467 -0.333756 0.281796 -0.630387 -0.991140 -0.416455 -0.479680 
0.631025 -0.693331 0.736775 -0.590542 -0.647411 -0.967433 -0.002031 0.163695 -0.850760 0.548664 -0.051604 0.393432 -0.850519 -0.140319 0.599964 0.866955 0.040147 -0.906710 0.784645 -0.159237 -0.623111 0.937833 -0.204974 0.891248 -0.004700 0.461270 0.173044 0.364913 0.470131 0.756589 0.885233 0.103943 -0.936742 0.624795 0.513401 -0.584153 0.660149 -0.488630 0.582331 0.809388 -0.937179 -0.469274 0.205608 -0.787699 0.390407 -0.194428 -0.920744 -0.569446 -0.101138 0.863901 0.271317 0.275751 0.801734 -0.933657 0.166999 -0.202966 0.527613 -0.659957 -0.838053 -0.002256 -0.903368 -0.952820 -0.898313 -0.840110 0.671974 0.615087 -0.424263 0.332123 -0.873542 -0.841933 0.141512 -0.810722 -0.311206 -0.652880 -0.598420 -0.920799 0.152692 -0.519164 -0.490246 -0.948446 -0.655263 0.781071 0.327305 -0.853529 0.847415 -0.505697 -0.056495 0.375028 -0.165654 0.105452 -0.627228 -0.069022 0.152631 -0.525541 0.090868 -0.175394 -0.910454 0.666604 -0.843271 -0.783996 0.824672 0.298241 -0.594718 -0.486534 0.645360 -0.193138 -0.407334 -0.201948 0.287697 0.102421 -0.150394 0.632434 -0.116508 -0.823089 0.778905 -0.269094 -0.328786 -0.277590 -0.894065 0.505561 0.827862 -0.521293 -0.563462 -0.019507 -0.046835 0.527406 0.805099 0.042712 0.194010 0.961828 0.258715 0.018682 0.260069 0.663997 0.532148 -0.094571 -0.529141 -0.875186 0.703481 0.758556 0.227235 -0.446912 0.390991 -0.889273 -0.270002 0.169896 -0.158367 0.401213 0.892306 -0.052432 -0.093227 0.720168 0.426274 0.343312 -0.299339 -0.620560 -0.129282 -0.494239 0.422152 -0.935272 -0.532411 -0.319133 0.083411 0.727658 -0.655136 -0.384442 -0.366913 -0.184277 -0.259627 -0.663432 -0.425720 0.967607 -0.110344 0.965270 -0.921666 0.619654 0.135167 -0.080033 0.020867 0.027473 0.867535 0.927640 -0.252359 0.293809 0.270952 0.448302 0.673249 -0.858330 0.954063 0.095401 -0.793602 -0.578348 0.776268 0.289808 -0.850691 -0.878868 0.905367 -0.217604 -0.063144 -0.354261 0.118965 0.511136 -0.386653 -0.991380 0.476406 -0.308319 0.628274 -0.388427 0.611648 -0.350859 0.639045 0.479183 -0.423218 -0.613314 -0.227008 0.847733 0.834988 -0.553759 0.989403 0.789051 0.541642 -0.804199 -0.789297 0.317910 0.485609 -0.639987 0.439042 0.390976 0.142409 -0.624102 -0.963285 -0.738627 0.887033 -0.349938 -0.730006 0.363439 0.341743 0.898268 0.975012 -0.046609 -0.452591 0.614057 -0.567426 0.124191 -0.999257 0.205567 -0.028076 0.835732 0.651808 -0.038673 0.624783 0.193450 0.157128 0.835486 -0.488640 -0.357263 -0.804501 0.950402 -0.966287 0.337908 -0.673700 -0.929571 0.599281 -0.786666 -0.279509 0.869275 0.576773 -0.937766 0.767543 0.551785 0.015626 -0.685048 0.165842 0.448200 0.439143 0.166585 -0.346233 -0.588932 0.002317 -0.694425 0.372395 -0.372899 0.499025 -0.470477 -0.537413 -0.989615 0.172261 -0.341914 0.960788 0.205974 0.995994 -0.712912 0.276403 0.595275 -0.499578 0.996894 0.464550 -0.922805 -0.940871 0.232093 0.628980 0.074754 0.547045 -0.205178 -0.477046 -0.013811 0.961408 0.176721 0.397256 -0.036275 0.482295 -0.230348 0.590826 -0.018679 0.299175 -0.946588 -0.008294 -0.528564 -0.288502 -0.047506 0.677410 -0.292508 0.239582 -0.046187 -0.697233 0.740004 -0.049292 0.767317 0.817199 0.009836 -0.000591 0.446179 -0.915410 -0.453545 -0.758998 -0.392455 0.532643 -0.797591 0.784265 -0.070100 0.166134 0.266561 0.699551 -0.243040 -0.752119 -0.001274 -0.189627 0.239587 0.470162 0.521871 -0.807919 0.147572 -0.770637 0.431663 -0.898615 -0.467870 0.171667 0.052093 -0.700554 -0.011134 -0.938071 0.298856 -0.564954 -0.853481 0.845310 -0.323953 -0.245936 0.377953 -0.121544 -0.461670 -0.692147 -0.955409 0.804890 -0.992596 -0.198449 -0.947228 0.006130 0.611923 0.292359 -0.523709 0.133794 0.484440 0.623863 0.363157 -0.083896 0.725248 0.895287 -0.912229 -0.222659 -0.805267 0.076637 -0.160730 0.493589 0.511683 -0.014211 0.338899 -0.812270 0.739853 -0.283148 0.066186 -0.721817 0.024705 0.110777 -0.916927 0.032108 0.912328 -0.864155 -0.961762 0.524252 0.428204 -0.485471 -0.341954 -0.087355 -0.861608 -0.978797 0.828748 0.863641 0.916490 0.916519 -0.359019 -0.888777 -0.006844 0.480251 0.604812 -0.495161 -0.533959 -0.056290 -0.307431 -0.794106 0.660562 0.758756 -0.515923 -0.314734 -0.130467 -0.432850 0.717375 -0.218139 -0.297004 0.755613 -0.693887 -0.868800 -0.729858 -0.035841 0.043845 -0.591466 -0.014638 -0.127407 -0.727825 -0.098148 -0.210888 -0.086844 0.013075 0.782268 -0.606593 -0.382113 -0.712893 -0.140552 0.561597 -0.020324 0.065342 0.222159 -0.261568 0.549419 0.907425 0.607964 -0.883431 0.624800 -0.610174 -0.180435 0.380413 -0.304062 -0.049235 0.650555 0.660097 0.994609 -0.940911 -0.354541 -0.132798 -0.668736 0.547312 0.656314 0.244420 -0.439613 0.438582 0.637827 0.178274 0.725689 -0.502725 -0.260130 -0.294635 0.562617 0.962029 0.443796 0.112036 0.869454 0.051761 0.228606 0.494254 0.441586 -0.951830 -0.125333 -0.862476 -0.001065 -0.474778 0.797622 -0.006456 -0.415689 -0.556919 0.860746 -0.084426 0.990393 0.517060 -0.840006 -0.449221 -0.044358 0.797821 0.729053 -0.318670 -0.704904 -0.531077 0.386695 0.857714 -0.569048 -0.169509 -0.030250 -0.699593 0.882252 -0.801645 0.794661 0.323838 -0.753474 -0.330672 0.461363 0.245461 0.194550 0.258984 -0.760995 0.778861 0.702065 -0.900248 -0.305565 0.692458 0.616812 -0.145571 -0.756763 -0.427547 -0.347750 0.972290 0.253784 -0.052654 -0.558787 -0.359521 -0.194940 -0.127835 0.470970 0.774810 0.172572 0.353223 0.973165 -0.032766 -0.322939 -0.780309 0.636562 -0.861576 0.465152 -0.168888 0.397408 0.704157 -0.390027 0.099473 0.803909 0.304408 -0.208069 0.420721 -0.841164 0.035168 0.993174 -0.188914 0.007458 0.246958 0.758433 0.448671 0.887437 -0.436507 -0.679163 0.358407 -0.661697 0.493409 -0.288370 -0.688532 -0.539357 0.388690 -0.468840 -0.902795 0.527114 0.996312 -0.071683 -0.075478 0.700469 0.538290 -0.976005 0.504378 -0.157302 -0.184074 -0.074901 0.001534 0.851095 -0.081727 0.812620 -0.141447 -0.834770 0.571053 -0.692776 -0.947333 -0.865454 -0.371939 0.411074 -0.527151 -0.878529 -0.877296 -0.215683 -0.417887 0.511394 0.315477 -0.320682 0.038508 0.311788 0.607635 0.963029 0.012258 0.145925 0.987024 -0.483364 0.988623 -0.197049 0.441735 -0.009843 -0.345954 -0.639992 -0.197223 0.512599 -0.474762 -0.626170 0.819823 -0.422095 -0.491624 -0.552116 0.988979 -0.018776 -0.430645 -0.888317 0.765541 0.151468 0.623077 0.081018 0.830787 -0.338416 -0.607194 0.438422 -0.375386 0.405064 -0.415652 -0.388362 0.921700 -0.427029 0.414589 0.363435 0.563127 -0.931365 0.723443 -0.634096 0.581233 -0.751319 -0.260266 0.401056 -0.173413 0.248110 0.848941 -0.184434 -0.770666 -0.581704 -0.072751 0.994875 0.569764 -0.449674 0.075893 0.400551 0.211910 0.468700 -0.161027 0.836524 -0.126236 0.423321 -0.551837 -0.204535 0.996291 0.862752 -0.841100 0.559419 0.931387 0.882343 0.925323 0.512620 -0.868975 -0.334942 -0.086324 -0.042389 0.913168 -0.237383 0.773178 -0.857498 0.180913 -0.299573 -0.862623 -0.249323 0.250753 0.213271 -0.848773 -0.537337 -0.318029 -0.009799 -0.700813 0.555735 -0.586479 -0.252650 -0.648801 -0.590187 -0.389898 -0.489901 0.969232 -0.458512 -0.607558 0.894555 -0.945891 -0.476533 -0.440388 -0.032215 0.481079 -0.527220 0.730402 0.254256 -0.384718 -0.088685 0.954683 -0.247341 0.661991 0.205435 0.965930 0.813219 0.668098 -0.352100 -0.196581 0.967286 -0.796365 0.216940 -0.285365 -0.445166 0.626753 0.324737 0.064933 0.595985 0.866226 0.457376 0.490540 0.920334 0.980843 -0.949848 -0.111881 0.461921 -0.477068 -0.381479 -0.283822 0.138214 0.529836 -0.329140 0.890873 0.191827 0.876296 0.856802 0.005046 0.544394 -0.495298 0.808465 0.511680 -0.291663 0.025405 -0.773685 0.263171 -0.347842 0.551052 -0.671896 -0.751857 0.417278 0.785480 0.738683 0.337612 0.766323 0.788835 -0.774269 0.228244 -0.688233 -0.155748 0.944422 0.449980 -0.625912 -0.384718 0.340853 0.565915 -0.508422 0.197655 -0.429040 -0.964028 0.702357 -0.620575 0.547652 -0.589306 0.404831 0.773967 0.673864 -0.943011 0.325019 -0.998031 -0.694868 -0.257703 0.787448 -0.956185 -0.920091 0.553771 0.832649 -0.694359 -0.217985 -0.855584 0.149893 -0.273563 0.594396 0.523981 0.341719 -0.064751 0.089896 0.833297 -0.867096 0.660856 0.869270 0.835261 -0.959718 0.416922 -0.754046 0.445112 0.190889 0.919819 0.502101 -0.484092 0.921787 0.807233 0.258205 0.709235 0.851048 0.338115 0.263007 0.683698 0.643755 -0.954978 0.828114 -0.206351 -0.228541 0.422510 -0.682370 -0.886822 -0.642241 0.407526 0.946475 -0.509337 0.068382 0.815745 -0.674077 0.108664 0.232667 -0.428123 -0.446224 -0.576445 -0.508304 -0.944123 -0.060537 -0.586517 0.863111 -0.802331 -0.877281 0.714159 0.535783 0.385725 0.397857 0.179539 0.430747 0.225971 0.973188 -0.797794 -0.351519 -0.709183 -0.684616 0.006240 0.698343 -0.738141 0.496902 -0.233275 -0.922396 0.822825 0.875389 0.310271 -0.605298 -0.570835 0.733826 -0.113602 -0.514957 -0.326711 0.299881 -0.651846 -0.129042 0.422600 -0.937687 -0.593259 -0.191675 0.460170 0.586280 -0.760928 -0.313860 0.559468 -0.558723 0.334621 0.850285 -0.243339 -0.659140 0.548628 0.018520 0.837763 -0.684647 0.096124 0.660588 -0.809257 -0.593605 -0.944710 -0.380092 -0.859779 -0.058311 0.104951 -0.186490 -0.758430 0.453105 0.684468 0.664170 0.515417 -0.908791 -0.527505 -0.024413 0.677489 -0.288433 0.661727 0.236957 0.152844 -0.003652 0.087242 0.909505 0.337209 -0.364130 -0.071975 0.174972 -0.048777 -0.975851 -0.164441 0.141966 -0.569456 -0.109150 0.761874 -0.429236 0.832539 -0.133175 0.384274 -0.925891 -0.680071 0.068742 0.738279 0.835347 0.159951 -0.789226 -0.189066 -0.162560 -0.077660 -0.527338 -0.925604 -0.924815 0.469010 0.161638 0.984690 -0.193781 0.797508 -0.087285 0.981191 -0.251269 -0.063136 -0.183250 0.890696 0.367408 0.707600 0.652570 0.938172 0.540138 -0.480605 0.322446 0.614247 -0.160675 -0.608812 0.352526 -0.325328 0.551138 0.563300 0.485606 -0.611422 -0.514360 0.958268 -0.537026 -0.439175 0.427278 0.624612 -0.454485 -0.766503 0.422120 0.458230 -0.785313 -0.829150 -0.604906 0.031437 -0.938453 0.762502 -0.260963 0.714117 0.700674 -0.720824 -0.766488 0.023120 0.893423 0.072837 0.414307 0.245949 0.747509 -0.034554 -0.190752 0.233115 0.354023 0.294888 0.191382 0.816998 0.855713 -0.381340 0.441610 -0.598772 -0.147843 -0.136271 0.859458 0.066844 0.034579 -0.745448 -0.901719 0.096126 -0.982946 -0.162682 -0.189757 0.717727 0.116494 0.043756 -0.259153 0.009917 -0.883407 -0.844846 -0.744134 0.864102 0.120600 0.065114 0.097217 -0.525377 -0.639998 -0.711401 -0.708379 -0.784285 -0.092741 0.733231 -0.383057 0.759415 -0.403040 -0.523600 -0.173741 0.631539 -0.269048 -0.075460 -0.272335 -0.251995 0.761858 0.537909 -0.534267 -0.121648 -0.418336 0.206580 0.888269 -0.301743 0.361735 -0.855865 -0.437641 -0.517666 0.209248 0.659575 -0.043042 0.569250 0.948174 0.248579 0.784965 -0.144567 -0.018191 -0.598092 -0.385152 0.578769 -0.121692 0.441107 0.210308 0.609260 -0.634353 0.937974 -0.642734 -0.872495 0.475882 -0.177001 0.005858 -0.942453 -0.970421 -0.105873 -0.244196 0.391313 0.038261 0.318163 0.873648 -0.752490 -0.022262 -0.169394 0.816760 -0.074088 -0.920816 0.601726 0.781345 0.060994 -0.996366 -0.603807 -0.360237 -0.118058 0.837300 0.850071 -0.508797 -0.797053 0.788045 -0.151532 -0.669547 0.263927 0.671467 0.336310 0.321473 0.701046 -0.769563 -0.922723 0.092359 0.268699 0.395440 -0.033993 0.516208 -0.626822 0.796613 0.332969 0.299091 0.875797 -0.065306 0.080436 -0.063209 -0.061672 0.476629 0.576553 0.820270 0.313929 0.426624 -0.688527 0.516877 0.214669 0.159941 0.847329 -0.521404 -0.168591 0.183639 0.800069 -0.467546 0.414077 0.877346 0.624814 -0.317225 0.272786 -0.409180 -0.801017 0.645965 -0.612567 0.531952 -0.054945 -0.736770 -0.533353 -0.974509 0.200020 0.404975 0.502120 -0.223426 0.225245 -0.183950 -0.796802 0.536718 -0.667074 0.417867 -0.303340 -0.819745 0.896462 0.528068 0.363895 0.696532 -0.939477 -0.222029 0.573878 0.685336 0.460746 -0.153336 -0.723843 0.659730 -0.507371 -0.336410 0.191682 0.437684 -0.073180 0.658329 0.463175 -0.873160 0.063304 -0.034705 -0.096586 -0.711451 0.781345 0.106612 0.825267 -0.885729 -0.475521 -0.478073 -0.705474 -0.579059 -0.950005 0.658421 -0.882527 -0.889482 -0.563608 0.691351 0.795854 0.897139 -0.461985 -0.927989 0.556869 0.030644 -0.264399 -0.251449 -0.531672 0.662421 -0.593120 0.931503 0.789261 0.470183 -0.103202 -0.307325 0.758732 -0.321857 0.799287 0.583999 -0.207586 -0.676234 -0.894074 0.086940 -0.255293 -0.844078 -0.254639 -0.137820 -0.733560 0.181753 -0.446469 -0.937706 0.078892 0.091546 -0.865694 -0.364239 -0.877810 -0.130093 0.384312 -0.409482 -0.467673 0.791191 -0.477979 -0.678411 0.261375 0.418820 0.014264 0.020106 -0.903037 -0.186449 -0.395894 -0.110623 0.137317 -0.289968 0.976317 0.882024 -0.134046 -0.278322 -0.255796 0.132393 0.903431 0.297735 0.194688 -0.017677 -0.610719 0.328993 0.618084 -0.488529 -0.801100 0.002396 0.101990 -0.268773 -0.206412 0.624011 0.052816 -0.945038 0.042831 -0.932921 0.075069 0.139794 -0.119370 0.679174 -0.970830 -0.982053 -0.610794 -0.994513 0.899971 0.255160 -0.272835 -0.355825 -0.612447 -0.369404 0.941910 0.582240 0.612919 -0.668809 -0.088767 0.231003 -0.157338 0.110133 -0.766600 0.944652 0.841360 0.026987 0.568663 -0.105824 0.081949 -0.388506 -0.038745 -0.842982 0.751287 0.841886 0.836192 0.780458 0.859832 -0.774602 0.785945 0.759803 0.480558 -0.486891 -0.596022 0.868111 0.143705 -0.654112 0.450351 -0.243376 -0.322921 -0.638415 0.987627 0.519742 0.471718 -0.778973 0.464393 0.313078 0.248014 0.033056 -0.792746 -0.670037 0.644550 0.168510 -0.513019 0.395837 0.010395 -0.676827 0.176294 -0.129772 -0.451428 -0.037761 -0.369969 -0.970870 0.475348 0.034009 0.897241 -0.380947 0.379897 0.347592 0.375677 -0.943023 0.709177 0.363305 0.576718 0.180895 0.584332 0.041111 -0.506027 -0.167654 -0.925833 -0.298773 0.162309 0.718717 0.869737 0.649291 0.114554 -0.119868 0.972464 -0.709152 0.750359 -0.478964 0.253087 -0.619610 -0.449834 -0.271564 0.414399 -0.552594 0.347489 -0.205703 0.794998 -0.276833 -0.148727 0.504175 -0.913529 -0.572008 -0.314930 0.670803 0.469103 0.179043 -0.496851 0.543270 0.880270 0.665459 0.261987 0.750007 0.314749 -0.623459 -0.369861 0.287214 -0.332611 -0.619502 0.808250 0.920477 -0.239112 -0.641585 -0.351087 -0.824712 -0.194178 0.996402 -0.030416 -0.399180 -0.280432 0.820858 -0.895005 -0.193960 -0.751151 -0.209935 -0.523157 0.717952 0.969108 -0.020008 0.261222 0.849378 -0.354549 -0.476790 0.599384 0.960200 -0.100249 -0.770477 0.247414 0.567140 -0.389979 0.055663 0.487617 0.370909 0.414079 -0.863470 0.546197 -0.780099 -0.867069 -0.484219 -0.179279 -0.147501 -0.663361 -0.074284 0.658539 -0.414512 0.715781 -0.864618 -0.696560 0.684888 0.115374 0.564663 0.534266 0.760825 -0.912127 0.133650 0.721025 -0.012376 0.363173 -0.031561 -0.445236 0.973194 -0.975898 -0.957619 0.344104 0.438181 -0.821090 -0.109699 0.658081 -0.688158 0.406082 -0.521198 0.164341 0.742721 0.404518 -0.177120 -0.671791 0.120298 -0.041738 -0.368350 -0.194813 -0.926364 -0.803687 -0.660548 0.834461 -0.715815 0.473103 0.555486 0.271809 -0.163724 -0.476075 0.826573 -0.190530 -0.451973 0.868954 -0.846426 0.986207 -0.952136 0.043874 0.644289 -0.640294 -0.550044 -0.876909 0.524047 -0.807323 0.527609 -0.653073 -0.479114 -0.352093 0.305189 0.152536 0.453093 0.378826 0.348849 0.792546 0.213287 0.633034 0.265649 -0.231227 -0.095157 -0.898075 0.292697 -0.268584 -0.088605 0.840724 -0.399631 0.064969 0.826931 -0.351767 -0.891157 0.471220 0.007939 -0.441201 0.594311 -0.468014 -0.248524 0.121920 -0.121087 0.272363 0.769827 -0.815898 -0.575101 0.222920 0.562928 0.773747 0.015466 -0.223785 0.406781 -0.718886 0.544987 -0.688376 -0.616961 -0.162316 0.043039 0.294434 -0.321592 0.643409 -0.640598 -0.494661 -0.708358 -0.531754 0.976559 0.299581 0.027045 0.570870 0.831567 0.778521 -0.307210 -0.289520 0.050884 -0.537383 -0.105418 0.475783 0.685537 -0.542490 0.249530 -0.298998 0.233724 -0.343689 -0.017883 -0.221289 -0.032065 0.365156 0.616396 -0.989025 -0.340410 -0.705196 0.654383 0.018992 -0.199857 0.946025 0.487238 -0.223297 0.245606 -0.485717 -0.652427 0.077173 -0.707196 0.040363 0.787652 0.343688 0.502980 -0.317766 -0.180529 0.188516 0.139744 -0.930999 0.889519 -0.626532 -0.274687 -0.128365 0.152180 0.693248 -0.763209 -0.231425 0.704223 -0.103619 0.063379 0.358606 0.915373 0.863522 0.304631 0.402611 -0.359775 -0.449763 0.916893 -0.012202 0.627410 -0.790303 -0.971839 0.415062 0.553385 0.531141 -0.902704 -0.627144 -0.280343 0.237040 -0.558143 -0.390825 0.610508 0.167170 0.480811 -0.237312 -0.139582 0.717602 0.531263 -0.435360 -0.386017 -0.405358 0.923246 -0.470644 -0.541835 0.227877 0.931967 0.098389 0.778114 0.848860 -0.913813 0.405523 -0.941443 -0.885652 -0.179415 0.611942 0.645489 -0.082119 0.984798 -0.634854 -0.845079 -0.573345 -0.025679 0.765429 0.593825 -0.544868 -0.471883 -0.545758 -0.827266 -0.940620 0.018882 -0.213282 -0.345978 -0.057872 0.316074 0.112187 -0.829995 0.248040 -0.789424 0.948119 0.096900 -0.703236 0.353642 0.155457 -0.588888 -0.825773 -0.232602 -0.943399 0.092108 -0.247804 -0.578253 0.247029 0.178851 0.396068 0.012459 -0.227325 0.851200 0.540576 0.226917 -0.976065 0.599955 -0.754200 -0.189348 -0.746022 0.187928 -0.873274 0.366164 0.357933 0.374766 0.576740 0.306052 -0.528334 0.873504 -0.340306 0.627123 -0.715384 -0.166079 -0.605479 -0.658783 0.926029 0.146717 -0.237036 0.173058 -0.674432 -0.840968 -0.814483 0.098243 -0.989768 0.726092 -0.674839 -0.965834 0.326048 -0.429040 -0.155181 0.580025 0.758888 -0.028455 -0.053810 0.116821 -0.653689 -0.477070 -0.577127 -0.182023 -0.603566 0.082567 -0.554900 -0.318950 0.916487 -0.160379 0.022267 0.842516 0.986338 0.785230 0.015574 -0.688094 0.944262 0.201091 0.410149 0.954494 -0.072817 0.735310 0.988660 -0.746769 -0.693730 -0.166521 0.833257 -0.934842 0.805023 -0.220554 0.181980 -0.848666 0.302376 0.604853 -0.030689 0.698811 -0.312581 0.414411 -0.620139 -0.396094 -0.745968 0.402127 -0.553577 -0.759629 0.187358 0.461997 -0.447723 0.131620 -0.336912 0.962426 0.086113 0.590272 0.697736 0.074773 0.843503 -0.995994 0.908252 0.676759 -0.930835 0.713275 -0.543794 0.251144 0.864609 0.758582 -0.144003 -0.166080 0.457393 0.543416 -0.751669 0.837253 -0.852677 -0.497637 0.239380 -0.406255 -0.257266 -0.573262 -0.944258 0.295011 0.558358 -0.281170 0.257437 -0.355529 -0.690898 -0.044827 0.719244 -0.847395 -0.040821 0.627496 0.829364 0.028344 0.340771 -0.714430 -0.720512 0.205380 -0.955848 0.135485 -0.960700 0.501544 -0.321098 -0.712369 0.338797 -0.173776 -0.210006 -0.421822 0.419969 0.532728 0.004916 0.475711 -0.172261 -0.436726 -0.805459 -0.914825 0.207745 -0.496357 0.040348 -0.073011 -0.343752 0.999527 -0.445514 -0.514388 0.027871 0.895257 -0.228819 0.307360 0.100638 -0.184667 -0.557155 0.139938 -0.683123 0.121747 0.427569 0.655675 0.947971 -0.782437 -0.766148 0.367940 0.750291 0.238768 -0.156349 -0.421970 0.802042 0.038193 -0.336795 0.009787 0.541836 0.703553 0.936776 -0.801916 0.703080 -0.508738 -0.316304 -0.269048 -0.613481 0.454877 -0.961688 0.487157 -0.729790 -0.518843 -0.372905 -0.412913 0.602904 -0.945336 -0.757238 0.550875 -0.727773 -0.523386 -0.081185 -0.977482 0.715382 0.762466 -0.399452 0.517424 -0.199341 0.263753 -0.472789 -0.657505 -0.032694 -0.536013 -0.459421 -0.329614 -0.044750 0.224274 0.401338 0.341769 -0.320849 0.439650 -0.171074 -0.050639 0.920807 0.456021 0.536448 0.523711 0.510685 0.779210 0.074586 0.782912 -0.744176 0.993401 0.805430 0.971206 0.755867 -0.594023 0.488630 -0.443474 0.669730 -0.984159 -0.100979 -0.362964 -0.520172 0.439600 0.307422 0.435078 -0.336125 -0.291240 -0.223153 0.343026 -0.851591 0.605773 -0.707613 -0.930784 0.061794 0.828836 0.592927 -0.427521 0.608046 -0.332487 -0.644610 0.863870 -0.339087 -0.839180 0.835076 -0.583220 -0.433202 0.323706 -0.026693 -0.763472 0.339546 0.872328 -0.126436 0.819375 0.311929 -0.819015 0.254452 0.975804 -0.110255 -0.968701 0.318830 0.038154 0.637072 0.611217 0.107370 -0.301134 0.440053 -0.299703 0.271344 0.048098 0.367810 0.626735 -0.088032 -0.971277 0.787555 -0.252956 -0.554497 -0.645647 -0.929251 0.418810 -0.409119 0.410296 0.291139 0.464444 0.229670 -0.396933 0.645430 -0.515877 -0.421129 -0.464826 -0.484578 0.897701 0.573329 -0.847506 0.508918 -0.319301 -0.148641 -0.051029 0.380996 -0.877296 0.997069 -0.251194 0.749439 -0.090963 -0.222471 0.536994 0.656081 0.223032 0.891347 0.726830 -0.358157 -0.517773 0.137126 0.932981 0.946672 -0.633204 -0.463951 0.592101 -0.149081 0.114920 -0.872724 0.366340 0.012620 0.700605 0.518834 -0.478462 -0.618696 -0.629807 0.470509 0.762300 -0.507103 0.467578 -0.488894 -0.757664 -0.623385 0.288634 0.779329 -0.967304 -0.488333 0.670676 0.759526 0.153509 -0.847097 -0.103348 0.086491 -0.900425 0.263448 0.622539 0.691676 -0.885633 -0.262541 0.818952 0.480707 0.750079 0.519557 -0.000459 -0.728383 0.900860 0.369734 0.742126 0.663160 0.862631 0.209704 -0.825734 -0.895033 0.586319 0.462900 0.884296 0.619015 0.974567 0.554972 0.378541 0.128076 0.707875 -0.724808 -0.785433 0.807451 0.538640 0.837106 0.499127 0.653007 -0.425436 0.318079 0.133714 -0.675357 -0.162364 -0.866745 -0.403739 -0.261503 0.502989 -0.661614 -0.598343 0.365621 0.548090 -0.424078 0.470588 0.134409 -0.961178 0.354884 -0.246576 -0.986611 -0.090144 -0.868035 0.141465 -0.382268 -0.592843 0.356032 -0.574818 0.945798 0.193137 0.924309 0.598804 0.767702 0.242389 -0.267482 -0.907655 -0.919975 -0.134227 -0.311394 -0.181479 -0.631238 0.026992 0.220178 0.734383 -0.424918 0.796100 0.204971 0.709492 0.834923 -0.440145 -0.537084 0.848312 0.469712 -0.405119 -0.010223 -0.912556 0.002038 -0.654191 -0.487374 -0.052164 0.538946 -0.563065 -0.453360 0.306648 0.679324 0.279159 0.398993 0.759348 -0.855068 -0.912401 -0.422130 -0.486306 0.114591 0.798047 -0.751922 0.689674 0.594148 0.453049 0.399165 0.429071 -0.987096 0.862081 0.277382 0.482616 -0.543038 -0.732840 0.570060 0.459000 -0.387032 -0.917315 -0.593164 -0.848086 -0.480380 -0.046524 0.458562 -0.801056 -0.767366 -0.142444 0.958292 -0.622434 -0.054845 -0.463838 -0.108740 -0.940254 -0.665791 0.139338 0.749420 0.928357 -0.407613 0.148585 0.357428 -0.394709 0.010667 -0.365190 -0.912093 0.467628 -0.098030 0.657967 -0.073372 0.514938 0.740652 0.333464 0.666852 -0.739728 -0.713060 0.125415 -0.540784 -0.480426 0.982971 -0.582491 -0.102860 -0.071874 -0.046330 0.788400 -0.012128 0.287880 -0.072262 -0.262708 0.216237 0.520124 0.885877 -0.426336 -0.874585 -0.103457 0.208475 -0.786678 -0.635828 -0.889556 0.871289 0.290800 0.625382 0.611941 -0.375736 0.292235 0.872213 -0.088796 -0.582351 -0.668571 0.430778 -0.599380 -0.251062 -0.672083 0.328746 0.702608 -0.883682 -0.683383 -0.009512 0.044055 0.053909 -0.793275 -0.435820 -0.060214 -0.219611 -0.310405 0.836329 0.988863 -0.097083 -0.799499 -0.900692 -0.225795 0.491301 0.724690 -0.613854 -0.884435 0.016924 -0.741641 0.026768 0.434574 -0.410212 -0.542454 0.835194 0.338726 -0.214537 0.163939 0.041335 -0.098219 0.480557 -0.968178 0.945836 -0.465534 -0.761453 -0.489984 0.474251 0.018936 0.199610 0.310580 0.007799 -0.897473 0.511081 0.107107 -0.123268 0.002382 -0.168203 0.262878 0.117947 0.848721 0.521237 -0.855285 0.283295 -0.888975 -0.397739 0.118489 0.449751 0.387724 -0.717572 -0.508914 -0.710495 0.762985 -0.477092 -0.764659 -0.702550 -0.238545 -0.254643 0.771702 0.780391 0.944967 0.082282 -0.211810 -0.952506 -0.406637 0.895297 -0.075774 0.595745 -0.272906 -0.812896 -0.286308 -0.424185 0.708341 -0.141593 0.859110 0.819366 0.460668 -0.022401 0.269117 -0.151608 0.260027 0.760203 0.137897 0.023012 -0.716889 0.373238 0.320462 0.044567 -0.881405 0.092164 -0.175042 -0.936438 -0.825555 0.613148 -0.888944 -0.232192 0.508445 0.035282 -0.636447 -0.764460 0.222386 0.077245 -0.188645 -0.069273 0.935652 -0.329535 -0.249907 0.396320 0.648063 -0.980789 -0.755288 -0.091910 0.779414 0.382609 0.931102 -0.937475 -0.244153 0.251564 0.107092 -0.125558 -0.656273 0.932049 -0.061996 -0.481827 0.545197 0.049059 0.285981 0.053643 -0.915659 0.649534 0.289182 0.306727 -0.273221 -0.899463 -0.762546 -0.337569 -0.228998 -0.012453 -0.941250 -0.580935 0.006758 -0.696538 0.327156 -0.213829 0.686071 0.258257 -0.151304 -0.558083 -0.490179 
0.955788 0.316359 -0.146452 0.887837 -0.745637 0.371721 0.433035 0.303422 -0.342298 -0.513323 0.387763 -0.692764 0.775860 -0.305510 0.034015 0.876397 -0.068056 0.696446 -0.352602 0.919491 0.755197 0.066464 -0.073751 -0.941341 -0.606381 0.712420 0.744729 0.651877 -0.438884 -0.813353 -0.838302 -0.483095 0.503006 0.015246 -0.595258 0.757369 -0.613033 0.837777 0.060790 0.044670 -0.675546 -0.551446 0.351906 -0.899686 0.143043 -0.614079 0.976710 -0.925013 -0.917632 -0.375891 0.994479 0.837564 0.690573 -0.079273 0.896223 -0.915808 -0.366853 0.640952 0.736068 0.194264 0.827599 0.897766 0.711168 0.330604 -0.086988 -0.884090 0.087973 0.299980 0.953687 -0.851237 -0.655351 -0.721859 -0.402683 0.696555 -0.621545 0.740360 -0.917524 -0.644835 0.815348 -0.835156 -0.020726 0.809826 -0.997592 -0.330154 -0.269447 0.898631 -0.245962 0.363701 0.539583 -0.509893 -0.442036 0.367182 -0.612127 -0.730868 -0.302214 0.300885 -0.614958 0.785759 -0.399135 -0.661271 0.934522 -0.054486 -0.383130 -0.468161 -0.357931 -0.004675 -0.727801 -0.275454 0.350490 -0.912454 -0.110610 -0.670236 0.897372 -0.108202 -0.000390 -0.372074 -0.209571 0.753648 0.991626 -0.669987 -0.756245 -0.450410 0.697194 -0.368372 -0.181277 -0.605020 0.932513 0.203765 -0.819261 -0.466622 0.542494 -0.884739 0.478892 -0.840635 -0.352901 -0.879039 0.154689 -0.080702 -0.154493 -0.494821 0.006844 0.734897 -0.165057 -0.095783 -0.373305 0.834553 0.532143 0.417124 0.588201 0.523769 0.747137 0.831956 -0.926640 0.444331 -0.536416 -0.107918 0.839311 -0.603903 -0.904152 -0.979950 -0.070525 0.638342 -0.864689 -0.591633 0.797707 -0.217590 -0.470672 -0.047604 0.701708 0.374835 0.457575 -0.291447 0.109732 -0.707482 0.612770 0.736427 -0.872930 0.144912 0.153551 0.715271 -0.331318 -0.099313 0.547227 -0.257959 -0.654982 -0.989190 0.634124 -0.815671 -0.593093 0.729971 -0.795621 0.336382 0.368313 -0.660310 0.744749 0.166020 0.122100 -0.725922 -0.881584 -0.176191 0.648913 0.575991 0.532362 -0.241355 0.868509 0.145131 -0.504929 0.995580 -0.709956 0.648622 0.710851 -0.041275 -0.450691 0.258077 0.700766 -0.105673 0.268888 0.334890 0.078656 0.675795 0.064861 0.283035 0.012177 -0.566826 0.622725 -0.243074 0.599194 -0.255175 0.031004 0.717610 0.568634 -0.320083 0.293602 0.100996 0.438562 0.162111 -0.753873 0.933633 0.157691 -0.463829 0.582255 -0.131459 0.494896 -0.868436 -0.873381 0.195662 0.025891 0.395507 -0.469448 -0.895453 0.071302 0.595413 0.387582 -0.916521 -0.971413 0.010307 -0.159595 0.627782 0.755132 0.871409 0.345392 0.323767 -0.448674 -0.361006 -0.575238 0.989888 0.801105 -0.329111 0.923522 -0.041204 0.207060 0.505777 0.827338 -0.298044 0.637341 0.953956 0.897618 -0.336768 0.349463 -0.571830 -0.232221 -0.579235 -0.976417 -0.844639 -0.495756 -0.947829 0.165669 0.344649 0.679953 -0.079199 0.216058 0.025345 -0.755432 0.767385 0.664339 -0.330670 0.757273 0.465444 0.340219 0.680795 -0.575760 -0.452721 0.186572 -0.748422 0.249235 -0.176087 -0.794466 0.146853 0.487145 0.554997 0.575023 -0.745075 0.975762 0.598607 -0.589714 -0.519994 0.650777 0.575955 0.824654 0.330730 -0.503244 0.040712 -0.643925 -0.258676 -0.191903 -0.979586 0.410654 -0.434630 0.485858 -0.249127 -0.753835 0.910099 0.298152 0.432736 -0.838323 -0.452613 -0.743351 -0.632789 0.694241 0.743795 0.922208 0.269264 0.998720 0.897970 -0.132130 -0.590994 -0.622024 -0.481352 0.984961 -0.797370 0.849377 -0.518283 0.243343 -0.794548 0.223040 -0.948560 -0.774134 -0.366306 -0.383190 0.711724 0.384567 -0.137026 0.621823 -0.317280 -0.704289 0.783499 0.230107 -0.447640 -0.849290 -0.075653 -0.703845 -0.927082 -0.806389 -0.705125 0.970888 0.061482 -0.296119 -0.651136 0.580129 -0.311158 -0.448506 0.429507 0.170559 0.794837 0.634959 -0.606401 0.846276 0.860824 0.027293 -0.536914 0.572548 -0.588140 0.326060 0.194371 0.094580 0.621771 -0.022130 -0.675313 -0.825869 0.128580 0.249034 -0.529714 0.201498 0.442646 -0.234840 0.172386 -0.495873 0.469041 0.521250 -0.915744 -0.842117 -0.927256 0.513763 0.328441 0.867581 0.148721 0.722040 0.713857 0.009546 -0.250667 -0.823057 -0.417906 0.161194 0.503003 0.776465 -0.744226 0.124774 -0.245665 -0.419539 0.298905 0.882915 0.829495 0.769190 0.084413 0.272140 -0.465649 -0.743201 0.776267 -0.996608 0.778049 0.860524 -0.838725 0.850793 0.374286 0.489716 0.718374 -0.476992 0.211756 0.432231 0.532554 0.961090 0.609174 -0.885352 0.122283 0.112177 0.891113 0.378057 -0.763049 -0.354551 0.958518 0.535855 -0.471636 0.788013 0.305045 0.612777 0.060153 0.839396 0.869576 -0.163580 0.842788 0.647626 -0.303056 -0.995938 0.498419 -0.928770 0.493778 0.216792 -0.405762 -0.294466 -0.350977 -0.873208 -0.333376 -0.741803 -0.758560 0.788907 0.370373 -0.867446 0.166964 0.607324 -0.221997 0.125482 0.143179 0.306367 -0.086505 -0.551775 -0.080856 0.973648 -0.712379 -0.211279 -0.189932 -0.869592 -0.563654 0.507012 -0.865529 0.934765 0.578243 0.628249 0.151557 -0.827519 -0.666217 0.800580 -0.700727 0.000407 -0.941224 -0.459287 -0.210686 0.429150 -0.326733 0.956278 0.036474 0.451270 0.081761 -0.820347 -0.242364 0.995256 -0.372122 0.676780 0.968903 -0.084502 -0.534499 -0.221028 0.045907 -0.098153 -0.714016 0.180377 -0.163388 0.864227 -0.191374 0.988168 -0.963292 0.142409 0.788748 -0.664019 -0.857185 0.847525 -0.123306 -0.067871 0.276675 0.549961 -0.111592 -0.686852 0.001231 0.970169 -0.507198 0.758867 0.965424 0.120680 0.435648 0.934327 -0.963822 0.901148 -0.286701 0.082085 -0.197005 -0.000717 -0.737538 0.639607 -0.136491 0.071088 0.627775 -0.099783 -0.786503 0.416523 0.236198 -0.643688 0.264048 -0.887108 0.288441 -0.459278 0.662853 -0.823151 -0.146129 -0.335916 -0.852982 0.346673 -0.577049 -0.887558 -0.532648 0.858598 -0.953231 -0.496470 0.759747 -0.239932 0.585615 -0.437258 0.759351 0.848076 -0.797651 -0.377139 -0.080836 0.830124 0.523078 0.132661 0.246648 -0.240725 0.488973 -0.489305 -0.127833 -0.222586 0.051418 -0.464980 -0.045737 0.905289 0.199104 0.101281 0.251961 0.622055 0.213723 0.719314 0.480653 0.260492 -0.777156 0.240400 -0.979440 0.808458 0.803143 0.779912 0.656535 -0.994508 -0.597228 -0.424301 0.835616 0.925850 0.708359 0.082264 -0.314875 0.197332 0.592959 0.557293 0.974746 -0.355623 -0.907687 -0.070991 -0.450334 0.291417 -0.969710 0.801627 -0.086528 0.244013 0.520941 -0.605874 -0.495495 0.743784 0.634526 -0.474935 0.552243 0.437668 -0.695023 0.208777 0.443160 -0.292251 0.784476 0.278776 -0.366401 0.492835 -0.638960 0.318725 -0.309833 0.953999 -0.123983 -0.335087 -0.401624 -0.031670 0.593923 0.148042 -0.740253 0.624213 -0.050331 0.173219 -0.131775 -0.529390 0.567345 0.372730 -0.785606 0.201871 0.897796 0.766636 -0.360461 -0.797227 -0.024586 -0.917300 -0.089478 -0.240110 0.361476 0.544121 -0.747275 0.722516 -0.137154 -0.057107 0.676515 0.738863 0.607806 -0.725109 -0.292807 0.201729 0.422932 -0.033059 -0.174059 -0.627399 -0.859840 0.694167 -0.156789 0.707505 0.066897 0.057605 -0.090624 -0.035308 -0.175758 0.548915 0.167465 0.799655 0.631615 -0.922013 -0.440455 -0.006910 0.622108 -0.187730 -0.284394 -0.515046 0.755163 -0.607880 -0.776183 0.362969 -0.332989 -0.068990 -0.435303 -0.910057 0.897950 0.390638 -0.537455 -0.961890 0.084805 0.305756 0.745615 -0.848298 -0.636639 -0.345009 0.116394 0.187603 -0.796094 -0.716141 -0.012742 0.835521 -0.638154 0.546803 -0.171389 0.983954 -0.640927 0.544217 -0.531093 -0.885764 0.936338 -0.307276 0.477204 -0.396651 0.623734 -0.958099 -0.306708 0.521684 0.432540 0.155837 0.559794 -0.482655 -0.538407 0.305409 -0.330954 -0.175046 0.960400 0.785440 -0.987443 -0.835693 -0.930701 -0.000185 0.999828 -0.568855 -0.453382 -0.171561 -0.584901 -0.094310 -0.627344 -0.115994 0.019926 -0.691006 0.576730 -0.502870 -0.087657 0.200463 -0.460969 0.605635 -0.277853 0.971571 -0.238528 -0.718059 -0.511085 0.223065 0.587351 0.157962 -0.951981 0.547751 -0.056598 -0.939425 0.712057 0.012701 0.060390 0.711885 0.443846 0.607008 -0.459676 0.858945 -0.487302 -0.087020 -0.257049 0.532624 0.221974 -0.680320 -0.970246 -0.865683 0.520144 -0.431215 0.739952 -0.757709 -0.459644 -0.498576 -0.475768 0.029272 0.724489 -0.888417 -0.812767 0.772508 0.659334 0.130635 0.833084 0.371391 -0.856664 -0.106526 0.083276 0.587183 -0.499519 0.623599 0.446127 0.013179 -0.463420 -0.810922 -0.454197 0.758554 -0.491241 -0.424443 0.892871 -0.971098 0.144342 0.632823 -0.728807 0.684698 -0.865753 -0.204574 -0.286030 0.858736 -0.092992 -0.098797 0.631244 -0.433658 -0.968162 0.464328 0.937733 -0.824826 -0.642199 0.021008 0.762357 -0.141718 -0.355392 0.208485 0.871461 0.181187 0.397563 -0.582736 -0.060259 0.906321 -0.007179 -0.167388 0.935224 -0.862836 -0.534566 -0.793583 0.821862 -0.400319 0.001843 -0.464168 -0.541582 0.908851 0.437035 -0.910338 -0.524807 0.468873 0.553990 -0.587074 0.644047 0.911791 0.433934 0.406404 -0.229927 -0.921458 -0.385111 -0.358465 0.259729 -0.987548 0.058799 -0.800530 0.918773 -0.948380 0.032082 0.853997 -0.811216 0.497516 -0.939586 -0.989354 -0.902803 0.062257 -0.453522 -0.444385 -0.028892 0.983513 -0.354723 0.446301 0.452386 -0.800733 0.859227 0.096433 -0.888943 0.293161 -0.497162 -0.118869 0.371702 0.117727 0.522665 -0.368569 0.130178 -0.418536 -0.169099 0.048952 -0.366915 0.862983 -0.097051 -0.178131 0.360499 -0.036637 -0.167485 0.457696 -0.974380 0.378993 -0.986689 -0.003271 0.362506 -0.341412 -0.556970 -0.185109 -0.142145 -0.697743 0.911324 -0.031088 0.595417 -0.585838 0.850043 -0.032880 0.531888 0.372708 0.598551 -0.337933 0.954173 -0.570548 0.711018 -0.412743 -0.707565 -0.386033 0.409126 0.652934 0.577330 -0.758359 0.110630 0.602950 0.620634 0.123942 -0.400321 -0.016861 0.782530 0.042709 0.798031 -0.359615 0.344966 0.709355 0.609298 -0.059617 -0.876483 0.459341 0.907503 0.655405 -0.167951 0.506054 -0.682528 -0.213778 0.935506 -0.971510 0.373479 -0.772059 -0.357543 -0.217395 0.880875 -0.780213 0.024246 -0.008495 0.822738 -0.355120 -0.884553 -0.577583 0.628019 0.897977 0.465126 0.426050 -0.461638 -0.189909 0.135405 -0.852340 0.750474 0.258922 0.607000 0.657977 -0.085673 -0.560951 0.164031 0.231799 0.225271 0.099537 0.260289 -0.401250 0.327478 0.902746 0.381355 0.208353 -0.877467 -0.594400 -0.800142 0.945270 0.050480 -0.684695 -0.632313 -0.321501 -0.786718 0.832813 -0.895451 -0.248356 -0.357096 0.239954 -0.100697 -0.606621 -0.501124 -0.493696 -0.948644 0.413203 -0.054647 0.215387 -0.354999 -0.829376 -0.685076 0.905290 -0.230627 0.642402 0.808036 -0.849272 -0.149245 0.930569 -0.443672 0.050614 0.875839 0.606808 0.365919 -0.756474 -0.714692 0.579200 -0.923661 -0.610143 -0.669156 -0.280757 0.629811 0.230148 0.112621 -0.871313 0.736451 0.163977 0.541890 -0.318196 -0.620636 -0.813109 -0.147572 -0.305712 -0.907819 0.621801 -0.663310 0.900216 0.772529 0.187445 0.830785 -0.671142 -0.761941 0.706624 0.935666 0.603977 0.950150 -0.779026 0.183178 -0.973511 -0.389169 0.514022 -0.254269 -0.759358 -0.255830 0.858353 -0.630671 -0.519379 0.022330 0.911218 0.162425 0.401694 -0.901891 -0.985147 -0.904019 -0.809710 0.636654 -0.567329 -0.909494 0.409184 0.620116 0.921291 0.738041 0.858175 0.627915 0.673707 0.462153 0.578065 0.894681 -0.354670 0.604554 -0.494488 -0.840648 -0.649715 -0.253846 -0.096478 -0.791362 0.115482 0.384143 0.230967 0.026701 -0.453432 -0.367339 0.124810 -0.438579 -0.271357 0.315100 -0.801925 0.161314 0.405606 0.607258 -0.218570 0.326897 0.345300 -0.360394 -0.045188 0.019007 -0.898242 -0.467123 -0.086312 -0.252912 -0.862569 0.419200 -0.093559 -0.512284 -0.834646 0.809963 -0.303647 0.280836 0.194106 0.927321 -0.692463 0.740674 -0.440018 0.432346 -0.697906 0.288624 -0.252554 -0.499831 -0.550062 -0.846949 -0.892572 0.231369 0.479949 0.452728 0.870974 -0.565239 -0.528265 0.972732 -0.032362 0.385423 -0.280179 0.105069 -0.195377 0.626262 0.592785 -0.030023 0.436225 -0.710862 -0.749187 -0.369669 -0.783541 -0.441651 -0.628996 -0.223559 0.990696 -0.326901 -0.934934 -0.261859 0.173268 -0.484996 -0.108807 0.280696 0.746372 -0.628859 -0.266577 0.617347 -0.194098 0.205158 0.590079 0.773541 -0.409419 -0.690100 -0.121390 0.395204 0.936161 -0.528605 -0.634819 0.372386 -0.239467 -0.384006 -0.997284 -0.023008 0.174343 -0.626280 0.753433 0.165039 0.046819 0.818499 0.903180 -0.779913 -0.666497 -0.205627 0.500782 -0.920125 0.165514 -0.765794 0.697222 0.971416 0.439363 0.287301 0.744957 -0.970056 0.597200 -0.376433 0.425148 0.533361 0.094962 0.790329 -0.094253 0.855495 -0.593677 -0.091537 -0.167513 0.580666 0.282184 -0.414080 -0.254295 -0.670997 -0.595581 -0.351115 -0.450911 -0.262078 0.443258 -0.950128 -0.182203 -0.391228 -0.715923 -0.484981 -0.419811 0.723441 0.802320 -0.674854 0.753385 0.399520 -0.051288 0.178533 -0.067119 -0.956326 -0.031137 0.838628 0.899169 0.375186 -0.252909 -0.268345 -0.044148 -0.970725 0.317576 0.701557 -0.641722 0.721995 -0.649558 -0.092633 -0.540083 0.793700 -0.042761 0.277714 -0.597528 0.241316 0.792734 -0.017339 -0.035243 0.595053 0.307806 -0.281858 -0.005427 -0.743481 0.896675 0.927454 -0.699807 -0.134462 0.766082 -0.800639 -0.759276 -0.486826 -0.068983 0.196576 -0.457551 -0.751408 -0.101867 -0.099274 0.970587 0.248575 0.808093 -0.569495 0.042275 -0.234668 0.708219 0.444747 -0.993352 0.500953 -0.572592 -0.028596 0.096006 0.735214 0.689546 -0.909421 0.991732 0.586222 -0.981967 -0.708075 -0.548241 0.784115 -0.508714 -0.307517 -0.702711 0.422303 0.889059 -0.160262 0.670895 -0.212809 0.740464 0.641483 -0.964234 0.548557 -0.928013 0.078041 -0.686111 0.780206 -0.477213 -0.679464 0.281159 -0.049805 0.291941 -0.622836 -0.314591 -0.018513 -0.532257 -0.322859 -0.432291 -0.514223 -0.030934 0.019468 -0.730108 0.460352 0.711951 -0.432819 -0.117345 0.601010 0.406919 -0.446450 -0.611799 0.147383 -0.804967 -0.576034 -0.304060 -0.732980 0.502007 0.009828 -0.952774 -0.975205 0.330365 0.328385 -0.025010 -0.377695 0.705549 0.660399 0.603793 -0.826707 -0.662460 -0.828499 -0.340931 0.306606 0.190969 -0.071039 -0.233041 -0.097080 0.496143 0.649614 -0.496070 -0.096939 -0.796836 -0.107869 -0.949556 -0.601803 0.316097 -0.253616 -0.334783 -0.181896 0.756212 -0.287557 -0.157101 0.086577 -0.959172 0.817888 0.708882 0.746378 0.478287 0.312675 0.919671 0.815827 0.484176 -0.421260 0.122433 -0.324855 0.507701 0.889392 0.578065 0.003844 0.539006 -0.918005 0.906906 0.742170 -0.025874 0.957350 -0.859633 -0.709777 -0.296266 -0.194416 0.108327 -0.540054 0.518028 0.951225 0.546523 0.558856 0.769114 0.255405 0.305234 0.247400 -0.431920 0.224904 0.063227 -0.947744 0.803644 -0.814340 -0.272599 0.311346 -0.924949 -0.694534 -0.684810 0.614057 -0.612539 -0.777905 0.356227 0.361587 -0.820555 0.496594 0.651810 -0.116821 -0.697822 -0.239864 0.343124 0.820206 -0.288638 -0.110353 0.379062 -0.519525 -0.854948 -0.315704 0.727875 -0.286868 0.909200 -0.208898 -0.234613 0.712844 -0.023238 0.492788 0.024190 0.051814 0.798254 0.339380 -0.334129 -0.814285 0.561475 -0.977902 0.547302 0.740920 0.518692 0.199112 -0.375901 0.820870 0.959248 0.967223 0.641076 -0.329390 -0.143130 0.020138 0.151085 0.001922 0.704433 -0.121040 0.715054 0.613633 0.670063 -0.519559 0.326477 -0.353175 0.973229 -0.649333 0.698639 0.771483 0.690047 -0.635490 0.957199 0.251522 -0.613392 0.504501 -0.007558 0.905299 -0.296387 0.616541 0.726169 -0.337139 0.583764 0.367245 0.333470 -0.559366 -0.612617 -0.515445 0.442556 -0.908184 0.363515 0.157610 0.705449 0.033578 0.638051 0.031927 0.680403 0.611280 0.382594 0.379041 0.382764 0.072641 0.743551 0.339962 -0.675837 -0.869841 -0.155537 0.316605 -0.964542 0.548076 -0.066854 0.761627 -0.789063 -0.483090 0.128872 0.544407 -0.042456 0.516255 -0.971038 -0.599899 0.608071 0.392478 0.557711 0.313520 -0.573945 0.195762 -0.654553 -0.893542 -0.192958 0.728041 0.485499 -0.810194 -0.199318 0.229050 0.529768 0.124845 0.359209 -0.625769 -0.558549 0.394667 0.922307 0.374597 0.156294 -0.866756 0.891507 -0.714834 0.677652 -0.150949 0.801421 0.706614 0.249152 0.409492 0.099091 -0.193137 -0.276988 0.525147 -0.997375 0.068459 0.631604 -0.190333 -0.203500 0.117104 -0.000527 0.597182 -0.653846 -0.470759 -0.277972 0.705363 -0.096528 0.163478 0.100030 -0.174221 -0.461925 -0.743676 -0.040977 -0.570418 -0.458510 -0.363325 0.278633 -0.657089 -0.656711 -0.472215 0.752403 0.442380 0.334648 -0.524585 -0.032473 0.337272 0.543874 -0.400868 -0.853061 -0.659626 0.716235 0.146412 0.937556 -0.937611 0.675653 -0.340416 0.767752 -0.420875 0.823062 -0.132218 0.404904 -0.638863 0.124106 -0.636072 -0.209281 0.665596 0.000603 -0.930648 -0.991493 0.343892 -0.402863 0.760910 -0.213728 0.931785 -0.763675 0.753799 0.269057 0.780199 -0.647069 0.415997 -0.879427 -0.930834 -0.437591 -0.941871 -0.868445 -0.761938 -0.282287 0.899307 -0.182813 -0.459225 -0.232911 -0.777909 -0.098088 0.891195 -0.413981 0.692632 0.556791 0.586622 0.761984 0.565298 -0.069487 -0.640879 0.326208 0.716785 -0.709094 0.562533 0.470585 0.559964 0.342731 0.823515 -0.024040 0.463304 0.892681 0.538369 0.521433 -0.975764 0.776431 -0.760855 0.923544 -0.406382 -0.220080 -0.309367 -0.184291 0.681832 -0.418172 0.401728 0.374464 -0.861381 -0.011650 0.136448 0.703917 0.918863 0.495569 0.030125 0.635648 0.786475 -0.407342 0.106233 0.346439 0.935389 -0.070252 -0.677601 0.398693 -0.177571 0.860769 -0.079874 -0.153334 0.637200 0.159271 -0.229791 -0.769182 0.939191 0.460842 0.046527 0.621023 -0.957330 -0.551745 -0.004513 -0.818711 0.436605 -0.868065 0.885207 0.355468 0.627504 -0.084668 -0.008884 0.413980 0.507990 -0.902651 -0.239582 0.443379 0.027097 0.082818 -0.157928 0.849526 -0.056414 0.762198 -0.303808 -0.419214 -0.078531 0.466401 -0.188396 -0.139340 -0.072757 0.858131 -0.518317 -0.030087 -0.693613 0.477170 0.151202 0.742992 0.609105 0.036409 0.098460 0.236610 0.951741 -0.910424 -0.349411 0.459731 -0.813075 0.411007 -0.096890 0.214022 -0.506175 0.745182 0.063548 0.437411 0.507379 0.759740 -0.981803 -0.571152 0.226141 -0.170199 0.289507 -0.846616 -0.312068 0.771190 0.123297 -0.005681 0.248360 -0.725501 -0.262689 -0.142534 0.310908 0.835771 -0.905925 0.262649 0.925346 -0.255336 -0.277620 -0.887729 -0.844328 0.625489 0.326292 -0.350503 0.370671 -0.610160 -0.913092 -0.121950 -0.850420 -0.894895 0.306898 0.375721 -0.065094 -0.403594 0.529105 0.622838 -0.632404 -0.347598 -0.382843 0.615956 -0.073099 0.354468 -0.526578 -0.762191 0.190239 -0.432503 0.500459 0.115585 0.312161 -0.777161 0.227856 0.467833 0.848328 -0.445851 -0.882671 0.218999 -0.056011 -0.795763 -0.902951 0.093569 -0.690659 0.403947 -0.530710 0.244247 -0.999647 0.998395 -0.132915 -0.632051 -0.349204 0.484243 0.983905 0.577697 -0.161289 -0.542674 0.815507 -0.971050 0.024823 0.315966 0.144535 -0.663016 0.538804 -0.627608 0.804817 0.387132 -0.073460 0.922146 -0.393869 0.870529 -0.873617 -0.296820 -0.035901 -0.564276 -0.892873 0.433388 0.679971 -0.892520 0.431783 -0.452943 -0.524571 -0.917421 -0.968701 -0.540667 0.660277 -0.129990 -0.083340 0.475783 -0.101040 0.941483 -0.208251 -0.956505 -0.721533 -0.669447 -0.584113 -0.916716 0.717685 0.342427 -0.994570 -0.676184 0.212957 -0.868187 0.026996 -0.822945 -0.432463 0.134123 0.610444 -0.752492 0.241603 0.042227 -0.205435 0.717032 0.124806 -0.174136 -0.823634 -0.214917 0.695874 0.093025 -0.739134 -0.405166 0.034508 0.052615 -0.361670 0.312976 0.383168 0.054217 0.396260 0.100853 -0.603356 0.401690 0.424669 0.609601 0.533503 -0.548335 0.786656 -0.898960 0.585788 0.397100 -0.651451 -0.172609 -0.560673 0.143114 -0.455576 0.564133 0.968978 -0.279211 -0.650785 0.664852 0.813815 -0.389918 -0.740313 -0.151677 0.662697 -0.101984 -0.838701 0.045865 0.952233 0.557558 -0.853282 -0.651123 -0.040751 0.571386 0.958478 -0.507248 -0.976949 0.745134 -0.406208 0.608839 0.142234 -0.057660 -0.563770 0.581560 -0.914546 -0.019346 0.145693 -0.945568 0.701443 0.494908 0.719284 0.515258 -0.895010 0.978971 -0.636419 0.767687 -0.123013 -0.475121 -0.186449 -0.170780 -0.917562 -0.039731 0.178098 0.041686 -0.468345 0.136576 0.534438 -0.445294 -0.118290 -0.871771 -0.836455 -0.976056 0.070570 -0.400224 0.605504 0.156024 0.580430 -0.248803 0.210456 0.281873 -0.753894 -0.070260 -0.202869 -0.648905 -0.091289 0.160711 -0.881218 0.785698 0.685591 -0.067667 -0.385082 0.768028 0.892602 0.793016 -0.190286 -0.575743 -0.070409 -0.655848 -0.021037 0.811301 -0.527618 0.142509 0.835245 0.542952 0.742284 0.440749 -0.301024 0.322714 -0.808054 0.909431 -0.395413 -0.561948 -0.160829 0.401718 -0.210853 0.747882 -0.437571 -0.092070 0.533580 -0.751980 0.840263 -0.851502 -0.983952 0.732865 0.941514 -0.174238 -0.842878 -0.128895 0.169914 0.136086 -0.317593 0.642296 -0.721406 -0.482348 0.185247 -0.979121 0.958401 0.884223 0.343593 -0.849652 0.793654 0.948180 -0.411601 -0.367174 0.349898 0.377547 -0.619292 0.912327 -0.714523 0.914288 -0.839653 -0.874260 -0.937214 -0.823606 0.858605 -0.995700 0.002157 -0.984273 -0.124595 -0.827929 0.151813 0.557812 0.814367 0.430407 -0.924536 -0.000386 0.451286 -0.966135 -0.116163 -0.205121 -0.815788 -0.322508 -0.256941 -0.227388 0.310318 -0.907043 -0.849841 0.691026 -0.994716 -0.564365 0.605314 -0.834370 -0.438625 0.668100 -0.657975 -0.580021 0.672400 0.344181 -0.564294 -0.452194 0.516252 0.587519 -0.894382 0.330619 0.017926 -0.818919 -0.669766 -0.530788 -0.785054 0.214071 0.264091 -0.600842 0.891563 -0.992850 0.171770 0.201881 -0.899893 0.321929 -0.107093 -0.894610 0.757564 -0.501779 -0.728980 -0.681061 -0.833679 -0.386955 -0.261082 0.838722 0.957226 0.174625 -0.613473 0.473478 -0.237856 -0.507855 -0.195903 0.780071 -0.326774 0.134331 -0.750717 -0.111827 -0.651598 0.513374 0.287331 -0.760035 0.520525 -0.540899 0.441846 0.620631 0.781030 -0.665248 0.726022 0.538594 -0.167027 0.997042 0.857533 -0.000706 -0.389913 -0.403548 -0.161984 -0.432687 0.771077 0.224543 -0.959209 -0.466779 0.716688 -0.155112 -0.686709 -0.610085 0.979219 -0.437426 0.278087 -0.672379 -0.924051 -0.434582 -0.432414 0.596473 0.024519 -0.990568 0.217105 -0.194451 -0.655816 -0.056874 -0.655857 0.177157 -0.059832 -0.798324 -0.823549 0.550255 -0.201872 0.014467 -0.882433 -0.430795 -0.760990 -0.841642 0.102425 0.955698 0.003247 0.415717 -0.654387 -0.017534 0.978291 0.623700 0.310087 -0.945760 -0.810882 0.877673 0.650713 0.213637 0.887105 -0.132182 -0.980814 -0.768712 0.810944 -0.636671 0.408445 -0.248888 -0.434994 0.584896 -0.698634 0.363134 -0.400637 -0.581066 0.932338 -0.161627 -0.422708 0.034763 -0.205929 0.580538 -0.549520 0.139684 -0.436996 -0.571229 -0.236616 0.873091 -0.516989 -0.047498 0.750764 -0.866276 -0.833861 0.637869 0.001541 -0.814675 0.869157 -0.187515 -0.451346 0.277603 0.563596 0.113660 -0.137501 0.864963 -0.523207 0.461862 -0.716104 -0.590869 -0.699765 -0.138812 0.443895 0.094306 -0.558273 0.894375 -0.766010 0.004731 -0.676854 -0.002626 -0.122178 -0.193844 0.949875 -0.371414 -0.060120 -0.883986 -0.733545 0.941422 -0.698661 -0.864388 -0.246093 -0.150007 0.413215 -0.682497 0.963652 -0.724286 -0.817534 -0.559554 0.737576 -0.533638 -0.150423 -0.962189 0.327550 -0.706528 0.132117 0.769277 -0.812154 0.366107 -0.225992 -0.489008 -0.636519 0.651830 0.317148 -0.686644 -0.719584 -0.742972 -0.570630 -0.453129 -0.801550 -0.269291 -0.317516 -0.047644 0.580702 -0.904301 0.269859 0.544354 -0.628588 0.452325 0.984800 -0.891012 0.918687 -0.165623 -0.853201 0.246238 0.127848 0.278915 0.015515 0.315694 -0.354978 0.789523 0.826686 0.008503 0.441353 0.143834 0.321859 0.721769 0.400862 0.751229 -0.731359 0.599312 -0.518062 -0.048876 -0.448332 -0.937360 0.046823 0.821528 0.606994 0.418235 0.273853 0.591794 0.527223 0.192541 -0.573830 0.674022 -0.561222 0.554018 -0.047063 0.454293 -0.130287 0.597960 0.243816 -0.303602 -0.393537 -0.314831 0.840232 0.928322 -0.593062 0.241095 0.679551 -0.324422 -0.159593 -0.838511 0.626702 0.392075 -0.775871 -0.326474 0.213603 0.831123 -0.908239 -0.512544 0.422917 0.618984 0.679997 0.849087 0.293006 -0.881225 0.403105 -0.754056 0.573068 -0.727182 0.843904 -0.183116 -0.030784 -0.549634 0.502052 -0.190551 -0.621312 0.908990 -0.949457 -0.941761 -0.415432 -0.109050 -0.780272 -0.788730 -0.716975 -0.556143 -0.115204 0.496628 -0.725019 -0.023443 0.984084 0.697897 -0.404459 0.664080 0.546984 0.888547 0.782855 -0.049910 -0.865509 0.355923 0.222907 0.978395 -0.827193 -0.807876 -0.571239 0.674859 0.001572 -0.192551 
0.583848 0.052115 -0.134312 -0.831584 0.943065 0.085417 -0.620314 -0.773910 0.529274 0.264482 0.722718 0.804255 -0.758961 0.706801 0.502152 -0.163420 0.370882 0.049136 -0.274873 0.153737 0.999226 -0.140382 -0.490340 0.222133 -0.161987 -0.317533 0.414257 0.266774 -0.642675 -0.584171 -0.925777 0.941174 0.467944 -0.060089 -0.890410 0.411009 -0.974672 -0.510724 0.637099 0.554602 0.753758 0.359817 0.358857 0.994797 0.066618 -0.138991 -0.168623 -0.562500 0.910145 0.556504 0.591237 0.909371 -0.583877 -0.899103 0.131504 0.254136 -0.216636 -0.454240 -0.479090 0.140689 -0.038411 -0.404866 0.081863 -0.570466 0.535045 0.191452 0.840543 0.560373 0.680728 0.477642 0.114975 0.434487 -0.162541 -0.526168 0.429284 0.904077 0.334841 -0.739339 -0.658423 0.244985 0.817166 0.932814 0.154356 -0.766711 -0.966288 -0.714140 0.487425 -0.182925 -0.168380 -0.991665 0.957765 0.793209 -0.396531 0.039627 -0.777257 -0.861486 -0.768920 -0.936714 0.698887 0.911808 0.540928 -0.186138 0.346295 -0.621612 0.287694 -0.224421 -0.717535 -0.377466 0.036241 -0.375958 0.867520 -0.146594 -0.443143 0.021876 0.086695 -0.409432 0.307735 -0.425880 0.407644 -0.860645 -0.417545 0.365408 0.932564 0.185923 -0.594964 -0.844692 0.324437 -0.363885 -0.781406 0.023324 -0.452076 0.759522 0.837186 0.894219 -0.862090 0.124879 -0.330202 -0.579625 0.747414 0.706038 0.044417 0.614933 -0.440555 0.601274 -0.363191 0.646140 -0.808157 0.944544 -0.779741 0.599487 -0.916101 -0.197286 -0.035105 -0.983536 0.988638 0.369931 -0.828229 0.313075 -0.993954 -0.609635 -0.663602 -0.446030 -0.850113 -0.826416 -0.551811 -0.712203 0.298463 0.117986 -0.291828 0.045877 -0.175975 0.752589 -0.339190 0.383470 0.353864 0.297619 0.029609 0.545707 0.242163 0.249869 0.145193 0.326062 -0.947417 -0.889912 0.342526 -0.958779 0.480019 0.514297 0.354295 0.486065 0.904662 0.690694 -0.959965 -0.945451 0.864278 -0.511776 -0.657654 0.162741 0.606210 0.050518 -0.791382 -0.569765 -0.196892 -0.130572 0.813705 -0.843029 -0.832953 -0.156686 0.702678 0.409210 -0.906817 -0.152129 -0.264728 -0.854234 -0.042041 -0.922202 -0.813013 -0.562022 0.592095 0.541282 0.924044 0.496757 0.231976 0.964079 0.551306 0.096254 -0.547698 0.893652 -0.741005 -0.941488 -0.055830 -0.532387 -0.511252 0.747278 0.337041 -0.697548 0.904249 0.504088 0.145766 0.606927 -0.086702 0.238949 -0.545202 0.648570 0.384715 0.412758 0.726369 0.571702 0.850736 0.318464 0.112985 0.774780 -0.184779 -0.655039 0.738858 -0.633473 0.441215 -0.808839 -0.739821 0.700209 -0.750327 0.204350 -0.832178 -0.261579 -0.048373 0.504862 0.040873 -0.144123 0.008950 -0.813361 -0.537196 0.922248 0.425588 -0.082398 0.570818 -0.189696 -0.669640 0.297187 -0.617994 -0.818904 -0.384349 0.494990 0.955875 0.430872 0.839951 0.694734 0.797399 0.281166 0.885894 -0.942421 -0.018625 -0.864433 0.261928 0.149197 -0.126012 -0.786444 -0.345941 0.914861 0.069432 0.663009 -0.898500 0.532236 0.585257 0.527088 -0.550162 0.156076 -0.662608 -0.219802 -0.546737 -0.280602 -0.038706 0.068914 -0.785612 -0.082831 -0.500214 -0.945660 -0.388098 -0.702814 0.335505 -0.502203 -0.645236 -0.683120 -0.366636 0.616693 0.466077 0.507352 0.830248 -0.879864 0.422213 -0.100319 0.783145 0.523713 -0.568083 0.368402 0.050802 -0.118245 -0.475522 0.388194 0.661953 -0.022259 -0.892408 -0.376753 -0.953345 -0.678020 0.540415 -0.453559 -0.623680 -0.847682 -0.156373 0.711825 -0.349886 0.198392 -0.971295 0.283478 -0.184916 0.494782 -0.209170 -0.354667 0.614919 -0.786957 0.545013 0.398064 0.736757 0.976930 -0.233534 -0.212442 -0.141315 0.290944 -0.824248 -0.479362 -0.731315 -0.716657 0.143885 -0.684660 -0.394676 -0.315699 -0.138218 -0.018357 -0.163382 0.705409 -0.306532 0.486733 -0.096199 -0.277827 -0.229789 0.718885 -0.783044 0.561041 -0.635783 0.831874 0.774085 0.909231 0.229938 0.510841 0.886161 0.996405 -0.701600 -0.255154 0.287349 -0.525849 0.265485 0.556034 -0.242505 -0.590630 0.871375 0.362818 0.093670 -0.266843 -0.655538 0.930289 -0.561434 0.037930 0.417021 0.342366 0.760103 -0.812768 0.061251 0.977059 0.748274 0.425468 0.808934 0.522359 0.334699 0.038872 0.033200 0.220860 0.035276 0.331600 0.965706 -0.677375 0.805751 0.231190 0.878660 -0.436754 0.640560 0.750034 0.926065 -0.265769 -0.516809 -0.729474 -0.335481 -0.078243 0.308456 -0.918459 -0.735877 0.068560 -0.731227 0.325374 0.045619 -0.982953 -0.249158 -0.145448 0.539406 -0.914459 0.893424 -0.427394 0.306401 -0.071300 0.904206 0.272107 0.251326 0.709958 -0.496703 0.129985 -0.726796 -0.856143 -0.119980 -0.800731 -0.121912 0.363211 -0.530205 0.542607 -0.715032 0.778251 0.624148 -0.450909 -0.153189 0.892921 0.874465 0.892429 0.909968 -0.374692 -0.253018 0.449374 -0.289151 -0.359594 -0.978020 -0.982750 0.569106 0.926187 0.289357 -0.179568 0.636144 0.792654 0.950417 0.909348 0.936512 -0.169563 -0.891383 -0.185400 -0.806352 -0.421588 -0.642793 -0.521384 -0.643337 0.981355 0.027707 0.203474 0.874276 -0.097828 0.095903 0.784244 0.527480 0.842885 0.233618 -0.761671 -0.516709 0.255599 -0.744421 -0.947603 0.181785 0.544935 -0.127171 -0.182070 0.337590 -0.176753 -0.272722 0.274101 0.653684 -0.164104 -0.911299 0.847332 0.414308 -0.554092 -0.674052 0.770971 -0.572737 0.353655 -0.025555 -0.698461 -0.744172 -0.929652 -0.914217 0.783307 0.913234 0.319401 -0.978364 -0.603475 -0.425000 -0.722785 -0.551078 0.756785 0.822150 0.321751 -0.425285 0.159740 -0.855002 0.301994 -0.566159 0.798682 -0.862111 -0.477459 0.646014 0.552197 -0.031551 0.971963 0.323168 0.395712 0.325618 -0.702387 0.697250 0.581446 -0.632039 0.783033 0.364753 -0.718805 0.102434 0.386389 -0.322280 0.677434 0.663603 0.126641 0.434220 0.485753 -0.551607 -0.991065 -0.354507 -0.406610 0.310928 0.079334 -0.607928 0.448817 0.601875 -0.961913 0.001014 -0.429676 -0.989951 -0.675818 0.966036 0.335667 -0.378205 0.663286 -0.082887 -0.010244 0.446320 -0.718134 0.270951 -0.451246 0.668254 0.948670 -0.773812 0.331858 0.075312 0.660408 -0.182389 0.523704 0.669343 0.463104 -0.882905 -0.019729 -0.457563 -0.490833 -0.570912 -0.855688 -0.452746 0.430103 -0.285363 -0.442697 0.754285 -0.319328 0.892970 -0.623921 -0.656041 -0.189917 0.365835 0.790278 0.091949 -0.363214 -0.660968 -0.239797 -0.414544 -0.434779 -0.907939 0.660768 -0.774372 -0.090329 0.184472 0.894971 -0.627225 0.301567 -0.124758 -0.084787 0.810734 0.304330 0.059525 -0.642013 -0.265567 0.774162 -0.084710 -0.511282 -0.545166 -0.191740 -0.135203 -0.201207 0.618343 -0.769368 -0.410929 -0.289708 -0.132582 -0.071897 0.470495 0.452874 0.493324 0.562556 0.113642 0.718952 -0.527773 -0.701886 0.613923 -0.154998 0.599680 -0.510834 0.760215 0.410414 0.793496 -0.180260 0.768401 -0.472071 -0.406098 -0.316308 0.016647 0.048736 0.491952 0.881444 0.847529 0.110296 -0.887924 -0.563399 0.820588 -0.020506 0.364704 0.291083 -0.567631 -0.141972 -0.146362 0.546011 -0.423020 0.325866 0.844125 -0.809096 -0.829132 0.443805 -0.319931 0.931083 -0.145781 -0.526435 -0.249176 -0.377379 0.001495 0.344726 0.306312 -0.981858 -0.606538 -0.201736 0.899585 -0.759008 0.908560 -0.988338 -0.322408 0.729148 -0.008844 -0.957704 0.020231 0.423525 -0.099676 0.873869 -0.030464 0.477304 0.199735 -0.186340 0.668208 0.370603 -0.742535 -0.651722 0.301686 0.111684 -0.178157 -0.947490 0.734305 0.823338 0.397235 0.040617 0.841479 0.790698 0.838881 0.741065 -0.968311 0.747442 0.752726 -0.290719 0.476590 -0.256117 -0.248423 -0.503179 -0.832593 0.651901 -0.629310 0.136943 0.129206 0.570425 0.950603 -0.202586 -0.058972 -0.791932 0.145692 -0.757286 0.319752 0.967535 -0.704776 0.054057 0.790873 0.692459 -0.905326 0.632352 0.483157 0.933556 0.373417 0.514846 0.680997 0.126143 -0.775873 0.157587 0.870026 -0.024295 0.654408 -0.962567 -0.372394 -0.974902 0.174376 0.756812 0.595523 0.124979 -0.445774 -0.463450 0.333048 0.699918 -0.220736 -0.347200 0.667453 0.074488 0.706857 0.458326 -0.233053 0.801532 0.090677 -0.749897 0.735087 -0.535906 0.764949 0.416085 0.590237 0.989076 -0.426328 0.460263 -0.035219 -0.771920 0.497696 0.592387 -0.746823 -0.327928 0.349199 0.848700 0.797051 0.903425 -0.614750 0.130099 0.603342 0.164514 0.782899 0.270795 -0.760998 0.489756 -0.270879 0.005949 0.291288 0.819798 0.256052 0.026375 -0.716108 0.021002 -0.557540 0.874129 0.010078 0.016132 0.334392 0.974859 0.244212 -0.167912 0.567246 0.497389 0.504160 -0.083555 0.346089 0.301211 -0.180131 0.731339 -0.568690 -0.576788 -0.104147 -0.785791 0.694007 0.134855 0.703965 -0.576872 -0.859196 -0.004747 -0.757074 0.396857 -0.978372 -0.473182 -0.582141 -0.535912 -0.599052 0.427937 0.480220 0.735340 0.402796 -0.275568 -0.432572 -0.029958 -0.778179 -0.928412 0.886487 0.567909 0.372799 -0.293644 0.299248 0.804110 0.129568 -0.804899 -0.981681 -0.176425 0.329957 0.722285 0.246703 0.470761 -0.282462 0.489629 -0.132382 -0.260834 -0.983553 0.285477 0.203255 -0.582605 -0.286587 -0.316525 -0.847265 -0.883791 0.407907 -0.279838 0.086251 0.629728 -0.208250 -0.027262 0.197638 -0.835450 0.679095 -0.503114 0.968660 -0.191337 -0.308013 0.986979 0.632238 -0.978056 0.709263 -0.121058 0.492705 -0.573199 -0.631429 -0.639678 0.165967 -0.614982 0.645799 -0.630778 -0.197587 -0.640788 0.052697 -0.044853 -0.524579 -0.539395 0.675310 0.561673 -0.909667 -0.532940 -0.465589 0.287970 -0.368390 -0.786494 0.784856 -0.399730 0.022169 -0.523157 -0.412752 -0.345593 -0.501213 -0.703488 0.533349 0.991491 -0.276687 0.901919 -0.648186 0.889280 -0.713063 0.997613 -0.741498 0.089350 -0.643175 0.311200 -0.955503 -0.167754 0.771805 0.719807 -0.606081 0.862137 -0.813133 -0.071670 0.150108 -0.181523 0.141836 -0.065036 0.418746 -0.835995 0.411807 -0.994006 -0.181588 0.910594 -0.697494 -0.648239 0.902085 0.025819 -0.746319 -0.746101 -0.084901 -0.459382 -0.748489 0.173601 0.629968 -0.391664 -0.515199 0.674465 0.440582 -0.743394 0.394272 0.834502 -0.881257 0.581138 -0.237168 0.268851 -0.600385 0.904668 -0.796185 0.818361 -0.931327 0.615622 0.824355 -0.112915 0.526216 -0.873139 0.238846 0.428301 0.152680 0.492527 0.682200 -0.932221 -0.966855 0.933711 0.241380 0.663113 -0.457953 0.726181 0.337578 0.982629 0.982787 -0.268151 0.817131 -0.898471 -0.687012 -0.420037 0.370380 -0.287397 -0.515370 0.574195 -0.469036 -0.446697 0.189817 -0.644681 0.440388 -0.283967 -0.517820 -0.320766 -0.855665 0.634860 -0.828239 0.826534 0.702639 -0.795094 0.760245 -0.055981 0.868019 -0.697708 -0.329800 0.205597 -0.715079 -0.347013 0.937446 -0.897948 -0.245484 -0.749566 -0.317985 -0.875103 -0.036964 0.166645 0.699092 0.494000 0.719948 -0.111091 0.849319 0.160336 0.604943 -0.668501 0.839571 0.749277 0.966359 -0.988668 0.575812 0.668999 -0.783761 0.336057 -0.386982 -0.915742 0.638349 0.283218 0.289854 0.923270 0.936206 0.227300 -0.974677 -0.309278 0.477734 -0.292663 -0.184381 -0.559230 0.873983 -0.485289 0.934770 0.593931 0.403620 0.784088 -0.245733 0.008563 -0.884413 -0.406162 -0.242160 -0.918053 -0.394829 -0.666348 0.750945 -0.178591 0.669708 -0.636037 -0.094333 0.308057 0.647182 -0.804479 0.231328 0.583387 0.422821 0.256650 -0.725891 -0.099445 0.963988 0.089728 0.341325 0.837971 0.604438 0.276095 0.431901 0.008058 0.060183 -0.813831 -0.983379 0.175771 -0.219993 -0.225539 0.257717 0.385178 0.108113 0.008662 -0.793413 -0.222179 0.372626 0.112254 -0.914121 0.019807 0.307775 0.317206 -0.396805 -0.269403 -0.426143 -0.122696 0.631152 -0.462155 0.967032 -0.027523 -0.624185 0.571470 -0.751428 0.807717 -0.420471 0.308755 0.993886 -0.403850 -0.515475 -0.226107 0.370611 0.742243 -0.840929 -0.521276 -0.249095 -0.634342 0.256546 -0.876469 0.477912 0.342424 0.143338 -0.214313 -0.340369 0.746533 0.516284 0.233487 -0.376164 0.147435 0.771332 -0.409132 -0.880088 -0.852853 -0.837662 -0.631516 0.954864 -0.258133 0.677239 0.948750 0.338017 -0.838236 -0.277358 -0.291372 0.904007 -0.118287 0.187352 -0.345088 0.247371 -0.556103 -0.221558 -0.274717 0.786322 0.921780 0.510970 -0.554048 0.668313 0.027253 0.679440 -0.707851 -0.825312 0.450772 -0.116983 -0.705400 0.597920 0.045355 -0.336916 0.552784 0.787222 -0.659677 0.501534 0.125238 -0.497913 -0.775824 0.833866 -0.593906 0.105889 0.021218 0.061005 -0.646740 0.465116 0.839448 0.078542 0.251437 0.761228 -0.410488 0.697390 0.429540 0.616765 0.376830 0.721690 0.791453 -0.172398 -0.395293 -0.913946 -0.574479 0.650062 -0.250862 0.978305 0.437283 0.089461 0.479839 -0.437478 0.591548 0.704014 -0.603612 0.997642 -0.190097 0.417606 0.058647 0.163163 -0.117279 -0.101905 -0.758295 -0.865841 -0.340678 -0.168783 0.831549 -0.911137 -0.552018 0.208378 0.810552 -0.760565 -0.964020 -0.584741 -0.674511 -0.538499 -0.934680 0.074627 -0.560194 0.502604 -0.835913 0.919645 -0.934874 0.755635 0.623659 -0.538487 0.753277 -0.566437 0.879119 -0.188076 0.596726 -0.238159 0.710019 0.838431 -0.104000 -0.630659 -0.330352 -0.272452 -0.541796 0.117630 0.935926 -0.731244 0.357065 0.971906 -0.315985 0.682554 -0.566593 -0.250665 -0.242820 -0.126787 -0.748061 -0.078733 -0.207142 -0.682935 -0.323097 -0.583483 -0.221422 -0.569820 -0.149920 -0.342303 0.242104 -0.553195 0.419538 -0.047878 -0.714764 -0.684462 0.321463 -0.045116 0.043086 0.779667 -0.927486 -0.020988 -0.951577 0.429579 -0.049082 -0.267562 0.112132 0.384325 0.481773 0.869312 -0.742461 0.733712 -0.209420 0.050397 -0.949223 0.467482 0.466914 -0.170645 0.897662 -0.683006 0.487052 0.139766 -0.236201 -0.093410 -0.908112 0.049035 0.222128 0.413351 -0.996081 -0.734786 0.193018 -0.923567 0.244225 0.241441 0.506011 -0.804857 0.973879 -0.381856 0.579469 0.455653 -0.512544 0.837007 0.189365 0.278036 -0.112596 0.240142 -0.254482 -0.645682 -0.930503 -0.356820 -0.328688 0.556550 0.782946 0.435110 -0.536860 0.874834 -0.515855 0.685268 0.288186 -0.511936 0.950481 -0.518796 -0.435503 0.194707 0.722645 -0.929492 0.389850 0.696525 -0.311348 -0.030681 0.152177 0.176108 -0.193674 -0.658458 -0.545856 0.693730 0.581684 0.199662 -0.951952 0.651182 0.842843 -0.280640 0.207731 0.625789 -0.845530 0.670871 0.500623 -0.361384 0.356139 -0.211191 0.126680 0.306620 0.270012 0.691177 -0.498673 -0.007342 0.761685 0.891177 -0.310818 -0.549663 -0.139504 0.841359 0.626445 0.666822 -0.817098 -0.919410 0.360553 0.764586 0.280252 0.408601 0.415768 0.123095 -0.872039 -0.376501 -0.251116 -0.717568 -0.705630 -0.750493 -0.078953 0.650509 0.038316 -0.952273 -0.042871 -0.691672 0.738903 0.458456 0.300986 0.500588 0.349633 0.990168 0.950925 -0.789871 0.831527 0.577371 0.876952 -0.985571 0.657961 0.237505 0.779015 -0.061787 -0.353894 0.194783 -0.938693 -0.225933 0.818282 -0.189809 0.056499 -0.887348 0.059698 0.977546 0.763161 -0.901986 -0.974728 -0.279710 -0.593658 0.764176 -0.821254 0.707328 0.264764 0.528379 0.697496 0.215689 0.738509 0.529023 -0.206940 0.615461 0.543452 -0.548979 -0.147035 0.322468 0.389233 0.499071 -0.482750 0.450541 -0.726862 -0.664468 -0.739268 0.329637 -0.551816 0.320430 0.307183 -0.788655 0.418444 0.332455 -0.068365 0.824786 0.096631 0.110381 0.532114 -0.638605 -0.361240 0.229610 0.577084 -0.622731 -0.241367 -0.629856 0.992729 -0.697915 -0.178836 -0.154305 0.624553 -0.789602 -0.655234 -0.858197 0.660938 -0.382096 -0.522665 0.921670 0.947541 -0.074481 0.242100 0.254724 0.136864 -0.339456 -0.412821 -0.931501 -0.514670 0.683810 0.178879 -0.982556 -0.954796 0.817639 0.247054 0.622288 -0.805092 -0.994313 0.992432 -0.812362 -0.692228 -0.186404 0.033332 0.932325 0.023994 0.378098 -0.925872 -0.315068 0.996002 -0.448537 -0.393398 0.943543 0.476983 0.848702 0.198267 -0.386153 -0.490753 0.785446 -0.317655 -0.005423 0.469256 0.861225 0.012022 0.514460 0.678864 -0.740925 0.136748 0.873773 -0.735238 0.129180 -0.938590 -0.427466 0.942776 0.094743 -0.495141 -0.033231 -0.527159 -0.421013 0.651701 -0.531157 0.130450 -0.741697 -0.587613 -0.392567 -0.892995 0.610654 0.221280 -0.383748 0.396100 0.903625 0.610829 -0.134644 0.764850 -0.377149 -0.620184 0.443714 -0.118074 0.516564 0.317487 0.146689 -0.354256 0.378897 0.719223 -0.411481 -0.526360 -0.775918 0.555289 -0.053519 -0.196931 0.206990 0.415324 0.933520 0.465293 0.827711 -0.459047 0.572298 0.438365 0.762233 -0.811449 -0.165535 0.665858 0.799380 0.699821 0.430708 -0.577769 -0.920362 -0.125578 0.304157 0.596202 -0.808091 -0.549154 -0.758055 0.570806 -0.829931 -0.169535 -0.955555 -0.605849 -0.614247 -0.009074 0.197221 0.592743 -0.593750 0.130740 0.058036 -0.766039 0.671693 -0.369666 0.672326 0.433926 -0.181115 -0.493209 0.099784 -0.381735 -0.793387 -0.469508 0.040496 -0.713750 0.404914 -0.655347 0.882452 0.596823 -0.204501 -0.875603 0.167628 -0.034431 -0.045138 0.212074 0.359720 0.340615 -0.797000 -0.443059 -0.066642 -0.390750 0.687681 0.991394 -0.156789 0.359374 -0.378272 -0.484463 -0.206700 0.440613 0.022328 0.893084 -0.941122 0.228941 -0.576424 0.099374 0.515191 0.828490 0.444027 0.397643 0.425312 -0.760473 0.522040 -0.407059 0.205096 -0.523098 0.805014 -0.435184 0.817517 -0.991986 0.121756 -0.249125 -0.382737 -0.190563 -0.257731 0.460474 -0.831188 0.363997 0.976010 -0.037888 -0.195389 -0.001662 -0.144804 -0.136511 -0.772721 0.278772 0.962863 0.742469 0.107262 0.406890 0.140112 -0.467425 0.646417 -0.337848 0.125515 -0.148487 0.139054 -0.069471 0.416328 -0.043429 -0.061457 -0.461915 0.707446 0.555806 0.347522 -0.550286 0.016280 0.516334 0.813712 -0.007710 -0.521554 -0.381678 0.990628 0.333642 0.481811 -0.782094 -0.387586 0.444674 0.960376 0.719677 -0.148435 0.100488 -0.747749 -0.502018 0.762640 0.377767 0.349495 -0.098306 -0.691704 -0.234176 0.858265 0.246839 0.303908 0.565710 -0.197355 -0.348570 -0.984575 0.818924 -0.832236 0.829137 -0.188786 -0.353791 -0.552541 -0.198158 0.979851 0.929270 0.019749 -0.407735 0.373945 -0.019876 -0.688058 -0.774490 -0.919388 -0.435807 -0.276508 0.843253 0.941960 -0.927013 -0.255053 -0.749744 -0.161189 -0.396788 0.497095 -0.857281 -0.831078 -0.700261 -0.205851 -0.815653 -0.881336 -0.038087 -0.986516 -0.070122 0.608122 -0.539057 0.731720 0.587973 -0.609787 -0.248531 -0.819762 0.764158 0.731593 -0.507820 0.989667 0.812206 0.056374 -0.286841 0.655458 -0.001666 -0.213854 -0.599595 0.248590 0.624957 0.003616 -0.254315 0.767676 0.172538 0.045424 -0.438175 0.356885 0.164088 0.523737 0.370369 -0.906034 0.131859 0.831311 0.825686 -0.280168 -0.778476 -0.422845 -0.099930 0.985682 -0.691251 0.392250 0.975349 -0.879046 -0.551376 -0.311491 0.776413 0.446958 0.474655 -0.823182 -0.304453 0.099612 0.180434 0.441232 -0.132713 -0.647027 -0.513344 0.429112 0.709858 0.650744 -0.047151 0.080227 0.744710 -0.915291 -0.088462 0.570396 -0.195460 0.133062 -0.852448 0.704610 0.118744 -0.543700 0.096861 0.094094 -0.422745 0.545484 0.782602 -0.646333 -0.007558 0.257257 -0.469515 0.687989 -0.643131 0.710919 0.129221 0.224156 -0.936108 0.615877 -0.346732 0.773750 0.266621 0.606118 -0.146024 0.011331 0.690826 0.765514 -0.418273 -0.504633 -0.101423 -0.270721 -0.800023 -0.982679 0.185579 0.296838 0.111415 0.762834 -0.157678 -0.105983 -0.883498 0.834764 -0.848726 -0.353013 0.522753 -0.491858 -0.642094 -0.348025 0.732299 -0.578202 -0.732148 -0.614433 -0.804452 0.534473 0.991684 0.049524 -0.454196 0.682511 -0.184962 0.127531 -0.822123 0.713615 0.856811 -0.622146 0.730936 0.042390 0.674692 -0.157650 -0.194776 -0.482986 0.736367 -0.078274 -0.648222 0.887641 0.568713 0.874532 -0.604217 0.926619 -0.473494 -0.871918 -0.651583 -0.205642 -0.486351 -0.456036 -0.671169 -0.494667 0.593488 -0.125364 -0.812156 -0.591474 -0.997833 -0.634279 -0.877859 0.858978 -0.256425 0.853077 -0.098632 -0.581733 -0.304573 0.706592 -0.064719 -0.568206 -0.371682 0.287059 -0.680565 -0.802969 0.161591 -0.284782 -0.876350 0.688097 -0.156700 -0.527933 -0.517545 0.356948 0.016031 -0.188713 0.862281 -0.390481 0.685922 -0.949875 0.018046 0.688090 -0.584154 0.140187 0.547067 0.159421 -0.006736 -0.551565 0.577689 0.688691 -0.844973 -0.487030 -0.879516 -0.216655 0.800029 -0.560081 -0.019625 -0.038380 0.155137 0.104025 -0.350283 0.998437 0.576091 0.132173 0.355385 -0.407878 0.943459 0.217666 0.201642 0.629382 0.267791 -0.780313 0.317471 0.683637 0.359874 -0.135461 -0.156942 -0.646862 0.312973 -0.579253 -0.958172 0.468000 -0.066283 -0.837687 -0.748655 -0.266254 -0.397768 0.231720 0.695366 0.757369 -0.664255 -0.654917 0.755805 0.911836 0.477256 0.111190 -0.496041 0.420715 -0.671144 0.705600 0.050097 0.596647 0.925288 -0.632432 0.280284 0.285162 0.232107 -0.876658 0.638300 -0.454919 -0.455911 0.680128 -0.986919 0.477806 0.842441 -0.735574 -0.788448 -0.555327 0.496146 0.906918 -0.797959 0.831891 -0.747999 0.957847 0.743727 0.729257 0.069037 -0.752314 0.149972 0.397893 0.953286 -0.799931 -0.005459 0.878574 -0.432363 -0.725176 0.163736 0.799744 -0.601834 -0.197965 -0.655175 -0.057745 -0.517837 -0.642094 -0.579939 -0.675396 -0.377668 -0.368388 -0.230723 -0.881523 -0.461470 -0.028682 0.950368 -0.209469 -0.070835 0.694095 -0.480212 0.998202 0.941780 0.669759 0.396096 0.895066 0.869828 -0.609364 0.773640 -0.562534 -0.334539 -0.062624 -0.762790 0.063627 0.739411 -0.417965 -0.994118 -0.778426 -0.060059 -0.574057 -0.453821 0.562273 0.057555 0.315456 0.680750 0.596085 -0.713226 0.631118 -0.613384 0.215939 0.325212 -0.093597 0.214141 0.266993 -0.423837 -0.389763 0.162059 -0.554009 0.000874 -0.064301 -0.116543 0.666334 0.873075 0.120667 -0.270038 0.612486 0.702702 -0.264156 0.834060 -0.357357 0.161787 -0.619761 -0.795084 -0.780658 0.695694 0.885666 0.815427 0.982468 0.516784 -0.797957 0.198407 -0.158004 0.108446 -0.587451 -0.891011 0.684609 0.022786 0.271048 -0.869400 -0.976340 -0.793253 0.014057 0.689994 -0.920179 -0.865276 -0.580045 0.692307 0.837426 0.155799 0.526367 -0.519931 -0.682414 0.906606 -0.315014 -0.463072 0.602300 -0.429348 -0.647645 0.584769 -0.912564 -0.445602 -0.216824 -0.070568 0.662845 0.195725 0.038421 0.347454 -0.781490 -0.690531 0.478054 -0.757830 -0.483784 -0.507889 0.932164 -0.403963 -0.373165 -0.647881 -0.711656 -0.535738 0.507918 0.814712 -0.055669 0.825504 0.721318 0.629316 -0.637568 0.323618 -0.800032 -0.285213 -0.091613 -0.712596 0.269185 0.691563 0.216836 -0.067970 -0.112713 -0.744744 -0.720516 0.105797 -0.435275 0.757538 0.347967 0.080941 -0.750350 0.280131 0.676978 -0.123515 0.632250 0.965323 0.340747 0.140169 0.780034 -0.714922 -0.034327 0.501352 0.914394 0.328105 -0.175030 -0.885638 -0.957107 0.733356 -0.598234 0.312078 0.424919 0.618601 -0.755892 -0.687794 0.873858 -0.476408 0.418004 -0.561417 -0.718870 -0.234029 0.519524 -0.469220 -0.953898 0.196503 0.407265 0.678353 0.161825 -0.251989 -0.181479 -0.058141 0.033089 0.784194 -0.556789 -0.052517 0.112300 0.268180 0.061845 0.155193 0.001537 0.463611 -0.532729 -0.573544 0.082212 -0.288621 -0.261338 -0.043930 0.234971 -0.843334 0.394653 0.516101 -0.077364 -0.085822 -0.953120 -0.031261 -0.889320 0.454145 -0.352909 0.272505 -0.797844 0.465612 -0.785636 0.235245 0.249807 -0.342425 -0.817272 -0.637893 0.925756 0.244572 0.517299 -0.072708 -0.291817 0.984570 0.353748 0.790395 -0.304051 -0.907590 -0.253535 0.930920 -0.750924 -0.858881 0.447020 0.171712 0.055296 0.493900 -0.859549 0.165976 -0.051955 -0.212458 -0.561519 0.150201 -0.746845 -0.347154 -0.614554 0.502961 0.310421 -0.431826 0.865068 0.236176 0.812746 0.382368 -0.836531 -0.479071 0.366938 0.517217 -0.688675 -0.937114 0.609627 0.057790 0.993806 0.858703 0.198908 0.440826 0.030415 -0.745796 -0.065273 0.170866 0.420181 0.882772 0.958408 0.858662 0.032973 -0.788437 -0.488493 0.418419 0.714525 0.821928 0.986593 0.579593 0.058104 0.799339 -0.038040 0.221573 -0.679732 -0.671102 -0.261210 -0.368408 -0.608216 -0.651583 0.689382 -0.614410 -0.792879 -0.111709 0.826416 0.237536 0.142495 -0.238857 -0.591598 -0.437324 -0.356085 -0.633189 -0.578662 0.676888 -0.421626 -0.067155 0.095307 -0.707102 -0.245227 0.081899 0.872491 0.812877 -0.118762 -0.165549 0.034450 0.201506 0.163349 0.773240 0.833098 0.555133 -0.878342 0.522481 0.940724 -0.671222 -0.589229 0.767140 0.566314 0.553267 -0.471717 0.974716 -0.884058 0.172197 -0.658473 -0.462720 -0.150915 -0.080099 0.470125 0.944391 0.212799 -0.775102 0.026291 0.085291 -0.962225 0.907529 0.919742 0.072225 0.109035 0.083091 -0.154534 -0.057867 -0.361776 -0.032877 -0.535386 -0.421052 0.295901 -0.124615 -0.653912 -0.137784 -0.571348 -0.125630 -0.163068 -0.455406 -0.953432 
0.178459 0.081874 -0.104348 -0.901640 -0.448001 -0.159956 0.311160 -0.223103 0.866335 -0.603550 -0.185328 0.773864 -0.683808 0.886897 -0.117101 0.399283 -0.267637 0.825032 -0.962492 0.699486 -0.710354 -0.383544 -0.004612 0.165031 -0.037456 0.857603 0.593684 0.836914 -0.305465 -0.861722 0.883482 0.872994 0.220152 -0.220866 0.971355 0.772151 0.619178 0.282514 -0.450952 0.485513 0.678965 0.363720 0.259376 0.995157 0.250617 -0.857725 0.394440 0.982980 0.967307 0.431947 0.682466 -0.743047 -0.951597 -0.322146 0.421984 0.010947 -0.464543 0.015668 -0.152139 0.229992 0.153946 -0.268658 0.102986 -0.625902 0.510476 0.074341 -0.853751 0.129654 -0.643145 -0.304703 -0.384833 -0.964180 -0.940983 0.874543 -0.969024 0.309635 -0.983182 0.425416 0.292615 0.984125 -0.142636 -0.024919 -0.758922 -0.094233 0.652935 0.663062 0.916714 -0.811608 -0.321270 -0.235425 0.418384 0.832676 0.495917 -0.478630 -0.793226 0.006394 0.595711 -0.646977 -0.863952 0.952567 0.048321 -0.248785 0.988387 0.107338 -0.374242 -0.980637 -0.583028 -0.357424 0.444779 0.709587 -0.373299 -0.697857 -0.315332 -0.132222 0.207910 -0.662397 -0.469159 0.124624 -0.474005 0.209571 0.889199 0.944380 0.042247 0.385116 -0.534250 0.249021 -0.608490 -0.938539 0.602044 -0.472442 -0.985972 -0.349635 0.278773 -0.997585 0.757703 0.904530 -0.978222 -0.825325 -0.452894 0.466557 0.884262 0.173807 0.768700 -0.431069 -0.958415 -0.023390 -0.093466 -0.427574 -0.898766 0.432530 0.781997 0.990433 0.376909 -0.175756 0.375550 0.842659 -0.926735 0.767060 0.904121 0.675309 -0.705383 0.918149 -0.674326 0.573390 0.920563 -0.916623 0.477920 0.942340 -0.741948 -0.974973 0.408897 -0.857686 0.198834 0.177597 -0.288755 0.240419 -0.845792 0.617779 0.812845 -0.744558 0.050309 0.594842 -0.754124 -0.572782 -0.580915 0.621425 -0.730123 -0.507650 0.388485 -0.826002 -0.832341 0.683102 -0.907853 -0.506667 0.256492 -0.987291 -0.423290 -0.265588 0.955050 -0.165238 -0.240561 0.363947 -0.022924 0.958273 -0.458455 0.688321 0.198691 -0.304247 0.306100 0.011536 -0.048805 -0.643591 -0.393622 0.197070 -0.216373 0.025463 -0.181505 0.053505 0.517814 -0.793020 0.227503 0.685473 0.890082 0.319649 -0.821194 0.146574 0.332359 -0.244484 0.880987 0.287409 0.590278 -0.359574 -0.348644 -0.432646 -0.401302 0.192901 -0.744326 0.797390 0.888653 0.561774 -0.191074 -0.160152 0.918183 0.415304 -0.963082 -0.298190 -0.559233 -0.144586 0.755315 0.958581 0.062394 -0.017182 0.644054 -0.047524 -0.697533 0.822860 -0.900950 0.634826 -0.421623 0.980036 -0.077765 -0.831345 -0.379538 0.573591 -0.263992 0.219160 -0.233509 -0.008317 0.016550 -0.344855 -0.446543 0.825476 0.494993 -0.528360 0.240779 0.531911 0.173450 0.681547 -0.612676 -0.071235 0.640127 0.449718 0.911583 0.284181 -0.597806 -0.785950 0.107042 -0.498756 0.848876 0.685418 -0.518720 -0.228889 0.854073 0.101742 -0.655299 -0.409919 -0.679098 0.111193 0.581764 0.337451 0.766337 -0.864779 0.162927 0.261330 -0.393139 -0.596294 -0.206759 0.780311 -0.914747 0.180565 -0.290924 0.725381 -0.369717 -0.379340 0.009562 0.032477 -0.165290 -0.883396 0.533721 -0.316414 0.802022 -0.985000 0.454697 0.656095 0.116742 0.799398 -0.753823 0.437643 -0.089409 0.827940 -0.224905 -0.323072 0.963161 0.938022 0.938258 -0.429978 -0.658272 -0.268501 -0.649667 -0.573019 0.912064 0.059409 -0.847638 -0.457652 0.680069 0.161924 0.574825 -0.485221 0.278527 0.108546 0.198365 0.080549 0.123546 -0.346938 -0.263355 -0.759712 -0.547540 -0.017179 0.677931 0.363051 -0.189238 -0.546974 -0.960020 -0.226077 -0.608952 0.978238 0.343944 -0.267224 -0.290263 0.694277 0.159757 -0.378199 -0.246314 0.312119 0.164149 -0.566246 -0.525957 -0.261026 -0.051467 0.752570 0.847520 -0.853102 -0.166881 -0.028935 -0.200040 0.569764 0.211353 0.252421 -0.447415 -0.110715 -0.384528 0.363347 0.342311 -0.344548 -0.862731 0.733359 -0.366310 0.481214 -0.533865 0.343427 0.175491 0.625892 0.965228 0.929177 -0.061989 0.129377 -0.637069 0.412054 0.868351 0.311464 0.164624 0.715871 0.458362 0.997743 -0.313064 -0.741677 0.567507 0.898289 0.510743 -0.879908 -0.212426 -0.873785 0.483439 -0.870115 -0.218333 0.620709 0.863244 0.415357 0.101923 -0.670621 -0.241217 -0.722587 0.955271 -0.275989 -0.793410 -0.106718 0.853388 -0.430479 -0.694664 0.721740 0.880985 0.469959 0.437610 0.339347 0.467702 -0.875454 0.597670 0.035209 -0.977164 0.108413 0.155302 -0.189590 0.234628 -0.361259 -0.059705 -0.983705 -0.740550 -0.196461 0.431652 0.361372 0.132917 -0.809564 0.638786 0.088188 -0.085553 0.845375 0.981470 -0.232164 -0.585104 -0.713194 -0.510425 -0.704119 0.756765 0.927185 0.635228 0.224467 -0.948268 0.232897 -0.740323 -0.925433 -0.658690 0.414978 -0.115023 0.575939 -0.946281 0.825272 0.592234 -0.686831 -0.371189 0.023886 0.674542 0.761729 0.214322 0.313327 -0.150083 -0.871231 0.158702 -0.168613 -0.103395 0.573598 0.118193 0.386180 0.869479 -0.125042 0.313366 0.504707 -0.900575 0.365097 -0.262396 -0.640898 0.439665 0.078914 0.774080 -0.675358 -0.345147 0.827800 -0.850086 -0.752913 -0.859031 -0.221275 0.270973 0.815511 -0.459546 -0.514705 0.128838 0.390371 -0.385935 -0.712460 -0.778242 0.510670 0.861139 0.339951 -0.103150 0.730618 -0.785091 -0.789784 0.235324 -0.685666 0.575313 0.972928 -0.326564 0.014977 0.051843 -0.552484 0.339619 0.706695 -0.724684 0.489533 0.953782 -0.583715 -0.731741 0.224756 -0.768204 -0.191288 0.710051 0.360633 -0.800917 -0.675884 0.648174 -0.579159 0.834786 0.509312 0.760791 -0.268364 0.239930 0.975700 -0.058149 -0.524746 -0.709966 -0.482836 -0.551817 -0.036531 0.532141 0.500025 0.410986 -0.128239 0.206721 0.686302 -0.638706 0.160503 -0.897413 -0.370447 -0.614741 -0.665617 0.438265 -0.904690 0.695016 0.637348 -0.580574 0.343190 -0.941811 -0.745788 -0.147498 0.818980 -0.014152 -0.907568 0.794680 0.927699 -0.432314 -0.915286 -0.555137 0.015869 0.048183 0.977005 -0.484106 -0.540831 -0.151235 0.722615 -0.854530 0.210059 -0.116881 -0.751943 0.839612 0.268378 -0.417560 0.277877 0.363688 -0.722544 -0.084775 0.783114 0.620646 -0.026587 -0.962674 -0.526852 -0.207607 0.023174 -0.434421 -0.412927 -0.049127 0.133266 -0.328213 0.395737 -0.850866 0.719970 0.372742 -0.334971 -0.820861 -0.778493 -0.612356 -0.675391 0.431566 0.270763 -0.427334 0.271178 -0.460860 0.155106 -0.450946 0.902828 0.432562 0.464279 0.685943 0.053208 -0.562308 0.723269 0.526355 0.230086 -0.253557 -0.908066 0.817159 0.697316 0.225200 -0.511054 0.093053 0.374334 -0.791085 -0.534205 -0.960637 -0.611946 -0.312698 -0.572993 -0.287337 -0.881132 0.697770 0.285329 0.390046 -0.763089 -0.559565 0.939100 -0.860261 0.872997 0.403379 0.825682 -0.073795 0.841072 0.548950 -0.547440 0.071157 -0.704607 -0.455506 -0.111684 0.992710 0.769694 0.377261 0.085763 0.144028 0.586177 0.551558 0.183391 0.974231 -0.761140 0.610399 -0.313106 -0.642272 0.308169 0.972223 0.747774 0.545079 -0.587342 0.686874 0.684818 -0.714345 0.090254 0.510500 0.211860 -0.068675 0.059450 0.664420 -0.997518 0.354843 -0.791086 -0.109202 0.347553 0.978608 -0.731940 -0.566684 0.122636 0.854236 0.984875 -0.693973 0.828467 -0.776265 0.916426 -0.484639 -0.418537 0.224595 -0.512417 -0.670763 -0.230326 -0.099759 -0.983889 -0.545507 0.185896 0.106364 0.964992 -0.602244 -0.962311 0.024442 -0.937824 -0.959828 -0.620714 -0.728911 -0.069030 0.726839 -0.750303 0.199030 -0.839844 0.372333 0.053266 -0.854970 0.678360 -0.118267 -0.631235 0.594786 0.397094 -0.049773 -0.180619 0.884677 0.279464 0.589056 -0.215081 0.295575 -0.956452 0.970815 -0.598061 -0.991459 -0.631429 -0.560371 0.032983 -0.569253 -0.520200 0.412269 -0.298164 0.410770 0.139108 -0.048467 -0.390200 0.299264 -0.676134 0.663066 0.444294 -0.997774 -0.455201 0.813059 0.597012 0.941893 -0.236714 -0.583606 0.826571 -0.957250 -0.994551 -0.388511 0.338325 -0.951002 -0.417696 0.740264 -0.942461 -0.049125 -0.820107 0.090522 0.381622 -0.340307 -0.497209 -0.916542 -0.929537 0.641899 0.034990 -0.319737 -0.058837 0.358856 -0.656671 -0.614543 0.361082 -0.111872 -0.801484 -0.041906 -0.169978 -0.038198 0.374487 -0.343408 0.004552 0.379937 0.268081 -0.657123 0.428935 0.850385 -0.916858 0.486473 -0.198740 -0.736965 -0.423005 -0.817118 -0.077272 0.079786 -0.733660 -0.006809 -0.278314 0.301330 0.673454 0.662849 -0.339814 -0.983217 -0.951694 -0.978733 -0.095088 -0.753178 -0.020639 0.734933 0.208624 -0.646152 -0.608474 -0.786823 0.733785 0.659607 -0.443946 0.162719 0.509992 -0.360804 -0.350807 -0.688747 -0.097770 0.226188 -0.505865 0.824958 -0.694026 -0.239526 -0.181851 0.027660 -0.938196 -0.508397 -0.309491 -0.278010 -0.491613 -0.261185 -0.256743 0.413298 -0.014362 0.722618 0.148232 -0.805738 -0.923534 0.539757 -0.592562 0.810251 0.199364 -0.036508 -0.027030 -0.290644 0.602688 0.622163 0.020609 -0.495081 -0.151649 0.514744 -0.670123 0.154325 -0.724782 0.148026 -0.818015 -0.662978 0.639629 -0.127506 0.059012 -0.851985 0.611309 0.802269 0.561314 -0.403053 0.524887 -0.290455 -0.208791 0.601353 -0.750697 0.198647 0.411603 0.448667 -0.837860 -0.615427 -0.841977 0.764828 -0.993264 0.178632 -0.730254 -0.144913 -0.306624 -0.400377 -0.990589 -0.031407 0.747649 -0.808604 0.305616 0.387277 0.063890 -0.635373 0.535293 -0.324800 -0.833104 0.096607 0.272147 0.691783 0.806152 -0.936644 0.293135 -0.944546 0.262003 -0.295262 0.504121 0.424143 0.089312 0.662144 0.188970 0.096048 -0.159224 0.458717 0.951134 0.534152 -0.941660 0.960546 -0.497255 0.805988 -0.848058 0.808361 0.193265 0.215832 -0.827012 -0.271442 0.891032 -0.660116 0.825165 0.163179 -0.968333 0.631317 0.226535 0.324802 0.686771 -0.511462 -0.970459 0.190892 0.912680 0.118853 -0.146964 0.101651 -0.785100 0.693813 -0.439633 -0.833965 0.227964 -0.381293 -0.873420 0.730709 -0.575305 -0.721478 0.539070 0.617960 0.494354 0.712058 -0.653482 0.385387 -0.948058 -0.828317 -0.451434 -0.916391 0.803000 0.775100 0.408412 0.489771 -0.736362 0.437952 -0.319337 -0.823681 -0.443195 0.533700 0.277969 -0.228295 0.227512 0.838336 -0.062260 -0.544524 -0.542957 0.064320 -0.813814 -0.118262 0.342842 0.725256 -0.500302 -0.162803 0.437313 -0.153783 -0.777417 0.489255 0.017900 -0.228851 0.572865 -0.179100 -0.453750 -0.018724 -0.689329 -0.190112 -0.580771 -0.008666 -0.013794 -0.023966 -0.474966 -0.735824 0.747739 0.752546 -0.897488 -0.314521 -0.791978 -0.440445 0.749800 -0.605792 0.441293 0.092642 -0.880536 0.940991 0.929839 0.556777 -0.212793 -0.847578 0.046032 0.805107 -0.076428 -0.381103 -0.373993 0.469821 0.600173 -0.063323 -0.720291 -0.980598 0.928011 0.265916 -0.004564 -0.546955 0.530091 -0.256825 -0.794409 0.632603 0.428654 -0.586387 -0.807842 0.178454 -0.192179 0.633451 -0.728904 -0.072716 0.574441 -0.799066 -0.515939 -0.638351 -0.646643 0.530094 -0.833244 0.276928 -0.851009 -0.207237 -0.253250 0.749164 0.729440 0.026459 0.768566 0.657451 -0.707626 -0.235999 -0.889504 0.822466 0.507176 -0.683913 0.455068 -0.064170 -0.270300 0.647226 -0.885716 0.537521 0.280677 -0.614621 -0.535195 -0.144882 -0.413686 -0.051133 0.216767 -0.060329 -0.521039 0.383523 -0.783401 -0.372048 -0.823714 -0.036651 -0.622884 0.905726 0.989808 -0.854318 0.563177 -0.717818 -0.090317 0.673674 -0.895352 -0.583141 0.989761 0.559716 0.352689 -0.280539 0.206943 0.466973 -0.743018 -0.512380 0.852353 -0.278213 0.342738 -0.561333 0.670654 -0.440495 0.378337 -0.850385 0.943028 0.594937 -0.222434 -0.880686 -0.441714 0.154682 -0.974960 -0.451906 0.300363 0.588218 -0.169724 -0.789954 0.261891 -0.065076 -0.373095 0.251652 -0.505360 0.979595 0.971112 0.701583 0.446568 -0.771906 -0.810798 0.298921 -0.050119 0.531940 0.737588 -0.379465 -0.908554 0.115925 -0.229851 -0.965526 -0.289138 0.547715 -0.846212 0.269147 -0.297603 -0.821171 0.817241 -0.997240 0.767046 -0.352483 -0.787194 0.028937 0.582441 -0.160288 -0.719411 -0.922920 -0.180694 -0.748299 0.778663 -0.734125 -0.520205 0.967865 0.564795 0.429676 0.499806 0.302383 -0.949789 0.591251 -0.581692 -0.179640 0.625725 0.129170 -0.631925 0.779514 -0.601683 0.070472 0.958342 -0.784442 0.073232 0.725389 -0.136925 0.286038 -0.245674 -0.554484 -0.874251 0.034915 -0.477404 -0.054944 0.286617 -0.698741 0.210930 0.766412 -0.730875 -0.224274 0.196088 0.768930 -0.921891 0.246299 0.360181 -0.503583 -0.933341 -0.014093 0.625587 -0.565266 -0.234579 -0.976096 0.505206 -0.276237 -0.760537 -0.421562 -0.550848 0.102538 0.864476 0.203478 0.548054 0.990225 -0.761607 -0.929350 -0.064719 0.525009 -0.628091 -0.853789 0.291421 -0.358966 -0.078063 -0.512491 -0.590036 0.000046 0.733808 0.770146 0.496463 0.800467 -0.243947 0.122050 -0.764799 0.521473 0.145955 0.740407 -0.754764 0.385417 -0.681156 -0.305612 -0.512045 -0.816680 0.897865 -0.963991 -0.826455 -0.863742 -0.893341 0.108826 0.661267 -0.521431 0.255037 -0.047312 0.119603 -0.823026 0.440198 0.529567 0.177021 0.174006 0.299713 -0.326516 -0.025527 -0.944234 0.795535 0.209673 0.577239 -0.058511 -0.049920 0.822475 -0.673093 0.268924 -0.483137 -0.185138 0.452244 -0.585272 -0.149129 0.625789 -0.449014 -0.042469 -0.265386 -0.787747 0.436099 0.989652 0.164942 -0.444297 -0.833374 -0.394861 -0.914730 0.343647 0.779145 0.384983 -0.982869 -0.246382 0.440748 0.812665 0.963291 0.017987 -0.245845 -0.086629 -0.159538 0.081061 -0.817705 0.357324 0.895923 0.634539 0.772052 -0.253206 0.260328 -0.676962 0.704325 0.994942 -0.464708 0.140424 0.984594 0.700233 0.696127 -0.848780 -0.694627 0.781397 0.494866 -0.915482 0.166379 0.511997 -0.161864 -0.392872 0.324662 -0.198573 0.625114 -0.921183 0.714798 -0.534424 0.159878 0.897094 0.822900 0.055801 0.531633 0.594952 0.802595 -0.208039 0.917991 0.506920 -0.213097 -0.546718 -0.352656 -0.228503 -0.846484 -0.656529 -0.077283 -0.541111 -0.875133 -0.582416 -0.456593 0.291247 0.929581 0.381543 0.898374 0.254243 -0.817030 0.523489 0.333060 0.897768 0.989065 -0.507062 0.794862 0.811965 0.548739 0.326495 0.406918 0.351334 -0.881544 0.324908 -0.141746 -0.094641 0.778191 0.505598 0.676857 0.931706 0.849069 -0.400426 -0.609405 0.973937 0.017157 -0.065998 0.265184 -0.053262 -0.684455 0.163558 -0.799019 -0.501486 -0.312953 0.534041 -0.603717 -0.323888 -0.973021 -0.808856 -0.511923 0.575718 0.517639 0.894994 -0.072948 0.636095 0.219903 0.785306 -0.458546 -0.001907 0.290905 -0.781689 -0.070200 0.139974 -0.182115 0.320395 0.113911 0.835042 -0.745603 -0.620905 -0.218220 -0.430059 0.542653 -0.017239 0.068456 -0.770301 -0.483198 0.464738 -0.094189 -0.456219 0.655883 0.393888 -0.880501 0.173522 0.288882 0.046551 -0.190383 -0.491215 -0.168143 0.351071 0.506878 -0.877238 0.569382 -0.563323 0.262736 -0.612733 0.757072 -0.623353 -0.777691 -0.988532 -0.244258 0.004089 -0.418590 -0.701605 0.986850 0.649865 -0.471906 -0.496348 0.114604 0.433905 0.047433 -0.229514 -0.172207 0.166932 0.944008 -0.883325 -0.786516 -0.246375 -0.374540 0.045341 -0.895303 -0.867663 0.168103 0.674079 -0.430986 -0.569160 -0.938654 -0.673914 -0.192513 -0.716345 -0.662445 0.563229 0.287744 -0.081036 0.861624 0.274594 -0.431170 -0.610282 0.778247 0.683433 0.823623 -0.174320 -0.546080 -0.348584 0.992612 -0.602072 -0.231909 -0.793904 0.151553 0.393550 0.251437 0.256250 0.525888 -0.580460 -0.069671 -0.905098 -0.149620 -0.008325 -0.579012 0.657867 0.275330 -0.241457 0.221095 -0.436926 0.677507 0.082719 0.837669 -0.753663 0.472437 0.615915 0.929770 0.296059 -0.558405 -0.616310 0.947475 -0.565793 -0.218382 -0.284434 -0.359697 0.933171 -0.890883 0.891740 0.189421 0.635004 -0.688720 -0.880250 0.729906 0.161660 0.111426 -0.849105 -0.180474 -0.613244 -0.090563 -0.959378 -0.050170 -0.413055 0.123341 -0.212502 -0.166719 -0.404222 -0.596586 -0.236949 0.891837 -0.154991 0.146741 0.839312 0.279216 0.928359 -0.445122 0.919519 0.861530 -0.336005 0.811260 0.050951 -0.701001 -0.877460 0.170702 -0.971095 0.284200 -0.717873 -0.820200 -0.896274 -0.331117 0.089237 -0.855652 0.618713 0.676182 0.267689 -0.593789 -0.490537 0.863466 -0.190375 0.272515 0.755303 0.654633 -0.580744 0.594616 -0.066150 -0.652385 -0.850506 -0.146631 -0.790855 -0.186511 -0.335371 0.260096 0.112488 -0.212831 -0.569202 0.141394 -0.928632 -0.287075 0.321194 -0.824906 0.381808 -0.589569 -0.680558 0.000521 -0.913387 0.587131 0.406732 -0.403923 0.450597 -0.783643 0.868591 0.205901 0.870990 -0.712153 -0.199484 -0.195161 -0.364538 -0.049989 0.658209 -0.155393 0.763500 -0.677163 -0.895297 -0.124012 0.110006 -0.464500 -0.982618 0.181374 0.248425 0.338576 0.356469 -0.369767 0.749007 0.675911 0.630754 0.835620 0.263042 0.037486 -0.568303 -0.286361 0.253843 -0.699712 0.919540 0.124832 -0.411865 -0.279943 0.929672 0.223597 0.670067 0.587880 -0.931796 0.433567 0.910718 -0.827093 -0.690445 0.020724 -0.291593 -0.673062 -0.797902 0.956833 0.665514 0.558566 -0.412934 0.414521 0.234477 -0.782180 0.250141 -0.502481 0.255306 0.681838 0.211158 -0.490851 0.982126 0.130699 0.633981 -0.429739 0.850755 0.563653 0.793859 0.520822 0.151533 0.862063 -0.045610 0.062251 -0.965030 0.263945 -0.917025 -0.256623 0.590883 -0.714927 -0.299790 0.256396 0.843639 0.287276 -0.329083 0.078116 0.505096 0.921058 0.575635 -0.239598 0.602896 -0.213207 0.269551 0.585022 0.917492 -0.096468 -0.844717 0.768247 -0.532815 0.949142 0.289070 0.618718 0.811205 -0.756541 -0.319030 0.846175 0.507404 -0.236056 -0.410447 0.098287 0.049017 0.289763 -0.645316 -0.107344 -0.422961 0.025601 0.970772 -0.917865 -0.053341 0.546407 -0.157463 -0.450446 -0.666800 -0.887912 -0.865424 -0.749308 0.015620 -0.710141 -0.981061 0.482805 -0.760998 0.308009 0.101524 -0.949793 0.551468 0.782493 0.896382 0.058872 -0.453562 -0.514065 -0.842841 0.595455 0.775698 -0.488157 -0.511889 -0.647263 0.537444 -0.541117 -0.565128 -0.515898 -0.994711 0.277409 0.033657 -0.661510 0.389498 0.168233 -0.410818 -0.594882 0.458092 -0.391879 0.887923 0.697094 0.916129 -0.010553 0.747301 0.467597 -0.228060 0.643683 -0.473530 0.318378 -0.870382 -0.316371 -0.086167 0.905316 0.195472 0.401944 -0.741947 -0.267084 0.860826 -0.307075 0.217018 0.866116 0.970334 -0.749325 -0.795395 0.359832 0.418907 -0.206213 0.764950 -0.123001 0.401908 0.652873 -0.425907 0.318037 -0.357681 -0.678606 -0.214365 0.414259 0.965077 0.312104 -0.267363 -0.905305 0.995733 0.646470 -0.999989 0.191205 0.048414 -0.741936 0.924121 -0.090760 -0.049011 0.141139 -0.224644 -0.078676 0.391814 -0.020039 -0.718845 -0.189279 0.773748 -0.953895 0.687720 0.175656 0.698977 -0.738186 -0.506307 -0.658703 -0.416793 0.279328 0.755556 -0.451716 -0.408568 -0.511807 -0.357021 -0.412835 -0.865337 -0.357010 0.778371 0.183077 -0.098945 0.702492 -0.907683 0.852044 -0.156369 -0.132327 -0.226632 -0.764555 0.847634 0.054523 0.046166 0.621382 0.100628 -0.266114 -0.202962 -0.200395 -0.004300 0.290731 0.140902 0.578907 -0.429941 -0.103542 -0.872809 0.161491 0.384651 -0.229830 0.748656 0.519314 0.413160 0.527026 -0.297608 -0.685785 0.229518 -0.205291 -0.833741 -0.926851 0.662382 -0.060374 -0.691406 0.510016 0.994149 0.354759 0.131398 0.094777 -0.911355 0.928436 0.894382 0.084345 0.219167 0.035284 -0.336748 0.789225 0.931741 -0.209557 -0.049284 0.316392 0.560612 -0.300628 -0.164293 -0.026227 -0.773602 0.538098 0.287987 0.455916 -0.667193 0.454246 0.529065 0.995189 -0.606128 0.837659 0.505205 -0.611978 0.192418 -0.363397 0.482799 0.281064 -0.434962 0.377180 -0.634591 0.784205 -0.587536 0.028660 0.573431 -0.655795 0.819103 -0.475854 0.660598 0.379716 0.223518 -0.503696 -0.646512 0.449916 -0.965597 0.641475 -0.094168 -0.632790 0.095721 -0.565103 -0.637601 0.489594 -0.727444 0.867604 0.877615 0.464974 -0.495794 0.360414 -0.253963 0.069245 -0.262406 0.111446 -0.146550 0.150059 -0.859893 -0.573120 0.494264 0.959210 -0.048973 0.154862 0.338925 -0.825455 0.651166 0.692413 0.624461 0.685569 0.333889 -0.469707 -0.947221 -0.570390 -0.034809 -0.584822 0.919204 0.237746 -0.717218 0.796820 -0.297280 -0.213012 0.157233 0.448758 0.856233 0.894828 -0.439796 -0.290317 0.044886 -0.299690 0.136563 -0.460850 -0.340480 -0.912410 0.694012 0.998445 -0.737865 0.345178 0.690859 0.886596 0.030747 0.024748 -0.583110 0.083526 0.454358 0.382080 0.498704 0.373562 -0.380174 0.781485 0.170382 0.322547 -0.431527 -0.672385 -0.228695 -0.575294 -0.777557 0.331508 0.134388 0.267329 -0.968181 -0.729048 0.806480 -0.308661 -0.641459 0.500492 -0.310216 -0.379323 -0.154330 -0.619357 -0.492727 0.876417 0.405391 -0.075838 -0.040057 -0.140251 -0.693758 -0.541354 -0.766689 -0.073931 -0.759869 0.403693 -0.751384 -0.191396 0.731308 0.019920 0.233310 0.953751 -0.648571 -0.632302 0.221080 -0.616753 -0.361350 0.027560 0.074586 -0.002809 -0.471948 0.764371 0.617868 0.373722 -0.854986 -0.874859 0.250138 0.550405 0.049303 -0.789919 -0.589846 0.355545 -0.331273 -0.356535 -0.718386 -0.091141 -0.952842 -0.469770 0.717463 0.778466 0.550150 -0.049227 0.732217 0.901578 0.318471 -0.046703 -0.715175 0.957121 0.980857 0.359412 -0.045687 -0.491091 0.123782 -0.427819 0.882630 0.268796 -0.302678 0.132769 -0.180799 0.746625 0.342850 0.229355 0.102170 -0.988423 0.872820 0.383784 -0.079564 0.919979 0.914014 -0.362101 0.698445 0.464163 0.588672 0.430661 0.365741 -0.092857 -0.616041 0.650567 -0.135735 -0.635184 0.009979 0.818577 -0.126276 -0.866239 -0.609242 -0.243645 0.402557 0.088080 0.889123 -0.778241 -0.165295 0.231973 0.451114 0.936875 0.243550 0.323935 0.320659 -0.836014 0.243913 0.234672 -0.198115 -0.057642 -0.301164 -0.609444 -0.626981 -0.935423 0.297699 -0.243022 0.715144 -0.838036 0.121793 -0.274878 0.980541 0.995518 -0.141117 -0.628700 -0.248127 -0.738559 0.459380 -0.359004 -0.516800 -0.705916 0.872969 0.934314 -0.769041 0.116520 0.258248 0.551618 0.280506 -0.497839 -0.213710 -0.917610 0.444519 0.485126 -0.527054 0.817538 0.549703 0.770646 -0.425484 0.264846 0.932609 0.696310 0.989969 0.913150 0.691827 -0.151148 -0.715550 -0.556300 0.110293 0.743829 0.084696 0.593492 -0.962086 -0.042335 0.527806 -0.731127 -0.925815 -0.213946 0.820491 0.354691 0.288216 -0.393219 0.437081 -0.267265 -0.908093 0.910027 -0.449727 0.641609 0.680673 0.124789 -0.093544 0.613282 -0.178901 -0.103575 0.526433 -0.487074 0.745277 0.810883 -0.043374 -0.144431 0.554712 -0.958678 -0.550938 0.592626 -0.001012 0.976868 0.861499 0.073172 -0.237078 0.681989 -0.572137 -0.948862 -0.711230 0.864944 -0.216127 -0.619323 0.774971 0.334146 -0.977714 0.455644 -0.541064 -0.071258 0.068926 0.280035 0.825166 -0.404641 0.792961 0.570443 -0.593758 -0.250413 -0.573988 0.960954 -0.209090 -0.124926 0.553579 0.789897 -0.148058 0.415078 -0.136930 0.614864 0.097067 0.290933 0.666002 0.385837 0.155877 -0.550125 0.766514 -0.069152 0.784021 0.788800 -0.613508 -0.757043 -0.282458 0.455419 0.522992 -0.457292 -0.949222 0.315953 -0.886849 -0.542980 -0.934460 -0.460837 -0.582027 -0.143550 0.414237 0.971552 -0.353653 -0.733821 0.386630 0.509416 0.881043 -0.516303 -0.199651 0.547044 0.869534 0.956226 0.996919 0.636048 -0.112926 0.780940 0.424848 0.273567 -0.976103 -0.857611 -0.271014 0.546888 -0.314903 -0.220236 -0.137159 -0.201752 0.236783 -0.071619 0.337412 0.654756 0.784831 -0.248351 0.626309 -0.568822 0.017828 0.012939 0.940594 -0.101129 0.496637 -0.259057 -0.554085 0.366171 -0.302831 -0.557166 0.002219 0.584243 -0.776226 -0.572933 -0.142190 -0.752329 -0.430544 0.586796 0.794559 0.254554 -0.633441 -0.342600 -0.947198 0.603342 0.585781 0.390214 0.258099 0.370612 -0.858137 -0.115592 0.801790 0.159691 0.897347 0.742384 -0.941438 0.393984 -0.516673 -0.495524 -0.239845 0.180496 -0.052690 0.762374 -0.235260 0.171084 -0.810559 0.622550 0.418755 -0.241103 0.209346 0.213314 -0.986549 0.575905 0.870714 -0.933747 0.179247 0.456495 0.456467 -0.562654 -0.172893 0.598330 0.321754 -0.371104 -0.241978 0.219101 -0.628720 -0.183417 -0.386916 -0.145393 0.321060 0.373239 -0.964897 -0.731630 0.135612 -0.200157 0.439454 0.325053 -0.577607 -0.141791 -0.916050 0.631738 -0.928478 -0.902599 0.207643 0.942236 -0.836346 -0.613110 0.398730 0.620122 -0.175764 -0.774163 0.218452 -0.854010 -0.145267 0.976474 0.365090 0.226013 -0.206943 0.978174 -0.919380 -0.885884 0.351413 -0.884277 -0.617514 -0.512974 -0.084434 0.821940 0.812079 0.337959 -0.319851 0.896029 -0.030303 -0.248329 0.993430 -0.822659 -0.306093 -0.842916 -0.435769 -0.907363 0.777206 0.388467 -0.681526 -0.004342 0.534457 0.173208 -0.027868 -0.100453 -0.600779 0.765188 -0.122278 -0.520160 0.879305 
-0.770865 -0.404436 -0.738209 -0.283840 0.511130 -0.916269 -0.471761 -0.150911 -0.236120 -0.575732 0.818786 0.515551 -0.582302 0.996127 -0.790542 -0.425218 -0.439642 -0.697905 -0.648012 0.948825 -0.379430 0.347646 0.483282 0.793777 -0.680222 -0.617171 -0.807002 -0.915034 0.260551 -0.327162 0.964271 0.489686 0.268402 -0.773938 -0.794154 -0.220468 -0.690207 -0.265914 0.628621 0.073672 0.158354 0.447407 -0.410777 0.576052 0.443534 -0.201319 -0.849166 -0.996108 0.100776 -0.497177 0.952716 0.721346 0.850469 0.435998 0.515123 -0.829753 0.818827 0.708121 -0.744786 0.079378 -0.619041 -0.780515 -0.430936 0.649361 -0.554454 -0.225089 -0.571108 -0.244661 0.508997 -0.942487 0.829011 -0.332650 0.504920 -0.581766 -0.756598 -0.051547 0.216916 -0.605763 -0.047655 -0.682308 -0.102941 -0.094939 -0.960962 -0.252471 -0.658940 0.554161 -0.082224 -0.840113 0.262282 0.172990 0.239265 0.643241 0.392475 0.808330 0.292601 0.838021 -0.416759 0.721494 -0.406640 -0.907763 0.779006 -0.577628 -0.240412 0.283926 -0.159394 0.002990 -0.767620 -0.942478 0.397227 0.184724 -0.624787 -0.705714 -0.910214 -0.585749 0.041815 -0.569155 0.968412 0.959591 -0.409268 0.230694 0.132581 0.829998 -0.126065 -0.474944 0.638328 -0.833464 -0.636923 -0.778431 0.888029 -0.043562 -0.686194 0.667036 0.378809 0.073394 -0.049038 -0.780585 -0.923616 0.183341 -0.723063 0.473610 -0.631934 -0.347850 0.767896 -0.542148 0.066401 -0.190289 -0.111303 0.034814 -0.230698 0.479429 -0.734492 0.901883 0.309427 0.139442 -0.573061 -0.052245 0.305978 -0.209984 0.169324 0.194008 0.746454 0.483130 -0.138956 0.125263 -0.443477 0.812006 0.344678 -0.367093 -0.004653 0.621615 -0.893483 0.363413 -0.726235 0.874413 0.821265 0.340166 -0.315876 -0.290038 -0.625020 0.453426 -0.810609 -0.359513 0.355309 0.498819 0.779930 0.782248 -0.553427 0.085908 -0.427736 0.615897 -0.720085 -0.681282 0.099027 0.140959 0.443981 0.655550 -0.047036 -0.211341 -0.711543 0.948312 -0.589727 -0.605027 0.311724 -0.315962 -0.730614 0.132989 -0.975796 -0.046490 0.842951 -0.600817 -0.593065 -0.967658 0.039671 0.762244 0.531161 -0.180400 0.544491 0.977735 0.905508 -0.883245 0.593632 -0.814577 -0.564527 -0.307342 0.326382 0.879454 -0.651792 -0.720653 -0.331888 -0.363335 -0.772342 0.078386 0.031638 0.539383 0.762423 0.301024 -0.327628 0.786627 -0.745466 -0.484677 -0.814189 -0.338531 -0.452334 0.225481 -0.576287 -0.921173 -0.954919 0.968204 -0.943439 0.950589 -0.915040 0.650193 -0.863987 -0.479567 -0.657149 0.462395 -0.600113 -0.308941 0.741742 0.067999 0.327724 0.969401 -0.853615 -0.640639 0.508783 0.908808 0.660386 -0.818844 0.695436 0.914919 -0.303521 0.881246 -0.423611 0.244144 0.106728 0.000102 0.322971 0.151809 -0.031694 0.379532 0.102399 0.053266 0.029725 0.238412 0.573699 0.372576 -0.299193 0.973585 -0.936365 -0.557451 0.041585 0.391359 -0.588051 0.187970 0.750720 0.920733 0.096778 0.411106 -0.898112 -0.207786 0.326025 -0.201633 -0.326540 0.902414 -0.957488 0.780188 -0.097485 0.365483 -0.068003 0.870821 -0.254985 -0.965604 -0.075913 0.774740 0.272807 -0.502214 0.147316 0.973614 -0.528629 0.210951 -0.583837 0.512956 -0.397690 -0.171888 -0.299075 -0.646970 -0.251155 0.797704 0.764136 -0.149266 -0.410083 0.090161 0.649101 0.263378 -0.007426 0.691612 0.043565 0.895090 0.057095 0.975562 0.765911 0.802110 -0.990042 -0.310002 0.576851 0.282765 0.187783 -0.275833 0.256379 0.659154 0.935118 0.672542 0.172110 -0.462572 -0.499346 0.873035 -0.109542 0.249499 0.670739 -0.345406 -0.899767 -0.739343 0.744755 0.749333 0.524034 -0.262671 0.440946 -0.432400 -0.367581 -0.501959 -0.456838 -0.601671 -0.699849 -0.446880 0.088327 0.877002 0.835885 -0.723890 -0.398831 0.092263 0.935264 -0.463713 -0.235195 0.107374 0.073715 0.265459 -0.019590 0.964174 -0.485042 -0.348851 -0.381232 -0.384810 -0.088194 -0.636478 -0.635476 -0.564160 0.100851 0.805469 0.003439 0.733270 -0.696490 0.546601 -0.868401 -0.396339 -0.900279 0.219926 -0.519337 0.935605 0.496037 0.081832 0.027869 0.431301 0.618119 0.792674 -0.461325 -0.308165 0.058133 0.519085 -0.343992 0.573091 -0.829766 0.274776 -0.811719 0.082040 0.638298 -0.447195 0.517879 -0.260851 -0.641726 -0.478681 -0.527581 -0.338216 -0.932080 -0.395981 0.265445 -0.832360 0.823945 0.746109 -0.896754 0.319982 -0.172059 0.131114 -0.248717 -0.553940 -0.076212 0.289958 0.137895 0.981921 -0.190956 0.793903 0.555012 -0.020722 0.068679 0.743293 -0.938682 -0.293023 -0.703903 0.579197 0.446127 -0.345629 -0.899484 0.918546 0.316155 -0.831565 -0.477435 -0.418399 -0.663924 -0.653490 -0.672291 -0.560679 0.666492 0.155650 0.570436 -0.582225 0.601710 -0.505776 0.707734 -0.260395 -0.523855 -0.483223 -0.466491 -0.968843 0.496055 0.602188 0.774449 0.557372 -0.690835 -0.929454 0.136569 0.755292 -0.275083 0.237085 0.673838 -0.958927 0.405520 -0.803597 -0.377327 0.741596 -0.457086 -0.049617 -0.819083 -0.790594 -0.893967 0.751353 -0.372819 0.707743 -0.754423 -0.665085 -0.552651 -0.278278 -0.148308 -0.019143 -0.247121 -0.652253 -0.416955 -0.472672 0.905119 -0.107790 -0.402126 0.041689 -0.352498 0.322791 -0.721227 -0.678660 0.363864 0.684294 -0.482256 0.986537 0.425890 0.060658 -0.063080 0.606807 0.270064 0.042953 0.358160 0.897245 -0.249304 0.603737 -0.767840 0.198044 -0.674540 0.083852 -0.821099 0.078339 0.431599 -0.238054 0.605667 0.336718 0.654156 -0.796459 -0.621593 -0.698342 0.526332 -0.342819 -0.377001 -0.109804 -0.658526 0.140742 -0.123267 0.767364 -0.798600 0.813653 0.374170 0.471464 -0.143395 -0.267670 0.368710 0.607301 -0.663932 0.600870 -0.194655 -0.338473 -0.315278 -0.015753 0.739866 -0.883678 0.746193 0.345533 0.453040 0.400349 0.549073 0.831447 0.702007 0.075405 -0.511372 -0.674994 0.965601 -0.169898 0.465749 -0.157666 -0.402534 0.667149 -0.344013 0.971636 0.138613 0.512593 -0.296034 -0.492677 0.119894 0.040034 -0.891807 0.925239 0.701562 -0.207085 -0.090514 0.441428 -0.090763 -0.344321 -0.213040 -0.637723 -0.943972 -0.663967 -0.806276 0.758035 0.411439 -0.317648 -0.916959 0.377040 0.512453 0.548790 -0.780626 -0.890081 0.215939 -0.124638 -0.918445 -0.645448 -0.612046 -0.214479 -0.138126 0.507848 0.825556 -0.029933 0.433087 0.527117 0.762982 -0.657427 -0.031455 -0.327781 -0.001748 0.755505 0.034495 0.054280 -0.908461 0.228219 -0.187685 0.502977 0.910571 -0.104644 -0.119983 0.423024 -0.555854 0.099392 0.532943 0.660085 0.974753 0.614498 -0.985363 -0.637292 -0.599981 -0.123489 0.870556 -0.774425 0.846578 0.303644 0.752692 0.609560 0.646217 -0.278763 -0.718221 -0.355531 -0.523258 0.316274 0.698748 -0.431719 -0.455506 -0.488937 -0.928742 -0.544936 0.406420 -0.048724 0.878088 0.850566 -0.949333 0.411031 0.510651 -0.974579 0.025529 0.525288 -0.611871 0.425548 -0.598201 -0.741315 0.651123 -0.751622 0.562328 0.403815 0.857938 0.208545 -0.874949 -0.860283 0.853014 -0.398206 0.455992 0.551763 0.170074 -0.999515 -0.937174 0.241333 -0.544450 0.469246 -0.807392 -0.666362 0.319812 -0.756724 0.744669 -0.169537 -0.731304 -0.229802 -0.644249 -0.343175 -0.804254 -0.242450 -0.084490 0.846869 0.005928 -0.522162 0.250684 -0.136134 0.686384 0.375735 0.003584 0.539398 0.977529 -0.540425 0.091160 0.147603 -0.539939 0.153986 -0.611064 -0.084389 -0.376768 -0.418456 0.249249 0.943044 -0.175180 -0.006082 -0.226494 0.093516 0.764116 0.129257 0.750341 0.959863 0.886807 -0.334149 0.806732 -0.107265 0.143690 0.057415 0.756601 -0.169927 -0.566850 -0.239815 -0.630529 -0.589321 0.219760 0.460632 0.558282 0.679821 -0.385382 0.947218 -0.404569 0.237850 -0.471238 0.844680 0.180894 0.353581 -0.161402 0.954400 -0.552902 -0.397286 0.083657 -0.802561 -0.437423 -0.029536 -0.136710 -0.630692 0.863199 -0.993020 0.426724 0.619800 -0.162947 0.859874 -0.620015 0.206524 -0.729447 0.599745 -0.332844 0.828835 0.279565 0.281774 0.776052 0.874997 -0.480376 -0.695186 0.719676 0.700518 0.658395 -0.441726 0.654918 -0.894507 0.160988 -0.261425 -0.697068 0.723565 0.709039 0.166222 -0.907127 0.572238 0.173202 0.519596 0.192039 -0.989745 0.379470 0.572023 0.216779 0.650023 0.171768 0.883934 0.478858 -0.548666 0.165708 0.254910 -0.673670 0.685332 0.559724 -0.953993 0.385850 0.218119 -0.395719 0.040767 0.323612 0.765269 0.779342 0.626544 0.488834 0.488382 -0.207234 0.581707 0.060620 0.965968 0.101303 -0.747341 0.976222 -0.519226 0.824682 0.193001 -0.869203 -0.003550 0.076936 0.609654 0.447784 -0.757356 -0.135436 0.774114 0.927976 -0.575712 0.820121 0.313825 0.642407 -0.575599 -0.645407 -0.033980 -0.810329 -0.866065 -0.407436 0.678505 0.622316 0.385330 0.260211 -0.317064 0.351298 -0.638485 -0.064405 0.327521 -0.157712 -0.239723 -0.479478 -0.026915 0.756727 0.597457 -0.417261 0.204510 0.840101 0.447303 -0.021376 0.768077 0.871591 -0.201255 0.081902 0.513999 0.223146 0.436494 -0.519981 0.412817 0.570429 0.072583 0.091321 0.192746 -0.542087 -0.648467 0.875682 0.809211 -0.286953 -0.188723 0.136732 0.555335 0.571554 0.657254 -0.471580 0.328281 0.254711 0.111159 -0.467209 0.094812 -0.441538 0.511415 -0.137111 -0.569947 -0.689840 0.944790 0.944052 0.533306 0.381285 -0.575929 -0.053877 -0.048286 0.496654 -0.962556 -0.855540 0.954567 -0.611023 -0.979858 0.763778 0.102024 -0.168581 -0.099490 -0.342641 -0.597027 -0.442236 0.185779 0.731253 0.812475 -0.703062 -0.735956 -0.092713 -0.144600 0.775459 0.770175 0.285454 -0.914381 0.714966 0.229506 0.618925 0.096251 0.653576 -0.434952 -0.952035 0.150230 -0.397508 -0.807575 0.104797 -0.008532 -0.787433 -0.131425 -0.906508 0.043986 0.769085 -0.249149 0.446959 -0.673151 0.936630 0.178212 -0.860676 -0.766432 0.442256 0.046611 0.088969 0.217715 -0.183214 -0.625578 0.303334 -0.468248 0.603928 -0.077741 0.628003 0.257504 0.487307 0.675968 -0.592266 -0.910201 0.868393 0.512531 0.081267 -0.919039 -0.618894 0.174759 0.124947 -0.849809 0.925610 -0.428094 -0.522960 0.862241 0.750118 -0.383636 -0.904191 0.192373 0.662975 0.184778 -0.589911 -0.520239 0.559200 0.713423 0.011513 0.163128 -0.364318 -0.360484 -0.579368 -0.877011 -0.684516 -0.171634 -0.787213 -0.816122 -0.659103 0.294054 -0.735162 -0.277997 -0.531187 0.389785 -0.127806 -0.605576 0.961691 0.349234 -0.743336 0.711808 0.965598 -0.647527 -0.095818 0.628572 0.537251 0.314270 -0.891667 0.096451 0.027693 0.119846 -0.740422 0.663375 0.759362 -0.319790 0.786364 -0.925154 0.508576 0.999151 -0.741277 0.849473 0.293206 -0.476439 -0.428524 0.762019 0.913347 0.443670 -0.843557 0.875037 -0.207096 -0.586893 0.586846 -0.241498 -0.234420 -0.508972 -0.612926 -0.697169 0.805298 -0.504593 0.399282 -0.167009 0.615253 0.658861 -0.503634 0.374614 -0.660929 -0.717270 0.449460 0.847647 -0.718119 0.708183 0.697120 0.575087 -0.768256 -0.731403 0.337106 -0.854909 0.712267 0.493549 -0.979872 -0.494829 0.906656 0.606974 0.263672 -0.327763 -0.901998 0.650746 -0.024932 0.903300 -0.853847 -0.625650 -0.263709 0.761406 -0.966789 0.232658 0.136020 -0.627718 0.515388 -0.414520 -0.780071 0.797269 -0.706337 0.917049 0.372356 -0.474593 -0.814354 -0.290538 -0.329502 0.897912 -0.796989 -0.309373 -0.596917 -0.890333 -0.702399 0.666755 -0.218096 -0.604397 0.317502 0.756972 -0.701097 0.463655 -0.868678 0.035194 0.225061 -0.835467 -0.732148 -0.638918 -0.463185 0.783240 -0.053438 -0.243257 0.580508 0.240224 -0.326208 -0.047136 0.765632 -0.140562 0.662326 -0.563870 -0.242650 0.865337 0.126756 0.160433 0.975004 0.424357 -0.172811 -0.243092 0.819960 -0.855309 -0.486120 -0.881137 0.608346 -0.354798 0.154058 -0.166593 -0.190265 0.421910 0.194489 0.346550 0.205150 -0.858950 -0.896706 -0.214342 0.381275 -0.222914 0.738522 0.146906 0.636524 0.400849 0.583036 -0.606126 0.266186 -0.290207 0.554307 0.241190 -0.865850 -0.618504 0.998098 0.954110 -0.473814 -0.488022 -0.927027 -0.865468 0.157180 0.227031 -0.032061 0.966916 -0.351059 -0.837572 0.313466 0.854091 -0.696522 0.416760 -0.360251 0.684753 -0.806154 -0.621729 -0.168341 0.830370 0.779120 -0.585305 -0.775756 0.045306 0.124488 0.778551 -0.713504 0.258638 -0.839953 -0.715406 0.212748 -0.313766 -0.203428 0.285721 -0.179234 0.953753 -0.487247 0.788705 0.920668 0.161694 0.951133 0.234134 0.015785 -0.745389 -0.349106 0.655534 0.939364 -0.155260 -0.966195 -0.228976 -0.324891 0.812925 0.185719 -0.100647 -0.141770 -0.689793 -0.322096 0.144726 0.568845 -0.162049 0.429320 -0.218407 0.524185 -0.774108 -0.932685 -0.655049 -0.820355 -0.419933 -0.866344 -0.899687 0.741761 -0.915210 0.334447 -0.242454 -0.660599 0.985341 -0.586920 -0.721235 -0.169919 -0.553115 0.049789 0.505190 -0.740191 -0.764492 -0.595457 0.118039 -0.454285 0.082447 -0.737235 -0.885440 0.920399 0.692085 -0.103846 0.444584 0.917977 -0.036532 0.789535 -0.902378 0.543535 0.923191 -0.802065 0.285297 -0.992019 0.532382 -0.957157 -0.652618 0.517723 -0.544078 -0.373853 -0.652196 -0.097193 0.675936 0.852994 0.162616 0.911445 -0.742463 -0.719345 -0.542840 0.339984 -0.456579 -0.428280 0.260383 -0.764494 0.467874 -0.295034 -0.846517 -0.568658 -0.505499 -0.748895 0.974877 -0.582308 -0.550961 0.260174 -0.574327 0.981421 0.303016 -0.226945 0.499144 0.758939 0.399202 0.846948 -0.338254 0.075138 0.699942 0.824362 -0.013417 0.957479 -0.894983 0.443743 0.297463 -0.351562 -0.984537 -0.442154 -0.116056 0.483337 0.262812 0.037427 0.914679 0.757313 0.288532 0.889556 -0.824995 0.737571 0.149730 -0.399322 0.718992 -0.547253 0.373732 0.218137 -0.788315 -0.227066 0.065085 -0.126569 0.848072 -0.234973 -0.302207 -0.165345 -0.277494 -0.197189 -0.721602 -0.980031 0.451249 -0.706139 -0.422185 -0.664807 0.777198 0.840627 0.372619 0.691877 0.597939 -0.338849 0.581434 0.772944 -0.601278 -0.268836 -0.626378 -0.882286 0.183911 0.747355 0.335850 0.395596 -0.479711 -0.599065 -0.730973 -0.631639 0.165963 -0.033180 0.203016 0.888469 0.769631 0.481414 0.908438 0.220880 0.775275 -0.513747 0.556072 0.552474 -0.673120 -0.071309 0.244351 0.924819 0.589842 -0.174215 0.697764 0.988564 0.556949 -0.928614 -0.893722 -0.259140 0.818740 0.442128 -0.863545 -0.660971 0.843063 -0.594517 -0.292610 0.009026 0.372303 0.910407 -0.102505 0.141934 0.391821 -0.194067 -0.637186 0.167096 0.292186 0.918886 -0.280430 0.619066 -0.152423 0.963921 0.543886 -0.562580 -0.210294 0.241649 -0.574017 -0.653345 0.313035 -0.467739 0.087515 0.131776 0.974389 0.223970 0.470805 0.817452 0.629453 -0.821805 -0.173522 0.001756 -0.911398 0.723972 -0.856309 0.480423 -0.470095 -0.493496 -0.352481 0.822091 -0.574610 0.367089 0.441157 0.272968 0.331011 -0.014957 0.710387 -0.879283 -0.773307 -0.863629 -0.532628 0.539728 -0.331368 0.554887 -0.328496 -0.356979 -0.221143 -0.857691 -0.539527 -0.591689 -0.679496 0.286950 0.410067 -0.590894 0.010923 0.553757 0.889529 0.540828 -0.939738 -0.462952 0.362919 -0.514348 0.904137 -0.195923 0.758620 0.235148 0.789120 0.469007 0.355865 -0.984188 0.605377 0.823237 0.555540 -0.725991 0.378124 -0.772956 -0.082970 -0.843019 -0.630647 0.377502 -0.434708 -0.310143 -0.335547 0.975359 0.098963 0.675376 0.529116 -0.011508 0.216204 0.589378 0.525540 -0.420877 -0.924970 0.429677 0.383200 0.833650 -0.335175 0.172320 0.302656 -0.979310 0.188132 -0.091966 0.843926 -0.256328 0.182042 0.222050 -0.029284 -0.900928 0.379032 0.340069 0.476574 0.944324 -0.970073 -0.858973 0.919683 0.128890 0.816403 0.448799 -0.882618 0.032606 0.038177 0.642922 0.611729 0.113207 0.072599 -0.005071 -0.053143 0.737424 -0.832752 -0.750487 0.758114 0.355380 0.157547 0.602040 -0.900947 -0.660411 -0.175909 0.069769 -0.561339 -0.796877 -0.590161 0.915236 -0.852553 -0.560235 -0.943737 -0.932871 0.568655 0.872666 0.515928 0.686037 -0.094728 -0.445894 0.328959 -0.482999 0.667313 -0.598442 0.511930 -0.385830 -0.861018 0.679179 -0.136317 0.897096 0.034559 -0.978771 0.499137 0.133612 -0.639182 -0.676772 -0.796619 -0.200521 -0.473649 -0.386780 -0.285285 -0.326203 0.052985 -0.229022 -0.259073 -0.378360 -0.356357 -0.743145 -0.692324 0.548916 -0.189039 0.636635 -0.934083 -0.521726 -0.961807 0.577847 0.092443 -0.822824 0.257026 0.956126 -0.925728 -0.708415 0.977355 0.573409 0.425197 -0.661827 0.896637 0.628578 0.137653 -0.577013 -0.758202 0.852368 0.096785 0.294783 -0.376655 0.837711 0.916422 0.266989 -0.905434 -0.775902 -0.184096 -0.094473 0.860733 -0.118179 0.383801 0.898927 -0.540331 -0.523756 -0.923898 0.716695 -0.567631 -0.849626 -0.991720 -0.590276 0.723783 0.433477 -0.252103 0.620420 0.062055 0.885550 -0.956592 0.303853 0.737917 0.140193 -0.401364 -0.638737 -0.022096 -0.484942 0.628251 0.072470 -0.260844 -0.555844 0.977997 -0.400110 0.325977 0.361798 -0.501184 0.785646 0.838041 -0.425081 0.502341 -0.729589 -0.274707 0.510621 -0.319865 -0.550923 -0.055902 0.428032 -0.930503 -0.993847 0.313582 -0.887095 0.310007 0.051500 0.253098 0.908642 0.412762 -0.768999 -0.576300 0.041014 0.303472 0.162857 0.485170 0.281469 0.762746 -0.188853 -0.356733 -0.738437 -0.403207 -0.518692 -0.163519 -0.900867 -0.248281 0.561774 0.609754 0.431854 -0.989149 -0.446148 -0.140114 -0.919652 -0.439995 -0.826532 -0.806747 0.870012 0.224968 0.446351 0.778654 -0.362270 0.677352 -0.797646 0.678744 -0.019177 0.365211 0.163914 -0.737708 0.127957 0.975061 -0.094441 0.389520 -0.428146 0.386867 -0.773999 -0.329013 -0.861414 0.787775 -0.719259 0.570439 0.798626 -0.165407 -0.569675 0.878974 0.394598 -0.396207 -0.927773 0.264610 0.828761 0.518578 0.043264 -0.533508 0.195930 0.245619 -0.854764 -0.823247 -0.389170 0.309150 -0.560954 0.738787 0.284212 0.344604 0.128307 0.856066 -0.268529 0.354308 -0.472947 -0.129943 0.142083 -0.192206 -0.559504 -0.059291 0.642388 -0.129179 -0.180316 0.036986 0.474615 -0.108089 -0.698404 0.303376 -0.589511 0.344861 0.769868 0.606418 -0.409521 0.915105 0.783172 0.201309 0.224255 -0.777783 -0.059904 -0.491533 0.566822 -0.931597 -0.635468 -0.701707 0.422710 -0.108415 0.168350 -0.435207 0.699379 0.608846 0.505503 0.341767 -0.520332 -0.674814 -0.621247 0.954283 0.217097 -0.319651 0.257659 0.627586 -0.974790 0.027527 0.234004 -0.384311 -0.057368 0.017175 0.816998 -0.833113 0.239393 -0.242906 -0.324647 -0.193786 -0.174503 0.039885 0.104507 -0.751792 0.931470 -0.727143 -0.186999 0.630850 0.881703 -0.681497 -0.027384 -0.638629 -0.356310 0.351369 -0.684346 0.860786 -0.968282 0.573313 0.488372 -0.943072 -0.399160 -0.277624 -0.327383 0.543472 0.739551 -0.510385 0.710358 -0.021056 0.246709 -0.614288 0.785158 -0.927793 0.425597 -0.110335 -0.679586 0.357068 0.162522 0.133415 -0.012083 0.044226 0.451919 0.960534 0.405597 -0.904392 0.311903 0.721251 0.956395 0.343621 0.294563 0.444766 0.400549 0.895403 -0.832858 -0.926834 0.438875 0.906693 -0.437219 0.149233 -0.114363 0.809490 0.534945 -0.329205 0.881697 -0.039458 0.560461 -0.797889 -0.682391 -0.277017 0.335527 0.305526 0.767209 -0.212555 0.266060 0.172806 -0.116946 -0.422037 -0.105943 -0.160552 0.921584 -0.811380 -0.715785 0.322133 -0.915977 -0.548643 0.395299 0.522897 -0.641950 0.958080 -0.327870 0.243688 0.767570 -0.792925 0.914483 0.649267 0.167617 0.474943 0.851379 0.485226 -0.802073 0.186905 -0.209248 0.965136 0.974351 -0.943187 0.137942 -0.142596 -0.365224 -0.968002 0.696852 -0.443640 -0.779382 0.981067 0.878493 -0.695359 -0.567576 0.273792 0.827538 -0.209526 0.231872 -0.500332 -0.965838 -0.000558 -0.293257 0.948644 -0.351290 0.874360 0.423588 -0.499912 0.359586 0.621514 0.686993 -0.849662 0.586650 0.661344 -0.792849 -0.275409 -0.481252 -0.158074 -0.243410 -0.784400 0.398286 -0.022792 -0.803333 0.276779 0.281848 -0.370909 -0.449429 0.109386 0.419565 0.782443 0.609054 0.453726 -0.218115 -0.684203 0.402371 0.430595 -0.809843 -0.174041 0.930683 0.549743 -0.552527 0.617677 0.700081 -0.965877 0.279021 0.907232 -0.241286 0.797769 -0.250842 0.515304 -0.986631 -0.852556 -0.507488 -0.789964 0.424223 0.774360 -0.160873 0.974794 -0.116254 -0.741308 0.757237 -0.507200 0.712418 -0.460877 -0.191402 0.114789 0.969718 -0.001245 0.940747 0.900401 -0.451502 -0.611780 0.518077 -0.751422 -0.577657 -0.202902 -0.844190 0.181058 -0.405134 -0.095032 -0.303638 -0.391764 0.052412 0.188874 -0.181728 -0.523365 -0.036766 0.657399 -0.548570 0.846980 0.916091 -0.791333 -0.660220 0.628509 -0.252210 0.148378 -0.256702 -0.282493 -0.852867 -0.315955 -0.382092 -0.304370 0.072265 -0.864015 -0.055791 0.494609 -0.066917 0.100019 -0.324334 0.527949 -0.995013 0.372028 -0.863815 0.057399 -0.439098 -0.045544 0.534034 0.524136 -0.388145 0.985464 0.371115 -0.472054 -0.805869 0.710895 -0.843545 -0.058079 -0.140727 -0.100247 0.659428 0.006406 0.583798 -0.722664 0.702036 -0.343937 -0.586679 -0.353755 -0.849328 0.346404 0.746264 -0.173662 -0.125647 0.751251 -0.801633 0.010538 -0.191350 -0.240731 0.964994 -0.657316 -0.716596 -0.423151 -0.671852 0.654519 0.104796 -0.477721 0.365414 0.261251 0.464200 -0.775312 -0.838997 0.123628 0.231093 0.744801 0.400965 -0.066870 -0.599136 0.814286 0.579375 -0.448464 0.160690 0.325639 0.377874 -0.964957 0.076890 0.576241 0.045580 0.885540 -0.664491 0.010574 -0.771777 -0.381087 0.587424 -0.443629 -0.726567 -0.307781 0.078650 0.638847 0.953470 -0.457150 0.863535 -0.885527 0.666479 0.094628 0.859274 0.067443 -0.972242 -0.739862 -0.118271 0.607133 -0.188326 -0.957581 -0.067228 -0.810452 -0.922538 -0.990338 0.765789 0.123042 0.895201 -0.898702 -0.866384 -0.876575 -0.279789 0.721040 -0.320204 -0.006356 -0.586741 0.758446 -0.367509 -0.633271 -0.698704 -0.503975 -0.518798 0.967775 0.590653 -0.659523 0.035218 0.618411 -0.399385 0.916948 0.225544 0.412289 0.959367 -0.841684 0.601837 -0.963171 -0.832023 0.367626 0.159871 -0.936822 0.468923 0.293487 -0.813397 -0.810865 0.014528 -0.133601 0.182778 0.427787 -0.375155 0.815269 0.794516 -0.073859 -0.688706 -0.724281 -0.106084 0.901948 -0.383805 0.929135 0.520359 0.216810 0.846082 -0.254098 -0.370901 0.805449 -0.095782 -0.769064 0.842278 0.072195 0.598562 0.002149 0.135374 0.067486 -0.704364 0.321977 0.256620 0.310164 -0.811625 -0.560602 -0.262049 -0.186780 -0.745333 -0.467533 0.739361 -0.434038 -0.191814 -0.366723 -0.532091 0.424382 -0.437588 0.988268 -0.358808 -0.591506 -0.265830 0.270291 -0.786057 0.638388 0.501228 -0.943778 -0.289416 0.099790 0.058371 0.845957 -0.832724 0.354007 0.167934 0.423896 -0.335829 0.356309 0.863294 0.402122 -0.830470 -0.882039 0.934589 0.908891 -0.316077 -0.257224 -0.457832 0.151832 -0.832843 0.104580 0.140100 -0.191651 0.513074 0.874270 -0.921359 0.727018 0.512658 0.579869 0.783239 -0.776758 -0.320341 -0.158390 -0.930801 -0.153066 -0.804383 0.237133 -0.729170 -0.140212 -0.406557 -0.865876 -0.738090 -0.237028 -0.747915 -0.803501 -0.328137 -0.063992 -0.060725 0.214031 -0.912160 0.106432 -0.681389 0.227940 0.914781 0.831685 0.102210 0.993422 0.558703 -0.385131 0.573291 0.341942 -0.161889 -0.747051 -0.816448 -0.092690 0.099884 -0.620831 -0.855556 0.370713 0.238957 -0.262114 0.504837 0.500867 0.500859 0.756923 0.697366 -0.827278 -0.307069 -0.363359 0.386753 -0.219229 0.743073 0.705364 -0.991288 0.657855 0.537049 0.110922 0.651277 0.095752 0.725791 0.224568 -0.562305 -0.436098 0.477517 -0.378753 0.471212 -0.422600 0.000415 0.615655 0.948114 -0.760628 -0.646458 0.452951 0.740239 0.854400 0.209874 0.437605 -0.972878 0.902805 -0.925754 0.413875 -0.316424 0.817319 0.119239 -0.307712 0.475174 -0.343711 0.803210 0.126451 0.752041 0.529001 -0.648982 -0.810264 -0.907097 0.828535 -0.189018 0.564115 -0.594064 0.811398 0.179770 -0.645951 -0.949230 0.533312 0.807001 0.791008 0.387713 0.016875 0.228613 0.414835 -0.080321 0.302859 -0.171290 0.603255 0.120178 0.947949 -0.704457 -0.404648 -0.395762 -0.901247 0.721802 -0.643721 0.627754 -0.927180 -0.453985 0.720656 0.901355 0.356998 0.284771 -0.692709 0.168395 -0.535459 -0.338660 0.219165 0.997854 -0.531659 0.010173 0.385566 0.485216 -0.761214 -0.199599 -0.595105 0.541645 0.629111 -0.991850 -0.338177 0.577060 -0.696307 0.257175 -0.818702 -0.597554 -0.021023 -0.462422 -0.969801 0.051797 0.083593 0.750856 -0.046847 -0.559410 0.035627 0.260443 0.608986 0.500169 0.921784 -0.171849 0.498022 -0.609875 0.838324 -0.116412 0.875341 -0.922889 0.683989 -0.719765 0.618756 0.313100 -0.711615 -0.719421 -0.109840 -0.407922 0.537753 0.071458 -0.005476 -0.483270 0.609036 0.024724 0.568527 -0.307372 -0.224420 -0.478320 0.133219 0.811207 0.782123 -0.257795 0.311375 0.703907 0.570356 -0.190602 -0.905968 0.408680 0.692986 0.969373 0.485791 0.376975 
-0.750392 0.104547 -0.309926 -0.462007 0.385126 0.580234 0.130072 -0.077121 -0.348308 -0.875404 0.439610 -0.739273 0.149320 0.008137 -0.046644 0.924900 0.529817 -0.913426 0.736106 0.311940 -0.171221 0.047482 0.015847 -0.600865 0.856879 0.109879 0.807815 0.549865 0.079252 0.293606 -0.073160 0.328859 -0.601847 0.616914 0.866853 0.783279 0.197148 -0.003075 -0.293842 0.848839 0.121521 -0.854232 -0.890433 -0.729159 0.153905 0.062922 -0.804260 -0.316278 0.149497 0.931846 0.995662 0.978276 -0.020672 0.011509 -0.622589 -0.163792 -0.878612 -0.814774 -0.613927 0.200639 0.478832 0.312912 -0.470501 0.876985 -0.070174 -0.603649 0.660264 -0.873026 0.393276 -0.633578 0.975813 -0.485204 -0.487810 -0.914620 -0.214363 0.666095 0.148302 -0.018623 -0.650183 -0.702201 -0.086776 -0.654522 -0.723925 0.892552 0.356987 -0.346514 -0.271240 0.478374 -0.161288 0.114832 -0.320986 -0.682456 -0.572255 0.208512 -0.805471 0.357571 0.604863 0.854793 0.484545 -0.001861 -0.778785 0.460358 0.512936 -0.266595 0.545737 -0.701427 -0.600500 -0.305960 0.279950 -0.250683 -0.008161 -0.806826 0.094795 0.267914 -0.914275 -0.548218 0.921401 -0.185515 0.930157 -0.239887 0.929318 -0.390830 0.077657 -0.642938 0.817683 0.272187 0.714633 0.422546 0.126980 0.199178 -0.579315 0.348195 -0.340465 0.933621 -0.918400 -0.794727 -0.767806 -0.518899 -0.100687 0.512144 0.230418 0.891151 0.705317 -0.674787 0.159066 0.791043 -0.223005 0.080466 -0.394472 -0.292848 0.840579 -0.465155 0.316323 -0.081763 -0.108092 0.134005 -0.809577 -0.393459 -0.443449 0.317403 0.805719 -0.022764 -0.334402 -0.534746 -0.089143 -0.252802 -0.329473 0.143051 0.228298 0.569840 -0.344806 -0.541284 0.460991 -0.639489 -0.216071 -0.379943 -0.848446 0.560924 0.700523 -0.242918 -0.731924 0.541103 0.291927 0.584399 -0.540661 -0.816165 -0.281596 -0.350237 -0.209624 0.274955 0.967165 -0.403905 -0.747809 -0.367237 0.061349 0.163048 0.379961 0.731877 -0.693901 -0.391741 0.301716 -0.038707 0.066975 -0.237293 0.321804 0.850904 0.382764 0.473358 0.411828 0.083287 -0.769560 0.679904 -0.375610 0.522367 0.264303 0.083729 0.706202 0.982708 0.733492 -0.503422 0.257663 0.700657 0.092674 0.509854 -0.666580 -0.845977 -0.327098 0.713381 0.885900 -0.021000 -0.678360 0.187616 0.940293 0.388614 0.950323 0.262098 0.239518 0.333088 -0.264544 -0.348654 -0.583625 -0.034104 -0.668750 0.040765 -0.511737 0.595554 -0.875506 -0.805535 0.578261 0.857986 -0.308956 -0.164076 0.558643 0.783717 -0.654223 0.892064 0.937741 0.018679 0.605444 0.823640 0.997680 0.927084 0.011256 0.937973 0.315698 -0.038420 0.200071 -0.444784 -0.705333 0.935527 0.206562 -0.288958 -0.098577 0.537812 0.751807 0.389686 0.133366 0.876301 0.584151 -0.288373 0.734287 -0.724805 0.547551 0.292931 -0.941088 0.893328 0.184994 0.996653 -0.087993 -0.209561 0.820293 -0.090313 -0.282477 -0.168451 -0.152340 -0.966779 0.793129 -0.952269 -0.411563 -0.912204 0.983257 0.794998 -0.201162 -0.115320 0.332810 -0.449355 -0.725634 -0.533824 -0.573054 0.858517 0.177803 -0.838767 -0.866289 -0.274646 0.454164 -0.807376 -0.381317 -0.360842 -0.810724 0.530690 0.429597 -0.990431 -0.559623 -0.852881 -0.158882 0.288037 -0.819660 -0.365753 0.335767 -0.231224 -0.277957 0.319024 -0.436225 0.520880 -0.796296 0.896585 -0.928475 -0.521930 -0.637239 -0.501529 -0.663413 0.540565 -0.340296 -0.529702 -0.734081 -0.886133 -0.337078 -0.115398 -0.246975 -0.147802 -0.584708 -0.817378 -0.138233 -0.144332 -0.670259 0.702886 -0.856295 -0.489919 -0.662867 0.479472 0.278858 0.059175 -0.201503 0.842632 -0.419944 0.002201 0.739217 -0.348419 0.480271 -0.898021 0.150051 0.816857 0.642544 0.809755 -0.712845 0.908463 0.923622 -0.049923 -0.206936 -0.323352 0.802275 0.208356 -0.140730 -0.335958 -0.935976 0.189011 -0.633072 -0.792271 0.699092 -0.295939 0.687201 -0.022050 0.763236 -0.514302 -0.179418 -0.656708 0.487899 -0.440201 -0.005127 -0.031831 -0.338222 -0.855076 -0.214973 -0.695678 0.954679 0.072182 -0.787216 0.878301 -0.977741 0.005849 -0.445051 0.824534 -0.785796 0.414218 -0.511423 -0.721771 -0.396771 -0.144495 -0.514042 -0.697678 0.559566 -0.826841 0.280271 0.322802 -0.341144 -0.899147 0.666094 -0.853245 -0.339348 -0.339033 0.114924 0.322431 -0.194109 0.899951 0.626752 -0.239430 -0.027867 0.839536 -0.361129 -0.005607 -0.154615 0.193820 -0.181073 0.059589 -0.391961 0.307504 0.337818 0.211268 -0.836991 0.823775 0.513589 0.722575 0.996934 -0.206139 0.045377 -0.344210 -0.105286 -0.288529 -0.197455 0.555366 0.372437 0.917470 -0.122203 -0.821672 0.817421 -0.495451 -0.061101 -0.210446 -0.655914 0.577770 0.783946 0.189471 -0.228410 -0.397127 -0.750940 0.379629 0.910377 0.586878 -0.409104 -0.926614 0.410653 -0.895514 0.795961 0.407587 -0.101653 -0.158663 -0.936622 0.793060 0.552808 -0.134077 0.348427 -0.074755 -0.216607 -0.773776 0.103574 -0.399187 -0.269227 -0.957528 0.390367 0.074858 0.620242 0.174313 -0.735671 -0.608168 0.777187 -0.486611 0.771461 0.687564 -0.899734 -0.637643 0.760950 0.510920 -0.533157 0.556911 -0.081493 0.365190 -0.601751 -0.018115 0.158250 0.951056 0.847808 -0.493323 -0.123698 -0.368800 -0.267100 0.979876 0.232013 0.463673 -0.977652 -0.377620 -0.461469 0.642590 0.796694 -0.197140 -0.965578 0.573880 0.316249 0.805883 0.261445 0.416515 -0.831759 0.022395 -0.072565 -0.364916 -0.420694 0.845942 -0.999727 -0.022445 -0.172174 0.158523 -0.071388 -0.324366 0.665200 0.804913 0.306834 -0.601900 0.784789 -0.461153 0.861773 0.807137 0.161227 -0.599695 0.449727 -0.042079 0.203165 0.484149 -0.468198 -0.480586 0.290033 0.793246 0.935929 0.458273 -0.184359 -0.136636 -0.906643 0.394948 -0.290694 -0.906370 -0.627497 0.537132 0.252154 0.301114 -0.787234 -0.082646 0.106028 0.519600 0.315454 -0.109183 -0.941553 0.177227 -0.302046 0.219675 0.577532 -0.852319 -0.822404 -0.219303 0.631830 -0.290603 0.300111 -0.078137 -0.497356 0.236040 -0.619864 0.318285 -0.900596 -0.526507 -0.286767 -0.191290 -0.432876 0.085736 -0.654158 0.819278 -0.613150 -0.441392 -0.263369 0.492878 -0.921792 -0.947914 -0.616305 -0.863345 0.229313 0.081648 0.356329 -0.193155 0.229329 0.533925 0.587542 -0.138841 -0.756678 -0.112347 0.783022 -0.254034 -0.876308 -0.836842 -0.935749 -0.776904 -0.363349 -0.222516 0.031805 0.203775 0.863219 0.377647 0.023053 -0.749930 0.936255 0.759684 0.742948 -0.985537 0.811769 -0.873358 -0.848883 0.041082 0.208291 0.507447 0.847927 -0.562381 0.041372 0.435469 0.298778 0.284694 -0.676878 0.081800 -0.969340 -0.553186 0.244957 -0.905090 -0.330090 0.881608 -0.127606 0.701716 0.085383 -0.264387 0.079363 -0.891564 -0.014317 0.015618 0.868120 -0.271370 0.030081 0.679889 -0.144727 0.181198 -0.279028 -0.936437 -0.311355 -0.431101 -0.498817 0.730016 -0.995631 0.799961 0.014710 -0.672509 -0.118240 0.045370 -0.225695 -0.873283 0.140281 0.444215 -0.991674 -0.987325 0.145931 0.093709 -0.251712 -0.774706 0.202145 0.733971 0.240912 0.070265 -0.537399 -0.729007 -0.249846 0.317874 0.452191 0.471125 0.381437 -0.859165 -0.959976 0.882620 0.870852 -0.955607 0.682581 -0.114438 -0.628116 -0.435659 0.930932 0.146189 -0.308942 0.071213 -0.409596 -0.300616 0.083888 0.736335 0.793093 0.832176 0.961630 -0.004762 0.566147 0.202542 -0.934498 -0.971252 0.473535 -0.184344 0.346622 -0.074275 -0.713219 -0.271940 0.066561 -0.673194 -0.389320 -0.062588 -0.628801 -0.706740 0.822975 -0.256918 -0.142399 0.753907 0.889271 0.548659 -0.174880 -0.520325 -0.751957 0.909008 -0.783990 -0.958864 0.741183 -0.822360 0.036373 0.307330 0.380181 0.101876 0.336078 -0.146284 0.917532 -0.317300 0.779441 -0.795687 0.410760 -0.153998 -0.468881 -0.978560 0.783414 -0.097682 -0.685300 0.606389 0.645400 0.172301 0.360296 0.534671 -0.279040 -0.814585 -0.985654 -0.030997 -0.905577 -0.769644 0.010139 0.835606 -0.592005 -0.953488 0.142936 0.788177 0.148388 -0.520986 -0.358107 0.065920 0.161714 -0.578666 0.270233 -0.427526 0.267335 0.801352 -0.406086 0.050750 -0.296330 -0.091387 -0.342862 -0.650930 -0.919086 -0.982566 0.883741 -0.198126 -0.797151 0.898086 0.770877 -0.702728 -0.871558 -0.218984 -0.867122 -0.463563 -0.172471 0.275814 -0.675386 0.975917 0.754828 -0.033494 0.041836 -0.083457 0.387840 -0.687931 0.489017 -0.344825 -0.886579 -0.917070 0.705925 -0.182909 -0.008457 -0.636937 0.166161 0.072458 -0.619503 0.049901 0.874332 -0.416654 -0.052012 0.645210 -0.119382 0.076429 -0.573774 0.013496 0.612866 0.253754 -0.710690 0.937480 0.229671 -0.955862 -0.096014 -0.728493 -0.039319 -0.708174 -0.416423 -0.550303 -0.052999 -0.303002 -0.467373 -0.347074 0.514089 0.524171 0.015989 -0.319750 -0.403371 0.396486 0.730152 -0.529039 0.979831 -0.321861 -0.883829 -0.139551 0.754569 -0.457603 0.873945 0.367435 0.796151 -0.836745 0.304915 0.025822 -0.792607 -0.791099 0.297329 0.168074 -0.499273 0.880906 0.617772 0.447729 -0.422096 -0.849601 -0.899345 -0.908006 0.674570 0.116644 -0.227756 -0.728801 -0.486870 -0.497604 -0.257840 -0.507039 0.180535 -0.141669 0.353410 -0.064896 0.400727 0.227355 -0.697461 0.196878 0.390610 0.607454 -0.777300 0.598003 0.816356 0.520029 -0.233922 -0.682917 0.400936 -0.616151 0.764812 0.978840 -0.465752 0.865466 -0.929166 -0.791182 -0.017890 -0.156922 -0.519983 0.495240 0.345474 0.222177 0.988201 -0.473990 -0.919492 0.341611 0.461114 0.481235 -0.431034 0.763653 -0.321887 0.959576 0.371108 -0.099187 0.557579 0.187463 -0.579158 -0.676343 0.504546 0.821778 -0.292494 0.269358 0.800618 0.241755 0.134824 0.871452 0.450573 -0.883066 -0.285470 0.930590 0.612173 -0.939995 0.152767 0.600374 -0.413986 0.233275 -0.058015 -0.952872 -0.285490 0.510951 0.810782 0.392623 0.470526 0.181889 -0.706564 0.028105 -0.630647 -0.285721 0.351762 0.873899 -0.463943 -0.940732 0.143257 -0.663325 0.301023 -0.721919 -0.791873 -0.248404 -0.604985 -0.077343 -0.317814 -0.992811 -0.017338 0.834954 0.607563 0.568676 0.068229 -0.450453 0.615805 0.782739 -0.939502 0.426587 0.175362 0.531024 -0.391524 0.468798 -0.440870 -0.022171 -0.816923 0.910892 -0.148272 -0.280867 0.970160 0.994985 0.055808 0.271183 -0.726934 0.263935 -0.977221 -0.331919 -0.813408 -0.295035 -0.324730 0.169254 -0.460081 -0.717167 -0.262070 0.608148 -0.167620 -0.646265 0.390887 -0.107122 0.780322 -0.433751 -0.576098 -0.611202 -0.964953 -0.016969 0.366627 -0.781876 -0.106077 -0.781645 -0.062743 -0.135916 -0.786660 0.993065 -0.864733 -0.513594 0.257000 -0.841954 0.154488 0.443592 -0.136989 0.829758 -0.387154 0.402931 -0.887410 0.350776 0.011079 -0.055030 0.704511 -0.598034 0.837848 0.484833 -0.031785 -0.738250 0.873631 0.003263 0.244781 0.240257 0.221387 -0.861295 0.458612 -0.841356 0.002788 0.671952 -0.848291 0.138055 -0.841642 0.408710 0.296101 0.312846 -0.147698 -0.840888 0.142604 0.465148 0.562043 0.255194 -0.184076 -0.426878 -0.799836 -0.479565 -0.024912 -0.961987 -0.994732 0.943303 -0.700237 0.878899 -0.053434 0.544544 0.119156 -0.832047 0.683249 -0.422232 -0.673403 -0.313963 -0.750280 -0.521693 0.824092 -0.591922 0.887016 0.120193 0.720924 -0.260682 0.279305 -0.136473 -0.795535 -0.158652 -0.881279 0.020389 0.414470 -0.681114 0.540824 -0.610442 -0.643102 0.546092 -0.667139 -0.343339 0.424990 0.279427 -0.798795 -0.455854 0.447380 0.884454 0.121914 0.773977 -0.429510 0.371633 -0.747716 -0.605418 0.779711 -0.860700 0.514775 0.500634 -0.121383 -0.205920 -0.635838 0.083083 0.635428 -0.517117 -0.896528 0.049898 -0.198231 0.644295 0.439456 0.158667 0.190387 0.772317 0.815328 -0.384623 0.051744 -0.983467 0.159523 -0.500875 0.900987 -0.718563 -0.726898 -0.528523 0.653070 -0.474614 -0.133941 0.432781 -0.335314 -0.619166 -0.066585 0.543303 0.174913 0.297577 -0.373614 -0.189659 0.780460 -0.270143 0.860239 -0.417771 -0.625847 0.299695 0.740896 0.564540 0.072012 0.556224 -0.820083 -0.876244 0.572757 0.339441 -0.377119 0.473744 0.620878 -0.104017 0.945221 0.273948 0.421369 -0.188719 -0.293271 -0.913946 0.192114 0.640144 0.629357 -0.632972 -0.062279 -0.744257 0.177369 -0.281819 -0.014400 0.037608 0.300409 0.359753 -0.662697 0.041305 -0.075708 0.409315 -0.402471 0.104209 0.533071 -0.829713 -0.556350 -0.844047 0.644031 -0.935472 0.051936 0.589253 0.338476 -0.526696 -0.599467 -0.954795 -0.440642 0.592648 0.685349 -0.811284 0.959675 -0.376930 -0.555542 0.137044 0.341251 0.430058 -0.825348 -0.358339 -0.210189 -0.488045 0.682966 0.714103 0.921270 -0.719505 -0.181687 0.454341 -0.549218 0.261963 0.610294 -0.905186 0.326491 -0.337771 0.684066 -0.335033 0.135534 -0.915400 -0.289828 0.694892 0.677247 -0.604479 0.883608 0.636923 0.018591 -0.671934 -0.226033 -0.640158 0.758125 -0.051381 0.001503 -0.452064 0.460574 -0.315531 -0.737961 0.381844 -0.035036 0.080351 -0.163815 0.415746 -0.657686 -0.553521 0.510560 0.668805 0.108708 0.194626 -0.666229 -0.755758 0.279226 0.043943 0.939134 -0.043527 0.439463 0.822742 -0.406604 -0.541946 -0.849192 0.367362 -0.182103 0.908933 -0.684019 0.819399 -0.543132 0.776555 -0.496132 -0.281093 0.158399 0.468832 0.799258 0.994584 -0.115421 -0.858428 -0.558937 -0.604861 0.810377 0.549771 0.589765 -0.855852 0.794013 -0.131009 0.188091 0.733147 0.825464 -0.372446 0.555889 -0.581140 0.085609 0.706697 0.786222 0.903505 0.615630 -0.897796 0.722905 -0.927502 0.878759 -0.773227 -0.208596 0.037158 0.695605 -0.409337 0.031742 -0.419817 -0.267765 0.472804 -0.024678 -0.457389 0.022576 -0.434913 -0.313241 -0.183411 0.434078 0.874850 -0.450264 0.259542 -0.497596 -0.894375 0.678402 0.588013 0.812322 0.464624 0.491518 0.427952 0.566828 0.214423 0.500449 0.445586 0.441195 -0.708146 -0.517256 0.136800 -0.117484 0.514486 0.716983 0.614751 -0.012710 -0.307695 -0.842638 -0.990134 0.257392 -0.155879 -0.173545 -0.308530 -0.281029 0.376191 0.951012 0.221375 0.481816 0.629414 -0.190612 0.294138 0.094038 -0.699094 -0.277911 -0.339135 0.515328 -0.777461 -0.893548 -0.043476 -0.485608 -0.410804 -0.906676 0.396909 -0.896319 0.810307 0.011660 0.090971 -0.497387 0.169022 0.100837 0.760005 -0.986857 0.927292 -0.548525 -0.267886 0.303483 -0.597513 0.953490 -0.214702 -0.968100 -0.237123 -0.920564 0.125938 0.063783 -0.198474 0.786803 -0.420888 0.024064 0.893255 0.535636 0.538457 -0.517549 0.628960 -0.064634 -0.413867 0.439267 0.947025 0.677104 0.941880 0.116047 -0.222059 0.701885 0.129190 -0.294767 -0.846640 0.861305 -0.991284 -0.444154 0.814794 -0.205986 -0.412253 -0.422328 -0.126549 0.713685 0.641455 0.674976 0.500488 -0.779433 -0.300959 0.393744 0.756203 -0.762502 0.876195 0.385162 0.172863 -0.537673 -0.175571 0.119889 -0.860568 -0.233691 -0.764064 -0.082627 -0.531807 0.365126 0.622606 -0.378447 0.226431 0.631322 0.177399 0.041226 -0.574663 0.765146 0.618897 0.298787 0.478831 0.260353 -0.026236 -0.020681 0.480919 0.672804 -0.626937 0.237122 0.910302 -0.750742 -0.377716 0.083165 -0.288415 0.446713 -0.796946 -0.148983 -0.786978 -0.561011 0.768390 -0.318785 0.804116 0.390996 0.302768 0.030547 0.022319 -0.519832 -0.928227 0.447655 -0.754686 0.690670 -0.253557 0.724145 -0.048978 0.720206 -0.296536 -0.568058 0.393010 0.076526 0.669064 0.303312 0.325784 -0.708652 -0.613523 -0.962631 0.738061 -0.410470 -0.111614 0.951082 0.028520 -0.343224 -0.367703 -0.167364 -0.952228 0.935066 0.863183 0.070090 -0.584767 0.934955 -0.482254 -0.339453 0.625625 0.264188 -0.615308 -0.423353 -0.015606 0.088155 0.008589 -0.622595 -0.835318 -0.322347 0.680716 0.490466 -0.030999 -0.932807 0.527835 -0.292938 -0.343276 -0.583779 -0.341856 0.685243 0.072996 0.290442 -0.482121 0.120768 0.225507 -0.618938 -0.809142 0.640740 -0.683983 -0.291396 -0.698713 0.941642 0.972792 -0.314021 -0.481711 -0.042814 0.774134 0.526879 0.334591 0.938816 -0.795468 0.015307 0.429282 0.173533 0.082501 -0.042883 0.880595 0.739224 0.373338 -0.461261 0.424468 -0.553666 0.829181 0.942347 0.567102 0.054688 -0.676592 0.757960 -0.304572 -0.360575 -0.533436 -0.003284 -0.418933 -0.560644 0.682695 0.099356 0.396543 0.456829 -0.373765 -0.268866 0.395646 -0.169233 0.746441 -0.175072 -0.995700 -0.171058 0.782045 0.884895 -0.431834 0.155383 -0.576366 0.992634 0.601717 -0.747186 0.934981 0.168819 0.307502 -0.741611 -0.073221 -0.997069 -0.102186 0.393343 -0.000354 0.478881 0.832700 -0.317659 -0.421762 0.229242 -0.860830 0.204473 0.960376 0.534816 -0.964760 0.706817 -0.640257 -0.960460 -0.464242 -0.858211 0.924434 0.103924 0.297172 -0.651932 0.096558 -0.101111 -0.399117 0.031539 -0.932292 0.908385 0.289928 -0.005512 0.911315 -0.812258 -0.612169 -0.089039 0.666623 -0.779469 0.593302 -0.755139 0.449773 0.732472 0.449334 0.410149 0.267288 0.484573 0.116966 0.627031 0.524113 0.652724 0.768820 0.448547 -0.243351 0.065992 0.796616 0.853207 0.964881 -0.602502 -0.115255 -0.967411 -0.694117 -0.825327 0.027077 -0.782802 -0.637585 0.414908 0.128160 -0.970962 0.635439 -0.278538 -0.726101 0.085212 -0.546066 0.723232 -0.504639 0.721222 0.207806 0.612327 0.348253 -0.268081 0.265051 0.117073 -0.819534 -0.978301 -0.816935 0.977082 0.874906 -0.852054 -0.625420 -0.240348 -0.819464 -0.319537 -0.065675 0.207613 -0.102338 0.296739 -0.377479 -0.974178 0.325778 -0.742040 -0.252716 0.599676 0.343172 0.201218 0.322909 0.838533 -0.077560 -0.469286 0.450860 -0.729307 0.262633 -0.284089 0.387766 0.443099 -0.262390 0.570831 0.420181 -0.387484 0.718778 0.794762 0.372168 0.899313 -0.524775 -0.693508 0.106926 0.372887 0.603232 0.729447 0.398708 -0.070991 0.987408 -0.854008 -0.471314 0.330580 0.347210 0.851595 0.169113 -0.730351 -0.617691 -0.380027 -0.459657 0.644942 0.335883 0.928109 0.088042 -0.926507 0.498940 -0.491777 -0.313990 0.217718 -0.697015 -0.941823 0.117031 -0.221791 -0.635330 -0.776042 -0.848904 0.967902 0.953405 0.549804 -0.103089 0.940813 0.695796 0.425597 0.271392 0.043005 0.277191 -0.559495 0.312655 0.659501 0.060478 0.852997 0.304443 -0.603638 0.781106 -0.607516 -0.530145 0.280046 -0.099293 0.155865 -0.502236 0.203692 0.214042 0.614796 0.981901 0.578712 0.838753 -0.867003 0.546614 0.792158 0.682801 -0.556475 0.732971 0.378597 0.869122 0.004364 -0.578398 0.146313 0.444869 0.734257 -0.194186 -0.494653 0.587254 -0.889744 -0.098291 0.368361 -0.497259 0.371564 -0.351593 0.403448 -0.472572 0.146171 -0.392860 0.741471 -0.239033 -0.410959 0.320182 -0.400279 -0.277961 -0.133204 -0.608121 -0.595160 0.310321 -0.875150 0.783437 0.179442 0.129214 -0.794961 -0.674244 -0.425917 0.939296 0.131569 0.079430 0.526550 0.241826 0.981139 -0.105089 0.744566 0.352702 0.543318 0.148014 0.880131 -0.310510 0.755154 0.621601 0.450457 -0.655804 -0.058216 -0.949823 0.066234 0.808580 -0.557944 0.471074 0.118901 -0.433094 0.254511 -0.701657 0.696120 0.459550 -0.375901 -0.729797 0.398846 0.755668 0.349632 -0.074604 -0.002507 0.330771 0.820307 -0.257940 -0.316527 0.363626 0.890074 -0.436396 -0.946885 0.645229 -0.814794 0.503572 0.989425 0.126990 0.553749 0.055659 -0.064430 0.995806 -0.473267 -0.945530 -0.437288 0.781244 -0.647186 -0.741168 0.240793 -0.023088 -0.470965 -0.360361 -0.267420 0.878668 0.565035 0.730074 0.209439 0.385342 -0.527867 0.892912 -0.251032 -0.637792 -0.543484 -0.197917 -0.992564 -0.358278 -0.694345 0.996861 0.768712 0.859405 0.052520 -0.295719 0.855210 0.579252 -0.241248 -0.582077 0.360496 0.111565 -0.323245 -0.398711 -0.911522 0.205790 0.240928 -0.178942 0.084458 -0.194037 -0.448868 -0.706103 -0.808695 0.023265 -0.813191 -0.059727 0.385473 -0.356675 0.742356 0.392909 0.285047 -0.951988 0.389770 0.053759 0.907416 -0.557710 0.758040 0.762627 -0.978458 -0.483208 -0.819451 0.382038 0.628357 -0.142695 0.983327 0.716835 -0.936905 0.224255 -0.462107 0.147553 -0.969782 0.089025 0.441449 -0.778477 -0.887710 0.628258 0.161797 0.497763 -0.728417 -0.095847 -0.109328 0.556630 -0.047835 -0.719558 -0.389611 -0.140419 -0.277268 -0.631571 -0.377793 -0.255726 -0.114779 -0.197243 -0.873688 -0.486422 0.660061 -0.890361 -0.769587 0.723156 0.333894 -0.231694 -0.129291 0.364112 0.857331 -0.687842 0.585635 0.969622 0.940416 -0.252568 0.467385 -0.788001 0.651585 -0.641942 0.768629 -0.396250 -0.361500 -0.620982 0.463331 0.361232 -0.252554 -0.914462 -0.894494 0.632667 -0.111705 -0.768182 -0.853755 -0.451644 -0.658543 -0.623342 -0.728488 0.675351 0.144964 0.142221 0.039463 0.002296 0.454379 -0.374901 -0.028083 0.394795 0.372531 -0.560697 0.606794 0.024116 -0.202640 0.375423 0.627866 0.435860 0.754441 0.091197 -0.202908 -0.498113 0.176735 -0.097402 -0.865446 -0.934971 0.134417 -0.719201 -0.386615 0.475874 -0.342544 -0.115103 0.151225 0.802420 -0.972882 -0.809312 -0.195284 0.481497 -0.184213 0.776633 -0.123708 -0.811682 -0.784064 -0.516914 0.212434 0.013296 0.858510 -0.159700 -0.550844 0.612951 0.931497 0.246248 -0.885162 0.108232 -0.851153 -0.750608 0.173261 0.283263 -0.469809 0.786646 -0.240863 0.187647 -0.328457 0.910362 -0.009932 -0.301340 -0.898949 0.794783 -0.819843 -0.083162 0.571417 0.056449 0.105156 0.787353 0.539535 -0.682410 -0.199352 0.398045 0.157891 0.249805 0.010996 0.089388 -0.503947 0.125834 -0.802380 -0.355100 0.375226 0.370881 0.928163 0.905417 0.157527 -0.312700 0.093064 0.829069 -0.402337 -0.916868 -0.472270 -0.301287 0.877916 -0.292113 0.615551 0.449332 0.764335 -0.279293 0.236685 0.303871 0.038297 -0.962667 -0.298084 -0.803813 0.287138 0.712912 0.285575 0.783191 -0.161254 0.483195 -0.571909 -0.786027 -0.145925 -0.643746 -0.880610 -0.988398 0.043555 0.212455 0.840671 0.641217 0.295587 -0.631599 -0.660070 0.173502 0.076288 0.955481 -0.377166 -0.159377 -0.323812 0.859519 -0.855506 0.714485 0.896852 -0.153590 0.910672 0.183990 -0.440678 0.196247 -0.032819 0.398068 -0.320558 0.395272 0.612041 0.533518 0.751526 0.731431 0.545120 -0.204919 -0.056114 0.385791 -0.563702 -0.760528 0.754192 -0.223772 0.412974 -0.169520 -0.268290 -0.964191 0.671103 0.407897 0.895328 0.815597 0.122382 0.792180 -0.337993 0.033054 -0.023830 0.221329 -0.770698 0.943352 -0.380603 -0.091256 0.338624 -0.768562 -0.557739 0.090150 0.962869 0.987381 0.885230 -0.093245 0.373172 -0.678472 0.146227 0.127364 0.097757 -0.440799 0.957844 0.829466 -0.404990 0.628947 0.237364 -0.509663 0.444544 -0.640254 -0.717483 -0.893449 0.392800 0.258688 0.327879 0.622102 0.202039 0.947276 -0.469155 -0.459337 -0.821286 -0.026893 0.630812 -0.858416 -0.039513 0.516043 0.048338 -0.666341 0.837571 -0.805435 0.461024 -0.064672 -0.246233 0.418868 -0.235206 0.348776 0.047815 -0.997843 0.839114 -0.507641 -0.638097 -0.878369 -0.401090 0.754703 0.380319 0.926789 0.376805 -0.417642 0.874065 0.907650 0.123021 -0.947220 -0.119243 -0.246167 -0.805637 0.841244 -0.730124 0.242702 -0.825096 -0.892553 0.437267 0.635928 0.042775 -0.808966 0.054795 0.807569 0.539810 -0.897390 0.809726 0.378924 -0.405031 -0.828370 0.500555 0.193879 0.926333 -0.119126 0.120668 0.303138 0.463232 -0.005267 0.210788 -0.413748 0.047513 -0.908455 0.340085 0.241876 0.932790 0.609962 -0.515422 -0.892306 0.717409 0.921845 0.743621 -0.239816 -0.887121 -0.201583 -0.432247 0.652689 -0.098973 -0.622520 0.031612 0.495996 -0.450891 -0.467833 -0.310125 -0.524558 0.413041 0.810543 0.778580 -0.123728 -0.194724 -0.010632 0.462524 0.852789 0.080913 -0.197390 0.094666 0.013703 -0.587429 0.579244 0.121397 -0.870020 0.501089 -0.134982 -0.109835 0.613967 0.663434 0.457918 0.266656 -0.435539 0.835397 -0.701732 -0.939542 -0.615493 -0.169565 -0.249667 -0.140051 -0.756524 -0.439124 -0.361472 0.119748 0.366152 0.627896 -0.417728 0.218941 -0.291190 0.384882 -0.686393 0.722513 0.797454 0.892851 -0.156091 0.927434 0.393939 0.708927 -0.182401 0.007907 0.372361 -0.724484 -0.725437 0.936823 -0.889086 -0.427169 0.997280 -0.504580 0.403267 -0.252387 0.355369 0.646742 0.308489 0.993897 -0.233510 -0.325359 0.621794 0.348763 0.893583 -0.669397 -0.266355 -0.792810 -0.946884 -0.468902 -0.899960 -0.102975 -0.541468 0.493980 -0.394048 0.276131 -0.498113 0.978314 0.551647 -0.223550 0.915136 0.662561 0.349281 0.912417 -0.842018 -0.247453 -0.339970 0.513351 -0.600710 0.968519 0.507248 0.165780 -0.356839 0.129042 -0.485457 -0.463257 0.459645 0.248187 -0.256067 0.512761 0.779285 -0.156027 -0.590214 -0.762182 -0.662047 0.015739 0.513948 -0.160160 -0.005948 0.065596 0.616289 -0.090811 -0.271843 -0.034430 -0.178394 -0.113861 0.718118 0.481636 -0.600511 -0.882593 0.450155 0.906738 0.283187 -0.906684 0.035779 0.797730 -0.369941 -0.504576 0.045917 0.373992 -0.991814 -0.174798 -0.782035 -0.582028 0.063020 -0.444082 
0.433711 -0.423032 0.395758 -0.572237 0.642564 0.012047 0.336952 -0.629279 0.977617 -0.841442 0.256860 0.695735 0.640194 0.656350 0.813142 0.090349 0.563087 0.096329 0.183665 -0.401134 -0.105941 0.813724 0.094291 0.939976 0.187716 0.102476 -0.234821 0.405681 0.520448 0.828199 0.961599 -0.045841 -0.594833 0.357356 0.381922 -0.952269 -0.630597 -0.281126 -0.581547 -0.652980 -0.122568 0.675313 -0.957246 -0.482374 0.331662 0.855896 0.607975 -0.105251 -0.047774 -0.208360 0.493616 0.846285 -0.394636 -0.412094 0.786261 0.793079 0.690383 -0.448560 0.198760 0.210831 -0.620361 0.160359 -0.835010 -0.215194 -0.482285 0.546912 -0.167463 -0.112882 -0.734214 0.250990 0.234138 0.143218 -0.073698 0.276892 0.660844 -0.742035 0.132789 0.268819 0.152714 -0.914986 -0.939541 -0.353670 0.931299 -0.334177 0.234236 0.717560 -0.541098 -0.075381 -0.731000 0.657662 -0.864550 -0.351361 -0.181979 -0.699560 0.433445 0.335735 0.847352 -0.734018 -0.777147 -0.886862 0.516972 0.456991 0.256357 -0.556726 -0.266117 -0.082799 -0.298761 0.866672 -0.813980 0.853953 0.951686 -0.753521 -0.499717 0.882985 -0.087698 0.734519 0.600546 0.371204 -0.340863 0.869546 0.028866 -0.205413 -0.481815 0.846886 0.095026 0.951630 0.182622 -0.057622 -0.782389 0.405475 0.055516 0.734583 -0.137534 -0.688127 -0.822143 0.596349 0.229074 -0.120904 0.463021 0.415094 -0.266951 0.414707 0.661574 0.233331 0.297693 -0.426125 -0.032150 -0.101762 0.945079 0.626987 -0.232216 -0.026055 -0.578426 0.285969 -0.179169 0.516600 0.237599 -0.996548 -0.541021 0.455210 0.408927 0.514495 0.189793 -0.728607 0.826368 0.367650 0.867743 0.055443 -0.753254 0.330764 -0.529463 -0.020205 -0.254528 -0.867889 -0.786874 -0.956836 -0.294014 0.180976 -0.058598 -0.348935 -0.192037 0.709186 0.625010 0.229537 -0.004845 -0.554160 -0.253862 -0.767246 -0.550708 0.205116 0.687964 0.858220 -0.280388 -0.122243 -0.870387 -0.454020 -0.754593 0.997356 0.601423 -0.507847 0.328120 -0.928040 0.471948 -0.926408 -0.795930 0.685074 -0.883244 -0.089944 -0.133950 0.058158 0.561122 0.674013 -0.232656 0.186131 -0.096450 0.762499 0.631972 0.649687 0.995253 -0.918736 -0.145196 0.683216 0.939484 0.574415 -0.439027 -0.930903 -0.879605 -0.193620 -0.933547 0.721818 0.298533 0.394573 0.793778 -0.229519 0.468164 0.997848 -0.544445 0.584920 -0.092096 0.321605 -0.356922 -0.530974 -0.004383 0.410422 0.655157 0.899167 0.172921 0.287129 0.548854 0.168174 0.368393 -0.596342 -0.148609 0.307877 0.978073 0.412364 0.376973 -0.901531 -0.781256 0.443426 0.820286 0.517277 -0.162001 0.614064 -0.712242 -0.693837 0.611912 -0.256687 0.891083 -0.480184 -0.935082 -0.465839 -0.011158 0.060535 0.944583 -0.356001 -0.040298 0.117505 0.931128 -0.491444 -0.714321 0.299521 -0.087785 0.137070 -0.392602 -0.109712 -0.450567 0.984371 -0.011244 -0.231822 0.427797 -0.190957 -0.714545 -0.734204 -0.576893 -0.426787 -0.428041 -0.964981 0.316526 -0.536958 -0.445165 0.381444 -0.002796 0.543677 -0.558021 -0.058213 -0.812324 0.401681 -0.940708 -0.881195 0.910238 -0.655029 0.418326 -0.177548 0.482041 -0.974276 0.712740 -0.968526 -0.989905 -0.298504 -0.200348 0.437892 0.510539 0.085106 0.703688 0.933646 0.658320 -0.724353 0.968665 -0.025154 -0.261311 -0.476501 -0.643710 0.735893 -0.932824 -0.201731 -0.322320 -0.745147 -0.800050 -0.263028 -0.626342 -0.889812 0.081943 0.791983 -0.067360 -0.436016 0.817707 -0.354620 -0.404542 0.827802 0.346876 0.395109 0.265694 -0.142585 -0.519784 -0.030618 -0.208939 -0.861465 0.245029 -0.240274 0.113381 0.983719 0.283225 0.469671 0.719612 0.350402 -0.732060 -0.602708 0.605254 -0.532110 0.134264 0.978912 -0.421922 -0.783793 0.770895 0.510717 -0.219810 0.588602 -0.843903 0.375648 0.416404 0.502973 -0.229242 -0.317902 -0.639611 0.250973 0.651480 0.151450 0.389509 -0.103491 0.911176 -0.497110 -0.119772 0.194401 0.972561 -0.400160 -0.455197 -0.759499 -0.002869 -0.849943 -0.291609 -0.868605 -0.871031 0.286469 -0.652398 0.899864 -0.202814 0.127793 0.488467 -0.046717 -0.496559 -0.095129 -0.543743 0.274198 0.586970 -0.183355 -0.474828 0.238450 0.968095 0.914681 -0.865041 0.879271 -0.582429 0.015187 0.073673 -0.609868 0.615027 0.618475 -0.369366 -0.387842 0.768533 0.339025 -0.256447 0.897502 -0.374506 0.091155 0.797366 0.422680 -0.781052 0.285833 -0.624037 -0.277611 -0.809295 -0.167780 0.996587 0.777674 0.648865 -0.478241 0.016124 0.616960 -0.563560 0.151083 0.496231 -0.145989 -0.833729 -0.430096 0.244144 0.781297 -0.811621 0.874777 -0.606544 0.956912 0.213802 0.137009 0.854414 0.839296 -0.771836 0.651781 0.261976 -0.552887 -0.062386 0.637939 0.169501 0.128319 -0.529841 0.166089 -0.094007 -0.880976 0.687848 0.922117 0.735984 -0.875712 0.073201 0.232216 -0.021700 0.239471 0.802119 -0.777557 0.020769 0.990499 -0.902780 0.414224 0.947411 0.311022 -0.448767 0.801825 0.150318 -0.220602 0.453606 -0.587707 0.226510 -0.608780 -0.949768 -0.603988 0.519539 -0.479609 0.562101 -0.574468 -0.360585 0.249949 -0.652351 -0.624601 0.374237 0.420850 0.607615 -0.647463 -0.339679 0.409734 -0.425020 0.681089 0.400233 -0.327800 0.095314 0.347645 0.983223 0.646547 0.149470 0.133540 -0.574055 -0.396924 0.545834 0.652455 -0.005704 0.596066 -0.951533 -0.486165 -0.883542 0.610568 -0.060633 -0.244127 -0.139483 0.287016 0.131272 -0.765246 -0.292134 -0.261113 -0.412709 0.368186 -0.851378 0.162272 0.049276 0.548855 0.834472 -0.855411 -0.103500 0.817695 0.791136 -0.954030 -0.048765 -0.782919 -0.350954 -0.502931 0.869536 0.643342 -0.906865 0.918004 -0.842823 -0.790407 0.528571 0.096544 -0.034535 -0.610912 -0.616440 -0.903262 -0.376157 0.091426 -0.164375 0.211134 -0.540388 -0.015754 -0.626594 0.508888 -0.466899 -0.792122 0.653477 0.429601 -0.974428 0.444614 0.475570 -0.023193 0.661695 -0.875384 0.473876 0.531231 0.767958 0.567011 0.449235 0.925135 0.776603 -0.022194 0.021680 -0.257931 0.366895 0.405240 -0.161194 0.990737 -0.503334 0.674431 0.201871 -0.043721 -0.341323 0.575277 -0.534833 0.191778 0.783155 -0.881356 -0.378621 0.808727 0.563258 -0.903050 -0.214466 0.224953 -0.778434 -0.740590 -0.243816 0.989524 0.826421 -0.794581 0.914659 0.603024 0.183226 -0.063661 -0.654908 -0.449879 -0.658421 0.183899 -0.459142 -0.161754 -0.141671 0.742729 0.794525 0.517006 0.318007 -0.740309 -0.291216 0.101161 -0.621665 0.330164 -0.090112 0.941593 0.427113 0.695422 0.166546 0.648679 0.954832 0.922730 0.638203 0.781253 -0.871850 0.552862 0.384277 0.311376 -0.510799 0.729369 0.861496 -0.169219 -0.086732 -0.597646 0.669026 0.771597 -0.854916 0.463551 0.288603 0.463090 0.723242 0.997388 -0.435749 -0.898422 0.327551 0.474140 -0.956829 -0.245335 0.169562 0.209717 -0.596657 0.124395 0.132447 -0.958454 -0.094352 0.260597 0.594408 -0.710075 -0.428027 -0.916391 -0.980706 -0.566531 -0.085611 -0.067438 -0.164177 -0.416584 -0.295841 -0.019093 -0.953033 0.992763 -0.556003 0.770209 0.990151 0.008249 0.871787 0.317702 -0.517612 0.914958 -0.927633 0.651950 0.124674 -0.524290 -0.223655 -0.742878 -0.482744 0.681993 0.517719 -0.888337 0.971917 -0.910309 -0.804728 0.991211 -0.476840 0.109662 -0.076227 0.358983 0.693078 0.627932 -0.660110 0.740045 0.620695 -0.216113 0.510254 0.610846 0.792136 0.382041 -0.071452 -0.725476 0.296999 0.000915 0.926474 -0.578327 0.476624 -0.297181 -0.321205 0.993880 -0.615188 -0.803487 -0.894457 -0.643271 -0.713795 -0.699184 -0.652060 -0.190635 0.410477 0.271714 -0.831652 0.103555 -0.100354 -0.491762 -0.156400 -0.479659 0.292125 -0.646146 -0.868813 0.084261 0.735895 0.059735 0.358785 0.032893 -0.939350 0.285259 0.454566 0.537274 0.988078 -0.866639 0.531154 -0.627110 -0.670125 0.636698 -0.270381 -0.383921 0.937513 0.077560 0.425444 0.347990 -0.650727 0.593792 -0.548455 0.248919 -0.897969 0.295145 0.769261 0.394156 0.648998 0.900448 -0.521583 0.384893 -0.039817 0.837202 -0.582214 0.020832 0.122461 0.872353 -0.441894 0.110539 -0.994286 -0.910739 0.483430 -0.664411 0.725958 -0.786951 -0.048332 0.663471 0.290609 -0.622888 0.011462 0.639882 0.970905 0.463007 -0.111199 -0.927065 -0.241848 -0.341938 0.467091 -0.592849 -0.441491 0.945508 0.792044 0.518692 0.782710 -0.790170 -0.460476 -0.094829 -0.917818 0.097631 -0.984290 -0.912104 0.186891 0.499140 -0.576515 -0.087150 0.712189 0.375153 -0.423679 0.002797 0.752265 0.587783 -0.357321 0.723170 0.050790 0.531480 0.796106 0.808942 -0.810459 0.263197 -0.783908 -0.251950 0.208705 -0.991864 -0.733258 -0.008585 -0.782034 -0.193733 0.896586 -0.699852 0.903897 0.912296 -0.611955 0.090789 0.411436 -0.188470 -0.996361 0.123625 -0.813317 -0.420041 -0.873578 0.938948 -0.832258 -0.230899 0.662118 0.218532 -0.699420 0.458224 0.027474 -0.509879 -0.278579 0.243566 0.238172 0.930127 0.251702 0.504914 -0.078458 0.469668 -0.688819 -0.181871 0.769816 -0.784922 -0.269575 -0.842139 0.305867 -0.858139 -0.030610 0.309506 0.265486 0.156073 0.889465 0.391908 0.095021 -0.942793 -0.838992 -0.242860 0.275740 -0.538412 -0.784636 -0.696786 -0.048290 -0.063215 0.546780 -0.810118 -0.133088 -0.201518 0.694796 0.788455 -0.731850 -0.994023 -0.393417 -0.962033 -0.778945 0.337009 -0.804172 0.526922 0.478870 0.165218 -0.163572 -0.255644 -0.678709 -0.274107 -0.863737 0.416312 -0.216899 -0.702729 -0.826548 -0.941160 -0.241140 -0.611184 -0.637946 0.710569 0.325601 0.908834 0.900451 -0.807487 -0.292684 0.595247 0.980968 -0.024534 0.601223 -0.412448 0.013433 0.822278 0.924560 0.209261 0.349200 0.403430 -0.625521 -0.814372 -0.852214 -0.304230 -0.088479 -0.715951 -0.887918 0.694622 -0.418680 -0.714466 0.753462 0.340180 -0.325650 -0.884485 0.050749 0.999950 -0.975651 -0.048800 -0.807536 -0.268335 -0.453554 -0.826568 0.707131 -0.852331 -0.239017 -0.279436 0.969947 -0.314457 0.929825 0.319148 -0.911027 -0.695696 0.504775 -0.763241 0.000074 -0.583704 -0.479192 0.112156 -0.889082 0.102128 0.397689 0.864380 -0.557693 -0.927961 0.979895 0.493056 -0.928011 -0.995756 -0.555744 -0.735547 -0.264092 -0.009298 -0.562115 -0.556960 0.138371 0.198868 0.163604 0.108319 0.884412 0.093429 -0.572534 0.973385 0.397733 0.932242 -0.789856 -0.602194 -0.651462 -0.269049 0.509962 -0.540544 0.833079 -0.092349 -0.676164 -0.724614 -0.020310 -0.696270 0.768442 0.051680 -0.692026 -0.787303 0.316133 0.043882 0.203399 0.754018 0.486922 -0.658229 -0.047114 -0.349474 0.450089 -0.162702 0.743955 0.877556 -0.189317 0.141687 0.809797 0.020826 0.539493 -0.841664 0.751777 0.049455 -0.382208 0.584856 0.957106 -0.058373 0.860242 -0.063204 0.245358 0.628684 0.988476 0.553332 0.841381 0.304609 -0.402786 0.044781 0.058627 -0.915864 0.386551 -0.988487 -0.265338 -0.163359 -0.151190 -0.521384 -0.285804 0.659493 0.620304 -0.476006 -0.319681 0.159797 -0.317671 -0.567904 -0.790748 0.300121 -0.983047 -0.833642 -0.758251 0.877194 0.103154 0.487106 0.505878 0.091630 0.040438 0.347259 -0.603761 0.637652 -0.607960 0.454865 0.721788 0.778591 0.466378 -0.543550 -0.384768 -0.684811 -0.064933 0.329428 0.974682 -0.444630 0.853422 -0.344999 0.715167 -0.464249 0.087097 0.924419 0.835872 0.104050 -0.909223 -0.922379 -0.018756 0.193931 0.564727 -0.512878 -0.714440 -0.394835 0.834382 -0.318201 -0.757182 -0.773578 -0.863336 0.964606 -0.994987 0.603042 -0.578944 -0.379756 0.918231 0.356123 0.949672 0.892913 0.911493 0.803094 -0.452087 0.626661 -0.661155 0.635011 0.551079 -0.825283 -0.260940 0.641856 -0.747663 0.720305 -0.164214 0.817064 -0.792573 0.121347 -0.577770 -0.958191 0.803146 -0.334953 -0.731769 0.939810 -0.370347 -0.726757 0.542852 0.050710 -0.106512 0.461083 -0.593167 -0.156840 0.353996 -0.681674 -0.353746 0.901909 0.944987 -0.014902 0.536920 0.496066 0.159815 -0.724020 0.137922 0.412153 0.996285 0.973708 0.229217 -0.796288 0.095055 0.651447 -0.754479 -0.101799 -0.683506 -0.486248 -0.161989 -0.053853 -0.213005 -0.619136 0.996857 0.680483 0.841947 -0.596311 -0.476357 0.195943 -0.277985 0.169896 0.097852 -0.332998 -0.845005 -0.365228 -0.836932 0.314810 -0.089248 0.300990 -0.273037 -0.092963 0.274698 0.956180 0.110749 -0.630247 0.607626 0.356270 0.267954 0.924120 0.870022 -0.894035 -0.129733 -0.342983 -0.513171 -0.132876 -0.662500 -0.671224 0.270813 -0.138858 0.524719 0.992828 -0.968961 -0.377429 -0.340170 -0.813967 0.257343 -0.177102 0.500843 -0.831905 -0.876112 -0.772194 0.075133 0.398585 -0.816015 -0.814118 0.768339 0.791611 0.542152 0.036293 0.715731 0.412175 0.142258 -0.414002 -0.930808 0.629087 0.453122 -0.593308 0.957863 -0.276065 0.267834 0.482582 -0.283237 0.298873 -0.894847 0.376594 0.484906 0.362496 -0.800508 -0.014251 0.530592 -0.676621 0.213555 -0.394276 0.721965 0.397541 -0.208394 0.490303 0.189152 -0.666242 -0.473404 -0.095117 0.745933 0.668854 0.490882 0.815125 0.297940 -0.055996 -0.778184 0.255803 0.667938 0.489651 -0.261615 -0.615298 -0.211477 -0.156461 0.761295 -0.726571 -0.793965 0.960787 0.259178 0.736627 -0.715834 -0.527267 -0.657649 -0.993870 0.870274 0.133957 0.496434 0.059426 0.467716 -0.976971 0.964309 0.213649 0.691883 0.455191 0.028774 -0.010177 -0.600806 0.250590 -0.754373 -0.932867 -0.259759 -0.015988 -0.548165 0.528764 0.827551 -0.786870 0.802193 -0.966415 -0.826083 0.061371 0.770212 -0.541917 0.534104 -0.887437 -0.535787 0.404378 0.246520 0.960647 -0.536196 -0.285764 0.983676 -0.571887 0.927885 0.675559 0.883304 -0.043342 -0.334618 -0.717502 -0.792752 -0.088992 -0.650369 -0.052511 0.895020 -0.198534 -0.523748 0.722571 0.014596 -0.721555 0.756156 0.188512 0.339816 0.526368 0.646595 -0.126080 0.638932 -0.889192 -0.721702 -0.114548 -0.928546 -0.257898 0.599688 -0.944870 0.170215 0.527573 0.730689 0.053518 -0.515769 -0.603930 0.336016 -0.308521 0.307079 0.685647 0.638968 0.202099 -0.512887 -0.884779 -0.075330 0.501709 -0.606334 -0.319174 -0.309779 0.733482 -0.792805 -0.663184 -0.392598 0.846126 -0.552377 -0.114300 -0.268422 -0.480922 0.627802 -0.668734 -0.425792 -0.201984 0.858839 -0.695104 0.851535 -0.656930 -0.299033 0.187551 0.034550 -0.991955 -0.126801 -0.326482 0.210144 0.360312 -0.211261 -0.865186 -0.137980 0.182404 -0.184360 0.552241 -0.084114 0.022834 0.889057 0.523288 -0.131040 -0.663320 -0.591012 0.600539 -0.144242 -0.963210 0.931805 0.429966 -0.165194 0.790644 0.734862 -0.313659 -0.866285 -0.564171 0.873892 0.168265 -0.556126 -0.252909 0.841782 0.654018 -0.892597 -0.369479 0.788832 -0.030577 0.812925 -0.395529 -0.478336 -0.271189 0.627306 -0.589279 -0.747901 -0.503734 -0.252599 -0.338913 -0.903195 0.603159 -0.302123 -0.971390 0.033124 0.532683 0.819255 -0.232014 -0.780976 0.952969 0.203815 -0.907084 0.121234 0.647689 -0.159993 -0.036984 0.301706 -0.052590 0.593537 0.090538 0.916833 0.406463 0.695009 -0.561503 -0.864726 0.322315 -0.150782 -0.612626 0.818581 0.596619 0.048461 0.915386 0.199778 0.746338 0.943996 -0.767098 0.279021 0.763250 0.000889 0.498045 0.716219 -0.795297 0.590961 -0.162547 0.852392 -0.569032 0.800470 0.154098 0.378377 0.394007 -0.755364 0.295210 -0.199530 0.939645 0.733707 -0.064256 0.261960 -0.417075 0.323118 0.080541 -0.820456 -0.628422 -0.004074 0.379322 -0.882084 -0.060078 0.612224 0.396937 -0.296828 -0.386887 -0.105019 -0.580608 -0.182184 -0.514058 0.256845 -0.329792 -0.083090 0.057315 0.824306 -0.704713 -0.548678 -0.931058 0.590497 0.251792 -0.991413 0.324205 -0.812464 0.270547 0.907130 0.510653 -0.648912 -0.913326 0.882232 0.347014 0.465996 -0.999852 -0.713064 0.078220 0.397084 -0.009892 0.691333 -0.707934 0.409500 -0.490851 -0.221992 -0.333655 0.179357 0.694918 0.723660 0.003663 0.990205 -0.825018 0.072605 0.580702 0.426773 0.081192 -0.095093 0.614309 -0.648261 -0.187963 0.124962 -0.297173 -0.101289 0.007194 -0.950159 -0.635293 0.007342 -0.663223 0.442927 -0.595574 0.326885 0.134260 -0.303508 -0.263615 0.643410 0.474500 0.402730 -0.177233 0.169418 0.126390 0.826430 0.159623 0.301372 -0.100965 -0.259675 -0.271854 0.980227 0.645232 -0.657545 -0.668034 -0.542731 0.467417 0.034792 0.355980 -0.525389 0.084633 0.720686 0.481953 0.421410 0.163614 0.886379 -0.251704 -0.702126 -0.417130 0.484681 0.941283 -0.942630 -0.112589 -0.235950 0.226788 -0.986198 -0.409520 -0.613589 0.315174 0.489514 0.126736 -0.956681 0.469741 -0.228032 -0.614226 0.801706 0.229237 0.853191 -0.163502 -0.414783 -0.672198 0.921131 -0.694097 0.809755 0.342542 0.469517 0.696133 -0.909163 0.767390 -0.720996 0.575518 0.708674 -0.663626 -0.537071 -0.527276 0.563162 -0.523269 0.063203 0.949573 0.791904 -0.447283 0.076308 0.835224 -0.977542 0.848276 -0.779002 0.824164 0.077513 -0.925811 -0.339338 0.662730 -0.598009 -0.418206 0.968633 -0.788255 0.924335 0.438149 0.907878 -0.984827 0.205540 -0.813118 0.590691 -0.085787 -0.476745 -0.946380 0.386937 -0.913583 -0.469649 -0.549860 -0.964010 -0.677745 0.002858 0.112298 -0.842521 0.025316 -0.039426 -0.621524 -0.150520 -0.961912 -0.547335 0.510142 0.700817 -0.145345 -0.908064 0.669450 0.066400 -0.983729 0.107599 -0.025722 -0.968556 -0.686861 0.161160 0.622135 0.227352 0.684415 0.675754 -0.385711 0.770833 -0.793895 0.064430 0.806822 -0.471640 -0.932713 -0.080880 -0.314162 0.092603 0.879695 0.064314 0.942083 0.917782 0.516979 0.452225 0.618600 -0.628366 0.544161 0.288050 0.438035 0.560432 -0.604351 -0.587687 0.591876 -0.291212 0.573473 0.214011 0.936140 0.257888 -0.110235 -0.449571 0.028721 0.095870 0.614859 -0.164457 0.624229 0.682146 0.754664 -0.689932 -0.225251 0.634358 0.374382 -0.283168 0.552141 -0.108639 -0.830944 0.170740 0.262996 0.713217 -0.541210 -0.298970 0.273649 -0.145561 0.113343 -0.134475 0.563227 -0.313184 -0.920464 0.499367 0.944705 -0.030699 -0.950204 -0.026574 -0.934830 0.664655 0.808969 0.689400 0.346801 0.563633 0.999467 -0.878450 0.197991 0.373850 -0.161619 -0.249868 -0.734789 0.007438 0.920872 0.528206 -0.279345 -0.620338 -0.770763 0.994304 0.234101 0.342580 -0.140171 -0.202673 -0.970604 -0.060635 -0.703306 0.974101 0.908666 -0.653511 -0.052474 0.973836 -0.988856 -0.243505 0.663236 0.357945 -0.679872 0.662703 0.479494 0.518119 0.036553 -0.682125 -0.731749 0.301764 0.325313 -0.810877 -0.170030 -0.954033 -0.431215 0.059207 -0.959729 0.802885 -0.598213 -0.099900 -0.399787 -0.568817 0.839465 -0.103094 -0.594716 0.748131 0.243396 0.352810 0.721967 0.254540 -0.890695 0.385203 -0.387515 -0.570567 0.047906 -0.908021 0.947553 -0.915542 -0.590146 -0.784196 0.386222 0.735167 -0.595074 -0.783808 0.781134 -0.026289 0.275399 0.821406 -0.223403 0.677185 -0.278494 0.376809 -0.891632 -0.439029 -0.726285 -0.486348 -0.690898 0.517111 0.866462 -0.968931 -0.228349 0.975767 0.416271 0.384136 -0.594800 -0.535823 0.476114 -0.647247 -0.451365 0.885969 -0.431444 0.934857 0.621136 -0.026517 -0.848951 0.402270 0.947194 0.426448 0.223676 -0.276209 0.103634 0.945182 -0.899400 0.212002 -0.493847 -0.625685 0.725654 -0.184745 0.891426 0.592115 -0.153676 -0.336923 0.567882 -0.737405 -0.952787 0.973083 -0.273228 0.523328 -0.674164 0.275407 0.409296 -0.105608 0.210265 0.030432 0.867875 0.361314 -0.567298 0.815069 -0.212238 0.656378 -0.461141 0.891396 0.601560 -0.360541 0.103398 -0.892287 0.013774 -0.170948 -0.077032 -0.094799 -0.578833 0.769291 0.568278 0.989049 -0.968114 0.615491 0.962132 -0.241342 0.138819 -0.712033 -0.965935 -0.451885 0.182359 0.244330 0.578547 0.050234 -0.394356 -0.988751 -0.134697 0.393406 0.667627 0.404163 0.284802 0.269186 -0.956378 -0.611800 0.376899 0.057396 0.217252 -0.700133 0.962597 0.638419 -0.930842 0.530875 0.627468 -0.898956 0.146366 0.589600 -0.140298 -0.714815 0.877567 -0.106233 -0.166701 0.059927 -0.861903 -0.588154 -0.889839 -0.256259 -0.576905 -0.024535 -0.862853 -0.909279 -0.620372 0.421949 0.359908 -0.576750 0.810150 -0.263193 0.480646 0.027402 0.036674 0.443243 -0.334179 0.105832 -0.025883 -0.706711 0.206876 -0.879517 0.882889 -0.933421 -0.594332 0.760456 -0.039654 0.238967 -0.179617 0.098442 0.650813 -0.069455 0.842183 -0.926092 0.906009 0.979330 -0.835371 -0.714363 0.401279 0.524537 -0.291113 0.211428 -0.738656 -0.810468 -0.761170 0.298018 0.632775 -0.095349 -0.596150 -0.393107 0.197940 0.610726 -0.272624 0.080829 0.677305 0.133044 -0.158715 -0.362349 -0.627989 0.661668 0.736093 -0.977176 -0.407787 0.578276 -0.903268 -0.501778 0.557606 -0.738639 -0.216141 -0.041115 0.785898 0.492746 -0.829687 -0.952758 0.682278 -0.590857 0.345260 0.315053 0.313794 0.749110 0.921946 -0.488266 0.359837 -0.350678 0.592562 0.037142 0.782366 -0.566153 0.674792 -0.845623 -0.904484 0.410885 -0.822799 -0.312271 -0.010839 -0.726067 0.185951 -0.453233 -0.464705 0.969811 0.505652 -0.678807 0.462556 0.675965 -0.631565 0.144835 -0.914891 0.713695 -0.540112 0.398903 0.462805 -0.618166 0.910636 -0.177358 0.031156 0.503199 0.859784 -0.186479 0.937046 0.534576 -0.032102 -0.967438 -0.054539 0.145099 -0.279709 0.934622 0.419032 0.906242 -0.518611 0.954327 0.876052 0.987041 -0.724481 0.338609 0.663007 -0.356045 -0.516556 0.748115 -0.642350 -0.056668 0.147018 0.820455 0.325166 0.057654 -0.356903 -0.643679 -0.439147 -0.497119 0.169842 -0.502101 -0.962543 -0.862260 -0.469539 -0.017083 0.282839 0.250751 -0.082460 -0.298129 0.156993 0.398929 -0.343802 0.033045 0.385970 -0.068283 -0.628346 0.048977 0.575672 -0.144902 -0.202908 0.933322 0.798429 0.944110 0.753777 0.123595 0.001764 -0.603125 0.479916 0.562617 -0.100244 -0.350242 -0.939484 -0.062788 -0.212501 -0.409023 0.920129 -0.929662 0.841728 -0.162331 -0.227791 -0.001279 -0.763402 0.428407 -0.968233 0.622568 -0.639875 -0.596579 -0.328455 0.935797 0.258519 0.468637 0.869119 0.056948 0.412747 0.622896 -0.819457 -0.585489 -0.980229 0.660459 0.977128 -0.080474 -0.689782 -0.962356 0.856738 0.097716 -0.371380 0.776868 0.168054 -0.529652 -0.385463 0.940263 0.469069 -0.148865 0.368671 0.500836 -0.526297 0.728795 0.904256 0.145248 0.664592 0.162775 -0.386115 0.533711 -0.780277 -0.973368 0.156607 -0.599734 -0.558857 0.176378 -0.939275 -0.581729 -0.904096 -0.629057 -0.544086 0.952642 0.468659 0.084534 0.729510 -0.363287 0.554883 -0.655953 -0.423023 0.023952 0.195181 0.945647 -0.475213 0.668884 0.674443 -0.570956 -0.185868 0.339035 0.591819 0.428017 -0.127254 0.811542 0.454649 -0.970647 -0.788192 0.895792 0.205731 -0.727467 -0.685937 0.301635 -0.356524 -0.230023 0.254278 -0.887865 0.854512 -0.016213 -0.251151 0.409394 0.327834 0.325826 -0.566654 -0.476985 0.271473 -0.041867 -0.808100 -0.054084 0.387177 0.006032 -0.715049 -0.021004 -0.565951 0.157697 -0.209462 0.888698 0.187051 0.002346 0.784490 -0.607218 0.274879 -0.901447 0.694417 0.918356 -0.131470 -0.051305 -0.969509 -0.276959 0.932482 -0.220660 -0.867564 0.260316 -0.894835 -0.434219 0.783332 0.376638 0.523914 0.975231 -0.677446 -0.088909 -0.018737 -0.392495 0.890087 0.415312 0.765202 -0.319376 0.304010 -0.047747 0.682970 0.088500 0.345035 -0.042150 0.187052 0.039452 -0.123795 -0.944418 0.988147 -0.093304 -0.221377 0.920629 0.686036 -0.088941 0.180945 0.791201 0.476840 -0.035723 0.167839 0.000755 -0.060492 0.490393 0.911846 0.920771 -0.902102 0.801933 0.336083 0.863101 -0.517443 -0.359907 -0.184646 -0.834472 0.728593 -0.839611 0.123377 -0.084355 0.199841 0.999582 -0.028773 0.187987 -0.093722 0.749850 0.108616 -0.407686 -0.339091 -0.710439 -0.616485 -0.862251 0.253838 0.551355 0.138504 -0.806654 0.041748 0.050350 -0.885882 0.139646 -0.147717 0.450201 0.002747 0.334840 -0.909706 0.818101 0.500368 0.818887 0.978489 -0.376255 -0.265469 0.178330 -0.376673 0.705758 -0.633683 0.529606 0.455608 0.474933 -0.878080 -0.883482 0.764494 -0.494565 -0.745733 0.018332 -0.943210 0.392771 0.211678 0.098538 -0.556878 0.325796 -0.761816 0.295405 -0.224003 0.240931 -0.369755 -0.133709 0.059032 -0.869387 -0.314823 0.037521 -0.245641 0.419708 -0.784149 0.377686 0.125467 -0.417832 -0.092708 -0.418925 -0.942899 0.029212 -0.302407 0.821595 0.534647 -0.048140 -0.160074 0.591437 -0.655369 -0.948396 -0.310026 -0.212247 0.377400 -0.071842 -0.916842 -0.846604 -0.830911 -0.286597 0.019687 0.228121 -0.155984 0.704864 -0.734359 0.598375 0.124573 -0.518508 -0.023939 -0.749961 0.063660 0.883352 -0.168886 0.120761 -0.087436 0.528707 -0.057645 -0.552789 -0.519433 0.782282 -0.961352 -0.174802 0.833886 -0.271378 0.612951 0.211286 0.656780 0.696108 0.364682 0.825869 -0.590489 -0.615631 0.053989 0.253527 -0.910767 0.319631 -0.148099 0.213806 0.801123 0.827962 0.463845 -0.135217 0.711314 -0.705041 0.985543 -0.376122 0.823666 -0.072101 
0.071089 -0.695767 -0.289819 0.109737 0.129431 -0.455933 0.838359 -0.257619 0.755352 0.495138 -0.561510 0.120035 0.321007 -0.151999 0.504404 -0.625004 -0.898472 0.593637 0.694627 -0.046571 -0.192557 0.495750 -0.218609 -0.728712 -0.639468 -0.507295 -0.433753 -0.653924 0.116584 -0.610086 0.273975 -0.812327 -0.305853 0.984155 0.297410 0.823578 -0.471778 0.135768 -0.434041 -0.716426 -0.369093 0.004449 0.403609 0.951914 0.852449 -0.091987 -0.673090 0.953977 -0.498350 -0.978464 -0.092594 0.309093 0.517286 0.688797 0.580381 0.877818 -0.818498 -0.853371 -0.776106 0.298086 -0.463458 0.497869 0.485759 0.230689 0.482024 -0.216832 0.054267 -0.989754 0.918937 0.620226 -0.706180 -0.450157 -0.375326 0.697428 -0.498243 -0.522876 -0.394559 -0.171334 -0.568900 0.107091 -0.149797 0.338506 -0.583816 -0.632511 0.027303 0.996565 -0.754693 0.208805 -0.856806 -0.530799 -0.493109 -0.320264 0.967070 0.992649 0.910426 0.449094 -0.224182 -0.035308 0.459339 -0.305246 -0.415082 0.753159 0.244597 0.209592 0.450587 0.746354 0.686716 -0.943972 -0.424980 -0.882184 0.163119 0.425223 0.456322 0.579303 0.792712 -0.516375 0.575868 -0.961981 0.692430 0.719062 -0.492780 -0.800679 -0.601201 -0.525710 -0.808030 -0.690776 0.923384 -0.032212 0.273916 0.382724 0.662542 0.858834 0.135883 -0.092860 0.068426 -0.413530 -0.346506 -0.244858 -0.357501 0.228514 -0.127042 0.805618 -0.346263 -0.670720 0.384921 -0.553550 -0.187095 -0.039210 -0.515531 -0.494665 -0.320148 -0.008311 -0.295345 0.078651 0.465980 -0.103375 0.387875 0.389364 0.864413 -0.338208 -0.227912 0.526955 -0.479374 0.907971 -0.565905 0.589053 -0.505559 0.087589 -0.655805 0.136940 -0.683897 0.217153 -0.057442 -0.030160 0.546433 -0.672520 0.416290 -0.640662 0.288269 0.900759 -0.135327 0.968122 -0.107552 0.569328 0.046773 -0.641573 -0.534046 -0.565352 0.747791 -0.669633 0.096440 -0.480121 0.857322 0.617066 -0.572150 -0.708583 0.206119 -0.077708 0.379006 0.550313 -0.940768 0.695109 -0.232534 0.001790 -0.335050 -0.686101 0.329270 -0.918761 -0.326763 -0.382461 0.981998 0.537909 -0.414339 -0.125554 0.107238 0.632434 0.232873 0.573192 -0.932918 -0.019336 0.903559 0.163522 0.500544 0.760881 -0.219412 0.928394 -0.947701 0.986706 -0.149314 0.431305 0.537019 -0.090082 0.126414 -0.695515 0.911709 0.791363 -0.381616 0.240979 0.872603 0.291621 0.858518 0.854601 -0.170470 -0.555821 -0.270953 0.936768 -0.923387 0.961920 0.509959 -0.856305 -0.057416 0.413518 0.307216 -0.556872 0.174399 -0.912196 -0.628478 0.226698 -0.925490 0.222208 -0.341997 0.611529 -0.867874 0.784417 0.916014 -0.956165 0.575780 -0.465602 0.284813 0.448383 0.826019 0.143331 0.302984 -0.344451 0.587510 -0.967969 -0.407683 0.664123 0.993950 -0.897724 0.807818 -0.063466 0.515795 0.115034 0.379662 -0.309806 0.202838 0.751184 0.916892 0.277347 -0.026609 -0.425105 -0.111123 0.105517 -0.640689 -0.195109 0.149352 0.935092 0.339290 -0.565835 0.383475 0.165309 0.577497 -0.313541 0.820858 0.165007 -0.281510 -0.586825 -0.170870 -0.287560 -0.484549 -0.363052 0.648974 -0.968754 0.751982 0.028636 -0.278560 -0.045181 -0.220180 -0.361668 -0.767833 0.753211 0.213226 0.121043 -0.141271 0.572538 0.925934 -0.991919 0.507630 0.265224 -0.557754 -0.108895 -0.569467 -0.980257 0.577564 -0.748610 0.184750 -0.703946 -0.335435 -0.986120 0.008494 0.180016 -0.349172 -0.342532 0.211262 -0.597190 0.686105 0.932702 0.357629 -0.534075 -0.428966 0.589796 -0.780864 0.784260 -0.289161 0.077865 0.356798 -0.363226 0.085946 -0.135572 0.901998 0.528192 0.755532 -0.667470 0.547935 0.333096 -0.416079 -0.267315 0.629149 0.248486 -0.253435 -0.362357 -0.571497 0.397393 0.295112 0.639765 0.800203 -0.018784 0.572467 0.157832 0.447141 -0.856499 -0.252372 0.666277 0.927761 0.458467 -0.255858 0.284559 -0.904759 0.830088 -0.851014 0.997239 0.358280 0.904518 -0.670231 -0.093785 0.237614 -0.086310 0.638899 -0.133236 -0.837823 -0.614536 0.504407 -0.409321 0.782857 -0.200482 -0.769556 0.583059 0.780735 0.802911 -0.259109 0.227876 0.946412 0.488519 -0.105847 0.874173 -0.053013 0.638295 0.158731 0.042228 0.468383 0.307718 0.039467 -0.173337 0.212236 0.369237 0.732878 -0.550150 -0.717073 0.371777 0.316614 -0.554896 0.757241 -0.178980 0.035783 0.540098 0.620539 0.266227 0.123157 0.401273 0.069139 0.864048 -0.370851 0.015550 0.352568 0.523302 -0.110277 -0.700445 0.161596 -0.951545 0.341783 -0.370021 0.356172 -0.618750 0.456642 -0.431592 0.750487 0.189520 0.018258 -0.966586 -0.438704 -0.665128 -0.521482 -0.681463 0.155892 0.514301 0.858635 -0.223569 -0.219472 -0.018208 -0.822296 0.849667 -0.154159 -0.193147 -0.134783 -0.801591 -0.669845 0.754941 -0.502036 0.491751 0.803395 0.839747 -0.878269 0.159567 -0.779003 0.578373 0.727975 0.971484 -0.232108 -0.253766 -0.995102 0.329189 0.081105 -0.516584 0.647726 -0.763003 0.997717 0.506361 0.013428 -0.221755 -0.511847 0.191133 -0.372088 0.333994 0.997986 0.493130 0.532402 -0.671859 0.248070 -0.969634 0.819892 0.051465 0.870113 0.941622 -0.788968 -0.908891 0.519995 0.939008 -0.937407 -0.712113 -0.314759 -0.932509 0.617076 0.766347 -0.449093 0.264802 -0.996656 -0.451376 -0.228837 0.016772 0.326870 0.259316 -0.792095 0.954782 -0.406690 -0.794109 0.447912 -0.874288 -0.465968 -0.304018 -0.843922 -0.646076 0.747447 -0.973809 -0.704454 0.958479 -0.882700 0.815541 0.897487 -0.820106 -0.896572 -0.417272 -0.752615 0.720504 -0.650925 -0.201708 -0.014695 -0.647581 0.346917 0.756468 0.369192 -0.326214 0.015784 0.577097 -0.371432 0.609094 0.782988 -0.923520 0.734806 -0.682981 -0.227538 0.890884 -0.329057 -0.480092 0.917075 -0.033511 -0.521612 -0.965625 -0.217970 -0.624125 -0.785731 -0.114542 -0.041397 -0.538347 -0.394038 0.307678 0.259946 0.591267 0.660097 -0.393138 0.347736 0.029289 0.280649 -0.636480 -0.393614 0.909217 0.972614 -0.610627 0.985697 0.707420 -0.293607 -0.241842 0.598304 0.377336 0.278066 0.515379 -0.656175 0.756454 0.549753 0.125855 -0.867671 0.764022 -0.988687 0.090932 -0.774325 -0.382725 -0.601390 0.485621 -0.791457 -0.941292 -0.907517 0.556279 0.087997 0.373132 0.919798 0.694382 0.282349 0.892412 -0.916245 0.268045 0.599832 -0.209852 -0.973797 0.198135 -0.832516 0.304270 -0.286486 -0.488691 0.060724 -0.736733 0.637164 0.193053 -0.972711 0.648477 -0.716015 -0.747035 -0.734248 -0.317404 0.738586 -0.525705 -0.258697 0.831069 -0.969426 0.829300 0.204201 0.950372 0.523682 -0.513450 0.842784 0.607437 0.754595 0.442615 -0.602415 0.780798 -0.359249 -0.434931 0.085068 0.354264 0.076378 -0.854208 0.617532 -0.286459 0.338845 0.644821 -0.637982 0.622830 0.897786 -0.372230 -0.694574 0.636372 0.102065 0.046729 0.467441 0.132639 -0.123971 -0.328358 0.083011 -0.600289 0.158192 -0.074206 -0.992852 -0.087213 -0.631590 -0.595266 -0.306414 0.009160 -0.030197 0.778654 -0.636575 -0.953820 0.924446 0.980956 -0.240279 0.263291 0.625777 0.121739 -0.113879 0.523563 0.749509 0.191547 0.159935 -0.148426 -0.761723 -0.372624 0.984213 0.114306 0.299018 0.067224 0.514017 -0.542790 0.993018 0.521165 0.369998 -0.638573 0.925899 -0.936417 0.370588 -0.104299 0.842237 0.734012 -0.058119 0.766683 0.714969 0.701602 0.029974 0.340746 -0.176658 0.916095 -0.135691 -0.427149 0.107643 -0.975756 0.424425 0.345919 -0.348380 0.408638 -0.539775 0.950639 -0.524138 0.974242 -0.592151 -0.531120 0.495407 0.777846 -0.169693 0.421305 0.841430 -0.799105 -0.682993 0.683666 0.934907 0.258888 0.450349 0.649876 -0.039510 -0.519677 -0.009378 0.783832 -0.603581 0.854931 -0.643317 0.504062 0.879176 0.781108 -0.150019 -0.469204 0.189747 0.310206 -0.518565 0.665608 0.284448 -0.110717 -0.865512 -0.220145 -0.332870 -0.035204 -0.798840 -0.491441 0.165691 -0.481833 -0.807774 0.100598 0.777055 0.642575 -0.249526 -0.262455 -0.877101 0.741096 -0.478623 -0.480682 0.596027 -0.121940 -0.976621 0.475203 -0.340832 -0.126639 -0.994001 0.848915 -0.816433 -0.512566 0.514523 0.468015 0.376717 0.649011 -0.752130 -0.956153 -0.386193 -0.550969 -0.447594 0.779498 -0.032803 -0.255368 -0.119905 -0.255748 -0.612793 0.630569 0.481797 -0.489894 0.371665 -0.996826 0.029423 -0.032307 -0.118766 0.052803 -0.557104 0.540402 0.926163 -0.551105 0.389317 -0.890270 -0.063672 -0.096160 0.577745 -0.686955 -0.447148 0.825616 -0.643108 0.166659 -0.725354 -0.090702 -0.053844 0.241844 0.653930 0.826252 0.986096 -0.958863 0.456821 0.467893 -0.448757 -0.171514 0.471068 0.580666 0.796179 -0.647698 -0.366531 -0.760926 0.892704 -0.440368 -0.312031 0.282021 -0.330638 0.624297 -0.814138 -0.752892 0.937342 -0.261287 -0.927277 -0.705766 0.905372 -0.652630 0.203532 -0.148472 0.589213 -0.142539 -0.322220 0.575309 -0.101402 -0.865399 0.043202 0.449841 -0.036913 -0.485731 0.030507 -0.240734 -0.133429 0.663976 -0.001660 -0.240724 -0.776392 0.686309 -0.958703 -0.107030 0.310605 -0.772841 0.140078 0.247947 -0.034127 0.212801 0.542181 -0.128755 0.560171 -0.254288 0.722773 0.149384 0.603173 -0.599447 -0.275307 -0.498228 -0.464846 0.767895 0.951613 0.498241 -0.717836 -0.017881 -0.742493 0.148736 -0.353905 0.255846 0.908011 -0.130297 -0.057845 0.949309 0.762673 -0.747240 -0.823532 -0.097249 0.500707 0.142340 -0.884448 0.042888 -0.986415 0.675723 0.788600 0.736358 -0.174893 0.391774 -0.863089 0.549800 0.893546 -0.327935 0.317695 0.845158 -0.829694 0.599859 -0.172723 -0.572187 -0.251405 0.473372 0.683659 -0.343394 -0.656925 -0.374186 -0.394085 -0.894252 -0.121426 -0.217618 0.008498 -0.620718 0.924723 0.124050 0.422170 0.938308 -0.200227 0.210770 0.674666 0.624880 -0.397456 0.811577 0.174680 -0.503911 -0.516358 -0.507626 -0.658753 -0.346052 -0.907767 0.168525 0.081761 -0.159172 -0.358103 -0.234580 0.497434 -0.015028 0.391234 -0.896651 0.090720 -0.730191 -0.114269 -0.900782 -0.350910 -0.189546 0.223268 -0.928740 -0.251238 -0.976959 0.282030 -0.576573 0.647921 0.884574 -0.764996 -0.177400 -0.619336 -0.281354 0.314975 -0.278089 0.372594 0.407208 0.890436 -0.545645 -0.751964 -0.467667 0.219775 0.745470 0.517305 -0.388991 0.848819 -0.391975 -0.119182 -0.265450 -0.292757 0.529908 0.545004 0.930511 0.601169 -0.706234 0.953552 -0.116801 -0.282807 0.601472 -0.232227 -0.047803 -0.575927 0.148436 0.670843 0.739047 0.870347 0.043437 0.146255 0.760783 0.497791 0.394291 -0.706884 -0.282434 0.139761 0.810422 0.328575 -0.011420 -0.581553 -0.790607 0.723130 0.125690 0.739302 0.268134 0.056200 0.340470 0.561899 0.009752 -0.776331 -0.720908 -0.388775 -0.008558 0.231289 0.035297 -0.860122 -0.097869 -0.225655 -0.989774 0.945568 0.920600 0.771009 0.443359 0.314891 -0.935875 -0.839075 -0.545348 0.874547 0.489501 0.443232 -0.707007 0.698894 0.166361 0.418683 0.438196 -0.565505 -0.525117 -0.221334 0.996394 0.484636 0.002335 -0.724514 -0.904140 0.993777 0.506774 0.131157 -0.866345 -0.591094 0.905502 -0.856119 -0.645527 0.826102 0.914890 0.797832 0.140993 0.979016 0.958758 0.595645 0.853563 0.448259 0.038877 -0.853444 0.147153 -0.794762 0.565239 -0.414651 -0.360267 -0.959878 0.364015 -0.363873 0.524758 -0.633650 -0.088387 0.620618 -0.639873 -0.581613 -0.248225 -0.506218 -0.172707 -0.342723 -0.362336 0.181766 -0.516621 -0.447446 -0.020401 0.624372 -0.468430 -0.061643 0.220017 -0.614868 -0.613385 -0.741106 -0.468312 0.533768 -0.535868 -0.903073 -0.880883 0.103865 -0.862950 0.483131 0.739992 0.661808 0.849481 -0.348395 0.282426 -0.790392 0.069993 -0.965799 -0.296610 0.897286 -0.308521 0.341053 0.079052 0.174858 0.893607 -0.941349 -0.200770 -0.574823 -0.002992 -0.980752 -0.189691 0.383623 -0.721859 0.341998 -0.082609 -0.257727 0.438925 0.036507 0.846138 0.575975 -0.480362 0.586130 0.237783 -0.630881 -0.762264 -0.479791 -0.421273 0.307728 -0.445590 0.282117 0.205014 0.245889 -0.376830 -0.715934 -0.579253 -0.483223 -0.657283 0.219978 -0.058046 0.339724 0.239225 0.752263 -0.276653 0.517367 0.094261 0.640738 -0.740360 -0.466814 -0.322755 -0.894221 -0.890839 0.196883 0.691909 0.346943 0.566003 0.929645 0.867152 -0.855270 0.237373 -0.578438 0.426846 -0.557614 0.667451 -0.949984 -0.273548 -0.911802 -0.433207 0.069169 0.308176 0.508747 -0.591107 -0.452599 0.261010 0.132240 -0.935232 -0.644729 -0.227022 -0.675592 -0.111543 0.450222 -0.569814 -0.002383 -0.352894 -0.877905 -0.655439 -0.786892 -0.948260 -0.788287 -0.642162 0.289113 -0.366725 0.784684 0.731499 -0.699273 0.834700 -0.542049 -0.611075 -0.598507 0.527120 0.697101 0.910240 0.936013 -0.755498 0.171250 0.068253 -0.690730 0.526521 0.841230 -0.366322 -0.585023 0.291453 0.063864 0.412595 0.938558 0.185960 0.757156 -0.848333 0.237700 0.968869 -0.490495 -0.473188 -0.397856 -0.705811 -0.741689 -0.097129 -0.871111 -0.283738 0.291796 -0.469618 -0.756618 -0.011103 -0.559378 -0.820605 0.233399 0.611872 0.247647 0.542669 0.138393 0.088878 -0.823653 0.553370 -0.619670 0.240211 -0.034035 -0.681111 -0.573829 -0.276879 -0.529445 0.663871 -0.308010 -0.019940 -0.809317 0.294134 0.274249 -0.551006 -0.802995 0.403138 0.165256 0.488801 0.933521 0.408638 -0.522302 -0.625857 0.588033 0.711097 0.986015 -0.164320 0.253766 0.124408 0.924558 0.430113 -0.322222 -0.695112 -0.329676 0.643744 -0.376223 0.096495 -0.633135 0.094332 -0.239634 0.058855 -0.925607 -0.048951 -0.647011 0.348642 0.400043 -0.450006 -0.248220 -0.434701 -0.961205 -0.314699 0.973937 -0.483507 0.059444 0.561970 -0.772410 0.045459 -0.602350 0.481355 -0.830133 -0.677792 -0.088532 -0.152355 -0.372904 0.581792 -0.508611 0.250873 -0.321713 -0.141747 -0.654795 0.438652 0.917108 -0.580402 -0.610299 -0.729903 0.768239 0.789743 -0.179909 -0.479980 -0.644958 -0.141114 0.205321 -0.671021 0.375379 -0.735236 0.890949 0.602969 0.310223 -0.711401 0.084324 0.480090 -0.389193 0.995792 -0.672264 0.237903 0.577584 -0.180876 -0.511225 -0.744129 0.677378 -0.166020 0.694523 0.594486 0.253578 -0.915776 0.864583 0.021817 0.873967 -0.315326 0.541837 -0.770991 0.543560 -0.252843 -0.442011 -0.081061 0.011922 -0.551062 -0.478092 -0.677855 -0.262463 0.606232 0.802236 0.348344 0.602024 -0.870029 -0.413754 0.179608 -0.050904 0.075022 0.435478 -0.373526 0.909002 0.130001 -0.779040 0.162580 0.214225 -0.914457 -0.815603 0.088192 -0.229783 0.726233 0.317201 -0.686223 -0.526609 0.875190 0.232716 0.485313 -0.675872 0.754623 0.807458 0.061665 0.360855 0.609694 -0.589992 -0.037121 0.739665 -0.003745 -0.857514 -0.311239 -0.928723 0.577964 0.315234 0.980279 -0.292035 0.536194 0.142858 0.922190 0.621736 0.327255 0.010382 -0.608047 0.053488 -0.672417 -0.294271 0.526879 -0.797227 0.938445 0.012192 -0.473099 0.693068 -0.180350 0.588566 0.053923 -0.570656 0.998574 -0.983198 -0.830991 -0.005171 -0.840712 -0.142231 0.066106 0.737252 -0.826997 0.046385 -0.554783 0.709197 -0.810757 -0.632592 0.330933 0.516498 0.377790 0.722886 -0.430013 0.705373 -0.571385 -0.903134 0.908146 -0.632940 0.109058 -0.564953 -0.939872 0.928708 -0.976387 0.114051 -0.641948 -0.977813 0.130853 -0.472940 0.017017 0.290141 0.384830 -0.916877 0.027393 0.557833 0.129508 0.472610 0.267030 0.318751 0.840017 -0.402037 -0.164751 0.217807 -0.679151 0.405236 -0.076820 -0.250535 0.502102 -0.168674 0.116525 -0.388840 0.266373 0.176653 -0.460132 0.289986 -0.709295 -0.102080 0.312174 0.421558 0.424980 -0.670810 -0.288301 -0.190190 -0.587687 0.739091 -0.632357 0.541821 0.211701 0.634673 -0.139428 0.051719 -0.767364 0.695821 -0.730474 -0.446515 0.101056 0.192706 0.302950 -0.396842 -0.975968 -0.580525 0.214318 0.290405 0.596129 0.754186 -0.419609 0.886834 -0.347895 0.892565 0.308392 -0.922915 -0.778245 -0.979910 -0.113105 -0.365931 0.759181 0.254537 -0.824111 -0.029118 -0.110790 0.036461 -0.977399 0.121846 -0.267718 -0.707874 0.675331 0.833338 0.484832 -0.021718 -0.563504 0.508864 0.397757 0.650814 -0.200731 -0.006114 0.404999 0.379660 -0.119281 -0.942896 0.272225 -0.810889 -0.865810 0.493980 -0.790799 0.021084 -0.871951 0.968382 -0.724378 -0.696062 -0.060736 0.164831 0.340399 -0.038135 -0.713323 -0.927319 0.253991 0.962009 0.906018 -0.261177 -0.059709 -0.657486 -0.752313 -0.661952 0.993328 0.046955 0.331933 0.398328 -0.573385 -0.787348 0.455432 0.698840 -0.598237 0.589622 0.192820 -0.389036 -0.389294 0.320869 -0.420654 -0.113673 0.624807 0.518610 -0.948841 -0.034794 -0.519526 -0.662164 0.037887 0.734465 -0.700155 -0.056095 -0.526712 0.240136 0.286420 -0.279025 0.578183 0.279748 0.767930 -0.089884 -0.321924 -0.805454 0.122769 -0.866492 0.893385 0.524532 0.723129 0.086206 -0.864504 -0.666165 -0.592925 -0.285158 0.220162 -0.968118 -0.766549 0.271321 -0.002912 -0.286074 0.609157 -0.965025 -0.551609 0.909003 -0.021120 -0.078320 0.149139 -0.734700 0.642655 -0.272678 0.545048 0.410585 0.637438 -0.776876 0.605131 -0.239793 -0.643369 0.498516 -0.715261 -0.920239 -0.415278 -0.579765 -0.586404 -0.008204 0.135077 0.633758 0.023678 0.368528 -0.094921 -0.979234 -0.917546 -0.485763 -0.944259 -0.469155 -0.576761 0.034622 0.452525 0.572378 0.299922 0.095180 -0.700300 -0.155030 -0.494235 0.937138 0.068094 -0.889104 -0.302655 0.424726 0.609412 -0.017916 0.504486 -0.805866 0.402319 0.918082 0.185930 -0.462604 0.551840 -0.790391 0.905924 -0.543081 -0.769625 0.988378 -0.028845 -0.713883 -0.480776 0.394394 0.320738 0.971749 -0.033228 -0.379340 0.066929 0.266472 0.465631 0.572694 0.203610 -0.466275 0.683590 0.900955 0.958450 0.293002 -0.116961 0.462937 0.487136 -0.714642 0.381018 -0.326934 -0.177246 -0.067142 -0.117325 -0.271321 0.389777 0.113050 -0.282943 -0.639068 0.399167 0.236281 0.755326 -0.280095 0.208030 -0.277901 0.340566 -0.725041 0.988570 -0.193804 0.847653 0.192180 0.339921 0.531242 0.093134 0.298372 -0.175756 0.976173 -0.238692 -0.688620 -0.738469 -0.857673 -0.015554 0.084285 0.075185 0.867121 0.812964 -0.535039 -0.019829 -0.469979 -0.174107 -0.620662 0.766302 -0.418781 0.099243 -0.025668 0.303318 -0.560191 0.249290 0.291888 0.246005 0.096943 -0.515932 -0.414073 -0.371815 0.577202 0.884298 0.452430 0.553376 -0.354393 0.763810 0.814907 -0.212066 -0.251744 -0.100808 0.863118 -0.384623 -0.287843 -0.671921 0.595549 0.242178 0.153972 0.974887 0.008480 0.735192 0.074130 0.982812 0.038510 0.513939 0.232102 -0.669602 -0.240056 -0.670955 -0.185534 0.345871 -0.042770 -0.608331 0.230169 -0.590340 0.945044 0.875776 -0.826530 0.759951 -0.336290 -0.078274 -0.340856 -0.473172 0.537103 0.371300 -0.145093 0.132652 -0.386522 -0.991121 0.107539 0.621958 0.744071 -0.818331 0.604769 -0.217419 0.695608 -0.163129 0.112979 -0.544448 0.165916 0.927445 0.801423 -0.876853 -0.680886 0.031592 -0.467194 -0.735842 -0.092631 -0.293724 -0.975891 0.571078 0.628002 -0.316747 -0.902094 0.165105 -0.945447 -0.047187 -0.702243 -0.331969 -0.038307 0.405296 -0.710011 -0.294236 0.586965 0.894758 0.488345 0.282573 -0.268370 -0.398676 0.738125 0.897546 -0.471231 0.539548 -0.979308 -0.152117 -0.428859 -0.446501 0.112041 0.478509 0.259775 0.136150 0.049588 -0.112223 0.819403 0.147494 -0.947118 0.873957 -0.899693 -0.649361 -0.458012 0.061999 0.755935 -0.168023 0.767763 0.342900 -0.273264 0.256108 -0.374527 0.458365 0.857432 -0.636402 0.355911 -0.613798 0.903146 0.376603 0.234085 -0.525713 0.930102 -0.653874 0.952796 0.189877 0.482276 0.002384 -0.922346 0.301680 -0.850123 -0.869464 0.175636 -0.749816 -0.518825 0.717625 0.312183 -0.762890 -0.450398 0.079946 0.580010 0.276337 -0.663945 -0.794517 -0.265297 -0.806513 -0.430919 -0.909386 -0.420311 -0.527773 0.467217 0.813774 -0.053486 0.397319 -0.840101 -0.100690 -0.412803 0.642176 0.901694 -0.335149 -0.056145 -0.948429 -0.204613 -0.880508 -0.698245 0.276562 0.837117 0.613938 0.513672 -0.613282 -0.306115 0.093681 0.663056 0.029939 0.299164 -0.602242 0.223426 0.868245 -0.511628 0.803115 -0.659528 0.955589 0.616889 0.286986 0.352908 0.776788 -0.813704 0.940105 0.418964 -0.912010 -0.395045 -0.637181 -0.860438 0.400342 -0.517689 -0.558683 -0.323096 -0.680572 -0.944744 -0.809425 -0.293854 -0.250860 0.284257 -0.630798 0.779080 -0.416579 -0.233040 0.002506 -0.548334 0.255332 -0.194379 -0.207862 0.210921 -0.577490 -0.920877 -0.436171 -0.800702 -0.734581 -0.496066 0.618262 -0.646590 0.108889 0.981081 -0.507029 -0.490769 -0.536608 -0.065712 0.186135 -0.217180 -0.010456 0.376711 0.488967 0.738684 -0.339033 0.858168 0.517764 0.244388 -0.374871 -0.479730 0.696054 0.880461 0.325891 -0.511808 0.091381 0.748400 -0.432685 0.655210 0.947698 -0.167266 -0.840856 0.565960 0.186144 0.268034 0.547041 0.679115 0.777265 -0.989567 -0.386596 -0.036600 -0.206747 0.602948 -0.659889 -0.717780 0.341632 0.001078 -0.859612 -0.140604 -0.754533 -0.234483 0.379665 0.941521 -0.354023 -0.294444 -0.570288 0.737359 -0.546044 -0.002973 0.392569 -0.598346 0.829761 0.551714 0.967614 0.015905 -0.180253 0.514655 -0.304979 -0.402988 0.525088 0.308424 0.560412 -0.681659 -0.088628 0.900523 -0.399439 -0.746996 -0.098399 -0.259050 0.112400 0.147068 0.506467 -0.507935 0.088589 -0.847556 0.197621 0.518301 0.889803 0.651577 -0.484672 0.282372 -0.946768 -0.654911 -0.165914 -0.979154 0.360994 0.653833 0.535501 -0.943985 -0.749155 0.060589 0.364440 0.811258 0.378930 -0.724188 0.711781 0.979492 -0.471184 -0.386617 -0.279559 0.641215 0.760451 -0.773092 -0.866720 -0.150961 -0.620648 0.330901 -0.632660 -0.730845 -0.017522 -0.117332 0.551527 0.035710 0.227757 -0.614387 0.056556 -0.411249 -0.960554 -0.407943 -0.355234 -0.709708 0.652646 -0.990794 -0.898450 0.031577 -0.714982 0.813331 0.011068 -0.186167 -0.573287 0.731510 -0.544951 -0.812836 0.958418 -0.411671 0.036203 -0.662230 0.919230 0.403543 -0.393076 -0.098292 -0.713790 -0.841549 0.937418 0.513967 -0.455936 -0.006026 -0.897282 -0.416489 0.586031 -0.252515 -0.126198 0.238678 -0.243309 -0.024648 -0.729746 0.041708 -0.211318 0.281323 0.855542 0.215396 0.012832 -0.689409 0.402559 -0.028750 -0.101081 -0.561238 0.309019 -0.181851 0.842305 0.915944 0.719857 -0.871484 -0.925605 0.657276 0.642483 -0.381540 -0.348750 0.745201 0.201970 -0.762719 -0.507314 -0.924228 0.475959 0.249377 0.051124 0.746213 -0.708915 0.839807 0.027536 -0.853373 0.055202 -0.959632 -0.542782 -0.542238 0.011618 0.356137 -0.103476 -0.679363 -0.825714 -0.261171 -0.763419 0.894143 -0.132655 -0.689024 0.551419 -0.490172 -0.070564 -0.797331 -0.744971 -0.868594 -0.560050 -0.252285 -0.792822 0.915909 0.997092 0.258303 0.662123 -0.711823 0.098109 -0.310342 -0.565196 -0.846689 -0.269974 -0.107979 -0.388927 0.741644 -0.751842 0.507597 -0.937719 -0.577556 -0.753574 -0.701138 -0.683412 0.113771 -0.390162 0.868007 0.623599 0.539274 -0.929324 0.878628 0.670680 -0.489374 -0.373657 0.877858 -0.573464 -0.376565 0.136161 -0.911342 -0.088388 -0.765730 -0.221684 0.346415 -0.612419 0.508343 -0.761564 -0.001346 0.249987 -0.513405 -0.493749 0.312268 -0.090961 -0.247323 0.611130 0.225627 0.866449 -0.779032 0.093634 0.490048 0.760241 0.164309 0.368677 0.430921 0.674936 0.995020 0.308779 -0.898529 -0.381545 -0.555061 -0.809870 0.530067 -0.320791 -0.031554 -0.123518 0.066790 -0.523211 0.114919 -0.934556 0.726775 0.601513 -0.428305 0.039043 -0.489448 0.324373 -0.349827 0.736179 0.190821 -0.128859 -0.170187 -0.319130 -0.368618 0.994122 -0.950453 -0.937697 0.669058 -0.955433 0.371082 0.770529 -0.336978 0.816021 0.960659 -0.806911 -0.504770 -0.070895 0.069571 0.562020 0.405893 -0.815510 0.627464 0.132669 0.786003 -0.800841 -0.828288 -0.703445 0.523531 -0.178115 -0.967266 -0.285647 0.693026 -0.137453 0.395223 -0.675592 -0.143331 0.444769 -0.613290 -0.474273 0.489336 0.757792 -0.703744 -0.847641 0.573813 -0.743086 -0.654552 -0.930957 0.186019 0.415019 0.631063 -0.408088 0.599509 0.258527 0.724581 0.385512 0.457686 0.896293 0.682068 -0.018783 -0.281823 0.714802 0.695570 -0.588797 -0.422651 0.090793 -0.264389 0.434018 -0.464437 0.122321 0.959745 -0.975101 -0.119887 -0.744000 -0.822742 -0.546074 -0.487086 -0.477295 -0.477031 0.698933 0.937724 -0.845968 -0.709155 0.537233 0.412559 -0.984574 -0.077254 -0.129755 0.911718 -0.395187 0.851463 -0.370105 -0.680385 0.547033 0.041099 -0.103036 -0.362174 0.776709 -0.669018 0.173389 -0.100970 -0.709273 0.198288 0.779143 -0.453273 0.375546 -0.766930 0.059641 0.898251 -0.243961 -0.241426 0.835975 -0.089929 0.049419 0.373209 -0.677370 0.064845 -0.704046 0.192875 -0.023437 -0.099232 0.044338 0.606458 0.220383 -0.408629 -0.352443 -0.882653 0.229198 -0.575734 -0.551671 -0.597413 0.323296 -0.260944 0.600875 0.102440 0.285783 -0.023580 0.335509 -0.654575 -0.125329 -0.908452 0.103999 -0.289353 
0.001619 -0.846582 -0.916145 0.324249 0.218263 -0.620190 -0.482875 -0.805174 0.280577 0.561463 0.801284 -0.499040 -0.847166 -0.551159 -0.381693 0.382031 -0.126893 0.066637 0.784618 -0.803596 0.805693 0.385492 0.298843 0.091476 -0.638087 -0.365648 0.436901 0.236584 -0.274100 -0.459100 0.947231 0.727519 -0.305682 -0.968914 0.051768 0.912581 -0.589104 0.568893 -0.892593 0.691473 0.130355 0.908692 -0.807567 0.283189 -0.642467 -0.189259 -0.334780 0.230640 0.877377 -0.550162 0.427044 0.683071 0.835331 -0.274113 -0.225453 -0.802757 0.360239 -0.788552 0.433827 -0.913861 -0.247652 0.381058 0.813658 0.446666 0.412144 -0.134574 0.359248 0.823039 -0.565681 0.466655 0.514512 0.564674 0.375347 0.706946 -0.152137 0.732880 -0.482314 0.513084 -0.036480 -0.604937 0.962922 -0.609437 -0.921866 0.798253 0.116450 -0.147319 0.995496 -0.523311 0.064129 0.429323 -0.437172 0.816477 -0.189619 -0.623514 0.263143 -0.777475 0.241912 -0.377609 -0.954436 0.676231 -0.910954 0.560077 0.240905 0.464392 0.267022 -0.911231 0.197272 0.784708 0.601852 -0.839209 -0.820228 0.564774 -0.448645 -0.742094 0.363027 0.667805 0.110587 0.358523 -0.855506 -0.825284 -0.212154 -0.292678 0.991193 0.598227 0.083808 0.254336 0.820752 -0.674279 0.876727 0.866316 -0.998048 0.965773 0.426393 0.242857 0.430165 -0.306584 0.331625 -0.372563 -0.521876 -0.066522 -0.211772 -0.342104 -0.501748 0.339583 -0.084198 0.861279 0.007388 -0.973611 0.219802 0.151882 -0.798895 -0.992352 0.859204 -0.807702 0.605875 -0.056987 0.446634 0.426627 0.268733 0.323362 0.292944 0.270685 0.289135 -0.280663 -0.486458 -0.280701 0.412753 0.845167 0.346736 0.890877 -0.221355 -0.865036 -0.451227 0.276897 0.474547 0.464575 0.138176 -0.518065 0.490963 -0.642022 0.633817 0.692068 -0.634374 0.493021 0.884366 0.971501 -0.563966 0.331001 0.398128 0.704767 -0.345637 -0.308928 -0.024548 0.943497 0.410409 0.488994 -0.337203 -0.176838 0.334161 -0.990467 -0.285962 -0.887194 -0.855503 0.262811 0.389703 0.619044 -0.272614 -0.472121 -0.899021 -0.781651 -0.114143 0.734796 0.910417 0.251483 0.227817 0.794784 0.222983 0.663851 0.125785 -0.378889 0.368618 0.780147 0.312183 -0.655930 0.723644 -0.277408 0.833064 -0.613559 0.545753 0.167226 -0.604026 -0.740208 0.280032 -0.459529 0.522603 -0.330265 -0.840485 -0.750012 0.197615 -0.739506 -0.531663 -0.916528 0.995290 -0.621246 0.334954 0.223107 -0.826462 -0.442063 -0.113042 0.299323 0.179049 -0.744424 0.079470 -0.508768 -0.400354 -0.196885 0.213823 -0.567289 0.189556 -0.240423 0.599936 0.585530 0.019368 -0.120031 -0.874000 -0.458029 0.549704 -0.714485 -0.208041 -0.252681 -0.453991 0.260296 -0.169210 -0.458702 0.639051 -0.834256 0.764405 0.812589 -0.276318 -0.348637 0.111912 0.902731 -0.093061 -0.808618 -0.606038 0.506585 -0.005503 0.607786 0.939296 -0.815947 -0.632637 0.539232 0.769582 0.386731 -0.580799 0.895583 0.928702 0.968905 -0.818902 -0.279339 -0.283777 -0.272894 0.980957 0.547014 0.268405 0.620008 0.712758 0.032810 0.432597 -0.563560 0.684173 -0.455491 -0.660830 -0.408889 -0.264109 -0.266867 -0.902304 0.730388 -0.659082 -0.963008 0.914441 -0.291719 0.576225 0.684023 -0.904988 0.995426 0.579606 -0.976286 0.964330 0.760703 -0.255625 -0.319446 -0.512190 -0.274668 -0.772433 0.756215 -0.654660 0.940325 -0.210976 0.777937 -0.623235 -0.526803 -0.677555 -0.284065 0.064308 0.058336 0.449068 0.162005 -0.211276 0.789987 0.198997 -0.296835 -0.501732 -0.224778 -0.612812 -0.406720 -0.229353 0.966793 -0.383006 -0.265022 0.727497 0.361369 0.415532 -0.784694 -0.913299 0.643099 0.971521 -0.567959 0.583424 -0.239455 -0.790023 0.960189 0.233742 -0.467577 -0.323875 -0.701950 0.590759 -0.874807 0.460055 -0.620517 0.915180 -0.340948 0.082648 -0.586553 0.434273 0.469836 0.006727 -0.795079 0.436629 0.623721 -0.060101 0.164125 -0.014911 -0.644570 0.379432 0.071790 0.998529 0.350953 0.503830 0.581954 -0.888502 0.713808 0.542143 0.345240 -0.753770 -0.781732 0.643290 0.836989 -0.656539 0.103345 -0.783528 -0.741359 0.762397 0.299120 -0.327912 0.196670 -0.231045 0.678815 0.401591 -0.794416 0.302536 -0.658511 0.369709 -0.712375 -0.303080 -0.250859 0.359415 -0.304551 -0.899906 -0.136754 -0.722597 -0.788408 -0.422947 0.819546 0.556832 -0.176717 -0.962186 0.200123 -0.339728 -0.618725 -0.696532 -0.123256 -0.360084 -0.934136 -0.824136 0.312004 0.262534 -0.055181 -0.009181 -0.335875 0.150403 -0.706645 0.005614 -0.479888 -0.419019 0.702534 0.269254 0.940396 -0.602017 0.369348 -0.196359 -0.324614 0.580940 0.380695 -0.505068 0.137772 -0.796022 -0.467255 -0.662106 -0.135750 -0.085979 -0.358638 0.740995 0.553936 -0.292774 0.916858 -0.134059 0.969761 -0.138323 0.856760 -0.366114 -0.987920 -0.849885 0.639500 -0.467808 -0.268904 0.342034 0.801446 -0.328508 0.740017 0.170793 0.475133 -0.584598 -0.248267 -0.144172 -0.089666 0.889505 0.059806 0.443079 -0.772600 0.924057 -0.642900 -0.131238 0.665051 0.911036 0.575988 0.581909 -0.223023 0.545749 -0.556414 -0.366263 -0.820366 -0.544334 -0.216148 0.819134 -0.012142 0.514948 0.161168 -0.210696 -0.813560 -0.098816 0.960097 0.661573 0.316587 -0.288170 -0.482599 -0.773080 -0.398665 0.577207 0.670000 -0.171265 0.501264 -0.972901 0.697496 0.166315 0.938136 0.273484 -0.251776 -0.284887 -0.180767 0.191811 0.348849 -0.001133 0.647477 -0.867298 -0.181999 -0.364665 0.647650 0.979169 0.424639 0.834089 -0.119647 0.384736 0.495663 -0.803060 -0.903433 -0.986936 -0.576140 -0.302098 0.590271 -0.906140 0.526637 0.091534 -0.879041 0.224133 -0.742151 -0.940905 -0.502382 0.006073 -0.225793 0.316851 -0.802116 -0.876943 -0.684282 0.845361 -0.744242 0.133719 -0.519304 0.903408 0.112888 0.905335 0.737497 0.993241 0.290072 0.233160 -0.809819 0.386638 0.246223 -0.385959 -0.915460 -0.163506 -0.292099 0.611177 0.928029 -0.171140 -0.164690 -0.814122 -0.112045 0.332927 0.191951 0.662162 -0.350222 0.389835 0.785219 -0.034504 0.235196 -0.959023 -0.900786 0.715892 0.944385 0.212102 0.621227 0.681883 0.205343 -0.088701 -0.084957 0.395523 -0.702063 -0.838734 -0.990436 -0.617523 -0.002240 -0.282535 0.993653 -0.074211 0.546325 -0.171037 0.111667 -0.565721 -0.838109 -0.696382 -0.903558 -0.188332 0.693454 0.881661 0.777164 -0.071350 0.922638 0.876378 -0.355458 0.867023 0.088480 -0.734231 0.548906 -0.706177 0.177068 -0.536051 0.689346 0.475005 -0.374785 0.698910 0.857482 0.622975 -0.583625 0.851136 -0.451236 0.962699 -0.319901 0.660431 -0.603021 -0.158011 0.964049 -0.506580 0.653658 0.657503 -0.624919 0.430822 -0.413847 -0.702281 0.307200 0.230695 -0.835257 -0.604320 0.496464 0.713649 -0.310497 -0.326468 -0.822403 -0.621152 -0.851462 -0.197188 -0.922242 -0.993980 -0.574213 -0.505867 0.857155 -0.025449 -0.543168 -0.462746 -0.365018 -0.146189 0.379243 -0.400969 0.347232 0.032901 -0.743466 0.722313 -0.536277 -0.157314 -0.979968 0.770922 -0.926619 -0.815225 -0.833398 0.569845 0.898424 -0.143895 -0.756623 -0.923979 0.234953 -0.608085 -0.121166 0.312712 -0.602065 0.304620 0.806845 -0.744910 -0.720829 -0.736323 -0.207656 -0.085847 0.117488 -0.828412 0.513184 -0.535280 0.204489 0.769717 -0.812967 0.668212 -0.387596 -0.792935 0.439134 -0.314216 -0.608160 0.605736 -0.744371 -0.709736 -0.538159 -0.500993 -0.633714 0.696794 -0.109078 0.245119 0.009506 0.288857 -0.450260 -0.183649 0.543947 -0.171089 0.080028 -0.663709 0.743064 -0.802483 -0.492121 0.256248 -0.337763 0.712368 0.025965 -0.150730 0.380580 0.638368 0.056335 -0.180286 -0.675847 0.448175 -0.574550 -0.420218 0.738440 -0.112709 0.078789 -0.895275 -0.415915 0.969711 0.349845 0.593591 0.258568 0.899584 -0.590058 -0.197485 -0.271505 0.489970 0.138806 -0.528441 0.687487 0.646686 0.727807 -0.650276 0.359054 -0.246228 0.198994 -0.260366 -0.607860 -0.744671 0.559348 -0.283707 0.703504 0.984797 0.296075 0.441944 -0.127911 -0.625136 0.546669 0.456174 -0.655425 -0.103486 0.049765 0.603143 -0.203902 0.459708 -0.594343 0.524594 -0.050322 0.544463 0.996153 -0.362835 0.191149 0.723960 -0.013111 -0.449797 -0.522268 -0.814118 0.289837 -0.130128 -0.558789 -0.150816 0.586165 -0.855285 -0.166018 -0.117760 0.586658 0.706070 0.257104 0.133328 0.162244 0.601679 -0.970158 -0.787991 0.204821 -0.174060 0.671717 0.610479 -0.649466 -0.378605 0.154942 -0.653313 0.258560 -0.653909 -0.929353 -0.754551 -0.103706 -0.451621 -0.568669 -0.813870 0.418250 -0.127459 0.035315 0.004415 0.017256 0.869296 0.886655 -0.396085 0.575366 0.143758 0.737242 -0.262390 -0.254563 0.767084 -0.050380 0.950258 -0.406976 -0.378664 0.560737 -0.056442 0.242731 -0.284321 0.290245 -0.498709 0.061770 0.360891 -0.253260 0.958064 0.909270 0.178070 -0.855806 0.327520 -0.949388 0.179509 -0.668065 0.067868 0.048805 -0.781410 0.671783 -0.375828 0.362348 0.409025 0.361782 -0.892214 0.176109 -0.688598 -0.941956 0.769133 -0.067262 0.618781 -0.287309 -0.824531 -0.665540 -0.997065 -0.323239 0.396230 0.363827 0.423500 0.354294 0.273097 -0.398429 0.498488 -0.399383 -0.347818 -0.322003 -0.067448 0.720050 0.726803 0.151142 0.391833 -0.649026 -0.486509 -0.199142 0.712756 -0.378724 0.976968 -0.975842 -0.320680 0.746101 -0.043104 -0.701899 -0.541208 0.132365 -0.367438 -0.538273 0.809126 -0.971208 0.825554 0.232626 0.383086 0.098651 0.834197 -0.118426 0.699268 -0.513621 0.559572 -0.368180 -0.793570 0.286374 0.782962 0.598263 0.637349 -0.703547 -0.600879 0.350105 -0.082271 -0.623912 0.374263 0.597049 -0.877811 -0.668841 0.895150 -0.419019 0.463524 -0.472288 0.042708 0.272650 -0.443496 -0.131738 -0.494724 0.939589 0.966912 -0.660527 -0.178836 0.666180 -0.174148 -0.619265 -0.702000 0.032282 0.667110 -0.919038 -0.369455 0.304458 -0.622586 0.029666 -0.345437 0.295143 0.405754 -0.971175 -0.107808 0.527943 -0.640016 -0.212658 -0.891076 0.823508 0.315054 0.151631 0.096158 0.871558 -0.980107 0.601435 0.811147 0.986805 0.940908 -0.367689 0.652985 -0.233240 0.013046 0.950985 0.799042 -0.319845 -0.968053 -0.570413 0.984614 -0.590639 0.459252 -0.360824 0.704504 -0.134994 -0.331998 -0.403304 -0.607051 0.027986 0.384038 -0.498127 -0.148506 -0.300908 0.653504 0.947652 -0.429351 0.673397 0.549087 -0.618204 0.660203 0.489995 0.014107 0.313188 -0.743245 -0.972847 0.264173 -0.944203 -0.292692 0.296119 -0.514616 -0.308078 0.705480 0.944636 0.331098 0.409984 -0.190358 0.999100 -0.993320 0.202591 0.027086 0.390718 0.704464 0.878580 -0.910190 0.357968 0.826232 -0.339541 0.031366 0.375319 0.042255 -0.308432 -0.134686 -0.943638 -0.995244 0.122069 -0.916485 0.268928 0.177866 -0.209177 -0.434953 0.663250 0.482744 -0.729472 0.607886 -0.186158 0.680512 -0.582472 -0.187058 0.687191 0.620119 0.840028 0.077909 0.324583 0.718608 0.167719 -0.317449 0.544840 0.828178 0.713917 -0.079840 -0.129567 -0.594515 0.785474 -0.073205 -0.589759 -0.092457 0.010309 0.679169 -0.914591 0.801132 -0.755783 0.748659 0.283876 -0.485256 0.356545 -0.902281 -0.804744 0.774073 -0.089339 0.882447 0.394193 -0.249311 -0.039644 -0.281224 -0.530702 -0.871925 0.401327 -0.985862 0.956253 0.115244 -0.065702 -0.173314 0.520729 -0.280228 0.753480 0.930970 0.627315 -0.236210 0.610139 0.712724 -0.435078 0.854356 0.461383 0.848798 -0.630900 -0.182071 0.946517 -0.435644 -0.407998 -0.142822 -0.553197 0.986195 0.607868 0.407159 -0.295030 -0.922835 0.535234 -0.893702 -0.908697 0.491487 0.221542 0.025601 -0.681827 -0.257729 0.745373 -0.928347 -0.326759 0.372687 -0.164557 -0.716620 0.085411 0.400365 -0.862264 -0.453206 0.249163 -0.493165 0.364723 0.195680 0.071191 0.956725 -0.947141 0.517994 0.942920 0.660726 -0.074847 -0.352110 0.737892 -0.539613 -0.245812 0.829195 0.951874 0.975730 -0.145204 -0.729953 -0.282000 -0.399832 -0.658300 0.391241 0.972856 0.177143 0.674621 0.058267 -0.422492 0.812357 0.605061 0.826671 -0.680808 -0.030216 0.022351 0.390383 -0.073491 0.075210 -0.091623 -0.130571 -0.264063 0.833530 0.517319 -0.526172 -0.706083 -0.728493 -0.696977 -0.754208 -0.752763 0.157819 -0.484161 -0.034763 0.757987 -0.142461 -0.643522 0.730843 -0.965319 -0.968900 -0.210891 -0.387811 0.843457 -0.605829 -0.561140 -0.837351 0.363955 0.461212 0.553033 -0.709536 -0.463578 -0.538590 0.159893 0.272359 -0.705060 -0.322787 0.746187 -0.411143 -0.051280 -0.950790 -0.165351 0.195956 0.207029 0.350487 -0.838807 -0.034984 -0.791974 -0.482328 -0.304141 -0.757293 -0.451228 0.484969 -0.145103 -0.607771 0.879139 0.293757 -0.445122 0.243094 -0.245032 -0.892089 0.533558 0.291390 -0.430680 -0.306549 -0.436251 -0.135740 0.370664 -0.690064 0.453118 -0.680616 -0.640854 -0.712234 0.515340 0.566174 0.638254 0.676534 -0.468809 0.846279 -0.805795 0.227050 -0.911013 -0.257023 -0.287982 -0.056117 0.135206 -0.408843 -0.762360 0.690084 0.834251 -0.007392 0.797994 0.367809 -0.716001 -0.632686 -0.938740 -0.152252 0.231575 0.431924 0.157683 -0.315308 0.751308 0.516829 -0.027541 0.266648 0.083003 -0.389288 -0.056818 0.614194 -0.543008 0.137387 -0.158757 -0.454022 0.880364 0.553262 0.489862 0.015570 -0.855581 0.727502 -0.294347 0.978670 -0.279890 -0.496353 0.346479 0.004109 -0.129038 0.407739 0.851856 -0.897464 -0.160336 0.009539 -0.212771 -0.409028 -0.473632 0.759687 0.857620 0.609371 -0.629601 -0.199198 0.223565 -0.172609 0.938189 -0.935192 0.373369 0.818553 0.618070 -0.136769 -0.165877 0.762489 -0.409267 0.539776 0.741158 0.310843 -0.956577 0.087637 -0.685049 -0.085615 -0.504623 -0.833192 0.016921 0.335041 0.176347 0.804150 0.926013 0.702715 0.563837 0.783633 0.312086 0.934236 -0.415565 -0.464349 -0.238372 -0.477377 -0.399541 -0.865003 -0.658824 -0.781471 -0.001772 0.175299 0.981017 0.588961 -0.284925 0.722176 -0.100196 -0.241502 -0.190187 0.214755 0.672883 0.305190 0.381563 -0.310196 -0.359769 -0.442090 -0.506046 -0.433756 -0.739375 -0.942209 -0.650123 0.572711 0.992027 -0.065689 -0.891638 -0.246345 0.456934 -0.291179 -0.111348 0.798110 -0.072650 0.886880 -0.026591 -0.091632 0.475841 0.688484 -0.369456 -0.624356 -0.553019 0.440357 0.590399 -0.880136 -0.254453 -0.028038 -0.190332 0.385779 0.529872 0.303621 0.952023 0.790497 0.361412 -0.698101 0.363208 0.353439 0.236211 0.471570 -0.892907 -0.306855 -0.819608 -0.004255 -0.508744 0.107742 -0.117375 0.464665 -0.983890 -0.641535 0.153148 -0.353346 -0.265890 0.600130 -0.912989 -0.675491 0.719993 -0.167442 0.296471 -0.470339 -0.781663 -0.173657 0.833282 -0.829641 -0.383159 0.194694 -0.527741 0.980049 -0.451867 0.708469 0.451619 -0.344774 -0.598386 0.632011 0.650971 -0.107130 -0.260247 -0.466404 -0.642465 -0.244137 -0.107938 0.510683 0.402517 0.626172 0.110813 0.489527 0.950681 -0.169194 -0.677915 0.247152 0.360467 -0.459578 -0.926504 0.193749 -0.289219 -0.309664 -0.611556 0.183040 -0.329615 -0.063423 -0.108491 -0.877996 0.591803 0.293124 0.754015 0.242774 -0.814006 -0.506232 0.776371 -0.456472 0.249631 -0.331568 -0.945789 -0.347852 -0.705396 0.165024 -0.858325 -0.754715 0.995830 -0.536240 0.492437 0.356297 0.004183 0.565932 -0.449954 0.714964 -0.743731 -0.061510 -0.101996 -0.073346 0.875066 0.789513 0.048658 0.466869 0.082637 -0.197327 -0.290357 0.268631 0.296441 -0.513986 0.812159 -0.453927 0.154446 0.866370 0.198221 0.449050 0.031394 0.339896 0.694335 0.027223 0.803656 0.186772 -0.616480 -0.192161 -0.247296 -0.066434 -0.477197 0.008973 0.872056 0.420807 0.935626 0.747122 0.210320 -0.015716 0.213991 -0.707042 0.786958 0.923635 0.561588 0.083399 -0.590351 0.373747 0.629472 0.564095 0.240117 -0.172308 0.013145 -0.728489 -0.832412 -0.292520 0.298734 0.971245 0.894252 0.682254 -0.220916 -0.353044 -0.384180 0.301887 0.655929 -0.512124 -0.277306 0.591555 -0.765002 0.933014 -0.424161 0.448990 -0.774028 -0.637203 0.372624 0.787560 0.446196 0.782273 0.161307 0.075668 0.346368 -0.598575 0.903360 -0.640487 -0.327064 -0.929051 0.066993 0.971670 -0.957807 -0.038755 0.653924 -0.178723 0.608201 -0.730255 -0.876837 0.264129 -0.242379 -0.154143 -0.144315 -0.007380 -0.221129 0.431524 -0.558391 0.004843 0.794321 0.814234 -0.207597 0.240517 0.596507 0.953710 -0.683815 -0.057125 -0.644865 -0.780455 0.302388 0.028071 -0.709507 -0.630619 -0.000259 -0.667314 0.330626 -0.346335 0.153963 -0.061173 -0.076590 0.277127 -0.797043 0.681031 -0.877016 0.058641 -0.326349 -0.098145 -0.509835 0.115260 0.906697 -0.715514 -0.070507 -0.300900 0.525003 -0.474000 -0.347190 0.841187 0.468875 0.007945 -0.939268 -0.228738 -0.963985 -0.648775 0.140644 0.035756 -0.316088 -0.528730 0.689421 0.837875 0.410097 -0.387169 0.115002 0.613054 -0.706138 0.237985 -0.328305 -0.032487 -0.860160 0.161860 -0.917227 -0.953463 0.446346 0.012266 -0.254363 -0.028651 0.538266 0.398447 -0.187464 0.007141 -0.593608 -0.126731 0.778403 -0.557593 0.224494 -0.080953 0.478163 0.908406 0.390316 0.167584 0.746281 -0.199587 0.780415 -0.138718 -0.586533 -0.925723 -0.900732 0.085162 0.041789 -0.760893 -0.752978 0.124562 -0.714356 0.693368 -0.863172 0.031281 -0.335283 0.675094 -0.570272 0.477254 -0.317766 -0.163881 -0.649478 -0.539363 0.278526 0.575016 0.379684 -0.243311 0.483422 -0.230000 0.924273 0.229703 0.570414 0.704687 -0.909015 0.983881 0.778964 -0.809747 0.069043 -0.179247 -0.570640 0.316065 0.945315 -0.284996 0.009433 -0.917857 0.746285 0.674150 0.757237 -0.823987 0.151404 -0.560528 0.012133 0.501926 -0.099891 -0.709341 0.076942 -0.720207 0.047348 -0.439636 0.049794 -0.028380 0.790067 -0.379793 -0.323692 0.881052 -0.395912 -0.544729 -0.928695 0.673132 0.276025 -0.499335 -0.010803 0.221340 0.215669 0.998630 0.303483 -0.038046 0.672780 0.060720 0.137967 -0.175815 0.500192 -0.849900 -0.673889 -0.599699 -0.559241 0.403053 -0.319905 0.488107 0.963417 0.729888 -0.540273 0.753484 -0.649904 0.136035 0.634536 -0.045816 0.591306 0.705841 -0.372684 -0.132669 -0.793494 0.616512 -0.911329 0.422175 0.615142 0.392154 -0.615870 0.287923 -0.547126 0.522097 -0.887893 0.953067 0.672197 -0.561782 -0.646632 -0.887044 0.841271 0.033463 0.601063 0.804689 -0.236649 -0.939210 0.558173 0.113447 0.196825 0.192710 -0.932369 -0.211868 -0.101449 -0.305053 0.655462 0.105057 -0.688541 0.744133 -0.472768 0.926602 0.136287 -0.088638 0.214524 0.589162 -0.566541 0.326632 0.542228 -0.894344 0.764850 0.895596 -0.781388 0.606122 -0.070941 0.819676 0.410810 0.692410 0.880466 -0.031017 -0.194144 0.077291 -0.838307 -0.126513 0.865423 0.060244 0.568434 0.520885 -0.834699 0.879893 0.265018 -0.307467 0.806495 -0.598695 0.603895 0.021019 0.990467 -0.962646 -0.652349 0.532695 -0.856990 -0.887499 0.428291 -0.638377 0.718623 -0.642650 -0.818702 0.129433 -0.950240 -0.938236 -0.901584 -0.144384 0.139055 -0.739891 0.729104 0.004478 0.320353 0.297538 -0.474637 0.485654 0.177431 0.790382 -0.821813 -0.016074 -0.808313 0.782082 -0.995055 -0.817846 0.819436 -0.647404 0.714849 0.962446 -0.534903 0.143140 -0.675931 -0.816281 0.500491 -0.494633 0.313152 0.550251 -0.432869 0.411569 -0.594133 0.706186 0.671678 -0.865029 -0.289336 -0.007969 0.432509 0.236027 -0.522316 -0.390060 0.026409 -0.344129 0.593866 0.218096 -0.562047 0.598810 0.400250 -0.742610 0.951406 0.115099 -0.780164 -0.583497 -0.741761 -0.456095 -0.399778 0.758730 0.049271 0.913375 0.308980 0.616402 0.324943 0.714847 0.322588 -0.003379 0.849818 -0.966748 0.988651 0.282327 0.269279 -0.533664 0.892267 -0.704313 0.122207 0.486132 0.513783 0.560161 0.084943 -0.085967 0.817550 0.036349 -0.970868 -0.962614 0.452852 -0.712629 -0.418709 -0.946926 -0.953899 0.630562 0.966449 0.355081 0.246964 0.291392 0.069928 -0.430448 -0.711987 -0.080253 -0.397196 -0.723336 -0.797926 0.872083 -0.257000 -0.905660 -0.832229 0.865207 0.580473 0.681554 0.425368 -0.334585 -0.404414 0.242918 0.701764 -0.375282 0.280304 0.154615 -0.087911 0.861595 0.207689 -0.041810 0.492157 0.174138 -0.686729 -0.260879 -0.534471 0.383199 0.308673 -0.246458 -0.697054 0.911477 0.030206 -0.494981 0.783561 0.773206 -0.400640 0.951331 0.638413 -0.820168 0.632885 0.063780 -0.154752 -0.771529 -0.693302 -0.452989 -0.146811 0.587002 0.701627 0.765278 0.448596 -0.090684 -0.276532 -0.059247 -0.916546 0.036738 0.679874 -0.451017 -0.580063 -0.011453 0.302525 -0.277117 -0.099975 -0.667269 0.227903 -0.316415 -0.894063 0.827262 -0.365084 0.744349 -0.992905 -0.732199 -0.191870 -0.147658 -0.503727 0.114828 0.399354 0.349462 -0.298170 0.100980 0.114740 -0.849574 -0.989704 0.838208 0.091179 -0.906250 -0.125054 -0.228947 -0.357267 0.294884 0.759600 0.945258 -0.982233 -0.340375 -0.722011 0.245669 0.343210 -0.616075 0.072932 0.978127 -0.871725 0.080026 -0.754072 -0.063595 0.932369 -0.257800 -0.948768 0.331723 -0.908338 -0.246938 -0.567297 0.206403 -0.096512 -0.557001 0.044610 0.994667 -0.463251 0.919557 -0.234280 0.179482 0.214440 -0.474680 0.124740 0.232207 0.184945 0.402729 -0.522124 -0.471845 0.786654 0.550808 -0.493718 0.914929 -0.369165 -0.247791 -0.148666 -0.436797 0.494410 -0.097434 0.894926 0.586072 0.655628 -0.672371 -0.207525 -0.440884 -0.229372 0.837085 -0.446217 0.307378 0.756642 0.319502 -0.513140 -0.028918 0.844823 0.611600 -0.796711 0.029767 0.014329 -0.318835 0.557922 -0.199016 -0.768026 -0.935796 -0.284087 -0.137192 -0.183587 0.567247 0.426012 -0.689177 -0.530187 0.320937 0.896896 -0.874559 0.648566 -0.310630 -0.315443 -0.580805 -0.473544 0.238340 0.726573 -0.716903 -0.442158 -0.786567 0.254179 -0.597335 0.825033 0.457468 0.432432 -0.160638 -0.861366 -0.009645 0.640346 -0.629393 0.054559 -0.643741 0.233416 0.870972 0.923506 -0.340573 -0.818205 -0.606681 0.980365 -0.921309 -0.481240 0.628931 -0.231938 0.203317 -0.951874 0.294517 -0.558343 0.774699 0.577615 -0.000501 0.988131 -0.168206 0.402163 0.813165 -0.710737 -0.165404 -0.347473 -0.572104 0.824950 -0.707127 -0.201496 -0.120491 -0.350868 -0.968081 -0.249519 -0.427361 -0.308653 -0.067724 -0.034042 -0.328289 0.010967 0.484718 -0.699358 0.779029 -0.311965 -0.651232 0.073546 0.129692 -0.876533 -0.348839 -0.870809 -0.888402 0.482955 0.531355 0.924763 0.772217 -0.634050 -0.422710 -0.799886 -0.809100 -0.129837 -0.001382 0.070409 0.519296 0.030537 0.820889 -0.908066 0.721884 -0.246834 0.057892 -0.606405 0.764133 -0.457390 -0.305763 0.543162 0.230646 0.043005 -0.383292 -0.639662 0.166472 0.267868 -0.510471 0.278070 -0.249177 -0.979116 0.202833 -0.476959 -0.613166 0.780122 -0.276846 -0.422266 -0.349714 0.721772 0.648143 -0.830419 -0.247691 0.469033 -0.738485 -0.525807 -0.777802 0.319407 -0.132212 0.986331 0.862017 0.562025 0.529493 0.092663 -0.394970 -0.853800 0.453001 0.771501 0.414069 0.942530 0.049571 -0.835108 0.963414 -0.747596 -0.312068 -0.649752 -0.967474 0.411087 -0.072018 -0.317188 0.132859 -0.423874 -0.147607 0.885168 -0.954841 0.113908 -0.640640 -0.732643 -0.566685 0.227148 -0.746312 -0.704667 -0.210827 0.783180 0.387995 0.394202 0.929381 -0.159004 0.165704 0.343449 -0.216474 -0.784725 0.508341 -0.253060 -0.532321 -0.803727 0.097188 -0.499795 0.607360 -0.974829 0.183017 -0.259782 -0.398704 -0.964590 -0.374614 -0.353545 0.149318 -0.015254 -0.086188 0.582634 -0.788106 0.167499 0.877966 0.001067 -0.049320 0.265961 -0.604731 -0.119939 -0.893042 0.560973 -0.776490 -0.109516 0.776248 0.731851 0.637424 -0.756073 0.928124 -0.265388 -0.255868 0.535484 -0.240218 0.927149 -0.724298 0.361079 0.962559 -0.098912 -0.992467 0.111877 0.885835 -0.078655 -0.305489 -0.902271 -0.911156 -0.427523 0.098796 0.039524 0.838439 0.494065 0.919585 0.945396 0.055039 -0.856905 -0.164120 -0.168713 0.874946 -0.526696 0.075214 0.803070 0.207916 0.819346 0.338554 0.967698 0.746495 0.614256 0.328776 0.709055 -0.484656 0.336310 -0.179068 -0.598821 -0.742345 0.515443 -0.501092 -0.653501 -0.912080 0.597704 0.386023 0.926359 0.091769 0.305608 0.871755 -0.853192 0.448702 -0.292364 -0.021905 0.323648 0.180939 -0.946691 0.126718 -0.611145 0.872655 -0.534728 -0.643447 0.619150 -0.920473 0.685329 0.328205 -0.405128 0.021639 -0.850863 -0.003950 0.279294 0.664580 0.494958 0.625792 0.752500 0.092661 0.011815 0.678859 -0.815570 -0.682577 0.550614 -0.668762 0.766126 -0.741750 0.309333 0.089774 0.439189 0.362641 -0.783508 0.828044 0.235296 -0.318237 -0.815403 -0.145554 -0.238709 0.869927 -0.817350 0.356162 -0.108434 -0.668213 -0.647788 -0.829141 0.996367 0.847170 0.796651 0.748867 -0.060169 -0.191533 0.427726 0.124262 0.125890 -0.021660 0.455500 -0.107985 0.236590 -0.235168 0.981789 -0.324221 -0.872527 -0.801719 -0.496176 0.362769 -0.119956 -0.311579 -0.782785 0.641335 -0.441653 -0.600135 -0.002503 0.449913 -0.268348 0.349709 
0.620772 -0.271981 0.196879 0.386513 -0.554009 -0.863289 -0.774110 0.873717 0.230051 0.320870 -0.117049 -0.283528 -0.756205 -0.880459 0.450394 -0.774415 -0.204680 0.608777 -0.576135 0.299143 -0.028454 0.303909 0.987564 0.188761 -0.054756 -0.454088 0.588626 0.942740 0.995824 -0.679722 0.292450 0.616596 0.048296 -0.510671 0.034020 0.525182 -0.373960 0.259910 0.429792 0.887012 -0.388310 -0.687257 -0.396516 -0.144515 -0.567717 -0.915212 0.081070 0.227603 0.693565 0.504935 -0.473253 -0.334889 -0.191156 -0.485689 0.853872 0.754088 0.060223 0.442498 0.696829 0.056047 0.762776 -0.010722 -0.327357 -0.188928 0.478607 0.706663 -0.663746 -0.895353 -0.033428 0.766046 0.991659 0.578262 -0.921211 -0.404857 -0.566253 -0.488928 -0.320069 0.514817 0.738676 -0.626503 0.019752 -0.734577 0.038608 0.828596 -0.220266 -0.107520 0.582685 0.839956 -0.665022 0.279513 -0.103997 -0.902246 -0.731209 0.568646 -0.091173 0.747399 0.275309 0.245081 0.852046 -0.758119 0.011127 0.843705 0.820143 0.089916 -0.561152 -0.746110 0.600988 0.118779 0.768707 0.339664 0.492276 -0.211541 0.605087 -0.469116 -0.382945 -0.615180 0.423364 -0.800260 -0.775224 0.758342 0.479253 0.120779 0.856097 0.748044 -0.310575 -0.235077 0.495443 0.964734 -0.989996 0.347489 -0.793385 0.021131 0.191194 -0.973242 -0.888953 0.630042 -0.719352 0.712035 -0.251179 -0.950645 0.051699 -0.758903 -0.162186 -0.343214 -0.228019 0.454869 0.041606 -0.804655 0.654609 0.266383 0.953687 0.133862 -0.612838 0.809783 -0.118094 0.076587 -0.425293 -0.622651 0.041321 -0.415289 0.724838 0.247936 0.605842 -0.083968 0.274694 0.716889 -0.453926 0.555342 0.428925 0.294895 0.604697 -0.519376 0.535992 -0.557490 0.137410 -0.692027 0.897379 -0.820983 -0.496683 0.551988 0.445399 -0.542996 -0.314150 0.832561 -0.733213 0.567756 -0.090851 -0.158506 0.945105 0.950470 0.426205 0.669944 0.198406 0.032047 -0.414024 -0.526899 -0.251064 0.132050 -0.971557 -0.822139 -0.573054 0.633140 -0.341515 0.962938 -0.924350 0.795895 -0.729089 0.973029 0.974912 -0.225772 0.525017 0.420311 0.231232 -0.789133 0.252872 0.498020 0.778623 -0.837979 -0.660486 0.723728 -0.887509 0.765719 0.393672 0.310897 -0.202234 0.979648 0.783998 0.546702 0.111699 0.812441 0.724563 0.538644 0.445580 -0.616952 0.501582 0.521230 -0.821056 0.772493 0.494259 -0.846144 -0.453279 0.019276 0.574167 0.777953 0.230143 -0.172961 0.275973 0.008765 -0.010940 0.615487 -0.267506 0.101551 0.381206 -0.873834 -0.587552 -0.821029 -0.894186 -0.803554 0.725674 0.217512 -0.991113 0.450237 -0.243843 0.454468 0.833285 -0.742261 -0.024302 -0.987771 -0.969768 -0.530043 -0.833916 -0.423047 0.489234 0.740251 -0.645094 -0.280624 -0.432710 0.630879 0.728142 0.556349 0.246366 -0.539365 -0.342100 -0.372428 -0.413199 0.070348 -0.193457 -0.307385 0.266794 -0.467783 0.910127 0.275681 0.982453 -0.333717 -0.269851 0.815738 -0.075978 0.705846 0.827967 -0.045746 -0.824196 0.994051 0.531206 0.665037 0.734302 0.886112 -0.615586 -0.698409 0.516992 -0.887444 0.857941 -0.236642 -0.426809 -0.484160 0.390929 0.159992 0.586188 -0.802528 0.852607 -0.147018 -0.270311 0.762734 -0.871337 -0.287858 -0.570983 -0.141188 -0.472119 0.353039 -0.435342 -0.644152 -0.692707 -0.259538 -0.650101 0.838499 -0.594501 -0.915799 0.724611 -0.210087 -0.614208 0.241603 -0.097532 -0.756267 -0.995039 0.475659 -0.240427 0.395890 -0.364349 -0.654239 0.593362 -0.511742 0.198744 -0.676949 -0.749009 0.327407 0.035194 -0.319992 -0.813781 0.563074 -0.966953 -0.249123 0.918922 -0.659660 0.491339 -0.731179 -0.821161 0.896838 -0.646978 0.903450 -0.313249 -0.261186 0.145053 0.589219 -0.017453 0.150014 0.064878 0.742120 -0.454096 0.700530 -0.912118 -0.860734 -0.811212 0.286625 -0.537683 -0.560221 -0.385968 0.497511 0.119788 -0.199749 0.060585 0.152835 0.551127 -0.020493 0.493175 0.042466 0.248329 0.672014 -0.060696 0.601351 0.575464 0.626054 -0.659835 -0.279483 0.215273 0.322712 0.870531 -0.719848 0.064833 -0.583565 0.980682 0.152715 -0.444299 -0.830531 -0.560660 0.018018 -0.390751 0.053372 -0.484471 0.729036 0.853623 0.576114 -0.118129 0.404750 -0.444378 -0.624954 -0.552784 0.803950 -0.952941 0.386520 0.405301 0.622523 0.012575 0.745467 -0.656959 -0.772152 0.068179 -0.786428 -0.492000 -0.866988 -0.369993 -0.511318 0.285727 0.185708 -0.341849 0.725067 -0.796274 0.267399 -0.221561 -0.280745 -0.003564 -0.367938 -0.704631 0.878306 -0.963187 -0.149009 -0.746648 -0.515971 -0.345059 -0.699588 0.870549 -0.939757 0.922935 -0.116876 0.805710 -0.734025 0.110972 -0.126111 -0.520453 0.618972 0.006901 0.109554 -0.892347 -0.707372 -0.704738 -0.234196 -0.982305 -0.501012 -0.966796 -0.203866 0.218243 0.029639 0.428196 0.513612 -0.092054 0.465009 -0.635397 0.161298 0.949038 0.019544 0.461709 0.819587 0.079787 0.384644 -0.297289 -0.114504 0.650620 0.813683 0.759385 -0.869833 0.432654 -0.233714 0.239721 0.540308 0.058914 0.534982 -0.693888 0.076608 -0.966030 -0.660684 0.872743 0.252212 0.368955 0.300939 -0.234176 -0.723099 -0.234052 0.130427 0.438199 -0.285014 -0.850029 -0.100092 -0.465427 0.229758 -0.715448 0.237284 -0.884746 0.935172 0.050967 0.874639 -0.934661 -0.516379 -0.359075 0.305060 -0.976071 0.699839 -0.159958 -0.669959 -0.223553 -0.125988 -0.330644 -0.350811 -0.873776 -0.961689 0.950128 -0.107951 -0.684788 -0.283924 -0.977525 0.753411 0.431062 -0.827554 -0.346681 0.965636 0.402204 -0.062129 0.202920 0.517457 -0.126957 -0.746114 0.392096 -0.061618 -0.262493 -0.966979 -0.756558 -0.238564 0.732860 0.083484 0.091477 -0.490693 0.957496 0.760833 0.158496 -0.916280 0.799145 0.108625 -0.024232 -0.885643 0.824701 -0.001756 0.867768 0.255764 0.170690 -0.478913 0.221399 -0.427107 0.458958 -0.575681 -0.909649 -0.667999 -0.321795 0.482447 0.270383 0.415712 0.515468 0.513825 -0.822852 0.248328 -0.402692 0.268625 0.757635 -0.445196 0.029458 -0.083869 -0.361476 -0.171398 -0.975244 0.614292 -0.057041 0.849457 -0.387464 -0.189273 0.105220 0.783226 0.331814 -0.673380 -0.643881 -0.209228 -0.249062 -0.553530 0.122773 0.429143 0.928917 -0.606844 -0.155144 0.444385 0.906981 0.022004 -0.307287 -0.495711 -0.709371 -0.549652 0.059093 0.320087 0.366479 0.697617 -0.851311 0.391235 0.311909 0.091649 0.240692 0.924445 0.902376 -0.654088 0.707671 0.234189 -0.327468 -0.936210 -0.975039 0.423470 -0.489740 0.147734 -0.147387 -0.560824 0.540890 0.697469 0.883562 0.447870 -0.280527 -0.423725 0.952160 0.010102 0.026623 0.011253 -0.669811 -0.606898 -0.291130 -0.521122 0.784337 -0.979221 0.570527 0.025029 0.945225 0.472902 0.370941 0.652895 -0.292908 -0.956528 0.716685 -0.267948 0.466942 -0.773055 0.879786 -0.680444 -0.333879 0.420675 -0.982975 -0.450317 -0.131454 -0.263502 0.125958 -0.179294 0.746600 -0.847419 0.831959 -0.923211 -0.454317 -0.459171 -0.444332 -0.669980 -0.438392 -0.873806 0.355048 -0.493167 0.599097 -0.274011 -0.840272 -0.693812 -0.230539 0.876414 0.038241 -0.763597 -0.896642 -0.081974 -0.444041 -0.230520 -0.661298 -0.427016 0.319163 0.207248 0.309482 -0.554880 -0.972047 0.056082 -0.402299 0.859912 0.132872 0.143384 -0.599259 0.688539 0.473404 -0.037651 0.814734 -0.171548 0.469182 0.413831 0.554441 0.628910 0.720019 -0.676098 0.505323 -0.241741 -0.439694 0.608682 0.676286 0.116265 -0.621839 -0.985012 0.689249 0.697324 0.222235 -0.001269 -0.857556 0.250189 -0.945187 -0.259855 0.110101 0.187685 0.883529 0.510841 -0.123776 0.356933 -0.526810 -0.309042 -0.814615 0.942372 -0.895211 0.739826 0.571281 0.824808 -0.936272 0.076605 -0.416933 -0.375966 -0.314714 -0.740647 0.740298 0.063448 -0.725659 0.429547 -0.239228 0.496576 -0.571722 -0.096784 -0.253235 -0.516909 0.643362 0.856865 0.670776 0.526891 0.367707 -0.453000 -0.116176 0.840897 0.237959 0.069209 0.783269 0.342748 -0.190965 0.354550 0.167555 -0.127237 -0.568845 0.750623 0.496797 0.116441 -0.990024 0.237095 -0.820111 -0.715683 -0.333358 -0.059339 0.780893 0.094920 0.843877 -0.472343 0.578011 0.487239 -0.615477 0.248787 0.014130 0.752229 0.795787 0.897954 0.593126 0.033746 -0.032837 0.376395 -0.623506 0.776198 -0.269055 0.544049 -0.351039 0.162099 0.294671 -0.854242 -0.721459 0.304647 0.382853 -0.541570 0.588964 -0.950505 0.399090 0.369856 0.144415 0.242967 0.897514 -0.277574 -0.269794 -0.717964 0.971213 0.744336 -0.965735 0.767001 0.642290 0.627391 -0.199253 -0.390548 0.003786 0.177240 -0.614350 0.734730 -0.278711 0.034611 -0.103170 -0.984039 0.180369 0.175371 0.320608 -0.436778 0.633800 -0.090429 -0.387283 0.032891 -0.720572 0.757133 -0.724142 -0.823059 -0.520441 0.006064 -0.541023 -0.549228 -0.249600 -0.506758 -0.782227 -0.607311 -0.879366 0.018520 0.002142 0.124419 -0.804240 0.387792 -0.140850 -0.082951 -0.577597 0.755980 -0.066990 0.602771 -0.068650 -0.746382 -0.834007 -0.434849 0.163189 -0.221289 0.598041 0.442617 -0.464157 0.873899 0.619558 0.015402 -0.120037 -0.921465 0.466175 0.630363 -0.428222 0.683948 -0.976948 -0.307588 -0.297532 0.025194 0.816831 -0.101772 -0.587015 -0.324019 0.815277 -0.164612 -0.568039 -0.251713 -0.561841 0.363311 0.001905 -0.395848 0.928462 -0.834906 0.382863 0.526503 0.607711 0.918706 0.400402 0.227270 -0.065892 -0.719635 0.305805 -0.599717 0.910728 0.877583 -0.915769 0.933780 -0.430005 -0.213302 -0.041027 -0.613174 0.684926 0.371958 0.062806 0.500204 -0.792654 0.494767 -0.751509 -0.354495 -0.141922 0.250396 0.249657 -0.213460 0.415490 -0.367480 -0.686957 0.023202 -0.448774 0.713445 -0.749529 0.485334 0.993810 0.556276 0.885617 0.904537 0.433859 0.969848 0.838317 -0.996146 -0.243454 -0.202710 -0.609321 -0.558527 -0.830752 0.453486 0.941676 -0.623406 -0.051747 -0.809833 0.022098 0.806331 0.440563 -0.728245 -0.407129 -0.143946 -0.095725 -0.094086 0.879256 0.455500 -0.380642 -0.870273 -0.059166 -0.386832 0.686003 -0.173549 -0.482295 0.119863 -0.203701 -0.643979 0.123717 0.552845 0.153311 0.514396 0.994318 0.322559 -0.032118 0.935994 0.699152 0.916134 -0.873838 -0.278749 0.722465 0.566725 -0.006994 -0.684664 -0.577221 0.897281 0.221250 -0.697966 0.352781 0.840608 -0.568239 -0.706385 -0.546224 -0.882235 0.120067 -0.028519 0.237627 0.916366 0.327503 -0.638656 0.469211 -0.519186 0.875740 0.463529 0.803372 -0.156378 0.399524 0.502525 -0.240244 0.525685 -0.776225 -0.517778 0.092410 0.216781 -0.202442 0.515189 0.114062 -0.981192 0.817224 -0.533157 0.859416 -0.751015 -0.239542 -0.686808 -0.633250 0.880525 0.284673 0.604377 0.796891 -0.387824 0.965721 0.266102 0.092990 0.841461 -0.270368 -0.103638 -0.314917 -0.870844 -0.601113 0.444839 0.654841 -0.377338 0.927061 -0.252748 0.839443 -0.275382 -0.737559 -0.046495 -0.256574 -0.920336 0.420348 -0.397157 -0.671351 -0.819194 -0.083965 -0.304601 -0.938669 -0.799291 -0.700224 0.858221 -0.187116 -0.734503 0.124324 0.905874 -0.893042 0.853956 -0.197764 -0.207959 0.983111 0.201123 -0.763120 0.637952 0.823785 -0.836060 -0.614796 0.663228 -0.111441 -0.352355 -0.383267 0.631985 -0.272691 -0.962920 -0.765172 0.055958 -0.782114 0.150863 0.751357 -0.720784 0.351571 -0.948867 -0.862562 -0.835544 -0.683370 0.261762 -0.929670 -0.576412 0.115717 -0.127434 0.215629 0.098828 -0.926311 0.452508 -0.263219 0.897473 0.616448 0.121985 0.560701 -0.494993 0.769629 -0.822566 -0.863008 -0.503062 -0.785486 -0.628180 0.552897 -0.567600 0.522683 0.304254 -0.288384 -0.125746 0.355387 -0.150946 0.038710 0.672017 -0.889184 0.109040 -0.904395 0.226533 0.981606 0.311234 -0.674639 -0.944706 -0.236257 0.062141 0.952768 -0.619809 -0.815874 0.513469 -0.114802 0.953755 0.690903 0.022190 -0.549306 0.905417 0.394010 -0.996409 -0.662183 -0.083307 0.307845 0.049433 0.790947 -0.336768 0.898487 -0.170343 -0.664751 -0.990697 0.938697 -0.569145 0.235835 0.920303 0.742089 0.561196 0.975597 -0.494168 -0.376663 0.928365 -0.113977 -0.192537 0.441834 0.771221 -0.238782 0.132736 -0.206589 0.211912 0.038153 -0.812578 0.215503 0.375970 0.104115 -0.476653 -0.574598 -0.104938 0.186579 -0.676111 0.724719 0.521829 -0.666808 0.663416 0.952684 0.569027 0.583719 0.694773 0.130223 0.559317 -0.799395 0.753561 0.487682 0.086627 -0.438976 -0.070485 -0.142152 0.322242 -0.937748 0.651259 -0.465845 0.100405 0.838681 0.749657 -0.523626 -0.057205 -0.726995 -0.098223 0.837857 0.459584 0.225666 0.562576 -0.018587 0.558858 0.225993 -0.065903 0.127886 -0.190288 -0.371130 -0.741891 -0.630971 -0.170526 -0.988330 0.856711 0.916101 -0.427307 -0.213774 -0.226051 0.894936 -0.151522 -0.574791 -0.570910 0.948883 -0.736111 -0.821252 -0.574743 0.206684 -0.548248 0.327034 0.044542 0.911336 -0.447300 -0.392882 -0.107251 -0.888442 0.833111 0.826846 0.239444 -0.357177 -0.544284 0.497553 0.011852 0.285190 0.509222 -0.131437 0.201291 -0.918084 0.654790 0.975241 0.976851 -0.496732 -0.599551 -0.594058 -0.547850 -0.335662 -0.415311 -0.122593 0.871023 0.036441 -0.795559 -0.084435 -0.052222 -0.242859 0.522683 0.840527 -0.131300 0.355794 0.667373 -0.891857 0.998617 -0.876912 0.605696 0.010470 0.408278 0.114918 0.879033 -0.390431 0.196834 0.533823 -0.415190 0.173685 -0.962910 -0.014741 0.579627 -0.510759 0.649598 -0.835684 0.366648 0.520621 0.200758 0.571089 -0.563815 -0.851465 -0.671769 0.958868 0.989062 0.196930 0.314662 0.656434 0.305074 0.313279 0.779523 -0.089230 -0.676251 0.187801 -0.974312 -0.797218 0.797370 0.222521 0.736605 -0.617820 -0.603794 0.773695 0.367439 0.975833 -0.737064 0.017037 -0.859851 0.629584 -0.462342 0.340907 0.200674 -0.026157 0.489442 0.528904 -0.067289 0.478504 -0.274165 -0.752627 0.134939 -0.969092 0.560653 -0.085539 -0.058322 0.884402 -0.897738 -0.032634 -0.912816 0.899632 -0.810113 0.823789 -0.718188 -0.413906 0.597485 0.649251 -0.438073 0.860421 -0.333712 -0.297924 0.490005 0.203945 -0.957017 -0.309321 -0.822212 0.532425 -0.780417 0.110500 0.010929 -0.054582 0.357873 -0.854132 -0.023674 -0.081474 0.060329 0.918004 -0.197072 0.162591 -0.114630 -0.109888 0.062223 0.075257 -0.286098 0.344035 0.661351 -0.688614 -0.006714 -0.776722 -0.828193 0.659573 -0.074646 0.661812 -0.136481 -0.031663 -0.647509 0.041307 -0.499238 -0.427926 -0.848193 0.511691 0.517492 0.509680 0.657560 -0.506182 -0.571794 -0.282111 -0.588178 0.231134 0.880480 0.297193 -0.878753 -0.057296 -0.627550 -0.164852 -0.713262 -0.966199 0.146535 0.280024 -0.742921 0.318342 -0.060403 0.182433 -0.019846 0.803116 -0.849231 0.332645 -0.155577 -0.348469 0.904719 -0.003770 -0.836777 0.422210 -0.494090 0.820782 0.916028 -0.065885 -0.461329 -0.672149 -0.834750 -0.580848 0.625043 -0.713504 0.361855 0.997494 0.121644 0.648594 -0.968705 -0.731821 -0.071382 -0.711626 0.586521 0.868215 0.470806 -0.433325 0.671331 0.621575 0.899320 -0.484246 -0.726893 0.804038 0.511984 -0.563671 0.226249 -0.982107 -0.742889 0.142277 -0.047991 -0.204217 0.470127 0.117258 0.214934 0.095171 0.403754 -0.423211 0.092664 -0.474601 -0.774617 0.123959 -0.206422 0.154001 0.412333 -0.619901 0.022216 -0.116861 -0.053226 -0.306453 -0.495286 -0.153906 0.209301 -0.222179 -0.349867 -0.278716 0.214150 0.876381 -0.260823 0.471261 0.018658 0.691186 -0.732956 -0.511215 -0.191556 0.481978 0.583956 -0.787802 -0.941232 -0.323380 -0.262404 -0.715849 0.800579 0.531174 0.438152 0.212912 0.911273 -0.539632 -0.903950 -0.141952 0.153914 -0.399236 0.704142 -0.636785 0.378585 -0.645725 0.084499 -0.407265 -0.769344 0.823676 -0.936004 0.249314 0.514862 -0.668959 0.738099 -0.676694 0.813019 0.322056 -0.464496 0.871787 0.998676 0.273100 -0.844062 0.799255 -0.195726 0.594090 0.012167 -0.284452 -0.945543 0.108217 0.573595 0.208371 0.708982 0.277737 0.571586 0.087567 0.632012 -0.343915 0.680302 0.862668 -0.520239 0.744298 0.111982 0.994623 -0.924661 -0.149919 -0.682071 0.888358 -0.827863 -0.146567 0.760145 -0.829187 -0.873467 0.916082 0.970068 -0.069193 0.510172 -0.017766 0.646355 0.564629 -0.909548 0.219950 -0.227000 0.799433 -0.502313 -0.655414 -0.113000 -0.870301 0.000672 -0.432698 0.992366 0.480433 -0.688400 0.104348 0.475056 -0.613061 0.954429 0.792985 -0.724703 -0.873434 -0.353582 -0.964559 -0.702622 -0.227049 0.951524 -0.732554 0.703758 0.461696 0.249680 0.350113 0.026325 0.340132 -0.429937 0.799325 0.139565 0.067750 -0.856088 -0.973435 0.197448 0.144583 -0.406133 0.189815 -0.374984 -0.094533 -0.705837 -0.899928 0.292406 -0.751408 0.893057 0.567703 -0.624842 -0.460525 0.603144 -0.327464 0.312426 0.554668 -0.060018 0.016184 0.016364 -0.810337 -0.633703 -0.957312 0.529795 -0.063641 0.842014 -0.330640 -0.995891 0.985925 -0.304075 0.201558 0.130508 0.289792 -0.608628 0.755524 -0.804740 -0.314465 0.855596 0.487666 -0.065873 0.748654 0.055369 0.309285 -0.711871 -0.341487 0.981822 0.600555 -0.786819 -0.078196 -0.383260 0.229544 0.111467 -0.016964 0.272233 -0.358738 0.919396 0.114246 0.310622 0.923505 0.100172 -0.993453 0.125063 -0.769320 0.296339 0.516435 0.986204 0.491599 -0.798030 0.841801 -0.020735 0.136098 0.590454 -0.965367 -0.554617 0.878584 -0.306854 -0.572795 0.479139 -0.093673 0.349009 -0.904121 -0.864129 -0.539523 0.078915 0.408104 0.101738 -0.001689 -0.477649 -0.587640 -0.078184 0.622522 -0.581093 -0.953121 0.853202 0.715246 0.563314 0.839406 0.206845 0.765284 0.681207 -0.813891 -0.098618 0.271661 -0.779257 0.346765 0.150245 -0.086111 0.773971 -0.370616 0.820216 0.122980 -0.274737 0.956087 0.583457 0.804178 0.364192 -0.314805 -0.197511 0.886542 0.097555 0.724305 0.509064 0.516462 0.771184 0.362266 0.231709 0.334498 0.201673 -0.561446 0.099782 -0.117121 -0.375337 -0.998836 -0.845459 -0.154594 0.347930 0.304786 0.759295 0.121900 0.934170 0.579511 -0.755120 -0.340567 0.535598 0.828337 -0.536390 -0.100211 -0.486468 0.266099 -0.213669 0.611087 -0.009596 -0.704604 0.127549 -0.238412 0.657662 -0.640742 -0.903915 -0.140665 -0.202189 0.195867 0.742214 0.422474 0.197032 0.896755 -0.732120 -0.455039 0.201541 -0.972826 0.666862 0.135710 0.606685 0.911742 0.795143 0.142283 0.740079 -0.741247 -0.957928 -0.746390 0.524853 -0.171597 0.864697 -0.484743 0.123799 -0.007754 0.276845 -0.218539 0.351504 0.372930 0.640796 -0.850685 -0.431202 0.383010 0.571789 0.765829 0.279765 0.839669 -0.689209 -0.518695 0.866844 0.977652 0.617016 0.473529 0.889394 0.412159 -0.384189 0.629473 0.670912 -0.342117 0.883084 0.195765 0.486287 0.747781 0.711022 -0.389914 -0.259973 -0.012133 0.391547 -0.908468 -0.639203 0.032343 -0.759153 -0.070405 -0.584648 0.812636 -0.304576 0.695117 0.652305 0.006215 -0.823578 0.519149 -0.016133 0.793438 -0.007322 -0.126738 0.205597 0.608489 -0.497265 -0.123491 -0.733628 -0.614182 -0.927726 0.752659 -0.866401 0.783295 -0.637255 -0.126373 -0.228838 0.754291 -0.034842 0.131959 -0.213366 0.206005 -0.938447 0.201986 0.018641 -0.243022 -0.102896 -0.329053 0.763192 0.073526 -0.809904 -0.252940 -0.133036 0.182773 0.620321 -0.927439 -0.208738 -0.876944 -0.050930 0.057634 -0.491126 0.021343 -0.189707 -0.357526 -0.195361 0.173037 0.516101 0.575800 -0.072671 -0.518741 -0.292241 0.713963 0.687264 -0.230687 -0.084051 -0.294094 0.526290 0.813053 0.376852 0.289483 -0.113421 0.566948 -0.963458 0.753543 -0.250279 0.656863 0.826104 0.540983 0.779920 -0.224826 -0.401383 -0.711206 0.796517 0.408910 -0.068732 -0.398844 -0.418053 -0.552631 -0.823043 0.509276 -0.071372 -0.115284 0.223239 -0.384108 0.654028 -0.860812 0.321798 0.180319 0.952241 -0.301350 -0.530199 -0.161180 -0.734402 -0.493657 -0.407637 0.015319 -0.836793 -0.581532 -0.443699 0.943126 0.193642 0.154918 -0.768080 -0.009840 -0.436172 0.163188 0.591316 0.145775 0.610557 0.768272 -0.344949 -0.460816 -0.347012 0.878290 0.155076 -0.692984 -0.982522 -0.523126 0.487335 0.969719 0.175524 0.957136 -0.191461 0.441121 -0.536520 0.400902 -0.543560 -0.373313 0.819370 0.012741 -0.430187 0.013012 -0.832340 -0.198267 -0.996828 -0.268513 0.964921 0.594488 0.877263 0.575478 0.362760 -0.467686 -0.885338 -0.984252 -0.589397 0.269739 -0.677236 -0.571919 0.746612 0.810100 -0.602200 -0.077864 0.767236 0.206339 -0.636743 -0.769284 -0.392758 -0.180303 -0.142597 -0.573388 0.832439 0.427216 0.439624 -0.999902 -0.771051 0.442796 -0.268415 -0.806129 0.037284 -0.391152 0.769349 -0.599956 0.141162 0.884011 -0.584208 0.551765 0.153750 -0.261444 0.979846 -0.099638 -0.451344 -0.622354 0.822498 -0.684108 0.583985 -0.814244 -0.453392 -0.808773 0.005453 0.404011 -0.382161 -0.162108 -0.168774 -0.942537 -0.162010 0.060175 0.500260 0.569575 0.254046 -0.462456 -0.821577 0.023395 -0.062413 0.319585 -0.092594 0.353379 -0.128650 -0.938845 -0.908065 -0.148804 -0.038482 -0.359409 0.228842 -0.215984 -0.043517 -0.187172 -0.030228 0.503091 0.004055 0.975225 -0.092899 0.621894 -0.186884 0.738327 0.679357 0.651106 -0.201497 0.179617 0.220681 -0.947451 0.717160 0.399104 0.075943 -0.345253 -0.281311 0.983349 -0.991874 0.590039 -0.955496 -0.899938 -0.558765 0.006022 -0.259347 0.670077 0.790038 0.697135 -0.517095 -0.240191 0.200226 0.486959 -0.264966 -0.892673 0.108853 0.548151 0.845654 -0.211790 0.199257 -0.355843 0.967827 -0.580062 -0.303294 0.684987 0.819042 0.772649 -0.660266 -0.462269 0.755998 -0.652139 -0.872230 0.800502 -0.552078 -0.430996 -0.193476 0.188575 -0.760919 -0.403438 -0.114290 -0.278014 0.356371 -0.914064 -0.791055 -0.908595 -0.806737 0.317798 0.639556 -0.961083 -0.893991 -0.161187 -0.316926 -0.926165 0.258750 0.379780 0.758822 0.077792 0.152429 -0.901444 0.615523 -0.091573 -0.553583 0.743293 -0.291070 -0.105661 -0.687703 0.515454 -0.917086 -0.448622 -0.887985 -0.031376 0.273364 0.468387 0.054560 0.482309 0.559792 0.247822 -0.199893 0.199348 0.286739 -0.093884 -0.961839 0.969813 -0.020049 0.296911 0.349593 -0.261227 -0.625297 -0.497977 -0.162671 0.990226 0.410450 0.283746 0.733519 -0.880621 -0.821915 -0.954185 0.634833 -0.739001 -0.402807 0.746848 0.229623 0.870557 0.215235 -0.715818 0.352866 -0.224973 0.532005 -0.847027 0.974375 -0.181256 0.059089 -0.987464 -0.211443 -0.960960 0.309446 -0.861849 -0.222187 0.684149 -0.359827 0.615143 0.674375 -0.949377 -0.101111 0.407894 -0.829998 0.076974 0.453710 0.804835 0.337973 -0.949097 0.551684 -0.432404 0.921460 -0.233081 -0.148222 0.274326 0.541946 -0.616217 0.427299 0.516321 0.202527 -0.513612 0.528856 0.991084 -0.474571 -0.161697 -0.870765 0.303242 -0.477548 -0.230592 -0.081615 -0.803172 -0.179969 0.817273 0.604722 -0.009966 -0.105753 0.058431 -0.205131 -0.767780 0.109334 -0.653447 -0.200184 0.030794 0.113471 0.651594 -0.694880 -0.344583 -0.964623 0.732420 -0.828262 0.237904 -0.781192 0.700594 0.228988 -0.255763 -0.461103 0.358223 -0.952521 0.061349 -0.872368 -0.034137 0.258177 -0.052337 -0.216863 -0.137101 0.937697 0.677384 0.921330 -0.267434 0.909604 0.030665 0.079118 -0.290579 -0.938541 -0.807410 -0.638985 -0.633421 -0.151993 -0.603608 -0.901001 0.019745 0.634296 -0.682193 -0.279661 -0.136715 0.062044 0.259236 -0.778492 0.109523 -0.679414 -0.650860 -0.924614 0.578763 0.296803 -0.141477 -0.558338 0.234500 -0.464093 -0.637008 0.967066 -0.554489 0.393656 0.046184 0.154931 0.455115 0.238774 0.515946 0.821695 -0.913219 0.912339 0.920694 0.106526 0.546635 -0.761499 0.826865 -0.590080 0.300545 0.086101 -0.368571 -0.589932 0.406687 -0.019431 -0.514545 -0.014550 -0.722628 0.343977 0.427112 0.511872 0.879884 0.790104 0.478937 -0.674605 0.183760 -0.474879 0.480326 -0.361125 0.763895 -0.003727 -0.539430 0.850675 -0.091388 -0.618736 -0.042799 -0.544753 -0.380235 -0.215934 -0.134833 0.920310 0.870167 0.496596 -0.669621 0.276855 -0.522836 -0.184167 -0.737695 -0.245464 -0.840189 0.689417 -0.733592 -0.960305 0.479520 0.745345 -0.634910 -0.336720 -0.729534 0.845416 0.302156 -0.965639 -0.158311 0.762726 0.885036 0.750301 -0.856010 -0.157763 -0.794452 -0.236245 0.626303 0.070715 -0.315935 0.496471 -0.432689 0.014444 -0.226675 0.044475 0.830277 0.035630 0.799011 0.990088 -0.274953 -0.934581 -0.970217 -0.795433 0.810763 -0.605127 -0.132152 -0.918771 -0.759711 -0.829996 -0.884410 0.081979 0.932729 -0.999374 -0.167720 -0.923281 -0.157137 0.037827 -0.159526 -0.530834 -0.891458 0.524539 0.965637 -0.324147 -0.461017 -0.261038 0.720328 -0.630740 0.774593 0.519339 -0.640651 -0.500361 0.584757 -0.610868 -0.295793 0.395521 -0.215995 0.572054 0.476750 0.024294 0.742058 0.592340 -0.893727 0.674787 0.592966 -0.061448 0.751507 -0.564170 0.976380 -0.408020 -0.095004 -0.915078 -0.883481 -0.129367 -0.239225 -0.344498 0.609596 -0.518897 0.024762 0.384188 -0.999559 0.384111 0.883827 0.585198 0.773243 
-0.411966 -0.019281 -0.442752 -0.839912 -0.542531 0.581542 0.902146 -0.950191 0.687815 0.576934 0.642775 -0.373633 0.328440 -0.921395 -0.397253 0.920421 -0.016399 -0.312331 -0.963060 0.854234 0.448444 -0.307558 0.463830 0.929547 0.717205 -0.151982 0.929988 0.101316 -0.268155 0.515186 -0.125441 0.319879 -0.504095 0.431806 0.479967 -0.046626 0.013348 0.382114 0.003183 -0.298837 -0.040953 -0.354041 0.327531 -0.712512 -0.275436 0.930278 -0.792092 0.708165 -0.382052 -0.755152 0.562399 -0.933608 -0.062710 0.026228 0.995939 -0.345505 0.874246 0.925927 0.755810 -0.393909 0.441114 -0.369631 0.925970 0.937019 -0.937824 0.405938 -0.109607 0.075524 -0.211949 0.893577 0.776688 0.747099 -0.460465 0.104218 -0.965414 0.264099 0.034497 -0.757505 -0.027736 0.652444 -0.512657 -0.465338 0.718837 0.424633 0.560891 0.714776 -0.920872 0.435137 0.640703 0.834938 -0.958772 0.081817 -0.534693 0.967198 0.018836 -0.472517 0.373136 0.909229 0.603007 -0.838813 0.802806 0.379694 0.908286 -0.657658 -0.516087 0.942872 0.606441 0.518410 -0.814633 -0.421296 0.170854 -0.327290 0.113366 -0.110309 -0.902657 -0.325743 -0.395534 -0.823530 -0.890606 -0.754830 -0.988591 -0.849378 0.326986 -0.523284 -0.882180 -0.654178 0.004199 0.490956 -0.744948 -0.392794 0.652144 -0.942142 0.986900 0.560430 -0.599800 -0.529187 0.503302 -0.993360 0.989223 0.688669 -0.414656 0.160077 -0.638621 0.698711 -0.950233 -0.541279 -0.627032 -0.345766 -0.364808 -0.517638 -0.100597 -0.353400 -0.367016 -0.773610 0.123316 -0.249196 -0.427788 -0.872485 -0.758239 -0.172736 -0.265279 0.893904 -0.114878 -0.278379 0.454334 0.285322 0.192435 -0.042363 0.291962 0.181657 -0.353694 0.877307 -0.658266 0.007685 0.576017 -0.608499 0.466406 0.948986 0.045735 -0.898402 -0.568653 0.945139 -0.251802 0.064331 -0.828472 0.871515 0.815136 -0.256260 0.999030 -0.943104 0.571004 -0.266249 0.950801 -0.543874 0.455372 0.405135 0.741448 -0.352193 -0.637229 0.033410 0.829464 0.009077 -0.089283 -0.828802 -0.983238 -0.513266 -0.437300 0.483168 -0.564280 0.608435 0.584766 -0.132933 0.553574 -0.667035 0.931399 0.725102 -0.795521 0.746534 -0.531158 -0.796491 0.803430 -0.960154 -0.062740 0.754231 -0.504027 -0.607368 0.159366 -0.762579 0.040439 0.522137 0.270831 -0.130097 -0.468785 -0.818452 0.041101 -0.452023 -0.331718 0.603801 -0.968855 0.104002 0.212236 0.615911 0.971070 -0.234190 0.948876 0.902468 -0.509088 -0.846645 0.649003 -0.040247 -0.643136 0.452433 -0.000400 0.294124 0.206664 0.495572 0.686756 -0.633970 0.732993 -0.272805 0.888167 0.003824 0.597098 -0.580618 0.185372 -0.361801 -0.032641 0.853655 -0.757999 -0.001496 -0.042343 0.454237 -0.385585 -0.071273 -0.779953 -0.436709 -0.168805 -0.289042 -0.283354 -0.519802 0.670712 0.073510 0.932631 -0.329689 -0.632366 0.139295 -0.834116 -0.945610 0.505325 0.898877 -0.218415 0.393493 -0.097299 -0.621317 0.812875 -0.911927 0.016882 -0.219767 0.941727 0.258883 0.778737 -0.100616 -0.286880 -0.606848 0.828111 -0.066834 -0.043558 -0.340694 0.644125 0.673088 0.139503 0.314836 -0.253402 0.072134 0.985148 0.114232 -0.788571 -0.848969 0.168622 0.716754 -0.950092 0.950206 0.110247 -0.047392 -0.671111 -0.076878 0.040681 0.345772 0.703355 -0.017592 -0.395345 0.482092 0.881792 0.317774 0.875244 0.709903 -0.749059 -0.168314 -0.630791 0.895065 -0.495226 0.508712 0.209902 0.251372 -0.419154 0.195049 -0.634396 -0.207724 0.346080 0.534225 -0.490970 0.395988 0.484432 0.619277 -0.651404 0.813321 -0.457601 0.389278 0.159093 -0.754246 -0.628314 0.763747 0.727846 -0.746522 0.081522 0.603090 0.963381 0.332463 -0.565224 -0.667410 0.227528 -0.060450 0.841302 -0.562570 -0.809078 -0.577852 0.632479 -0.443475 0.214424 -0.021441 -0.909249 0.723454 -0.625453 0.575182 0.342731 -0.276856 0.388503 0.885130 -0.887579 -0.452404 -0.869116 -0.515893 -0.688656 0.858730 -0.262415 0.392866 0.461819 -0.299034 -0.274672 0.896595 0.033556 0.952856 -0.163855 -0.125141 -0.609714 0.027067 0.297007 -0.977236 0.583592 -0.488569 0.001324 0.674342 -0.765115 0.375871 0.249525 0.577616 -0.900986 -0.361972 0.462746 -0.788565 0.185624 0.593630 -0.304458 0.496968 0.452360 0.433127 -0.110166 -0.085821 -0.865906 0.615162 -0.189226 0.167650 0.568018 0.646919 -0.957491 0.958304 -0.326014 0.339516 0.981068 -0.742423 0.850947 -0.017608 0.931920 -0.914168 -0.641738 0.181445 0.663448 -0.542723 0.819473 0.126194 -0.331288 0.005097 -0.280176 0.364254 -0.497935 -0.827816 -0.202618 0.391899 0.086363 -0.068525 0.007061 0.897137 -0.900874 -0.424921 0.544056 -0.858366 -0.466617 -0.781958 0.481150 -0.485549 -0.524381 0.332097 0.496843 -0.592461 0.417929 0.855105 0.588984 0.081378 -0.687618 0.408456 -0.792428 -0.018906 -0.586446 -0.072604 -0.654652 -0.084381 0.099579 0.142730 -0.692482 -0.814058 -0.925795 0.314579 -0.916921 -0.826669 0.889658 0.627135 -0.685035 -0.576959 0.845176 0.796116 -0.062508 -0.679205 0.128213 -0.565665 -0.271666 -0.453858 -0.710559 -0.682682 0.627520 -0.398177 0.725775 0.835092 0.582917 -0.860672 -0.237513 0.928265 0.054947 0.862066 0.070995 0.362466 -0.951992 0.145201 -0.322955 -0.868914 0.318532 -0.433297 0.758221 0.633497 -0.010255 0.603397 0.429612 0.927237 0.924193 -0.442175 -0.638428 -0.347473 0.103968 -0.348987 -0.030155 -0.268512 0.252836 -0.304380 -0.433421 -0.164247 -0.165052 0.329066 -0.235982 0.889896 0.191132 0.835014 0.252361 0.239140 -0.019786 0.929406 0.370227 -0.701254 -0.503891 0.128448 0.932243 0.485854 -0.268155 0.361855 0.413091 -0.343962 0.919680 0.774663 0.308565 0.023648 -0.574324 -0.721589 0.755135 0.678512 -0.025969 -0.678286 -0.485735 0.808979 0.650780 0.278283 0.698875 -0.158087 0.113297 -0.048764 -0.918947 -0.906489 -0.119358 0.451279 -0.607743 0.376751 -0.420273 -0.675500 -0.137395 0.311572 0.686355 -0.724304 0.967610 0.606035 -0.949641 0.276175 -0.370317 -0.523964 0.554586 -0.615182 -0.845452 -0.471384 -0.293468 -0.331187 -0.662405 -0.642687 0.947097 -0.963530 0.199225 0.060394 -0.012294 0.280278 0.153905 0.868348 -0.268442 0.546162 0.245099 0.311285 0.870661 -0.892295 -0.377143 0.557016 -0.616599 -0.409534 0.163051 -0.566240 0.866641 0.792733 -0.090204 0.421227 -0.822449 0.064344 0.949843 -0.115916 0.733158 -0.712561 0.241396 0.680254 -0.676091 -0.559378 -0.259352 0.311615 0.720900 0.894553 0.179963 -0.547542 0.440715 -0.574938 0.763742 0.311376 -0.467233 -0.613401 -0.131608 -0.083833 -0.022935 -0.968557 0.349927 -0.156293 0.824176 -0.740276 -0.735066 -0.998272 0.324068 -0.785223 -0.114189 0.057225 -0.497784 -0.872792 -0.262520 -0.173875 -0.432170 0.478128 -0.862260 -0.711270 0.372680 0.317703 -0.258813 -0.186605 0.742765 -0.495070 -0.875229 -0.724469 -0.108471 -0.006837 0.191698 0.868594 0.024606 -0.458374 -0.287699 -0.151218 -0.198651 -0.022765 -0.149490 -0.874583 0.192013 0.736321 0.182643 0.694229 0.863529 0.920122 -0.479646 -0.568642 0.398250 -0.341906 -0.279912 -0.229069 0.975796 0.461275 0.584326 0.718561 0.966205 0.709097 0.994092 -0.142266 -0.297740 0.185790 -0.273672 0.726866 0.727416 0.438629 -0.424352 -0.471234 -0.584136 0.426158 -0.345817 0.607877 0.162479 0.836825 0.302106 0.026008 0.756948 0.822459 0.457366 0.155198 -0.519447 -0.822546 0.926128 -0.543651 0.638729 0.510454 -0.825090 0.604934 0.219551 -0.830998 -0.537332 0.921811 0.354793 0.188997 0.648677 0.082209 -0.372374 -0.775675 0.610975 0.043490 0.650483 -0.734843 -0.348633 -0.187038 -0.898017 0.953473 0.838970 0.858931 0.775932 0.296336 0.014128 -0.743515 0.473789 -0.059744 -0.287166 0.112519 -0.549290 -0.112255 -0.282547 0.670261 0.056747 0.180121 0.592072 -0.588460 -0.630882 0.240748 0.493749 -0.003256 0.465073 0.104724 -0.959766 0.115556 0.369881 -0.308399 0.928518 0.471864 -0.354926 0.767488 0.330795 -0.578994 0.063823 -0.655077 -0.322509 -0.462387 0.285179 0.390325 0.650131 0.735890 -0.721930 -0.632416 0.406151 0.334817 0.547706 -0.001778 0.746357 0.916824 -0.761030 0.240106 -0.086432 0.704043 -0.655170 -0.046198 -0.180401 0.714711 0.645403 -0.251882 0.186575 -0.709524 -0.484395 -0.482630 -0.288518 0.579429 -0.137707 0.388973 -0.882959 -0.852528 -0.220702 0.767173 0.883362 0.057367 -0.865243 0.289513 -0.607816 0.682463 -0.712265 -0.861459 0.599287 -0.473295 0.378647 -0.487146 -0.769252 0.723477 0.466656 0.050348 0.438188 0.112059 0.798465 -0.375236 0.402535 -0.685929 0.142134 -0.885983 0.893499 -0.995573 0.502990 -0.989459 -0.848101 -0.717713 0.777713 -0.964739 0.339655 0.912470 0.324774 0.731839 0.594933 0.612509 0.870380 0.194220 -0.860786 0.249027 0.707074 -0.630038 -0.027496 0.173730 0.420310 -0.589307 -0.714212 0.218775 0.035457 0.688323 0.532846 -0.822409 0.802340 0.426345 -0.817982 0.305330 0.436886 -0.666083 0.587617 0.214599 -0.630822 -0.072728 0.127070 0.693952 -0.340890 -0.277997 0.306460 -0.470510 0.916223 0.445674 0.778518 0.623297 0.815636 -0.248978 -0.202973 0.235946 0.161715 0.082815 -0.545279 -0.802828 -0.228861 0.987567 -0.625238 -0.426521 0.413912 -0.443220 0.878809 -0.149202 -0.109303 0.466426 -0.934603 0.259875 -0.606303 0.192467 -0.046173 0.052808 0.914469 -0.739712 0.582298 0.830692 0.705962 0.360816 0.453989 0.521598 -0.888162 -0.748984 -0.242456 0.273552 0.333831 0.212265 0.470724 -0.895031 0.199831 0.845487 -0.321552 -0.386257 -0.597733 -0.442743 0.464541 0.292964 -0.976317 0.529938 -0.447161 -0.582620 -0.277596 0.506666 0.470188 -0.363126 0.766954 0.052486 -0.532434 0.472915 -0.586698 0.921555 -0.005487 -0.474861 -0.827429 0.752057 0.798692 0.506402 -0.035679 0.269416 0.611371 -0.835847 0.114903 -0.710181 -0.222104 0.517169 -0.152923 -0.757563 -0.189867 -0.129240 0.772374 0.362972 0.288140 -0.505221 -0.130362 -0.241672 0.131652 -0.363408 0.810814 0.599218 -0.890493 -0.775884 0.520773 0.104020 -0.250744 0.693344 -0.143923 -0.452052 0.199746 0.820398 0.817364 -0.188883 0.984550 -0.067733 0.100936 -0.237554 -0.550564 0.948013 0.004883 0.259569 -0.181228 -0.222743 -0.377459 -0.893088 0.272036 0.492179 -0.134760 -0.596312 -0.871229 -0.323945 -0.997094 -0.761723 -0.099829 0.523680 0.342298 0.649427 0.217024 -0.801626 -0.802625 -0.583230 -0.981228 -0.985261 0.227887 -0.996678 -0.052995 -0.671177 -0.234232 0.396441 -0.723164 0.770651 -0.343990 0.095608 -0.452092 0.278551 0.202521 0.819943 -0.229270 -0.932239 -0.776369 -0.100500 -0.256184 -0.773463 0.137778 0.643987 0.750217 -0.519925 0.293414 -0.032759 -0.321551 0.490789 0.384011 -0.302779 0.505528 -0.388102 -0.299457 -0.547467 -0.059279 0.466311 0.848974 0.217557 0.236962 -0.495016 -0.686834 0.784870 0.783535 0.515687 0.604813 -0.445736 0.583448 0.828444 0.453765 -0.672736 -0.945019 -0.408458 0.971252 0.805198 0.071618 0.264666 -0.227560 0.750067 -0.244545 -0.843549 -0.552712 -0.739017 -0.231651 0.147832 -0.286484 0.709071 -0.385857 -0.437511 -0.073372 0.851105 0.067473 0.239794 0.635975 -0.148992 -0.244519 0.240788 0.405272 -0.661071 0.069232 -0.140964 -0.333807 0.124213 0.450579 -0.362555 -0.070589 -0.477804 0.902111 0.701851 -0.727736 -0.342434 0.858302 -0.280448 -0.081452 -0.373348 0.867384 0.632064 -0.664278 -0.518473 -0.805447 0.262351 -0.667367 0.262026 -0.497855 0.968608 -0.886966 0.257626 0.209396 0.518306 0.596555 -0.721373 -0.622658 -0.737252 0.402840 0.827921 -0.099808 -0.667748 -0.649883 -0.197697 -0.965897 -0.377619 0.459869 0.892405 0.341933 -0.621583 -0.480943 0.209317 -0.989519 -0.145221 0.690844 -0.794965 -0.882871 -0.976523 0.467061 -0.380726 0.992084 0.580095 0.876900 0.201480 0.098401 0.473454 0.480108 0.475743 0.736202 -0.117052 0.303664 -0.363605 0.215200 0.653781 0.438698 0.249302 -0.723838 -0.101433 0.141707 0.618094 0.276984 0.660764 -0.172589 0.287465 -0.484457 -0.481745 0.492500 -0.367328 -0.458269 -0.040439 0.251946 -0.466184 -0.460344 0.128846 0.735296 0.638057 -0.397699 0.215403 0.113800 -0.661497 -0.901649 -0.582536 -0.025103 0.313551 -0.928756 -0.586405 -0.437147 -0.652594 0.312162 0.704560 0.965500 -0.410854 0.365324 -0.207089 0.876611 0.880867 0.311166 0.369112 -0.486460 0.852897 -0.671327 0.765486 -0.613287 -0.131671 -0.105668 -0.877991 -0.493614 0.496633 0.337412 0.620186 0.835136 0.435763 -0.962350 -0.189967 -0.250686 -0.891106 0.223628 0.312167 -0.543700 -0.464210 0.016727 -0.578200 0.124936 -0.617949 0.214711 0.001547 -0.737081 -0.474123 -0.629341 -0.223542 -0.621226 -0.300668 -0.458056 -0.234513 0.567661 0.436277 -0.112504 -0.925953 -0.067091 -0.775092 0.694233 -0.231955 0.660671 0.731883 0.578078 -0.590015 0.840777 -0.198294 0.722151 -0.702924 0.337497 -0.261122 -0.281123 -0.537567 0.120930 0.933588 0.463980 0.383848 -0.540535 0.834639 -0.839693 -0.161761 -0.466029 -0.297749 0.603726 -0.898368 -0.861473 -0.508778 -0.824322 0.071437 -0.283870 0.869911 0.839482 -0.623199 0.601794 0.417560 -0.213214 0.442571 -0.780733 -0.491063 0.739647 0.556763 0.247815 -0.541476 -0.980804 -0.631255 -0.607889 0.483176 0.752594 -0.148424 0.317815 0.912900 0.689815 0.851786 -0.384849 0.293542 0.953417 -0.246321 0.784764 -0.870904 0.825115 -0.499107 0.999007 0.664597 -0.122306 0.600801 0.082157 0.664480 0.043372 0.301424 -0.826583 -0.216981 -0.141813 0.421232 0.241543 -0.122617 0.789978 0.633655 -0.639441 0.542571 -0.514769 0.678374 0.455472 -0.824954 0.530159 -0.929377 0.468588 0.483577 -0.175698 0.253351 0.612672 -0.350583 0.754245 0.611679 -0.685986 -0.368061 0.212481 0.396172 -0.703581 -0.744147 -0.302404 -0.530164 0.038872 0.555783 0.891068 -0.719585 -0.566834 0.681046 0.914070 -0.206275 0.223618 -0.600699 -0.527901 -0.320911 -0.425653 -0.997742 -0.250287 -0.957065 0.485835 0.574014 0.296286 0.098507 -0.776569 0.050531 -0.289814 -0.462554 0.682470 0.922667 0.933618 0.978889 -0.821480 -0.368786 -0.551275 0.217391 -0.813003 -0.660207 0.497806 -0.379837 -0.979161 0.411876 0.413889 0.244457 0.811177 0.885988 0.923546 -0.614476 0.888246 -0.326741 -0.571541 0.374081 -0.752727 0.724744 -0.527412 -0.529296 -0.224725 0.182775 0.008150 -0.542255 0.105442 -0.058232 -0.563366 0.283961 0.572982 -0.114641 -0.498647 0.759979 0.225152 0.999159 -0.619857 0.245992 0.411036 0.794031 -0.509552 0.222212 0.680019 -0.586005 0.607736 0.568265 0.087253 -0.963805 -0.057654 0.334526 0.760939 0.414935 0.805231 -0.463786 -0.402291 -0.186619 -0.006040 0.703151 0.755149 0.430594 -0.012887 0.328131 -0.684047 0.488465 0.088111 0.541105 0.487625 0.468253 -0.212903 -0.101340 0.262285 0.277545 -0.879127 -0.057696 0.691540 0.728609 -0.489431 -0.221207 0.764804 0.452915 -0.886681 0.525743 -0.132150 0.918550 -0.938043 0.465559 -0.268069 0.055917 0.168711 -0.512920 -0.513489 -0.844177 0.815211 -0.197536 0.644289 -0.096678 -0.656431 0.131913 -0.628425 0.130666 -0.969426 0.633860 -0.591789 -0.848554 -0.423836 -0.900249 0.880055 0.086733 -0.121456 0.644859 -0.460352 -0.008137 0.170601 0.407498 -0.089587 0.232559 -0.126943 0.642344 -0.711524 -0.958232 -0.870576 -0.225014 -0.802409 0.944635 0.577450 0.841880 -0.152044 0.921019 -0.026207 0.219531 0.051684 0.004367 -0.146609 0.459895 0.155813 0.429555 0.559646 0.035868 -0.483713 -0.561810 -0.319274 0.055935 0.430053 0.851328 -0.536567 -0.659534 0.083886 0.336490 0.982810 0.372362 0.378258 -0.887767 -0.852652 0.575849 -0.943132 0.724798 0.417729 -0.095176 0.645817 -0.608478 -0.875645 -0.302499 0.395888 -0.022253 -0.842603 -0.448299 -0.592699 0.717043 0.587569 -0.076411 -0.844768 -0.731705 0.979524 0.585285 -0.880377 -0.557043 0.925751 0.203510 0.779447 0.908561 -0.424129 0.157706 -0.979206 -0.276780 -0.266445 -0.922338 -0.551982 -0.848716 -0.017514 -0.906165 -0.457195 0.106842 -0.208664 0.938694 -0.915412 -0.051268 -0.509605 -0.508110 -0.334225 -0.922036 0.415478 -0.178993 -0.653741 0.395003 -0.593707 -0.534117 0.837960 -0.667956 0.669392 0.617407 -0.759395 -0.754736 -0.224887 -0.738601 -0.031517 0.508668 -0.660939 0.416501 0.659951 0.321547 0.510336 -0.797244 -0.571611 -0.698328 -0.858550 -0.487023 0.250404 -0.368155 0.004867 0.916179 -0.290191 -0.579654 -0.262813 0.056069 0.815348 0.143479 0.521951 0.653308 0.475523 0.191343 0.270715 0.716128 0.436607 -0.954172 0.977527 -0.594910 0.554496 -0.683412 0.821591 0.214447 0.638135 0.331927 0.417203 -0.933476 0.633598 0.558653 -0.420498 -0.115997 -0.809502 0.584369 -0.199818 -0.099692 -0.995285 0.537368 0.956377 0.820063 -0.319152 0.478328 0.473371 -0.843629 -0.330329 -0.255914 0.872499 -0.893722 -0.210086 0.850026 -0.488632 -0.655591 -0.833386 -0.667040 0.558856 0.804750 0.664886 -0.023941 0.871274 0.298485 -0.465288 -0.549224 -0.817513 -0.274790 -0.964855 -0.017331 0.625518 -0.960140 -0.479963 0.581895 0.859922 0.200885 0.060223 0.333293 0.357256 0.729894 -0.922621 0.229756 0.836172 -0.132708 0.079782 -0.652460 0.211702 0.246396 -0.319500 -0.229443 0.051146 -0.654613 0.746616 -0.077580 0.643872 -0.718672 0.373196 0.826359 0.006538 0.408341 -0.190972 -0.367943 0.448201 0.329066 -0.786049 0.308123 -0.470049 0.274174 -0.358584 0.887207 0.004068 -0.281205 0.116963 -0.159760 0.586087 -0.803255 0.187780 -0.202211 0.443141 0.868280 0.568346 -0.505713 -0.786333 0.314962 0.416707 0.857538 0.596290 -0.210097 0.683897 -0.397171 -0.801756 -0.507074 0.234885 0.646445 0.821991 0.448836 -0.045432 -0.648058 -0.276990 0.595984 -0.760851 0.727078 -0.685221 0.356112 -0.432683 0.900866 0.552857 0.755098 -0.301345 -0.004002 0.623378 -0.732999 0.490285 0.837045 0.581963 -0.093007 0.694583 0.178253 0.696896 0.378481 0.781082 0.895141 0.871406 0.015967 0.541586 0.693397 -0.535197 -0.503846 -0.954661 0.187813 -0.907862 -0.715512 -0.085109 -0.593083 0.640600 0.482208 -0.692217 0.193457 0.237306 0.006438 -0.810545 -0.139316 0.273438 0.679741 -0.302271 -0.144599 -0.413267 -0.607688 -0.966346 -0.716370 0.770792 0.814736 -0.821230 0.642198 -0.169297 0.720356 0.335595 0.295506 -0.783490 0.380935 -0.516681 -0.691352 0.665423 0.398210 -0.284435 0.306023 -0.119582 0.023348 -0.500519 -0.882276 -0.970215 -0.311064 -0.021593 0.303223 -0.631323 0.676136 -0.841375 -0.044590 -0.931552 -0.807721 0.239040 0.839240 -0.992985 0.417810 0.481438 -0.162282 0.138166 -0.182966 -0.866776 0.354675 -0.802032 -0.383457 0.663323 0.863391 -0.985248 -0.621112 0.169414 -0.104830 0.402236 0.668895 0.012894 0.432021 -0.642169 0.991301 -0.264756 -0.273492 0.667437 -0.106131 0.681918 0.735885 0.086148 -0.079042 0.575125 0.093163 -0.661232 0.056563 0.930881 0.476933 0.873597 -0.935895 -0.168391 -0.928435 -0.319353 -0.505068 0.934956 -0.304600 -0.126180 0.104370 0.590570 -0.723944 -0.226735 -0.396536 0.708077 0.131096 -0.405235 -0.556679 0.857604 -0.737798 0.337190 0.539522 0.998087 -0.576662 -0.539520 0.573212 0.516501 -0.200752 -0.370225 0.447382 -0.723819 -0.496628 0.511487 0.107790 -0.425063 -0.807866 0.602722 -0.490107 -0.112467 -0.523458 0.614263 -0.521897 -0.247403 -0.612471 0.081567 -0.539326 0.518625 0.676332 -0.096005 0.376229 0.938534 -0.758815 -0.084249 0.936622 -0.335477 0.376231 0.509834 -0.818976 -0.824521 -0.860390 0.628406 -0.548340 -0.357019 0.139893 0.559449 0.217918 0.332026 0.162171 0.727811 -0.780440 0.638713 0.342074 -0.302337 -0.608690 0.729603 0.779230 -0.148016 0.248228 0.455562 0.755979 -0.375543 0.394096 0.997164 0.540209 0.330718 -0.338313 -0.083560 -0.159448 -0.157289 0.091919 -0.019838 -0.528883 0.543578 0.623143 0.611010 0.103028 -0.158938 -0.056963 -0.734801 -0.431127 0.162596 0.903912 0.910947 0.860259 -0.704778 0.640550 0.639489 0.147206 -0.111221 0.095051 -0.096815 0.513236 -0.510853 -0.099650 0.053445 0.819865 0.562037 0.969885 -0.339582 -0.595252 0.061803 0.640580 -0.124134 -0.394618 0.263723 -0.513124 0.708409 -0.895215 0.429913 0.973608 -0.326342 -0.407491 0.877519 -0.415395 -0.547232 -0.827259 -0.774845 -0.907743 0.319947 0.113934 0.187308 -0.776867 -0.372830 0.676455 0.123482 0.680615 0.496320 -0.314481 0.650499 -0.843262 0.090268 -0.287697 0.797317 0.966134 0.317684 0.061040 -0.546990 0.026093 0.165825 0.882922 -0.000299 0.839483 -0.524569 -0.122779 -0.575913 -0.071801 0.049962 -0.350757 0.020456 -0.630091 0.763177 -0.792236 -0.406958 -0.609653 0.884219 0.716524 -0.929038 0.380539 -0.597956 0.721461 0.537277 0.492312 -0.566237 0.334594 0.458445 0.751447 -0.604365 0.911455 -0.222459 0.561460 0.794378 0.777242 0.400942 -0.730191 -0.345537 0.825030 0.198008 0.704425 -0.525728 -0.781536 -0.925666 -0.762551 -0.573772 -0.332624 -0.372204 -0.689553 -0.616100 -0.301242 0.690986 -0.214056 -0.579781 0.228263 -0.721744 -0.146018 -0.437143 0.736701 -0.394570 -0.041508 0.648156 0.382970 -0.480048 0.442534 0.160212 0.920894 0.712343 0.814675 0.745924 -0.089650 0.519100 -0.779804 0.128814 0.593434 -0.542354 0.555042 -0.739190 0.085442 0.865489 -0.355290 0.784199 0.556475 0.430654 -0.795582 -0.215262 0.708910 0.058400 0.347595 0.445611 0.663830 -0.693913 0.093767 0.046800 -0.173961 -0.463699 -0.792988 -0.253067 -0.751356 -0.978313 -0.507144 0.158994 0.540787 -0.286947 -0.712192 0.134220 0.170698 0.842851 0.395030 -0.743860 0.708340 -0.960260 -0.959661 0.264815 0.470394 -0.755243 -0.950447 0.179304 0.303157 0.397148 -0.375086 -0.033013 0.703235 0.718682 -0.986214 -0.470726 -0.745018 -0.779201 0.276206 -0.496374 -0.757514 0.769063 0.662620 0.783272 -0.517884 0.950428 -0.082507 0.652814 0.793279 -0.687477 0.908954 0.501619 -0.647738 0.949293 -0.233565 0.822656 -0.805950 -0.184012 0.001960 0.497207 -0.786864 0.626874 -0.535807 0.916371 0.345556 -0.522020 -0.554355 0.600538 -0.301222 0.721851 -0.895836 -0.058736 0.490914 0.766784 -0.275464 0.973030 0.717213 0.642029 0.625844 0.510492 0.954552 0.534798 0.012111 -0.693186 0.484090 0.778546 -0.870530 0.678140 -0.405466 0.131430 0.175347 -0.192330 -0.241695 0.639541 -0.275958 -0.896140 -0.882479 0.169687 0.704398 -0.183701 -0.108462 0.808563 0.757563 -0.617547 0.575347 -0.517901 -0.644518 0.292559 -0.875871 0.981326 -0.196949 -0.921320 0.516124 0.815162 -0.614505 0.000214 0.593709 -0.485035 -0.321645 -0.811757 0.646395 0.853702 -0.004087 -0.595300 0.493242 0.719955 -0.491440 0.610763 -0.110358 -0.787042 -0.572938 0.781180 -0.978479 -0.815375 -0.836367 0.596868 -0.333276 -0.480885 -0.110573 -0.209147 -0.499559 0.692478 -0.130467 -0.983435 0.507641 0.255028 0.016779 0.101349 0.769993 0.695134 0.289592 0.416388 0.548836 -0.714495 0.821088 0.042078 -0.994540 -0.670352 -0.347159 -0.104899 -0.457394 0.079903 -0.323719 -0.435873 0.264527 -0.160086 -0.839005 0.931252 0.359029 0.050422 -0.277895 0.859470 -0.257100 0.591638 0.876036 -0.749460 -0.153334 -0.107185 0.351889 -0.383342 -0.412051 -0.358519 -0.966954 -0.863216 -0.073014 0.854134 0.178862 -0.067554 -0.816218 0.831703 0.827547 -0.273612 -0.088394 -0.496171 0.290516 -0.823867 0.343743 0.451510 -0.892615 -0.297228 -0.498068 -0.170511 -0.437757 0.244832 -0.578873 -0.561722 0.495372 0.267793 0.331093 -0.152738 0.884451 0.919042 0.488743 0.917498 -0.944174 -0.584271 0.771632 0.234688 0.348175 0.955414 0.066391 0.175722 -0.318197 0.977997 0.679551 0.972318 -0.845870 0.023294 0.423829 -0.738485 0.726066 0.925761 0.091004 -0.711691 0.170593 0.512132 -0.273413 -0.334035 -0.220076 -0.942320 0.513227 -0.335624 0.976721 0.001969 -0.418127 -0.967452 0.417698 -0.646495 0.267236 -0.234127 -0.691080 -0.666373 0.941596 -0.009278 -0.688376 0.621147 -0.036960 -0.534246 -0.355559 -0.613131 -0.272731 -0.629493 -0.687370 0.818274 -0.341185 0.483222 0.330405 0.385402 -0.850813 -0.889670 0.443082 0.662414 -0.225295 0.419803 -0.335617 0.356579 0.452351 -0.917918 0.710084 -0.280413 -0.152045 -0.980996 0.053214 -0.210450 0.009726 0.364838 -0.589303 0.972766 0.830593 0.055138 -0.640365 -0.442138 0.425645 -0.327735 -0.623864 -0.915540 -0.844512 0.706541 0.469862 -0.695325 0.816871 -0.087056 0.967089 -0.408424 -0.667253 -0.368528 0.948155 0.785098 -0.286446 0.658239 -0.495315 0.561508 0.677243 0.557899 -0.648941 -0.313032 -0.077263 -0.238244 -0.340265 -0.246671 0.816894 0.019370 0.311191 0.242539 0.691635 0.687327 0.326999 0.847123 0.393868 -0.203138 -0.848202 0.210739 0.709806 -0.881113 0.802315 -0.957447 -0.249641 0.750470 0.827652 0.463912 0.408709 -0.667664 0.025421 0.085951 0.890235 0.376479 0.772920 -0.187028 -0.861764 -0.567346 0.566302 0.955130 0.452024 -0.122507 0.197669 0.143660 -0.435180 -0.475332 -0.009218 0.958688 0.321530 0.142580 0.169427 0.031335 0.261467 -0.028258 0.073889 -0.988175 
/
-3.570115 -2.173086 -8.442369 -2.920062 1.696963 0.241963 1.772540 -0.815469 0.877637 -2.185993 3.886600 -3.932346 6.553450 2.299571 -2.797522 -0.125529 
/
